{
  "version": "1.0",
  "truncation": null,
  "padding": null,
  "added_tokens": [
    {
      "id": 0,
      "content": "<PAD>",
      "single_word": false,
      "lstrip": false,
      "rstrip": false,
      "normalized": false,
      "special": true
    },
    {
      "id": 1,
      "content": "<BOS>",
      "single_word": false,
      "lstrip": false,
      "rstrip": false,
      "normalized": false,
      "special": true
    },
    {
      "id": 2,
      "content": "<EOS>",
      "single_word": false,
      "lstrip": false,
      "rstrip": false,
      "normalized": false,
      "special": true
    },
    {
      "id": 3,
      "content": "<EOD>",
      "single_word": false,
      "lstrip": false,
      "rstrip": false,
      "normalized": false,
      "special": true
    }
  ],
  "normalizer": {
    "type": "NFKC"
  },
  "pre_tokenizer": {
    "type": "ByteLevel",
    "add_prefix_space": true,
    "trim_offsets": true,
    "use_regex": true
  },
  "post_processor": null,
  "decoder": {
    "type": "ByteLevel",
    "add_prefix_space": true,
    "trim_offsets": true,
    "use_regex": true
  },
  "model": {
    "type": "BPE",
    "dropout": null,
    "unk_token": null,
    "continuing_subword_prefix": null,
    "end_of_word_suffix": null,
    "fuse_unk": false,
    "byte_fallback": false,
    "vocab": {
      "<PAD>": 0,
      "<BOS>": 1,
      "<EOS>": 2,
      "<EOD>": 3,
      "¡": 4,
      "¢": 5,
      "£": 6,
      "¤": 7,
      "¥": 8,
      "¦": 9,
      "§": 10,
      "¨": 11,
      "©": 12,
      "ª": 13,
      "«": 14,
      "¬": 15,
      "®": 16,
      "¯": 17,
      "°": 18,
      "±": 19,
      "²": 20,
      "³": 21,
      "´": 22,
      "µ": 23,
      "¶": 24,
      "·": 25,
      "¸": 26,
      "¹": 27,
      "º": 28,
      "Ø": 29,
      "Ù": 30,
      "Ċ": 31,
      "Ġ": 32,
      "ģ": 33,
      "Ĥ": 34,
      "ĥ": 35,
      "Ħ": 36,
      "ħ": 37,
      "Ĩ": 38,
      "ĩ": 39,
      "Ī": 40,
      "ī": 41,
      "Ĭ": 42,
      "Ń": 43,
      "Ø§": 44,
      "ÙĦ": 45,
      "ĠÙ": 46,
      "ĠØ": 47,
      "ÙĨ": 48,
      "Ùħ": 49,
      "ÙĬ": 50,
      "ÙĪ": 51,
      "Ø§ÙĦ": 52,
      "Ùĩ": 53,
      "Ø±": 54,
      "ĠØ§ÙĦ": 55,
      "ĠÙĪ": 56,
      "Ùĥ": 57,
      "Øª": 58,
      "Ø¨": 59,
      "ĠÙħ": 60,
      "Ø¹": 61,
      "ĠØ£": 62,
      "Ø¯": 63,
      "Ø³": 64,
      "ĠÙģ": 65,
      "ĠÙĦ": 66,
      "ĠÙĬ": 67,
      "ÙĤ": 68,
      "Ø°": 69,
      "ÙĪØ§": 70,
      "ÙĬÙĨ": 71,
      "ĠØ¨": 72,
      "ÙĩÙħ": 73,
      "ĠØ¥": 74,
      "ÙĪÙĨ": 75,
      "Ùģ": 76,
      "ØŃ": 77,
      "Ø£": 78,
      "ÙĦÙĩ": 79,
      "ĠÙħÙĨ": 80,
      "ĠØ¹": 81,
      "ÙĨØ§": 82,
      "ÙħØ§": 83,
      "ÙĦØ§": 84,
      "Ùī": 85,
      "ĠØª": 86,
      "Ø¬": 87,
      "ĠÙĥ": 88,
      "ÙĥÙħ": 89,
      "Ø©": 90,
      "ĠÙĤ": 91,
      "ĠØ§ÙĦÙĦÙĩ": 92,
      "Ø§Ø": 93,
      "ÙĦÙĬ": 94,
      "ĠÙģÙĬ": 95,
      "ÙħÙĨ": 96,
      "Ø®": 97,
      "Øµ": 98,
      "ĠØ±": 99,
      "ĠØ¥ÙĨ": 100,
      "ÙĩØ§": 101,
      "Ø¶": 102,
      "Ø²": 103,
      "Ø§ÙĨ": 104,
      "Ø´": 105,
      "ĠØ£ÙĨ": 106,
      "Ø¥": 107,
      "ĠÙĪØ§ÙĦ": 108,
      "ÙĦÙī": 109,
      "ĠÙĨ": 110,
      "Ø§Ø¨": 111,
      "ĠÙĩ": 112,
      "ĠØ§ÙĦØ°": 113,
      "ÙĦÙħ": 114,
      "Ø§Øª": 115,
      "ĠÙħØ§": 116,
      "ĠØ³": 117,
      "Ø·": 118,
      "ÙĦÙĥ": 119,
      "ÙĬØ±": 120,
      "Ø§Ø¡": 121,
      "Ø«": 122,
      "Ø¦": 123,
      "ĠØ±Ø¨": 124,
      "ĠØ¢": 125,
      "ÙĪÙĦ": 126,
      "ÙĪÙħ": 127,
      "ĠÙĪØ£": 128,
      "ĠØ§ÙĦÙħ": 129,
      "ĠØŃ": 130,
      "Øº": 131,
      "ØªÙħ": 132,
      "ĠÙĦØ§": 133,
      "ĠØ¬": 134,
      "ĠØ§ÙĦØ°ÙĬÙĨ": 135,
      "ĠØ¹ÙĦÙĬ": 136,
      "ĠØ®": 137,
      "ÙģØ±": 138,
      "ÙĬÙħ": 139,
      "Ø°Ø§": 140,
      "ĠØ´": 141,
      "ĠØ§ÙĦØ£": 142,
      "ĠÙĤØ§ÙĦ": 143,
      "ĠÙĪØ¥": 144,
      "ĠØ¹ÙĦÙī": 145,
      "Ø¸": 146,
      "Ø±Ø§": 147,
      "ĠÙĪÙĦ": 148,
      "ĠØ¥ÙĦØ§": 149,
      "ĠÙĪÙĦØ§": 150,
      "ĠÙĪÙħØ§": 151,
      "Ø¡": 152,
      "Ø¢": 153,
      "Ø±Ø¶": 154,
      "Ø¤": 155,
      "ĠØ¨Ø§ÙĦ": 156,
      "ĠØ°": 157,
      "ĠØ¹ÙĨ": 158,
      "Ø¹ÙĦ": 159,
      "ĠÙĥØ§ÙĨ": 160,
      "ÙĬØ§": 161,
      "ĠØ£ÙĪ": 162,
      "ĠØ§ÙĦØ³": 163,
      "Ø³Øª": 164,
      "Ø±ÙĪÙĨ": 165,
      "ĠÙĪÙĬ": 166,
      "ĠØ§ÙĦØ±": 167,
      "Ø¹Ø¯": 168,
      "Ø§Ø¯": 169,
      "ÙĬØ¯": 170,
      "Ø¹Ùħ": 171,
      "Ø¹ÙĦÙħ": 172,
      "Ø®Ø±": 173,
      "ĠØ«": 174,
      "ĠÙĤÙĦ": 175,
      "Ø§Ø±": 176,
      "ĠØ£Ùħ": 177,
      "ÙĦÙĪÙĨ": 178,
      "ĠØ§ÙĦØŃ": 179,
      "ĠØ¥ÙĦÙī": 180,
      "ĠØ¯": 181,
      "ĠÙģØ£": 182,
      "ĠØ§ÙĦØ¹": 183,
      "ĠÙĪÙħÙĨ": 184,
      "ÙĦÙĤ": 185,
      "ĠÙĪÙĤ": 186,
      "ĠÙĦÙĩÙħ": 187,
      "Ø¤ÙħÙĨ": 188,
      "ĠØ«Ùħ": 189,
      "ÙĥØ±": 190,
      "ĠØµ": 191,
      "ÙĩØ¯": 192,
      "ĠÙģØ¥": 193,
      "ÙĬÙĨØ§": 194,
      "ĠØ§ÙĦÙĤ": 195,
      "ÙģØ³": 196,
      "ĠÙĦÙĬ": 197,
      "ĠØ¨Ùĩ": 198,
      "ĠÙĬØ§": 199,
      "ĠØ§": 200,
      "Ø±ÙĬ": 201,
      "Ø¹ÙĪÙĨ": 202,
      "ĠÙĪÙĥ": 203,
      "Ø¨ÙĬ": 204,
      "ĠØ§ÙĦÙĥ": 205,
      "ĠÙĦÙĥÙħ": 206,
      "Ø°Ø¨": 207,
      "Ø°Ø§Ø¨": 208,
      "ÙĪØ±": 209,
      "ÙĤØ¯": 210,
      "ĠÙĪØ¥ÙĨ": 211,
      "ĠØ¢ÙħÙĨ": 212,
      "ĠØº": 213,
      "ĠÙĦÙĩ": 214,
      "ÙĬØ§Øª": 215,
      "Ø´Ø±": 216,
      "ÙĦÙĪØ§": 217,
      "ĠØ§ÙĦØ±ØŃ": 218,
      "ÙĦÙĨØ§": 219,
      "ÙĨÙĬ": 220,
      "ĠØ¨ÙħØ§": 221,
      "Ø±Ø¨": 222,
      "Ø±Ø³": 223,
      "ĠÙĬÙĪÙħ": 224,
      "ĠØ§ÙĦÙĨØ§": 225,
      "Ø¨ÙĦ": 226,
      "ĠØ´ÙĬ": 227,
      "ĠØ§ÙĦØ³ÙħØ§": 228,
      "ØªÙĬ": 229,
      "ĠØ§ÙĦØ£Ø±Ø¶": 230,
      "Ø§Ø¦": 231,
      "ĠÙĪØ¬": 232,
      "Ø¦Ùĥ": 233,
      "ĠØ°ÙĦÙĥ": 234,
      "ØªØ§Ø¨": 235,
      "ĠÙĩÙĪ": 236,
      "Ø°ÙĬÙĨ": 237,
      "ÙĨØªÙħ": 238,
      "Ø¨ÙĬÙĨ": 239,
      "Ø³Ùħ": 240,
      "ĠÙĥÙĦ": 241,
      "Ø¨Ø¹": 242,
      "ÙĤÙĪÙĦ": 243,
      "ĠØ§ÙĦØ°ÙĬ": 244,
      "ĠÙĩÙħ": 245,
      "Ø¨Ø±": 246,
      "ĠØ¨ÙĬÙĨ": 247,
      "ĠØ¢ÙħÙĨÙĪØ§": 248,
      "ÙĩÙĨ": 249,
      "Ø¨Ø¯": 250,
      "ĠØ§ÙĦØµ": 251,
      "ĠØ¥ÙĦÙĬ": 252,
      "ĠØ±Ø¨Ùĥ": 253,
      "Ø®Ø°": 254,
      "ĠÙĤØ§ÙĦÙĪØ§": 255,
      "ÙħÙĬÙĨ": 256,
      "ÙĥÙĪÙĨ": 257,
      "ĠÙģÙĬÙĩØ§": 258,
      "ĠÙĪØ§ÙĦÙĦÙĩ": 259,
      "ĠÙĦÙħ": 260,
      "ĠÙģØ¥ÙĨ": 261,
      "ÙĩÙĪ": 262,
      "ĠÙħØ¹": 263,
      "ĠÙĪØ§": 264,
      "ĠØ¨Ø¹": 265,
      "ĠÙĬØª": 266,
      "ÙĬØ¨": 267,
      "ĠÙĥØ§ÙĨÙĪØ§": 268,
      "ĠÙĥÙģØ±": 269,
      "ÙĪØ¨": 270,
      "ĠØ£ÙĬ": 271,
      "ĠÙĬÙĨ": 272,
      "ĠÙĦÙĦ": 273,
      "ÙĬØ±Ø§": 274,
      "ĠØ¹ÙĦÙĬÙĩÙħ": 275,
      "ĠØ¥Ø°Ø§": 276,
      "ĠÙĪØª": 277,
      "ĠÙĪØ§ÙĦØ£": 278,
      "ĠÙĤØ¯": 279,
      "ĠÙĬØŃ": 280,
      "ÙĪØ§Øª": 281,
      "Ø²ÙĦ": 282,
      "Ø¹Ø§": 283,
      "Ø¬Ø±": 284,
      "ÙĬÙĦ": 285,
      "ĠØ¨Ø¹Ø¯": 286,
      "ĠÙħÙĪ": 287,
      "ĠÙĬØ±": 288,
      "ĠØ¬Ø§Ø¡": 289,
      "ÙĪÙĦØ¦Ùĥ": 290,
      "ÙĤÙĪØ§": 291,
      "ĠØ¹Ø°Ø§Ø¨": 292,
      "ÙħØ±": 293,
      "ØŃÙħ": 294,
      "ÙĪÙģ": 295,
      "Ø¯Ø§": 296,
      "Ø³Ø¨": 297,
      "ĠÙĬØ´": 298,
      "ÙĪÙĩ": 299,
      "ĠÙģØ§": 300,
      "ĠØ§ÙĦØ¯": 301,
      "ĠÙĤØ¨ÙĦ": 302,
      "Ø³Ùī": 303,
      "ĠÙģÙĦ": 304,
      "ĠÙĩØ°Ø§": 305,
      "ĠØ´ÙĬØ¡": 306,
      "ØªÙī": 307,
      "ĠÙĥÙģØ±ÙĪØ§": 308,
      "ĠÙĥÙĨØªÙħ": 309,
      "ĠÙĤÙĪÙħ": 310,
      "Ø³Ø±": 311,
      "ĠØ¹ÙĨØ¯": 312,
      "ĠØ£ØŃ": 313,
      "ĠØ§ÙĦÙĨØ§Ø³": 314,
      "ĠØ§ÙĦØ³ÙħØ§ÙĪØ§Øª": 315,
      "Ø³ÙĨ": 316,
      "ÙĤØ§": 317,
      "ĠØªØ±": 318,
      "ĠØ¸": 319,
      "ĠØ§ÙĦÙĨ": 320,
      "ĠÙĪÙĨ": 321,
      "ĠÙĪØ£ÙĨ": 322,
      "ĠØ·": 323,
      "Ø²ÙĬ": 324,
      "ĠØ®ÙĦÙĤ": 325,
      "ĠØ§ÙĦØ¬": 326,
      "ÙĪØ¯": 327,
      "ØªÙĩ": 328,
      "ØªÙĩÙħ": 329,
      "ÙħÙĬ": 330,
      "ĠÙĪÙĩÙĪ": 331,
      "ÙĤÙĬÙĨ": 332,
      "ĠØ¨Ø£": 333,
      "Ø¢Ø®Ø±": 334,
      "Ø§ÙĦÙħÙĬÙĨ": 335,
      "ĠÙĬØ¹ÙĦÙħ": 336,
      "ÙĬØ©": 337,
      "ĠØ¥Ø°": 338,
      "ĠÙħÙĨÙĩÙħ": 339,
      "ĠÙĪØ§ÙĦØ°ÙĬÙĨ": 340,
      "ĠØ¹ÙĦÙĬÙĥÙħ": 341,
      "Ø¢ÙĬØ§Øª": 342,
      "ĠØ§ÙĦÙĥØªØ§Ø¨": 343,
      "Ø§Ùģ": 344,
      "ĠÙĬØ£": 345,
      "ĠØ¥ÙĨØ§": 346,
      "ÙħØ¹": 347,
      "ĠØ£Ùģ": 348,
      "ÙĦÙģ": 349,
      "ĠÙģØª": 350,
      "ĠØ¨ÙĦ": 351,
      "ĠÙĪÙĤØ§ÙĦ": 352,
      "ĠØ±Ø³": 353,
      "ĠØ¶": 354,
      "ĠÙģÙĦØ§": 355,
      "ĠØ§ÙĦØ±ØŃÙħÙĨ": 356,
      "ĠÙĪØ§ÙĦØ£Ø±Ø¶": 357,
      "ĠÙĦÙĥ": 358,
      "Ø¬Ø¯": 359,
      "ÙĪÙĦØ§": 360,
      "ÙĤÙĪÙĨ": 361,
      "ĠØ£Ùĩ": 362,
      "ĠÙĬÙĥ": 363,
      "ĠØ§ÙĦØ´": 364,
      "Ø°ÙĦÙĥ": 365,
      "ĠØ£ÙĬÙĩØ§": 366,
      "ĠÙĪØ¹": 367,
      "Ø®Ø±Ø¬": 368,
      "Ø¨Ø§": 369,
      "ĠÙĦÙĨ": 370,
      "ÙĨØ©": 371,
      "Ø§Ø·": 372,
      "ĠØ¥ÙĨÙĩ": 373,
      "ĠØ¹ÙĦÙĬÙĩ": 374,
      "ĠØ§ÙĦØ±ØŃÙĬÙħ": 375,
      "Ø¤ÙħÙĨÙĬÙĨ": 376,
      "Ø§ÙĦØŃ": 377,
      "ĠÙĬØ¹": 378,
      "ÙģØ§": 379,
      "ĠØ¯ÙĪÙĨ": 380,
      "ØªØ§": 381,
      "ĠØªØŃ": 382,
      "ĠØŃØªÙī": 383,
      "ĠÙĪÙĩÙħ": 384,
      "Ø¶ÙĦ": 385,
      "Ø¹ÙħÙĦÙĪÙĨ": 386,
      "Ø°Ø±": 387,
      "ĠØ¨Ø§ÙĦÙĦÙĩ": 388,
      "Ø§ÙģØ±": 389,
      "ÙģØª": 390,
      "ØµØ±": 391,
      "ĠØ£Ø¬": 392,
      "ĠØ³Ø¨ÙĬ": 393,
      "ĠØ²": 394,
      "ÙĬÙħØ§": 395,
      "ĠÙħØ«": 396,
      "ĠÙĪØ¥Ø°Ø§": 397,
      "ĠØ£ÙĪÙĦØ¦Ùĥ": 398,
      "ĠÙĪÙĦÙĥ": 399,
      "ĠØ¨Ø¹Ø¶": 400,
      "ĠØ§ÙĦØ®": 401,
      "Ø¯ÙĬÙĨ": 402,
      "Ø°ÙĥØ±": 403,
      "ĠØ¥ÙĨÙĬ": 404,
      "ĠØ¢ÙĬØ§Øª": 405,
      "Ø¤ÙħÙĨÙĪÙĨ": 406,
      "ĠØ§Øª": 407,
      "ÙĪØª": 408,
      "ĠÙĪÙħ": 409,
      "ĠÙĪÙĦÙĤØ¯": 410,
      "ĠÙħÙĪØ³Ùī": 411,
      "ĠÙģØ±": 412,
      "ĠÙĬØ¯": 413,
      "ĠÙģÙĬÙĩ": 414,
      "ĠÙĬØ³Øª": 415,
      "ØŃØ±": 416,
      "ÙģÙĬ": 417,
      "ÙĨÙĬØ§": 418,
      "ĠØ£Ùĥ": 419,
      "ÙĤØª": 420,
      "ĠÙĪÙĥØ§ÙĨ": 421,
      "ĠØ§ÙĦØ¸": 422,
      "Ø¹ÙĪØ§": 423,
      "ÙĪØŃ": 424,
      "ĠÙĬØ®": 425,
      "ÙĩÙħØ§": 426,
      "ÙĨØ§Øª": 427,
      "ĠÙĬØ´Ø§Ø¡": 428,
      "ĠÙĪÙĦÙĪ": 429,
      "Ø¹ÙĦÙĨØ§": 430,
      "Ø¯ÙĪÙĨ": 431,
      "ĠÙĪØ±": 432,
      "ĠØªÙĥ": 433,
      "ÙĨØª": 434,
      "ÙĪØ±Ø§": 435,
      "ĠÙĪØ¨": 436,
      "ĠÙĦÙĦÙĩ": 437,
      "ĠØ®ÙĬØ±": 438,
      "Ø§ÙĤ": 439,
      "ÙĨÙĩÙħ": 440,
      "ĠÙĬØ³": 441,
      "ĠØ¨Ø³Ùħ": 442,
      "ØºÙģØ±": 443,
      "ĠØ£Øµ": 444,
      "ĠÙĦØ£": 445,
      "ÙĦÙĬÙħ": 446,
      "ĠØ§ÙĦØ¯ÙĨÙĬØ§": 447,
      "Ø¢Ø®Ø±Ø©": 448,
      "ĠÙĪÙĦÙĥÙĨ": 449,
      "ĠÙħØ±": 450,
      "ĠØ£ÙĨÙģØ³": 451,
      "ÙĬØª": 452,
      "Ø¹Ø©": 453,
      "ĠØ¥ÙĨÙħØ§": 454,
      "ĠÙħØ³": 455,
      "ÙĨØ³": 456,
      "ÙħØ³": 457,
      "ĠØ§ÙĦØº": 458,
      "ĠÙħÙħØ§": 459,
      "ĠÙĦÙĪ": 460,
      "ĠÙĦÙĤ": 461,
      "ĠØªØª": 462,
      "ĠØ±Ø¨ÙĩÙħ": 463,
      "ĠØªØ¹": 464,
      "ĠÙĥØ°Ø¨": 465,
      "ĠØ§ÙĦØ¨": 466,
      "ĠÙĪÙĦÙĬ": 467,
      "ĠØ§ÙĦØŃÙĤ": 468,
      "ĠØ§ÙĦØ³ÙħØ§Ø¡": 469,
      "ÙĩØ§Ø±": 470,
      "ĠØ§Ø³Øª": 471,
      "ÙħØ©": 472,
      "Ø¨Ø§Ø¯": 473,
      "ĠÙĦØª": 474,
      "ĠÙħÙĨÙĥÙħ": 475,
      "ĠÙĨÙģØ³": 476,
      "ĠØ£ÙĨØ²ÙĦ": 477,
      "ĠØ±Ø¨ÙĨØ§": 478,
      "ĠØ¹ÙĦÙĬÙħ": 479,
      "ĠÙģÙħÙĨ": 480,
      "Ø«Ø±": 481,
      "ÙĪÙĥ": 482,
      "ĠØªØ¬": 483,
      "ØªÙĪØ§": 484,
      "ĠÙĦØ¹ÙĦ": 485,
      "ØŃÙĤ": 486,
      "Ø®ÙĦ": 487,
      "Ø²ÙĤ": 488,
      "ÙĤÙĪÙĦÙĪÙĨ": 489,
      "ÙĦØ¨": 490,
      "ÙĩØ±": 491,
      "ĠØ¥ÙĦÙĩ": 492,
      "ĠØ¹ÙĦÙħ": 493,
      "ĠØªØ£": 494,
      "ĠØ±Ø¨ÙĥÙħ": 495,
      "ĠØ§ÙĦÙĨØ§Ø±": 496,
      "ÙĪÙĦÙĩ": 497,
      "ĠÙĤÙĦÙĪØ¨": 498,
      "ĠÙģÙĦÙħØ§": 499,
      "ĠØ§Ø": 500,
      "ÙĬÙģ": 501,
      "ĠØ£Ø¹": 502,
      "ĠØªÙĨ": 503,
      "ÙĥØ±ÙĪÙĨ": 504,
      "ĠØ£ÙĦØ§": 505,
      "ĠØ¨Ø¢ÙĬØ§Øª": 506,
      "ĠØ£ÙħØ±": 507,
      "Ø´Ø±Ùĥ": 508,
      "Ø²ÙĬØ²": 509,
      "ĠÙģÙĤ": 510,
      "ĠÙĦÙħÙĨ": 511,
      "Ø°ÙĨ": 512,
      "ĠÙĪØ¢": 513,
      "ĠØ±Ø¨ÙĬ": 514,
      "ĠØ§ÙĦØ¥": 515,
      "Ø¨Øª": 516,
      "Ø·Ø§ÙĨ": 517,
      "ĠÙĪØ§Øª": 518,
      "ØŃÙĨ": 519,
      "Ø§ÙģØ±ÙĬÙĨ": 520,
      "Ø±Ø¬": 521,
      "Ø¯Ø©": 522,
      "ÙĦØŃ": 523,
      "ÙĦÙĥÙħ": 524,
      "Ø¨Ø±Ø§": 525,
      "ĠÙħØ¨ÙĬÙĨ": 526,
      "ÙĦØ§Ø¡": 527,
      "ÙĦÙĬÙĦ": 528,
      "ĠØ±ØŃ": 529,
      "ÙĦØª": 530,
      "ÙĬØ«": 531,
      "ĠÙģÙħØ§": 532,
      "ĠÙĬØ¬": 533,
      "ĠÙĪØ§ÙĦÙħ": 534,
      "Ø¸Ø±": 535,
      "ĠØºÙĬØ±": 536,
      "ĠØ§ÙĦÙģ": 537,
      "ĠØ£Ø±Ø³": 538,
      "ĠÙģÙĥ": 539,
      "ĠØ¨Øº": 540,
      "ĠÙħÙĨÙĩ": 541,
      "Ø¦Ø§": 542,
      "Ø¸ÙĬÙħ": 543,
      "ĠØ³Ø¨ÙĬÙĦ": 544,
      "ÙħÙĪÙĨ": 545,
      "ÙĪÙĩÙħ": 546,
      "ĠØ£Ø®": 547,
      "ØŃØ§Ø¨": 548,
      "ĠØ®Ø§ÙĦ": 549,
      "ĠÙģØ¥Ø°Ø§": 550,
      "ĠÙĪØ±Ø³": 551,
      "ĠÙĬØ¤ÙħÙĨÙĪÙĨ": 552,
      "Ø°Ùĩ": 553,
      "ĠÙħÙĨÙĩØ§": 554,
      "ĠÙĥØ°ÙĦÙĥ": 555,
      "ØµØ¯": 556,
      "ĠÙĦÙĨØ§": 557,
      "ĠØ§ÙĦØ¹Ø°Ø§Ø¨": 558,
      "ÙĪØ§ÙĦ": 559,
      "Ø¨ØŃ": 560,
      "ĠØ§ÙĦØµØ§ÙĦØŃ": 561,
      "ÙĬÙĪÙħ": 562,
      "ĠÙĪØ³": 563,
      "ØªÙĬÙĨØ§": 564,
      "ĠØªØ¹ÙħÙĦÙĪÙĨ": 565,
      "ÙĩØ¯ÙĬ": 566,
      "ĠÙģØ³": 567,
      "ĠÙĬØ¹ÙĦÙħÙĪÙĨ": 568,
      "ÙĥÙĬÙħ": 569,
      "ĠØ¨ÙĩØ§": 570,
      "ÙģÙĪØ±": 571,
      "Ø±Ùĥ": 572,
      "ØªÙĥÙħ": 573,
      "ĠÙĬÙĪ": 574,
      "ÙģØ¹": 575,
      "ĠØ£ÙĨØªÙħ": 576,
      "ĠÙĦÙĦØ°ÙĬÙĨ": 577,
      "ÙĨØ§ÙĩÙħ": 578,
      "ĠØªÙĤ": 579,
      "Ø§Øµ": 580,
      "ÙĨÙĪÙĨ": 581,
      "ĠØ£Ø³": 582,
      "ĠØ£ÙĦÙħ": 583,
      "ĠØ§ÙĦÙħØ¤ÙħÙĨÙĬÙĨ": 584,
      "ĠØ¥ÙĦÙĬÙĥ": 585,
      "ÙĪØ¬": 586,
      "ĠØ¹Ø¨Ø§Ø¯": 587,
      "Ø¦ÙĨ": 588,
      "ĠØ§ÙĦØ£ÙĨ": 589,
      "ĠØ´ÙĬØ¦Ø§": 590,
      "ÙĩÙĨÙħ": 591,
      "ÙĦÙĬÙĨ": 592,
      "ĠÙĪØ¹Ø¯": 593,
      "ĠÙĦÙĦÙħ": 594,
      "ÙĤÙĬÙħ": 595,
      "ĠØ¥ÙĦÙĬÙĩ": 596,
      "ĠØ§ÙĦØ´ÙĬ": 597,
      "Ø§Ùħ": 598,
      "ÙĦÙĬÙĨØ§": 599,
      "ÙĬÙĩ": 600,
      "ÙĪÙĩØ§": 601,
      "ĠØ£Ø¨": 602,
      "ĠØªØ¹ÙĦÙħ": 603,
      "Ø·ÙĬ": 604,
      "Ø¸ÙĦÙħ": 605,
      "ĠØ¹ÙĨÙĩÙħ": 606,
      "ĠØ£ÙĨØ§": 607,
      "ĠÙĦÙħØ§": 608,
      "ØµÙĬØ±": 609,
      "ĠØ¨Ø§ÙĦØŃÙĤ": 610,
      "Ø±Ùī": 611,
      "ØªØ¨": 612,
      "Ø¯ÙĪØ§": 613,
      "ÙĦØ§Ø¦Ùĥ": 614,
      "Ø·Ø¹": 615,
      "ĠØ±Ø¨Ùĩ": 616,
      "ÙĬÙĩÙħ": 617,
      "ÙĩÙĬÙħ": 618,
      "ØªÙĩØ§": 619,
      "ÙĦÙĩØ§": 620,
      "ÙĦØ§Ùħ": 621,
      "ĠØ±Ø¬": 622,
      "ĠØ¬ÙĩÙĨÙħ": 623,
      "ĠÙĪØ¥Ø°": 624,
      "ĠØ£ÙĨÙģØ³ÙĩÙħ": 625,
      "Ø±Ø¢": 626,
      "ĠØ§ÙĦØ¢Ø®Ø±Ø©": 627,
      "Ø¯Ùī": 628,
      "ĠØ¹Ùħ": 629,
      "Ø²ÙĪØ§": 630,
      "ĠØ³ÙĬ": 631,
      "Ø¦Ø°": 632,
      "ÙĬØ§Ø©": 633,
      "ĠØ£ÙĥØ«Ø±": 634,
      "ĠÙģØ¨": 635,
      "ĠÙĥØªØ§Ø¨": 636,
      "ÙĬØ§ÙħØ©": 637,
      "ĠØµØ¯": 638,
      "ĠØ§ÙĦÙĤÙĬØ§ÙħØ©": 639,
      "ĠÙĬØ¤": 640,
      "ØŃØ³ÙĨ": 641,
      "ĠØªØ®": 642,
      "ĠØ±ØŃÙħ": 643,
      "Ø¨Ø±Ø§ÙĩÙĬÙħ": 644,
      "ÙĦØ§ÙĦ": 645,
      "ØªÙĨØ§": 646,
      "Ø¯ÙĬØ¯": 647,
      "ĠÙĬÙĤ": 648,
      "ĠÙĬÙģ": 649,
      "ĠÙĥØ«": 650,
      "ĠÙĤÙĪ": 651,
      "ĠÙĩÙĦ": 652,
      "ÙĦØ§Ø¦ÙĥØ©": 653,
      "ÙĦÙĩÙħ": 654,
      "ÙħÙĨØ§": 655,
      "ÙĪÙī": 656,
      "ÙĪØ¡": 657,
      "ĠÙĪØ¹Ùħ": 658,
      "ĠØ¨Ùĥ": 659,
      "ÙĦØ§Ø©": 660,
      "Ø²ÙĦÙĨØ§": 661,
      "ĠÙģØ±Ø¹ÙĪÙĨ": 662,
      "ÙĩØª": 663,
      "Ø±Ùģ": 664,
      "ĠÙħØ³Øª": 665,
      "Ø£ÙĬ": 666,
      "Ø¬Ø¹ÙĦ": 667,
      "ĠØ°ÙĥØ±": 668,
      "ĠØ§ÙĦØ±Ø³": 669,
      "ĠÙĦÙĤÙĪÙħ": 670,
      "ĠÙĪØ±Ø³ÙĪÙĦÙĩ": 671,
      "ĠØ£Øª": 672,
      "ĠÙĦØ¹": 673,
      "ØŃÙĬ": 674,
      "ĠØªØ¯": 675,
      "ĠÙĨØŃÙĨ": 676,
      "ĠÙĬÙĪÙħØ¦Ø°": 677,
      "ĠØ¸ÙĦÙħ": 678,
      "ĠÙĤÙĦÙĪØ¨ÙĩÙħ": 679,
      "ÙĦÙħØ§": 680,
      "ÙĥØ§": 681,
      "ĠØ¨ÙĬ": 682,
      "ĠÙĤØ¨": 683,
      "ĠØ§ÙĦØ¹Ø²ÙĬØ²": 684,
      "ĠØ§ÙĦØ¸Ø§ÙĦÙħÙĬÙĨ": 685,
      "ÙĨØ³Ø§ÙĨ": 686,
      "ĠØ£Ø±Ø³ÙĦÙĨØ§": 687,
      "ÙĪÙĤ": 688,
      "ĠØ£Ø±": 689,
      "ĠÙĬØµ": 690,
      "ĠÙĥÙĨØ§": 691,
      "ĠØ¥ÙĨÙĩÙħ": 692,
      "ĠÙĨØ³": 693,
      "ĠØ§ÙĦØŃÙĬØ§Ø©": 694,
      "ĠØ£ØµØŃØ§Ø¨": 695,
      "ĠØ§ÙĦØ´ÙĬØ·Ø§ÙĨ": 696,
      "ĠØ§ÙĦØ·": 697,
      "ĠÙħÙĦÙĥ": 698,
      "ĠØ£Ø´": 699,
      "ĠÙģÙĤØ¯": 700,
      "ĠØ¥Ø¨Ø±Ø§ÙĩÙĬÙħ": 701,
      "ĠÙĥÙĬÙģ": 702,
      "ÙĦÙĬÙĦØ§": 703,
      "ØµØ§Ø±": 704,
      "ĠØ¬ÙĨØ§Øª": 705,
      "ĠØ§ÙĦÙĤÙĪÙħ": 706,
      "ÙĨÙĥÙħ": 707,
      "ÙħØª": 708,
      "ØªÙĪÙĨ": 709,
      "ĠÙħØª": 710,
      "ĠÙĥÙħØ§": 711,
      "ĠØ§ÙĦØ¹Ø§ÙĦÙħÙĬÙĨ": 712,
      "ĠÙĪÙĤØ§ÙĦÙĪØ§": 713,
      "ĠØ±ØŃÙĬÙħ": 714,
      "ĠØ§ÙĦØµØ§ÙĦØŃØ§Øª": 715,
      "ĠØ§Ø¨": 716,
      "Ø±ÙĬÙĨ": 717,
      "Ø¨ÙĬØ±": 718,
      "ĠÙĬØº": 719,
      "ĠØ£ÙĪÙĦÙĬ": 720,
      "ĠØ±Ø³ÙĪÙĦ": 721,
      "Ø±Ø¢ÙĨ": 722,
      "Ø§ÙĩØ¯": 723,
      "ÙĦØ©": 724,
      "ÙĨÙĬÙĨ": 725,
      "ĠØ§ÙĦÙĦÙĬÙĦ": 726,
      "Ø¨Ø©": 727,
      "Ø¹Ø¨Ø¯": 728,
      "ÙĩØ¯Ùī": 729,
      "ĠÙĦØ¹ÙĦÙĥÙħ": 730,
      "ÙĪÙĥÙħ": 731,
      "Ø¨ÙĪÙĨ": 732,
      "ĠØ¹Ø¯": 733,
      "Ø¶Ø±": 734,
      "ĠØŃØ³": 735,
      "ĠØ¹ÙĦÙĬÙĥ": 736,
      "ĠØ¨ÙĬÙĨÙĩÙħ": 737,
      "ĠØ§ÙĦØµÙĦØ§Ø©": 738,
      "ĠØ§ÙĦØ¥ÙĨØ³Ø§ÙĨ": 739,
      "ĠØªØ¹ÙĦÙħÙĪÙĨ": 740,
      "ÙĪÙĬ": 741,
      "ĠØ§ÙĦØªÙĬ": 742,
      "ĠÙĪØŃ": 743,
      "ĠØ¨ÙĨÙĬ": 744,
      "ĠØªÙĥÙĪÙĨ": 745,
      "Ø·Ø§": 746,
      "ĠÙĪØ§ØŃ": 747,
      "ĠØ¨Ø¢ÙĬØ§ØªÙĨØ§": 748,
      "ĠØ§ÙĨ": 749,
      "Ø§Ø¹Ø©": 750,
      "Ø¹Ùģ": 751,
      "ĠÙĬØ¹ÙħÙĦÙĪÙĨ": 752,
      "Ø£ÙĨ": 753,
      "ĠØªØ³": 754,
      "ĠØªØ´": 755,
      "ĠØ£ÙĨØª": 756,
      "ĠØ¬Ø¹ÙĦ": 757,
      "ĠØ¬ÙħÙĬ": 758,
      "ĠØ´Ø§Ø¡": 759,
      "Ø¹Ø§Ùħ": 760,
      "ĠØ§ÙĦØ¬ÙĨØ©": 761,
      "ĠØ£ÙĩÙĦ": 762,
      "Ø§Ùĩ": 763,
      "ĠØ£Ø¹ÙĦÙħ": 764,
      "ĠÙĦÙĤØ¯": 765,
      "ĠÙĤÙĦÙĬÙĦØ§": 766,
      "ĠÙĪØ§ÙĦÙĨ": 767,
      "ĠÙĦÙĬØ³": 768,
      "Ø¨Ø±ÙĪØ§": 769,
      "ĠÙĬØ±ÙĬØ¯": 770,
      "ĠÙĪØ§Ø": 771,
      "Ø¨Ø§Ø±": 772,
      "ĠØ£ÙĬØ¯": 773,
      "Ø¯ÙĨØ§": 774,
      "ĠÙĦÙĦÙĨØ§": 775,
      "ÙĤØ±": 776,
      "Ø§Ø¤": 777,
      "ĠØŃÙħ": 778,
      "ĠÙĬØ£ØªÙĬ": 779,
      "Ø¹Øª": 780,
      "ĠØ£Ø¯": 781,
      "ĠÙģØ¶": 782,
      "Ø°ÙĬ": 783,
      "ĠÙĥÙĨØª": 784,
      "ĠÙĨØµ": 785,
      "ĠÙĨØ¹Ùħ": 786,
      "ĠØ§ÙĦÙħØ³": 787,
      "ĠÙĪØ¹ÙħÙĦÙĪØ§": 788,
      "ÙĥÙĨ": 789,
      "ĠÙħÙĥ": 790,
      "ĠØ£Ø¬Ø±": 791,
      "ĠØ£ÙĦÙĬÙħ": 792,
      "Ø³Ø·": 793,
      "ĠÙĬÙħ": 794,
      "ĠØ¨Ø±": 795,
      "Ø¬Ø¹": 796,
      "Ø¶ÙĬ": 797,
      "ĠÙĪÙĤØ¯": 798,
      "ĠØ§ÙĦÙĥØ§ÙģØ±ÙĬÙĨ": 799,
      "ĠØºÙģÙĪØ±": 800,
      "ĠÙĤØ¨ÙĦÙĩÙħ": 801,
      "Ø²ÙĪØ§Ø¬": 802,
      "ĠÙģØ§ÙĨ": 803,
      "ĠÙĬÙĤÙĪÙĦÙĪÙĨ": 804,
      "ĠØ¹ÙĦÙĬÙĨØ§": 805,
      "ĠÙĤØ±ÙĬ": 806,
      "Ø®Ø°ÙĪØ§": 807,
      "ĠÙĦÙĦÙĨØ§Ø³": 808,
      "ĠØ£Ø¹Ùħ": 809,
      "ĠÙĬØ¨": 810,
      "ĠÙĬÙĤÙĪÙĦ": 811,
      "ĠÙĬÙĥÙĪÙĨ": 812,
      "ĠØ¨Ø¥": 813,
      "ØµØ±ÙĪÙĨ": 814,
      "ĠØ¥ÙĨÙĥ": 815,
      "ĠØŃØ±": 816,
      "Ø§Ø¯ÙĤÙĬÙĨ": 817,
      "ĠØµØ±": 818,
      "ĠÙĪØ¬Ø¹ÙĦÙĨØ§": 819,
      "ĠØ£ØŃØ¯": 820,
      "ĠÙĪØ²": 821,
      "ĠØ£ÙĤ": 822,
      "ĠÙģÙĦÙĬ": 823,
      "ĠÙĬÙĩØ¯ÙĬ": 824,
      "ĠØ¹ÙħØ§": 825,
      "ĠØ¹Ø¸ÙĬÙħ": 826,
      "ĠÙĩÙĬ": 827,
      "ĠØ£ÙħØ©": 828,
      "ĠØªØ¬Ø±ÙĬ": 829,
      "ĠØ¬ÙħÙĬØ¹Ø§": 830,
      "ĠÙĪÙĦÙħ": 831,
      "Ø¨Ø¦": 832,
      "ÙĤÙĦÙĪÙĨ": 833,
      "ÙģØ©": 834,
      "Ø¬Ø¹ÙĪÙĨ": 835,
      "Ø·Ø±": 836,
      "ÙĪÙĦÙĪØ§": 837,
      "ÙĬØŃ": 838,
      "ØªÙĥ": 839,
      "ĠØ±Ø²ÙĤ": 840,
      "ĠÙĨØ¬": 841,
      "ĠÙĨÙĪØŃ": 842,
      "ĠØ¢Ø¨": 843,
      "ĠØ¢ÙĬØ©": 844,
      "ĠØ§ÙĦØ¯ÙĬÙĨ": 845,
      "ĠÙħØ«ÙĦ": 846,
      "Ø§Ùĥ": 847,
      "ÙĪÙĦÙī": 848,
      "ÙģÙī": 849,
      "ĠÙĩØ°Ùĩ": 850,
      "ĠØ¢ØªÙĬÙĨØ§": 851,
      "ĠØ¬Ø¹ÙĦÙĨØ§": 852,
      "ĠØ¹ÙĦÙĬÙĩØ§": 853,
      "ĠØ´Ø¯ÙĬØ¯": 854,
      "Ø¤ÙĦØ§Ø¡": 855,
      "ÙĬØ¯Ø§": 856,
      "ĠÙģØ£ÙĪÙĦØ¦Ùĥ": 857,
      "ĠØµØ§ÙĦØŃ": 858,
      "ĠÙģÙĤØ§ÙĦ": 859,
      "ĠÙĥØ«ÙĬØ±Ø§": 860,
      "ÙĪØ©": 861,
      "ÙĪÙĩÙĨ": 862,
      "ÙĩÙĪÙĨ": 863,
      "ĠØ§ÙĦØ²": 864,
      "ØªÙĦÙģ": 865,
      "ĠÙģØ§ÙĦ": 866,
      "ÙģÙĪÙĨ": 867,
      "ĠÙĥØ±": 868,
      "ĠÙĪØ£ÙĨØªÙħ": 869,
      "ĠÙĪÙĬÙĪÙħ": 870,
      "ĠÙģØ£ÙĨ": 871,
      "ĠØ£ÙģÙĦØ§": 872,
      "ĠØ§ÙĦØ±Ø³ÙĪÙĦ": 873,
      "ÙħÙĪØ§": 874,
      "Ø³Ø§": 875,
      "ÙĪØ§Ø¡": 876,
      "ĠØ¬Ø²": 877,
      "ĠØ°ÙĦÙĥÙħ": 878,
      "Ø³Ø¨ØŃ": 879,
      "ĠØ®Ø§ÙĦØ¯ÙĬÙĨ": 880,
      "ÙĬÙĥÙħ": 881,
      "ĠØ§ÙĦØª": 882,
      "ĠØ¨Ùħ": 883,
      "ÙħØ§ÙĨ": 884,
      "ĠØªÙģ": 885,
      "Ø§Øº": 886,
      "ĠÙĨØ¨": 887,
      "ĠØ³Ø¨ØŃ": 888,
      "ĠÙĪÙĦÙĩÙħ": 889,
      "ĠØ§ÙĦÙĤØ±Ø¢ÙĨ": 890,
      "Ø§Ø¦ÙĬÙĦ": 891,
      "ĠÙĪØ¬Ø¹ÙĦ": 892,
      "ĠÙĬØŃØ¨": 893,
      "Ø³Ø±Ø§Ø¦ÙĬÙĦ": 894,
      "ĠÙĥØ°Ø¨ÙĪØ§": 895,
      "ĠØ§ÙĦØ£ÙĨÙĩØ§Ø±": 896,
      "ÙĨÙĥ": 897,
      "ĠØ§ÙĦØ¢Ø®Ø±": 898,
      "Ø¨Ø§ÙĦ": 899,
      "ĠØ£ÙĪÙĦ": 900,
      "Ø³Ø§Ø¡": 901,
      "ĠÙĦÙĩØ§": 902,
      "ĠØ¥Ø³Ø±Ø§Ø¦ÙĬÙĦ": 903,
      "ØŃÙĥÙħ": 904,
      "ÙħØ§Ø¡": 905,
      "ĠÙĥØ§ÙĦ": 906,
      "ĠØ±Ø£": 907,
      "ĠØ§ÙĦØŃÙħ": 908,
      "ĠØ§ÙĦØŃÙĥÙĬÙħ": 909,
      "Ø¨Ø¯Ø§": 910,
      "ĠÙģØ§Ø³Øª": 911,
      "ĠØªÙĥØ°Ø¨": 912,
      "ĠÙĪØ§ØªÙĤÙĪØ§": 913,
      "ĠØ¸ÙĦÙħÙĪØ§": 914,
      "ÙĬÙĦØ§": 915,
      "ĠØ§ÙĦÙĬÙĪÙħ": 916,
      "ØªÙĦ": 917,
      "ØªÙĤÙĬÙĨ": 918,
      "Ø³Ùģ": 919,
      "ĠÙģÙĩÙħ": 920,
      "ĠÙģØ§Øª": 921,
      "ĠÙģÙĪÙĤ": 922,
      "Ø°ÙĥØ±ÙĪÙĨ": 923,
      "ĠØ¨ÙĩÙħ": 924,
      "ÙĨØ§Ùĩ": 925,
      "Ø®ÙĦÙĪØ§": 926,
      "ĠØ£ÙĨÙĩÙħ": 927,
      "ĠÙĩØ¤ÙĦØ§Ø¡": 928,
      "ĠØ¬Ø§Ø¡ÙĩÙħ": 929,
      "ĠØ§ÙĦÙĨØ¨ÙĬ": 930,
      "ÙħÙĬØ¹": 931,
      "ĠÙĦØ¹ÙĦÙĩÙħ": 932,
      "ĠØ¨ØºÙĬØ±": 933,
      "ĠØ£Ø¹ÙħØ§ÙĦ": 934,
      "ĠØ§Ø¯": 935,
      "Ø§Ø¬": 936,
      "ØªÙĬÙĨ": 937,
      "ÙĪØ§Ø¨": 938,
      "ÙģÙĪØ§": 939,
      "ĠØªØ¨": 940,
      "Ø´ÙĬ": 941,
      "ĠØ£ÙĨØ²ÙĦÙĨØ§": 942,
      "Ø«Ùħ": 943,
      "ĠÙĪÙĦÙĨ": 944,
      "ĠØ£ÙħÙĪØ§ÙĦ": 945,
      "ĠØ¥ÙĦÙĬÙĩÙħ": 946,
      "ĠÙĤÙĪÙħØ§": 947,
      "ÙĨÙĩ": 948,
      "Ø±ÙĪÙģ": 949,
      "ĠØ§ÙĦÙħÙĨ": 950,
      "ĠÙĪÙģÙĬ": 951,
      "ĠØ£Ø²ÙĪØ§Ø¬": 952,
      "ĠÙĬØ¤ÙħÙĨ": 953,
      "ĠÙħÙĨØ§": 954,
      "ĠØªØµ": 955,
      "ĠÙĥÙĦØ§": 956,
      "ĠÙĨØ°": 957,
      "ĠØŃÙĤ": 958,
      "ĠØŃÙĥÙĬÙħ": 959,
      "ĠØ§ÙĦØ£ÙĪÙĦ": 960,
      "Ø°Ø¨ÙĬÙĨ": 961,
      "ĠÙĪØ¹ÙĦÙī": 962,
      "ĠØ§ØªØ¨Ø¹": 963,
      "ĠØµØ±Ø§Ø·": 964,
      "ĠÙĪÙĩ": 965,
      "ĠÙĪØ±Ø¨": 966,
      "ĠÙĦØ¨": 967,
      "ĠÙĦØ¢": 968,
      "ĠÙĦÙĪÙĦØ§": 969,
      "ĠÙĬØ®Ø±Ø¬": 970,
      "ĠØªØ³Øª": 971,
      "Ø¬ÙĦ": 972,
      "ĠÙĥØ³Ø¨": 973,
      "ĠÙĩØ¯Ùī": 974,
      "ĠØ³ÙĪØ¡": 975,
      "Ø¦Ø§Øª": 976,
      "ĠØ§ÙĦÙħÙĦØ§Ø¦ÙĥØ©": 977,
      "ØºØ±": 978,
      "Ø¸Ø±ÙĪÙĨ": 979,
      "ĠÙĪÙĥØ°ÙĦÙĥ": 980,
      "ĠØ¹Ø°Ø§Ø¨Ø§": 981,
      "ĠØ£ØŃØ³ÙĨ": 982,
      "ĠØ¯ÙĪÙĨÙĩ": 983,
      "ĠØ£ÙĨÙģØ³ÙĥÙħ": 984,
      "ĠØ£ÙĥØ«Ø±ÙĩÙħ": 985,
      "Ø¨ÙĪØ§": 986,
      "ĠÙħØ§Ø¡": 987,
      "ĠØ£Ø®Ø°": 988,
      "ĠØ¨ÙĥÙħ": 989,
      "ÙģØ§Ø±": 990,
      "Ø£ÙĦ": 991,
      "ĠÙĨÙģ": 992,
      "ĠØ¢ÙħÙĨØ§": 993,
      "ĠØ®ÙĬØ±Ø§": 994,
      "ĠØ¹ÙĨÙĩ": 995,
      "Ø¨Ø¹Ø«": 996,
      "ĠÙĪØ§Ø³Øª": 997,
      "ĠÙĤØ¯ÙĬØ±": 998,
      "ĠØ¶ÙĦØ§ÙĦ": 999,
      "ĠØ£Ø´Ø¯": 1000,
      "ÙĩÙĦÙĥ": 1001,
      "ĠÙĪØ¨ÙĬÙĨ": 1002,
      "ĠÙħÙħÙĨ": 1003,
      "ÙģÙĤÙĪÙĨ": 1004,
      "Ø§Ø®": 1005,
      "Ø¦Ø³": 1006,
      "Ø¦Ø©": 1007,
      "ĠØ§ÙĦÙħÙĪØª": 1008,
      "ØºÙĪØ§": 1009,
      "ĠØ´Ùĩ": 1010,
      "ĠØ§ÙĦØ¹Ø¸ÙĬÙħ": 1011,
      "Ø³ÙħØ¹": 1012,
      "ĠÙģØ§Ø³": 1013,
      "ĠÙĤÙĪÙħÙĩ": 1014,
      "ĠØªØŃØªÙĩØ§": 1015,
      "Ø§ÙģØ±ÙĪÙĨ": 1016,
      "Ø°ÙĥØ±ÙĪØ§": 1017,
      "Ø´Ø±ÙĥÙĬÙĨ": 1018,
      "ĠØ£ÙĪÙĦÙĬØ§Ø¡": 1019,
      "ĠØµØ§ÙĦØŃØ§": 1020,
      "ĠØ³Ø¨ØŃØ§ÙĨ": 1021,
      "ÙĪØ²": 1022,
      "Ø§ÙĦÙħÙĪÙĨ": 1023,
      "Ø±Ø©": 1024,
      "ĠÙģØ¹": 1025,
      "ĠÙĬØ¶": 1026,
      "ĠØ³ÙħØ¹": 1027,
      "ĠÙĪØ£Øµ": 1028,
      "ÙĬØ§Ùħ": 1029,
      "ĠØ£ÙĪÙĦÙħ": 1030,
      "ĠØ§ÙĦØ³Ø§Ø¹Ø©": 1031,
      "ĠØ¯ÙĬÙĨ": 1032,
      "Ø¨ÙĬÙĨØ§Øª": 1033,
      "Ø¨Ø¯ÙĪÙĨ": 1034,
      "ĠÙĬØŃÙĬ": 1035,
      "ĠÙĪÙĥØ§ÙĨÙĪØ§": 1036,
      "ĠÙģØ¨Ø£ÙĬ": 1037,
      "ÙĦØ¹": 1038,
      "Ø¨Ø·": 1039,
      "ĠÙħØ¯": 1040,
      "ĠÙħØ¤ÙħÙĨÙĬÙĨ": 1041,
      "Ø¯Ùħ": 1042,
      "ĠÙģØ¶ÙĦ": 1043,
      "ÙĤÙī": 1044,
      "ĠÙĤÙĬÙĦ": 1045,
      "Ø§Ø´": 1046,
      "ÙĦÙĬÙĩ": 1047,
      "ĠÙĪØ§ÙĦÙĤ": 1048,
      "ĠØ¢ÙĦØ§Ø¡": 1049,
      "ĠØ´Ø±Ùĥ": 1050,
      "ĠÙĪØ¥ÙĨØ§": 1051,
      "Ø¹ÙĦÙħÙĪØ§": 1052,
      "ĠÙĪØ¬Ùĩ": 1053,
      "ĠÙħØ¹Ùĩ": 1054,
      "Ø¬Ø±ÙħÙĬÙĨ": 1055,
      "ĠÙģÙĦÙĨ": 1056,
      "ĠØ¢ÙĬØ§ØªÙĨØ§": 1057,
      "Ø¸ÙĦÙħÙĪÙĨ": 1058,
      "ĠØ±ØŃÙħØ©": 1059,
      "ĠØ¨ÙĥÙĦ": 1060,
      "ÙĪØ³": 1061,
      "Ø¹ÙĬÙĨ": 1062,
      "ĠØ£Ø±Ø§": 1063,
      "ĠÙģÙĨ": 1064,
      "ĠÙĬØ¶ÙĦ": 1065,
      "ĠÙĬÙģØª": 1066,
      "ÙĤØ§Ø¨": 1067,
      "ĠØ¨Ø³": 1068,
      "ĠØ¹Ø§ÙĤ": 1069,
      "ĠÙĪÙĦØ¦ÙĨ": 1070,
      "ĠØ°ÙĪ": 1071,
      "Ø´Ø±ÙĥÙĪÙĨ": 1072,
      "ĠØ±Ø¨ÙĥÙħØ§": 1073,
      "ØŃÙħØ©": 1074,
      "Ø¬Ø¯ÙĪØ§": 1075,
      "ĠÙĬÙĥÙĨ": 1076,
      "ĠØ¨Ø¹Ø¶ÙĩÙħ": 1077,
      "ĠÙħØ±ÙĬÙħ": 1078,
      "ØŃØ³ÙĨÙĬÙĨ": 1079,
      "ÙĥØ§Ø©": 1080,
      "ĠÙĤØ¨ÙĦÙĥ": 1081,
      "ĠØ£ÙĬØ¯ÙĬÙĩÙħ": 1082,
      "ÙĨÙī": 1083,
      "Ø±ØŃ": 1084,
      "ĠÙĪØµ": 1085,
      "Ø¨ÙĬØ±Ø§": 1086,
      "ĠÙħØ¨": 1087,
      "Ø°ÙĪ": 1088,
      "ĠÙĨÙĥ": 1089,
      "ĠØ³Ø¨": 1090,
      "ĠØŃØ¯": 1091,
      "ĠØ§ÙĦØ£ÙħØ±": 1092,
      "ĠÙĪÙĦÙħØ§": 1093,
      "ĠØ£ÙĪØªÙĪØ§": 1094,
      "ĠØ§ÙĦØ¹ÙĦÙĬÙħ": 1095,
      "Ø±Ø³ÙĦ": 1096,
      "ĠØ¥ÙĦÙĬÙĥÙħ": 1097,
      "ĠØ£ÙĩÙĦÙĥ": 1098,
      "ĠÙĬÙģØ¹ÙĦ": 1099,
      "ĠØ§Ø¨ÙĨ": 1100,
      "ĠØ¨Ø¥Ø°ÙĨ": 1101,
      "Ø§Ø³": 1102,
      "ĠØ§ÙĦØ¢ÙĬØ§Øª": 1103,
      "ĠÙħØµ": 1104,
      "Ø¹Ø±": 1105,
      "ĠÙģÙĩ": 1106,
      "ĠÙĦØ¯": 1107,
      "ĠÙĬØ²": 1108,
      "ÙĤØ§Øª": 1109,
      "ĠØ¨Ø±Ø¨": 1110,
      "ĠØ¹Ø²ÙĬØ²": 1111,
      "ÙĨØ§ØŃ": 1112,
      "ĠØ¥ÙĨÙĥÙħ": 1113,
      "ĠÙĪØ§ÙĦØ³": 1114,
      "ĠÙĨØ´": 1115,
      "ĠØ³ÙĨ": 1116,
      "Ø«ÙĦ": 1117,
      "ĠØ§ÙĦÙħØ±Ø³": 1118,
      "ĠÙĪÙĦØª": 1119,
      "ĠØµØ§Ø¯ÙĤÙĬÙĨ": 1120,
      "ĠÙĪØ¬ÙĪÙĩ": 1121,
      "ĠØ¨ÙĬÙĨÙĩÙħØ§": 1122,
      "ĠØ£ÙĬÙħØ§": 1123,
      "ĠÙĬÙĥÙģØ±": 1124,
      "ĠØ¢ÙĬØ§ØªÙĩ": 1125,
      "ĠØªÙĥØ°Ø¨Ø§ÙĨ": 1126,
      "ĠØ§ÙĦØ£ÙĪÙĦÙĬÙĨ": 1127,
      "ĠÙĪÙĦÙĩ": 1128,
      "ĠÙĪØ®": 1129,
      "ĠÙħØŃ": 1130,
      "ĠØ£Ø®Ø±Ø¬": 1131,
      "ĠÙĦØ¢ÙĬØ§Øª": 1132,
      "ĠÙĦÙģÙĬ": 1133,
      "ÙĤØ©": 1134,
      "ÙģÙĤÙĪØ§": 1135,
      "Ø¶ÙĪØ§": 1136,
      "Ø²ÙĬÙĨ": 1137,
      "Ø§Ø¨Ø§": 1138,
      "ĠØ§ÙĦÙħØŃØ³ÙĨÙĬÙĨ": 1139,
      "ĠØŃÙĬÙĨ": 1140,
      "ĠØ¬ÙĨØ§ØŃ": 1141,
      "ĠØ´Ø±": 1142,
      "ĠØ§ÙĦØ£Ùħ": 1143,
      "Ø¹Ø¯ÙĪÙĨ": 1144,
      "ĠÙģØ¥ÙĨÙħØ§": 1145,
      "ÙĬØ¨Ø§": 1146,
      "ĠØ®ÙĦÙĤÙĨØ§": 1147,
      "ÙĦÙħØ§Øª": 1148,
      "ØªÙĤ": 1149,
      "ĠÙģØ±ÙĬ": 1150,
      "ÙĤÙĦØ¨": 1151,
      "ĠØ¨ØµÙĬØ±": 1152,
      "ØŃÙĪØ§": 1153,
      "ĠØªÙĦÙĥ": 1154,
      "ĠÙĥÙĦÙħ": 1155,
      "ĠÙĪØ§ÙĦØ´": 1156,
      "ĠØ³ÙĦ": 1157,
      "ĠØ¢ÙĦÙĩ": 1158,
      "ĠÙĪØ£ÙĨØ§": 1159,
      "ĠØ§ÙĦÙħÙĦÙĥ": 1160,
      "ĠØŃÙĬØ«": 1161,
      "ĠÙĤØ§ÙĦØª": 1162,
      "Ø¸Ø§": 1163,
      "ĠØ§ÙĦØ³Ø¨ÙĬ": 1164,
      "ĠØ§ÙģØª": 1165,
      "ĠØ¨ÙĬÙĨÙĥÙħ": 1166,
      "ĠØ³Ø¨ÙĬÙĦØ§": 1167,
      "ĠØ§ØªÙĤÙĪØ§": 1168,
      "ĠÙĬØ¯Ø¹ÙĪÙĨ": 1169,
      "ÙĦØŃÙĪÙĨ": 1170,
      "ĠÙĪØ§ØŃØ¯Ø©": 1171,
      "ĠØ¬Ø²Ø§Ø¡": 1172,
      "ĠÙĨØ°ÙĬØ±": 1173,
      "Ø§ÙĪ": 1174,
      "ÙĨÙĪØ§": 1175,
      "ÙĪØ¹": 1176,
      "Ø±ÙĪØ§": 1177,
      "Ø±Ø´": 1178,
      "ĠØ§ÙĦØ¹ÙĦÙħ": 1179,
      "ĠØ£Ø¨Ø¯Ø§": 1180,
      "Ø¯Ùĩ": 1181,
      "ĠÙģØ¬": 1182,
      "ĠÙģØ¹ÙĦ": 1183,
      "ĠÙģÙĩÙĪ": 1184,
      "ĠÙĦØ¦ÙĨ": 1185,
      "ĠÙĬØ¸ÙĦÙħÙĪÙĨ": 1186,
      "ĠØ¨Ø´Ø±": 1187,
      "ÙģÙĬÙĨ": 1188,
      "ÙģÙĪØ±Ø§": 1189,
      "Ø²ÙĪÙĨ": 1190,
      "ÙĦÙĥØ§ÙģØ±ÙĬÙĨ": 1191,
      "ĠØ¢ÙĦ": 1192,
      "ĠÙĪØ£ÙħØ§": 1193,
      "ØºÙĬ": 1194,
      "ĠØ¬Ø¦": 1195,
      "ĠØ®ÙĦÙģ": 1196,
      "ĠØ´Ùĥ": 1197,
      "Ø±Ø§Ùħ": 1198,
      "Ø±Ø¶ÙĪØ§": 1199,
      "ĠÙĥØ§ÙĨØª": 1200,
      "ĠÙĪÙĬÙĤÙĪÙĦÙĪÙĨ": 1201,
      "ĠÙģØ£Øµ": 1202,
      "ĠÙģØ£Ø®Ø°": 1203,
      "ĠØ§ÙĦÙĤÙĪÙĦ": 1204,
      "Ø±ÙĬØ©": 1205,
      "Ø³Ø¨ÙĪÙĨ": 1206,
      "ĠØ·Ø§Ø¦": 1207,
      "ĠØ§ØªØ®Ø°": 1208,
      "ØºÙģØ±Ø©": 1209,
      "ĠØ§ÙĦØºÙĬØ¨": 1210,
      "ĠØ§ÙĦØ¨ØŃØ±": 1211,
      "Ø·ÙĬØ¹ÙĪÙĨ": 1212,
      "ĠÙģØ¶ÙĦÙĩ": 1213,
      "ĠØ§ÙĦØ³Ø¨ÙĬÙĦ": 1214,
      "Ø§ÙĦØ§": 1215,
      "Ø¨Ùĥ": 1216,
      "ĠØ£ÙĦÙĬ": 1217,
      "ĠØ£Ø¥": 1218,
      "ĠØ¨Ø·": 1219,
      "ĠØªÙĤÙĪÙĦ": 1220,
      "ĠÙĥÙħ": 1221,
      "ĠÙĥØªØ¨": 1222,
      "Ø§Ø¶": 1223,
      "ØµÙĦ": 1224,
      "ĠÙĪØ¥ÙĦÙī": 1225,
      "ĠÙĪÙĦÙĦÙĩ": 1226,
      "ĠÙĪÙĤÙĦ": 1227,
      "ÙĪØ±ÙĩÙħ": 1228,
      "ĠØ§ÙĦØµØ¯": 1229,
      "ĠÙĬØ±ÙĪØ§": 1230,
      "ÙħØ±Ø£": 1231,
      "ĠØ¨Ø£ÙĨ": 1232,
      "ĠÙĦÙĥÙĦ": 1233,
      "ĠØ£ØµØ§Ø¨": 1234,
      "ĠÙħØ³ÙĦÙħ": 1235,
      "ĠØªØ£Ùĥ": 1236,
      "ĠØ£Ø¹ÙħØ§ÙĦÙĩÙħ": 1237,
      "ĠØ¹Ø§ÙĤØ¨Ø©": 1238,
      "ÙĩØ²": 1239,
      "ĠÙħØ±Ø¶": 1240,
      "ĠÙħØªØ§": 1241,
      "Ø¹ÙĪ": 1242,
      "Ø¹Ø¬": 1243,
      "ĠØ£Øº": 1244,
      "ĠÙĬØ·": 1245,
      "ĠØ¨ÙĤ": 1246,
      "ĠÙĪØ§ÙĦØ¨": 1247,
      "ĠÙĪØ§ÙĦØ¥": 1248,
      "ĠØ§ÙĦØ°ÙĥØ±": 1249,
      "ĠØ³ÙĪØ§Ø¡": 1250,
      "Ø¦ÙĪÙĨ": 1251,
      "ĠØŃÙĥ": 1252,
      "ĠØ¬ÙĨ": 1253,
      "Ø±Ø§Ùĥ": 1254,
      "ĠÙĪÙħÙĨÙĩÙħ": 1255,
      "ÙĬÙĨØ§Ùĩ": 1256,
      "ĠÙħØ¹ÙĥÙħ": 1257,
      "Ø³ÙĨØ©": 1258,
      "ĠØ¨Ø£ÙĨÙĩÙħ": 1259,
      "ÙħØ¹Ø±ÙĪÙģ": 1260,
      "ĠÙĨÙģØ³Ùĩ": 1261,
      "Ø°ÙĩØ¨": 1262,
      "ĠÙģØ³ÙĪÙģ": 1263,
      "ĠÙħØ³ØªÙĤÙĬÙħ": 1264,
      "ĠØªØ¯Ø¹ÙĪÙĨ": 1265,
      "ĠÙĪØ§ÙĦÙĨÙĩØ§Ø±": 1266,
      "ĠØ§ÙĦØ²ÙĥØ§Ø©": 1267,
      "ĠØ§ÙĦØŃÙħØ¯": 1268,
      "Ø§ÙĩÙħ": 1269,
      "Ø§Ø±Ø§": 1270,
      "ÙĬØ³Ùī": 1271,
      "ĠØ§ÙĦÙģØ§": 1272,
      "ÙĥÙģØ±": 1273,
      "Ø¹Ø±ÙĪÙĨ": 1274,
      "ĠÙĦØº": 1275,
      "ĠØ¨Øµ": 1276,
      "ØŃØ§": 1277,
      "ØŃØ´": 1278,
      "ØŃÙĬÙħ": 1279,
      "Ø£ÙĦÙĪÙĨ": 1280,
      "ĠØ¹Øµ": 1281,
      "ĠØªÙħ": 1282,
      "ĠØªÙĪ": 1283,
      "ĠØªØ²": 1284,
      "Ø§Ø«": 1285,
      "ĠÙĨØ²ÙĦ": 1286,
      "ĠÙĩØ§": 1287,
      "ĠØ¢ØªÙĬ": 1288,
      "ĠÙĪØ£ÙĪÙĦØ¦Ùĥ": 1289,
      "ĠØ®Ø¨ÙĬØ±": 1290,
      "ĠØ´ÙĩØ¯": 1291,
      "ĠÙĪÙĦØ¯": 1292,
      "Ø¨ÙĦØº": 1293,
      "ĠÙĪØ¬Ø§Ø¡": 1294,
      "Ø¨Ø¹Ø¶": 1295,
      "ĠÙĬÙĨØ¸Ø±ÙĪÙĨ": 1296,
      "ĠØ¬Ø§Ø¡ÙĥÙħ": 1297,
      "ĠØ§ÙĦÙĨÙĩØ§Ø±": 1298,
      "Ø§Ø·ÙĦ": 1299,
      "ĠØ§Ø®": 1300,
      "ĠÙĪØ§ØªØ¨Ø¹": 1301,
      "ĠØ¹Ø¨Ø§Ø¯Ùĩ": 1302,
      "Ø·ÙĬØ¹ÙĪØ§": 1303,
      "Ø±Ùĩ": 1304,
      "ĠÙĪÙĬÙĨ": 1305,
      "ĠÙĪØ§Ø¨": 1306,
      "Ø¹ÙĨØ§": 1307,
      "ĠÙģØ¢": 1308,
      "ĠØ¨Ø®": 1309,
      "ĠØ¨Ø´": 1310,
      "ĠØ¥ÙĬÙħØ§": 1311,
      "ÙĨØ§Ùģ": 1312,
      "Ø¬ÙĨ": 1313,
      "ĠÙĥØ£ÙĨ": 1314,
      "Ø§Ø²": 1315,
      "ĠÙģÙĬÙħØ§": 1316,
      "Ø§ÙĨÙĬ": 1317,
      "Ø´Ø£": 1318,
      "ĠØ£ÙĨÙĩ": 1319,
      "ĠÙĪØ§ÙĦØµ": 1320,
      "Ø«ÙĪØ§": 1321,
      "ĠØ§ÙĦÙħØ´Ø±ÙĥÙĬÙĨ": 1322,
      "ĠÙĪÙĦÙĪÙĦØ§": 1323,
      "Ø¤Ùħ": 1324,
      "ĠØ¨Ø§ÙĦØº": 1325,
      "ĠØ¨Ø§ÙĦØ¨ÙĬÙĨØ§Øª": 1326,
      "ĠØ¹ÙĨÙĥÙħ": 1327,
      "ĠØ¹ÙĨÙĩØ§": 1328,
      "ĠÙĪØ¥ÙĨÙĩ": 1329,
      "Ø³ÙħØ¹ÙĪÙĨ": 1330,
      "ĠÙĪØ§Ø³": 1331,
      "ĠØ§ÙĦÙĨØ³Ø§Ø¡": 1332,
      "ĠØ§ÙĦØ¬Ø¨Ø§ÙĦ": 1333,
      "ĠØ¨Ø£Ø³": 1334,
      "ÙħØ¹ÙĬÙĨ": 1335,
      "ĠØ§ÙĦØ¸Ø§ÙĦÙħÙĪÙĨ": 1336,
      "ĠÙĪØ±ØŃÙħØ©": 1337,
      "ĠØªØ¹ÙĤÙĦÙĪÙĨ": 1338,
      "ĠØ®Ø§ÙĦØ¯ÙĪÙĨ": 1339,
      "ÙĩØªØ¯ÙĪÙĨ": 1340,
      "Ø¹Ø¨Ø¯ÙĪØ§": 1341,
      "ĠØ§ÙĦÙħØ±Ø³ÙĦÙĬÙĨ": 1342,
      "ĠØ§ÙĦØ¨Ø±": 1343,
      "ĠÙĪÙĪ": 1344,
      "Ø¨ØµØ§Ø±": 1345,
      "ĠØ£Ø®Ø±": 1346,
      "ĠØ£ÙĦÙĤ": 1347,
      "Ø³ÙĬ": 1348,
      "ĠÙĦÙĦÙĥØ§ÙģØ±ÙĬÙĨ": 1349,
      "ĠØ¨ÙĨ": 1350,
      "ÙĪÙĨÙĩ": 1351,
      "ØŃÙĪÙĨ": 1352,
      "ĠØ¹Ø¸": 1353,
      "ÙĨØ§Ø¡": 1354,
      "ÙĦØ§Ø«": 1355,
      "ĠØªÙĪÙĦÙĪØ§": 1356,
      "ĠÙĤÙĪÙĦ": 1357,
      "Ø®ÙĪØ§": 1358,
      "Ø´Ùģ": 1359,
      "ĠÙĪØ§ÙĦÙĬÙĪÙħ": 1360,
      "ĠÙĪØ£Ùħ": 1361,
      "ĠØ§ÙĦÙħØµÙĬØ±": 1362,
      "ĠØ§ÙĦÙħØªÙĤÙĬÙĨ": 1363,
      "ĠÙĪÙĬØ³Øª": 1364,
      "Ø§Ø¯ÙĪØ§": 1365,
      "ĠØ§ÙĦØŃØ±Ø§Ùħ": 1366,
      "ĠØ¯Ø¹": 1367,
      "ĠÙģØ£ÙħØ§": 1368,
      "ØªÙĬÙĩÙħ": 1369,
      "ĠÙĬØŃÙĥÙħ": 1370,
      "ĠØ¹ÙĨØ¯Ùĩ": 1371,
      "ĠØªØ±Ùĥ": 1372,
      "ĠØ§ÙĦØ¬ØŃÙĬÙħ": 1373,
      "ĠØ±Ø³ÙĪÙĦØ§": 1374,
      "ĠØ£Ø¬ÙĦ": 1375,
      "ĠØ£Ø¬ÙħØ¹ÙĬÙĨ": 1376,
      "Ø®ÙĦØµ": 1377,
      "ĠØ¹Ø¯ÙĪ": 1378,
      "ĠØŃØ³ÙĨØ§": 1379,
      "ĠÙħÙĥØ§ÙĨ": 1380,
      "ĠÙĤØ±ÙĬØ©": 1381,
      "ĠØŃØ±Ùħ": 1382,
      "ĠÙģÙĩÙĦ": 1383,
      "Ø§ØŃ": 1384,
      "ĠØ§ÙĦÙĩØ¯Ùī": 1385,
      "ĠÙĪØ·": 1386,
      "ĠÙħØ®": 1387,
      "ĠÙħÙĬØ«": 1388,
      "ĠØ£Ø´Ø±Ùĥ": 1389,
      "ĠÙĬØ¹Ùħ": 1390,
      "ÙĤØ¨": 1391,
      "ĠØ¨Ø¯": 1392,
      "ĠØ¨ÙĦÙī": 1393,
      "Ø£ÙĪØ§": 1394,
      "ÙĨØ§ÙĩØ§": 1395,
      "ĠØªØ§Ø¨": 1396,
      "ĠÙĨØµØ±": 1397,
      "Ø§Ø¨Ø±ÙĬÙĨ": 1398,
      "ĠÙħØ§Ø°Ø§": 1399,
      "ĠØ§ÙĦÙħØ¨ÙĬÙĨ": 1400,
      "ĠØ§ÙĦÙħØ¤ÙħÙĨÙĪÙĨ": 1401,
      "ĠØŃØ¬": 1402,
      "ĠØ¹ÙĦÙĬÙħØ§": 1403,
      "ĠÙĪØ¥ÙĦÙĬÙĩ": 1404,
      "ĠØ£ÙĪØªÙĬ": 1405,
      "ĠÙĪÙĬØ¹ÙĦÙħ": 1406,
      "Ø§Ø±Ùĥ": 1407,
      "Ø³ÙħÙī": 1408,
      "ÙĬØ¨Ø§Øª": 1409,
      "ĠÙĦÙĦØ¹": 1410,
      "ĠÙĬØ±Ø¬Ø¹ÙĪÙĨ": 1411,
      "ĠÙģØªÙĨØ©": 1412,
      "ĠÙĬØ¹ÙĤÙĦÙĪÙĨ": 1413,
      "ĠØ£Ø¬Ø±Ø§": 1414,
      "ĠØ²ÙĬÙĨ": 1415,
      "ĠØªÙĥÙĨ": 1416,
      "ÙĪÙĥÙĦ": 1417,
      "Ø¸Ø±ÙĪØ§": 1418,
      "Ø£ÙĬØªÙħ": 1419,
      "Ø¤ÙħÙĨØ§Øª": 1420,
      "ĠØ¹Ø¸ÙĬÙħØ§": 1421,
      "ÙĦÙĪ": 1422,
      "ÙĦØ£": 1423,
      "ÙĩØ¨": 1424,
      "ÙĩÙĬÙĨ": 1425,
      "ĠÙĪÙĬØ±": 1426,
      "ĠÙĪØ¸": 1427,
      "ÙĥØ¨Ø±ÙĪØ§": 1428,
      "ØªØº": 1429,
      "ØªØ¨Ø¹": 1430,
      "ĠÙħÙĥØ±": 1431,
      "ĠÙħØ³ÙħÙī": 1432,
      "Ø¯Ø®ÙĦ": 1433,
      "Ø³ØŃ": 1434,
      "ĠÙģØµ": 1435,
      "ĠÙĬØ¨Ø¯": 1436,
      "ĠÙĬØ¬Ø¯": 1437,
      "ĠÙĬØ¨Ø¹Ø«": 1438,
      "ĠÙĬØ³ÙħØ¹ÙĪÙĨ": 1439,
      "ÙĤØµ": 1440,
      "ĠØ¹Ø§Ø¯": 1441,
      "ĠØ¹Ø¨Ø¯": 1442,
      "ĠØ¹Ø³Ùī": 1443,
      "ÙĦØ§ÙĤ": 1444,
      "ĠÙĤØ±": 1445,
      "ÙħÙĨÙĪØ§": 1446,
      "Ø¶Ùī": 1447,
      "Ø¶Ø¹Ùģ": 1448,
      "Ø´ÙĪÙĨ": 1449,
      "Ø´Ø±ÙĪÙĨ": 1450,
      "ĠÙĨØ§Ø±": 1451,
      "ĠØ³Ø¨Ø¹": 1452,
      "ĠØ³ÙħÙĬØ¹": 1453,
      "Ø«Ø§ÙĦ": 1454,
      "ĠØ¢ØªØ§": 1455,
      "ĠÙĪØ£ÙĤ": 1456,
      "ĠØ®ÙĪÙģ": 1457,
      "ÙĬÙħÙĬÙĨ": 1458,
      "Ø±Ø¶ÙĪÙĨ": 1459,
      "ĠØ¨Ø§ÙĦÙĤ": 1460,
      "ĠØ¨Ø§ÙĦØ¢Ø®Ø±Ø©": 1461,
      "ĠØ°Ø§": 1462,
      "ĠØ£ÙĪÙĦØ§": 1463,
      "ĠØ§ÙĦØ³ÙĬ": 1464,
      "Ø§Ø±Ø©": 1465,
      "ĠÙĪÙĤÙĪÙħ": 1466,
      "ĠÙĪÙĥÙģÙī": 1467,
      "Ø°Ø¨ÙĪÙĨ": 1468,
      "ÙĬØ¨Ø©": 1469,
      "ĠÙĬÙĨÙģØ¹": 1470,
      "ĠÙĬÙĨÙģÙĤÙĪÙĨ": 1471,
      "ĠØ¨Ø¹Ø¯Ùĩ": 1472,
      "ĠÙĬØ´Ø¹Ø±ÙĪÙĨ": 1473,
      "Ø³Ø±ÙĬÙĨ": 1474,
      "ÙĤØ§Ùħ": 1475,
      "ĠØ§ÙĦØ¬ÙĨ": 1476,
      "ĠØ¶ÙĦ": 1477,
      "ĠØ¶Ø±Ø¨": 1478,
      "ÙĬÙħØ§ÙĨ": 1479,
      "ĠØ§ØªØ®Ø°ÙĪØ§": 1480,
      "ĠÙĬØ®ÙĦÙĤ": 1481,
      "ĠØ§Ø«": 1482,
      "ĠÙĪØ¢ØªÙĬÙĨØ§": 1483,
      "ĠØ§ÙĦÙģÙĦÙĥ": 1484,
      "ĠÙĬÙĪØ³Ùģ": 1485,
      "ÙĤÙĬÙħÙĪØ§": 1486,
      "ĠØ³ÙĬØ¦Ø§Øª": 1487,
      "ĠÙĥØ«ÙĬØ±": 1488,
      "Ø§ÙĩØ¯ÙĪØ§": 1489,
      "ĠØªÙĥÙĪÙĨÙĪØ§": 1490,
      "ÙĨØ¬": 1491,
      "ĠØ§ÙĦÙĬ": 1492,
      "ĠØ§ÙĦÙĪ": 1493,
      "ĠØ§ÙĦØ¨ÙĬ": 1494,
      "ĠÙĪØ§Øµ": 1495,
      "ÙĥØ¨Ø±": 1496,
      "ØªØ©": 1497,
      "Ø¨Ùĩ": 1498,
      "ĠØ£ÙħÙĨ": 1499,
      "ĠØ£ÙĬØ§Ùħ": 1500,
      "Ø³Ø§Ø¨": 1501,
      "ĠÙģÙĬÙĨ": 1502,
      "ĠÙĬØºÙģØ±": 1503,
      "ĠÙĬÙħØ³": 1504,
      "ĠØ¹Ø§ÙĦ": 1505,
      "ĠØªØ¤": 1506,
      "ĠÙĥÙĬØ¯": 1507,
      "ĠÙĤØª": 1508,
      "ÙĩØ§Ø¯Ø©": 1509,
      "Ø¶Ø§": 1510,
      "Ø¶Ø¹": 1511,
      "ĠØ¢Ø®Ø±": 1512,
      "ĠØ¢Ø¯Ùħ": 1513,
      "ĠÙĪØ£Ùĩ": 1514,
      "ĠØ¨Ø§ÙĦÙħ": 1515,
      "ĠØ¨Ø§ÙĦÙħØ¹Ø±ÙĪÙģ": 1516,
      "ĠÙĪÙĬØ¹": 1517,
      "ĠØ§ÙĦØ±Ø¬": 1518,
      "ĠØ§ÙĦØ¹Ø±Ø´": 1519,
      "ĠØ§Ø³": 1520,
      "ĠØ§ÙħØ±Ø£": 1521,
      "ÙĤØ¯Ø±": 1522,
      "ĠØºÙģÙĪØ±Ø§": 1523,
      "ĠÙĬØŃØ²": 1524,
      "Ø¬Ø±Ø©": 1525,
      "ĠØ£ØŃØ¯Ø§": 1526,
      "ĠØªØ±Ø¬Ø¹ÙĪÙĨ": 1527,
      "ĠØ§ÙĦØ´ÙħØ³": 1528,
      "ĠØ²ÙĪØ¬": 1529,
      "ĠÙħØ«ÙĦØ§": 1530,
      "ĠØ¨Ø¹Ø¶ÙĥÙħ": 1531,
      "ÙĤØªÙĦ": 1532,
      "ĠØªØ¹Ø¨Ø¯ÙĪÙĨ": 1533,
      "ĠØ±ØŃÙĬÙħØ§": 1534,
      "ĠØ£Ø®Ø§Ùģ": 1535,
      "ĠØ¹ÙħÙĦÙĪØ§": 1536,
      "ĠØ¨ÙĬÙĪØª": 1537,
      "ĠÙĨØ¬Ø²ÙĬ": 1538,
      "ĠÙĥØ±ÙĬÙħ": 1539,
      "ĠØ£ÙĪÙĦÙĪ": 1540,
      "ĠØ£ÙħÙĪØ§ÙĦÙĩÙħ": 1541,
      "ĠÙĦØ¢ÙĬØ©": 1542,
      "ĠØ´ÙĩÙĬØ¯Ø§": 1543,
      "ĠÙĪØ§ÙĦÙĤÙħØ±": 1544,
      "ĠØ£Ø±Ø§Ø¯": 1545,
      "ĠØ§ÙĦÙģØ§Ø³": 1546,
      "Ø§ÙĥÙħ": 1547,
      "ĠØ§ÙĦØ«": 1548,
      "ĠÙĪÙģ": 1549,
      "ĠÙĪØ´": 1550,
      "ÙĥØ°Ø¨ÙĬÙĨ": 1551,
      "ĠÙħØ§ÙĦ": 1552,
      "ĠØ£Ø°": 1553,
      "ĠØ£Ø£": 1554,
      "ĠØ£Ø«": 1555,
      "ĠØ£Ø±Ø¶": 1556,
      "ĠÙĬÙĪØŃ": 1557,
      "ĠÙĬØ´Ø±ÙĥÙĪÙĨ": 1558,
      "ĠØ¨Ø¢": 1559,
      "ĠØ¥ÙĦÙĬÙĨØ§": 1560,
      "ØŃØ¯": 1561,
      "ĠØ¹Ø¬": 1562,
      "ĠØªØ¬Ø¯": 1563,
      "Ø¬Ø²ÙĬ": 1564,
      "ĠÙĤÙĪÙĦØ§": 1565,
      "Ø¶Ø¨": 1566,
      "ĠØ£ÙĨÙħØ§": 1567,
      "ĠÙĪØ§ÙĦØ¢Ø®Ø±Ø©": 1568,
      "ĠÙĨØ§Ø±Ø§": 1569,
      "ĠØ³Ø¹": 1570,
      "ĠØ³ÙĦØ§Ùħ": 1571,
      "Ø·ÙĩØ±": 1572,
      "Ø«ÙĪÙĨ": 1573,
      "ĠØ§ÙĦÙħØ¬Ø±ÙħÙĬÙĨ": 1574,
      "ĠØŃØ³Ø¨": 1575,
      "ØªÙħÙĪÙĨ": 1576,
      "ĠÙĪÙĦÙĥÙħ": 1577,
      "ĠØ¨Ø§ÙĦØ¹": 1578,
      "ĠØ°ÙĬ": 1579,
      "Ø¹ÙĦÙĪØ§": 1580,
      "ĠØ§ÙĦØ³ÙħÙĬØ¹": 1581,
      "ĠØ«ÙĦØ§Ø«": 1582,
      "ÙģØ³ÙĩÙħ": 1583,
      "ĠØ§Ø³Ùħ": 1584,
      "ĠÙĦÙĩÙĪ": 1585,
      "Ø±Ø³ÙĪÙĦ": 1586,
      "Ø§Ø¦ÙĩÙħ": 1587,
      "ĠÙĬØ±Ø¯": 1588,
      "ĠØªØ±Ùī": 1589,
      "ĠÙĬØ£Ùĥ": 1590,
      "ĠØ¨ÙĦØº": 1591,
      "ĠØ§ÙĦØ®ÙĬØ±": 1592,
      "ĠØ£ÙĥØ¨Ø±": 1593,
      "ĠØªØªØ¨Ø¹": 1594,
      "ĠØªØªÙĤÙĪÙĨ": 1595,
      "ĠØ§Ø´": 1596,
      "ĠÙĬØ¬Ø¹ÙĦ": 1597,
      "ĠØ§ÙĦØµØ§ÙĦØŃÙĬÙĨ": 1598,
      "ĠÙĤÙĪØ©": 1599,
      "ĠØªØ´ÙĥØ±ÙĪÙĨ": 1600,
      "Ø¨Ø¦ÙĥÙħ": 1601,
      "ĠÙĬØŃÙĬÙĬ": 1602,
      "ĠÙĨØ´Ø§Ø¡": 1603,
      "ÙĨØ§ÙģÙĤÙĬÙĨ": 1604,
      "ĠÙħÙĬØ«Ø§ÙĤ": 1605,
      "Ø§Ø³Ø±ÙĬÙĨ": 1606,
      "ÙĬØ¹": 1607,
      "ÙĬÙĤ": 1608,
      "ĠÙĪÙĬÙħ": 1609,
      "ÙĥØ±Ø§": 1610,
      "ØªÙĨÙĬ": 1611,
      "Ø¨ÙĨØ§": 1612,
      "Ø¨Ø±ÙĪÙĨ": 1613,
      "ĠÙħØ´": 1614,
      "Ø¹ÙĬÙħ": 1615,
      "ĠØ£Ø±Ø¨": 1616,
      "ĠØ£ØªØ§": 1617,
      "Ø¯ÙĬ": 1618,
      "Ø¯ÙĥÙħ": 1619,
      "Ø³ÙĪØ§": 1620,
      "Ø³Ø§ÙĨ": 1621,
      "ĠÙĬØ¨ÙĬÙĨ": 1622,
      "ÙĤÙĨØ§": 1623,
      "ÙĤØ±Ø¨": 1624,
      "ÙģÙĤ": 1625,
      "ĠØ¹ÙĬÙĨ": 1626,
      "ÙĨØ§ÙĥÙħ": 1627,
      "ĠØªØº": 1628,
      "ĠÙĤØ§Ø¦": 1629,
      "ĠÙĤØªÙĦ": 1630,
      "Ø®Ø±ÙĪÙĨ": 1631,
      "ĠØ±ÙĬØ¨": 1632,
      "Ø²Ø¹": 1633,
      "Ø´Ùī": 1634,
      "ÙĬØ±ÙĪØ§": 1635,
      "Ø§Ø¡ÙĩÙħ": 1636,
      "Ø«Ùī": 1637,
      "ØºÙĪÙĨ": 1638,
      "ĠØ¬ÙĨØ©": 1639,
      "Ø¸Ø§ÙĦÙħÙĬÙĨ": 1640,
      "ĠØ¨Ø§ÙĦØ¨": 1641,
      "ĠØ°ÙĨ": 1642,
      "ÙĬØ§Ø±": 1643,
      "ĠØ£ÙĪØŃ": 1644,
      "ĠØ¯Ø§Ø¨": 1645,
      "Ø¤ÙħÙĨÙĪØ§": 1646,
      "ÙģØ³Ø¯ÙĬÙĨ": 1647,
      "ĠÙĪØ§Ø¹ÙĦÙħÙĪØ§": 1648,
      "ĠÙĬØªÙĤÙĪÙĨ": 1649,
      "ĠÙĬÙĨØµØ±ÙĪÙĨ": 1650,
      "ĠØ¬Ø§Ø¡ØªÙĩÙħ": 1651,
      "ØŃÙħØ¯": 1652,
      "ĠÙĤØ¨ÙĦÙĥÙħ": 1653,
      "ĠØ®ÙĦÙĤÙĥÙħ": 1654,
      "Ø§ÙģÙĪÙĨ": 1655,
      "Ø§ÙģØ¸": 1656,
      "ĠÙĦÙĨÙģØ³": 1657,
      "Ø§Ø·ÙĬÙĨ": 1658,
      "ÙĪØ±Ø§Ø©": 1659,
      "ĠÙĪØ¨Ø§ÙĦ": 1660,
      "ĠÙĪØ¨Ø´Ø±": 1661,
      "ĠÙģÙĤÙĦ": 1662,
      "ĠÙģÙĥØ§ÙĨ": 1663,
      "ØµØ¯ÙĤ": 1664,
      "ĠÙĦÙĦÙħØªÙĤÙĬÙĨ": 1665,
      "ĠØ¹ÙħÙĦ": 1666,
      "ĠØ§ÙĦØ±Ø³ÙĦ": 1667,
      "ĠÙĪØ§ØŃØ¯": 1668,
      "ĠÙĪØ§Ø´": 1669,
      "Ø§Ø¤ÙĥÙħ": 1670,
      "ĠÙĬÙħÙĦÙĥ": 1671,
      "ĠÙģÙĤØ§ÙĦÙĪØ§": 1672,
      "ĠÙĬÙģØªØ±ÙĪÙĨ": 1673,
      "ĠÙĥÙĦÙħØ©": 1674,
      "ÙĪÙĬÙĦ": 1675,
      "ÙĪØªÙī": 1676,
      "ÙĩÙĪØ§": 1677,
      "ĠØ§ÙĦÙħØ§Ø¡": 1678,
      "ĠÙĪÙĩØ§": 1679,
      "ĠÙĪØ§ÙĨ": 1680,
      "ĠÙĪØ§Ø±": 1681,
      "Ø¨Ø¹ÙĪÙĨ": 1682,
      "ĠÙħØ¤ÙħÙĨ": 1683,
      "ĠÙħØºÙģØ±Ø©": 1684,
      "ĠØ£ÙĬÙĨ": 1685,
      "ĠØ£Ø¸ÙĦÙħ": 1686,
      "Ø¯Øª": 1687,
      "ĠÙģÙĦÙħ": 1688,
      "ĠÙģØ§Øµ": 1689,
      "ĠÙĬÙĩØ¯": 1690,
      "Ø°Ø§ÙĨ": 1691,
      "Ø°Ø±ÙĪÙĨ": 1692,
      "ĠØ¹ÙĩØ¯": 1693,
      "ĠØªØ°ÙĥØ±ÙĪÙĨ": 1694,
      "Ø¬ÙĬØ¨": 1695,
      "ĠÙĥÙĨ": 1696,
      "ĠÙĥØ£": 1697,
      "ĠÙĥØ¨ÙĬØ±Ø§": 1698,
      "ÙĦÙĬÙħØ§ÙĨ": 1699,
      "ĠÙĨØ·": 1700,
      "ĠÙĨØ§Ø¯": 1701,
      "ĠÙĩØ¯Ø§": 1702,
      "Ø§ØªÙĦ": 1703,
      "ĠØ³Ø¬": 1704,
      "Ø§Ø¡ÙĥÙħ": 1705,
      "ĠØ§ÙĦÙħÙĦØ£": 1706,
      "ĠØŃÙĤØ§": 1707,
      "ĠØŃØ³ÙĨØ©": 1708,
      "ÙģØ±ÙĪØ§": 1709,
      "ĠØ´Ø¹": 1710,
      "ĠÙĪÙĦØ£": 1711,
      "ĠØ°Ø§Øª": 1712,
      "ĠÙĪÙĬÙĦ": 1713,
      "Ø¹Ø¯ÙĪØ§": 1714,
      "ĠØ£ÙħØ±Ø§": 1715,
      "ĠØ§ÙĦÙĤØ±Ùī": 1716,
      "ĠØ§Ø¹Ø¨Ø¯ÙĪØ§": 1717,
      "ĠØ§ÙĦÙĥØ§ÙģØ±ÙĪÙĨ": 1718,
      "Ø±Ø¨Øµ": 1719,
      "ĠØ¨ÙĬÙĨÙĨØ§": 1720,
      "ĠØ§ÙĦØµØ§Ø¯ÙĤÙĬÙĨ": 1721,
      "ĠÙĪØ§Ø°ÙĥØ±": 1722,
      "ÙĪØ¨ÙĩÙħ": 1723,
      "ĠÙĬÙĨØ²ÙĦ": 1724,
      "ĠØ¨Ø¹Ø¯ÙĩÙħ": 1725,
      "ĠØ¨Ø£ÙħØ±": 1726,
      "ĠØ£ÙģÙħÙĨ": 1727,
      "ĠÙĪØ¹ÙĨ": 1728,
      "Ø°Ø±ÙĩÙħ": 1729,
      "ĠÙĬØ¯ÙĬÙĩ": 1730,
      "ÙĤØªÙĦÙĪÙĨ": 1731,
      "ĠÙĦÙĪØ·": 1732,
      "ĠÙģÙĥØ°Ø¨": 1733,
      "ĠÙĬÙģÙĤ": 1734,
      "ĠÙĤØ¨ÙĦÙĩ": 1735,
      "ĠØŃØ³Ø§Ø¨": 1736,
      "Ø¨Ø§Ø±Ùĥ": 1737,
      "ØªÙĦÙģÙĪÙĨ": 1738,
      "ĠÙģØ§ØªÙĤÙĪØ§": 1739,
      "Ø°ÙĪÙĤÙĪØ§": 1740,
      "ĠÙĪØ¬ÙĪÙĩÙĩÙħ": 1741,
      "ĠØ¢ÙĦÙĩØ©": 1742,
      "ĠÙģØ£ØµØ¨ØŃ": 1743,
      "ĠØ·Ø§Ø¦ÙģØ©": 1744,
      "ĠÙħØªØ§Ø¹": 1745,
      "Ø³ØŃØ§ÙĤ": 1746,
      "ĠØ§Ø±": 1747,
      "Ø§ÙĩØ§": 1748,
      "Ø§Ø¬Ø¯": 1749,
      "ÙħÙĦ": 1750,
      "ÙħØ±ÙĪÙĨ": 1751,
      "ÙĬØªÙħ": 1752,
      "Ø§ÙĦÙī": 1753,
      "ĠØ§ÙĦÙĪØ§": 1754,
      "ĠÙĪÙģØ±": 1755,
      "ĠÙĪØ§Ø¯": 1756,
      "ĠÙĪÙĩØ¯Ùī": 1757,
      "ÙĥÙĬÙĨ": 1758,
      "Ø¨ÙĩÙħ": 1759,
      "ĠØ£ÙħØ§": 1760,
      "ĠØ£Ø¹Ø¯": 1761,
      "Ø¯ÙĩÙħ": 1762,
      "Ø³Ùĥ": 1763,
      "ĠÙģØ§Ø±": 1764,
      "ĠÙĦØ¬": 1765,
      "ĠÙĦØ±Ø¨": 1766,
      "ĠÙĬØ¸": 1767,
      "ĠÙĬÙĦÙĤ": 1768,
      "ÙĤÙĩÙħ": 1769,
      "ÙĤØ·": 1770,
      "ÙĤÙĪØ¨": 1771,
      "ÙĪØ§Ùĩ": 1772,
      "ĠØ¨Ø¬": 1773,
      "ĠØ¨Ø¨Ø¹Ø¶": 1774,
      "ĠØ¥ØŃ": 1775,
      "ÙģØ®": 1776,
      "ØŃØ²": 1777,
      "ÙĦÙĩÙĨ": 1778,
      "ĠØ¹ÙĬØ³Ùī": 1779,
      "ĠØªØ¨Ø¯": 1780,
      "ĠØªØ®Ø±Ø¬": 1781,
      "Ø¬ÙĪÙĨ": 1782,
      "ĠÙģÙĬÙĩÙħ": 1783,
      "Ø®ÙĦÙģ": 1784,
      "ĠØ±Ø²": 1785,
      "ĠØ±Ø¡": 1786,
      "ĠØ£ÙĨØ¹Ùħ": 1787,
      "ĠÙĪØ§ÙĦÙħØ³": 1788,
      "ĠÙĨØ²": 1789,
      "ĠÙĩÙĨ": 1790,
      "ĠØ³Ø±": 1791,
      "ĠØ³Ø®Ø±": 1792,
      "Ø§Ø¡ÙĨØ§": 1793,
      "Ø¦ÙĬÙĨ": 1794,
      "ĠÙĪØ£Ùĥ": 1795,
      "ĠÙĪØ£Ø®": 1796,
      "ĠØ§ÙĦÙħÙĪØªÙī": 1797,
      "ĠØ®Ø·": 1798,
      "ĠØ§ÙĦØ£ÙĦØ¨": 1799,
      "ĠÙĪÙĬØ³": 1800,
      "Ø§Ø¯Ø§": 1801,
      "ÙĬØ¯ÙĪÙĨ": 1802,
      "ĠØ§ÙĦØŃØ³Ø§Ø¨": 1803,
      "ĠØ¯Ø±Ø¬": 1804,
      "ĠØ§ÙĦØ¹ÙĤØ§Ø¨": 1805,
      "ÙĩØ¯ÙĪØ§": 1806,
      "ĠÙĦÙĬÙĤÙĪÙĦ": 1807,
      "ĠÙĪÙĥÙĨØ§": 1808,
      "ĠÙĪÙĥØ°Ø¨": 1809,
      "Ø°Ø¨ÙĩÙħ": 1810,
      "Ø±Ø¨Ùī": 1811,
      "Ø§Ø¦ÙĥÙħ": 1812,
      "ĠØ¨ÙĬÙĨØ§Øª": 1813,
      "ĠÙĬØªÙģ": 1814,
      "ĠÙĬØªØ®Ø°": 1815,
      "ĠÙĤØ¯ÙħØª": 1816,
      "Ø¬Ø±ÙħÙĪÙĨ": 1817,
      "ĠØ¸ÙĨ": 1818,
      "ĠØ¸Ùĩ": 1819,
      "ĠØ£ÙĩÙĦÙĩØ§": 1820,
      "ĠØ£ÙĩÙĪØ§Ø¡": 1821,
      "ĠÙħØ±Ø¬Ø¹": 1822,
      "ĠØªØªÙĦÙī": 1823,
      "ĠÙĥØ°Ø¨Øª": 1824,
      "ĠØ§ÙĦØ¨ÙĦØ§": 1825,
      "ĠØ¥ÙĦÙĩØ§": 1826,
      "ĠØªØ£ØªÙĬÙĩÙħ": 1827,
      "ĠØ£ÙħØ±ÙĨØ§": 1828,
      "ĠØ§ÙĦÙģÙĪØ²": 1829,
      "ĠÙģÙĥÙĬÙģ": 1830,
      "ĠÙĬÙĪÙħØ§": 1831,
      "ĠØ±ØŃÙħØªÙĩ": 1832,
      "ĠÙĨØ¹ÙħØ©": 1833,
      "ĠØ¢ØªÙĬÙĨØ§ÙĩÙħ": 1834,
      "ĠÙĨØ¨Ø£": 1835,
      "ĠÙĥØ³Ø¨Øª": 1836,
      "ĠØ³ÙħØ¹ÙĨØ§": 1837,
      "ĠÙĪØ£ØµÙĦØŃ": 1838,
      "ĠØ£ÙĩÙĦÙĥÙĨØ§": 1839,
      "ĠØ§ÙĦØµØ¯ÙĪØ±": 1840,
      "ÙĩØ²Ø¦ÙĪÙĨ": 1841,
      "ĠØŃÙĥÙĬÙħØ§": 1842,
      "ĠØ§ÙĦØ£ÙĦØ¨Ø§Ø¨": 1843,
      "ĠØ§Ø¦": 1844,
      "ÙĦØªÙħ": 1845,
      "ÙħÙī": 1846,
      "ÙĥÙħØ§": 1847,
      "ØªÙĨ": 1848,
      "ØªØ®Ø°": 1849,
      "Ø¹ÙĬ": 1850,
      "Ø¹Ùī": 1851,
      "ĠØ£ÙĦ": 1852,
      "Ø¯Ø¹": 1853,
      "ĠÙĬØ¶Ø±": 1854,
      "ÙĤØ§ÙĦ": 1855,
      "ÙĦØ§Ùģ": 1856,
      "ĠÙĥÙĦÙĪØ§": 1857,
      "ĠÙĥØ§ÙģØ±ÙĪÙĨ": 1858,
      "ĠÙģÙĬÙĤÙĪÙĦ": 1859,
      "ĠØ¥ÙĨÙĩØ§": 1860,
      "ÙĩØ§Ø¯": 1861,
      "Ø²Ø©": 1862,
      "ĠØ£ÙĨÙĬ": 1863,
      "ĠØ£ÙĨÙī": 1864,
      "ĠÙĪØ§ÙĦÙĥ": 1865,
      "ĠÙĪØ§ÙĦØ°ÙĬ": 1866,
      "Ø§ØªÙĦÙĪØ§": 1867,
      "ĠØ³Ø£": 1868,
      "ĠØ³ØŃØ±": 1869,
      "ĠÙĪØ£Ø¨": 1870,
      "ĠÙĪØ£ÙĦÙĤ": 1871,
      "ĠÙĪØ£ÙħØ±": 1872,
      "ĠØ§ÙĦÙħØª": 1873,
      "ĠØ§ÙĦÙħÙĨØ§ÙģÙĤÙĬÙĨ": 1874,
      "ĠØŃØ±Ø¬": 1875,
      "ØºÙĬØ±": 1876,
      "ØªÙħØª": 1877,
      "ĠØ®ÙĦØª": 1878,
      "ĠØ´Ø¦": 1879,
      "ĠØ°Ø±ÙĬ": 1880,
      "ĠÙĪÙĬØŃ": 1881,
      "ĠÙĪÙĬØ£": 1882,
      "ĠÙĪÙĬÙĩØ¯ÙĬ": 1883,
      "ĠÙĪÙĤÙĬÙĦ": 1884,
      "ĠØ§ÙĩØª": 1885,
      "ÙĪØ±Ø©": 1886,
      "Ø±Ø¨ÙĪØ§": 1887,
      "ĠÙĥÙĦÙħØ§": 1888,
      "ĠÙģØ¥ÙĨÙĩ": 1889,
      "ĠØ¨Ø¹Ø«": 1890,
      "ĠÙĪØ§ÙĦØ£ÙĨ": 1891,
      "Ø³Ø±ÙĪØ§": 1892,
      "ĠÙĪÙĨØŃÙĨ": 1893,
      "ĠÙĬØ£Øª": 1894,
      "ĠØ±Ø³ÙĦÙĨØ§": 1895,
      "ĠØ±Ø³ÙĪÙĦÙĩ": 1896,
      "Ø°Ø±ÙĬÙĨ": 1897,
      "ĠÙĬØ³ØªØ·ÙĬØ¹ÙĪÙĨ": 1898,
      "ĠÙĪØ¨Ø¦Ø³": 1899,
      "ĠÙĥØ°Ø¨Ø§": 1900,
      "ĠØ£Ø¹ÙĬÙĨ": 1901,
      "ĠÙĪØ¢ØªÙĪØ§": 1902,
      "ĠÙĦÙĦÙħØ¤ÙħÙĨÙĬÙĨ": 1903,
      "ĠØ£Ø¨ÙĨØ§Ø¡": 1904,
      "ĠÙħÙĦÙĥØª": 1905,
      "Ø§Ø¤ÙĨØ§": 1906,
      "ĠÙĬØ£ØªÙĬÙĩÙħ": 1907,
      "ĠØ§ÙĦÙħØ³Ø¬Ø¯": 1908,
      "ĠØ§ÙĦØªÙĪØ±Ø§Ø©": 1909,
      "ĠÙĪÙĩØ°Ø§": 1910,
      "ĠÙĦØ¨Ø«": 1911,
      "ĠÙĥØ³Ø¨ÙĪØ§": 1912,
      "ĠØŃØ¯ÙĬØ«": 1913,
      "ĠØ£ÙĬÙħØ§ÙĨÙĩÙħ": 1914,
      "ĠØ£ÙĬÙħØ§ÙĨÙĥÙħ": 1915,
      "ĠØ³ÙĦØ·Ø§ÙĨ": 1916,
      "ĠØªÙĤÙĪÙĦÙĪØ§": 1917,
      "ĠØ¨ØµÙĬØ±Ø§": 1918,
      "Ø£ÙĦÙĪÙĨÙĥ": 1919,
      "ĠØ£Ø®Ø±Ùī": 1920,
      "Ø®ÙĦØµÙĬÙĨ": 1921,
      "ĠØ±Ø²ÙĤØ§": 1922,
      "ĠÙĦÙĬÙĤÙĪÙĦÙĨ": 1923,
      "Ø§ÙĨØ§": 1924,
      "ÙħØ§ÙĦ": 1925,
      "ÙĪÙĦÙĬ": 1926,
      "Ø§ÙĦÙĪØ§": 1927,
      "Ø±Ø¡": 1928,
      "ĠØ§ÙĦØ¢": 1929,
      "ĠÙĪØ°ÙĥØ±": 1930,
      "ÙĥÙĩ": 1931,
      "ĠÙħÙĪØ§": 1932,
      "ĠÙħØ¬": 1933,
      "ĠÙħØŃÙĬ": 1934,
      "ĠØ£Ø¶": 1935,
      "ĠØ£ÙģØ±": 1936,
      "ĠØ£ÙĦÙģ": 1937,
      "ĠØ£Ø¶ÙĦ": 1938,
      "Ø³ÙĪÙĨ": 1939,
      "ĠÙģØ§Ø¯": 1940,
      "ĠÙĦØŃ": 1941,
      "ĠÙĬØ¹Ø¯": 1942,
      "ĠØ¨Ø°ÙĨ": 1943,
      "ĠØ¥ÙħØ§": 1944,
      "ÙĪÙĨÙĪØ§": 1945,
      "ÙģÙĪ": 1946,
      "Ø£ÙĬØª": 1947,
      "Ø£ÙĦÙĥÙħ": 1948,
      "ĠØ¹Ø±Ø¶": 1949,
      "ĠØ¹Ø¯ÙĪØ§": 1950,
      "ĠØªØ·": 1951,
      "ĠÙĥØ¨ÙĬØ±": 1952,
      "Ø¶ÙĪÙĨ": 1953,
      "Ø¶Ø©": 1954,
      "Ø²Ø§": 1955,
      "Ø²ÙĬØ¯": 1956,
      "ĠØ£ÙĨÙĥÙħ": 1957,
      "ĠØ£ÙĨØ´Ø£": 1958,
      "ĠÙĪØ§ÙĦØŃÙĥÙħ": 1959,
      "ĠÙĨÙĪØ±": 1960,
      "ĠÙĨØ§Øµ": 1961,
      "ĠØ³Ø±Ø§": 1962,
      "ĠØ³ÙĨØ©": 1963,
      "ĠÙĪØ£Ø·ÙĬØ¹ÙĪØ§": 1964,
      "ĠØ§ÙĦÙħØ³Øª": 1965,
      "ĠØ§ÙĦÙħØ¯ÙĬÙĨ": 1966,
      "ĠØ§ÙĦØ£Ø¹": 1967,
      "ĠØ§ÙĦØ£ÙĪÙĦÙī": 1968,
      "ĠÙĪØ¥ÙħØ§": 1969,
      "ĠÙĪÙĦØ¹": 1970,
      "ĠØ¨Ø§ÙĦØ£": 1971,
      "ĠØ§ÙĦØ³ØŃØ±": 1972,
      "ĠØ§ÙĦØ³ÙĪØ¡": 1973,
      "ÙĬØ¯Ùĩ": 1974,
      "Ø¹ÙĦÙħÙĪÙĨ": 1975,
      "ĠÙĤÙĦÙĨØ§": 1976,
      "Ø§Ø±ÙĩÙħ": 1977,
      "ĠØ¯Ø¹ÙĪØ§": 1978,
      "ĠØ¯Ø§ÙĪ": 1979,
      "ĠØ¯ÙĬØ§Ø±": 1980,
      "ĠÙģØ£ÙĦÙĤ": 1981,
      "ÙĥØ±ÙĪØ§": 1982,
      "ĠØ¨ÙĩØ°Ø§": 1983,
      "ĠÙĪÙĥÙĦ": 1984,
      "ĠØ§ÙĦÙĥØ°Ø¨": 1985,
      "ĠÙĪØ¥ÙĨÙĬ": 1986,
      "Ø§Ø¦Ø±": 1987,
      "ĠÙĪØ¬Ø¯ÙĨØ§": 1988,
      "ĠØ¨ÙĬÙĨØ©": 1989,
      "ĠÙħØ¹ÙĬ": 1990,
      "ĠÙħØ¹ÙĩÙħ": 1991,
      "ĠÙħØ¹Ø±Ø¶ÙĪÙĨ": 1992,
      "ĠØ¨Ø¹ÙĬØ¯": 1993,
      "ĠØ¨Ø¹Ø°Ø§Ø¨": 1994,
      "ĠÙĬØªÙĪØ¨": 1995,
      "ĠØ¹ÙĨØ¯ÙĨØ§": 1996,
      "ÙĤØ§ÙħÙĪØ§": 1997,
      "ĠÙĪØ£ÙĨØª": 1998,
      "ĠØ£ÙĩÙĦÙĩ": 1999,
      "ĠÙĬÙĥØ³Ø¨ÙĪÙĨ": 2000,
      "ĠØªØŃØ²": 2001,
      "Ø°Ø±ÙĪØ§": 2002,
      "ÙģØªØŃ": 2003,
      "ĠØ§ÙĦØ®ÙĦÙĤ": 2004,
      "ĠÙĬØ¯Ø®": 2005,
      "ĠÙĬØ³ØªÙĪÙĬ": 2006,
      "ĠÙĬØ³ØªÙĩØ²Ø¦ÙĪÙĨ": 2007,
      "ĠØ§ÙĦØ¸ÙĦÙħØ§Øª": 2008,
      "ĠÙĦØ£ÙĨ": 2009,
      "ĠÙħØ±Ø©": 2010,
      "ĠÙĨÙģØ³Ø§": 2011,
      "ĠÙĤÙĦÙĪØ¨ÙĥÙħ": 2012,
      "ĠØ§Øµ": 2013,
      "ĠÙĪØ§ÙĦÙħÙĦØ§Ø¦ÙĥØ©": 2014,
      "ĠØ§ÙĦÙģØ¶ÙĦ": 2015,
      "ĠÙĬÙĪÙĤ": 2016,
      "ĠØ£Ø³ÙĦÙħ": 2017,
      "ĠØ§ÙĦØ£ÙĨØ¹Ø§Ùħ": 2018,
      "ĠØ£Ø¨ØµØ§Ø±": 2019,
      "ØŃÙĬÙĬ": 2020,
      "ĠØ£Ø±Ø£ÙĬØªÙħ": 2021,
      "ØµØ§Ø±Ùī": 2022,
      "ĠØ§Ø¨ØªØº": 2023,
      "ĠÙĨØµÙĬØ¨": 2024,
      "ĠÙĤØ±ÙĬØ¨": 2025,
      "ĠØ£ÙĨØ²ÙĦÙĨØ§Ùĩ": 2026,
      "ĠØ£Ø²ÙĪØ§Ø¬Ø§": 2027,
      "ĠØ³Ø¨ØŃØ§ÙĨÙĩ": 2028,
      "Ø§Ø³Ø±ÙĪÙĨ": 2029,
      "ĠÙģØ±ÙĬÙĤ": 2030,
      "ĠØ§ÙģØªØ±Ùī": 2031,
      "ĠØ£ÙĦÙĬÙħØ§": 2032,
      "ĠÙħØ³ÙĦÙħÙĪÙĨ": 2033,
      "Ø¹Ø¬ÙĦÙĪÙĨ": 2034,
      "ĠØ¨Ø§ÙĦÙĤØ³Ø·": 2035,
      "ĠØ§ÙĦØ³ÙĬØ¦Ø§Øª": 2036,
      "ĠÙĬÙĪØŃÙī": 2037,
      "ĠØ£ÙĪØŃÙĬÙĨØ§": 2038,
      "ĠØ¯Ø§Ø¨Ø©": 2039,
      "ĠØ§ÙĦÙħØ¯ÙĬÙĨØ©": 2040,
      "ĠØ¯Ø§ÙĪÙĪØ¯": 2041,
      "Ø§Ø°Ø¨ÙĬÙĨ": 2042,
      "Ø§Ø°Ø¨ÙĪÙĨ": 2043,
      "ÙħÙĪØ§ÙĦ": 2044,
      "ÙĬØªØ§": 2045,
      "Ø§ÙĦØ©": 2046,
      "Ø±Ø«": 2047,
      "ĠØ§ÙĦÙĦØ§": 2048,
      "ĠØ§ÙĦÙģØ±": 2049,
      "ĠÙĪØ°": 2050,
      "ĠÙĪØ¶": 2051,
      "ĠÙĪØ°ÙĦÙĥ": 2052,
      "ĠÙĪØ±Ø¶ÙĪØ§": 2053,
      "ÙĥÙī": 2054,
      "ÙĥØ¨Ø±ÙĪÙĨ": 2055,
      "ĠÙħØº": 2056,
      "Ø¹ÙĩÙħ": 2057,
      "Ø³ÙĦ": 2058,
      "Ø³ÙħØ§": 2059,
      "ĠÙģØ§Ø®": 2060,
      "ĠÙĬØµØ¯": 2061,
      "ĠÙĬØ³Ø¨ØŃ": 2062,
      "ĠØ¨Ø±ÙĬ": 2063,
      "ĠØ¥ÙĬØ§": 2064,
      "ÙģÙĥ": 2065,
      "ÙģÙĥÙĪÙĨ": 2066,
      "ØŃØµ": 2067,
      "ĠÙħÙĨÙĬ": 2068,
      "ĠØ¹Ø§Ùħ": 2069,
      "ĠØªÙħØ³": 2070,
      "ĠØªÙĪÙĥ": 2071,
      "Ø¬Ø§": 2072,
      "Ø¬Ø²ÙĬÙĨ": 2073,
      "Ø¬ÙĬÙĨØ§Ùĩ": 2074,
      "ĠÙĪØ§ÙĦØ¬": 2075,
      "ĠÙĨÙĤ": 2076,
      "ĠÙĨØ®": 2077,
      "ÙĦÙħÙĬÙĨ": 2078,
      "Ø§ØªÙĦÙĪÙĨ": 2079,
      "Ø·Ùģ": 2080,
      "ĠØ§ÙĦÙħÙģ": 2081,
      "ĠØ§ÙĦÙħØ¬Ø±ÙħÙĪÙĨ": 2082,
      "ÙģØ±ÙĪÙĨ": 2083,
      "Ø±Ø§Ùĩ": 2084,
      "ĠÙĪÙĦØ¯Ø§": 2085,
      "ĠØ°ÙĥØ±Ø§": 2086,
      "Ø¹ÙĦÙĪÙĨ": 2087,
      "ĠØ§ÙĦØ±Ø²ÙĤ": 2088,
      "ĠØ§ÙĦØŃÙĬ": 2089,
      "ĠØ§ÙĦØŃØ³ÙĨ": 2090,
      "ĠØ«ÙħÙĪØ¯": 2091,
      "ÙĥØ±ÙĬÙĨ": 2092,
      "ĠØµØ¨Ø±ÙĪØ§": 2093,
      "ĠÙĪÙĥÙĬÙĦØ§": 2094,
      "Ø¨ÙĬÙĩ": 2095,
      "ĠØ§ÙĦÙĥØ¨Ø±": 2096,
      "ĠØ§ÙĦÙĥÙģØ§Ø±": 2097,
      "ÙĪØ±ÙĥÙħ": 2098,
      "ĠÙĦÙĩÙĨ": 2099,
      "Ø´Ø±ÙĩÙħ": 2100,
      "Ø±Ø³ÙĦÙĨØ§": 2101,
      "ĠÙĪØ§Ø°ÙĥØ±ÙĪØ§": 2102,
      "Ø¬Ø±ÙĪØ§": 2103,
      "ÙħØ±Ø§Øª": 2104,
      "ØŃÙħÙĦ": 2105,
      "ĠÙģØ§Ø¹Ø¨Ø¯": 2106,
      "ĠØ§ÙĦØ¯Ø§Ø±": 2107,
      "ĠÙģÙĦÙĪÙĦØ§": 2108,
      "ĠÙĪØ£ÙĨÙĩ": 2109,
      "ĠØ·Ø¹Ø§Ùħ": 2110,
      "ĠØ§ÙĦØ¬Ø§Ùĩ": 2111,
      "ĠØ¨Ø£ÙħÙĪØ§ÙĦ": 2112,
      "ĠØ£ÙģØ£": 2113,
      "ĠÙĪÙĤØ§ÙĦØª": 2114,
      "ĠØ³Ø¨ÙĬÙĦÙĩ": 2115,
      "ĠØ§ÙĦØ®Ø§Ø³Ø±ÙĬÙĨ": 2116,
      "ĠÙĪÙħÙħØ§": 2117,
      "ÙĤØªÙĦÙĪØ§": 2118,
      "ĠÙĪØ±Ø§Ø¡": 2119,
      "ĠÙĪØ±Ø²ÙĤ": 2120,
      "ĠØªØªØ®Ø°ÙĪØ§": 2121,
      "ĠÙĪÙĦÙĬØ§": 2122,
      "ĠØ£Ø¹Ø¨Ø¯": 2123,
      "ĠÙĬØ¬Ø§Ø¯": 2124,
      "ĠØºÙĬØ±Ùĩ": 2125,
      "ĠØ¨ØºØªØ©": 2126,
      "ØµØ¯ÙĤØ§": 2127,
      "ĠØªÙĤÙĪÙħ": 2128,
      "ĠØ§ÙĦØ´ÙĬØ§Ø·ÙĬÙĨ": 2129,
      "ĠØ±Ø¬ÙĦ": 2130,
      "ĠØµØ¯ÙĤ": 2131,
      "ĠØªØ®Ùģ": 2132,
      "ĠÙĦÙĤÙĪÙħÙĩ": 2133,
      "ØªÙĪÙĨÙĬ": 2134,
      "ĠÙĬØºÙĨÙĬ": 2135,
      "Ø·Ø§ÙĨØ§": 2136,
      "ĠÙĬØ±ÙĬØ¯ÙĪÙĨ": 2137,
      "ĠÙĪØ§Ø®": 2138,
      "Ø§Ø¤ÙĩÙħ": 2139,
      "ĠØ£Ø¯Ø±Ø§Ùĥ": 2140,
      "ĠÙģØ§ÙĨØ¸Ø±": 2141,
      "ĠÙĬÙĥÙĪÙĨÙĪØ§": 2142,
      "ÙĬØŃØ©": 2143,
      "ĠØ§ÙĦØ¢Ø®Ø±ÙĬÙĨ": 2144,
      "ĠÙģÙĪÙĤÙĩÙħ": 2145,
      "ĠØ§Ø¯Ø®ÙĦÙĪØ§": 2146,
      "Ø«ÙħÙĪØ¯": 2147,
      "ĠÙĪØ§Ø³ØªØºÙģØ±": 2148,
      "ĠØ´ÙĩÙĬØ¯": 2149,
      "ĠØ´Ø±ÙĥØ§Ø¡": 2150,
      "Ø±ØŃÙħÙĨ": 2151,
      "ĠÙħØ¨ÙĬÙĨØ§": 2152,
      "ĠØŃØ¯ÙĪØ¯": 2153,
      "ĠÙĬÙģØ¹ÙĦÙĪÙĨ": 2154,
      "ĠØ§ÙĦØ£ÙħÙĪØ±": 2155,
      "ĠØ£ÙĦÙĬØ³": 2156,
      "ĠÙĥÙħØ«ÙĦ": 2157,
      "ØŃØ´Ø©": 2158,
      "ĠØªÙĪØ¹Ø¯ÙĪÙĨ": 2159,
      "ĠØ¨Ø´Ø±Ø§": 2160,
      "ĠÙĦÙĦØ¹Ø§ÙĦÙħÙĬÙĨ": 2161,
      "ĠØ¹Ø§ÙĦÙħ": 2162,
      "ĠÙĬØŃØ²ÙĨÙĪÙĨ": 2163,
      "ĠÙĬÙģÙĤÙĩÙĪÙĨ": 2164,
      "ĠØ§ÙĦØŃØ³ÙĨÙī": 2165,
      "ÙĨØ°Ø±": 2166,
      "ÙħÙĩ": 2167,
      "ÙĬÙĪÙĨ": 2168,
      "ÙĬÙĤØ§": 2169,
      "ÙĪØ°": 2170,
      "Ø±Ø¯": 2171,
      "ĠØ§ÙĦÙĬÙħÙĬÙĨ": 2172,
      "ĠÙĪØµØ¯": 2173,
      "ĠÙĪØ«ÙħÙĪØ¯": 2174,
      "ØªØ§ÙĦ": 2175,
      "Ø¨ÙĦÙĬ": 2176,
      "Ø¨Ø§Ø¡": 2177,
      "ĠÙħØ¤": 2178,
      "ĠÙħØ±ÙĬ": 2179,
      "ĠÙħØ§Ø¦": 2180,
      "ĠÙħÙĤØª": 2181,
      "ĠÙħÙĩÙĬÙĨ": 2182,
      "Ø¹Ø±Ø¶": 2183,
      "Ø¹ÙĬÙĦ": 2184,
      "ĠØ£Ø¨Ø§": 2185,
      "ĠÙĬÙĨØ§": 2186,
      "ĠÙĬÙģØ±": 2187,
      "ĠÙĬØ±ÙĪÙĨ": 2188,
      "ĠÙĬØ³Ø±": 2189,
      "Ø°Ø§Øª": 2190,
      "ĠØ¨Ø°Ø§Øª": 2191,
      "Ø£Ùĥ": 2192,
      "Ø£Ø°ÙĨ": 2193,
      "ÙĦØ§ÙħØ§": 2194,
      "ĠØªÙĦÙĤ": 2195,
      "ĠØªÙĤØ¯": 2196,
      "ĠØªØ³ÙħØ¹": 2197,
      "Ø¬ÙĬÙĨØ§": 2198,
      "ĠÙĤØµ": 2199,
      "ØµÙģ": 2200,
      "ĠØ±Ø§": 2201,
      "ĠØ±ÙĤ": 2202,
      "Ø²Ùī": 2203,
      "ĠÙĪØ§ÙĦØ·": 2204,
      "ĠØ³Ø§Ø¡": 2205,
      "Ø·ÙĦÙĤ": 2206,
      "Ø«ÙħØ§": 2207,
      "ĠØ¢Ø°Ø§ÙĨ": 2208,
      "ĠÙĪØ£ÙĪØŃ": 2209,
      "ĠØ§ÙĦÙħÙĬØª": 2210,
      "ĠØ®Ø°": 2211,
      "ĠØ®Ø¨ÙĬØ±Ø§": 2212,
      "ĠÙĪÙĦØ¹ÙĦ": 2213,
      "ĠØ°Ø±": 2214,
      "ĠØ°ÙĩØ¨": 2215,
      "ĠÙĪÙĬÙĤÙĪÙĦ": 2216,
      "ĠÙĪÙĬØ¬Ø¹ÙĦ": 2217,
      "Ø¹Ø¯Ø§": 2218,
      "Ø¹ÙħÙī": 2219,
      "ĠØ§ÙĦØŃÙĥÙħ": 2220,
      "ĠØ§ÙĦÙĤØ¯": 2221,
      "ĠØ§ÙĦÙĤØ±Ø¨Ùī": 2222,
      "Ø¨ÙĬØ«": 2223,
      "ĠØ§ÙĦÙĥÙģØ±": 2224,
      "ĠØºØ±": 2225,
      "ĠÙĪØ¬ÙĨ": 2226,
      "ÙĩÙĪØ¯": 2227,
      "ĠÙħØ¹Ùĥ": 2228,
      "ĠÙħØ¹Ø±ÙĪÙģ": 2229,
      "ĠØ¨Ø¹Ø¨Ø§Ø¯": 2230,
      "ĠÙĬØªÙĪÙģ": 2231,
      "ĠÙĪØªØ±Ùī": 2232,
      "ĠÙĤØ¯Ø±": 2233,
      "ĠÙĪØ£ÙĨØ²ÙĦ": 2234,
      "ĠÙĪØ£ÙĨØ²ÙĦÙĨØ§": 2235,
      "ĠØ£ÙģÙĦÙħ": 2236,
      "ĠØªÙĥÙģØ±ÙĪÙĨ": 2237,
      "ĠØ£Ø¹Ø¬": 2238,
      "ĠØ£ÙħØ±ÙĩÙħ": 2239,
      "Ø¸Ø±ÙĬÙĨ": 2240,
      "ĠÙĪØ±Ø³ÙĦÙĩ": 2241,
      "ĠÙĪØ³Ø®Ø±": 2242,
      "ĠØ¹Ø¨Ø§Ø¯ÙĬ": 2243,
      "ĠÙĦÙĦÙħÙĥØ°Ø¨ÙĬÙĨ": 2244,
      "Ø·Ø¹ÙĨØ§": 2245,
      "ĠØ³ÙĬØ¦Ø©": 2246,
      "ĠÙĥØªØ§Ø¨Ø§": 2247,
      "Ø±ÙģÙĪÙĨ": 2248,
      "ĠØ¨ÙĬÙĪ": 2249,
      "ĠØ£Ø±Ø³ÙĦÙĨØ§Ùĥ": 2250,
      "Ø§ÙĩØ¯ÙĬÙĨ": 2251,
      "ĠÙĨØµÙĬØ±Ø§": 2252,
      "ĠØ£Ø¬Ø±ÙĩÙħ": 2253,
      "ĠÙĬØ¨ØµØ±ÙĪÙĨ": 2254,
      "ĠØ£ÙĤØ³Ùħ": 2255,
      "Ø§ÙĥÙĬÙĨ": 2256,
      "ĠØ±Ø£Ùī": 2257,
      "Ø´ÙĬØ¡": 2258,
      "ĠÙĬØ¤ÙħÙĨÙĪØ§": 2259,
      "ĠØ§ØªØ¨Ø¹ÙĪØ§": 2260,
      "ĠØ£Ø®Ø°ÙĨØ§": 2261,
      "ĠÙĬØ¶ÙĦÙĦ": 2262,
      "ĠÙĬÙĥÙģØ±ÙĪÙĨ": 2263,
      "ĠÙģØ¬Ø¹ÙĦÙĨØ§": 2264,
      "ĠØ®ÙĦÙģÙĩÙħ": 2265,
      "ĠÙĩØ§Ø±ÙĪÙĨ": 2266,
      "ĠØ´ÙĩØ¯Ø§Ø¡": 2267,
      "ĠØ§Ø®ØªÙĦÙģ": 2268,
      "ĠØ¨Ø§ÙĦØºÙĬØ¨": 2269,
      "ĠØ£Ø´Ø±ÙĥÙĪØ§": 2270,
      "Ø£ÙĪØ§ÙĩÙħ": 2271,
      "ÙĨØ¬ÙĬÙĦ": 2272,
      "ĠØ§ÙĦØ¨ÙĬØª": 2273,
      "ĠØ¨Ø¢ÙĬØ©": 2274,
      "ĠØ°ÙĨÙĪØ¨": 2275,
      "ĠØ¨Ø£ÙħØ±Ùĩ": 2276,
      "ĠØ¯Ø±Ø¬Ø§Øª": 2277,
      "ĠØ£ÙĩÙĪØ§Ø¡ÙĩÙħ": 2278,
      "Ø³ÙħØ§Ø¹ÙĬÙĦ": 2279,
      "ĠØ§ÙĦÙħÙģÙĦØŃÙĪÙĨ": 2280,
      "ºÙģØ±": 2281,
      "ÙĦØ·Ø§ÙĨ": 2282,
      "ÙĬÙĥ": 2283,
      "Ø§ÙĦÙĬÙĨ": 2284,
      "ĠØ§ÙĦØ¨ÙĬÙĨØ§Øª": 2285,
      "ĠÙĪÙĨØ§": 2286,
      "ĠÙĪÙĬØ§": 2287,
      "ĠÙĪØ³Ø¨ØŃ": 2288,
      "ÙĥØª": 2289,
      "ØªØµ": 2290,
      "ØªÙĤÙĪØ§": 2291,
      "ØªØ±ÙĪØ§": 2292,
      "Ø¨ÙĥÙħ": 2293,
      "ĠÙħÙĦ": 2294,
      "ĠÙħÙĤ": 2295,
      "ĠÙħØ¹ÙĦ": 2296,
      "ĠÙħØµØ¯ÙĤØ§": 2297,
      "Ø¹Ø§ÙĦÙī": 2298,
      "ĠØ£Ø³Ø±": 2299,
      "Ø¯Ø§ÙĨ": 2300,
      "ĠÙģØ¯": 2301,
      "ĠÙģØ®": 2302,
      "ĠÙģØ³Ø¨ØŃ": 2303,
      "ĠÙģØ°ÙĪÙĤÙĪØ§": 2304,
      "ĠÙĦØ³": 2305,
      "ĠÙĦÙĬÙĨ": 2306,
      "ĠÙĦØ¥": 2307,
      "ĠÙĬØ°ÙĥØ±ÙĪÙĨ": 2308,
      "ĠØ¨ØŃ": 2309,
      "ĠØ¨ÙħÙĨ": 2310,
      "ĠØ¨ÙħØ¹": 2311,
      "ĠØ¨ØŃÙħØ¯": 2312,
      "ĠØ¥Ø¨ÙĦÙĬ": 2313,
      "ĠØ¹ÙĨØ§": 2314,
      "ĠØ¹Ø´Ø±": 2315,
      "ĠØªØ¶": 2316,
      "ĠØªØ¨ÙĬÙĨ": 2317,
      "ĠØªØ¨Ø¹": 2318,
      "ĠØªØ¨Øª": 2319,
      "ĠØªØ·Ø¹": 2320,
      "Ø¬Ø±Ø§": 2321,
      "ĠÙĥÙģØ§Ø±": 2322,
      "ĠÙĤÙĦÙĬÙĦ": 2323,
      "ĠÙģÙĬÙĥÙħ": 2324,
      "ØµÙĪÙĨ": 2325,
      "Ø¶Ø§Ø¡": 2326,
      "Ø²ÙĬÙĦ": 2327,
      "Ø´Ø±Ø§": 2328,
      "Ø´Ø§Ø±": 2329,
      "ĠØ£ÙĨÙģÙĤÙĪØ§": 2330,
      "ĠÙĨØ¯": 2331,
      "ĠÙĨØ¬Ø¹ÙĦ": 2332,
      "ĠÙĩØ²ÙĪØ§": 2333,
      "Ø§ØªØ§": 2334,
      "ĠØ³Ø£ÙĦ": 2335,
      "Ø·Ùħ": 2336,
      "Ø«Ø§": 2337,
      "ĠÙĪØ£Ø·ÙĬØ¹ÙĪÙĨ": 2338,
      "ĠÙĪØ£ÙĤÙĬÙħÙĪØ§": 2339,
      "ĠØŃÙĨÙĬ": 2340,
      "ØºÙī": 2341,
      "ĠØ¹ÙĦÙĬÙĩÙĨ": 2342,
      "ĠØ®Ø²": 2343,
      "ĠØ®Ø±Ø¬": 2344,
      "ĠØ§ÙĦØ£Ø®": 2345,
      "Ø¸Ø©": 2346,
      "Ø±Ø§Ø±Ø§": 2347,
      "ĠÙĪÙĦÙĦ": 2348,
      "ĠØ¨Ø§ÙĦØ¥": 2349,
      "ĠØ¨Ø§ÙĦØ°ÙĬ": 2350,
      "ĠØ§ÙĦØ³ÙħØ¹": 2351,
      "ĠÙĪÙĬØ¤": 2352,
      "ĠØ«ÙĤ": 2353,
      "ĠØ£ÙħÙĬÙĨ": 2354,
      "ĠÙģØ£Ø®Ø±Ø¬": 2355,
      "ÙģØ³ÙĥÙħ": 2356,
      "ĠØ§Ø¬": 2357,
      "ĠØ§Ø¹Øª": 2358,
      "Ø±ÙĬØ¹": 2359,
      "ĠÙĪÙĥÙģØ±": 2360,
      "ĠÙĪØ¥ÙĨÙĩÙħ": 2361,
      "ĠØºØ§Ùģ": 2362,
      "ÙĨÙĬØ©": 2363,
      "Ø§Ø¦ÙĨ": 2364,
      "ĠÙĪØ¬Ø¯": 2365,
      "ĠØ¨ÙĬÙĨÙĬ": 2366,
      "Ø¨Ø¯ÙĦ": 2367,
      "ÙĥÙĪÙĨÙĨ": 2368,
      "ĠÙĬÙĨØµØ±": 2369,
      "ĠÙĦÙĦØ¥": 2370,
      "ĠÙĦÙĦØ¸Ø§ÙĦÙħÙĬÙĨ": 2371,
      "ĠÙĪØªÙĦÙĥ": 2372,
      "ĠÙħÙĪÙĦØ§": 2373,
      "ĠÙħÙĪØªÙĩØ§": 2374,
      "ĠÙĬØ±Ø¬ÙĪÙĨ": 2375,
      "ĠØ¬Ø§Ø¡Ùĥ": 2376,
      "ĠØ£ØŃÙĤ": 2377,
      "ĠØ§ÙĦÙĨØ¬": 2378,
      "ĠÙĬØ£ÙħØ±": 2379,
      "ĠÙĬØ£ØªÙĬÙĨ": 2380,
      "ÙĦÙģÙĪÙĨ": 2381,
      "ĠØ±Ø³ÙĦ": 2382,
      "ĠØ±Ø³ÙĦÙĩÙħ": 2383,
      "ÙģØ§Ø¹Ø©": 2384,
      "ĠÙħØ«ÙĦÙĩ": 2385,
      "ĠØ§ÙĦØ®Ø§Ø³Ø±ÙĪÙĨ": 2386,
      "ĠÙĬØ¯ÙĬ": 2387,
      "ĠÙĬØ¯Ø®ÙĦ": 2388,
      "ĠØ§ÙĦØºÙģÙĪØ±": 2389,
      "ĠØ§Ø³ØªÙĥØ¨Ø±ÙĪØ§": 2390,
      "ĠÙģÙħÙĨÙĩÙħ": 2391,
      "ĠÙĪØ¢Ø¨": 2392,
      "ĠÙĪØ§ÙĦÙħØ¤ÙħÙĨØ§Øª": 2393,
      "ĠÙĪØ³Ø¹": 2394,
      "ĠØ£Ø³Ø£ÙĦÙĥÙħ": 2395,
      "ĠØ¹Ø¨Ø§Ø¯ÙĨØ§": 2396,
      "ĠØ£Ø¨ÙĪØ§Ø¨": 2397,
      "ĠÙĪØ¹ÙħÙĦ": 2398,
      "ĠÙħØ³ØªÙĤ": 2399,
      "ĠØ¹Ø¯ÙĨ": 2400,
      "ĠØ§ÙĨØ¸Ø±": 2401,
      "ĠØªØ´Ø§Ø¡": 2402,
      "ĠØŃÙħÙĬÙħ": 2403,
      "ĠØ§ÙĦÙħØ³ÙĦÙħÙĬÙĨ": 2404,
      "ĠÙĬÙĤÙĪÙĦÙĪØ§": 2405,
      "Ø¨Ø¦ÙĩÙħ": 2406,
      "ĠØ´Ø¯ÙĬØ¯Ø§": 2407,
      "ĠÙģØ£ÙĨÙī": 2408,
      "ĠØªÙģÙĦØŃÙĪÙĨ": 2409,
      "ĠØ£ÙħÙĪØ§ÙĦÙĥÙħ": 2410,
      "ĠÙĪÙĩÙĬ": 2411,
      "ĠÙĪØ±Ø¨Ùĥ": 2412,
      "ĠÙĪØ£ØµØŃØ§Ø¨": 2413,
      "ĠÙĪØ¬ÙĩÙĩ": 2414,
      "ĠÙĪØ®ÙĦÙĤ": 2415,
      "ĠØ³ÙĦØ·Ø§ÙĨØ§": 2416,
      "ĠØ£Ø¥Ø°Ø§": 2417,
      "ĠØªØ£ÙĥÙĦÙĪÙĨ": 2418,
      "ĠÙĪØ§ØªØ¨Ø¹ÙĪØ§": 2419,
      "ĠÙĥØ«ÙĬØ±Ø©": 2420,
      "ĠÙĪÙĬØ¹ÙĤÙĪØ¨": 2421,
      "ĠØ§ÙĦÙģØ§Ø³ÙĤÙĬÙĨ": 2422,
      "ĠØ§ÙĦØ«ÙħØ±Ø§Øª": 2423,
      "ĠØ«ÙĦØ§Ø«Ø©": 2424,
      "ĠÙģØ§ØµØ¨Ø±": 2425,
      "ĠÙĥØ£ÙĨÙĩÙħ": 2426,
      "ĠÙĨØ·ÙģØ©": 2427,
      "ĠØ³Ø¬Ø¯Ø§": 2428,
      "ØŃØ²Ø§Ø¨": 2429,
      "ĠÙħØ±Ø¬Ø¹ÙĥÙħ": 2430,
      "ĠØ§ÙĦØ¨ÙĦØ§Øº": 2431,
      "ÙĥÙĩØ©": 2432,
      "ĠÙĪØ§ÙĦØŃÙĥÙħØ©": 2433,
      "ĠÙĬÙĪÙĤÙĨÙĪÙĨ": 2434,
      "ĠØ§Ø¨ØªØºØ§Ø¡": 2435,
      "ĠØ¥Ø¨ÙĦÙĬØ³": 2436,
      "ÙĦÙĦ": 2437,
      "ÙĬØ§Ø¨": 2438,
      "Ø§ÙĦÙĥ": 2439,
      "Ø§ÙĦÙĦÙĩ": 2440,
      "Ø±Ùħ": 2441,
      "ĠØ§ÙĦØ¶": 2442,
      "ØªØ¯": 2443,
      "ØªÙĩÙĨ": 2444,
      "ØªÙĪÙĥÙĦ": 2445,
      "ĠÙħØ¯ÙĬÙĨ": 2446,
      "ĠÙħØ¬Ø±ÙħÙĬÙĨ": 2447,
      "ĠØ£Ø°ÙĨ": 2448,
      "ĠÙģÙĦÙĩ": 2449,
      "ĠÙĦØ®": 2450,
      "ĠÙĬÙģØ³": 2451,
      "ĠÙĬØ°ÙĥØ±": 2452,
      "ĠÙĬØ´Ø±Ùĥ": 2453,
      "ĠÙĬØ±Ø³ÙĦ": 2454,
      "ĠÙĬÙĩØªØ¯ÙĪÙĨ": 2455,
      "ÙĤØ¹": 2456,
      "ÙĪØ§Ø±": 2457,
      "ÙĪØ§Ø¨Ø§": 2458,
      "ĠØ¥Ø®": 2459,
      "ÙĪÙĨÙĬ": 2460,
      "ÙĪÙĨÙĥ": 2461,
      "ÙģØªÙħ": 2462,
      "ØŃØª": 2463,
      "Ø£Ø³": 2464,
      "Ø£ØªÙĪÙĨ": 2465,
      "ĠØ¹Ø§Ø¨": 2466,
      "ĠØ¹ÙĦÙħØ§": 2467,
      "ĠØªØ¹Ø¯": 2468,
      "ĠØªÙħØª": 2469,
      "ĠÙĤØ¶Ùī": 2470,
      "ĠÙģÙĬÙĥÙĪÙĨ": 2471,
      "ØµØ§ÙĦ": 2472,
      "ĠØ±Ø¯": 2473,
      "ĠØ±ÙĪØ§": 2474,
      "ĠØ±ÙĪØŃ": 2475,
      "Ø²Ø§ÙĨ": 2476,
      "Ø§ÙĨÙĩÙħ": 2477,
      "ĠÙĪØ§ÙĦØŃ": 2478,
      "ĠÙĪØ§ÙĦÙĨØ§": 2479,
      "ĠÙĪØ§ÙĦØ®": 2480,
      "ĠÙĨØ¹": 2481,
      "ĠÙĨØ¤ÙħÙĨ": 2482,
      "ĠÙĩØ§Ø¯ÙĪØ§": 2483,
      "ĠØ³ÙĪ": 2484,
      "ĠØ³ÙħØ§": 2485,
      "ĠØ³ÙĦÙĬÙħØ§ÙĨ": 2486,
      "Ø·ÙĪØ§": 2487,
      "Ø·ÙĪÙĨ": 2488,
      "Ø«ÙĬØ±": 2489,
      "Ø«Ø¨Øª": 2490,
      "ÙĪÙĦØ¬": 2491,
      "ĠÙĪØ£ÙĬØ¯": 2492,
      "ĠÙĪØ£Ø®Ø°": 2493,
      "ĠØ§ÙĦÙħØµ": 2494,
      "ĠØ§ÙĦÙħÙģØ³Ø¯ÙĬÙĨ": 2495,
      "ĠØŃÙģÙĬ": 2496,
      "ĠØŃÙĦÙĬÙħ": 2497,
      "ĠØ¬Ø§ÙĨ": 2498,
      "ĠØ®Ø´": 2499,
      "ĠØ®Ø§Ø´": 2500,
      "ĠØ§ÙĦØ£Ø¹Ø±": 2501,
      "ĠØ§ÙĦØ£ØŃØ²Ø§Ø¨": 2502,
      "ĠØ°Ø±ÙĬØ©": 2503,
      "ÙĬØ§ØŃ": 2504,
      "ÙĬØ§ÙħØ§": 2505,
      "ĠÙĪÙĬØª": 2506,
      "ĠÙĪÙĬØ¨": 2507,
      "ĠÙĪÙĬØ®": 2508,
      "ĠÙĪÙĬØºÙģØ±": 2509,
      "ĠØ§ÙĦØ±ÙĬØ§ØŃ": 2510,
      "Ø¹ÙħÙĦ": 2511,
      "Ø¹ÙħØ©": 2512,
      "ĠØ£ÙħÙĩØ§": 2513,
      "ĠØ¯Ø®ÙĦ": 2514,
      "ĠÙģØ£ØªÙĪØ§": 2515,
      "ĠÙĦÙĩÙħØ§": 2516,
      "ĠØ«ÙħÙĨØ§": 2517,
      "ÙĥØ±Ø©": 2518,
      "ÙĩØ¯ÙĪÙĨ": 2519,
      "ĠÙģØ¥ÙĨØ§": 2520,
      "ÙĬÙĨØ§ÙĩÙħ": 2521,
      "ĠØ§ÙĦÙĤØ±ÙĪÙĨ": 2522,
      "ĠØ§ÙĦÙĤØ±ÙĬØ©": 2523,
      "ĠÙĦÙĬØ¬Ø²ÙĬ": 2524,
      "ĠÙĪÙĥÙĦØ§": 2525,
      "ĠØ§ÙĦÙĥØ§Ø°Ø¨ÙĬÙĨ": 2526,
      "ÙĪØ±Ø«": 2527,
      "ĠØºØ¶Ø¨": 2528,
      "ØªÙĬÙĩ": 2529,
      "ĠÙĪØ¬Ø§ÙĩØ¯ÙĪØ§": 2530,
      "Ø¨Ø±ÙĬÙĨ": 2531,
      "ĠØ§ÙĦØµÙĪØ±": 2532,
      "ĠØ§ÙĦØµØ§Ø¨Ø±ÙĬÙĨ": 2533,
      "ĠÙģØ¥ÙĨÙĩÙħ": 2534,
      "ĠÙĬØªÙĪÙĦ": 2535,
      "ĠÙĬÙĨØ¨": 2536,
      "ĠÙĪØªØ±Ùĥ": 2537,
      "ĠÙĬØ±Ø²ÙĤ": 2538,
      "ĠØ¬Ø§Ø¡Øª": 2539,
      "ØŃÙħØªÙĩ": 2540,
      "Ø³Ø±Ø©": 2541,
      "Ø³Ø±ÙģÙĬÙĨ": 2542,
      "ĠØ§ÙĦÙĨÙĪØ±": 2543,
      "ĠØ§ÙĦÙĨØ¹ÙĬÙħ": 2544,
      "ĠÙĪØ£ÙĨÙģØ³ÙĩÙħ": 2545,
      "ÙĪØ¯Ùĩ": 2546,
      "ĠÙħÙĨÙĩÙħØ§": 2547,
      "ĠÙģØªÙĥÙĪÙĨ": 2548,
      "ĠØ¶Ø¹Ùģ": 2549,
      "Ø§Ø·ÙĬØ±": 2550,
      "ĠÙĬØ¹Ø¨Ø¯ÙĪÙĨ": 2551,
      "ĠØªØŃØ³Ø¨": 2552,
      "ØµØ±ÙĪØ§": 2553,
      "ĠØ§ÙĦØ®Ø§ÙĦ": 2554,
      "ĠØ¢ÙĬØ§ØªÙĬ": 2555,
      "ĠÙĬØ¯Ø¹": 2556,
      "ĠØ§ÙĦØ¸ÙĨ": 2557,
      "ĠÙĬØ®ØªÙĦÙģÙĪÙĨ": 2558,
      "ĠØ§ÙĦØºÙĬ": 2559,
      "ĠØªØ¹Ø¨Ø¯": 2560,
      "ĠØ§ÙĦØ¨Ø§Ø·ÙĦ": 2561,
      "ĠØªÙĨØ²ÙĬÙĦ": 2562,
      "ĠØ£ÙħØ±Ùĩ": 2563,
      "ĠØ£Ø±Ø³ÙĦ": 2564,
      "ĠØ£Ø®ÙĬÙĩ": 2565,
      "ĠÙĬÙĪØ¹Ø¯ÙĪÙĨ": 2566,
      "ÙĪØ¬Ø§": 2567,
      "Ø·ÙĬØ¹": 2568,
      "Ø±Ø¢ÙĨØ§": 2569,
      "ĠØµØ¯ÙĪØ±ÙĩÙħ": 2570,
      "ĠÙĬÙĤØ§ØªÙĦÙĪÙĨ": 2571,
      "ĠØ§ÙĦØ·ÙĬØ±": 2572,
      "ĠØ§ÙĦØ·ÙĬØ¨Ø§Øª": 2573,
      "ĠØ£ÙĬØ¯ÙĬÙĥÙħ": 2574,
      "ĠØ§ÙĦÙħØ³ÙĬØŃ": 2575,
      "ĠÙĬØ¨Ø³Ø·": 2576,
      "ĠÙĪØ²Ø±": 2577,
      "ĠÙĪØ²ÙĬÙĨ": 2578,
      "ĠØ£ÙĤØ±Ø¨": 2579,
      "Ø¨Ø¦Ø³": 2580,
      "ĠØ±Ø²ÙĤÙĨØ§ÙĩÙħ": 2581,
      "ĠØ¢Ø¨Ø§Ø¡ÙĨØ§": 2582,
      "ĠÙģØ§ÙĦØ°ÙĬÙĨ": 2583,
      "ĠÙĥØ±Ùĩ": 2584,
      "ĠØ±Ø£ÙĪØ§": 2585,
      "ĠØ§ÙĦØŃÙħÙĬØ¯": 2586,
      "ĠØªÙĥØ°Ø¨ÙĪÙĨ": 2587,
      "ĠØ§ÙĦÙħÙĨÙĥØ±": 2588,
      "ĠÙĪØ±Ø¨ÙĥÙħ": 2589,
      "ĠÙĪØ¨ÙĬÙĨÙĥÙħ": 2590,
      "ĠØ¯ÙĬÙĨÙĩÙħ": 2591,
      "ĠØ¯ÙĬÙĨÙĥÙħ": 2592,
      "ĠÙħØµÙĬØ¨Ø©": 2593,
      "ĠØ§ÙĦØ£ÙħØ«Ø§ÙĦ": 2594,
      "ĠÙģØ±ÙĬÙĤØ§": 2595,
      "ĠÙĪØ§ÙĦØ´ÙĩØ§Ø¯Ø©": 2596,
      "ĠÙģØ£Ø®Ø°ØªÙĩÙħ": 2597,
      "ĠØŃÙĥÙħØ§": 2598,
      "ĠØ¨Ø£Ø³ÙĨØ§": 2599,
      "ĠÙĬØ¹ÙħÙĦ": 2600,
      "ĠØªØ§Ø¨ÙĪØ§": 2601,
      "ĠÙĬØ¬Ø¯ÙĪÙĨ": 2602,
      "ĠØ§Ø«ÙĨÙĬÙĨ": 2603,
      "ĠÙĦÙĨÙģØ³Ùĩ": 2604,
      "ĠÙĬÙħÙĦÙĥÙĪÙĨ": 2605,
      "Ø§Ø¬Ø¯ÙĬÙĨ": 2606,
      "ĠØ±Ø¡ÙĪØ³": 2607,
      "ĠÙĪÙĥØ°Ø¨ÙĪØ§": 2608,
      "ĠÙĬØªÙģÙĥØ±ÙĪÙĨ": 2609,
      "ĠØŃÙĨÙĬÙģØ§": 2610,
      "ĠØ§ÙĦØ£Ø¹Ø±Ø§Ø¨": 2611,
      "Ø§Ø¹": 2612,
      "Ø§ÙĪØ±": 2613,
      "Ø§ØŃØ±": 2614,
      "Ø§ÙĥØ±ÙĬÙĨ": 2615,
      "ÙĦØ¤": 2616,
      "ÙĦÙĪØ¨": 2617,
      "ÙĨÙĩØ§": 2618,
      "ÙħØ¹Ø§": 2619,
      "ÙĪØ£": 2620,
      "ÙĪØ¹Ø§": 2621,
      "Ø§ÙĦÙĪÙĨ": 2622,
      "ĠØ§ÙĦØ±Ø§": 2623,
      "ĠØ§ÙĦØ¶ÙĦ": 2624,
      "ĠØ§ÙĦØ¶Ø±": 2625,
      "ĠÙĪÙĥÙħ": 2626,
      "Ø¨ØªÙħ": 2627,
      "ĠÙħÙĩ": 2628,
      "ĠÙħØ¢": 2629,
      "ĠÙħØªÙī": 2630,
      "ĠÙħÙĥØ§": 2631,
      "ĠÙħÙĦØ©": 2632,
      "ĠÙħÙĤØ§Ùħ": 2633,
      "Ø¹ÙĬØ±": 2634,
      "ĠØ£Ø¦": 2635,
      "ĠØ£Ø¨ÙĬ": 2636,
      "ĠØ£ÙĤÙĪÙĦ": 2637,
      "ĠØ£ÙĥÙĪÙĨ": 2638,
      "ĠØ£Ø¨Øª": 2639,
      "ĠØ£Ø±Ø¬": 2640,
      "Ø¯Ø¨Ø§Ø±": 2641,
      "ĠÙģÙħ": 2642,
      "ĠÙģØ·Ø±": 2643,
      "ĠÙģÙĪÙĬÙĦ": 2644,
      "ĠÙĦØ´": 2645,
      "ĠÙĦØ¨Ø¹Ø¶": 2646,
      "ĠÙĬØ³ÙħØ¹": 2647,
      "ÙĤÙĬ": 2648,
      "ÙĤØ°": 2649,
      "ÙĤØ§ÙĨ": 2650,
      "ÙĤØ¨ÙĦ": 2651,
      "Ø°ÙĬØ±Ø§": 2652,
      "ĠØ¨Ø§": 2653,
      "ĠØ¨ÙĨØ§": 2654,
      "ĠØ¥Ø®ÙĪØ§": 2655,
      "ÙģÙĦ": 2656,
      "ÙģÙģ": 2657,
      "ÙģØ¸": 2658,
      "ØŃÙĬØ§": 2659,
      "ØŃØ³Ø¨": 2660,
      "ĠØ¹Ø±Ø¨": 2661,
      "ÙĨØ§Ùĥ": 2662,
      "ÙĦØ§Ø¦": 2663,
      "ĠØªÙģØ±": 2664,
      "ĠØªÙĪÙģ": 2665,
      "ĠØªØ°ÙĥØ±": 2666,
      "ĠØªÙĪÙĦÙī": 2667,
      "ĠØªØ¤ÙħÙĨÙĪØ§": 2668,
      "ĠÙĥØ³": 2669,
      "ĠÙĥÙħÙĨ": 2670,
      "ĠÙĥÙĪÙĨÙĪØ§": 2671,
      "ĠÙĤØ±Ø¢ÙĨØ§": 2672,
      "ÙĦÙĬØ©": 2673,
      "ÙĦÙĬÙĩØ§": 2674,
      "ĠÙģÙĬÙĩÙĨ": 2675,
      "ØµÙĪØ§": 2676,
      "ØµÙĦØ§": 2677,
      "ØµØ©": 2678,
      "ĠØ±Ø´": 2679,
      "ĠØ±ÙĬØŃ": 2680,
      "ĠØ±Ø¶ÙĪØ§": 2681,
      "Ø²Ùħ": 2682,
      "Ø²Ø¨": 2683,
      "ĠÙĪØ§ÙĦÙħÙĬ": 2684,
      "ĠÙĪØ§ÙĦØ±Ø³ÙĪÙĦ": 2685,
      "ĠÙĨÙħ": 2686,
      "ĠÙĨØ±": 2687,
      "ĠÙĨØ¤": 2688,
      "ĠÙĨØ¨ÙĬ": 2689,
      "ĠÙĨÙĪØ±Ø§": 2690,
      "ĠÙĨØµÙĬØ±": 2691,
      "ÙĦÙħÙĪÙĨ": 2692,
      "ĠØ³ÙĨÙĬÙĨ": 2693,
      "ĠØ³Ø±ÙĬØ¹": 2694,
      "Ø«ÙĦÙĩ": 2695,
      "ĠÙĪØ£Ø¹Øª": 2696,
      "ĠØ§ÙĦÙħÙĨØ§": 2697,
      "ĠØŃØ§Ø¬": 2698,
      "ØªÙħØ¹ÙĪÙĨ": 2699,
      "ØªÙħÙĪÙĩ": 2700,
      "ØªÙħÙĪÙĩÙĨ": 2701,
      "ĠØ®Ø§Ùģ": 2702,
      "ĠØ§ÙĦØ£Ø¨ØµØ§Ø±": 2703,
      "ĠÙĪØ¥ÙĬØ§": 2704,
      "ĠÙĪØ¥Ø³ØŃØ§ÙĤ": 2705,
      "ĠÙĪØ¥Ø³ÙħØ§Ø¹ÙĬÙĦ": 2706,
      "Ø¸Ùħ": 2707,
      "Ø±Ø¶Ø§": 2708,
      "Ø±Ø¶Ùī": 2709,
      "ĠØ¨Ø§ÙĦØµ": 2710,
      "Ø¹ÙĦÙĨÙĪÙĨ": 2711,
      "ĠØ£ÙĪØŃÙĬ": 2712,
      "ĠÙĪÙĬÙĤØ¯Ø±": 2713,
      "Ø¹Ø¯ÙĩÙħ": 2714,
      "Ø§Ø¯Ø±": 2715,
      "Ø¹ÙħÙĦÙĪØ§": 2716,
      "ĠÙĤÙĦØªÙħ": 2717,
      "ĠØ£ÙħÙħ": 2718,
      "ĠØ§ÙĦØŃØ¬": 2719,
      "ĠØ¯Ø§Ø±": 2720,
      "ĠØ¯Ø¹Ø§": 2721,
      "ĠØ¯Ø®ÙĦÙĪØ§": 2722,
      "ĠÙĪÙħÙĨÙĩØ§": 2723,
      "ĠØµÙĦØ§": 2724,
      "ĠØ§ÙĦÙĤØ§": 2725,
      "ĠØ§ÙĤØª": 2726,
      "ĠØ§Ø¬Ø¹ÙĦ": 2727,
      "ĠØ§Ø°ÙĥØ±ÙĪØ§": 2728,
      "Ø±ÙĬÙĥ": 2729,
      "Ø¨Ø¹ÙĪ": 2730,
      "ĠÙģØ¥ÙĨÙĥ": 2731,
      "ĠÙĬØªØ¨Ø¹ÙĪÙĨ": 2732,
      "ĠÙĦÙĦØ±ØŃÙħÙĨ": 2733,
      "ĠØ¹Ø°Ø§Ø¨ÙĬ": 2734,
      "ĠÙĬØ´ÙĥØ±ÙĪÙĨ": 2735,
      "ĠÙĤÙĪÙħÙĥ": 2736,
      "ĠØ¹ÙĨØ¯Ùĥ": 2737,
      "ĠØ£ØŃØµ": 2738,
      "ĠØªØ±Ø§Ø¨Ø§": 2739,
      "ĠØ¸Ø§ÙĦÙħÙĬÙĨ": 2740,
      "ĠØ¸ÙĩØ±": 2741,
      "ĠØ·ÙĦÙĤ": 2742,
      "ĠØ·ÙĬØ¨Ø©": 2743,
      "ØªÙĩÙĪØ§": 2744,
      "ØªÙĩÙħØ§": 2745,
      "Ø§ÙģÙĦ": 2746,
      "ĠØ¶Ø±": 2747,
      "ĠØ¶Ø±Ø§": 2748,
      "ĠØ¶ÙĦÙĪØ§": 2749,
      "ĠÙĦÙĥØ§Ø°Ø¨ÙĪÙĨ": 2750,
      "ĠÙĬÙĥØ§Ø¯": 2751,
      "ĠÙĬÙĥØ°Ø¨": 2752,
      "ĠÙĬØ¹Ø°Ø¨": 2753,
      "ĠÙĬØ¹Ø¨Ø¯": 2754,
      "ĠØ£Ø¬Ø±ÙĬ": 2755,
      "ĠÙħØ«ÙĪÙī": 2756,
      "ĠØ¨Ø¹Ø¶Ø§": 2757,
      "ĠÙĪØ±ÙģØ¹": 2758,
      "ĠÙĪØ¨ÙĨØ§Øª": 2759,
      "Ø§ÙĤØ©": 2760,
      "ĠÙĬØ³ÙĬØ±": 2761,
      "ĠÙĬØ³Ø£ÙĦÙĪÙĨÙĥ": 2762,
      "ĠÙĦØ£ÙĪÙĦÙĬ": 2763,
      "ĠÙĦØ£Ø¨ÙĬÙĩ": 2764,
      "ĠØ§ÙĦØºØ§ÙĦ": 2765,
      "ĠØ§ÙĦØºØ±": 2766,
      "ĠØ§Ø³ØªØ·Ø¹": 2767,
      "ĠØ§Ø³ØªÙĪÙī": 2768,
      "ĠÙĨÙģØ³ÙĬ": 2769,
      "ĠÙĨÙģØ³Ùĥ": 2770,
      "ĠØ£ÙĨØ²ÙĦØª": 2771,
      "ĠØªØ¬Ø²ÙĪÙĨ": 2772,
      "ĠØ§Ø¶": 2773,
      "ĠØ£Ø¹Ø±Ø¶": 2774,
      "ĠØªÙĨÙĥ": 2775,
      "ĠØ¨ØºØ§ÙģÙĦ": 2776,
      "ĠØ£Ø³Ø§Ø·ÙĬØ±": 2777,
      "ĠÙĦÙĦÙħÙĦØ§Ø¦ÙĥØ©": 2778,
      "ĠÙĬÙģÙĦØŃ": 2779,
      "ÙĩØªØ¯ÙĬÙĨ": 2780,
      "ĠØ£ØªØ¨Ø¹": 2781,
      "ĠØ£Ø±Ø£ÙĬØª": 2782,
      "ĠÙħØªÙĥ": 2783,
      "ĠØªÙĥÙĪÙĨÙĨ": 2784,
      "ĠØ£Ø¯ÙĨÙī": 2785,
      "ĠÙģØ¶ÙĦØ§": 2786,
      "Ø¶ÙĬØ¹": 2787,
      "ĠÙĤØ±ÙĬØ¨Ø§": 2788,
      "ĠÙģÙĦÙĬØªÙĪÙĥÙĦ": 2789,
      "Ø³Ø§ÙĨØ§": 2790,
      "ĠØªÙģØ¹ÙĦÙĪØ§": 2791,
      "ĠÙĥØ§ÙĦØ°ÙĬÙĨ": 2792,
      "ĠØ§ÙĦÙĨØ¨ÙĬÙĬÙĨ": 2793,
      "ĠØ£Ø¹ÙħØ§ÙĦÙĥÙħ": 2794,
      "ĠØªØ¨ØµØ±ÙĪÙĨ": 2795,
      "ĠÙĨÙģØ¹Ø§": 2796,
      "Ø§Ø®Ø°": 2797,
      "ĠØ³Ø¨ØŃØ§ÙĨÙĥ": 2798,
      "ĠØ¨Ø¥Ø°ÙĨÙĩ": 2799,
      "ĠØ¨Ø±Ø¨ÙĩÙħ": 2800,
      "ĠÙĪØ§ÙĦØ³ÙħØ§Ø¡": 2801,
      "ĠÙĪØ§ÙĦØ´ÙħØ³": 2802,
      "Ø¸Ø§ÙħØ§": 2803,
      "ĠÙģØ£Ø®Ø°ÙĩÙħ": 2804,
      "ĠØ£Ø¥ÙĨØ§": 2805,
      "ĠØ¨Ø·ÙĪÙĨ": 2806,
      "ĠÙħØ³ÙĦÙħÙĬÙĨ": 2807,
      "ĠØ£ØºÙĨÙī": 2808,
      "ĠÙĪØ§ÙĦØ¨ØŃØ±": 2809,
      "ĠÙĪØ§ÙĦØ¥ÙĨØ³": 2810,
      "ĠÙħØ®ØªÙĦÙģ": 2811,
      "ĠÙĪØ¢ØªÙĬÙĨØ§Ùĩ": 2812,
      "ĠØ§ÙĦÙĪØ¹Ø¯": 2813,
      "ĠØ§ÙĦÙģØ§Ø³ÙĤÙĪÙĨ": 2814,
      "ĠÙĪÙĬÙħÙĬØª": 2815,
      "ĠØ¨Ø§ÙĦØ¨Ø§Ø·ÙĦ": 2816,
      "Ø§ÙģØ¸ÙĪÙĨ": 2817,
      "Ø¬ÙĬØ¨ÙĪØ§": 2818,
      "ĠÙģØ£ØµØ¨ØŃÙĪØ§": 2819,
      "ĠÙĪØ§ÙĦÙħØ³Ø§ÙĥÙĬÙĨ": 2820,
      "ĠÙĩÙĨØ§ÙĦÙĥ": 2821,
      "ĠØ§ÙĦØ£Ø¹ÙĦÙī": 2822,
      "ĠØ¯ÙĬØ§Ø±ÙĩÙħ": 2823,
      "ĠÙĬØ¯Ø®ÙĦÙĪÙĨ": 2824,
      "ĠØ£Ø¨ØµØ§Ø±ÙĩÙħ": 2825,
      "ĠØ¨Ø±ÙĬØ¡": 2826,
      "ĠÙĪÙĦØ¹ÙĦÙĥÙħ": 2827,
      "ĠØ¨ÙĬÙĪØªØ§": 2828,
      "ĠØ§Ø®ØªÙĦÙģÙĪØ§": 2829,
      "ĠÙħØ¹ÙĦÙĪÙħ": 2830,
      "ĠØ±ÙĪØ§Ø³ÙĬ": 2831,
      "ĠÙħÙĥØ§ÙĨØ§": 2832,
      "ÙĦØ¦": 2833,
      "ÙĪÙħØ§": 2834,
      "Ø§ÙĦØ§Øª": 2835,
      "Ø±Ø§Øª": 2836,
      "Ø±Ø§Ø¦": 2837,
      "ĠØ§ÙĦÙĬÙħ": 2838,
      "ĠØ§ÙĦØ¹Ùħ": 2839,
      "ĠÙĪØ¯": 2840,
      "ĠÙĪØº": 2841,
      "ĠÙĪØ¹ÙĦÙħ": 2842,
      "ĠÙĪØ¨Ø±": 2843,
      "ĠÙĪÙĪÙĩ": 2844,
      "ĠÙĪØ¶ÙĦ": 2845,
      "ĠÙĪØºØ±": 2846,
      "ØªØ§ÙĨ": 2847,
      "ĠÙħÙħ": 2848,
      "ĠÙħÙĤÙĬÙħ": 2849,
      "Ø¹ÙĦÙĩ": 2850,
      "ĠØ£Ø·": 2851,
      "ĠØ£Ø¨ÙĦØº": 2852,
      "Ø¯Ø±": 2853,
      "Ø³ÙĦØ§Ùħ": 2854,
      "ĠÙģØ·": 2855,
      "ĠÙģØ®Ø°": 2856,
      "ĠÙģØ§Ø·": 2857,
      "ĠÙĦØµ": 2858,
      "ĠÙĦØ°ÙĪ": 2859,
      "ĠÙĬÙĪÙģ": 2860,
      "ĠÙĬÙĦØ¨": 2861,
      "ĠÙĬØ¨ÙĦØº": 2862,
      "ÙĤÙĩ": 2863,
      "ĠØ¨ÙĬØª": 2864,
      "ĠØ¨Ø¦Ø³": 2865,
      "ÙģÙĩ": 2866,
      "ÙģØ¦": 2867,
      "ØŃÙĬÙĨ": 2868,
      "Ø£ÙĦÙĪØ§": 2869,
      "Ø£Ø®Ø°": 2870,
      "ÙħØ§Ùħ": 2871,
      "ĠØªÙħÙĨ": 2872,
      "ĠØªØ¨Ø±": 2873,
      "ĠØªÙĪØ¨": 2874,
      "ĠØªØ§ÙĦÙĦÙĩ": 2875,
      "Ø¬Ø§Ø¨": 2876,
      "ĠÙĥØ¨Ø±": 2877,
      "ĠÙĥØ§ÙģØ±ÙĬÙĨ": 2878,
      "ĠÙĤØ¶ÙĬ": 2879,
      "ÙĦÙĬÙĩÙħ": 2880,
      "ÙĦÙĬØªÙħ": 2881,
      "ĠÙģÙĬÙĩÙħØ§": 2882,
      "ĠØ±Ùĥ": 2883,
      "ÙĩØ§Ø±Ø§": 2884,
      "ÙĩØ§Ø¬Ø±": 2885,
      "Ø¶Ø±ÙĪÙĨ": 2886,
      "ĠØ£ÙĨØµØ§Ø±": 2887,
      "ĠØ£ÙĨØ«Ùī": 2888,
      "ĠØ£ÙĨØ¨Ø§Ø¡": 2889,
      "ĠÙĪØ§ÙĦØ¹": 2890,
      "ĠÙĪØ§ÙĦÙģ": 2891,
      "ĠÙĨÙĨ": 2892,
      "ĠÙĨØŃ": 2893,
      "ĠÙĨÙĤÙĪÙĦ": 2894,
      "ĠÙĨÙĤØµ": 2895,
      "Ø§Ø¨Ùĩ": 2896,
      "ĠÙĩØ¯": 2897,
      "ĠØ³ÙħÙĬ": 2898,
      "ĠØ³Ø§Ø¹Ø©": 2899,
      "Ø«ÙĬ": 2900,
      "ĠØ¢Ø«": 2901,
      "ĠÙĪØ£ØŃ": 2902,
      "ĠÙĪØ£Ø®Ø±": 2903,
      "ĠÙĪØ£ØŃØ³ÙĨ": 2904,
      "ĠÙĪØ£Ø²ÙĪØ§Ø¬": 2905,
      "ĠÙĪØ£ÙĤØ§ÙħÙĪØ§": 2906,
      "ĠØ§ÙĦÙħØ´Ø±": 2907,
      "ĠØ§ÙĦÙħÙĤØ±Ø¨": 2908,
      "ĠØ§ÙĦÙħØ®ÙĦØµÙĬÙĨ": 2909,
      "ĠØŃÙĪÙĦÙĩ": 2910,
      "ØºÙĪ": 2911,
      "ØªÙħÙĪÙĩÙħ": 2912,
      "ĠØ¬Ø¯ÙĬØ¯": 2913,
      "ĠØ®ÙĦØ§ÙĦ": 2914,
      "ĠØ®Ø³Ø±ÙĪØ§": 2915,
      "Ø±Ø§Ø±": 2916,
      "ĠØ¨Ø§ÙĦØ³": 2917,
      "ĠØ¨Ø§ÙĦØ¹Ø¯": 2918,
      "ĠØ¨Ø§ÙĦØŃØ³ÙĨ": 2919,
      "ĠØ¹ÙĨÙĥ": 2920,
      "ÙĬØ§ÙĨØ§": 2921,
      "ĠØ£ÙĪÙĦÙī": 2922,
      "ĠØ§ÙĦØ³Ø¹ÙĬØ±": 2923,
      "ĠÙĪÙĬØµ": 2924,
      "ĠØ§ÙĦØ±ÙĬØŃ": 2925,
      "Ø¹ÙħÙĪÙĨ": 2926,
      "Ø§Ø±Ø¹ÙĪÙĨ": 2927,
      "ĠØ£ÙħØ±ÙĬ": 2928,
      "ĠØ£ÙħØ«Ø§ÙĦ": 2929,
      "ĠÙģØ£Øª": 2930,
      "ĠÙģØ£ØªØ¨Ø¹": 2931,
      "ĠØ§ÙĦØ¹Ø²Ø©": 2932,
      "ĠÙĪÙĤÙĪÙĦÙĪØ§": 2933,
      "ĠØµØ¨Ø±Ø§": 2934,
      "ĠØµØ§ØŃ": 2935,
      "ĠØ§ÙĦÙĤØªØ§ÙĦ": 2936,
      "ĠÙĦÙĬÙĤ": 2937,
      "ĠÙĦÙĬÙĪÙħ": 2938,
      "ĠÙĦÙĬÙĦØ©": 2939,
      "ĠÙĦÙĬØªÙĨÙĬ": 2940,
      "ĠÙĪÙĥÙĨØªÙħ": 2941,
      "ĠØ§ÙĦÙĥØ¨ÙĬØ±": 2942,
      "ĠØ¢ÙħÙĨØªÙħ": 2943,
      "ĠØºÙĦÙĬ": 2944,
      "Ø§Ø¦ÙĬ": 2945,
      "ÙĩÙĪÙī": 2946,
      "ĠØ¨Ø¹ÙĩØ¯": 2947,
      "ĠÙĬØªØ¨Ø¹": 2948,
      "ĠØ¹ÙĦÙĬÙĩÙħØ§": 2949,
      "ĠÙĪØªØªÙĤÙĪØ§": 2950,
      "ØŃÙħÙĪÙĨ": 2951,
      "ÙĪÙģÙĪØ§": 2952,
      "ĠÙĬØ´Ø£": 2953,
      "ĠØ£ØŃÙĦ": 2954,
      "ĠØªØ±ØŃÙħÙĪÙĨ": 2955,
      "ĠØ¸Ø§ÙĦ": 2956,
      "ĠØ¸ÙĦÙħØ§Øª": 2957,
      "ĠÙĪÙĨØ°Ø±": 2958,
      "ĠÙĪÙĨØ°ÙĬØ±Ø§": 2959,
      "ĠÙĪØ£ÙĨÙģÙĤÙĪØ§": 2960,
      "ĠØ·ÙĬÙĨ": 2961,
      "ĠØ·ÙĬØ¨Ø§Øª": 2962,
      "ĠØ§ÙĦØ¬ÙħØ¹": 2963,
      "ÙĪØ¯Ø©": 2964,
      "ĠØ¨Ø£ÙĬØ¯": 2965,
      "ĠØ¨Ø£ÙģÙĪØ§": 2966,
      "ĠØ±Ø³ÙĦØ§": 2967,
      "ĠÙĪØ¹ÙĬÙĪÙĨ": 2968,
      "ĠØªØŃØ¨ÙĪÙĨ": 2969,
      "ĠØªØŃØ´Ø±ÙĪÙĨ": 2970,
      "Ø°Ø±ÙĥÙħ": 2971,
      "ÙģØªÙĨØ©": 2972,
      "ĠØ²Ø¹Ùħ": 2973,
      "ĠÙħØ«ÙĤØ§ÙĦ": 2974,
      "ĠÙĪÙĦÙĥÙĦ": 2975,
      "ĠØ§ÙĦØ®ÙĦ": 2976,
      "ĠØ§ÙĦØ®Ø¨ÙĬØ«": 2977,
      "ĠÙĬØ¯Ø¹ÙĪ": 2978,
      "ĠÙĬØ®Ø§Ùģ": 2979,
      "ĠÙĬØ®Ø§ÙģÙĪÙĨ": 2980,
      "ÙĨØªÙĬÙĨ": 2981,
      "ĠÙĬØ³Ø¬Ø¯": 2982,
      "ØºÙģØ±ÙĪØ§": 2983,
      "ĠØ§ÙĦØºÙĨÙĬ": 2984,
      "ĠÙĦÙĤØ§Ø¡": 2985,
      "ĠÙĦÙĤØ¶ÙĬ": 2986,
      "ĠÙĦØªØ³": 2987,
      "ÙĪÙĥÙĦÙĪÙĨ": 2988,
      "ĠØªØ¬Ø¹ÙĦ": 2989,
      "ÙĦØ¨ÙĪØ§": 2990,
      "ÙĩØ±ÙĪØ§": 2991,
      "ĠØ¹ÙĦÙħØª": 2992,
      "ĠØ£Ø¹ÙĨØ§": 2993,
      "ĠØªÙĨØ²ÙĦ": 2994,
      "ĠØªÙĨÙģÙĤÙĪØ§": 2995,
      "ĠØ§ÙĦØ¥Ø«Ùħ": 2996,
      "Ø¨ØªÙĨØ§": 2997,
      "Ø¨ØªØºÙĪØ§": 2998,
      "ĠØ¨ØºÙĬØ§": 2999,
      "ĠØ£Ø®Ø§ÙĩÙħ": 3000,
      "ĠÙģØ³ÙĬ": 3001,
      "ØªØ¨ÙĪÙĨ": 3002,
      "ĠØ±Ø¬Ø§ÙĦ": 3003,
      "ĠØ±Ø¬ÙĦØ§": 3004,
      "ĠØ±Ø¬Ø§ÙĦØ§": 3005,
      "ĠØ¹ÙħÙĦØ§": 3006,
      "ÙĦØ§ÙĦØ§": 3007,
      "ĠØ°ÙĥØ±ÙĪØ§": 3008,
      "ĠØªØ¯Ø¹": 3009,
      "ĠØ£Ø±ÙĬØ¯": 3010,
      "ĠÙĬØµÙĦÙĪÙĨ": 3011,
      "Ø¹Ø¨Ø¯ÙĪÙĨ": 3012,
      "ÙĪÙĬÙĦÙĩ": 3013,
      "ĠÙĪØ§Ø²": 3014,
      "ĠØŃÙħÙĦ": 3015,
      "ĠÙĬØ£ØªÙĬÙĥÙħ": 3016,
      "ĠÙĨØµÙĬØ¨Ø§": 3017,
      "ĠÙĨØ¹ÙħØª": 3018,
      "ÙĥÙĨÙĪØ§": 3019,
      "ĠØ¨Ø±ÙĩØ§": 3020,
      "Ø¬Ø¹ÙĦÙĩ": 3021,
      "ĠØ±Ø²ÙĤÙĥÙħ": 3022,
      "ĠÙģØ§ÙĦÙĬÙĪÙħ": 3023,
      "ĠØ§ÙĦØªÙĤ": 3024,
      "Ø§ØºÙĪØª": 3025,
      "ĠÙĨØ¨ÙĬØ§": 3026,
      "ĠÙĪØ¬Ø¹ÙĦÙĪØ§": 3027,
      "ĠÙģØ§ØªØ¨Ø¹": 3028,
      "ĠØ§Ø¯Ø¹": 3029,
      "ĠØ§Ø¯Ø¹ÙĪØ§": 3030,
      "ØºØ±ÙĤÙĨØ§": 3031,
      "ĠÙĬØ¶Ø±Ø¨": 3032,
      "ĠØ¨Ø³ÙĦØ·Ø§ÙĨ": 3033,
      "ĠØ°ÙĪÙĤÙĪØ§": 3034,
      "ĠØ®ÙĦÙĤÙĨØ§ÙĥÙħ": 3035,
      "ÙĤÙĦØ¨ÙĪØ§": 3036,
      "ĠØ´ÙĥÙĪØ±": 3037,
      "ĠØªØ£ÙĥÙĦÙĪØ§": 3038,
      "ĠÙĪØ§ÙĦØ¥ÙĨØ¬ÙĬÙĦ": 3039,
      "ĠÙĦØºÙģÙĪØ±": 3040,
      "ĠØªÙĪÙĦÙĬØªÙħ": 3041,
      "ĠÙĪØ§Ø¨ÙĨ": 3042,
      "ĠÙĪØ§Ø³Ø¹": 3043,
      "ĠØ£ÙĦÙĤÙĪØ§": 3044,
      "ĠÙĤÙĪÙĦÙĩÙħ": 3045,
      "ĠØ¯Ø¹Ø§Ø¡": 3046,
      "ĠÙĬØ¨Ø¹Ø«ÙĪÙĨ": 3047,
      "ĠØ¢ØªØ§ÙĩÙħ": 3048,
      "ĠØ§ÙĦÙĬÙĩÙĪØ¯": 3049,
      "ĠØ¢Ø®Ø±ÙĬÙĨ": 3050,
      "ĠÙĪØ£ÙĩÙĦÙĩ": 3051,
      "ĠØ§ÙĦØ®ÙĬØ±Ø§Øª": 3052,
      "ĠØªØªØ¨Ø¹ÙĪØ§": 3053,
      "ĠÙĪÙĩØ§Ø±ÙĪÙĨ": 3054,
      "Ø§ØªÙĦÙĪÙĥÙħ": 3055,
      "ĠÙģÙĥØ°Ø¨ÙĪÙĩ": 3056,
      "ĠÙĪØ£ÙĥØ«Ø±": 3057,
      "ĠÙĪØ§ÙĦÙĥØªØ§Ø¨": 3058,
      "ĠÙĦØ¨Ø«ØªÙħ": 3059,
      "ĠØ§ÙĦØ³ØŃØ±Ø©": 3060,
      "ĠØ§ÙĦÙĦØ§ØªÙĬ": 3061,
      "ĠØ¥ÙĬØ§Ùĩ": 3062,
      "ĠØ¨Ø£ÙħÙĪØ§ÙĦÙĩÙħ": 3063,
      "ĠÙħØ§Ø¦Ø©": 3064,
      "ĠÙĪØ£ÙĪØŃÙĬÙĨØ§": 3065,
      "ĠØ¹Ø±Ø¨ÙĬØ§": 3066,
      "ĠÙĪÙĪÙĩØ¨ÙĨØ§": 3067,
      "ĠØ¨Ø£ÙģÙĪØ§Ùĩ": 3068,
      "Ø§Ø¹Ùģ": 3069,
      "ÙħØ¹ÙĪÙĨ": 3070,
      "ÙĬÙħÙĨ": 3071,
      "ÙĬÙĩØ§": 3072,
      "ÙĬÙĤØ§Øª": 3073,
      "ÙĪØ´": 3074,
      "ÙĪØ¯Ø§": 3075,
      "ÙĪØ³Ùī": 3076,
      "ÙĩÙĤ": 3077,
      "ÙĩÙī": 3078,
      "ÙĩØ¨Ø·": 3079,
      "ĠØ§ÙĦÙģØ³": 3080,
      "ĠØ§ÙĦØªÙĪØ§": 3081,
      "ĠÙĪØ¢Ø®Ø±": 3082,
      "ĠÙĪØŃØ±": 3083,
      "ÙĥØªØ¨": 3084,
      "Ø¨Ø°": 3085,
      "Ø¨Ø«": 3086,
      "Ø¨ÙĨÙĬ": 3087,
      "Ø¨ÙĪØ±Ø§": 3088,
      "ĠÙħØ·": 3089,
      "ĠÙħØ¹Ø¯": 3090,
      "ĠÙħØ±Ø³": 3091,
      "ĠÙħÙĤØ§": 3092,
      "ĠÙħÙĩÙĦÙĥ": 3093,
      "ĠÙħØ§ÙĦØ§": 3094,
      "ĠÙħØ¨Ø§Ø±Ùĥ": 3095,
      "ĠÙħØ®ÙĦØµÙĬÙĨ": 3096,
      "Ø¹Ø¨": 3097,
      "Ø¹Ø§Ø¡": 3098,
      "ĠØ£Ø²": 3099,
      "ĠØ£ÙĦÙĪØ§": 3100,
      "Ø¯Ø§Ø¯Ø§": 3101,
      "Ø³Ùĩ": 3102,
      "Ø³ÙĤ": 3103,
      "Ø³ÙĩÙħ": 3104,
      "ĠÙģÙĨØ§": 3105,
      "ĠÙģØ²": 3106,
      "ĠÙģØ±Ø¶": 3107,
      "ĠÙģØ§Øº": 3108,
      "ĠÙģØ¦Ø©": 3109,
      "ĠÙĦÙĪØ§": 3110,
      "ĠÙĦÙĬØ±": 3111,
      "ĠÙĦØ¨Ø§": 3112,
      "ĠÙĬØ¨Øª": 3113,
      "ĠÙĬØ·Ø¹": 3114,
      "ĠÙĬÙĩÙĦÙĥ": 3115,
      "ĠÙĬÙĦØ¹": 3116,
      "ĠÙĬØ°ÙĩØ¨": 3117,
      "ÙĪØ§Ø±ÙĬ": 3118,
      "ĠØ¨Øª": 3119,
      "ĠØ¨Ø¹ÙĦÙħ": 3120,
      "ĠØ¨ÙĦÙĤ": 3121,
      "ĠØ¨ÙĥØ±Ø©": 3122,
      "ĠØ¥Ø«Ùħ": 3123,
      "ĠØ¥Ø«ÙħØ§": 3124,
      "ØŃÙģ": 3125,
      "ØŃØ¯ÙĪÙĨ": 3126,
      "ØŃÙĪØ±Ø§": 3127,
      "Ø£ÙĬÙĨ": 3128,
      "ĠÙħÙĨØ¹": 3129,
      "ĠÙħÙĨÙĩÙĨ": 3130,
      "ĠØ¹ÙĤ": 3131,
      "ĠØ¹ÙĬÙĨØ§": 3132,
      "ĠØ¹Ø§ÙĩØ¯": 3133,
      "ĠØ¹ÙĪØ¬Ø§": 3134,
      "ĠØªÙģØ³": 3135,
      "ĠØªØ°Ø±": 3136,
      "ĠØªØ´Ø±ÙĥÙĪÙĨ": 3137,
      "ĠØªØ¬Ø¯ÙĪØ§": 3138,
      "ĠØªÙĤØªÙĦÙĪØ§": 3139,
      "Ø¬ÙĪØ§": 3140,
      "Ø¬Ø¹ÙĪØ§": 3141,
      "ĠÙĥØ§": 3142,
      "ĠÙĥÙĦÙĩ": 3143,
      "ĠÙĥÙģÙĪØ±Ø§": 3144,
      "ĠÙĤØ§ÙĨ": 3145,
      "ÙĦÙĬÙħØ§": 3146,
      "Ø®ÙĦØ§": 3147,
      "ØµÙī": 3148,
      "ØµÙĬØ¨": 3149,
      "ĠØ±Ø¢": 3150,
      "Ø´Ø¯": 3151,
      "Ø´ÙĬØ±": 3152,
      "ĠÙĪØ§ÙĦÙĦÙĬÙĦ": 3153,
      "ĠÙĪØ§ÙĦÙĬØªØ§": 3154,
      "ĠÙĨØª": 3155,
      "ĠÙĨÙģØ±": 3156,
      "ĠÙĨØ¹ÙĦÙħ": 3157,
      "ĠÙĨØ²ÙĦÙĨØ§": 3158,
      "ĠÙĨØ¹Ø¨Ø¯": 3159,
      "ĠÙĨØªØ¨Ø¹": 3160,
      "ĠÙĩØ§Ø¯": 3161,
      "Ø§ØªÙĪØ§": 3162,
      "ĠØ³ÙģØ±": 3163,
      "ĠØ³ÙĪÙģ": 3164,
      "ĠØ³ØªØ©": 3165,
      "ĠØ³ÙĪØ±Ø©": 3166,
      "ĠØ³ÙĦØ§ÙħØ§": 3167,
      "ĠØ³Ø§ØŃØ±": 3168,
      "Ø·Ø§Ø¡": 3169,
      "Ø§Ø¡Øª": 3170,
      "Ø¦ÙĥÙħ": 3171,
      "ĠØ±Ø¨ÙĩØ§": 3172,
      "ÙĪÙħÙĪÙĨ": 3173,
      "ĠÙĪØ£Ø¹Ø¯": 3174,
      "ĠÙĪØ£ÙĪÙĦØ§": 3175,
      "ĠÙĪØ£Ø®Ø±Ø¬": 3176,
      "ĠÙĪØ£Ø±Ø¬": 3177,
      "ĠØ§ÙĦÙħØ¤ÙħÙĨØ§Øª": 3178,
      "ĠØ§ÙĦÙħØ³Ø±ÙģÙĬÙĨ": 3179,
      "ĠØŃÙĥÙħ": 3180,
      "ĠØŃÙĪÙĦ": 3181,
      "ĠØŃØ¨Ø§": 3182,
      "ĠØŃØ¨Ø·": 3183,
      "ĠØŃØ²Ø¨": 3184,
      "ØºØ©": 3185,
      "ØºØ±Ø¨": 3186,
      "ØªÙħØ¹": 3187,
      "ØªÙħÙĪÙĩØ§": 3188,
      "ĠØ¬Ø§": 3189,
      "ĠØ¬ÙĦ": 3190,
      "ĠØ¬ÙħØ¹": 3191,
      "ĠØ®Øµ": 3192,
      "ĠØ®ÙĦÙĪØ§": 3193,
      "ĠØ®ÙģØªÙħ": 3194,
      "ĠØ´Ø§": 3195,
      "ĠØ´ÙĤØ§": 3196,
      "ĠØ´Ø§ÙĩØ¯": 3197,
      "ĠØ§ÙĦØ£Ø¹ÙħÙī": 3198,
      "Ø±Ø§Ø¬": 3199,
      "Ø¤ÙĬØ§": 3200,
      "ĠØ¨Ø§ÙĦÙĥ": 3201,
      "ĠØ¨Ø§ÙĦØªÙĬ": 3202,
      "ĠØ¨Ø§ÙĦÙĩØ¯Ùī": 3203,
      "Ø¹ÙĦÙħÙĨ": 3204,
      "ĠÙĪÙĬÙĥ": 3205,
      "ĠØ§ÙĦØ±Ø¨Ø§": 3206,
      "ĠØ«ÙĪØ§Ø¨": 3207,
      "ĠÙģØ£ÙĩÙĦÙĥ": 3208,
      "ĠÙģØ£Ø±Ø³ÙĦÙĨØ§": 3209,
      "ĠÙģØ£Ø¹Ø±Ø¶": 3210,
      "ĠØ§ÙĦØ¹ÙĦÙĬ": 3211,
      "ÙĥØ±ÙĬØ§": 3212,
      "ĠØµÙĨ": 3213,
      "ĠØµØ¨Ø±": 3214,
      "ĠØµÙģØ§": 3215,
      "ĠØµØ±Ùģ": 3216,
      "ĠÙģØ¥ÙħØ§": 3217,
      "ĠØ§ÙĦÙĤØµ": 3218,
      "ĠÙĦÙĬØ³Øª": 3219,
      "ĠØ§ÙĥØª": 3220,
      "ĠØ§Ø¹ÙħÙĦÙĪØ§": 3221,
      "Ø±ÙĬÙĤ": 3222,
      "Ø±ÙĬÙĥÙħ": 3223,
      "Ø±ÙĬØ§Øª": 3224,
      "ĠØ§ÙĦÙĥÙĬÙĦ": 3225,
      "ĠØ¢ÙħÙĨØª": 3226,
      "ĠØ¢ÙħÙĨÙĬÙĨ": 3227,
      "ĠØºÙĨÙĬ": 3228,
      "ĠØºÙĬØ¨": 3229,
      "ÙĦÙĨØ§ÙĩÙħ": 3230,
      "ØªÙĬÙĦØ§": 3231,
      "Ø³ÙħÙĪØ§": 3232,
      "Ø³ÙħØ¹ÙĪØ§": 3233,
      "Ø¨Ø±Ø©": 3234,
      "ĠØ§ÙĦØµÙħ": 3235,
      "ĠØ§ÙĦØµÙĬØŃØ©": 3236,
      "ÙĥÙĪÙĨÙĪØ§": 3237,
      "ĠÙĪØ§Ø¬": 3238,
      "ĠÙĪØ§Ø¬Ø¹ÙĦ": 3239,
      "ĠÙĬØªÙĦÙī": 3240,
      "ĠÙĬØªØ°ÙĥØ±": 3241,
      "ĠÙĬØªØ³Ø§Ø¡": 3242,
      "ĠÙĬØªØ°ÙĥØ±ÙĪÙĨ": 3243,
      "ĠÙĬØªÙĦÙĪ": 3244,
      "ĠÙĬÙĨÙĥ": 3245,
      "ĠÙĬÙĨØ·": 3246,
      "ĠÙĦÙĦØŃÙĤ": 3247,
      "ĠÙĪØªÙĪÙĦÙī": 3248,
      "ĠÙĪØªÙĪÙĥÙĦ": 3249,
      "ĠÙĪØªØ¹Ø§ÙĦÙī": 3250,
      "ĠÙĪØ§ÙĦØ£Ø¨ØµØ§Ø±": 3251,
      "ĠÙĬØ±Ùī": 3252,
      "ĠØ¬Ø§Ø¡Ùĩ": 3253,
      "ĠÙģØ§Ø¹ÙĦ": 3254,
      "ĠÙģØ§Ø¹Øª": 3255,
      "ĠÙģØ§Ø°ÙĥØ±ÙĪØ§": 3256,
      "ĠÙĤÙĪÙħÙĩÙħ": 3257,
      "ĠØ¹ÙĨØ¯ÙĩÙħ": 3258,
      "ĠØ£ØŃÙĬ": 3259,
      "ĠØªØ±Ø§Ø¨": 3260,
      "ĠØªØ±Ø¬Ø¹": 3261,
      "ĠØ¸ÙĦÙħØ§": 3262,
      "ĠØ¸Ø§ÙĦÙħÙĪÙĨ": 3263,
      "ĠØ§ÙĦÙĨÙģØ³": 3264,
      "ĠÙĪÙĨÙģØ®": 3265,
      "ĠØ®ÙĦÙĤØ§": 3266,
      "ÙĪØ¯ÙĪØ§": 3267,
      "ØªÙĩÙĪÙĨ": 3268,
      "Ø§ÙģØ¹": 3269,
      "ĠÙĬØ£Ø®Ø°": 3270,
      "ĠØ£ÙģØª": 3271,
      "ĠÙģØªØŃ": 3272,
      "ĠÙģØªÙĨØ§": 3273,
      "ĠÙĦÙĥÙĨ": 3274,
      "ĠÙĦÙĥÙħØ§": 3275,
      "ĠÙĬÙĥØ°Ø¨ÙĪÙĨ": 3276,
      "ĠØ§ÙĦØ´Ø¬Ø±Ø©": 3277,
      "ĠØ§ÙĦØ´Ø§ÙĥØ±ÙĬÙĨ": 3278,
      "ĠÙĪØ¹Ø§Ø¯": 3279,
      "ĠÙĪØ¹ÙĬØ³Ùī": 3280,
      "Ø¨Ø§Ø±Ø§": 3281,
      "ĠÙĬØ¹Øµ": 3282,
      "ĠÙĬØ¹ÙĬØ¯Ùĩ": 3283,
      "ĠØªØŃØª": 3284,
      "ØµØ±Ùģ": 3285,
      "ĠØ²Ø§Ø¯": 3286,
      "ĠÙħØ«ÙĦÙĥÙħ": 3287,
      "ĠÙĪÙħÙĦØ¦": 3288,
      "ĠÙĬØ³ØªÙĥØ¨Ø±ÙĪÙĨ": 3289,
      "ĠÙĬØ®ÙĦÙģ": 3290,
      "ĠÙĬØ®ÙģÙģ": 3291,
      "ĠÙĪØ±ØŃÙħØªÙĩ": 3292,
      "ĠÙĬØ³ÙĬØ±Ø§": 3293,
      "ĠÙĬØ³ÙĬØ±ÙĪØ§": 3294,
      "ÙħØ³Ùĥ": 3295,
      "ĠØ§ÙĦØºØ§Ø¨Ø±ÙĬÙĨ": 3296,
      "ĠØªØ¹Øª": 3297,
      "ĠØªØ¹Ø§ÙĦÙĪØ§": 3298,
      "ĠÙĪÙĦÙĬØ³": 3299,
      "ÙĩØ±Ø©": 3300,
      "ĠØ¥ÙĦÙĩÙĥÙħ": 3301,
      "ĠØ¹ÙĦÙħÙĨØ§": 3302,
      "ĠØ§ØºÙģØ±": 3303,
      "ĠØªÙĨØ¸Ø±ÙĪÙĨ": 3304,
      "ĠØ£ÙħØ±Øª": 3305,
      "ĠÙĪØ¢Øª": 3306,
      "ĠÙĪØ¢ÙħÙĨ": 3307,
      "ĠÙĪØ¢ÙħÙĨÙĪØ§": 3308,
      "ĠØ§ÙĦØ¥ÙĬÙħØ§ÙĨ": 3309,
      "ĠÙĬØ¬ØŃØ¯ÙĪÙĨ": 3310,
      "ĠÙĪØ§ÙĦÙħØ¤ÙħÙĨÙĪÙĨ": 3311,
      "ĠØ§ÙĦÙģØµÙĦ": 3312,
      "ĠÙģÙĥÙĦÙĪØ§": 3313,
      "ĠØ®Ø§ÙĦÙĤ": 3314,
      "ÙĪØ§ÙĦØ¯": 3315,
      "ÙĪØ§ÙĦØ¯ÙĬÙĨ": 3316,
      "ÙģØ¹ÙĪÙĦØ§": 3317,
      "ĠØ¹Ø¨Ø§Ø¯Ùĥ": 3318,
      "ĠÙĪØ¹Ø¯Ø§": 3319,
      "ĠÙĪØ¹Ø¯Ùĩ": 3320,
      "ĠÙģØ¨Ø¦Ø³": 3321,
      "ĠÙĬØ¤Ø§Ø®Ø°": 3322,
      "ĠØªØ®Ø§Ùģ": 3323,
      "Ø±ÙģÙĪØ§": 3324,
      "ĠÙĦØ¹ÙĦÙĬ": 3325,
      "ĠÙĦØ¹ÙĨØ©": 3326,
      "ĠÙĦØ¹Ø¨Ø§Ø¯": 3327,
      "ĠÙĬØµÙĬØ¨": 3328,
      "ĠÙĬØµÙģÙĪÙĨ": 3329,
      "ĠÙĨØ³ÙĪØ§": 3330,
      "ĠØ§ÙĦØ·ÙĪØ±": 3331,
      "ĠÙħÙĦÙĥØ§": 3332,
      "ĠÙħØªØ´": 3333,
      "ĠØ¹Ø¯ÙĦ": 3334,
      "ÙĪÙĬÙĦØ§": 3335,
      "ĠÙĪØŃØ§ÙĤ": 3336,
      "ĠØ§ÙĨØª": 3337,
      "ĠÙĪØ§Ø¶": 3338,
      "ĠØ¨Ø±ØŃÙħØ©": 3339,
      "ĠØŃØ±Ø«": 3340,
      "ĠØ£ØŃØ¯ÙĩÙħ": 3341,
      "ĠØ£ØŃØ¯ÙĥÙħ": 3342,
      "ĠÙģÙĦÙĬØ³": 3343,
      "ĠØ±Ø²ÙĤÙĨØ§ÙĥÙħ": 3344,
      "ĠÙĨÙĪØŃØ§": 3345,
      "ĠØ¢Ø¨Ø§Ø¤ÙĨØ§": 3346,
      "ĠØ¬Ø¹ÙĦÙĨØ§Ùĩ": 3347,
      "ĠØ§ÙĦÙħÙĨØ°Ø±ÙĬÙĨ": 3348,
      "ĠØªØ³ØªØ¹Ø¬ÙĦÙĪÙĨ": 3349,
      "ØºØ±ÙĤ": 3350,
      "Ø£ÙĦÙĨ": 3351,
      "ĠÙģØ§Ø³ÙĤÙĪÙĨ": 3352,
      "ÙĪØ²Ø§": 3353,
      "ĠÙĬØ¶Ø§Ø¹Ùģ": 3354,
      "ĠÙĪØ¬ÙĩÙĥ": 3355,
      "Ø±ØŃØ§Ùħ": 3356,
      "ĠØ³Ø¨ÙĤØª": 3357,
      "ĠÙĦØ¯ÙĬÙĩÙħ": 3358,
      "ĠÙĦØ¯ÙĨÙĥ": 3359,
      "ĠØ¹Ø²ÙĬØ²Ø§": 3360,
      "ĠØ§ÙĦÙħØ±Ø³ÙĦÙĪÙĨ": 3361,
      "ØªÙĤÙĪÙī": 3362,
      "ĠØ§ÙģØªØ±Ø§Ùĩ": 3363,
      "ĠØªØ£ÙĥÙĦ": 3364,
      "ĠÙħØªØ§Ø¹Ø§": 3365,
      "ØŃØ´Ø§Ø¡": 3366,
      "ĠØªØ²Ø±": 3367,
      "ĠØ¥ÙĬÙħØ§ÙĨØ§": 3368,
      "Ø´ÙģÙĨØ§": 3369,
      "ĠÙĬØ¹ÙħÙĩÙĪÙĨ": 3370,
      "ĠÙĪØ¸ÙĨÙĪØ§": 3371,
      "Ø¯Ø®ÙĦÙĩÙħ": 3372,
      "ĠØ£ÙĪÙĦØ§Ø¯ÙĥÙħ": 3373,
      "ĠÙĪÙĤÙĪÙħÙĩ": 3374,
      "ĠØ³ÙĬØ¦Ø§ØªÙĩÙħ": 3375,
      "ĠÙĪØ§ØµØ¨Ø±": 3376,
      "ĠÙģÙĬÙĨØ¨Ø¦ÙĥÙħ": 3377,
      "ĠØ§ÙĦØ±Ø¬Ø§ÙĦ": 3378,
      "ĠØ£Ø°Ùī": 3379,
      "ĠØ£Ø£ÙĨØªÙħ": 3380,
      "ĠØ³Ø¹ÙĬØ±Ø§": 3381,
      "ĠÙĬØ£ÙĥÙĦÙĪÙĨ": 3382,
      "ĠØ£Ø±Ø¨Ø¹Ø©": 3383,
      "ĠÙĨØ§Ø¯Ùī": 3384,
      "ĠØ´Ø¹ÙĬØ¨Ø§": 3385,
      "ĠØ£ÙĨØ¹ÙħØª": 3386,
      "ĠÙĪØ£Ø¨ÙĤÙī": 3387,
      "ĠØ§ÙĩØªØ¯Ùī": 3388,
      "ĠÙĪØ°ÙĥØ±Ùī": 3389,
      "ĠÙħØŃÙĬØ·": 3390,
      "ĠØ£ÙģØ±Ø£ÙĬØªÙħ": 3391,
      "ĠØ¨Ø°ÙĨÙĪØ¨ÙĩÙħ": 3392,
      "ĠÙĨØ§ØµØ±ÙĬÙĨ": 3393,
      "ĠØªØŃØ²ÙĨ": 3394,
      "ĠÙĪØ¶Ø±Ø¨": 3395,
      "ĠÙĬØ³Ø¨ØŃÙĪÙĨ": 3396,
      "ØŃØµÙĨØ§Øª": 3397,
      "ĠØªÙĪÙĥÙĦØª": 3398,
      "ĠÙĬØ¬Ø§Ø¯ÙĦÙĪÙĨ": 3399,
      "ĠÙħØ¤ÙħÙĨØ§": 3400,
      "ĠÙħØ±ÙĬØ¨": 3401,
      "ĠØ£Ø¨Ø§ÙĨØ§": 3402,
      "ĠØ¢Ø°Ø§ÙĨÙĩÙħ": 3403,
      "ĠÙĪØ¬ÙĨÙĪØ¯Ùĩ": 3404,
      "ĠØ¨ÙħØ¹Ø¬Ø²ÙĬÙĨ": 3405,
      "ĠØ³Ø£ÙĦØªÙĩÙħ": 3406,
      "Ø·ÙħØ¦ÙĨ": 3407,
      "ĠØ®Ø²Ø§Ø¦ÙĨ": 3408,
      "ĠÙĪØªØ±ÙĥÙĨØ§": 3409,
      "ĠØªØ¹Ø¨Ø¯ÙĪØ§": 3410,
      "ĠØªØ°ÙĥØ±Ø©": 3411,
      "ĠØ±Ø´Ø¯Ø§": 3412,
      "ĠÙĪØ£Ø¹ØªØ¯ÙĨØ§": 3413,
      "ĠØ§ÙĦÙħÙĨØ§ÙģÙĤÙĪÙĨ": 3414,
      "Ø¨Ø¹ÙĪØ«ÙĪÙĨ": 3415,
      "ĠÙħØªÙĥØ¦ÙĬÙĨ": 3416,
      "ĠØ¨ÙĦÙĤØ§Ø¡": 3417,
      "ĠÙĪØ§ÙĦÙĬØªØ§ÙħÙī": 3418,
      "ĠÙĬØªØ³Ø§Ø¡ÙĦÙĪÙĨ": 3419,
      "ÙĦÙĪÙĩ": 3420,
      "ÙĨØ¹ÙĪÙĨ": 3421,
      "ÙħØªÙħ": 3422,
      "ÙħØ±Ø§": 3423,
      "ÙĬØ³": 3424,
      "ÙĪØ¶": 3425,
      "ÙĩÙģ": 3426,
      "Ø±ÙĥÙħ": 3427,
      "Ø±Ø§Ø·": 3428,
      "ĠØ§ÙĦÙĥØ±": 3429,
      "ĠØ§ÙĦØ´Ø±": 3430,
      "ĠØ§ÙĦÙģØªÙĨØ©": 3431,
      "ĠÙĪØ«": 3432,
      "ĠÙĪØ¹ÙĦ": 3433,
      "ĠÙĪØŃÙħ": 3434,
      "ĠÙĪØŃØ³ÙĨ": 3435,
      "ÙĥØ«Ø±": 3436,
      "ÙĥÙĬÙĩÙħ": 3437,
      "ØªØ±": 3438,
      "ØªØ±ÙĪÙĨ": 3439,
      "ØªØ¯ÙĨØ§": 3440,
      "ØªØºÙĪØ§": 3441,
      "ØªÙĦØ§Ùģ": 3442,
      "Ø¨Ùī": 3443,
      "Ø¨ÙĩØ§": 3444,
      "Ø¨ÙĪØ±": 3445,
      "Ø¨Ø´Ø±": 3446,
      "Ø¨Ø§Ø¦": 3447,
      "Ø¨Ø´Ø±ÙĪÙĨ": 3448,
      "ĠÙħØ°": 3449,
      "ĠÙħÙģ": 3450,
      "ĠÙħØ³Ø±": 3451,
      "ĠÙħØ¤ÙħÙĨÙĪÙĨ": 3452,
      "ĠÙħØŃØ±": 3453,
      "ĠÙħÙĬØª": 3454,
      "ĠÙħÙĦØ§Ø¦ÙĥØ©": 3455,
      "ĠÙħØºØ±": 3456,
      "ĠÙħÙĦØ§ÙĤ": 3457,
      "ĠÙħÙģØ¹ÙĪÙĦØ§": 3458,
      "Ø¹ØªÙħ": 3459,
      "Ø¹ØªÙĩÙħ": 3460,
      "Ø¹Ø¬ÙĦ": 3461,
      "ĠØ£ØªÙī": 3462,
      "ĠØ£Ø¦ÙĨ": 3463,
      "ĠØ£ÙĩØ¯Ùī": 3464,
      "Ø¯ÙĨ": 3465,
      "Ø¯Ø¯": 3466,
      "Ø¯Ø³": 3467,
      "Ø¯ÙĬØ«": 3468,
      "Ø³ÙĥÙħ": 3469,
      "Ø³ÙĦÙħ": 3470,
      "Ø³Ø±Ø§": 3471,
      "ĠÙģØ³Øª": 3472,
      "ĠÙģØµØ¯": 3473,
      "ĠÙģØ°Ø±ÙĩÙħ": 3474,
      "ĠÙĦØ§Øª": 3475,
      "ĠÙĦÙģØ±": 3476,
      "ĠÙĦØ³Øª": 3477,
      "ĠÙĦÙĬØ¯": 3478,
      "ĠÙĦÙĦÙĤ": 3479,
      "ĠÙĦØ¯ÙĨØ§": 3480,
      "ĠÙĦØ³Ø§ÙĨ": 3481,
      "ĠÙĬØ¯Ø§": 3482,
      "ĠÙĬÙħÙĬ": 3483,
      "ĠÙĬÙĤØªÙĦÙĪÙĨ": 3484,
      "ĠÙĬØ¹ÙĦÙĨÙĪÙĨ": 3485,
      "ÙĤÙĨ": 3486,
      "ÙĤÙĪÙĩ": 3487,
      "Ø°ÙĪÙĨ": 3488,
      "ÙĪØ§Ø¹Ø¯": 3489,
      "ÙĬÙĨÙĥ": 3490,
      "ĠØ¨Ø§Ø±": 3491,
      "ĠØ¨ÙģØ§": 3492,
      "ĠØ¨Ø¸ÙĦÙħ": 3493,
      "ĠØ¨ÙĤØ±": 3494,
      "ĠØ¨ÙħØ¹Ø±ÙĪÙģ": 3495,
      "ĠØ¨ÙĬÙħÙĬÙĨ": 3496,
      "ĠØ¨ÙĤØ¯Ø±": 3497,
      "ĠØ¨Ø´ÙĬØ¡": 3498,
      "ĠØ¥Ø³ØŃØ§ÙĤ": 3499,
      "ĠØ¥ÙģÙĥ": 3500,
      "ĠØ¥ØµÙĦØ§": 3501,
      "ÙĪÙĨØ§": 3502,
      "ÙĪÙĨÙĩØ§": 3503,
      "ÙģØµ": 3504,
      "ÙģÙĩØ§": 3505,
      "ØŃØ©": 3506,
      "ØŃÙħÙĬÙĨ": 3507,
      "ØŃØ³Ø§ÙĨ": 3508,
      "Ø£Øª": 3509,
      "Ø£Ø®Ø±ÙĪÙĨ": 3510,
      "ĠÙħÙĨÙĥ": 3511,
      "ĠÙħÙĨØª": 3512,
      "ĠØ¹Ø§": 3513,
      "ĠØ¹Ø±": 3514,
      "ĠØ¹Øª": 3515,
      "ĠØ¹ÙħØ±": 3516,
      "ĠØ¹ÙģØ§": 3517,
      "ĠØ¹Ø§Øµ": 3518,
      "ĠØ¹Ø¨Ø¯Ø§": 3519,
      "ÙĦØ§Øª": 3520,
      "ĠØªØ¸": 3521,
      "ĠØªØ±ÙĪÙĨ": 3522,
      "ĠØªÙģØª": 3523,
      "ĠØªÙĤÙĪÙĦÙĪÙĨ": 3524,
      "ĠØªØ´Ø±Ùĥ": 3525,
      "ĠØªÙĩØªØ¯ÙĪÙĨ": 3526,
      "ĠØªØ¨Ø§Ø±Ùĥ": 3527,
      "ĠØªØŃÙħÙĦ": 3528,
      "Ø¬ÙĪ": 3529,
      "Ø¬ÙĪØ¯": 3530,
      "Ø¬Ø§Ø±Ø©": 3531,
      "ĠÙĥØ§Øª": 3532,
      "ĠÙĥØ§Ø±": 3533,
      "ĠÙĥØ°Ø§Ø¨": 3534,
      "ĠÙĥØ§Ùģ": 3535,
      "ĠÙĥÙĬØ¯Ø§": 3536,
      "ĠÙĤØ±Ø¶Ø§": 3537,
      "ÙĦÙĬÙĥÙħ": 3538,
      "Ø®ÙĬØ±": 3539,
      "ØµÙĬ": 3540,
      "ØµØ±Ø§": 3541,
      "ĠØ±Ø£ÙĬ": 3542,
      "ĠØ±Ø¶ÙĬ": 3543,
      "ĠØ¥ÙĨÙĨÙĬ": 3544,
      "Ø¶Ø±Ø¨": 3545,
      "Ø²Ø±": 3546,
      "Ø²Øª": 3547,
      "Ø²ÙĬØ±": 3548,
      "Ø§ÙĨÙĩ": 3549,
      "Ø§ÙĨÙĬØ©": 3550,
      "Ø´Ø§": 3551,
      "Ø´ÙĩØ¯ÙĪØ§": 3552,
      "ĠØ£ÙĨÙĥ": 3553,
      "ĠØ£ÙĨØ°Ø±": 3554,
      "ĠØ£ÙĨÙģÙĤ": 3555,
      "ĠØ£ÙĨØ¯Ø§Ø¯Ø§": 3556,
      "ĠÙĨØ±Ùī": 3557,
      "Ø§Ø¨ÙĩØ§": 3558,
      "ĠÙĩÙĪØ§Ùĩ": 3559,
      "ĠØ³Ùħ": 3560,
      "ĠØ³Ùĥ": 3561,
      "ĠØ³Øª": 3562,
      "ĠØ³Ø§Ø¨": 3563,
      "ĠØ³Ø§Ø¦": 3564,
      "ĠØ³ÙĦÙģ": 3565,
      "ĠØ³ØŃØ§Ø¨": 3566,
      "Ø·ÙĨØ§": 3567,
      "Ø·ÙĬÙģ": 3568,
      "Ø§Ø¡ÙĪØ§": 3569,
      "ĠÙĪØ£Ø¯": 3570,
      "ĠÙĪØ£Ø¬Ø±": 3571,
      "ĠÙĪØ£Ø¶ÙĦ": 3572,
      "ĠÙĪØ£Ø·Ø¹ÙĨØ§": 3573,
      "ĠÙĪØ£ÙĪØ±Ø«": 3574,
      "ĠØ§ÙĦÙħØ¹": 3575,
      "ĠØ§ÙĦÙħØ¬": 3576,
      "ĠØ§ÙĦÙħØ¹Øª": 3577,
      "ĠØ§ÙĦÙħÙĥØ°Ø¨ÙĬÙĨ": 3578,
      "ĠØŃØµ": 3579,
      "ĠØŃØ¶Ø±": 3580,
      "ĠØŃØ§ÙģØ¸": 3581,
      "ØºØ§": 3582,
      "ĠØ¬ÙĩØ¯": 3583,
      "ĠØ¬Ø§Ø«": 3584,
      "ĠØ®Ø§Ø¦": 3585,
      "ĠØ®Ø³Ø±": 3586,
      "ĠØ®Ø²ÙĬ": 3587,
      "ĠØ®ÙģØª": 3588,
      "ĠØ®ÙĦØ§Ùģ": 3589,
      "ĠØ´Ø¬Ø±": 3590,
      "ĠØ´ÙĩØ±": 3591,
      "ĠØ´Ø¬Ø±Ø©": 3592,
      "ĠØ´ÙģØ§Ø¹Ø©": 3593,
      "ĠØ§ÙĦØ£Ø³": 3594,
      "ĠØ§ÙĦØ£ÙĦÙĬÙħ": 3595,
      "ĠØ§ÙĦØ£Ø±ØŃØ§Ùħ": 3596,
      "Ø¸ÙĥÙħ": 3597,
      "Ø±Ø§Ø¯": 3598,
      "Ø±Ø§ÙĩÙħ": 3599,
      "Ø¢ÙĨ": 3600,
      "ĠØ¨Ø§ÙĦØŃ": 3601,
      "ĠØ¨Ø§ÙĦØ°ÙĬÙĨ": 3602,
      "ĠØ¨Ø§ÙĦÙĦÙĬÙĦ": 3603,
      "ĠØ°Ø±Ø©": 3604,
      "ĠØ¹ÙĨÙĬ": 3605,
      "ĠØ§ÙĦØ³ÙĦÙħ": 3606,
      "ĠØ§ÙĦØ³Ø¬ÙĨ": 3607,
      "ĠØ§ÙĦØ³Ø¬ÙĪØ¯": 3608,
      "ĠÙĪÙĬØ²": 3609,
      "ĠÙĪÙĬÙĦÙĨØ§": 3610,
      "ĠÙĪÙĬØ²ÙĬØ¯": 3611,
      "Ø§Ø¯ÙĤÙĪÙĨ": 3612,
      "Ø¹ÙħÙĩ": 3613,
      "ĠØ«ÙĬØ§Ø¨": 3614,
      "ÙĦÙĪÙĨÙĥÙħ": 3615,
      "ĠØ§ÙĦØŃØ³ÙĨØ©": 3616,
      "ĠØ§ÙĦØŃØ¯ÙĬØ«": 3617,
      "ĠØ¯Ø§Ø¦": 3618,
      "ĠØ§ÙĦØ¹Ø¬ÙĦ": 3619,
      "ĠÙĪÙħÙĨÙĥÙħ": 3620,
      "ÙĦÙĤØ©": 3621,
      "ĠÙĪÙĤÙĦÙĨØ§": 3622,
      "ÙĥØ±Ùĩ": 3623,
      "ĠØµÙĬØŃØ©": 3624,
      "ÙĩØ¯Ø§Ø¡": 3625,
      "ĠÙģØ¥ÙĨÙĬ": 3626,
      "ÙĬÙĨØ§ÙĥÙħ": 3627,
      "ĠØ§ÙĦÙĤÙĩØ§Ø±": 3628,
      "ĠØ§ÙĦÙĤÙĦÙĪØ¨": 3629,
      "ĠÙĦÙĬØª": 3630,
      "ĠÙĦÙĬØ®Ø±Ø¬": 3631,
      "ĠØ§ÙħØ±": 3632,
      "ĠÙĪÙĥØ«ÙĬØ±": 3633,
      "ĠÙĪÙĥØ£ÙĬÙĨ": 3634,
      "ÙĪØ±ÙĩÙĨ": 3635,
      "ÙĤØ¯Ø§Ùħ": 3636,
      "ĠÙĪØ¥ÙĨÙĥ": 3637,
      "Ø´Ø±ÙĬÙĨ": 3638,
      "ĠØ§ÙĦØ±ØŃÙħØ©": 3639,
      "Ø¨ÙĦØ¯": 3640,
      "Ø¨ÙĦÙĪÙĥÙħ": 3641,
      "Ø¨ÙĦØºÙĪØ§": 3642,
      "ØªÙĬÙĥÙħ": 3643,
      "ĠÙĪØ¬ÙĨØ§Øª": 3644,
      "ĠÙĩÙĪØ¯Ø§": 3645,
      "ĠØ§ÙĦØµØ±Ø§Ø·": 3646,
      "ĠÙħØ¹ÙĨØ§": 3647,
      "ĠÙĪØ§ÙħØ±Ø£": 3648,
      "ĠØ¨Ø¹ÙĬØ¯Ø§": 3649,
      "ĠÙĬØªÙĦÙĪÙĨ": 3650,
      "ĠÙĥÙģØ±ØªÙħ": 3651,
      "ÙĪØ¨Ø©": 3652,
      "ĠØ£ÙĬÙĩÙħ": 3653,
      "ĠØ£ÙĬØ§ÙĨ": 3654,
      "ĠÙĪØ§ÙĦØ£ÙĤØ±Ø¨": 3655,
      "ĠÙĤØ¯ÙĬØ±Ø§": 3656,
      "ĠÙĬØŃØ³Ø¨": 3657,
      "ĠÙĬØŃØ¨ÙĪÙĨ": 3658,
      "ÙĬÙĦØ©": 3659,
      "ĠØ¨Ø¹Ø¯ÙĩØ§": 3660,
      "ĠÙħÙĪØ¹Ø¯": 3661,
      "ĠØ¬Ø§Ø¡ÙĪØ§": 3662,
      "ĠØ¬Ø§Ø¡ÙĨØ§": 3663,
      "Ø¯Ø§ÙĩÙħØ§": 3664,
      "Ø³Ø¨ÙĪØ§": 3665,
      "ĠÙĬØ´ÙĩØ¯": 3666,
      "ĠÙģØ§Ø¹ÙĦÙħÙĪØ§": 3667,
      "ĠÙģØ§ÙĥÙĩØ©": 3668,
      "ĠÙģÙĦÙĩÙħ": 3669,
      "ĠÙģÙĦÙĦÙĩ": 3670,
      "ĠØ¹ÙĨØ¯ÙĬ": 3671,
      "ĠØ£ØŃØ¨": 3672,
      "Ø³ÙĨØªÙĩÙħ": 3673,
      "ĠØ¸Ø§": 3674,
      "ĠÙĪÙĨØ³Ø§Ø¡": 3675,
      "ĠØ·ÙĬØ¨Ø§": 3676,
      "ĠØ·ØºÙī": 3677,
      "ĠØ®ÙĦÙĤÙĩ": 3678,
      "ĠØ®ÙĦÙĤØª": 3679,
      "ÙħÙĬØª": 3680,
      "ĠÙĬØ£ØªÙĥÙħ": 3681,
      "ĠÙĬØ£ØªÙĪÙĨ": 3682,
      "ĠÙģØªÙĨ": 3683,
      "ĠÙĦÙĥØ§ÙĨ": 3684,
      "ĠØ§ÙĦØ´ÙħØ§ÙĦ": 3685,
      "ĠØ§ÙĦØ´Ø§ÙĩØ¯ÙĬÙĨ": 3686,
      "ĠÙĬØ¹Ø°Ø¨ÙĩÙħ": 3687,
      "ĠÙĬØ¹Ø±ÙģÙĪÙĨ": 3688,
      "ØªØ§ÙħÙī": 3689,
      "ĠØªØŃÙĥÙħ": 3690,
      "ĠØ£Ø¬ÙĦÙĩÙħ": 3691,
      "ĠØ£Ø¬ÙĪØ±ÙĩÙĨ": 3692,
      "ĠØ²Ø±": 3693,
      "ÙĬÙħØ§ÙĩÙħ": 3694,
      "ĠÙħØ«ÙĦÙĨØ§": 3695,
      "ĠØ§ÙĦØ®Ø¨ÙĬØ±": 3696,
      "ĠÙĪÙħÙĨØ§": 3697,
      "ĠÙĪÙħØªØ§": 3698,
      "ĠÙĪÙħØ£ÙĪØ§ÙĩÙħ": 3699,
      "ÙģÙĬØ¹": 3700,
      "ĠÙĬØ®Ø´ÙĪÙĨ": 3701,
      "ĠÙĬØ®Ø´Ùī": 3702,
      "ĠÙĬØ®ØªØµ": 3703,
      "ĠÙĪÙĦÙĪØ·Ø§": 3704,
      "ĠÙĪØ¨ÙħØ§": 3705,
      "ĠÙĪØ¨ÙĨÙĬÙĨ": 3706,
      "ĠÙĬØ³Ø±Ø§": 3707,
      "ĠÙĬØ³Ø¹Ùī": 3708,
      "ĠÙĬØ³ØªÙħØ¹ÙĪÙĨ": 3709,
      "ĠÙĬØ³Ø§Ø±Ø¹ÙĪÙĨ": 3710,
      "ĠÙħØ±Ø¯": 3711,
      "ĠÙħØ³Ùĩ": 3712,
      "ĠÙħØ³Ùĥ": 3713,
      "ĠÙħØ³Ø§Ùĥ": 3714,
      "ĠØ§ÙĦØ¨Ø§Ø¨": 3715,
      "ĠØ§ÙĦØ¨ØµØ±": 3716,
      "ĠÙĪÙĦÙĬØ¹ÙĦÙħ": 3717,
      "ĠØ§Ø³ØªØ¶Ø¹Ùģ": 3718,
      "ÙĪÙĥÙĬÙĦ": 3719,
      "ĠØªØ¬Ø§Ø±Ø©": 3720,
      "ĠØ¹ÙĦÙħØªÙħ": 3721,
      "ĠØªØ£Ø®Ø°": 3722,
      "ĠÙĤÙĦÙĪØ¨ÙĨØ§": 3723,
      "ĠØ£Ø¹ÙĪØ°": 3724,
      "ĠØ£Ø¹ØªØ¯ÙĨØ§": 3725,
      "ĠØªÙĨÙģØ¹": 3726,
      "ĠÙģÙĤÙĦÙĨØ§": 3727,
      "ĠØ§ÙĦØ¥ÙĨØ³": 3728,
      "ĠÙĪØ§ØªØ®Ø°ÙĪØ§": 3729,
      "ÙĦØŃÙĪØ§": 3730,
      "Ø¨Ø±Ø§Ø±": 3731,
      "ĠØ£Ø±Ø³ÙĦØª": 3732,
      "Ø°ÙĩØ¨ÙĪØ§": 3733,
      "ĠØªÙĤØ±Ø¨": 3734,
      "ĠØªÙĤÙĦØ¨": 3735,
      "ÙĪØ¬ÙĪÙĩ": 3736,
      "ĠØ§ÙĦØ£ÙĨØ«ÙĬ": 3737,
      "ÙĤÙĬÙħÙĪÙĨ": 3738,
      "Ø·Ø¹ÙĨ": 3739,
      "ĠÙģØ¨ÙħØ§": 3740,
      "ĠÙģØ¨Ø´Ø±": 3741,
      "ĠÙĬØ¤ÙģÙĥÙĪÙĨ": 3742,
      "ĠÙĬØ¤ØªÙĬÙĩ": 3743,
      "ĠØªØ®Ø´": 3744,
      "ĠØªØ®ØªÙĦÙģÙĪÙĨ": 3745,
      "ĠØ±ØŃÙħØª": 3746,
      "ĠÙĬÙĤØ¨ÙĦ": 3747,
      "ĠÙħØ³ØªÙĤØ±": 3748,
      "ĠØ°ÙĥØ±Ùī": 3749,
      "ĠØ£ØªØ±": 3750,
      "ĠØªØ¯Ø®ÙĦÙĪØ§": 3751,
      "ÙĦÙħØ§ØªÙĩ": 3752,
      "ĠØ¨ÙĬØ¶Ø§Ø¡": 3753,
      "ĠÙĬØµØ¯ÙĪÙĨ": 3754,
      "ĠÙĨØ³Ø§Ø¡": 3755,
      "ĠØ§ÙĦØ·Ø¹Ø§Ùħ": 3756,
      "ĠØ§ÙĦØ·Ø§ØºÙĪØª": 3757,
      "ĠÙĬØºØ´Ùī": 3758,
      "ĠÙĪØŃØ¯Ùĩ": 3759,
      "Ø·Ø§Ø¹": 3760,
      "ĠØ¬Ø¹ÙĦÙĥÙħ": 3761,
      "ĠØ£ÙĬØ¯ÙĬ": 3762,
      "ÙĤØ±Ø§Ø¡": 3763,
      "Ø§Ø¤Ùĩ": 3764,
      "ĠØŃÙħÙĬØ¯": 3765,
      "ĠÙĨØ¹ÙħØªÙĬ": 3766,
      "ĠÙĬÙħÙĪØª": 3767,
      "ĠÙĬÙħÙĥØ±ÙĪÙĨ": 3768,
      "ĠÙĬÙħØ´ÙĬ": 3769,
      "ĠÙģØ§ÙĨØª": 3770,
      "ĠØŃØ±ÙħÙĨØ§": 3771,
      "ĠØ£ÙĤÙĦ": 3772,
      "Ø·Ø±ÙĨØ§": 3773,
      "ĠØ±Ø²ÙĤÙĩÙħ": 3774,
      "ĠÙģØ§ÙĦÙĦÙĩ": 3775,
      "ĠÙģØ£ÙĨØ¬ÙĬÙĨØ§Ùĩ": 3776,
      "ĠØ¨ÙħØ¤ÙħÙĨÙĬÙĨ": 3777,
      "ĠØ¨ÙħØ«ÙĦ": 3778,
      "ĠØªÙģØ¹ÙĦÙĪÙĨ": 3779,
      "ĠÙĨØ¨Ø§Øª": 3780,
      "ĠØ±Ø£ÙĬØª": 3781,
      "ĠÙģÙĪÙĤÙĥÙħ": 3782,
      "ĠØ£Ø²ÙĪØ§Ø¬ÙĥÙħ": 3783,
      "ĠØªØµÙĬØ¨": 3784,
      "ĠØ§ÙĦØ£ÙĪÙĦÙĪÙĨ": 3785,
      "ĠÙĦØ¨ÙĨÙĬ": 3786,
      "ĠÙĬØ®Ø±Ø¬ÙĪØ§": 3787,
      "ĠÙĬØ®Ø±Ø¬ÙĪÙĨ": 3788,
      "ĠØ³ÙĪØ¡Ø§": 3789,
      "ĠØ¶ÙĦØ§ÙĦØ§": 3790,
      "ĠÙĪØ¨ÙĬÙĨÙĩÙħ": 3791,
      "ĠÙģØ§Ø³ÙĤÙĬÙĨ": 3792,
      "ĠÙģØ§Ø³Ø£ÙĦ": 3793,
      "ĠØ³ÙħØ¹ÙĪØ§": 3794,
      "ĠÙħØ¯ÙĥØ±": 3795,
      "ĠÙħØ¯Ø¨Ø±ÙĬÙĨ": 3796,
      "ĠØ¨Ø³ØŃØ±": 3797,
      "ĠÙĪØµÙĬØ©": 3798,
      "ĠØ³Ø¨ÙĤ": 3799,
      "ĠÙĬØ²ÙĬØ¯": 3800,
      "ĠÙĪØ¬ÙĪÙĩÙĥÙħ": 3801,
      "ĠØ£Ø®Ø±Ø¬ÙĨØ§": 3802,
      "Ø²ÙĬÙĨÙĩ": 3803,
      "Ø§ÙĪÙĬØ©": 3804,
      "ÙĪØ¹Ø¸Ø©": 3805,
      "ĠØ¬Ø¦Øª": 3806,
      "ĠØ§ÙĦØµØ¯ÙĤØ§Øª": 3807,
      "ĠØ¨ÙĤÙĪØ©": 3808,
      "ĠØ§ÙĦØ°ÙĥØ±Ùī": 3809,
      "ĠÙģØ¢ÙħÙĨÙĪØ§": 3810,
      "ĠØ¨Ø®ÙĬØ±": 3811,
      "ĠØ¥ÙĬÙħØ§ÙĨÙĩÙħ": 3812,
      "ĠØ¥ÙĬÙħØ§ÙĨÙĥÙħ": 3813,
      "Ø§Ø²ÙĤÙĬÙĨ": 3814,
      "ĠØ£ÙĦÙĤÙī": 3815,
      "Ø®ÙĪØ§ÙĨÙĩÙħ": 3816,
      "Ø§Ø±ÙĥÙĨØ§": 3817,
      "ĠØ²ÙĬÙĨØ©": 3818,
      "ĠÙĬØ¨Ø¯Ø£": 3819,
      "ĠØ¹Ø¨Ø¯Ùĩ": 3820,
      "ĠØ¹Ø¨Ø¯ÙĨØ§": 3821,
      "ĠØ¢ØªØ§ÙĥÙħ": 3822,
      "ĠØ£ÙĪÙĦØ§Ø¯ÙĩÙħ": 3823,
      "ĠØ§ÙĦÙĬÙĤÙĬÙĨ": 3824,
      "ĠÙģÙĬÙĨØ¸Ø±ÙĪØ§": 3825,
      "ĠÙĤØªÙĦÙĪØ§": 3826,
      "ĠØ¨Ø§ÙĦÙħØ¤ÙħÙĨÙĬÙĨ": 3827,
      "ĠÙĪÙĬØ¹Ø°Ø¨": 3828,
      "ĠØ§Ø³Ø¬Ø¯ÙĪØ§": 3829,
      "ĠØ§ÙħØ±Ø£Øª": 3830,
      "ĠØ¨ÙĬÙĪØªÙĥÙħ": 3831,
      "ĠÙħØ§ÙĦÙĩ": 3832,
      "ĠØ¨Ø§ÙĦØ¹Ø°Ø§Ø¨": 3833,
      "ĠÙĬØ£ÙĥÙĦ": 3834,
      "ĠØ§Ø´ØªØ±ÙĪØ§": 3835,
      "ÙĬØ¹Ø§Ø¯": 3836,
      "ĠØ£ØªØ§Ùĥ": 3837,
      "ĠØªØºÙĨÙĬ": 3838,
      "ĠÙĪØ§Ø´Ø±Ø¨ÙĪØ§": 3839,
      "ĠÙħØ¤ÙħÙĨØ©": 3840,
      "ĠØ§ÙĦÙĪØ§ØŃØ¯": 3841,
      "ĠØ¨Ø¬Ùĩ": 3842,
      "ĠØ¥ØŃØ³Ø§ÙĨØ§": 3843,
      "ĠØ±Ø¡ÙĪÙģ": 3844,
      "ĠÙĨØ²ÙĦØ§": 3845,
      "ĠÙĪÙĬØ³Ø£ÙĦÙĪÙĨÙĥ": 3846,
      "ĠÙĪØ£ØµÙĦØŃÙĪØ§": 3847,
      "ØªÙĨØ¨ÙĪØ§": 3848,
      "ĠÙĪØ£ÙħØ±Øª": 3849,
      "ĠØ§ÙĦÙħØªÙĤÙĪÙĨ": 3850,
      "ØªÙħØªØ¹ÙĪØ§": 3851,
      "ĠØ¨Ø¹Ø«ÙĨØ§": 3852,
      "ĠÙĪØ§ÙĦØ£ÙĨØ¹Ø§Ùħ": 3853,
      "ĠØ£Ø¹ÙĬÙĨÙĩÙħ": 3854,
      "ĠÙħÙĪØ§Ø²ÙĬÙĨÙĩ": 3855,
      "ĠÙħØ¬ÙĨÙĪÙĨ": 3856,
      "ĠÙĦØ£ÙĨÙģØ³ÙĥÙħ": 3857,
      "ĠØ§ØµØ·": 3858,
      "ĠÙĪØ§ÙĦØ¬Ø¨Ø§ÙĦ": 3859,
      "ĠØ§ÙĦÙĥØ¨Ø±Ùī": 3860,
      "ĠØ§ÙĦØ¬Ø§ÙĩÙĦÙĬÙĨ": 3861,
      "ĠØ£ÙģØ£ÙĨØª": 3862,
      "ĠÙĪØµØ¯ÙĪØ§": 3863,
      "ĠØ±ÙĤØ¨Ø©": 3864,
      "ĠÙħØ¹Ø±ÙĪÙģØ§": 3865,
      "ĠØ¨Ø¹Ø¨Ø§Ø¯Ùĩ": 3866,
      "ĠØ°ÙĨÙĪØ¨ÙĥÙħ": 3867,
      "ĠÙĪÙĨØ§Ø¯Ùī": 3868,
      "ĠÙģØ£Ø®Ø±Ø¬ÙĨØ§": 3869,
      "ĠØ§Ø¬Øª": 3870,
      "ĠØºØ§ÙģÙĦÙĪÙĨ": 3871,
      "ĠÙĦÙĦØ¥ÙĨØ³Ø§ÙĨ": 3872,
      "ĠØ§ÙĦÙĨØ¬ÙĪÙħ": 3873,
      "ĠÙħØ³ØªÙĤÙĬÙħØ§": 3874,
      "ĠØ§ÙĦØ¶Ø§ÙĦÙĬÙĨ": 3875,
      "ĠØŃÙģÙĬØ¸": 3876,
      "ĠØ®Ø´ÙĬØ©": 3877,
      "ĠØ£ÙħÙĩØ§ØªÙĥÙħ": 3878,
      "ĠÙĬÙĨØ¨ØºÙĬ": 3879,
      "ĠØ±Ø¡ÙĪØ³ÙĩÙħ": 3880,
      "Ø§Ø¹ÙĤØ©": 3881,
      "ĠØ§ÙĦØ±Ø§ØŃÙħÙĬÙĨ": 3882,
      "ĠØ§ÙĦØ¶ÙĦØ§ÙĦØ©": 3883,
      "ĠÙħØ¢Ø¨": 3884,
      "ĠÙĪØ§ÙĦÙħÙĬØ²Ø§ÙĨ": 3885,
      "ĠØµÙĦØ§ØªÙĩÙħ": 3886,
      "ĠÙģØ§Ø·Ø±": 3887,
      "ÙģØ¦Ø¯Ø©": 3888,
      "ĠØ¢Ø«Ø§Ø±ÙĩÙħ": 3889,
      "ĠØ§ÙĦÙħØ´Ø±ÙĤ": 3890,
      "ĠØ¨Ø§ÙĦØ¹Ø¯ÙĦ": 3891,
      "ĠØ²Ø¹ÙħØªÙħ": 3892,
      "ĠØ§ÙĦØ®ÙĦØ¯": 3893,
      "ĠØ§ÙĦØªÙĤÙĪÙī": 3894,
      "ĠÙĪØ£ÙĥØ«Ø±ÙĩÙħ": 3895,
      "ĠØ¨Ø£ÙģÙĪØ§ÙĩÙĩÙħ": 3896,
      "ĠØ§ÙĦÙģØ³Ø§Ø¯": 3897,
      "ĠØ§ÙĦØªÙĪØ§Ø¨": 3898,
      "ĠÙģØ§ØºÙģØ±": 3899,
      "ĠÙĬØ¨ØªØºÙĪÙĨ": 3900,
      "ĠÙĥØ§Ø°Ø¨": 3901,
      "ĠØŃØ¨Ø·Øª": 3902,
      "ĠÙģØ§Ø¹ÙĦÙĬÙĨ": 3903,
      "ĠÙĪÙħÙĦØ¦Ùĩ": 3904,
      "ĠØ§ÙĦØ£ÙĨØ«ÙĬÙĬÙĨ": 3905,
      "ĠØ§Ø±Ùĥ": 3906,
      "ÙĦØºÙĪ": 3907,
      "ÙĨØ¹": 3908,
      "ÙĨØµØ±": 3909,
      "ÙĪØ³Ùģ": 3910,
      "Ø§ÙĦÙĩÙħ": 3911,
      "Ø§ÙĦÙĪØª": 3912,
      "ÙĩÙĬ": 3913,
      "ÙĩÙĦÙĩ": 3914,
      "ÙĩØ±ÙĪÙĨ": 3915,
      "ÙĩÙĦÙĪÙĨ": 3916,
      "ĠØ§ÙĦØ®Ø±": 3917,
      "ĠØ§ÙĦÙĬØª": 3918,
      "ĠØ§ÙĦÙĦÙĩÙħ": 3919,
      "ĠÙĪÙĦÙĬÙħ": 3920,
      "ĠÙĪØ¨Ø¯Ø§": 3921,
      "ĠÙĪØµØ¯ÙĤ": 3922,
      "ĠÙĪØºÙĬØ±": 3923,
      "ØªÙĦÙĪØ§": 3924,
      "Ø¨ÙĪ": 3925,
      "Ø¨ÙĬØ¯": 3926,
      "Ø¨Ø±ÙĬ": 3927,
      "Ø¨ØªÙĪØ§": 3928,
      "Ø¨ÙĪØ©": 3929,
      "ĠÙħØ¶": 3930,
      "ĠÙħØ®Ø±Ø¬": 3931,
      "ĠÙħÙģØª": 3932,
      "ĠÙħØµØ±": 3933,
      "ĠÙħÙĦØª": 3934,
      "ĠÙħØŃØ³ÙĨ": 3935,
      "ĠÙħØªÙĨØ§": 3936,
      "ĠÙħØ±ÙĬØ©": 3937,
      "ĠÙħÙĩØªØ¯ÙĪÙĨ": 3938,
      "ĠÙħØ®ÙĦØµ": 3939,
      "ĠÙħØ·ÙĩØ±": 3940,
      "ĠÙħÙģØ³Ø¯ÙĬÙĨ": 3941,
      "ĠÙħØµØ¯ÙĤ": 3942,
      "ĠÙħÙĬØªØ§": 3943,
      "ĠÙħØ£ÙĪØ§ÙĩÙħ": 3944,
      "Ø¹ÙĨ": 3945,
      "Ø¹ÙĥÙħ": 3946,
      "Ø¹Ø¸": 3947,
      "Ø¹Ø°Ø¨ÙĩÙħ": 3948,
      "ĠØ£ØªÙħ": 3949,
      "ĠØ£Ø³Øª": 3950,
      "ĠØ£Ø±Ùī": 3951,
      "ĠØ£ÙĪØ§Ø¨": 3952,
      "ĠØ£Ø·ÙĬØ¹ÙĪØ§": 3953,
      "Ø¯Ø«": 3954,
      "Ø¯Ø§Ø¯": 3955,
      "Ø¯Ø¹ÙĪÙĨ": 3956,
      "Ø¯ÙĩÙĨ": 3957,
      "Ø¯Ø§Ø¯ÙĪØ§": 3958,
      "ĠÙģÙĪ": 3959,
      "ĠÙģØº": 3960,
      "ĠÙģØ¸": 3961,
      "ĠÙģÙĬÙĨØ§": 3962,
      "ĠÙģØªØ§Ø¨": 3963,
      "ĠÙģÙĨØ³": 3964,
      "ĠÙģØ¬Ø¹ÙĦ": 3965,
      "ĠÙĦØ±": 3966,
      "ĠÙĦØ°": 3967,
      "ĠÙĦÙģ": 3968,
      "ĠÙĦØ°ÙĥØ±": 3969,
      "ĠÙĦØŃÙĥÙħ": 3970,
      "ĠÙĦØ±Ø¡": 3971,
      "ĠÙĦØ´ÙĬØ¡": 3972,
      "ĠÙĦØ¨Ø¦Ø³": 3973,
      "ĠÙĬÙĦ": 3974,
      "ĠÙĬØ®Ø±": 3975,
      "ĠÙĬØ³Ø¨": 3976,
      "ĠÙĬÙĪØ¯": 3977,
      "ĠÙĬÙĦØŃ": 3978,
      "ĠÙĬÙĦØª": 3979,
      "ĠÙĬØ¸ÙĦÙħ": 3980,
      "ĠÙĬÙĩØª": 3981,
      "ĠÙĬØ¬Ø¯ÙĪØ§": 3982,
      "ĠÙĬÙĤØªÙĦ": 3983,
      "ÙĤÙħ": 3984,
      "ÙĤÙĬØ§": 3985,
      "ÙĤØ¨Ø©": 3986,
      "ÙĤÙĨØ§Ùĩ": 3987,
      "Ø°Ùģ": 3988,
      "ÙĬÙĨÙĩÙħ": 3989,
      "ĠØ¨Ø¸": 3990,
      "ĠØ¨ÙĬØ¯": 3991,
      "ĠØ¨ÙĦØ§Ø¡": 3992,
      "ĠØ¨ÙĬÙĪÙħ": 3993,
      "ĠØ¨ÙĬØ¯Ùĩ": 3994,
      "ĠØ¨ÙĪØ§ÙĦØ¯": 3995,
      "ĠØ¨ÙĪÙĥÙĬÙĦ": 3996,
      "ĠØ¨Ø§Ø±ÙĥÙĨØ§": 3997,
      "ÙģØ¯": 3998,
      "ÙģØ§Ø¡": 3999,
      "ÙģÙĬÙĨØ§": 4000,
      "ÙģÙĤØ§": 4001,
      "ÙģÙĦØ©": 4002,
      "ØŃÙĩØ§": 4003,
      "ØŃØ´Ø±": 4004,
      "ØŃÙĥÙĪÙĨ": 4005,
      "ØŃØ§Ùħ": 4006,
      "ØŃØ¨ÙĪÙĨ": 4007,
      "ØŃØ¨Ø·": 4008,
      "Ø£ÙĨØ§": 4009,
      "Ø£ÙĦÙĩÙħ": 4010,
      "Ø£ØªÙĬÙĨ": 4011,
      "ĠÙħÙĨØ°Ø±": 4012,
      "ĠÙħÙĨÙĥØ±ÙĪÙĨ": 4013,
      "ĠÙħÙĨØ§ÙģØ¹": 4014,
      "ĠØ¹ÙĤØ¯": 4015,
      "ĠØ¹Ø§Ùĥ": 4016,
      "ĠØ¹Ø±Ø´": 4017,
      "ĠØ¹ÙĤØ¨": 4018,
      "ÙħØ§Ø¦": 4019,
      "ĠØªÙĨØ§": 4020,
      "ĠØªØŃÙħ": 4021,
      "ĠØªØ¤ÙħÙĨÙĪÙĨ": 4022,
      "ĠØªÙģÙĬ": 4023,
      "ĠØªÙĦØ¨": 4024,
      "ĠØªØµØ¯": 4025,
      "ĠØªØ¶Ø±": 4026,
      "ĠØªØ¸ÙĦÙħÙĪÙĨ": 4027,
      "ĠØªØ·ÙĬØ¹ÙĪØ§": 4028,
      "Ø¬ÙĬ": 4029,
      "Ø¬ÙħØ¹": 4030,
      "Ø¬ÙĨÙĪÙĨ": 4031,
      "ĠÙĥÙģÙĪØ±": 4032,
      "ĠÙĥÙĦÙĩØ§": 4033,
      "ĠÙĥÙģÙī": 4034,
      "ĠÙĥØ§Ø´": 4035,
      "ĠÙĤØ§": 4036,
      "ĠÙĤÙĪØ§": 4037,
      "ĠÙĤØ¶": 4038,
      "ĠÙĤØ±Ø¨": 4039,
      "ĠÙĤÙħÙĬ": 4040,
      "ĠÙĤØ§Øµ": 4041,
      "ĠÙĤØ§Ùħ": 4042,
      "Ø§Ø¸": 4043,
      "ÙĦÙĬÙĥ": 4044,
      "ÙĦÙĬØª": 4045,
      "ÙħÙĨÙĥÙħ": 4046,
      "Ø®Ø§": 4047,
      "ØµÙĩ": 4048,
      "ØµÙĬÙĨØ§": 4049,
      "ĠØ±Ùĩ": 4050,
      "ĠØ±ÙģØ¹": 4051,
      "ĠØ¥ÙĨÙĨØ§": 4052,
      "Ø²Ø¹ÙĪÙĨ": 4053,
      "Ø´ÙĬØ§": 4054,
      "ĠØ£ÙĨÙĩØ§": 4055,
      "ĠÙĪØ§ÙĦØ±": 4056,
      "ĠÙĪØ§ÙĦÙħÙĨ": 4057,
      "ĠÙĪØ§ÙĦØ²": 4058,
      "ĠÙĪØ§ÙĦØ¹Ø§": 4059,
      "ĠÙĪØ§ÙĦØ¶Ø±": 4060,
      "ĠÙĪØ§ÙĦØ¹Ø¯ÙĪØ§": 4061,
      "ĠÙĨØªÙĦ": 4062,
      "ĠÙĨØ¹Ø¬": 4063,
      "ĠÙĨÙĨØ¬": 4064,
      "ĠÙĨØ¹ÙĬÙħ": 4065,
      "ĠÙĨÙĩÙĪØ§": 4066,
      "ĠÙĨØµØ§Ø±Ùī": 4067,
      "ĠÙĨØ¹Ø¯ÙĩÙħ": 4068,
      "ÙĦÙħÙĩÙħ": 4069,
      "ĠØ³ÙĬØ±": 4070,
      "ĠØ³ÙĬØ±ÙĪØ§": 4071,
      "ĠØ³Ø§Ø¬Ø¯ÙĬÙĨ": 4072,
      "Ø¦ØªÙĨØ§": 4073,
      "ĠØ¢ÙĨ": 4074,
      "ÙĪÙĦÙĪÙĨ": 4075,
      "ĠÙĪØ£ÙĪÙĦ": 4076,
      "ĠÙĪØ£Ø¨ØµØ§Ø±": 4077,
      "ĠÙĪØ£Ø³Ø±ÙĪØ§": 4078,
      "ĠÙĪØ£Ø±Ø³ÙĦÙĨØ§": 4079,
      "ĠÙĪØ£ÙĪÙģÙĪØ§": 4080,
      "ĠØ§ÙĦÙħÙĥ": 4081,
      "ĠØ§ÙĦÙħØ¯": 4082,
      "ĠØ§ÙĦÙħØŃØ±": 4083,
      "ĠØ§ÙĦÙħØªÙĥ": 4084,
      "ĠØ§ÙĦÙħÙĩØ§Ø¯": 4085,
      "ĠØ§ÙĦÙħÙĬØ¹Ø§Ø¯": 4086,
      "ĠØŃÙĦ": 4087,
      "ĠØŃÙĬØ§": 4088,
      "ĠØŃØ³ÙĨ": 4089,
      "ĠØŃÙĤØª": 4090,
      "ĠØŃØ¨Ø©": 4091,
      "ĠØŃØ§Ø´": 4092,
      "ØºÙĨÙī": 4093,
      "ØºØ¶Ø§Ø¡": 4094,
      "ĠØ¬Ø¯": 4095,
      "ĠØ¬ÙĨØª": 4096,
      "ĠØ¬Ø§ÙĩØ¯": 4097,
      "ĠØ¬Ø¨Ø§Ø±": 4098,
      "ĠØ¬Ø§ÙĩØ¯ÙĪØ§": 4099,
      "ĠØ¬Ø±Ùħ": 4100,
      "ĠØ¬Ø¹ÙĦÙĩ": 4101,
      "ĠØ®Ø±": 4102,
      "ĠØ®ÙħØ³": 4103,
      "ĠØ®Ø·ÙĬ": 4104,
      "ĠØ®Ø·Ø§": 4105,
      "ĠØ®Ø§Ø³Ø±ÙĬÙĨ": 4106,
      "ĠØ®Ø§ÙĪÙĬØ©": 4107,
      "ÙĬÙħØ©": 4108,
      "ĠØ´Ø±Ø¨": 4109,
      "ĠØ´ÙģØ¹": 4110,
      "ĠØ´Ø·Ø±": 4111,
      "ĠØ´ÙĩØ§Ø¯Ø©": 4112,
      "ĠØ´ÙģÙĬØ¹": 4113,
      "ĠØ§ÙĦØ£ØŃ": 4114,
      "ĠØ§ÙĦØ£Ø´": 4115,
      "ĠØ§ÙĦØ£Ø®Ø±": 4116,
      "ĠØ§ÙĦØ£Ø¯Ø¨Ø§Ø±": 4117,
      "ĠØ§ÙĦØ£Ø±Ø§Ø¦": 4118,
      "ĠØ§ÙĦØ£Ø¨Ø±Ø§Ø±": 4119,
      "ĠÙĪØ¥ÙĦÙĩ": 4120,
      "ĠÙĪÙĦØ³": 4121,
      "ĠÙĪÙĦÙĤ": 4122,
      "ĠÙĪÙĦÙħÙĨ": 4123,
      "ĠÙĪÙĦÙĦÙħ": 4124,
      "ĠÙĪÙĦØŃÙħ": 4125,
      "ĠÙĪÙĦÙĦÙĥØ§ÙģØ±ÙĬÙĨ": 4126,
      "Ø±Ø¶ÙĬÙĨ": 4127,
      "Ø¤Ø§Ø¯": 4128,
      "ĠØ¨Ø§ÙĦÙĨ": 4129,
      "ĠØ¨Ø§ÙĦØ´": 4130,
      "ĠØ¨Ø§ÙĦÙĤÙĪÙĦ": 4131,
      "ĠØ¨Ø§ÙĦØ³ÙĬ": 4132,
      "ĠØ¨Ø§ÙĦØ¸Ø§ÙĦÙħÙĬÙĨ": 4133,
      "ĠØ£ÙĪØ²": 4134,
      "ĠØ§ÙĦØ³Ø¨Øª": 4135,
      "ĠØ§ÙĦØ³ÙĦØ§Ùħ": 4136,
      "ĠØ§ÙĦØ³Ø§Ø¬Ø¯ÙĬÙĨ": 4137,
      "ĠØ§ÙĦØ³ÙģÙĩ": 4138,
      "Ø±ÙĪÙĨÙĬ": 4139,
      "ĠÙĪÙĬØ®Ø±Ø¬": 4140,
      "ĠÙĪÙĬÙĦØ¹": 4141,
      "ĠÙĪÙĬÙĤØªÙĦÙĪÙĨ": 4142,
      "ĠØ§ÙĦØ±ÙĪØŃ": 4143,
      "ĠØ§ÙĦØ±Ø§Ø²ÙĤÙĬÙĨ": 4144,
      "Ø§Ø¯ÙĦ": 4145,
      "Ø§Ø¯ÙĪÙĨ": 4146,
      "Ø§Ø¯Ø±ÙĪÙĨ": 4147,
      "Ø§Ø¯ÙĬØ«": 4148,
      "ĠØ«ÙħØ§": 4149,
      "ĠÙĤÙĦØª": 4150,
      "ĠÙĤÙĦØ¨Ùĩ": 4151,
      "Ø§Ø±Ø¬": 4152,
      "Ø§Ø±Ø¹Ø©": 4153,
      "ĠØ£ÙħÙĦÙĥ": 4154,
      "ĠØ§ÙĦØŃØ§ÙĥÙħ": 4155,
      "ĠØ§ÙĦØŃØ±ÙĬÙĤ": 4156,
      "ĠØ¯Ø§Ø®": 4157,
      "ĠÙģØ£ÙĪØŃ": 4158,
      "ĠÙģØ£Ø±Ø³ÙĦ": 4159,
      "ĠÙģØ£ØŃÙĬØ§": 4160,
      "ÙĦÙĤÙĬ": 4161,
      "ĠÙĪÙĤØ¹": 4162,
      "ĠÙĪÙĤØ±Ø§": 4163,
      "ĠÙĪÙĤØ¶ÙĬ": 4164,
      "ĠÙĪÙĤØ§ØªÙĦÙĪØ§": 4165,
      "ÙĥØ±ÙĩÙĪØ§": 4166,
      "ĠØµÙĦ": 4167,
      "ĠØµØ¨": 4168,
      "ĠØµØ¹": 4169,
      "ÙĬÙĨØ§ÙĩØ§": 4170,
      "ĠØ§ÙĦÙĤÙħØ±": 4171,
      "ĠØ§ÙĦÙĤØªÙĦ": 4172,
      "ĠØ§ÙĦÙĤØ¨ÙĪØ±": 4173,
      "ĠÙĦÙĬÙĦØ§": 4174,
      "ĠÙĦÙĬØ¹ÙĦÙħ": 4175,
      "ĠÙĦÙĬØ¶ÙĦ": 4176,
      "ĠÙĦÙĬØºÙģØ±": 4177,
      "ĠÙĦÙĬØŃÙĥÙħ": 4178,
      "ĠØ§Ø°ÙĩØ¨": 4179,
      "ĠØ§ÙĩØ¨Ø·": 4180,
      "ĠÙĪÙĥÙĦÙĪØ§": 4181,
      "ĠÙĪÙĥÙĬÙĦ": 4182,
      "ĠÙĪÙĥÙĬÙģ": 4183,
      "ĠÙĪÙĥØªØ¨": 4184,
      "Ø¨ÙĬØ§Ø¡": 4185,
      "Ø°Ø¨Ùĩ": 4186,
      "ÙĤØ¯ÙħÙĪÙĨ": 4187,
      "ĠØºÙĦ": 4188,
      "ĠØºÙģÙĦØ©": 4189,
      "Ø´Ø±Ùī": 4190,
      "ÙĦÙĨØ§Ùĩ": 4191,
      "ĠÙĬÙĪÙħÙĩÙħ": 4192,
      "ĠÙĬÙĪÙħÙĥÙħ": 4193,
      "Ø§Ø¦Ùĩ": 4194,
      "Ø§Ø¦ÙĤ": 4195,
      "ĠÙĪØ¬Ø¦": 4196,
      "Ø¨Ø¹ÙĬØ¯": 4197,
      "ÙĤÙĪÙĦÙĪØ§": 4198,
      "ĠÙĦÙħØ¨Ø¹ÙĪØ«ÙĪÙĨ": 4199,
      "ĠÙħØ¹Ø§": 4200,
      "ĠÙħØ¹Ø±Ø¶ÙĬÙĨ": 4201,
      "ĠÙĪØ§ÙĤ": 4202,
      "ĠÙĬØªÙĪÙĥÙĦÙĪÙĨ": 4203,
      "ÙĪØ¨Ø§": 4204,
      "ĠØ£ÙĬÙħØ§ÙĨ": 4205,
      "ĠÙĬÙĨÙĤ": 4206,
      "ĠÙĬÙĨØ²": 4207,
      "ĠÙĬÙĨÙĤÙĦØ¨": 4208,
      "ĠÙĬÙĨÙģÙĤ": 4209,
      "ĠÙĦÙĦØ³": 4210,
      "ĠÙĦÙĦØ·": 4211,
      "ĠÙĦÙĦØ°ÙĥØ±": 4212,
      "ĠÙĪØªÙĨ": 4213,
      "ĠÙĪØªØ³": 4214,
      "ĠÙĪØªØ®": 4215,
      "ĠÙĪØªØµ": 4216,
      "ĠÙĤØ¯Ùħ": 4217,
      "ĠÙĤØ¯Ø±Ùĩ": 4218,
      "ĠÙĬØŃÙĦ": 4219,
      "ĠÙĬØŃÙĦÙĪÙĨ": 4220,
      "ĠÙĬØŃÙħÙĦ": 4221,
      "ĠÙĬØŃØ´Ø±ÙĩÙħ": 4222,
      "ĠÙĬØŃÙĦÙģÙĪÙĨ": 4223,
      "ĠÙħÙĪÙĤ": 4224,
      "ĠÙħÙĪØ¯Ø©": 4225,
      "ĠÙĬØ±Ø¬Ø¹": 4226,
      "ĠØ¬Ø§Ø¡ÙĪÙĥ": 4227,
      "ĠØ¬Ø§Ø¡ØªÙĥÙħ": 4228,
      "ØŃÙħÙĨØ§": 4229,
      "Ø³Ø¨Ø§Ø·": 4230,
      "ĠÙĬØ´ØªÙĩÙĪÙĨ": 4231,
      "ĠÙģØ§ØŃ": 4232,
      "ĠÙģØ§ØŃÙĥÙħ": 4233,
      "ĠØ§ÙĦØ¯Ø¹Ø§Ø¡": 4234,
      "ĠÙģÙĦÙĬÙĨ": 4235,
      "ĠÙĤÙĪÙħÙĬ": 4236,
      "ĠØ£ØŃÙĬØ§": 4237,
      "ÙĤØ§ÙĩÙħ": 4238,
      "ĠØªØ±ÙĬØ¯ÙĪÙĨ": 4239,
      "ĠÙĪØ£ÙĨÙĩÙħ": 4240,
      "ĠØ·ØºÙĬ": 4241,
      "Ø²ÙĬØªÙĪÙĨ": 4242,
      "ĠØ®ÙĦÙĤÙĪØ§": 4243,
      "ÙĪØ¯ÙĬ": 4244,
      "ÙĪØ¯ÙĪÙĨ": 4245,
      "ĠØ¨Ø£ØŃØ³ÙĨ": 4246,
      "ĠÙĬØ¹ÙĦÙħÙĩ": 4247,
      "ĠÙĬØ¹ÙĦÙħÙĪØ§": 4248,
      "Ø§ÙģÙĦÙĬÙĨ": 4249,
      "ĠÙĬØ£ØªÙĪØ§": 4250,
      "ĠØ¥ÙĨØ§Ø«Ø§": 4251,
      "ĠÙģØªØ±Ùī": 4252,
      "ĠØ±Ø³ÙĦÙĩ": 4253,
      "ĠØ±Ø³Ø§ÙĦØ§Øª": 4254,
      "ĠÙĬÙĥÙģ": 4255,
      "ĠÙĬÙĥØªÙħÙĪÙĨ": 4256,
      "ĠÙĬÙĥØªØ¨ÙĪÙĨ": 4257,
      "ĠØ§ÙĦØ´ÙģØ§Ø¹Ø©": 4258,
      "ĠÙĪØ¹Ø°Ø§Ø¨": 4259,
      "ĠÙĪØ¹Ø¸Ø§ÙħØ§": 4260,
      "ĠÙĦÙĨØŃÙĨ": 4261,
      "ĠÙĦÙĨÙĥÙĪÙĨÙĨ": 4262,
      "ĠÙĬØ¹Øª": 4263,
      "ĠÙĬØ¹ÙĬØ¯": 4264,
      "ĠÙĬØ¹ÙĤÙĪØ¨": 4265,
      "ØªØ§ÙĩÙħ": 4266,
      "ĠØªØŃØµ": 4267,
      "ĠØªØŃØªÙĩÙħ": 4268,
      "ØµØ±ÙĬÙĨ": 4269,
      "ĠØ£Ø¬ÙĦÙĩÙĨ": 4270,
      "ĠØ£Ø¬Ø¦ØªÙĨØ§": 4271,
      "ĠØ²ÙĦ": 4272,
      "ĠØ²ÙĥØ±ÙĬØ§": 4273,
      "ĠÙħØ«ÙĦÙĩØ§": 4274,
      "ĠÙħØ«ÙĦÙĩÙħ": 4275,
      "ĠØ§ÙĦØ®Ø²ÙĬ": 4276,
      "ĠØ§ØªÙĤÙī": 4277,
      "ĠÙĪÙħÙħÙĨ": 4278,
      "ĠÙĪÙħØ«": 4279,
      "ĠÙĪÙħÙĦØ§Ø¦Ùĥ": 4280,
      "ĠÙĪÙħØºÙģØ±Ø©": 4281,
      "ĠÙĪÙħØ£ÙĪØ§": 4282,
      "ĠÙĪÙħÙĪØ³Ùī": 4283,
      "ĠÙĪÙħÙĪØ¹Ø¸Ø©": 4284,
      "ĠÙĬØ¯Ùĥ": 4285,
      "ĠÙĬØ³ØªØ£Ø°ÙĨ": 4286,
      "ĠÙĬØ³ØªØ¬ÙĬØ¨ÙĪØ§": 4287,
      "ĠÙĬØ³ØªØ¨Ø´Ø±ÙĪÙĨ": 4288,
      "ĠÙĬØ³ØªØ£Ø®Ø±ÙĪÙĨ": 4289,
      "ÙģÙĬÙĩ": 4290,
      "ĠØ£ÙĥÙĨ": 4291,
      "ÙĪØŃØ§": 4292,
      "ĠÙĬØ®ÙĪ": 4293,
      "ĠÙĬØ®Ø²ÙĬ": 4294,
      "ĠÙĬØ´Ø§Ø¡ÙĪÙĨ": 4295,
      "ĠØªÙĥØªÙħÙĪÙĨ": 4296,
      "ĠÙĬØ³Ø£": 4297,
      "ĠÙĬØ³Ø£ÙĦ": 4298,
      "ØºÙģØ±ÙĪÙĨ": 4299,
      "ĠÙħØ±ØªÙĬÙĨ": 4300,
      "ĠÙħØ³Ø¦": 4301,
      "ĠØªØ¹Ø¬": 4302,
      "ĠØªØ¹Ø«ÙĪØ§": 4303,
      "ĠØ§Ø³ØªØŃ": 4304,
      "ĠÙĦØªÙĨ": 4305,
      "ĠÙĦØªÙĨØ°Ø±": 4306,
      "ĠØªØ¬Ø¹ÙĦÙĪØ§": 4307,
      "ÙĩØ±Ùĩ": 4308,
      "ĠØªØ£ÙĪÙĬÙĦ": 4309,
      "ĠØªØ£ÙħØ±ÙĪÙĨ": 4310,
      "ĠØªØ£ÙĪÙĬÙĦÙĩ": 4311,
      "ĠÙĪØ§ØªÙĦ": 4312,
      "ĠÙĪØ§ØªØ®Ø°": 4313,
      "ĠÙĬØ¬ÙħØ¹": 4314,
      "ĠÙĪØ§ÙĦÙħØ¤": 4315,
      "ĠÙĪØ§ÙĦÙħÙĨØ§Ùģ": 4316,
      "ĠÙĪØ§ÙĦÙħØºØ±Ø¨": 4317,
      "ĠØ§ÙĦÙģØ¬Ø±": 4318,
      "Ø¨ØŃÙĬÙĨ": 4319,
      "ĠÙĪØ³ÙĬ": 4320,
      "ĠÙĪØ³ÙĪÙģ": 4321,
      "ĠÙģØ³Ø¬Ø¯ÙĪØ§": 4322,
      "Ø±ÙĥÙĩ": 4323,
      "ĠØªÙĤØ±Ø¨ÙĪØ§": 4324,
      "ÙĪØ¬ÙĩÙħ": 4325,
      "ĠØ§ÙĦØ£ÙĨÙģØ³": 4326,
      "ĠÙĪØ¹Ø¯ÙĨØ§": 4327,
      "Ø§ÙħÙĦÙĬÙĨ": 4328,
      "ĠØªØ¹ÙĦÙħÙĪØ§": 4329,
      "Ø¸ÙĦÙħÙĪØ§": 4330,
      "ĠØ£ÙĨØ§Ø³": 4331,
      "ĠØ±Ø¬ÙĦÙĬÙĨ": 4332,
      "ĠØ¹ÙħÙĦØª": 4333,
      "ĠÙĥØªØ§Ø¨Ùĩ": 4334,
      "ĠØµØ¯ÙĤÙĪØ§": 4335,
      "ĠÙĬØ¤Ø®Ø±": 4336,
      "ĠØªØ®Ø§ÙģÙĪÙĨ": 4337,
      "ĠÙĬÙĤÙĪÙħ": 4338,
      "ĠÙĬÙĤØ§ØªÙĦÙĪÙĥÙħ": 4339,
      "ĠÙĬÙģØµÙĦ": 4340,
      "ĠØ¨ÙĥÙģØ±": 4341,
      "ĠØ¨ÙĥØªØ§Ø¨": 4342,
      "ĠØ°ÙĥØ±ÙĬ": 4343,
      "ĠÙĦØ¹ÙĨÙĩÙħ": 4344,
      "ĠÙĦØ¹Ø¨Ø±Ø©": 4345,
      "ĠØ£Ø±Ø¯ÙĨØ§": 4346,
      "ĠØ£Ø±ØŃØ§Ùħ": 4347,
      "ĠÙĬØµÙĨØ¹ÙĪÙĨ": 4348,
      "ĠÙĨØ³Ø§Ø¦ÙĥÙħ": 4349,
      "ĠØ§ÙĦØ·ÙĬØ¨": 4350,
      "ĠØ£Ø´ÙĩØ±": 4351,
      "ĠØ§Ø¨Øª": 4352,
      "Ø±ÙĬÙĨÙĥ": 4353,
      "ĠÙĪØŃÙĬÙĨ": 4354,
      "Ø·Ø§Ø¹ÙĪØ§": 4355,
      "ĠÙĪØ§ØŃØ¯Ø§": 4356,
      "ĠØªØ³Ø£ÙĦÙĪÙĨ": 4357,
      "Ø§ÙĩØ±ÙĪÙĨ": 4358,
      "ĠÙĪØ§ÙĦÙĨØ¬": 4359,
      "ĠÙĪØ§ÙĦÙĨØ¨ÙĬ": 4360,
      "ĠÙĪØ§ÙĦÙĨØµØ§Ø±Ùī": 4361,
      "ĠØŃÙħÙĦÙĨØ§": 4362,
      "ĠØ£Ø¯Ø¨Ø§Ø±": 4363,
      "ĠÙģØ¶ÙĦÙĨØ§": 4364,
      "ĠÙĨØ¹ÙħÙĦ": 4365,
      "ĠÙĬÙħØ´ÙĪÙĨ": 4366,
      "ĠÙģØ§ÙĨØ¸Ø±ÙĪØ§": 4367,
      "ĠØ£Ø¹ÙħÙī": 4368,
      "ĠÙĬØ¨Ø®": 4369,
      "ĠÙĬØ¨ØºÙĪÙĨ": 4370,
      "ĠÙĪØ¬Ø¹ÙĦÙĨØ§ÙĩÙħ": 4371,
      "ĠÙĪØ²ÙĪØ¬": 4372,
      "ĠØ¢Ø¨Ø§Ø¦": 4373,
      "ĠØ¢Ø¨Ø§Ø¤ÙĥÙħ": 4374,
      "ĠØ¢ØªÙĬÙĨØ§Ùĩ": 4375,
      "ĠÙģØ§ÙĦÙħ": 4376,
      "ĠÙĥØ±ÙĩØ§": 4377,
      "ĠØ¬Ø²Ø§Ø¤ÙĩÙħ": 4378,
      "ĠÙĥØ§ÙĦØ°ÙĬ": 4379,
      "ĠØ§ÙĦØŃÙħÙĬÙħ": 4380,
      "ĠÙģØ§Ø³ØªØ¹": 4381,
      "ĠÙģØ§Ø³ØªØ¬": 4382,
      "ĠÙģØ§Ø³ØªÙĥØ¨Ø±ÙĪØ§": 4383,
      "ĠÙģØ§ØªØ®Ø°": 4384,
      "Ø§Ø¬ÙĪÙĨ": 4385,
      "ĠØ£Ø²ÙĪØ§Ø¬ÙĩÙħ": 4386,
      "ĠØªØµØ¨Ø±ÙĪØ§": 4387,
      "ĠØªØµØ¨ÙĩÙħ": 4388,
      "ĠØµØ±Ø§Ø·Ø§": 4389,
      "ĠÙĦØ¢Ø¯Ùħ": 4390,
      "ĠØ£ØŃØ³ÙĨÙĪØ§": 4391,
      "ĠÙĨÙģØµÙĦ": 4392,
      "ĠÙĪØ§Ø³ØªÙĥØ¨Ø±": 4393,
      "ĠØ£Ø´Ø¯Ùĩ": 4394,
      "ĠÙĪØ¨ÙĬÙĨÙĥ": 4395,
      "ĠÙģØ¹Ø³Ùī": 4396,
      "ĠÙģØ¹ÙĤØ±": 4397,
      "ĠÙĬØŃÙĬÙī": 4398,
      "ĠÙĬØŃÙĬÙĬÙĥÙħ": 4399,
      "Ø¨Ø·ÙĦÙĪÙĨ": 4400,
      "ĠÙĪØ§ÙĦÙĤØ±Ø¢ÙĨ": 4401,
      "ĠØ´Ø±ÙĥØ§Ø¦ÙĬ": 4402,
      "ĠÙģÙĨØ¹Ùħ": 4403,
      "ĠÙģÙĨØ¨Ø°": 4404,
      "ĠØ¨Ø³ÙĬÙħØ§ÙĩÙħ": 4405,
      "ĠÙĨÙĥÙĬØ±": 4406,
      "ĠÙħØµØ¨ØŃÙĬÙĨ": 4407,
      "ĠÙģÙĩÙĬ": 4408,
      "ĠÙĦØ¯ÙĬÙĨØ§": 4409,
      "ĠØ¨Ø±Ø¨Ùĥ": 4410,
      "ĠØ¨Ø±Ø¨ÙĥÙħ": 4411,
      "ĠÙħØŃØ¶Ø±ÙĪÙĨ": 4412,
      "ĠØ£Ø®Ø±Ø¬ÙĪØ§": 4413,
      "ØªÙĤÙħÙĨØ§": 4414,
      "ĠÙģØ±ÙĬØ¶Ø©": 4415,
      "ĠÙĥÙĦÙħØª": 4416,
      "ĠØ¢ÙĦÙĩØªÙĨØ§": 4417,
      "ĠÙģØ¬Ø§Ø¡": 4418,
      "ĠÙģØ¹ÙĦÙĪÙĩ": 4419,
      "ĠØ£Ø¥ÙĦÙĩ": 4420,
      "Ø§Ø¶ÙĬØ©": 4421,
      "ĠØ¨Ø£ÙĨÙģØ³ÙĩÙħ": 4422,
      "ĠØ£ØµØ§Ø¨ÙĩÙħ": 4423,
      "ÙĩØ²Ø¦": 4424,
      "ĠÙħØ±Ø¶Ø§Øª": 4425,
      "ĠÙĪØ§ÙĦØ¨ØµÙĬØ±": 4426,
      "ĠØ¬ÙĨØ¯": 4427,
      "ĠØ§ÙĦÙģØ§ØŃØ´Ø©": 4428,
      "ÙĥÙģØ±ÙĪÙĨ": 4429,
      "ĠØ¨ØµØ§Ø¦Ø±": 4430,
      "ØŃØ§ÙĩØ§": 4431,
      "ĠØªÙħÙĦÙĥ": 4432,
      "ĠØªÙħÙĪØª": 4433,
      "ĠÙĩØ§Ø¬Ø±ÙĪØ§": 4434,
      "ĠÙĪÙĬÙĨØ²ÙĦ": 4435,
      "ĠÙĪØ§Ø¨ØªØº": 4436,
      "Ø¹ÙĨØ§Ø¨": 4437,
      "ĠÙģØ¢Øª": 4438,
      "ĠÙĥØ£ÙĨÙĩ": 4439,
      "ĠÙĪÙĪØ¬Ø¯": 4440,
      "Ø®ÙĪØ§ÙĨÙĥÙħ": 4441,
      "ĠÙĪØ£ÙħÙĪØ§ÙĦ": 4442,
      "ĠÙĪØ£ÙħØ·Ø±ÙĨØ§": 4443,
      "Ø§ØŃØ¨": 4444,
      "ĠØŃØ¬Ø§Ø±Ø©": 4445,
      "ĠØ£ÙĪØªÙĬØªÙħ": 4446,
      "ĠÙĦÙĦØ¹Ø¨ÙĬØ¯": 4447,
      "ĠÙħÙĥØ±ÙĩÙħ": 4448,
      "ĠÙĬØ¨Ø¯ÙĦ": 4449,
      "ĠÙĤØ±ÙĨ": 4450,
      "ĠØ§ÙĦØ³ÙĬØ¦Ø©": 4451,
      "ĠÙĬØ®ÙĦÙĤÙĪÙĨ": 4452,
      "ĠØ³ÙĬØ¦Ø§ØªÙĥÙħ": 4453,
      "ĠØ§ÙĦÙĬØªØ§ÙħÙī": 4454,
      "ĠÙĪØ§ØµØ·": 4455,
      "ĠÙĬÙħØ³Ùĥ": 4456,
      "ĠØ§ÙħØ±Ø£ØªÙĩ": 4457,
      "ĠÙĬØŃØ²ÙĨÙĥ": 4458,
      "ÙĤØªÙĦÙĪÙĩÙħ": 4459,
      "ĠØ£Ø«ÙĬÙħ": 4460,
      "ĠØ¨Ø§ÙĦØ¹Ø¨Ø§Ø¯": 4461,
      "ĠØ§Ø³ÙħÙĩ": 4462,
      "ĠØ¨ÙĦØºØª": 4463,
      "ĠÙħØ´ÙģÙĤÙĪÙĨ": 4464,
      "ĠØ£ØªØ§ÙĩÙħ": 4465,
      "ĠÙĤØ§Ø¦ÙħØ©": 4466,
      "ØºÙĪÙĨÙĩØ§": 4467,
      "ĠÙĪØ¨Ø´Ø±Ùī": 4468,
      "ĠÙģÙĥØ§ÙĨØª": 4469,
      "ĠÙģÙĥØ§ÙĨÙĪØ§": 4470,
      "ĠÙĪØ§Ø´ÙĥØ±ÙĪØ§": 4471,
      "ĠÙĬÙĩØ¯ÙĪÙĨ": 4472,
      "ĠÙĥÙĨØ²": 4473,
      "ĠÙĩØ¯Ø§ÙĨØ§": 4474,
      "Ø±Ø¨ØµÙĪØ§": 4475,
      "ĠØŃØ³Ø§Ø¨ÙĩÙħ": 4476,
      "ĠÙĪÙģØ±Ø¹ÙĪÙĨ": 4477,
      "ĠØ£Ø¹Ø¯Ø§Ø¡": 4478,
      "ĠÙĦØ±Ø¨ÙĩÙħ": 4479,
      "ĠÙĬØ¸ÙĨÙĪÙĨ": 4480,
      "ĠØ¥ØŃØ¯Ø§ÙĩÙħØ§": 4481,
      "ĠØªØ¨Ø¯ÙĬÙĦØ§": 4482,
      "ĠØªØ®Ø±Ø¬ÙĪÙĨ": 4483,
      "ĠØ³Ø±Ø±": 4484,
      "ĠØ®Ø·ÙĪØ§Øª": 4485,
      "ĠØ¸ÙĨÙĨØªÙħ": 4486,
      "ĠØ¸ÙĩÙĪØ±ÙĩÙħ": 4487,
      "ĠÙħØ±Ø¬Ø¹ÙĩÙħ": 4488,
      "ĠØ§ÙĦØ¨ÙĦØ§Ø¯": 4489,
      "ĠØ§Ø¦ØªÙĪÙĨÙĬ": 4490,
      "ĠØ´Ø¦Øª": 4491,
      "ĠØ´Ø¦ÙĨØ§": 4492,
      "ĠØ´Ø¦ØªÙħ": 4493,
      "ĠØ£Ø¨ÙĨØ§Ø¡ÙĩÙħ": 4494,
      "ĠØŃØ¯ÙĬØ«Ø§": 4495,
      "ĠØ§ÙĦØ¢ÙĨ": 4496,
      "ĠÙħØŃÙĬØµ": 4497,
      "ĠÙģØ§Ø¯Ø¹": 4498,
      "ĠÙĬØ¹Ø¯ÙĥÙħ": 4499,
      "ĠÙĬØ¹Ø¯ÙĦÙĪÙĨ": 4500,
      "ĠØ£ÙĨØ´Ø£ÙĥÙħ": 4501,
      "ĠØ§ÙĦÙħØ³ØªÙĤÙĬÙħ": 4502,
      "ĠÙĪÙĦØ¹Ø°Ø§Ø¨": 4503,
      "ĠÙĪØ±Ø¶ÙĪØ§ÙĨ": 4504,
      "ĠÙģØ§Ø®ØªÙĦÙģ": 4505,
      "ĠÙģØ§Ø¹Ø¨Ø¯ÙĪÙĩ": 4506,
      "ĠÙĬØ¬Ø§Ø¯ÙĦ": 4507,
      "ĠÙĬÙĨØ§Ø¯": 4508,
      "ĠÙĤØµØµ": 4509,
      "ĠØ±Ø§ÙĪØ¯": 4510,
      "ĠÙĪØ§ÙĦØ·ÙĬØ±": 4511,
      "ĠØ®Ø°ÙĪØ§": 4512,
      "ĠØ§ÙĦØŃÙĥÙħØ©": 4513,
      "ĠØºØ±ÙĪØ±Ø§": 4514,
      "ĠÙģØ¬Ø¹ÙĦÙĨØ§ÙĩÙħ": 4515,
      "ĠØ¹Ø´Ø±Ø©": 4516,
      "ĠØ®Ø±Ø¬ÙĪØ§": 4517,
      "ĠØ¨Ø§ÙĦØ¥Ø«Ùħ": 4518,
      "ĠØ¨Ø§ÙĦØ¥ÙĬÙħØ§ÙĨ": 4519,
      "ĠÙĪÙĬØ¤ØªÙĪÙĨ": 4520,
      "ĠÙħÙĪÙĦØ§ÙĥÙħ": 4521,
      "ĠÙĬØ£ÙħØ±ÙĥÙħ": 4522,
      "ĠÙĪØ¢Ø¨Ø§Ø¤ÙĥÙħ": 4523,
      "ĠÙĪØ³Ø¹ÙĩØ§": 4524,
      "ĠÙĬÙģØ³ÙĤÙĪÙĨ": 4525,
      "ĠÙĪØ§ÙĦÙĨØ§Ø³": 4526,
      "ĠØ³ÙĪØ¢": 4527,
      "ĠØ³ÙħØ§ÙĪØ§Øª": 4528,
      "ĠØ¬Ø§ÙĨØ¨": 4529,
      "ĠØ®Ø§Ø´Ø¹Ø©": 4530,
      "ĠÙĬØ±Ø²ÙĤÙĥÙħ": 4531,
      "ĠØªØŃØ³Ø¨ÙĨ": 4532,
      "ĠØ£Ø¦ÙħØ©": 4533,
      "ĠØ¥Ø®ÙĪØ§ÙĨ": 4534,
      "ĠÙĥØ³ÙģØ§": 4535,
      "ĠÙĪØ±ÙģØ¹ÙĨØ§": 4536,
      "ĠØ§ÙĦØºØ§ÙĦØ¨ÙĪÙĨ": 4537,
      "ĠØ§ÙĦØºØ±ÙĪØ±": 4538,
      "ĠØ§Ø³ØªØ·Ø¹ØªÙħ": 4539,
      "ĠØ§Ø¶Ø·Ø±": 4540,
      "ĠØªÙĪØ¨ÙĪØ§": 4541,
      "ÙĩØ§Ø¬Ø±ÙĬÙĨ": 4542,
      "ĠØ¨Ø§ÙĦØŃØ³ÙĨØ©": 4543,
      "ĠØºÙĦÙĬØ¸": 4544,
      "ĠÙĪØ§Ø²Ø±Ø©": 4545,
      "ĠÙģØ²Ø§Ø¯": 4546,
      "ĠÙĬÙĦØ¹Ø¨ÙĪÙĨ": 4547,
      "ĠØ¨ØªØ£": 4548,
      "ĠØ¬ÙĦÙĪØ¯": 4549,
      "ĠØ´ÙĤØ§ÙĤ": 4550,
      "ĠÙĪØ¹ÙĦÙħØ§": 4551,
      "ĠÙĥØ§Ø±ÙĩÙĪÙĨ": 4552,
      "ĠÙĥØ§ÙģØ©": 4553,
      "ĠØ±Ø£ÙĬØªÙĩÙħ": 4554,
      "ĠØ¬Ø§Ø«ÙħÙĬÙĨ": 4555,
      "ĠØ§ÙĦØ£Ø³ÙħØ§Ø¡": 4556,
      "ĠÙĪÙĬØ²ÙĬØ¯ÙĩÙħ": 4557,
      "ĠØ§ÙħØ±Ø¦": 4558,
      "ĠÙħØ³Ø§ÙĥÙĨÙĩÙħ": 4559,
      "ĠØ§Ø³ØªØ¶Ø¹ÙģÙĪØ§": 4560,
      "ĠØ§ÙĦÙĬØªÙĬÙħ": 4561,
      "ĠÙħØ·ÙĩØ±Ø©": 4562,
      "ĠÙĦØ±Ø¡ÙĪÙģ": 4563,
      "ĠØ¨Ø¸ÙĦØ§Ùħ": 4564,
      "ĠÙĤÙħÙĬØµÙĩ": 4565,
      "ĠÙĪØ§ÙĦØ¶Ø±Ø§Ø¡": 4566,
      "ĠÙĪØ§ÙĦØ¹Ø¯ÙĪØ§ÙĨ": 4567,
      "ĠØ§ÙĦØ£Ø®Ø±Ùī": 4568,
      "ĠØ§ÙĦØ£Ø±Ø§Ø¦Ùĥ": 4569,
      "ĠØ¨Ø§ÙĦØ³ÙĬØ¦Ø©": 4570,
      "ĠØ§ÙĦØ³ÙģÙĩØ§Ø¡": 4571,
      "ĠØ§ÙĦØŃØ§ÙĥÙħÙĬÙĨ": 4572,
      "ĠØ·ØºÙĬØ§ÙĨÙĩÙħ": 4573,
      "ĠÙĪÙħÙĦØ§Ø¦ÙĥØªÙĩ": 4574,
      "ĠÙĪØ§ÙĦÙħÙĨØ§ÙģÙĤØ§Øª": 4575,
      "ĠØ§Ø·": 4576,
      "ÙĦØ¥": 4577,
      "ÙĦØ¸": 4578,
      "ÙĨØ²ÙĬØ±": 4579,
      "ÙħÙĥ": 4580,
      "ÙħÙĪÙħ": 4581,
      "ÙĬØ¶": 4582,
      "ÙĬØ´": 4583,
      "ÙĬØ¸": 4584,
      "ÙĬÙĪØ¨": 4585,
      "ÙĬØ³Ø±": 4586,
      "ÙĬØªÙĩÙħ": 4587,
      "ÙĬÙĤÙĬÙĨ": 4588,
      "ÙĪÙĪØ§": 4589,
      "ÙĪØµ": 4590,
      "ÙĪØ«": 4591,
      "ÙĪÙĩÙħØ§": 4592,
      "Ø§ÙĦØ¨": 4593,
      "ÙĩØ¬Ø±": 4594,
      "ÙĩØ¨Ø§": 4595,
      "ÙĩØ¨ÙĪÙĨ": 4596,
      "Ø±ÙĨØ§": 4597,
      "Ø±Ø§Ø¡": 4598,
      "Ø±ØªÙħ": 4599,
      "Ø±ÙĨÙĬÙĨ": 4600,
      "ĠØ§ÙĦÙħØ§": 4601,
      "ĠØ§ÙĦØ¯Ø§": 4602,
      "ĠØ§ÙĦÙĩØ¯ÙĬ": 4603,
      "ĠØ§ÙĦØ¶Ø¹Ùģ": 4604,
      "ĠØ§ÙĦÙģØªØŃ": 4605,
      "ĠØ§ÙĦØ¹Ø¯Ø§": 4606,
      "ĠØ§ÙĦÙĩÙĪÙī": 4607,
      "ĠØ§ÙĦØ¨ÙĦØ¯": 4608,
      "ĠÙĪØ®Ø±": 4609,
      "ĠÙĪÙĩØ¯": 4610,
      "ĠÙĪØ´Ø±": 4611,
      "ĠÙĪØ¯Ø§": 4612,
      "ĠÙĪØ³Ø±": 4613,
      "ĠÙĪÙģØ§": 4614,
      "ĠÙĪØ¶Ø¹": 4615,
      "ĠÙĪØ°Ø±ÙĪØ§": 4616,
      "ØªØ¹": 4617,
      "Ø¨Ø³": 4618,
      "ĠÙħØ²": 4619,
      "ĠÙħØªÙħ": 4620,
      "ĠÙħØ´Ø±": 4621,
      "ĠÙħØ³ÙĨ": 4622,
      "ĠÙħØ´Ø±Ùĥ": 4623,
      "ĠÙħØ¨Ø§Ø±": 4624,
      "ĠÙħÙĤØ±": 4625,
      "ĠÙħØ·Ø±": 4626,
      "ĠÙħØ´Ø±ÙĥÙĬÙĨ": 4627,
      "ĠÙħØŃÙħØ¯": 4628,
      "ĠÙħÙĬÙĤØ§Øª": 4629,
      "Ø¹Ùĩ": 4630,
      "Ø¹ÙĤ": 4631,
      "Ø¹Ø¨ÙĬÙĨ": 4632,
      "Ø¹ÙĪØ¯": 4633,
      "Ø¹ÙģØ§": 4634,
      "Ø¹Ø±Ø¶ÙĪØ§": 4635,
      "ĠØ£ÙĩÙħ": 4636,
      "ĠØ£Ø¸": 4637,
      "ĠØ£Ø¨Ø±": 4638,
      "ĠØ£Ø¬Ø¯": 4639,
      "ĠØ£ØªÙĪØ§": 4640,
      "ĠØ£ØªÙĬÙĨØ§": 4641,
      "ĠØ£ØºØ±ÙĤÙĨØ§": 4642,
      "ĠØ£ÙĤØ¯Ø§Ùħ": 4643,
      "Ø¯ØªÙħ": 4644,
      "Ø¯Ø§Ø±": 4645,
      "Ø¯Ø¯ÙĨØ§": 4646,
      "Ø³ÙĬÙĨ": 4647,
      "Ø³Ø®": 4648,
      "Ø³Ø±ÙĪÙĨ": 4649,
      "Ø³Ø¯Ø§": 4650,
      "Ø³Ø¬Ø¯": 4651,
      "ĠÙģÙĪØ§": 4652,
      "ĠÙģØ¹Ø¯": 4653,
      "ĠÙģØ°ÙĦÙĥ": 4654,
      "ĠÙģØ°Ø±": 4655,
      "ĠÙģØ°ÙĥØ±": 4656,
      "ĠÙģØŃÙĤ": 4657,
      "ĠÙģÙĪØ¬": 4658,
      "ĠÙģØµÙĦ": 4659,
      "ĠÙģÙħØ§ÙĦ": 4660,
      "ĠÙĦÙĦÙĥ": 4661,
      "ĠÙĦØ¸": 4662,
      "ĠÙĦÙĩØ¯": 4663,
      "ĠÙĦÙģØ³": 4664,
      "ĠÙĦÙĤÙĪÙĦ": 4665,
      "ĠÙĦØŃÙĤ": 4666,
      "ĠÙĦØ°ÙĨ": 4667,
      "ĠÙĦØ¬Ø¹ÙĦ": 4668,
      "ĠÙĦØ³Ø§": 4669,
      "ĠÙĦØ±Ø³ÙĪÙĦ": 4670,
      "ĠÙĦØ·ÙĬÙģ": 4671,
      "ĠÙĬÙħÙĨ": 4672,
      "ĠÙĬØ«": 4673,
      "ĠÙĬØªÙħ": 4674,
      "ĠÙĬØ±Ø¶": 4675,
      "ĠÙĬÙĤØ¯": 4676,
      "ĠÙĬØ´Ø±": 4677,
      "ĠÙĬÙħÙĬÙĨ": 4678,
      "ĠÙĬØ¬Ø±": 4679,
      "ĠÙĬØ¨Ø§": 4680,
      "ĠÙĬÙĤØª": 4681,
      "ĠÙĬÙħØª": 4682,
      "ĠÙĬØ¦Ø³": 4683,
      "ĠÙĬÙĤØ¯Ø±": 4684,
      "ĠÙĬÙĪÙĦØ¬": 4685,
      "ĠÙĬØ±Ø¶Ùī": 4686,
      "ĠÙĬØ¶ÙĬØ¹": 4687,
      "ĠÙĬØ±ÙĬÙĥÙħ": 4688,
      "ĠÙĬÙĤÙĬÙħÙĪÙĨ": 4689,
      "ÙĤÙģ": 4690,
      "ÙĤØ³Ø·": 4691,
      "Ø°ÙĦ": 4692,
      "Ø°Øª": 4693,
      "Ø°ÙĪØ§": 4694,
      "Ø°ÙĬØ±": 4695,
      "Ø°ÙĨÙĬ": 4696,
      "ÙĪØ§Ùĥ": 4697,
      "ÙĪØ§Ø¯": 4698,
      "ÙĪØ§ÙĥÙħ": 4699,
      "ÙĪØ§ØµÙĪØ§": 4700,
      "ĠØ¨Ø¨": 4701,
      "ĠØ¨Ø¶": 4702,
      "ĠØ¨Ø§Ø¨": 4703,
      "ĠØ¨Ø«": 4704,
      "ĠØ¨ØŃÙħ": 4705,
      "ĠØ¨Ø°ÙĥØ±": 4706,
      "ĠØ¨Ø¶Ø±": 4707,
      "ĠØ¨Ø³Ø·": 4708,
      "ĠØ¨Ø¬ÙĨ": 4709,
      "ÙĪÙĨØ³": 4710,
      "ÙģØŃ": 4711,
      "ÙģÙĥØ±ÙĪÙĨ": 4712,
      "ØŃÙĦ": 4713,
      "ØŃÙĩ": 4714,
      "ØŃÙĥ": 4715,
      "ØŃÙī": 4716,
      "ØŃØªÙĪÙĨ": 4717,
      "ØŃÙĪÙĩÙĨ": 4718,
      "Ø£Ùĩ": 4719,
      "Ø£Ø¨": 4720,
      "Ø£ÙĪÙī": 4721,
      "Ø£Ø³Ø§Ø¡": 4722,
      "ĠÙħÙĨØ³": 4723,
      "ĠÙħÙĨÙĬØ¨": 4724,
      "ĠÙħÙĨÙĥÙĨ": 4725,
      "ĠØ¹ÙĦÙĪØ§": 4726,
      "ĠØ¹Ø¯Ø§": 4727,
      "ĠØ¹ÙħÙĬ": 4728,
      "ĠØ¹Ø¯Ø©": 4729,
      "ĠØ¹ÙĦØ§Ùħ": 4730,
      "ĠØ¹ÙģÙĪØ§": 4731,
      "ĠØ¹ÙĤØ§Ø¨": 4732,
      "ĠØ¹Ø§ÙĩØ¯ÙĪØ§": 4733,
      "ĠØ¹Ø²Ùħ": 4734,
      "ĠØ¹Ø¸Ø§ÙħØ§": 4735,
      "ĠØ¹Ø·Ø§Ø¡": 4736,
      "ĠØ¹ÙĦÙĤØ©": 4737,
      "ÙĨØ§Ø³": 4738,
      "ÙħØ§Øª": 4739,
      "ÙĦØ§ÙĩØ§": 4740,
      "ÙĦØ§ÙĨÙĬØ©": 4741,
      "ĠØªØ³Ø±": 4742,
      "ĠØªÙĩØª": 4743,
      "ĠØªØ¨Ø¯ÙĪÙĨ": 4744,
      "ĠØªÙĤØªÙĦÙĪÙĨ": 4745,
      "Ø¬Ø§Ø±": 4746,
      "Ø¬ÙĪØ¬": 4747,
      "ĠÙĥÙĬ": 4748,
      "ĠÙĥØ¯": 4749,
      "ĠÙĥÙģ": 4750,
      "ĠÙĥØ´": 4751,
      "ĠÙĥØ§Ø¯": 4752,
      "ĠÙĥØ±ÙĬ": 4753,
      "ĠÙĥØ§ÙģØ±": 4754,
      "ĠÙĥØ«Ø±": 4755,
      "ĠÙĥØ§Ø¯ÙĪØ§": 4756,
      "ĠÙĥØ´ÙģÙĨØ§": 4757,
      "ĠÙĤØ·": 4758,
      "ĠÙĤØ³Ùħ": 4759,
      "ĠÙĤØ·Ø¹": 4760,
      "ĠÙĤØ±ÙĬÙĨ": 4761,
      "ĠÙĤØ±Ø¢ÙĨ": 4762,
      "ĠÙĤØ±Ø¨Ùī": 4763,
      "ĠÙĤØ§ØªÙĦÙĪØ§": 4764,
      "ĠÙĤÙĬØ§ÙħØ§": 4765,
      "ĠÙĤØ±Ø§Ø±": 4766,
      "ĠÙģÙĬÙĪÙħ": 4767,
      "Ø®Ø§Ùģ": 4768,
      "Ø®Ø·Ùģ": 4769,
      "ØµÙħ": 4770,
      "ØµØ¨": 4771,
      "ØµÙĬØ©": 4772,
      "ØµÙĬØª": 4773,
      "ØµÙĦØ¨": 4774,
      "ØµØ¨ØŃ": 4775,
      "ØµÙħÙĪØ§": 4776,
      "ĠØ±Ø§Ø¨": 4777,
      "ĠØ±Øº": 4778,
      "ĠØ±Ø§Ø¶ÙĬØ©": 4779,
      "ĠØ¥ÙĨØ³": 4780,
      "ÙĩØ§Ø¨": 4781,
      "ÙĩØ§Ø¬Ø±ÙĪØ§": 4782,
      "Ø¶ÙĬÙĨ": 4783,
      "Ø²ÙĦÙĩ": 4784,
      "Ø²ÙĨØ§": 4785,
      "Ø²Ø¹ÙĨØ§": 4786,
      "Ø§ÙĨÙħ": 4787,
      "Ø´ÙĪØ§": 4788,
      "Ø´ÙĩØ¯": 4789,
      "Ø´Ø§ÙĩØ§": 4790,
      "ĠØ£ÙĨØ¬": 4791,
      "ĠØ£ÙĨØ¬ÙĬÙĨØ§": 4792,
      "ĠÙĪØ§ÙĦØª": 4793,
      "ĠÙĪØ§ÙĦÙħØ±": 4794,
      "ĠÙĪØ§ÙĦØ¯Ùħ": 4795,
      "ĠÙĪØ§ÙĦØ²ÙĬØªÙĪÙĨ": 4796,
      "ĠÙĨØ¶": 4797,
      "ĠÙĨØ³Øª": 4798,
      "ĠÙĨØ§Ùģ": 4799,
      "ĠÙĨØ®Ø±Ø¬": 4800,
      "ĠÙĨØ°Ø±": 4801,
      "ĠÙĨÙĨØ³": 4802,
      "ĠÙĨØ¸Ø±": 4803,
      "ĠÙĨÙĥÙĨ": 4804,
      "ĠÙĨØ±Ø³ÙĦ": 4805,
      "ĠÙĨØ±Ø§Ùĥ": 4806,
      "ĠÙĨØªØ®Ø°": 4807,
      "ĠÙĨØ§ÙĤØ©": 4808,
      "ĠÙĨÙĪØ¯ÙĬ": 4809,
      "ĠÙĨØ±ÙĬÙĨÙĥ": 4810,
      "Ø§Ø¨ÙĩÙħ": 4811,
      "Ø§Ø¨ÙĬÙĦ": 4812,
      "ĠÙĩØ¨": 4813,
      "ĠÙĩÙĦÙĥ": 4814,
      "ĠÙĩÙĨÙĬ": 4815,
      "ĠÙĩØ§Ùĩ": 4816,
      "ĠÙĩØ§ØªÙĪØ§": 4817,
      "ĠØ³ÙĪÙĦ": 4818,
      "ĠØ³ÙĤØ±": 4819,
      "ĠØ³ÙĥÙĬÙĨ": 4820,
      "Ø·Ùī": 4821,
      "Ø·Ø©": 4822,
      "Ø·Ø´": 4823,
      "Ø«ÙĬÙĨ": 4824,
      "Ø¦ÙĦØ§": 4825,
      "ĠØ¢Øª": 4826,
      "ĠØ¢ØªÙĨØ§": 4827,
      "ÙĪÙĦÙĩÙħ": 4828,
      "ÙĪÙĦØ©": 4829,
      "ÙĪÙĦØ¯Ø§ÙĨ": 4830,
      "ÙĪÙĦØªÙĩÙĨ": 4831,
      "ÙĪÙħÙĬÙĨ": 4832,
      "ÙĪÙħØ©": 4833,
      "ĠÙĪØ£ÙĦ": 4834,
      "ĠÙĪØ£Ø¹": 4835,
      "ĠÙĪØ£Ø·": 4836,
      "ĠÙĪØ£ØªÙħ": 4837,
      "ĠÙĪØ£Ø¬ÙĦ": 4838,
      "ĠÙĪØ£ÙĩÙĦÙĥ": 4839,
      "ĠÙĪØ£Ø¯Ø®ÙĦ": 4840,
      "ĠÙĪØ£Ø¹Ø±Ø¶": 4841,
      "ĠÙĪØ£ØºØ±ÙĤÙĨØ§": 4842,
      "ĠØ§ÙĦÙħØ§ÙĦ": 4843,
      "ĠØ§ÙĦÙħØ´": 4844,
      "ĠØ§ÙĦÙħÙĥØ±": 4845,
      "ĠØ§ÙĦÙħÙħØª": 4846,
      "ĠØ§ÙĦÙħØ±Ø¡": 4847,
      "ĠØ§ÙĦÙħØŃØµÙĨØ§Øª": 4848,
      "ĠØ§ÙĦÙħØ¨Ø·ÙĦÙĪÙĨ": 4849,
      "ĠØ§ÙĦÙħØ£ÙĪÙī": 4850,
      "ĠØŃÙĬ": 4851,
      "ĠØŃØ¸": 4852,
      "ĠØŃÙĬØ§Øª": 4853,
      "ĠØŃØ´Ø±": 4854,
      "ĠØŃØ³Ø±": 4855,
      "ĠØŃÙħÙĬ": 4856,
      "ĠØŃØ§Øµ": 4857,
      "ĠØŃÙĬØ§Ø©": 4858,
      "ĠØŃØ§Ø¶": 4859,
      "ĠØŃÙĦØ§ÙĦØ§": 4860,
      "ØºØ§Ø±": 4861,
      "ØºÙĦØ§ÙĦ": 4862,
      "ØºÙĬØ§ÙĨØ§": 4863,
      "ĠØ¬ÙĪØ§Ø¨": 4864,
      "ĠØ¬Ø³Ø¯Ø§": 4865,
      "ĠØ®Ø§Ø·": 4866,
      "ĠØ®ÙĬÙģ": 4867,
      "ĠØ®Ø¶Ø±": 4868,
      "ĠØ®Ø´ÙĬ": 4869,
      "ĠØ®ÙĦØ§Ø¦": 4870,
      "ÙģØ±Ø§": 4871,
      "ĠØ´ÙĥØ±": 4872,
      "ĠØ´ÙĩÙĪ": 4873,
      "ĠØ´ÙģØ§": 4874,
      "ĠØ´Ø§Ùĥ": 4875,
      "ĠØ´ÙĩØ§Ø¯": 4876,
      "ĠØ§ÙĦØ£ÙħÙĬ": 4877,
      "ĠØ§ÙĦØ£ÙĥØ¨Ø±": 4878,
      "ĠØ§ÙĦØ£ÙĬÙĥ": 4879,
      "ĠÙĪØ¥Ø¨Ø±Ø§ÙĩÙĬÙħ": 4880,
      "Ø¸ÙĨÙĥ": 4881,
      "Ø¸ÙĩØ±Ùĩ": 4882,
      "Ø±Ø§ÙħØ§": 4883,
      "Ø±Ø§ÙĥÙħ": 4884,
      "ĠÙĪÙĦÙĪØ§": 4885,
      "ĠÙĪÙĦØ¨Ø¦Ø³": 4886,
      "ĠÙĪÙħØ§ØªÙĪØ§": 4887,
      "Ø¡ÙĪØ§": 4888,
      "Ø¤ÙĥÙħ": 4889,
      "Ø¤ÙĦØ¤": 4890,
      "ĠØ¨Ø§ÙĦØ¹Ø±": 4891,
      "ĠØ¨Ø§ÙĦÙĥÙģØ±": 4892,
      "ĠØ¨Ø§ÙĦÙĨØ°Ø±": 4893,
      "ĠØ°ÙĦØ©": 4894,
      "ĠØ¹ÙĨÙĩÙħØ§": 4895,
      "ĠØ£ÙĪÙģÙĪØ§": 4896,
      "Ø³ØªØ¨Ø±": 4897,
      "Ø±ÙĪÙĨØ§": 4898,
      "ĠÙĪÙĬØ·": 4899,
      "ĠÙĪÙĬÙĥÙĪÙĨ": 4900,
      "ĠÙĪÙĬØ¹Ùģ": 4901,
      "ĠÙĪÙĬÙĪÙĦØ¬": 4902,
      "ĠÙĪÙĬØ¹Ø¨Ø¯ÙĪÙĨ": 4903,
      "ĠØ§ÙĦØ±Ø¹Ø¨": 4904,
      "Ø¹Ø¯ÙĬÙĨ": 4905,
      "ÙĬØ¯ÙĩØ§": 4906,
      "Ø¹ÙħØª": 4907,
      "Ø¹ÙħÙĪØ§": 4908,
      "ĠØ«ÙĪØ§Ø¨Ø§": 4909,
      "ĠØ«Ø¨ÙĪØ±Ø§": 4910,
      "Ø§Ø±ÙĤ": 4911,
      "Ø§Ø±Ùī": 4912,
      "Ø§Ø±ÙĩØ§": 4913,
      "ĠØ£ÙħÙĩ": 4914,
      "ĠØ£ÙħÙĪØ§Øª": 4915,
      "ĠØ£ÙħØ³Ùĥ": 4916,
      "ÙĦÙĪÙĨØ§": 4917,
      "ĠØ§ÙĦØŃØ±": 4918,
      "ĠØ§ÙĦØŃØ¬Ø±": 4919,
      "ĠØ§ÙĦØŃØ±Ø«": 4920,
      "ĠØ§ÙĦØŃÙĪØ§Ø±ÙĬ": 4921,
      "ĠØ¯ÙĬÙĨØ§": 4922,
      "ĠØ¯Ø¨Ø±": 4923,
      "ĠØ¯ÙħØ±": 4924,
      "ĠØ¯Ø§Ø±ÙĩÙħ": 4925,
      "ĠÙģØ£Ùħ": 4926,
      "ĠÙģØ£Ø³Ø±": 4927,
      "ĠÙģØ£ØºØ±ÙĤ": 4928,
      "ĠÙĪÙħÙĨØ°Ø±ÙĬÙĨ": 4929,
      "ÙĦÙĤÙĪÙĨ": 4930,
      "ÙĦÙĤÙī": 4931,
      "ĠÙĪÙĤØ±Ø¢ÙĨ": 4932,
      "Ø¤ÙħÙĨÙĨ": 4933,
      "ĠØ«ÙħØ±Ø§Øª": 4934,
      "ĠØµØ§Ø¨": 4935,
      "ĠØµØ¨Ø§Ø±": 4936,
      "ĠØ§ÙĦÙĤÙĬÙħ": 4937,
      "ÙģØ³Ùĩ": 4938,
      "ÙģØ³Ø¯ÙĪÙĨ": 4939,
      "ĠÙĦÙĬØ¶": 4940,
      "ĠÙĦÙĬÙĥÙĪÙĨ": 4941,
      "ĠÙĦÙĬÙĤÙĪÙĦÙĪÙĨ": 4942,
      "ĠÙĦÙĬÙĥÙģØ±": 4943,
      "ĠÙĦÙĬØ¤ÙħÙĨÙĪØ§": 4944,
      "ĠÙĦÙĬØ¨ÙĦÙĪÙĥÙħ": 4945,
      "ĠÙĦÙĬÙĪØ³Ùģ": 4946,
      "ĠØ¨ÙĩØªØ§": 4947,
      "ĠØ§ÙĤØ±": 4948,
      "Ø±ÙĬØ¨": 4949,
      "ĠÙĪÙĥÙĨ": 4950,
      "ĠÙĪÙĥÙĦÙħ": 4951,
      "ĠÙĪÙĥÙĨØª": 4952,
      "Ø¨ÙĬØª": 4953,
      "Ø¨ÙĬÙĦØ§": 4954,
      "ĠØ§ÙĦÙĥÙĦÙħ": 4955,
      "ĠØ§ÙĦÙĥÙĩÙģ": 4956,
      "ÙĪØ±Ø§Øª": 4957,
      "ÙĤØ¯Ø³": 4958,
      "ĠØºÙĨ": 4959,
      "ĠØºØ¯": 4960,
      "ĠØºØ¯Ø§": 4961,
      "ĠØºÙĦØ¨": 4962,
      "ĠØºÙĦØ§Ùħ": 4963,
      "Ø´Ø±ÙĪØ§": 4964,
      "ÙĦÙĪØ§Øª": 4965,
      "ÙĨÙĬØ§Ø¡": 4966,
      "ĠØ¨ÙħØ§Ø¡": 4967,
      "Ø±Ø³ÙĪÙĦÙĩ": 4968,
      "ĠØ´ÙĬØ¹": 4969,
      "ĠØ´ÙĬØ¹Ø§": 4970,
      "ĠØ´ÙĬØ·Ø§ÙĨ": 4971,
      "ØªÙĬØ©": 4972,
      "Ø§Ø¦ÙĦÙĬÙĨ": 4973,
      "Ø§Ø¦Ø²ÙĪÙĨ": 4974,
      "ĠÙĪØ¬Ø§": 4975,
      "ĠÙĩÙĪØ¯": 4976,
      "Ø¨ÙĬÙĨØ©": 4977,
      "ÙĩÙĨÙĪØ§": 4978,
      "ĠØ¥ÙĦÙĬÙĩØ§": 4979,
      "ĠÙĪØ§Ø¹Øª": 4980,
      "ĠÙĪØ§Ø³ÙħØ¹ÙĪØ§": 4981,
      "ĠØ¨Ø¹Ø²ÙĬØ²": 4982,
      "ĠÙĬØªÙĤ": 4983,
      "ĠÙĥÙģØ±Ø§": 4984,
      "ĠØ£ÙĬÙĥÙħ": 4985,
      "ĠØ£ÙĬØŃØ³Ø¨": 4986,
      "ĠÙĬÙĨØª": 4987,
      "ĠÙĬÙĨØ¸Ø±": 4988,
      "ĠÙĬÙĨÙģØ®": 4989,
      "ĠÙĦÙĦØ´": 4990,
      "ĠÙĦÙĦØ°ÙĬ": 4991,
      "ĠÙĦÙĦØªÙĤÙĪÙī": 4992,
      "ĠÙĪØªÙĥ": 4993,
      "ĠÙĪØªØ²": 4994,
      "ĠÙĪØªÙĪÙģ": 4995,
      "ĠÙĪØªÙģØµ": 4996,
      "ĠÙĪØªÙĪØ§ØµÙĪØ§": 4997,
      "ĠÙĪØ§ÙĦØ£ÙģØ¦Ø¯Ø©": 4998,
      "ĠÙĪØ§ÙĦØ£Ø³Ø¨Ø§Ø·": 4999,
      "ĠÙĬØŃØ³Ø¨ÙĪÙĨ": 5000,
      "ÙĪØ§ØªÙĥÙħ": 5001,
      "Ø²ÙĦÙĬÙĨ": 5002,
      "Ø¹Ø§ÙħØ§": 5003,
      "Ø¬Ø±Øª": 5004,
      "ĠØ¨Ø¹Ø¯Ø§": 5005,
      "ĠØ¨Ø¹Ø¯ÙĬ": 5006,
      "ĠÙħÙĪØ¬": 5007,
      "ĠÙħÙĪÙĦÙī": 5008,
      "ĠÙħÙĪØ¹Ø¯Ø§": 5009,
      "ĠÙĬØ±ØªØ¯": 5010,
      "ĠÙĬØ±Ø¬ÙĪ": 5011,
      "ÙĪÙģÙĪÙĨ": 5012,
      "ÙĪÙģÙĬÙĩÙħ": 5013,
      "Ø³Ø¨Ø§Ø¨": 5014,
      "ĠÙĬØ´ÙĩØ¯ÙĪÙĨ": 5015,
      "ĠÙĬØ´ØªØ±ÙĪÙĨ": 5016,
      "ĠÙģØ§ØŃØ´Ø©": 5017,
      "ĠÙģÙĦØ¹": 5018,
      "ĠÙĤÙĪÙħÙĨØ§": 5019,
      "Ø³Ø±Ùī": 5020,
      "ĠØ£ØŃØ§Ø·": 5021,
      "ĠØªØ±Ø¬": 5022,
      "ĠØªØ±Ø§Ø¶": 5023,
      "ĠØ¸ÙĦØ§ÙĦ": 5024,
      "ĠØ§ÙĦÙĨØ°Ø±": 5025,
      "ĠØ§ÙĦÙĨØ®ÙĦ": 5026,
      "ĠØ§ÙĦÙĨØµØ§Ø±Ùī": 5027,
      "ĠÙĪÙĨØ¬": 5028,
      "ĠÙĪÙĨØµ": 5029,
      "ĠÙĪÙĨØ¹Ùħ": 5030,
      "ĠÙĪÙĨØ²ÙĦÙĨØ§": 5031,
      "ĠÙĪÙĨØ¬Ø¹ÙĦ": 5032,
      "ĠÙĪÙĨØ¬ÙĬÙĨØ§Ùĩ": 5033,
      "ĠÙĪØ£ÙĨÙģØ³ÙĥÙħ": 5034,
      "ĠØ·ÙĦ": 5035,
      "ĠØ·Ø±": 5036,
      "ĠØ·Ø§Øº": 5037,
      "ĠØ·ÙĦØ¹": 5038,
      "ĠØ·ÙĪØ¹Ø§": 5039,
      "ĠØ·ØºÙĬØ§ÙĨØ§": 5040,
      "Ø²ÙĬÙĦØ§": 5041,
      "ĠØ®ÙĦÙĤÙĩÙħ": 5042,
      "ĠØ®ÙĦÙĤÙĨØ§Ùĩ": 5043,
      "ĠØ§ÙĦØ¬ÙĩØ±": 5044,
      "ĠØ¨Ø£ÙĦ": 5045,
      "ĠØ¨Ø£Ø¹ÙĬÙĨ": 5046,
      "ĠØ£ÙģÙĬ": 5047,
      "ĠØ£ÙģØ¦": 5048,
      "ĠØ£ÙģÙĦØŃ": 5049,
      "ĠØ£ÙģÙĪØ§Ùĩ": 5050,
      "ĠØ£ÙģØºÙĬØ±": 5051,
      "ĠÙģØªØ¹": 5052,
      "ĠÙģØªÙĪÙĦÙī": 5053,
      "ĠÙģØªØŃØ§": 5054,
      "ĠÙģØªØ¹Ø§ÙĦÙī": 5055,
      "ĠÙģØªØ±Ø¨ØµÙĪØ§": 5056,
      "ĠØ¨ÙĦØ¯Ø©": 5057,
      "ĠØ¨ÙĦØ³Ø§ÙĨ": 5058,
      "ĠØ¶ÙĬ": 5059,
      "ĠØ¶Ø¹ÙĬ": 5060,
      "ĠØ¶Ø¹ÙģØ§": 5061,
      "ĠÙĦÙĥÙĨØ§": 5062,
      "ĠÙĦÙĥØ¨ÙĬØ±": 5063,
      "ĠÙĦÙĥÙĬÙĦØ§": 5064,
      "ĠØ£ÙĩØ¤ÙĦØ§Ø¡": 5065,
      "ĠØ§ÙĦØ´Ùĩ": 5066,
      "ĠØ§ÙĦØ´ÙĩØ±": 5067,
      "ĠÙĪØ¹Ø´ÙĬØ§": 5068,
      "ĠÙĪØ¹ÙĦØ§ÙĨÙĬØ©": 5069,
      "Ø¨Ø§Ùĩ": 5070,
      "Ø¨Ø§ØŃ": 5071,
      "ĠÙĦÙĨØ¹ÙĦÙħ": 5072,
      "ĠÙĦÙĨØ®Ø±Ø¬": 5073,
      "Ø§ÙĦØŃÙĬÙĨ": 5074,
      "ĠÙĬØ¹Ø±Ø¬": 5075,
      "ĠÙĬØ¹Ø±Ùģ": 5076,
      "ĠÙĬØ¹Ø¸ÙĥÙħ": 5077,
      "ÙģØ§Ø±Ø§": 5078,
      "ĠØ¯ÙĪÙĨÙĩÙħ": 5079,
      "ĠØªØŃØ±": 5080,
      "Ø°Ø±ØªÙĩÙħ": 5081,
      "ØµØ±Ùĩ": 5082,
      "ØµØ±ÙĨØ§": 5083,
      "ØµØ±Ø©": 5084,
      "ĠØ£Ø¬ÙĪØ±ÙĩÙħ": 5085,
      "ĠØ²Ø¯": 5086,
      "ĠØ²ÙĬÙĨØ§": 5087,
      "ĠØ²Ø§Øº": 5088,
      "ÙĬÙħØ§ÙĨÙĩÙħ": 5089,
      "ĠÙĪÙĦÙĥÙĨÙĬ": 5090,
      "ĠØ§ÙĦØ®ÙĪÙģ": 5091,
      "ÙĪØªÙĥ": 5092,
      "ĠÙĪÙħÙĥØ±": 5093,
      "ĠÙĪÙħØ³Ø§": 5094,
      "ĠÙģØ±Ø¬": 5095,
      "ĠÙĬØ¯Ø¨Ø±": 5096,
      "ĠÙĬØ³ØªØ¹": 5097,
      "ĠÙĬØ³ØªØ¹Ø¬ÙĦÙĪÙĨ": 5098,
      "ØŃØ±ÙĬØ±": 5099,
      "ĠØ£ÙĥÙģØ±": 5100,
      "ĠØ£ÙĥÙĨØ©": 5101,
      "ĠØ£ÙĥÙĦÙĩØ§": 5102,
      "ĠÙĪÙĥØ§ÙĨØª": 5103,
      "ĠÙĬØ®ÙģÙī": 5104,
      "ĠØªÙĥÙĦÙħ": 5105,
      "ĠØªÙĥØ³Ø¨ÙĪÙĨ": 5106,
      "ĠØªÙĥÙģØ±ÙĪØ§": 5107,
      "ÙĨØªÙĩØ§": 5108,
      "ĠÙĬØ³Ø±ÙĪÙĨ": 5109,
      "ĠÙĬØ³Ø£ÙĦÙĪÙĨ": 5110,
      "ĠØ£ØµÙĨØ§": 5111,
      "ĠÙĦØ£Ø¬ÙĦ": 5112,
      "ĠÙĦØ£ÙħÙĦ": 5113,
      "ĠÙħØ³ØªÙħ": 5114,
      "ĠÙħØ³ÙĨÙĬ": 5115,
      "ÙĨØ³Ø§Ø¡": 5116,
      "ĠÙĦÙĪØ·Ø§": 5117,
      "ĠÙĦÙĤØ§Ø¡ÙĨØ§": 5118,
      "ĠØªØªØ®Ø°": 5119,
      "ĠØªØªÙĪÙĦÙĪØ§": 5120,
      "ĠØªØªÙĦÙĪ": 5121,
      "ĠØªØªØ¨Ø¹ÙĪÙĨ": 5122,
      "ĠØ§ÙĦØ¨ÙĨØ§Øª": 5123,
      "ĠØ§ÙĦØ¨ØµÙĬØ±": 5124,
      "ĠØ§Ø³ØªÙĥ": 5125,
      "ĠØ§Ø³ØªÙĤØ§ÙħÙĪØ§": 5126,
      "ĠØ§Ø³ØªØ¬Ø§Ø¨": 5127,
      "ĠØ§Ø³ØªØ·Ø§Ø¹ÙĪØ§": 5128,
      "ĠØ§Ø³ØªÙĩØ²Ø¦": 5129,
      "ĠÙĦØªØ£ØªÙĪÙĨ": 5130,
      "ĠÙĦØªØ¨ØªØºÙĪØ§": 5131,
      "ĠØªØ¬ÙĩÙĦÙĪÙĨ": 5132,
      "Ø®ÙĦÙĪÙĩØ§": 5133,
      "ÙĦØ¨Ùĩ": 5134,
      "ÙĦØ¨ÙĪÙĨ": 5135,
      "ĠØ¹ÙĦÙħÙĩ": 5136,
      "ĠØ¹ÙĦÙħÙĥÙħ": 5137,
      "ĠØ¹ÙĦÙħÙĩØ§": 5138,
      "ĠØªØ£ÙħØ±": 5139,
      "ĠØªØ£ØªÙĬÙĨØ§": 5140,
      "ĠØ£Ø¹ÙĤØ§Ø¨": 5141,
      "ĠØªÙĨØ²ÙĬÙĦØ§": 5142,
      "ĠØ¨Ø¢ÙĬØ§ØªÙĬ": 5143,
      "ĠØ¨Ø¢ÙĬØ§ØªÙĩ": 5144,
      "ĠØ£ÙħØ±ÙĥÙħ": 5145,
      "ĠÙĪØ¢ÙĬØ©": 5146,
      "ĠÙĪØ¢Ø®Ø±ÙĪÙĨ": 5147,
      "ĠØ§ÙĦØ¥ÙĨØ¬ÙĬÙĦ": 5148,
      "ĠØ§ÙĦØ¥Ø³ÙĦØ§Ùħ": 5149,
      "ĠÙĪØ§ØªÙĤÙĪÙĩ": 5150,
      "Ø±Ø¬Ø§ÙĦ": 5151,
      "ĠÙĬØ¬Ø±ÙĬ": 5152,
      "ĠÙĪØ§ÙĦÙħØ´Ø±ÙĥÙĬÙĨ": 5153,
      "ĠÙĪØ§ÙĦÙħÙĨØ§ÙģÙĤÙĬÙĨ": 5154,
      "ĠØºÙĬØ±ÙĥÙħ": 5155,
      "ĠØ§ÙĦÙģØ§Ø¦Ø²ÙĪÙĨ": 5156,
      "ĠØ£Ø±Ø³ÙĦØªÙħ": 5157,
      "ĠØ¨ØºÙĦØ§Ùħ": 5158,
      "ĠØ¨ØºØ¶Ø¨": 5159,
      "ĠØ£Ø®ÙĬ": 5160,
      "ĠØ£Ø®ÙĪÙĩÙħ": 5161,
      "ĠØ£Ø®Ø§Ùĩ": 5162,
      "ĠØ®Ø§ÙĦØµØ©": 5163,
      "Ø°ÙĩØ¨Ø§": 5164,
      "ØµØ¯ÙĤÙĬÙĨ": 5165,
      "ĠÙĪØ³ÙĦÙĬÙħØ§ÙĨ": 5166,
      "ĠÙĪØ³Ø§Ø¡Øª": 5167,
      "ĠÙģØ³Ø§Ø¡": 5168,
      "ĠØªÙĤØ¨ÙĦ": 5169,
      "ĠØ£Ø³Ø§ÙĪØ±": 5170,
      "ĠÙĦÙĦÙħØ´Ø±ÙĥÙĬÙĨ": 5171,
      "ØªØ¨Ø¹ÙĪÙĨ": 5172,
      "ĠØ±Ø¬Ø³": 5173,
      "ĠØ±Ø¬ÙĬÙħ": 5174,
      "ĠØ¹ÙħÙĦÙĩ": 5175,
      "ĠØ³ÙĬÙĤÙĪÙĦ": 5176,
      "ĠØ³ÙĬÙĤÙĪÙĦÙĪÙĨ": 5177,
      "ĠØµØ¯ÙĪØ±": 5178,
      "ĠØµØ¯Ø±Ùĥ": 5179,
      "ĠØµØ¯ÙĤØ©": 5180,
      "ĠØµØ¯ÙĪØ±ÙĥÙħ": 5181,
      "ĠÙĬØ¤Øª": 5182,
      "ĠÙĬØ¤Ø®Ø°": 5183,
      "ĠÙĬØ¤Ø°ÙĨ": 5184,
      "ĠÙĬØ¤ØªÙĥÙħ": 5185,
      "ĠÙĬØ¤ØªÙĪÙĨ": 5186,
      "ĠÙĬØ¤Ø°ÙĪÙĨ": 5187,
      "ĠØ±ØŃÙħØªÙĨØ§": 5188,
      "ĠÙĬÙĤØ¶ÙĬ": 5189,
      "ĠÙĤÙĪÙĬ": 5190,
      "ĠØ£ØªØ®Ø°": 5191,
      "ĠØªØ¯Ø±ÙĬ": 5192,
      "ĠØ£Ø±ØŃÙħ": 5193,
      "ĠÙħÙĦÙĥÙĪØª": 5194,
      "ĠØ£Ø´ÙĬ": 5195,
      "ĠÙħØªÙĤØ§Ø¨": 5196,
      "ĠÙĬØºØ±": 5197,
      "ĠÙĬØºÙĨÙĪØ§": 5198,
      "ĠÙĬØºÙĦØ¨ÙĪØ§": 5199,
      "ĠØ±Ø³ÙĪÙĦÙĨØ§": 5200,
      "ĠØŃØ³Ø§Ø¨Ø§": 5201,
      "ĠØŃØ³ÙĬØ¨Ø§": 5202,
      "ÙĪÙĬÙĥÙħ": 5203,
      "ĠØ§ÙĨØµØ±": 5204,
      "ĠØ§ÙĨØªÙĩÙĪØ§": 5205,
      "Ø¹ÙģÙģ": 5206,
      "Ø£ÙĨØ¹Ø§Ùħ": 5207,
      "ĠØªØ³Ø£ÙĦÙĩÙħ": 5208,
      "ĠØªØ´Ø¹Ø±ÙĪÙĨ": 5209,
      "ĠØ¬ÙħÙĬÙĦØ§": 5210,
      "Ø§ÙĩØ±Ø§": 5211,
      "ĠÙĪØ§ØºÙģØ±": 5212,
      "ĠÙĬØ£ØªÙĬÙĩ": 5213,
      "ĠØ£Ø¯Ø±ÙĬ": 5214,
      "ĠØ£Ø¯Ø¨Ø±": 5215,
      "ĠØ£Ø¯Ø¹ÙĪ": 5216,
      "ĠÙģØ¶Ø©": 5217,
      "Ø°ÙĬÙĤ": 5218,
      "ĠÙĨØµØ¨": 5219,
      "ĠÙĨØ¹ÙħØªÙĩ": 5220,
      "ĠØ§ÙĦÙħØ³ÙĥÙĬÙĨ": 5221,
      "ĠÙħÙĥÙĬÙĨ": 5222,
      "ĠÙħÙĥØ±Ø§": 5223,
      "ĠØ¨Ø±Ø¨ÙĬ": 5224,
      "ĠØ¨Ø±ÙĪØŃ": 5225,
      "ĠÙģØ§ÙĨØ·ÙĦÙĤ": 5226,
      "ĠÙģØ§ÙĨØªÙĤÙħÙĨØ§": 5227,
      "ĠØ£Ø¹ÙħÙĦ": 5228,
      "ĠØ¨Ø¥Ø°ÙĨÙĬ": 5229,
      "ĠØ£ØŃØ¯ÙĩÙħØ§": 5230,
      "ĠÙģÙĦÙĬØ£": 5231,
      "ĠÙģÙĦÙĬØ³Øª": 5232,
      "ĠØ±Ø²ÙĤÙĩ": 5233,
      "ĠÙĨØ¬ÙĬÙĨØ§": 5234,
      "ĠÙĨÙĪØŃÙĬ": 5235,
      "ĠØ¢Ø¨Ø§Ø¡ÙĩÙħ": 5236,
      "ĠØ¢Ø¨Ø§Ø¦ÙĥÙħ": 5237,
      "ĠØ¢Ø¨Ø§Ø¤ÙĩÙħ": 5238,
      "ĠØµØ§ÙĦØŃÙĬÙĨ": 5239,
      "ĠÙĥØ±Ø©": 5240,
      "ĠÙģØ£ÙĨØ¨ØªÙĨØ§": 5241,
      "ĠØ§ÙĦØªÙĪØ¨Ø©": 5242,
      "ĠÙĪØ¬Ø¹ÙĦÙĨÙĬ": 5243,
      "ĠÙģØ§ØªÙĤÙĪÙĨ": 5244,
      "Ø§Ø¬Ø§": 5245,
      "ĠÙĪÙĦÙĨØ¬Ø²ÙĬÙĨ": 5246,
      "ĠØ§ÙĦÙħÙĨØª": 5247,
      "ĠØªØµÙģÙĪÙĨ": 5248,
      "ĠÙĨØ°ÙĬØ±Ø§": 5249,
      "ĠØ§ØªØ¨Ø¹Ùĥ": 5250,
      "ĠÙĦØ¨Ø´Ø±": 5251,
      "ĠÙĦØ¨Ø«ÙĪØ§": 5252,
      "ĠØªØ³ØªØ·ÙĬØ¹": 5253,
      "ĠÙĨÙģØ®": 5254,
      "ĠÙĨÙģÙĪØ±Ø§": 5255,
      "ĠÙĪØ§Ø³ØªÙĥØ¨Ø±ÙĪØ§": 5256,
      "ĠÙħÙħÙĨÙĪÙĨ": 5257,
      "ĠÙģØ¹ÙĦÙĬÙĩ": 5258,
      "ĠÙĬØ¶ÙĦÙĪÙĨ": 5259,
      "ĠÙĪØ£ØµÙĬÙĦØ§": 5260,
      "ĠÙģÙĦÙĨÙģØ³Ùĩ": 5261,
      "ĠØ£Ø±Ø§ÙĥÙħ": 5262,
      "ĠØ£Ø±Ø§Ø¯ÙĪØ§": 5263,
      "ĠØ¨Ø³ÙĪØ¡": 5264,
      "ĠÙĪØµØ§ÙĥÙħ": 5265,
      "ĠÙħØ¨Ø´Ø±ÙĬÙĨ": 5266,
      "ĠØ³Ø¨ÙĦØ§": 5267,
      "ĠØ³Ø¨Ø¨Ø§": 5268,
      "ĠØ£ÙĩÙĦÙĥÙĨØ§ÙĩÙħ": 5269,
      "ĠØ£ÙĩÙĦÙĥÙĨØ§ÙĩØ§": 5270,
      "ĠÙĦØ¯ÙĬ": 5271,
      "Ø«ÙĦØ«": 5272,
      "ĠÙĪÙĦØªØ¨ØªØºÙĪØ§": 5273,
      "ĠÙħØŃØµ": 5274,
      "ĠØ¬ÙĨØ§ØŃÙĥ": 5275,
      "ĠØ´Ø±Ø§Ø¨": 5276,
      "ĠØ¢ÙĦÙĩØªÙĥÙħ": 5277,
      "Ø§ÙĪÙĬÙĨ": 5278,
      "ĠÙģØ¹ÙĦÙĪØ§": 5279,
      "ĠØ¨Ø´Ø±Ùī": 5280,
      "ÙģÙĬÙĨØ©": 5281,
      "ĠØ¬Ø¦ÙĨØ§": 5282,
      "ĠØ¬Ø¦ØªÙĥÙħ": 5283,
      "ĠØ®ÙĦÙģÙĩ": 5284,
      "ĠÙģØ£Ø®Ø°ÙĨØ§ÙĩÙħ": 5285,
      "ĠØ§ØªØ®Ø°ØªÙħ": 5286,
      "ĠØ§ÙĦØ¨ØŃØ±ÙĬÙĨ": 5287,
      "ĠØ¨Ø·Ø´": 5288,
      "ĠØ£ØµØ§Ø¨ÙĥÙħ": 5289,
      "ĠÙħØ³ÙĦÙħØ©": 5290,
      "ĠÙħØ±Ø¶Ùī": 5291,
      "ĠØ£ØºÙĪ": 5292,
      "ĠØ£ØºÙĬØ±": 5293,
      "ĠÙĪØ§ÙĦØ¨ØºØ¶Ø§Ø¡": 5294,
      "ĠØ¬ÙĨÙĪØ¯": 5295,
      "ĠÙĦØºÙĬØ±": 5296,
      "ĠØ¹ØµÙĬØª": 5297,
      "ĠØªØ²ÙĥÙī": 5298,
      "ĠØªØ²Ø¹ÙħÙĪÙĨ": 5299,
      "ĠØ¢ØªÙĬÙĥÙħ": 5300,
      "ĠØ¢ØªÙĬØªÙħÙĪÙĩÙĨ": 5301,
      "ĠØ´ÙĩØ¯ÙĨØ§": 5302,
      "ĠÙĪÙĬÙĨÙĩÙĪÙĨ": 5303,
      "ĠØ¨Ø´ÙĬØ±Ø§": 5304,
      "ĠÙĪØ§ÙĦØµØ§Ø¨": 5305,
      "ĠÙĪØ§ÙĦØµØ§Ø¨Ø±ÙĬÙĨ": 5306,
      "ĠÙĪØ§Ø³Ø¹Ø©": 5307,
      "ĠÙĪÙĪØ¶Ø¹": 5308,
      "ĠØ¨ÙĨØ¹ÙħØ©": 5309,
      "ĠÙĪØ£ÙħÙĩ": 5310,
      "ĠØ¯Ø¹ÙĪØ©": 5311,
      "ĠÙĬØŃÙĥÙħÙĪÙĨ": 5312,
      "ĠÙħÙĥØ§ÙĨØªÙĥÙħ": 5313,
      "ĠÙĪØ·ÙħØ¹Ø§": 5314,
      "ĠÙĬØ¹ÙħØ±": 5315,
      "ĠÙĨØµØ±Ùģ": 5316,
      "ĠØŃØ¬Ø§Ø¨": 5317,
      "ÙĦÙĪÙħØ§": 5318,
      "ĠÙĪÙĬØ±Ø³ÙĦ": 5319,
      "ĠÙĪØ¸ÙĦ": 5320,
      "ĠÙĪØ¸ÙĨ": 5321,
      "ĠÙģØµÙĦØª": 5322,
      "ĠÙģØµÙĬØ§Ùħ": 5323,
      "Ø¶Ø¹ÙģÙĬÙĨ": 5324,
      "ĠÙĪØ£ÙĤØ³ÙħÙĪØ§": 5325,
      "ĠØ®ÙĪÙģØ§": 5326,
      "ĠÙĬÙĨÙģØ¹ÙĩÙħ": 5327,
      "ĠÙĬÙĨÙģØ¹ÙĥÙħ": 5328,
      "ĠØ§Ø«ÙĨØªÙĬÙĨ": 5329,
      "ĠÙĪØ¢ØªÙĬÙĨØ§ÙĩÙħ": 5330,
      "ĠØ§ÙĦØ¨ÙĬÙĪØª": 5331,
      "ĠØ£ÙħÙĨØªÙħ": 5332,
      "ĠÙĬÙħØ³ÙĩÙħ": 5333,
      "ĠØªØ¤ÙģÙĥÙĪÙĨ": 5334,
      "ĠÙĪØ£ÙĩÙĦÙĩØ§": 5335,
      "ĠØ¨Ø§ÙĦÙħÙĩØªØ¯ÙĬÙĨ": 5336,
      "ĠØ§ÙĦØ±Ø¬Ø³": 5337,
      "ĠØ§ÙĦØ±Ø¬ÙģØ©": 5338,
      "ĠØ²ÙĪØ¬ÙĬÙĨ": 5339,
      "ĠØ²ÙĪØ¬ÙĩØ§": 5340,
      "ĠÙĪÙģØ¶ÙĦ": 5341,
      "ĠØ£Ø°ÙĦØ©": 5342,
      "ĠØ£Ø°ÙĤÙĨØ§": 5343,
      "ĠØ£Ø«ÙĤØ§ÙĦ": 5344,
      "ĠÙĬÙĪØŃÙĬ": 5345,
      "ĠØ¹Ø¬Ø¨Ø§": 5346,
      "ĠØ¨Ø§ÙĦØ¹Ø´ÙĬ": 5347,
      "ĠØ§Ø´Øª": 5348,
      "ĠÙħÙĬØ«Ø§ÙĤÙĩÙħ": 5349,
      "ĠÙħÙĬØ«Ø§ÙĤÙĥÙħ": 5350,
      "ĠØ£Ø±Ø¨Ø¹ÙĬÙĨ": 5351,
      "ĠØªØºÙĨ": 5352,
      "ĠÙĤØ§Ø¦ÙħØ§": 5353,
      "ĠØ¯Ø§Ø¨Ø±": 5354,
      "ĠÙĦÙĨÙģØ³ÙĬ": 5355,
      "ĠÙĪØ¨Ø§ÙĦÙĪØ§ÙĦØ¯ÙĬÙĨ": 5356,
      "ĠÙĪÙĩØ§ÙħØ§ÙĨ": 5357,
      "ĠÙĪÙĩØ§Ø¬Ø±ÙĪØ§": 5358,
      "ĠÙĪØ§ÙĨØ¸Ø±": 5359,
      "ĠÙĪØ§Ø±Ø²ÙĤ": 5360,
      "ĠØ¹ÙĩØ¯Ø§": 5361,
      "ĠÙĨØ§Ø¯ÙħÙĬÙĨ": 5362,
      "ĠÙĩØ¯Ø§ÙĩÙħ": 5363,
      "ĠÙĩØ¯Ø§ÙĥÙħ": 5364,
      "Ø§ØªÙĦÙĪÙĩÙħ": 5365,
      "ĠØ´Ø¹ÙĬØ¨": 5366,
      "ĠØ´Ø¹Ø§Ø¦Ø±": 5367,
      "ĠØ§Ø±Øª": 5368,
      "ĠØ§Ø±Ø¬Ø¹": 5369,
      "ĠØ§ÙĦÙĪØ§Ø±Ø«": 5370,
      "ĠÙĪØ§Ø¯Ø¹": 5371,
      "ĠÙĪØ§Ø¯Ø¹ÙĪØ§": 5372,
      "ĠØ£Ø¹Ø¯Øª": 5373,
      "ĠÙĦØ¬Ø¹ÙĦÙĨØ§": 5374,
      "ÙĤØ·Ø¹ÙĪØ§": 5375,
      "ĠØ¨Ø¬Ø§ÙĨ": 5376,
      "ĠØ¥ØŃØ¯Ùī": 5377,
      "ĠØªØ¨Ø¯ÙĪØ§": 5378,
      "ĠÙĪØ£Ø®ÙĬÙĩ": 5379,
      "ĠØ¯Ø±Ø¬Ø©": 5380,
      "ĠØ¸ÙĩÙĪØ±": 5381,
      "ĠØ¸ÙĩÙĬØ±Ø§": 5382,
      "ĠØ§Ø¦ØªÙĨØ§": 5383,
      "ĠÙĪØ£ÙĦÙĤÙĬÙĨØ§": 5384,
      "ĠØ°Ø±ÙĬØªÙĬ": 5385,
      "ĠØ°Ø±ÙĬØªÙĩ": 5386,
      "ĠØ°Ø±ÙĬØªÙĩÙħ": 5387,
      "ĠÙĪÙĬØ£Øª": 5388,
      "ĠÙĪÙĬØ£ÙħØ±ÙĪÙĨ": 5389,
      "ĠØ§ÙĩØªØ¯ÙĪØ§": 5390,
      "ĠÙĪØ§ÙĦØ£ÙĨØ«Ùī": 5391,
      "ĠÙĬØ£ØªÙĪÙĥ": 5392,
      "ĠØ£Ø¨ÙĨØ§Ø¡ÙĥÙħ": 5393,
      "ĠÙĦØ¨Ø«Øª": 5394,
      "Ø±Ø¡ÙĪÙĨ": 5395,
      "ĠØ£Ø¶Øº": 5396,
      "ĠØ£ÙģØ±Ø£ÙĬØª": 5397,
      "ĠÙĦØŃÙħØ§": 5398,
      "ĠØ¨Ø°ÙĨÙĪØ¨": 5399,
      "ĠØ¥ÙħØ§ÙħØ§": 5400,
      "ĠØ£ÙĨØ´Ø£ÙĨØ§": 5401,
      "ĠØ¨Ø§ÙĦØ£ÙħØ³": 5402,
      "ĠØ¯Ø¹ÙĪØ§ÙĩÙħ": 5403,
      "ĠØ¯ÙĬØ§Ø±ÙĥÙħ": 5404,
      "ĠÙĬØ¯Ø®ÙĦÙĩ": 5405,
      "ĠØ£Ø³ÙĦÙħÙĪØ§": 5406,
      "ĠØ§ÙĦÙģØ±ÙĤØ§ÙĨ": 5407,
      "ĠÙĪØ°Ø±ÙĬØ§Øª": 5408,
      "ĠÙģØ§Ø®Ø±Ø¬": 5409,
      "ĠØ¹Ø§ÙħÙĦ": 5410,
      "ĠØªÙĪÙĥÙĦÙĨØ§": 5411,
      "ĠÙĨØ®ÙĬÙĦ": 5412,
      "ĠØ§ÙĦØ¬Ø§ÙĩÙĦÙĬØ©": 5413,
      "ĠÙĪØ§Ø®ØªÙĦØ§Ùģ": 5414,
      "ÙħÙĩÙĦ": 5415,
      "ĠÙĬÙĨØ§Ø¯ÙĪÙĨ": 5416,
      "ĠÙĬØ³Ø±ÙĨØ§": 5417,
      "ĠØªÙĤØ¯ÙħÙĪØ§": 5418,
      "ĠØ±Ø§Ø¬Ø¹ÙĪÙĨ": 5419,
      "ĠØ§ÙĦÙħÙĬØªØ©": 5420,
      "ĠØ°Ø±Ø£": 5421,
      "ĠØ§ÙĦÙĤØ¯Ø³": 5422,
      "ĠÙĬØªÙĪÙģÙī": 5423,
      "ĠÙĬØªÙĪÙģØ§ÙĥÙħ": 5424,
      "ĠØ°ÙĨÙĪØ¨ÙĨØ§": 5425,
      "ĠÙĦÙĬÙĨØ°Ø±": 5426,
      "ĠÙĦØ¥Ø®ÙĪØ§ÙĨÙĩÙħ": 5427,
      "ĠÙĨØ¯Ø¹ÙĪ": 5428,
      "ĠØ«ÙĤÙĦØª": 5429,
      "ĠØ§Ø¹ØªØ¯Ùī": 5430,
      "ĠÙĪÙĥÙģØ±Ø§": 5431,
      "ĠØºØ§ÙģÙĦÙĬÙĨ": 5432,
      "ĠÙĬÙĨØµØ±ÙĥÙħ": 5433,
      "ĠØ§ÙĦÙĨØ¬ÙĪÙī": 5434,
      "ĠÙħØ³ØªÙĤØ±Ø§": 5435,
      "ĠØ¥Ø®ÙĪØ©": 5436,
      "ĠØ¹Ø§Ø¨Ø¯ÙĪÙĨ": 5437,
      "ĠØªØ¹Ø¯ÙĨØ§": 5438,
      "ĠØªØ¹Ø¯ÙĦÙĪØ§": 5439,
      "ĠØ³ÙĪÙĬØ§": 5440,
      "ĠØ³ÙħØ§Ø¹ÙĪÙĨ": 5441,
      "ĠÙĪØ£ÙĬØ¯ÙĬÙĥÙħ": 5442,
      "ĠÙĬØ¯Ø¹ÙĪÙĥÙħ": 5443,
      "ĠØ§ÙĦØºÙĬÙĪØ¨": 5444,
      "ĠÙĬÙĤØ§ØªÙĦÙĪÙĨÙĥÙħ": 5445,
      "ĠÙħÙĩÙĬÙĨØ§": 5446,
      "ĠØ£Ø¨ÙĬÙĥÙħ": 5447,
      "ĠÙĦØ´Ø¯ÙĬØ¯": 5448,
      "ĠØ¨Ø§Ø³Ùħ": 5449,
      "ĠØ±ÙĬØŃØ§": 5450,
      "ĠÙĨØ±ÙĬØ¯": 5451,
      "ĠÙĪØ¥ÙĬØ§ÙĥÙħ": 5452,
      "ĠØ¨Ø§ÙĦØµØ¨Ø±": 5453,
      "ĠØ§ÙĦÙĤØ§Ø¹Ø¯ÙĬÙĨ": 5454,
      "ĠØ·ÙĦÙĤØªÙħ": 5455,
      "ĠÙĬØ¹Ø°Ø¨ÙĥÙħ": 5456,
      "ĠØ§ÙĦØºØ§ÙĦØ¨ÙĬÙĨ": 5457,
      "ĠØ§Ø¶Ø±Ø¨": 5458,
      "ĠØªÙĨÙĥØŃÙĪØ§": 5459,
      "ĠÙħØ®ØªÙĦÙģØ§": 5460,
      "ĠØ§ÙĦØ¹ÙħÙĬ": 5461,
      "ĠØ§ÙĦØ¹ÙħØ±": 5462,
      "ĠÙĪØºØ¶Ø¨": 5463,
      "ĠÙĦØµØ§Ø¯ÙĤÙĪÙĨ": 5464,
      "ĠØ³ÙħÙĬØ¹Ø§": 5465,
      "ĠÙĪØ£Ø²ÙĪØ§Ø¬ÙĩÙħ": 5466,
      "ĠØ§ÙĦÙħÙĤØ±Ø¨ÙĬÙĨ": 5467,
      "ĠØ§ÙĦÙħÙĤØ±Ø¨ÙĪÙĨ": 5468,
      "ĠØ¨Ø§ÙĦØ³ÙĪØ¡": 5469,
      "ĠÙĪÙĬØµØ¯ÙĪÙĨ": 5470,
      "ĠØ£ÙħØ«Ø§ÙĦÙĥÙħ": 5471,
      "ĠØ¸Ø§ÙĦÙħØ©": 5472,
      "ĠØ§ÙĦØ¬ÙħØ¹Ø§ÙĨ": 5473,
      "ĠÙĬØ³Ø¬Ø¯ÙĪÙĨ": 5474,
      "ĠÙĦØªØ³ÙĥÙĨÙĪØ§": 5475,
      "ĠØ£Ø¹ÙĨØ§ÙĤÙĩÙħ": 5476,
      "ĠÙģØ³ÙĬÙĤÙĪÙĦÙĪÙĨ": 5477,
      "ĠØªØ¯Ø¹ÙĪÙĩÙħ": 5478,
      "ĠÙĬØµÙĦÙĪÙĨÙĩØ§": 5479,
      "ĠØ¨Ø±ÙĩØ§ÙĨÙĥÙħ": 5480,
      "ĠÙħØ¹Ø¯ÙĪØ¯": 5481,
      "ĠØ£Ø²ÙĥÙī": 5482,
      "ĠØ£ÙĦÙĪØ§ÙĨÙĩ": 5483,
      "ĠÙĦØ¨Ø§Ø³": 5484,
      "ĠÙĬØ°ÙĩØ¨ÙĥÙħ": 5485,
      "ĠØ¨Ø¹ÙĦÙħÙĩ": 5486,
      "ĠØ¹Ø§ÙĩØ¯ØªÙħ": 5487,
      "ĠØªÙģØ³Ø¯ÙĪØ§": 5488,
      "ĠØ±Ø¢Ùĩ": 5489,
      "ĠÙĪØ£Ø±Ø¬ÙĦÙĥÙħ": 5490,
      "ĠØ¨Ø§ÙĦÙĥØªØ§Ø¨": 5491,
      "ĠØµÙĨØ¹ÙĪØ§": 5492,
      "ĠØµØ±ÙģÙĨØ§": 5493,
      "ĠØ§ÙĦÙĤØµØµ": 5494,
      "ĠÙĬÙĨØ·ÙĤÙĪÙĨ": 5495,
      "ĠØ£ØŃÙĬØ§Ø¡": 5496,
      "ĠÙģØªØŃÙĨØ§": 5497,
      "ĠÙĬØ¤Ø§Ø®Ø°ÙĥÙħ": 5498,
      "ĠÙħØªØ´Ø§Ø¨ÙĩØ§": 5499,
      "ĠØ§ÙĨØªÙĤØ§Ùħ": 5500,
      "ĠÙĪØ§Ø¶Ø±Ø¨": 5501,
      "ĠØ£Ø¦ÙĨÙĥÙħ": 5502,
      "ĠÙĬÙħÙĬØªÙĥÙħ": 5503,
      "ĠØ¨ÙģØ§ØŃØ´Ø©": 5504,
      "ĠØ¨ÙĤØ±Ø©": 5505,
      "ĠØ¨ÙĬÙħÙĬÙĨÙĩ": 5506,
      "ĠØ£ÙĨÙģÙĤØªÙħ": 5507,
      "ĠØ³ØªØ¬Ø¯": 5508,
      "ĠØ³ØŃØ§Ø¨Ø§": 5509,
      "ĠØ§ÙĦÙħØ¹ØªØ¯ÙĬÙĨ": 5510,
      "ĠØ¸Ø§ÙĩØ±": 5511,
      "ĠØªØŃÙĥÙħÙĪÙĨ": 5512,
      "ĠÙĬØ®ØªØµÙħÙĪÙĨ": 5513,
      "ĠØ¨Ø¬ÙĩØ§ÙĦØ©": 5514,
      "ĠÙħØ®ÙĦØµØ§": 5515,
      "ĠØ¨ÙĪØ§ÙĦØ¯ÙĬÙĩ": 5516,
      "ĠØ¹ÙĤØ¨Ùī": 5517,
      "ĠÙĤØ§ÙħÙĪØ§": 5518,
      "ĠÙĪØ£ÙĪÙĦÙĪ": 5519,
      "ĠÙĪØ£Ø¨ØµØ§Ø±ÙĩÙħ": 5520,
      "ĠØ§ÙĦÙħØŃØ±Ø§Ø¨": 5521,
      "ĠÙĪÙĦÙĦÙħØ¤ÙħÙĨÙĬÙĨ": 5522,
      "ĠØµÙĦØµØ§ÙĦ": 5523,
      "ĠØµØ¹ÙĬØ¯Ø§": 5524,
      "ĠØ§ÙĩØ¨Ø·ÙĪØ§": 5525,
      "ĠÙĬÙĨÙĤØ¶ÙĪÙĨ": 5526,
      "ĠÙģÙĦÙĬÙĨØ¸Ø±": 5527,
      "ĠÙĬØ®ÙĪØ¶ÙĪØ§": 5528,
      "ĠÙħØ³Ø¦ÙĪÙĦØ§": 5529,
      "ĠØ¨ÙĥÙģØ±ÙĩÙħ": 5530,
      "ĠÙģØ§Ø³ØªØ¹Ø°": 5531,
      "ĠÙģØ§Ø³ØªØ¬Ø¨ÙĨØ§": 5532,
      "ĠÙĬÙĨØ§Ø¯ÙĬÙĩÙħ": 5533,
      "ĠØ³ÙĪØ¢ØªÙĩÙħØ§": 5534,
      "ĠØ¥Ø®ÙĪØ§ÙĨÙĩÙĨ": 5535,
      "ĠØ§ÙĦØ¹Ø¯Ø§ÙĪØ©": 5536,
      "ĠÙħØ¨Ø§Ø±ÙĥØ§": 5537,
      "ĠÙħÙĤØ±ÙĨÙĬÙĨ": 5538,
      "ĠÙĦØ³Ø§ØŃØ±": 5539,
      "ĠØ¨ØŃÙħØ¯Ùĩ": 5540,
      "ĠÙĥØ±ÙĬÙħØ§": 5541,
      "ĠÙģÙĬÙĪÙħØ¦Ø°": 5542,
      "ĠÙĩÙĨÙĬØ¦Ø§": 5543,
      "ĠÙĩØ§ÙĩÙĨØ§": 5544,
      "ĠØ§ÙĦÙħÙħØªØ±ÙĬÙĨ": 5545,
      "ĠØŃØ§ØµØ¨Ø§": 5546,
      "ĠØ®ÙĦØ§Ø¦Ùģ": 5547,
      "ĠØ§ÙĦØ£ÙĬÙĥØ©": 5548,
      "Ø³ØªØ¨Ø±ÙĤ": 5549,
      "ĠØ¨ÙĩØªØ§ÙĨØ§": 5550,
      "ĠÙĪØ§Ø¹ØªØµÙħÙĪØ§": 5551,
      "ĠØ¨Ø£Ø¹ÙĬÙĨÙĨØ§": 5552,
      "ĠØ£ÙģÙĪØ§ÙĩÙĩÙħ": 5553,
      "ĠØ¶Ø¹ÙĬÙģØ§": 5554,
      "ĠÙĦØ£ÙħÙĦØ£ÙĨ": 5555,
      "ĠØ§Ø³ØªØ¬Ø§Ø¨ÙĪØ§": 5556,
      "ĠÙħØªÙĤØ§Ø¨ÙĦÙĬÙĨ": 5557,
      "Ø§ÙĤØ§": 5558,
      "ÙĦÙĪÙħ": 5559,
      "ÙĦÙĪÙĩØ§": 5560,
      "ÙĦÙĪÙī": 5561,
      "ÙĨØ²ÙĦ": 5562,
      "ÙĨØ¸Ø±": 5563,
      "ÙħÙĥÙħ": 5564,
      "ÙħÙĬÙĦ": 5565,
      "ÙħØ£ÙĨ": 5566,
      "ÙĬØ·": 5567,
      "ÙĬØ¡": 5568,
      "ÙĬØ¹ÙĪÙĨ": 5569,
      "ÙĬØ£Ø³": 5570,
      "ÙĬØ²Ø§ÙĨ": 5571,
      "ÙĪÙĪÙĨ": 5572,
      "ÙĪÙĤØ¯": 5573,
      "ÙĪØªÙĩÙħ": 5574,
      "ÙĪØ¹Ø©": 5575,
      "ÙĪÙĬÙĩ": 5576,
      "ÙĪØ¶Ø©": 5577,
      "Ø§ÙĦÙħ": 5578,
      "Ø§ÙĦØ¯ÙĬ": 5579,
      "ÙĩØ±Ø§": 5580,
      "ÙĩÙĬØ¯": 5581,
      "Ø±ÙĪÙĩÙĨ": 5582,
      "ĠØ§ÙĦÙĦ": 5583,
      "ĠØ§ÙĦØ¹Ø¯": 5584,
      "ĠØ§ÙĦØªØ§Ø¨": 5585,
      "ĠØ§ÙĦÙĪØ¯": 5586,
      "ĠØ§ÙĦÙĪØ§ÙĦ": 5587,
      "ĠØ§ÙĦÙĪÙĩØ§": 5588,
      "ĠØ§ÙĦÙĩÙĪÙĨ": 5589,
      "ĠØ§ÙĦØ¨Ø¹Ø«": 5590,
      "ĠØ§ÙĦÙĦØ¹": 5591,
      "ĠØ§ÙĦÙĪØ³": 5592,
      "ĠØ§ÙĦØ±Ø§Ùĥ": 5593,
      "ĠØ§ÙĦØ¨Ø¹ÙĬØ¯": 5594,
      "ĠØ§ÙĦØ«ÙĦØ«": 5595,
      "ĠÙĪÙĦÙī": 5596,
      "ĠÙĪÙĪÙĦ": 5597,
      "ĠÙĪØ°Ø§": 5598,
      "ĠÙĪØ±Ø§": 5599,
      "ĠÙĪØ¨Ø¯": 5600,
      "ĠÙĪØ²ÙĦ": 5601,
      "ĠÙĪØ³ÙĨ": 5602,
      "ĠÙĪÙħØ¹": 5603,
      "ĠÙĪØ¯ÙĬÙĨ": 5604,
      "ĠÙĪØ¯ÙĪØ§": 5605,
      "ĠÙĪØ¨ÙĦØº": 5606,
      "ĠÙĪØ¯Ø®ÙĦ": 5607,
      "ĠÙĪØ°ÙĪÙĤÙĪØ§": 5608,
      "ĠÙĪØªÙħØª": 5609,
      "ĠÙĪÙģØªØŃ": 5610,
      "ÙĥÙĩÙħ": 5611,
      "ÙĥÙĦÙĪÙĨ": 5612,
      "ÙĥÙĪØ±": 5613,
      "ÙĥÙĪØ±Ø§": 5614,
      "ØªØ§Øª": 5615,
      "ØªØ§Ø±": 5616,
      "ØªØ¨ÙĬ": 5617,
      "ØªÙģÙĥ": 5618,
      "Ø¨ÙĨ": 5619,
      "Ø¨ÙĤ": 5620,
      "Ø¨Ø¥": 5621,
      "Ø¨ÙĤÙĪØ§": 5622,
      "Ø¨ÙĪØª": 5623,
      "Ø¨Ø§Ø¦Ø±": 5624,
      "Ø¨Ø´Ø±Ø§": 5625,
      "Ø¨ÙĦÙĪÙĨÙĥÙħ": 5626,
      "ĠÙħÙĩØ§": 5627,
      "ĠÙħÙģØ±": 5628,
      "ĠÙħÙĤØ¯": 5629,
      "ĠÙħØ¨ÙĦ": 5630,
      "ĠÙħØ±Ø³ÙĦ": 5631,
      "ĠÙħØ´Ùģ": 5632,
      "ĠÙħØ¤ÙħÙĨØ§Øª": 5633,
      "ĠÙħØ¨Ø¯ÙĦ": 5634,
      "ĠÙħÙĩØªØ¯ÙĬÙĨ": 5635,
      "ĠÙħØ§ØªÙĪØ§": 5636,
      "Ø¹ÙĩØ§": 5637,
      "Ø¹Ø«": 5638,
      "Ø¹ÙĬÙĩ": 5639,
      "Ø¹Ø¸Ø©": 5640,
      "ĠØ£Ø°Ø§": 5641,
      "ĠØ£ÙĥØ±": 5642,
      "ĠØ£Ø´Ø±": 5643,
      "ĠØ£Ø·Ø¹": 5644,
      "ĠØ£Ø£ÙĨ": 5645,
      "ĠØ£Ø³ÙħØ¹": 5646,
      "ĠØ£ÙĬØ§ÙħØ§": 5647,
      "ĠØ£Ø±ÙĪÙĨÙĬ": 5648,
      "Ø¯ÙĪ": 5649,
      "Ø¯ÙĤ": 5650,
      "Ø¯ÙĩØ§": 5651,
      "Ø¯Ø±ÙĬ": 5652,
      "Ø¯ØªÙĩÙħ": 5653,
      "Ø¯ÙĬÙĨØ§Ùĩ": 5654,
      "Ø³Ø§Øª": 5655,
      "Ø³ÙĦÙĪØ§": 5656,
      "Ø³ÙĨÙĬ": 5657,
      "Ø³ÙĨØ§Øª": 5658,
      "ĠÙģÙģ": 5659,
      "ĠÙģØ´": 5660,
      "ĠÙģØ§Ø¨": 5661,
      "ĠÙģÙĦÙĥ": 5662,
      "ĠÙģØ¦": 5663,
      "ĠÙģÙĪÙĦ": 5664,
      "ĠÙģØªÙħ": 5665,
      "ĠÙģÙĪØ±": 5666,
      "ĠÙģØ®Ø±Ø¬": 5667,
      "ĠÙģØ§ÙĦØŃ": 5668,
      "ĠÙģÙģÙĬ": 5669,
      "ĠÙģÙĨØª": 5670,
      "ĠÙģÙĦÙĬÙħ": 5671,
      "ĠÙģÙĦÙĩØ§": 5672,
      "ĠÙģÙĩØ¯Ùī": 5673,
      "ĠÙģØ§Ø¶": 5674,
      "ĠÙģØ±Ø§Ø±Ø§": 5675,
      "ĠÙģØ¬Ø¹ÙĦÙĩ": 5676,
      "ĠÙģØªÙĬÙĦØ§": 5677,
      "ĠÙģÙĪØ²Ø§": 5678,
      "ĠÙģØ¤Ø§Ø¯": 5679,
      "ĠÙĦÙĦÙĬ": 5680,
      "ĠÙĦØ§Ø¨": 5681,
      "ĠÙĦÙĬÙħ": 5682,
      "ĠÙĦØ³ÙĨ": 5683,
      "ĠÙĦÙģØ§": 5684,
      "ĠÙĦØ±Ø¬": 5685,
      "ĠÙĦØºÙĪØ§": 5686,
      "ĠÙĦØ¦ÙĦØ§": 5687,
      "ĠÙĬÙĦØ§": 5688,
      "ĠÙĬØ§Ø¨": 5689,
      "ĠÙĬØ¦": 5690,
      "ĠÙĬØ¨ÙĬ": 5691,
      "ĠÙĬØªÙĬ": 5692,
      "ĠÙĬÙĩØ§Ø¬Ø±ÙĪØ§": 5693,
      "ÙĤÙĦ": 5694,
      "ÙĤÙĤ": 5695,
      "ÙĤÙĪÙħ": 5696,
      "ÙĤØ¹Ø¯": 5697,
      "ÙĤÙĬØª": 5698,
      "ÙĤØ¹Ø©": 5699,
      "ÙĤØ¨ÙĪØ§": 5700,
      "ÙĤØ·Ø¹ÙĨ": 5701,
      "Ø°ÙĨØª": 5702,
      "Ø°ÙĪÙĤ": 5703,
      "Ø°ÙĤØ§ÙĨ": 5704,
      "ÙĪØ§ÙĨ": 5705,
      "ÙĪØ§ÙĩØ§": 5706,
      "ÙĬÙĨÙĩ": 5707,
      "ĠØ¨ÙĦØ§": 5708,
      "ĠØ¨ÙĬÙĨØ§": 5709,
      "ĠØ¨ÙĬØ§Øª": 5710,
      "ĠØ¨ÙĤÙĪÙĦ": 5711,
      "ĠØ¨Ø°ÙĦÙĥ": 5712,
      "ĠØ¨Ø§Ø·": 5713,
      "ĠØ¨Ø¯ÙĬÙĨ": 5714,
      "ĠØ¨ÙĩÙħØ§": 5715,
      "ĠØ¨Ø§ÙĤ": 5716,
      "ĠØ¨Ø´Ø±Ùĥ": 5717,
      "ĠØ¨Ø§Øº": 5718,
      "ĠØ¨Ø±Ø³ÙĦ": 5719,
      "ĠØ¨ÙĤÙĦØ¨": 5720,
      "ĠØ¨ÙĨØ§Ø¡": 5721,
      "ĠØ¨Ø¶Ø§": 5722,
      "ĠØ¨Ø¨ÙĨÙĬ": 5723,
      "ĠØ¥Ø³ÙħØ§Ø¹ÙĬÙĦ": 5724,
      "ÙģØ§ÙĦ": 5725,
      "ÙģØ¶": 5726,
      "ÙģØ§Øª": 5727,
      "ÙģØ¹ÙĪØ§": 5728,
      "ÙģØ¶ÙĪØ§": 5729,
      "ÙģØŃØ´Ø§Ø¡": 5730,
      "ÙģÙĤØ±Ø§Ø¡": 5731,
      "ØŃØ§Øª": 5732,
      "ØŃØªÙħ": 5733,
      "ØŃØ§Ø±": 5734,
      "ØŃÙģØ§": 5735,
      "Ø£Ùī": 5736,
      "Ø£ØªÙħ": 5737,
      "Ø£ØªÙĬÙĩÙħ": 5738,
      "ÙĦÙĩØªÙĨØ§": 5739,
      "ĠÙħÙĨØ²": 5740,
      "ĠÙħÙĨØ§Ùħ": 5741,
      "ĠÙħÙĨØªÙĤ": 5742,
      "ĠÙħÙĨÙĤÙĦØ¨": 5743,
      "ĠÙħÙĨØ°Ø±ÙĬÙĨ": 5744,
      "ĠØ¹Ø³": 5745,
      "ĠØ¹Ø²": 5746,
      "ĠØ¹Ø±Ùģ": 5747,
      "ÙĨØ§ÙĨ": 5748,
      "ÙħØ§Ø±": 5749,
      "ÙħØ§ÙĪØ§Øª": 5750,
      "ÙĦØ§ÙĨ": 5751,
      "ĠØªÙĦÙĩ": 5752,
      "ĠØªØ«": 5753,
      "ĠØªÙĪÙĦ": 5754,
      "ĠØªØ±Ø¶": 5755,
      "ĠØªØ¤ÙħÙĨ": 5756,
      "ĠØªÙħÙĬ": 5757,
      "ĠØªØºÙģØ±": 5758,
      "ĠØªÙĩØ¯ÙĬ": 5759,
      "ĠØªØ¸ÙĦÙħ": 5760,
      "ĠØªÙĦÙĪ": 5761,
      "ĠØªØ¶Ø¹": 5762,
      "ĠØªØ¹Ø¯ÙĪØ§": 5763,
      "ĠØªÙĪØ§Ø¨Ø§": 5764,
      "ĠØªØ¹ÙĦÙĨÙĪÙĨ": 5765,
      "ĠØªÙĩÙĪÙī": 5766,
      "ĠØªÙĥØ±ÙĩÙĪØ§": 5767,
      "ĠØªÙĩÙĨÙĪØ§": 5768,
      "Ø¬Ùĩ": 5769,
      "Ø¬Ø¨": 5770,
      "Ø¬Ø§ÙĨ": 5771,
      "Ø¬Ø±ÙĪÙĨ": 5772,
      "Ø¬Ø±ÙĬ": 5773,
      "Ø¬ÙĪØ±Ø§": 5774,
      "Ø¬ÙĬÙĥÙħ": 5775,
      "Ø¬Ø²ÙĪÙĨ": 5776,
      "ĠÙĥØ®": 5777,
      "ĠÙĥÙĬÙĦ": 5778,
      "ĠÙĥÙĪÙĥ": 5779,
      "ĠÙĥØ¸ÙĬÙħ": 5780,
      "ĠÙĥÙĦØ§Ùħ": 5781,
      "ĠÙĥØ§Ø°Ø¨ÙĬÙĨ": 5782,
      "ĠÙĥØ¨Ø§Ø¦Ø±": 5783,
      "ĠÙĤÙĨ": 5784,
      "ĠÙĤÙħ": 5785,
      "ĠÙĤØ§Øª": 5786,
      "ĠÙĤÙĪØª": 5787,
      "ĠÙĤÙĪÙĦÙĩ": 5788,
      "ĠÙĤÙĬÙĦØ§": 5789,
      "ĠÙĤÙĪØ§Ø±": 5790,
      "ĠÙģÙĬÙħ": 5791,
      "ĠÙģÙĬØ£Ø®Ø°": 5792,
      "ÙħÙĨÙĬ": 5793,
      "ÙħÙĨÙĩ": 5794,
      "Ø®Ùģ": 5795,
      "Ø®ÙĦÙĬ": 5796,
      "Ø®Ø·": 5797,
      "Ø®ÙĬÙĦ": 5798,
      "Ø®ÙģÙĪÙĨ": 5799,
      "Ø®Ø³ÙĪØ§": 5800,
      "ØµØŃ": 5801,
      "ØµØ§Ø¨": 5802,
      "ØµØ¯Ø©": 5803,
      "ØµØŃØ§Ø¨": 5804,
      "ØµØ§Ùĥ": 5805,
      "ØµØŃÙĬÙĨ": 5806,
      "ĠØ±Ùħ": 5807,
      "ĠØ±Ø¯ÙĪØ§": 5808,
      "ĠØ±Ø¤ÙĬØ§": 5809,
      "ÙĩØ§Øª": 5810,
      "ÙĩØ§ÙĥÙħ": 5811,
      "Ø¶ÙĨ": 5812,
      "Ø¶ØªÙħ": 5813,
      "Ø¶Ø±Ø§": 5814,
      "Ø¶ÙĬØ§": 5815,
      "Ø¶ÙĪØ¯": 5816,
      "Ø²ÙĨ": 5817,
      "Ø²Ùĩ": 5818,
      "Ø²ÙĩÙħ": 5819,
      "Ø²Ø§Ø¡": 5820,
      "Ø²ÙĦÙĪØ§": 5821,
      "Ø²ÙĨÙĬ": 5822,
      "Ø§ÙĨÙĪØ§": 5823,
      "Ø§ÙĨØªÙĬÙĨ": 5824,
      "Ø´Ø§Ø¡": 5825,
      "Ø´ÙĪØ±": 5826,
      "Ø´ÙĤØª": 5827,
      "Ø´ÙĬÙĩÙħ": 5828,
      "ĠØ£ÙĨØ¨": 5829,
      "ĠØ£ÙĨØ·": 5830,
      "ĠØ£ÙĨØ¤ÙħÙĨ": 5831,
      "ĠØ£ÙĨØ¹Ø§Ùħ": 5832,
      "ĠØ£ÙĨØ¨Ø¦ÙĥÙħ": 5833,
      "ĠØ£ÙĨØ°Ø±ÙĪØ§": 5834,
      "ĠØ£ÙĨØ²ÙĦÙĩ": 5835,
      "ĠÙĪØ§ÙĦØ°Ø§": 5836,
      "ĠÙĪØ§ÙĦØ¢": 5837,
      "ĠÙĪØ§ÙĦØ±Ùĥ": 5838,
      "ĠÙĪØ§ÙĦØ¬ÙĨ": 5839,
      "ĠÙĨØ£": 5840,
      "ĠÙĨØ´Ø±Ùĥ": 5841,
      "ĠÙĨÙģØ¹": 5842,
      "ĠÙĨØ¨Ø¦": 5843,
      "ĠÙĨØ¨Ø¹Ø«": 5844,
      "ĠÙĨØŃÙĬÙĬ": 5845,
      "ĠÙĨØ¶ÙĬØ¹": 5846,
      "Ø§Ø¨ÙĤÙĪÙĨ": 5847,
      "ĠØ§ÙĦØ°ÙĦ": 5848,
      "ĠØ§ÙĦØ°ÙĨ": 5849,
      "ĠØ§ÙĦØ°Ø¦": 5850,
      "ÙĦÙħÙĪØ§": 5851,
      "ĠØ³ÙĬÙĨ": 5852,
      "ĠØ³ÙĦÙħ": 5853,
      "ĠØ³Ø¦": 5854,
      "ĠØ³Ø§Ø¯": 5855,
      "ĠØ³Ø¯Ø§": 5856,
      "ĠØ³ÙĨØª": 5857,
      "ĠØ³Ø§ÙĤ": 5858,
      "ĠØ³Ø§Ùħ": 5859,
      "Ø·Øª": 5860,
      "Ø·ÙħØ¹": 5861,
      "Ø·Ø¹Ø§Ùħ": 5862,
      "Ø·ÙĩØ±ÙĪÙĨ": 5863,
      "ÙĦÙĥÙĩ": 5864,
      "ÙĦÙĥÙĨØ§": 5865,
      "Ø«Ø§ÙĤ": 5866,
      "Ø¦ÙĪØ§": 5867,
      "Ø¦Ø§Ø¡": 5868,
      "ĠØ±Ø¨ÙĩÙħØ§": 5869,
      "ĠØ¢ÙĬØª": 5870,
      "ĠØ¢Ø°ÙĨ": 5871,
      "ĠØ¢ÙĨØ§Ø¡": 5872,
      "ÙĪÙĦÙĪØ¯": 5873,
      "ĠÙĪØ£Ø³": 5874,
      "ĠÙĪØ£Ø«": 5875,
      "ĠÙĪØ£Ø¹ÙĦÙħ": 5876,
      "ĠÙĪØ£ÙĨÙĬ": 5877,
      "ĠÙĪØ£Ø²ÙĦ": 5878,
      "ĠÙĪØ£Ø³Ø±": 5879,
      "ĠÙĪØ£ØŃÙĬ": 5880,
      "ĠÙĪØ£ØªØ¨Ø¹": 5881,
      "ĠÙĪØ£Ø¨ÙĨØ§": 5882,
      "ĠÙĪØ£Ø¯Ø¨Ø§Ø±": 5883,
      "ĠÙĪØ£Ø´Ø¯": 5884,
      "ĠÙĪØ£Ø¹ÙĨØ§Ø¨": 5885,
      "ĠÙĪØ£ÙĬÙĪØ¨": 5886,
      "ĠØ§ÙĦÙħØ±": 5887,
      "ĠØ§ÙĦÙħØŃ": 5888,
      "ĠØ§ÙĦÙħØ®": 5889,
      "ĠØ§ÙĦÙħØ«": 5890,
      "ĠØ§ÙĦÙħÙĩØ¯": 5891,
      "ĠØ§ÙĦÙħÙĩØª": 5892,
      "ĠØ§ÙĦÙħØŃÙĬ": 5893,
      "ĠØ§ÙĦÙħÙĪÙĦÙī": 5894,
      "ĠØ§ÙĦÙħØ´Ø±ÙĥÙĪÙĨ": 5895,
      "ĠØ§ÙĦÙħØ´Ø£": 5896,
      "ĠØ§ÙĦÙħØ®ÙĦÙģ": 5897,
      "ĠØ§ÙĦÙħÙĬÙħÙĨ": 5898,
      "ĠØ§ÙĦÙħÙĤØ³Ø·": 5899,
      "ĠØ§ÙĦÙħÙĤØ¯Ø³": 5900,
      "ĠØ§ÙĦÙħÙĬØ²Ø§ÙĨ": 5901,
      "ĠØŃØ§": 5902,
      "ĠØŃØ¨": 5903,
      "ĠØŃØ¯ÙĬØ¯": 5904,
      "ĠØŃØ·Ø§": 5905,
      "ĠØŃØ¸Ø§": 5906,
      "ĠØŃØ³Ø±Ø©": 5907,
      "ĠØŃÙĦÙĬØ©": 5908,
      "ĠØŃÙĦÙĬÙħØ§": 5909,
      "ØºÙĩ": 5910,
      "ØºÙĬØ«": 5911,
      "ØªÙħÙĪØ§": 5912,
      "ØªÙħØ¹ÙĪØ§": 5913,
      "ØªÙħØ³Ùĥ": 5914,
      "ĠÙĦØ§ÙģØª": 5915,
      "ĠØ¬ÙĩØ§": 5916,
      "ĠØ¬Ø¨ÙĦ": 5917,
      "ĠØ¬ÙħØ¹Ø§": 5918,
      "ĠØ¬Ø¨Ø§Ø±Ø§": 5919,
      "ĠØ¬ÙĩØ±Ø©": 5920,
      "ĠØ¹ÙĦÙĬØ§": 5921,
      "ĠØ®Ø§Ø¨": 5922,
      "ĠØ®ÙĦÙĬÙĦØ§": 5923,
      "ĠØ®Ø³Ø§": 5924,
      "ĠØ®Ø§Ø³": 5925,
      "ĠØ®ÙĦØ§ÙĤ": 5926,
      "ÙģØ±Ø©": 5927,
      "ÙĬÙħÙħÙĪØ§": 5928,
      "ĠØ´ØŃ": 5929,
      "ĠØ´Ø·": 5930,
      "ĠØ´Øº": 5931,
      "ĠØ´Ø£ÙĨ": 5932,
      "ĠØ´Ø±ÙĬÙĥ": 5933,
      "ĠØ´ÙĤÙĬØ§": 5934,
      "ĠØ§ÙĦØ£ÙħØ§": 5935,
      "ĠØ§ÙĦØ£Øµ": 5936,
      "ĠØ§ÙĦØ£ÙĦÙĪØ§": 5937,
      "ĠØ§ÙĦØ£ÙħÙĬÙĨ": 5938,
      "ĠØ§ÙĦØ£Ø¬Ø¯": 5939,
      "ĠØ§ÙĦØ£Ø³Ùģ": 5940,
      "ĠØ§ÙĦØ£ÙĬØ§Ùħ": 5941,
      "ĠØ§ÙĦØ£ÙĬÙħÙĨ": 5942,
      "ĠØ§ÙĦØ£ØºÙĦØ§ÙĦ": 5943,
      "ĠØ§ÙĦØ£Ø³Ø¨Ø§Ø¨": 5944,
      "ĠÙĪØ¥ÙĬØª": 5945,
      "ĠÙĪØ¥ÙĦÙĬÙĨØ§": 5946,
      "ĠÙĪØ¥Ø«ÙħØ§": 5947,
      "ĠÙĪØ¥ÙĦÙĬÙĥ": 5948,
      "ĠÙĪØ¥Ø³ØªØ¨Ø±ÙĤ": 5949,
      "Ø¸ÙĪÙĨ": 5950,
      "Ø¸Ø§Ùħ": 5951,
      "Ø±Ø§Ùģ": 5952,
      "Ø±Ø§ÙĩØ§": 5953,
      "ĠÙĪÙĦÙĬÙĨ": 5954,
      "ĠÙĪÙĦØ¨Ø§": 5955,
      "Ø¡Ø§": 5956,
      "Ø¢Ø¨": 5957,
      "ĠØ¨Ø§ÙĦØ®": 5958,
      "ĠØ¨Ø§ÙĦØ·": 5959,
      "ĠØ¨Ø§ÙĦØ¯ÙĬÙĨ": 5960,
      "ĠØ¨Ø§ÙĦØ£ÙĨ": 5961,
      "ĠØ¨Ø§ÙĦØ±ØŃÙħÙĨ": 5962,
      "ĠØ¨Ø§ÙĦØ®ÙĬØ±": 5963,
      "ĠØ¨Ø§ÙĦÙĦØºÙĪ": 5964,
      "ĠØ¨Ø§ÙĦÙĪØ§Ø¯": 5965,
      "ĠØ¨Ø§ÙĦÙĨØ§Ø³": 5966,
      "ĠØ¨Ø§ÙĦÙģØŃØ´Ø§Ø¡": 5967,
      "ĠØ°ÙĦ": 5968,
      "ĠØ°ÙĪØ§": 5969,
      "ĠØ°Ø§Ø¦": 5970,
      "ĠØ¹ÙĨÙĬØ¯": 5971,
      "ĠÙĥØ§ÙĨØªØ§": 5972,
      "ÙĬØ§Ø±Ø©": 5973,
      "ĠØ£ÙĪØª": 5974,
      "ĠØ£ÙĪÙģÙī": 5975,
      "ĠØ£ÙĪØ±Ø«": 5976,
      "ĠØ§ÙĦØ³Ø±": 5977,
      "ĠØ§ÙĦØ³Ø¨Ø¹": 5978,
      "ĠØ§ÙĦØ³Ø¯Ø³": 5979,
      "ĠØ§ÙĦØ³ÙģÙĬÙĨØ©": 5980,
      "Ø³ØªØºÙģØ±": 5981,
      "ĠÙĪÙĬØ¯": 5982,
      "ĠÙĪÙĬÙģ": 5983,
      "ĠÙĪÙĬØŃÙĤ": 5984,
      "ĠÙĪÙĬÙĥÙģØ±": 5985,
      "ĠÙĪÙĬØ°Ø±ÙĪÙĨ": 5986,
      "ĠÙĪÙĬØªØ®Ø°": 5987,
      "ĠÙĪÙĬØ«Ø¨Øª": 5988,
      "ĠØ§ÙĦØ±Ø´": 5989,
      "ĠØ§ÙĦØ±ÙĤØ§Ø¨": 5990,
      "ĠØ§ÙĦØ±Ø´Ø¯": 5991,
      "ĠØ§ÙĦØ±Ø¤ÙĬØ§": 5992,
      "ÙĬØ¯ÙĪØ§": 5993,
      "Ø¹ÙħÙĩÙħ": 5994,
      "Ø®Ø±Ø©": 5995,
      "Ø®Ø±Ø§Øª": 5996,
      "ĠÙĤÙĦØ¨Ùĥ": 5997,
      "Ø§Ø±Ùĩ": 5998,
      "ĠØ£ÙħÙĥ": 5999,
      "ĠØ£ÙħØ¯Ø§": 6000,
      "ĠØ§ÙĦØŃØ·": 6001,
      "ĠØ§ÙĦØŃÙĪØª": 6002,
      "ĠØ§ÙĦØŃØ¯ÙĬØ¯": 6003,
      "ĠØ§ÙĦØŃØ§ÙĤØ©": 6004,
      "ĠØ¯ÙģØ¹": 6005,
      "ĠØ¯Ø§Ùħ": 6006,
      "ĠØ¯ÙĥØ§": 6007,
      "ĠØ¯ÙħØª": 6008,
      "ĠÙģØ£Ø±Ø³": 6009,
      "ĠÙģØ£ÙĨØ³": 6010,
      "ĠÙģØ£Ø°ÙĨ": 6011,
      "ĠÙģØ£ØªÙĨØ§": 6012,
      "ĠÙģØ£ÙĪÙĦÙī": 6013,
      "ĠÙģØ£ÙĤÙĬÙħÙĪØ§": 6014,
      "ĠÙģØ£ÙĤØ¨ÙĦ": 6015,
      "ĠÙģØ£ÙħØ³Ùĥ": 6016,
      "ĠÙģØ£Ø¨Ùī": 6017,
      "ĠÙģØ£ØŃØ¨Ø·": 6018,
      "ĠÙģØ£Ø¹Ø±Ø¶ÙĪØ§": 6019,
      "ĠØ§ÙĦØ¹Ø³Ø±": 6020,
      "ĠØ§ÙĦØ¹Ø§Ø¬": 6021,
      "ĠØ§ÙĦØ¹Ø§ÙħÙĦÙĬÙĨ": 6022,
      "ĠØ§ÙĦØ¹Ø¸Ø§Ùħ": 6023,
      "ĠÙĪÙĤØ§": 6024,
      "ĠÙĪÙĤØ±": 6025,
      "ĠÙĪÙĤØª": 6026,
      "ĠÙĪÙĤØ¶": 6027,
      "ĠÙĪÙĤÙĪØ¯": 6028,
      "ĠÙĪÙĤÙĦÙĬÙĦ": 6029,
      "ĠÙĪÙĤÙģÙĬÙĨØ§": 6030,
      "ĠÙĪÙĤÙĪÙĦÙĩÙħ": 6031,
      "ĠÙĪÙĤÙĦØ¨Ùĩ": 6032,
      "ĠØ«ÙħØ±Ùĩ": 6033,
      "ĠØµÙħ": 6034,
      "ĠØµÙĪØ§": 6035,
      "ĠØµØº": 6036,
      "ĠØµÙĦØŃ": 6037,
      "ĠØµØ§Øº": 6038,
      "ĠØµØºÙĬØ±": 6039,
      "ĠØµØŃÙģ": 6040,
      "ĠØµØ§Ø¹ÙĤØ©": 6041,
      "ÙĩØ¯ÙĬÙĨ": 6042,
      "ÙĩØ¯ÙĨØ§": 6043,
      "ĠÙģØ¥Ø®ÙĪØ§ÙĨÙĥÙħ": 6044,
      "ĠØ§ÙĦÙĤÙĬÙĪÙħ": 6045,
      "ĠØ§ÙĦÙĤÙĪÙĬ": 6046,
      "ĠØ§ÙĦÙĤÙĪØ©": 6047,
      "ĠØ§ÙĦÙĤØ±Ø§Ø±": 6048,
      "ĠØ§ÙĦÙĤØ§Ø±Ø¹Ø©": 6049,
      "ĠØ§ÙĦÙĤØ±ÙĨÙĬÙĨ": 6050,
      "ÙģØ³Ø¯": 6051,
      "ĠÙĦÙĬØ§ÙĦ": 6052,
      "ĠÙĦÙĬØ²": 6053,
      "ĠÙĦÙĬØ¨ÙĬÙĨ": 6054,
      "ĠÙĦÙĬØ¸ÙĦÙħ": 6055,
      "ĠÙĦÙĬØ¬Ø¹ÙĦ": 6056,
      "ĠÙĦÙĬØ°ÙĥØ±ÙĪØ§": 6057,
      "ĠÙĦÙĬØŃØ²": 6058,
      "ĠÙĦÙĬØ£Ùĥ": 6059,
      "ĠÙĦÙĬØ¸ÙĩØ±Ùĩ": 6060,
      "ĠØ¨ÙĩÙĨ": 6061,
      "ĠØ¨ÙĩÙĬÙħØ©": 6062,
      "ĠØ§Ø¹ÙĦÙħÙĪØ§": 6063,
      "ĠØ§ÙĤØªÙĦÙĪØ§": 6064,
      "Ø±ÙĬÙĩÙħ": 6065,
      "Ø±ÙĬØŃ": 6066,
      "Ø±ÙĬØ¶": 6067,
      "Ø±ÙĬØªÙĩ": 6068,
      "ĠÙĪÙĥØªØ§Ø¨": 6069,
      "ĠØ§ÙĦÙĥØ§Ø°Ø¨ÙĪÙĨ": 6070,
      "Ø°Ø¨ØŃ": 6071,
      "ÙĤØ¯ÙĪÙĨ": 6072,
      "ĠÙĪØ¥ÙĨÙħØ§": 6073,
      "ĠÙĪØ¥ÙĨÙĥÙħ": 6074,
      "ĠØºØ¶": 6075,
      "ĠØºÙħØ±": 6076,
      "ĠØºÙĨÙĬØ§": 6077,
      "ĠØºØ±Ùģ": 6078,
      "ĠØºØ§ÙĦØ¨": 6079,
      "ĠÙĦÙĩÙĪØ§": 6080,
      "ÙĨÙĬØ³Ø±": 6081,
      "Ø±Ø¨Ùĥ": 6082,
      "ĠÙĬÙĪÙħÙĬÙĨ": 6083,
      "ĠØ§ÙĦÙĨØ§ÙĤØ©": 6084,
      "ĠØ§ÙĦÙĨØ§ØµØŃÙĬÙĨ": 6085,
      "Ø¨ÙĦÙĪ": 6086,
      "Ø¨ÙĦØ©": 6087,
      "Ø§Ø¦ÙĦ": 6088,
      "Ø§Ø¦Ø¨ÙĬÙĨ": 6089,
      "Ø§Ø¦ÙĨÙĬÙĨ": 6090,
      "Ø§Ø¦ÙģØ©": 6091,
      "ØªØ§Ø¨ÙĪØ§": 6092,
      "Ø¨ÙĬÙĨÙĪØ§": 6093,
      "Ø³ÙħÙĬØ¹": 6094,
      "ĠÙĥÙĦÙĩÙħ": 6095,
      "ĠÙĥÙĦØ¨ÙĩÙħ": 6096,
      "Ø¨Ø±Ùĩ": 6097,
      "ĠØ§ÙĦØµÙĬØ¯": 6098,
      "ĠØ§ÙĦØµÙĬØ§Ùħ": 6099,
      "ĠØ§ÙĦØµØŃÙģ": 6100,
      "ĠØ§ÙĦØµØ§Ø¹ÙĤØ©": 6101,
      "ĠÙĦÙħØŃ": 6102,
      "ĠÙĦÙħÙĬÙĤØ§Øª": 6103,
      "ĠÙĦÙħØ¬ÙĨÙĪÙĨ": 6104,
      "ĠÙģØ¥ÙĨÙĩØ§": 6105,
      "ÙĩÙĪÙĩ": 6106,
      "ĠÙħØ¹ÙĬÙĨ": 6107,
      "ĠÙħØ¹Ø´Ø±": 6108,
      "ĠÙħØ¹Ø§Ø¬": 6109,
      "ĠÙħØ¹ØªØ¯": 6110,
      "ĠÙĪØ§Ø¹Ø¨Ø¯ÙĪØ§": 6111,
      "ĠÙĪØ§ÙĤØ¹": 6112,
      "ĠÙĪØ§ÙĤØªÙĦÙĪÙĩÙħ": 6113,
      "ĠÙĪØ§ÙĩØ¬Ø±": 6114,
      "ĠØ¨Ø¹ØµØ§Ùĥ": 6115,
      "ĠÙĬØªÙĥ": 6116,
      "ĠÙĬØªÙĨØ§": 6117,
      "ĠÙĬØªØ¨ÙĬÙĨ": 6118,
      "ĠÙĬØªØ®Ø°ÙĪØ§": 6119,
      "ĠÙĬØªÙĪÙĦÙī": 6120,
      "ĠÙĬØªÙĪÙĥÙĦ": 6121,
      "ĠÙĬØªØ±Ø¨Øµ": 6122,
      "ĠÙĬØªÙĤØ¨ÙĦ": 6123,
      "ĠÙĥÙģØ±Ùĩ": 6124,
      "ÙĪØ¨ÙĪØ§": 6125,
      "ĠØ£ÙĬÙĩ": 6126,
      "ĠÙĬÙĨØ§ÙĦ": 6127,
      "ĠÙĬÙĨØ³": 6128,
      "ĠÙĬÙĨÙĩÙĪÙĨ": 6129,
      "ĠÙĬÙĨØ¨Ø¦ÙĩÙħ": 6130,
      "ĠÙĦÙĦØ£": 6131,
      "ĠÙĦÙĦØ®": 6132,
      "ĠÙĦÙĦØº": 6133,
      "ĠÙĦÙĦØ¯ÙĬÙĨ": 6134,
      "ĠÙĦÙĦØ´Ø§Ø±": 6135,
      "ĠÙĦÙĦØ¨Ø´Ø±": 6136,
      "ĠÙĦÙĦÙģÙĤØ±Ø§Ø¡": 6137,
      "ĠÙĪØªØ±": 6138,
      "ĠÙĪØªØ¨": 6139,
      "ĠÙĪØªÙĥÙĪÙĨ": 6140,
      "ĠÙĪØªØ®Ø±Ø¬": 6141,
      "ĠÙĪØªØ°Ø±ÙĪÙĨ": 6142,
      "ĠÙĪØ§ÙĦØ£ÙħØ±": 6143,
      "ĠÙĪØ§ÙĦØ£ÙĪÙĦÙī": 6144,
      "ĠÙĤØ¯Ø±ÙĪØ§": 6145,
      "ĠÙĬØŃÙħ": 6146,
      "ĠÙĬØŃØª": 6147,
      "ĠÙĬØŃØ´Ø±ÙĪÙĨ": 6148,
      "ĠÙĬØŃØ±ÙģÙĪÙĨ": 6149,
      "ĠÙĬØŃØ§ÙģØ¸ÙĪÙĨ": 6150,
      "Ø¹Ø§ÙģØ§": 6151,
      "Ø¬Ø±Ùĩ": 6152,
      "Ø¬Ø±ÙĨØ§": 6153,
      "ĠÙħÙĪØ«": 6154,
      "ĠÙħÙĪØ¹Ø¸Ø©": 6155,
      "ĠÙĬØ±Ùĩ": 6156,
      "ĠÙĬØ±Ùĥ": 6157,
      "ĠÙĬØ±Ø«": 6158,
      "ĠÙĬØ±Ø¯ÙĪÙĨ": 6159,
      "ĠÙĬØ±ÙħÙĪÙĨ": 6160,
      "ĠÙĬØ±ÙģØ¹": 6161,
      "ĠØ¬Ø§Ø¡ÙĨÙĬ": 6162,
      "ĠØ¬Ø§Ø¡ÙĪÙĩØ§": 6163,
      "ĠØ¬Ø§Ø¡ÙĪÙĥÙħ": 6164,
      "ĠØ¹Ø°Ø§Ø¨Ùĩ": 6165,
      "ÙĪÙģÙĬÙĨÙĥ": 6166,
      "ĠÙĬØ´ÙĥØ±": 6167,
      "ĠÙĬØ´Ø§ÙĤ": 6168,
      "ĠÙĬØ´ÙģØ¹": 6169,
      "ĠÙģØ§Ùĥ": 6170,
      "ĠÙģØ§Ø¬": 6171,
      "ĠÙģØ§Ø¹ÙĦÙħ": 6172,
      "ĠÙģØ§Ø¬Ø¹ÙĦ": 6173,
      "ĠÙģØ§Ø¹Ùģ": 6174,
      "ĠÙģØ§ÙĤØ±": 6175,
      "ĠÙģØ§ÙĥØªØ¨": 6176,
      "ĠÙĤØ¨ÙĦØ©": 6177,
      "ĠÙģÙĦÙĪ": 6178,
      "ĠÙģÙĦØ£": 6179,
      "ĠÙģÙĦÙĥÙħ": 6180,
      "ĠÙģÙĦØ¨Ø«": 6181,
      "ĠØ¹ÙĨØ¯ÙĥÙħ": 6182,
      "ĠØ¹ÙĨØ¯ÙĩØ§": 6183,
      "ĠØ£ØŃØ³": 6184,
      "ĠØ£ØŃÙĦØ§Ùħ": 6185,
      "Ø³ÙĨØªÙĥÙħ": 6186,
      "ĠØªØ±ÙĬØ¯": 6187,
      "ĠØªØ±ÙĪÙĩØ§": 6188,
      "ĠØ¸ÙĦ": 6189,
      "ĠØ¸ÙĨØ§": 6190,
      "ĠØ¸ÙĦÙĦ": 6191,
      "ĠØ§ÙĦÙĨØµØ±": 6192,
      "ĠØ§ÙĦÙĨÙĥØ§": 6193,
      "ĠØ§ÙĦÙĨØ´Ø£": 6194,
      "ĠÙĪÙĨÙħ": 6195,
      "ĠÙĪÙĨØŃ": 6196,
      "ĠÙĪÙĨÙĥÙĪÙĨ": 6197,
      "ĠÙĪÙĨØµØ±": 6198,
      "ĠÙĪÙĨØ¬ÙĬÙĨØ§": 6199,
      "ĠÙĪÙĨÙĪØŃØ§": 6200,
      "ĠÙĪÙĨØ²Ø¹ÙĨØ§": 6201,
      "ĠÙĪØ£ÙĨØ°Ø±": 6202,
      "ĠÙĪØ£ÙĨÙĩØ§Ø±": 6203,
      "ĠÙĪØ£ÙĨØ¨ØªÙĨØ§": 6204,
      "ĠØ·Ø±ÙĬ": 6205,
      "ĠØ·Ø¨Ø¹": 6206,
      "ĠØ·ÙĬØ±Ø§": 6207,
      "ĠØ·Ø±Ùģ": 6208,
      "ĠØ·Ø§Ø¹Ø©": 6209,
      "ĠØ®ÙĦÙĤÙĨØ§ÙĩÙħ": 6210,
      "ĠØ§ÙĦØ¬ÙĪØ§Ø±": 6211,
      "ØªÙĩØª": 6212,
      "ØªÙĩÙī": 6213,
      "ÙħÙĬØ©": 6214,
      "ĠØ¨Ø£ÙĬ": 6215,
      "ĠØ¨Ø£ÙĩÙĦÙĥ": 6216,
      "Ø¢Ø®Ø±ÙĬÙĨ": 6217,
      "ĠÙĬØ¹ÙĦÙħÙĩÙħ": 6218,
      "Ø§ÙģØ§": 6219,
      "Ø§ÙģØ§Øª": 6220,
      "Ø§ÙģÙĦÙĪÙĨ": 6221,
      "ĠÙĬØ£ØªÙĩÙħ": 6222,
      "ĠÙĬØ£Ø°ÙĨ": 6223,
      "ĠÙĬØ£ÙħØ±ÙĪÙĨ": 6224,
      "ĠØ£ÙģØ§Ø¡": 6225,
      "ĠÙģØªÙĪÙĦ": 6226,
      "ĠÙģØªØµØ¨ØŃ": 6227,
      "ĠÙģØªØŃØ±ÙĬØ±": 6228,
      "ĠÙģØªØ¨ÙĬÙĨÙĪØ§": 6229,
      "ĠØ¶ÙĬÙģ": 6230,
      "ĠØ¶Ø±Ùĩ": 6231,
      "ĠÙĦÙĥÙĦÙħØ§Øª": 6232,
      "Ø¬Ø¯ÙĨ": 6233,
      "ÙĤÙĪÙĨØ§": 6234,
      "ĠØ£ÙĩÙĦÙĩÙħ": 6235,
      "ĠÙĬÙĥØ³Ø¨": 6236,
      "ĠÙĬÙĥÙĦÙħÙĩÙħ": 6237,
      "ĠÙĪØ¹Øµ": 6238,
      "ĠÙĪØ¹ÙĬØ¯": 6239,
      "ĠÙĪØ¹ÙĦÙĬÙĩØ§": 6240,
      "ĠÙĦÙĨØ¨ÙĬ": 6241,
      "ĠÙĦÙĨØ±Ø§Ùĥ": 6242,
      "ĠÙĬØ¹Ø±Ø¶": 6243,
      "ĠÙĬØ¹Ø±Ø¶ÙĪÙĨ": 6244,
      "ÙģØ§Ùĩ": 6245,
      "ÙģØ§ÙĤ": 6246,
      "ĠØ¯ÙĪÙĨÙĬ": 6247,
      "ØªØ§Ùĩ": 6248,
      "ĠØªØŃÙĪÙĬÙĦØ§": 6249,
      "ÙģØªÙĬÙĨ": 6250,
      "ØµØ±Øª": 6251,
      "ØµØ±Ø®": 6252,
      "ØµØ±ÙģÙĪÙĨ": 6253,
      "ĠØ£Ø¬ÙĦØ§": 6254,
      "ĠØ£Ø¬Ø¹ÙĦ": 6255,
      "ĠØ£Ø¬ÙĬØ¨": 6256,
      "ĠØ£Ø¬ÙĦÙĩØ§": 6257,
      "ĠØ£Ø¬ÙħØ¹ÙĪÙĨ": 6258,
      "ĠØ³Ø¨ÙĬÙĦÙĬ": 6259,
      "ĠØ²Ø®Ø±": 6260,
      "ĠØ²ÙĦÙģ": 6261,
      "ĠÙħØ«ÙĨÙī": 6262,
      "ĠÙĪÙĦÙĥÙĨØ§": 6263,
      "ĠØ¨Ø¹Ø¶Ùĩ": 6264,
      "ĠØ¨Ø¹Ø¶ÙĨØ§": 6265,
      "ĠØ¨Ø¹Ø¶ÙĩØ§": 6266,
      "ĠØ§ÙĦØ®Ø·": 6267,
      "ĠØ§ÙĦØ®ÙħØ±": 6268,
      "ĠØ§ÙĦØ®ÙĨØ²ÙĬØ±": 6269,
      "ĠØ¢ÙĬØ§ØªÙĥ": 6270,
      "ĠÙĪÙħØ«ÙĦ": 6271,
      "ĠÙĪÙħÙĥØ±ÙĪØ§": 6272,
      "ĠÙĪÙħØ«ÙĦÙĩ": 6273,
      "ĠÙĪÙħØ¨Ø´Ø±Ø§": 6274,
      "ĠÙģØ±Ø¯Ø§": 6275,
      "ĠÙģØ±Ø§Øº": 6276,
      "ĠÙģØ±ØŃÙĪØ§": 6277,
      "ĠÙģØ±ØŃÙĪÙĨ": 6278,
      "ĠÙĬØ¯Ùĩ": 6279,
      "ĠÙĬØ¯Ø±ÙĬÙĥ": 6280,
      "ĠÙĬØ³ØªÙĨÙĥ": 6281,
      "ĠÙĬØ³ØªØ¬ÙĬØ¨": 6282,
      "ĠÙĬØ³ØªÙĤØ¯ÙħÙĪÙĨ": 6283,
      "ĠÙĬØ³ØªÙĪÙĪÙĨ": 6284,
      "ÙģÙĬÙĩØ§": 6285,
      "ĠØ§ÙĦØ¸ÙĦ": 6286,
      "ĠÙĬØ®ÙģÙĪÙĨ": 6287,
      "ĠÙĬØ®Ø³Ùģ": 6288,
      "ĠÙĪÙĦÙĪØ§ÙĦØ¯ÙĬ": 6289,
      "ĠÙĪØ±Ø¯": 6290,
      "ĠÙĪØ±Ø¨ÙĬ": 6291,
      "ĠÙĪØ±Ø£ÙĪØ§": 6292,
      "ĠÙĪØ±Ø§Ø¦ÙĩÙħ": 6293,
      "ĠØªÙĥØ§Ø¯": 6294,
      "ĠØªÙĥØ³Ø¨": 6295,
      "ĠÙĪØ¨ÙĨ": 6296,
      "ĠÙĪØ¨Ø«": 6297,
      "ĠÙĬØ³Ø£ÙĦÙĥÙħ": 6298,
      "ĠÙĬØ³ÙĪÙħÙĪÙĨ": 6299,
      "ĠÙĬØ³ØªÙħØ¹": 6300,
      "ĠÙĦØ£ÙħØ§": 6301,
      "ĠÙĦØ£Ø®": 6302,
      "ĠÙĦØ£Ø²ÙĪØ§Ø¬": 6303,
      "ĠÙĦØ£ÙĥÙģØ±": 6304,
      "ĠÙĦØ£ØŃØ¯": 6305,
      "ĠÙĦØ£Ø¬Ø±Ø§": 6306,
      "ĠÙĦØ£ÙĩÙĦÙĩ": 6307,
      "ĠÙħØ±ÙĪØ§": 6308,
      "ĠÙħØ±ÙģÙĪ": 6309,
      "ÙĬØªÙĨØ§": 6310,
      "ÙĬØªÙĩØ§": 6311,
      "ÙĬØªÙĨÙĬ": 6312,
      "ĠÙħØ³Ø·": 6313,
      "ĠÙħØ³Ø§Ùģ": 6314,
      "ĠÙħØ³Ø§Ø¬Ø¯": 6315,
      "ĠÙħØ³ØŃÙĪØ±Ø§": 6316,
      "ĠÙħØ³Ø®Ø±Ø§Øª": 6317,
      "ÙħØ³Ø©": 6318,
      "ÙħØ³ØŃÙĪØ§": 6319,
      "ĠØ§ÙĦØºÙħ": 6320,
      "ĠØ§ÙĦØºÙģØ§Ø±": 6321,
      "ĠØ§ÙĦØºÙħØ§Ùħ": 6322,
      "ĠÙĦÙĤÙĪÙĬ": 6323,
      "ĠÙĦÙĤÙĬØªÙħ": 6324,
      "ĠÙĦÙĤØ§ÙĦÙĪØ§": 6325,
      "ĠÙĦÙĤØ§Ø¯Ø±ÙĪÙĨ": 6326,
      "ĠØªØªØ°ÙĥØ±ÙĪÙĨ": 6327,
      "ĠØªØªÙģÙĥØ±ÙĪÙĨ": 6328,
      "ĠØªØ¹Ø±Ùģ": 6329,
      "ĠØªØ¹ÙģÙĪØ§": 6330,
      "ĠØªØ¹Ø¬ÙĦ": 6331,
      "ĠØªØ¹Ø§ÙĦÙī": 6332,
      "ĠÙĥØ°Ø¨ÙĪÙĨ": 6333,
      "ĠÙĥØ°Ø¨ÙĪÙĥ": 6334,
      "ĠØ§ÙĦØ¨ÙĤØ±": 6335,
      "ĠØ§ÙĦØ¨Ø·ÙĪÙĨ": 6336,
      "ĠØ§ÙĦØ¨Ø´Ø±Ùī": 6337,
      "ĠÙĪÙĦÙĬØ¹ÙĦÙħÙĨ": 6338,
      "ĠØ§Ø³ØªØ£Ø°ÙĨ": 6339,
      "ĠØ§Ø³ØªØºÙģØ±ÙĪØ§": 6340,
      "ĠÙĦØªØ¨ÙĬÙĨ": 6341,
      "ĠÙĦØªÙĥÙĪÙĨ": 6342,
      "ĠÙĦØªØ®Ø±Ø¬": 6343,
      "ĠÙĦØªØ±Ùĥ": 6344,
      "ĠÙĦØªØ¹ÙĦÙħÙĪØ§": 6345,
      "ĠÙĦØªØ¤ÙħÙĨÙĪØ§": 6346,
      "ĠØªØ¬Ø¹ÙĦÙĨØ§": 6347,
      "Ø®ÙĦØ¯ÙĪÙĨ": 6348,
      "ĠØªØ£ØªÙĬ": 6349,
      "ĠØ£Ø¹Ø±Ø¶ÙĪØ§": 6350,
      "ĠØªÙĨØªÙĩ": 6351,
      "ĠØªÙĨØ¨Øª": 6352,
      "ĠØªÙĨØµØ±ÙĪÙĨ": 6353,
      "ĠØ£ÙħØ±ÙĪØ§": 6354,
      "ĠØ£ÙħØ±ÙĩØ§": 6355,
      "Ø´Ø±ÙĥØ§Øª": 6356,
      "ĠÙģÙĤÙĪÙĦØ§": 6357,
      "ĠÙģÙĤØ§ØªÙĦÙĪØ§": 6358,
      "ĠÙĪØ¢ÙĦ": 6359,
      "ĠÙĪØ¢Ø«": 6360,
      "ĠÙĪØ¢ØªÙī": 6361,
      "Ø¨ØªÙĥÙħ": 6362,
      "ÙĦØŃÙĬÙĨ": 6363,
      "ĠÙħØ¨ÙĬÙĨØ©": 6364,
      "ĠÙħØ¨ÙĬÙĨØ§Øª": 6365,
      "ÙĦØªÙĨØ§": 6366,
      "ĠÙģÙħØ§Ø°Ø§": 6367,
      "ĠÙĬØ¬ÙĬØ±": 6368,
      "ĠÙĬØ¬Ø²ÙĬ": 6369,
      "ĠÙĬØ¬Ø²ÙĪÙĨ": 6370,
      "ĠÙĬØ¬ØŃØ¯": 6371,
      "ĠÙĬØ¬Ø²Ùī": 6372,
      "ĠÙĬØ¬Ø¹ÙĦÙĩ": 6373,
      "ĠÙĬØ¬ÙħØ¹ÙĪÙĨ": 6374,
      "ĠÙĬØ¬ØªØ¨ÙĬ": 6375,
      "ĠÙĪØ§ÙĦÙħØª": 6376,
      "ĠÙĪØ§ÙĦÙħØŃØµÙĨØ§Øª": 6377,
      "ĠÙĪØ§ÙĦÙħÙĩØ§Ø¬Ø±ÙĬÙĨ": 6378,
      "Ø¸Ø±ÙĨÙĬ": 6379,
      "ĠØ§ÙĦÙģÙĤØ±Ø§Ø¡": 6380,
      "ĠÙģÙĥØ£ÙĨ": 6381,
      "ĠÙģÙĥÙģØ±ÙĪØ§": 6382,
      "ĠØ£Ø®Øª": 6383,
      "ĠØ£Ø®Ø¨Ø§Ø±": 6384,
      "ĠØ®Ø§ÙĦØ¯Ø§": 6385,
      "ĠØ§ÙĦØµØ§ÙĦØŃÙĪÙĨ": 6386,
      "ĠÙĪØ³Ø§Ø¡": 6387,
      "ĠÙĪØ³Ø§Ø±": 6388,
      "ĠÙĪØ³Ø¨Ø¹": 6389,
      "ĠÙĪØ³ÙĦØ§Ùħ": 6390,
      "ĠÙĪØ³ÙĦØ·Ø§ÙĨ": 6391,
      "ÙĩØ¯ÙĬÙĩÙħ": 6392,
      "ĠÙģØ³Ø§Ø¯Ø§": 6393,
      "ĠÙĬÙĪØµÙĦ": 6394,
      "ĠÙĬÙĪØ¹Ø¸": 6395,
      "ĠÙĬÙĪØ²Ø¹ÙĪÙĨ": 6396,
      "ĠØªÙĤØ±": 6397,
      "ĠØªÙĤÙĬØ§": 6398,
      "ĠØªÙĤØ·Ø¹": 6399,
      "ĠØªÙĤØ§ØªÙĦÙĪÙĨ": 6400,
      "ĠØ£Ø³Ø³": 6401,
      "ĠØ£Ø³ÙģØ§": 6402,
      "ĠØ£Ø³ÙĦØŃ": 6403,
      "ĠØ£Ø³ÙĪØ©": 6404,
      "ĠØ£Ø³ÙħØ§Ø¡": 6405,
      "ĠØ£Ø³ÙģÙĦ": 6406,
      "ÙĪØ¬Ø³": 6407,
      "ĠØ¹Ø¨Ø§Ø¯ØªÙĩ": 6408,
      "ĠØ§ÙĦØ£ÙĨØ¨ÙĬØ§Ø¡": 6409,
      "ĠØ£Ø¨ÙĨØ§": 6410,
      "ĠØ£Ø¨Ùī": 6411,
      "ĠØ£ÙĨØ§Ø¨": 6412,
      "ØªØ¨ÙĩØ§": 6413,
      "ØªØ¨ØªÙħ": 6414,
      "Ø·Ø¹ÙĬÙĨ": 6415,
      "ĠØ±Ø¬Ø¹": 6416,
      "ĠØ±Ø¬Ø²": 6417,
      "ĠØ±Ø¬Ø²Ø§": 6418,
      "ĠØ¹ÙħØ¯": 6419,
      "ĠØ¹ÙħÙĦÙĥÙħ": 6420,
      "ĠØ³ÙĬØ¹ÙĦÙħÙĪÙĨ": 6421,
      "ĠØ³ÙĬØµÙĬØ¨": 6422,
      "ĠØ³ÙĬÙĩØ¯ÙĬÙĨ": 6423,
      "ĠÙģØ¨Ø´Ø±ÙĩÙħ": 6424,
      "ĠØµØ¯ÙĤØ§Øª": 6425,
      "ĠØµØ¯Ø±Ùĩ": 6426,
      "ĠÙĬØ¤ØªÙĬ": 6427,
      "ĠØªØ®ÙģÙĬ": 6428,
      "ÙĦØ§ÙĦØ©": 6429,
      "ĠÙĬÙĤØ§ÙĦ": 6430,
      "ĠÙĬÙĤÙĬÙħØ§": 6431,
      "ĠØ¨ÙĥÙĦÙħØ§ØªÙĩ": 6432,
      "ĠÙħØ³ØªÙĩÙħ": 6433,
      "ĠØ£ØªÙĤÙĪÙĦÙĪÙĨ": 6434,
      "ĠØ£ØªØ£ØªÙĪÙĨ": 6435,
      "ĠÙĦØ¹ÙĨ": 6436,
      "ĠÙĦØ¹Ø¨": 6437,
      "ĠÙĦØ¹ÙĦÙĩ": 6438,
      "ĠÙĦØ¹ÙĦÙī": 6439,
      "ĠÙĦØ¹ÙĨØª": 6440,
      "ØŃÙĬÙĪÙĨ": 6441,
      "ØŃÙĬÙī": 6442,
      "ĠØªØ¯Ø¹ÙĪØ§": 6443,
      "ĠØ¸ÙĦÙħØª": 6444,
      "ĠØ¸ÙĦÙħÙĩÙħ": 6445,
      "ĠØ¸ÙĦÙħÙĨØ§ÙĩÙħ": 6446,
      "ĠØ¨ÙĬØ¹": 6447,
      "ĠØ¨ÙĬØªÙĬ": 6448,
      "ĠÙĤØ¨ÙĦÙĬ": 6449,
      "ĠØ£Ø±Ø¯ØªÙħ": 6450,
      "ĠÙĬØµÙĦØŃ": 6451,
      "ĠÙĨØ³ÙĬØ§": 6452,
      "ĠÙĨØ³ÙĬØª": 6453,
      "ĠÙĨØ³Ø§Ø¦ÙĩÙħ": 6454,
      "ĠÙĨØ³Ø§Ø¡ÙĩÙħ": 6455,
      "ĠÙĨØ³Ø§Ø¡ÙĥÙħ": 6456,
      "ĠØ§ÙĦØ·ÙĬÙĨ": 6457,
      "ĠØ§ÙĦØ·Ø±Ùģ": 6458,
      "ĠÙħÙĦÙĥÙĩ": 6459,
      "ĠØ£Ø´ÙĩØ¯": 6460,
      "ÙħØªØ¹": 6461,
      "ĠÙħØªØ®Ø°": 6462,
      "ĠÙħØªØ±Ùģ": 6463,
      "ĠÙħØªØ¹ÙĨØ§": 6464,
      "ĠÙĬØºØ´": 6465,
      "Ø§ÙĩØ¯ÙĪÙĨ": 6466,
      "ĠØ¹Ø¯Ø¯": 6467,
      "ĠØ¹Ø¯ÙĨØ§": 6468,
      "ĠØ¹Ø¯Ø¯Ø§": 6469,
      "Ø¶Ø±Ø©": 6470,
      "ĠÙĪØŃÙģ": 6471,
      "ĠÙĪØŃØ´Ø±": 6472,
      "Ø·Ø§Ø³": 6473,
      "ĠØ§ÙĨÙĤÙĦØ¨": 6474,
      "ĠØ§ÙĨØ¸Ø±ÙĪØ§": 6475,
      "ĠØ§ÙĨÙģØ±ÙĪØ§": 6476,
      "ĠØ§ÙĨØ·ÙĦÙĤ": 6477,
      "ĠØ§ÙĨÙĤÙĦØ¨ÙĪØ§": 6478,
      "ĠØªØ³Ø¹": 6479,
      "ĠØªØ³Ø±ÙĪÙĨ": 6480,
      "ĠØªØ³Ø¹Ùī": 6481,
      "ĠØªØ³Ø£ÙĦÙĪØ§": 6482,
      "ĠØªØ´ÙĩØ¯": 6483,
      "ĠØªØ´ØªØ±ÙĪØ§": 6484,
      "ĠØªØ´ÙĩØ¯ÙĪÙĨ": 6485,
      "ĠØ¬Ø¹ÙĦÙĪØ§": 6486,
      "ĠØ¬ÙħÙĬØ¹": 6487,
      "ĠÙĪØ§ÙĦÙĨÙĪØ±": 6488,
      "ĠÙĪØ§ÙĦÙĨØ®ÙĦ": 6489,
      "ĠÙĪØ§ÙĦÙĨØ¨ÙĪØ©": 6490,
      "ĠÙĪØ§Øº": 6491,
      "ĠÙĦÙĦÙĨØ§Ø¸Ø±ÙĬÙĨ": 6492,
      "ĠØŃÙħØ¥": 6493,
      "ĠØ£Ø¯ÙĦÙĥÙħ": 6494,
      "ĠÙģØ¶ÙĦÙĪØ§": 6495,
      "ĠÙģØ¶Ø±Ø¨": 6496,
      "Ø°ÙĬÙĤÙĩÙħ": 6497,
      "ĠÙĨØµÙģ": 6498,
      "ĠÙĨØµØ±Ø§": 6499,
      "ĠÙħÙĥÙĨØ§": 6500,
      "ĠÙħÙĥÙĨØ§ÙĩÙħ": 6501,
      "ĠÙħÙĥÙĨÙĪÙĨ": 6502,
      "ĠØ£Ø¬Ø±Ùĩ": 6503,
      "ĠØ£Ø¬Ø±ÙħÙĪØ§": 6504,
      "Ø³Ø·ÙĪØ§": 6505,
      "ĠØ¨Ø±Ø²": 6506,
      "ĠØ¨Ø±Ø§Ø¡": 6507,
      "ĠØ¨Ø±ØŃÙħ": 6508,
      "ĠÙĪÙĤØ¯Ø±": 6509,
      "ĠÙģØ§ÙĨÙģ": 6510,
      "ĠÙĬØ¨Ø®ÙĦ": 6511,
      "ĠØ¨Ø¥ØŃØ³Ø§ÙĨ": 6512,
      "ĠØŃØ±ÙħØ§": 6513,
      "ĠØŃØ±ÙħØª": 6514,
      "ĠÙĪØ¬Ø¹ÙĦÙĨØ§Ùĩ": 6515,
      "ĠÙĪØ¬Ø¹ÙĦÙĨØ§ÙĩØ§": 6516,
      "ĠÙĪØ²Ø§Ø¯": 6517,
      "ĠØ£ÙĤÙħ": 6518,
      "ĠÙĬÙĩØ¯ÙĬÙĩÙħ": 6519,
      "Ø·Ø±Øª": 6520,
      "ĠØ±Ø²ÙĤÙĩØ§": 6521,
      "ĠØ¢Ø¨Ø§Ø¦ÙĩÙħ": 6522,
      "ĠØ¢Ø¨Ø§Ø¡ÙĥÙħ": 6523,
      "ĠØ¢ØªÙĬÙĨØ§ÙĥÙħ": 6524,
      "ĠØ¬Ø¹ÙĦÙĨØ§Ùĥ": 6525,
      "ĠØ¬Ø¹ÙĦÙĨØ§ÙĩØ§": 6526,
      "ĠÙģØ£ÙĨØ²ÙĦ": 6527,
      "ĠÙģØ£ÙĨØ²ÙĦÙĨØ§": 6528,
      "ĠØ¬Ø²Ø§Ø¤Ùĩ": 6529,
      "ĠØ§ÙĦØªÙĤÙī": 6530,
      "ĠÙĨØ¨Ø¥": 6531,
      "ØŃÙĥÙħØ©": 6532,
      "ĠÙĥØ§ÙĦÙħ": 6533,
      "ĠÙĥØ§ÙĦØ¹": 6534,
      "ĠÙĥØ§ÙĦØ£": 6535,
      "ĠÙĥØ§ÙĦÙħÙĩÙĦ": 6536,
      "ĠØ±Ø£Ø³Ùĩ": 6537,
      "ĠÙģØ§Ø³ØªØºÙģØ±": 6538,
      "ĠÙģØ§Ø³ØªØ¬Ø§Ø¨": 6539,
      "ĠÙģØ§Ø³ØªØ¨ÙĤÙĪØ§": 6540,
      "ØªÙĦØ·": 6541,
      "ĠÙģØ§ØªÙĥÙħ": 6542,
      "ĠÙģÙĪÙĤÙĩØ§": 6543,
      "ĠØ£Ø¹ÙħØ§ÙĦÙĨØ§": 6544,
      "ĠØªØ¨Ø®Ø³ÙĪØ§": 6545,
      "Ø´ÙĬØ§Ø·ÙĬÙĨ": 6546,
      "ĠØ§ÙĦÙħÙĨØ¸Ø±ÙĬÙĨ": 6547,
      "ĠÙĪÙģÙĬÙĩØ§": 6548,
      "ĠÙĨØ°ÙĤÙĩ": 6549,
      "ĠØŃÙĤÙĩ": 6550,
      "ĠØ§ØªØ¨Ø¹Øª": 6551,
      "ĠØ§ØªØ¨Ø¹ÙĪÙĩ": 6552,
      "ĠÙĪÙĩÙĦ": 6553,
      "ĠÙĪÙĩØ¨": 6554,
      "ĠÙĪØ±Ø¨ÙĨØ§": 6555,
      "ĠÙĦØ¢Øª": 6556,
      "ĠÙĬØ®Ø±Ø¬ÙĥÙħ": 6557,
      "ĠØªØ³ØªØºÙģØ±": 6558,
      "ĠØªØ³ØªÙĥØ¨Ø±ÙĪÙĨ": 6559,
      "ĠÙĥØ³Ø¨ØªÙħ": 6560,
      "ĠØ£Ø®Ø°ØªÙĩÙħ": 6561,
      "ĠÙĨÙģØ¹ÙĦ": 6562,
      "ĠÙĪØ¨ÙĬÙĨÙĩ": 6563,
      "ĠÙģØ§Ø³ÙĦÙĥ": 6564,
      "ĠÙģØ¹ÙĦÙĬÙĩØ§": 6565,
      "ĠÙĬØ¶Ø¹ÙĨ": 6566,
      "ĠÙĬØ¶ØŃÙĥÙĪÙĨ": 6567,
      "ĠØ³ÙħØ¹ÙĩÙħ": 6568,
      "ĠÙħØ¯Ø±Ø§Ø±Ø§": 6569,
      "ĠÙħØ¯ØŃÙĪØ±Ø§": 6570,
      "ĠÙħØ¯Ø®ÙĦØ§": 6571,
      "Ø§Ø´Ø±ÙĪÙĩÙĨ": 6572,
      "ĠØ´Ø±ÙĥØ§Ø¡ÙĥÙħ": 6573,
      "ĠØ´Ø±ÙĥØ§Ø¦ÙĥÙħ": 6574,
      "ÙĪØ³ÙĪØ³": 6575,
      "Ø¹ÙĬÙĨÙĪØ§": 6576,
      "ĠÙģÙĨØ¬ÙĬÙĨØ§Ùĩ": 6577,
      "ĠÙĬÙģØªÙĨÙĪÙĨ": 6578,
      "ĠØ¨Ø³ÙĦØ§Ùħ": 6579,
      "ĠÙĪØµØ§ØŃØ¨": 6580,
      "ĠÙħØ¨ØµØ±Ø§": 6581,
      "ĠÙħØ¨ØµØ±Ø©": 6582,
      "ĠÙĨÙĥØ±Ø§": 6583,
      "ĠÙĨÙĥÙĦÙģ": 6584,
      "ĠÙħØµÙĬØ±Ø§": 6585,
      "ĠÙħØµÙģØ±Ø§": 6586,
      "ĠÙĬØ²Ø§ÙĦ": 6587,
      "ÙĤØ§ØªÙĦ": 6588,
      "ĠÙĪØ§ÙĦØ³ÙĦÙĪÙī": 6589,
      "ĠÙĪØ§ÙĦØ³ÙħØ§ÙĪØ§Øª": 6590,
      "ĠÙĨØ´Ø£": 6591,
      "ĠÙĨØ´ÙĪØ±Ø§": 6592,
      "ĠØ³ÙĨØ¨": 6593,
      "ĠØ³ÙĨØ¯Ø³": 6594,
      "ĠÙĬÙĥÙģØ±ÙĪØ§": 6595,
      "ĠÙĪÙĦÙĩÙĪ": 6596,
      "ĠÙĪØ®ÙĬØ±": 6597,
      "ĠØ§ÙĦØ£ÙħÙĪØ§ÙĦ": 6598,
      "ĠÙĪØ§ÙĦØ´ÙĩØ¯Ø§Ø¡": 6599,
      "ÙĨÙĪØ§ÙĨ": 6600,
      "ÙĪØ¹ÙĬØ¯": 6601,
      "ĠÙģØ¬ÙħØ¹": 6602,
      "ĠÙģØ¹ÙĦØª": 6603,
      "ĠØ¬Ø¦ÙĨØ§Ùĥ": 6604,
      "ĠØ®ÙĦÙģØ§Ø¡": 6605,
      "ĠØ´ÙĥÙĪØ±Ø§": 6606,
      "ĠÙģØ£ØµÙĦØŃÙĪØ§": 6607,
      "ĠÙģØ£Ø®Ø°ÙĨØ§Ùĩ": 6608,
      "ĠØ§ØªØ®Ø°Øª": 6609,
      "ĠÙĥØªØ¨ÙĨØ§": 6610,
      "ĠÙĪÙĤÙĦÙĪØ¨ÙĩÙħ": 6611,
      "ĠØ£ØµØ§Ø¨Ùĥ": 6612,
      "Ø¹ÙĪØ¯Ø§": 6613,
      "ĠØ£ØºÙĨÙĬØ§Ø¡": 6614,
      "ĠÙĬØ·Ø¹Ùħ": 6615,
      "ĠÙĬØ·Ø¨Ø¹": 6616,
      "ĠØ¨ÙĤÙĪÙħ": 6617,
      "ĠØ¨ÙĤØ§Ø¯Ø±": 6618,
      "ĠØ¹ØµÙĪØ§": 6619,
      "ĠØ¹ØµØ¨Ø©": 6620,
      "ĠØ¹ØµØ§Ùĩ": 6621,
      "ĠØ¹ØµØ§Ùĥ": 6622,
      "ĠØªÙħÙĬØ¯": 6623,
      "Ø§Ø«Ø§": 6624,
      "ĠØ¢ØªÙĬØªÙħ": 6625,
      "ĠÙĪØ¬Ø§Ø¡Øª": 6626,
      "ĠÙĪØ¬Ø§Ø¡ÙĪØ§": 6627,
      "ĠÙĪØ¬Ø§Ø¡ÙĩÙħ": 6628,
      "ĠØ§Ø®Ø±Ø¬": 6629,
      "ĠÙĪØ§Ø¨ÙĦ": 6630,
      "ĠÙĪØ§Ø¨ØªØºÙĪØ§": 6631,
      "ĠÙģØ¢ÙħÙĨ": 6632,
      "ĠØ¨Ø®ÙĦÙĤ": 6633,
      "ĠØ¨Ø®ÙĦØ§ÙĤ": 6634,
      "ĠØ¨Ø®Ø§Ø±Ø¬": 6635,
      "ĠØ¥ÙĬÙħØ§ÙĨÙĩØ§": 6636,
      "ĠÙĥØ£ÙĨÙħØ§": 6637,
      "ĠÙĥØ£ÙĨÙĩØ§": 6638,
      "Ø´Ø£ÙĨØ§": 6639,
      "ĠÙĪØ§ÙĦØµÙĦØ§Ø©": 6640,
      "ĠØ¨Ø§ÙĦØºØ¯ÙĪ": 6641,
      "ĠØ§ÙĦØ¨Ø±ÙĤ": 6642,
      "ĠÙĪÙĪÙĬÙĦ": 6643,
      "ĠÙĪÙĪØµÙĬÙĨØ§": 6644,
      "ĠØ£ÙĦÙĤÙĬ": 6645,
      "ĠØ¨ÙĨØµØ±Ùĩ": 6646,
      "ĠÙĪÙĬØ³ØªØ®ÙĦÙģ": 6647,
      "ĠÙĪÙĬØ³ØªØ¹Ø¬ÙĦÙĪÙĨ": 6648,
      "ĠÙĪÙĬØ³ØªØŃÙĬÙĪÙĨ": 6649,
      "ĠØ¯Ø¹ÙĪØª": 6650,
      "ĠÙħÙĥØ§ÙĨÙĩ": 6651,
      "ĠÙĪØ·Ø¹Ø§Ùħ": 6652,
      "ĠÙĪØ·Ø§Ø¦ÙģØ©": 6653,
      "ĠÙħÙĬØ«Ø§ÙĤØ§": 6654,
      "ĠØ¨Ø¯ÙĦÙĨØ§": 6655,
      "ĠÙĨØµØ±ÙĩÙħ": 6656,
      "ĠÙĨØµØ±ÙĥÙħ": 6657,
      "ĠØŃØ¬Ø©": 6658,
      "ĠÙĪÙĬØ¹ÙĦÙħÙĩÙħ": 6659,
      "ĠÙĪÙĬØ¹ÙĦÙħÙĥÙħ": 6660,
      "ĠØ²ÙĬÙĨØªÙĩÙĨ": 6661,
      "ĠÙĪÙĬØ±ÙĬØ¯": 6662,
      "ĠÙĪÙĬØ±ÙĬØ¯ÙĪÙĨ": 6663,
      "ĠÙħÙĥØ±ÙĪØ§": 6664,
      "ĠÙħÙĥØ±ÙħÙĪÙĨ": 6665,
      "Ø¯Ø®ÙĦÙĥÙħ": 6666,
      "ĠÙģØµÙĦÙĨØ§": 6667,
      "ĠÙĬØ¨Ø¯Ø¦": 6668,
      "ĠÙĬØ¨Ø¹Ø«ÙĩÙħ": 6669,
      "Ø¶Ø¹ÙģÙĪÙĨ": 6670,
      "ĠØ³Ø¨Ø¹Ø©": 6671,
      "ĠÙĪØ£ÙĤÙħ": 6672,
      "ĠÙĪØ£ÙĤÙĪÙħ": 6673,
      "ĠÙĬÙĨÙģØ¹ÙĨØ§": 6674,
      "ĠØ¶Ø±Ø¨ÙĪØ§": 6675,
      "ĠØ¶Ø±Ø¨ÙĨØ§": 6676,
      "ĠØ¶Ø±Ø¨ØªÙħ": 6677,
      "ĠØ§Ø«ÙĨ": 6678,
      "ĠØ§ÙĦØ¨ÙĬØ¹": 6679,
      "ĠÙĪØ§ØµØ¨Ø±ÙĪØ§": 6680,
      "ĠÙģÙĬÙĨØ¨Ø¦ÙĩÙħ": 6681,
      "ĠÙĬÙħØ³Ø³Ùĥ": 6682,
      "ĠÙĥÙĬØ¯ÙĩÙħ": 6683,
      "ĠÙĤØªÙĦØª": 6684,
      "Ø¶Ø§Ø¹Ùģ": 6685,
      "Ø¶Ø§Ø¬Ø¹": 6686,
      "Ø¶Ø¹Ùĩ": 6687,
      "ĠØ§ÙĦØ±Ø¬Ø²": 6688,
      "ĠØ§Ø³ØªÙħØª": 6689,
      "ĠØ§ÙħØ±Ø£Ø©": 6690,
      "ĠÙĪÙģØ¶": 6691,
      "ĠÙĪÙģØ¬Ø±ÙĨØ§": 6692,
      "ĠÙĪØ´ÙĩØ¯ÙĪØ§": 6693,
      "ĠÙħØ§ÙĦÙĥ": 6694,
      "ĠØ£Ø±Ø¶ÙĨØ§": 6695,
      "ĠØ£Ø±Ø¶ÙĥÙħ": 6696,
      "Ø¬Ø²ÙĬÙĩÙħ": 6697,
      "ĠØ³Ø¹Ùī": 6698,
      "Ø·ÙĩØ±ÙĥÙħ": 6699,
      "ĠØŃØ³Ø¨ÙĨØ§": 6700,
      "ĠØŃØ³Ø¨ØªÙħ": 6701,
      "ØªÙħÙĪÙĨØ§": 6702,
      "ĠÙĬØ±Ø¯ÙĪÙĥÙħ": 6703,
      "ĠØ£Ø±Ø¨Ø¹": 6704,
      "ĠØ£Ø±Ø¨Ø§Ø¨Ø§": 6705,
      "ĠØ£ØªØ§ÙĥÙħ": 6706,
      "ĠØ£ØªØ§ÙĩØ§": 6707,
      "ĠÙĤØ§Ø¦ÙĦ": 6708,
      "ĠÙĤØ§Ø¦Ùħ": 6709,
      "ĠÙĤØªÙĦØªÙħ": 6710,
      "Ø²Ø¹ØªÙħ": 6711,
      "ĠØ£ÙĪØŃÙī": 6712,
      "ĠÙĪØ§ÙĨØª": 6713,
      "ĠÙĪØ§Ø±ØŃÙħÙĨØ§": 6714,
      "ĠØ£ÙĬÙĨÙħØ§": 6715,
      "ĠÙĬÙĩØ¯ÙĬÙĨ": 6716,
      "ĠØ¹ÙĩØ¯ÙĩÙħ": 6717,
      "ĠØ³Ø¬ÙĬÙĦ": 6718,
      "ĠÙĪÙĬÙĦØªÙī": 6719,
      "ĠÙĪØ¹ÙĨØ¯": 6720,
      "ĠÙĪØ¹ÙĨØ¯Ùĩ": 6721,
      "ĠÙĪØ¹ÙĨØ¯ÙĩÙħ": 6722,
      "ĠÙĬÙģÙĤÙĩÙĪÙĩ": 6723,
      "ĠØ§Ø±Ø¬Ø¹ÙĪØ§": 6724,
      "ĠÙĪÙģØ±ÙĬÙĤØ§": 6725,
      "ĠÙĪØ§Ø¯Ø®ÙĦÙĪØ§": 6726,
      "ĠØ£ÙħØ§ÙĨÙĬ": 6727,
      "ĠÙģØ§Ø±ØªÙĤ": 6728,
      "ĠÙĦØ¬ÙĩÙĨÙħ": 6729,
      "ĠÙĬØ¸ÙĩØ±": 6730,
      "ĠÙĬØ¸ÙĩØ±ÙĪØ§": 6731,
      "ĠÙĬÙĦÙĤÙĬ": 6732,
      "ĠÙĬÙĦÙĤÙĪÙĨ": 6733,
      "ĠÙĬÙĦÙĤÙī": 6734,
      "ĠÙĬÙĦÙĤØ§ÙĩØ§": 6735,
      "ÙĤØ·Ø¹ÙĪÙĨ": 6736,
      "ĠØ£ÙĨØ¹ÙħÙĨØ§": 6737,
      "ĠÙĨØ²Øº": 6738,
      "ĠØ³Ø®Ø±ÙĪØ§": 6739,
      "ĠØ³Ø®Ø±ÙĬØ§": 6740,
      "ĠÙĪØ£ÙĥÙĦÙĩÙħ": 6741,
      "ĠÙĪØ£ÙĥÙĪØ§Ø¨": 6742,
      "ĠÙĪØ£Ø®Ø§Ùĩ": 6743,
      "ĠØ§Ø¦Øª": 6744,
      "ĠØ£ÙĦÙĨ": 6745,
      "ĠØ£ÙĦØ³ÙĨØªÙĩÙħ": 6746,
      "Ø¯Ø¹ÙĪÙĩÙħ": 6747,
      "ĠÙĬØ¶Ø±ÙĪØ§": 6748,
      "ĠÙĬØ¶Ø±ÙĩÙħ": 6749,
      "ĠÙĬØ¶Ø±ÙĥÙħ": 6750,
      "ĠÙĪØ§ÙĦÙĥØ§ÙģØ±ÙĪÙĨ": 6751,
      "ĠØ³Ø£ÙĦØª": 6752,
      "ĠÙĪØ£Ø¨ØµØ±": 6753,
      "ĠÙĪØ£ÙĦÙĤÙī": 6754,
      "ĠØ§ÙĦÙħØªÙĪÙĥÙĦÙĪÙĨ": 6755,
      "ĠÙĪÙĬØŃÙĦ": 6756,
      "ĠÙĪÙĬØŃØ³Ø¨ÙĪÙĨ": 6757,
      "ĠÙĥÙĦÙħØ§Øª": 6758,
      "ĠÙħÙĪØ§Ø¶Ø¹Ùĩ": 6759,
      "ĠØ£ÙģØ±Øº": 6760,
      "ĠÙĦØŃØ§ÙģØ¸ÙĪÙĨ": 6761,
      "ĠÙĬØ¹Ø¯ÙĩÙħ": 6762,
      "ĠØªØ·ØºÙĪØ§": 6763,
      "ĠØªØ·ÙĦØ¹": 6764,
      "ĠÙĨÙĪØ±Ùĩ": 6765,
      "ĠØ³Ø±Ø§Ø¬Ø§": 6766,
      "ĠÙĪÙĦØ¹Ø¨Ø§": 6767,
      "ĠÙģØ£ÙĦÙĤÙĪØ§": 6768,
      "ĠÙģØ£ÙĦÙĤÙī": 6769,
      "ĠÙħØ¹ÙĬØ´": 6770,
      "ĠÙĬØªÙĪØ¨ÙĪÙĨ": 6771,
      "ĠØªØŃØ²ÙĨÙĪØ§": 6772,
      "ĠÙĦØ£ÙĨÙģØ³ÙĩÙħ": 6773,
      "ĠÙĨØµÙĬØ¨ÙĩÙħ": 6774,
      "ĠØ§ÙĦÙģØ±ÙĬÙĤÙĬÙĨ": 6775,
      "ĠÙĪØ±Ø¶ÙĪØ§ÙĨØ§": 6776,
      "ĠÙħØºØ§ÙĨÙħ": 6777,
      "ĠÙĬØµØ¯ÙģÙĪÙĨ": 6778,
      "ĠØ¹Ø§ÙħÙĦÙĪÙĨ": 6779,
      "ĠØªÙħØ³ÙĪÙĩØ§": 6780,
      "ĠØªÙħØ³ÙĪÙĩÙĨ": 6781,
      "ĠÙĨÙĤØ¶": 6782,
      "ĠÙģØ§Ø¹Ø¨Ø¯ÙĪÙĨ": 6783,
      "ĠØ¨Ø£ÙħÙĪØ§ÙĦÙĥÙħ": 6784,
      "ĠØ£ÙģØ£ÙħÙĨ": 6785,
      "ĠÙĪØ±Ø²ÙĤÙĥÙħ": 6786,
      "ĠÙĪØ±Ø²ÙĤÙĨØ§ÙĩÙħ": 6787,
      "ĠØªØ®ÙģÙĪÙĩ": 6788,
      "ĠÙĪØ§Ø®Ø´ÙĪÙĨ": 6789,
      "ĠÙĪØ§Ø®ÙģØ¶": 6790,
      "ĠÙĪØ§Ø³ØªØºÙģØ±ÙĪØ§": 6791,
      "ĠÙħØ±ÙĬØ¶Ø§": 6792,
      "Ø£ÙĥÙĦ": 6793,
      "ĠØªÙĦÙĤÙģ": 6794,
      "ĠØªÙĦÙĤØ§Ø¡": 6795,
      "ĠØªÙĤØ¯ÙĬØ±": 6796,
      "ĠÙĪÙĦØ¹ÙĦÙĩÙħ": 6797,
      "ĠÙĪÙĬØ¬Ø¹ÙĦÙĪÙĨ": 6798,
      "ĠØ§ÙĦÙĤØ¯Ø±": 6799,
      "ĠÙĪØ¬ÙĨÙĪØ¯": 6800,
      "ĠØ¨Ø¹Ø¨Ø§Ø¯ÙĬ": 6801,
      "ĠÙĬØªÙĪÙģÙĪÙĨ": 6802,
      "ĠÙģØ¬Ø¹ÙĦÙĨØ§Ùĩ": 6803,
      "ĠÙħÙĦØ¬": 6804,
      "ĠÙħÙĤØªØ§": 6805,
      "ĠÙģØ¯ÙĬØ©": 6806,
      "ĠÙģØ®ÙĦÙĤ": 6807,
      "ĠÙģØ®ÙĪØ±": 6808,
      "ĠÙģØ³Ø¨ØŃØ§ÙĨ": 6809,
      "ĠØ¨ÙħØ¹Ø°Ø¨ÙĬÙĨ": 6810,
      "ĠØªØ¨Ø¹Ùĥ": 6811,
      "ĠÙĥÙģØ§Ø±Ø©": 6812,
      "ĠØ®Ø²ÙĨØªÙĩØ§": 6813,
      "ĠÙĪÙĦÙĦØ±Ø³ÙĪÙĦ": 6814,
      "ĠØ§Ø¹ØªØ²ÙĦ": 6815,
      "ĠÙĬÙĨØµØ±Ùĩ": 6816,
      "ĠÙĦÙĦØ¥ÙĬÙħØ§ÙĨ": 6817,
      "ĠÙĬØ£ØªÙĬÙĨÙĥÙħ": 6818,
      "ĠÙĪØ¢Ø¨Ø§Ø¡ÙĩÙħ": 6819,
      "ĠÙĪØ¢Ø¨Ø§Ø¤ÙĨØ§": 6820,
      "ĠØ£Ø¨ÙĪØ§Ø¨ÙĩØ§": 6821,
      "ĠØ§ÙĦØ¶Ø§ÙĦÙĪÙĨ": 6822,
      "ĠÙĦØ®Ø§Ø³Ø±ÙĪÙĨ": 6823,
      "ĠÙĬÙģØ³Ø¯ÙĪÙĨ": 6824,
      "ĠØ¥Ø®Ø±Ø§Ø¬": 6825,
      "ĠØ¹Ø§Ø¨Ø¯ÙĬÙĨ": 6826,
      "ĠØªÙħØªØ¹ÙĪØ§": 6827,
      "ĠØ±ÙĪØŃÙĨØ§": 6828,
      "ĠÙĪØ£Ø®Ø°ÙĨØ§": 6829,
      "ĠØŃÙģÙĬØ¸Ø§": 6830,
      "ĠØ®Ø§Ø´Ø¹ÙĬÙĨ": 6831,
      "ĠÙĪÙĬØªÙĪØ¨": 6832,
      "ĠÙĪÙĬØ¨ØºÙĪÙĨÙĩØ§": 6833,
      "ĠÙĪÙĬØ®Ø§ÙģÙĪÙĨ": 6834,
      "ĠØ£ÙħÙĩØ§ØªÙĩÙħ": 6835,
      "ĠØ¯Ø®ÙĦØª": 6836,
      "ĠØ¯Ø®ÙĦØªÙħ": 6837,
      "ĠÙĬØªÙĪÙĦÙĩÙħ": 6838,
      "ĠØ¶Ø¹ÙģÙĬÙĨ": 6839,
      "ĠØ§ÙĦØºÙĬØ¸": 6840,
      "ĠÙĪØ²ÙĬÙĨØªÙĩØ§": 6841,
      "ĠØ§ÙĦØ¶ÙĦØ§ÙĦ": 6842,
      "ĠÙħÙĩØ·Ø¹ÙĬÙĨ": 6843,
      "ĠØ£Ø±Ø¬ÙĦÙĩÙħ": 6844,
      "ĠÙģØ·Ø±ÙĨÙĬ": 6845,
      "ÙģØ¸ÙĪØ§": 6846,
      "ĠØªÙģØ±ÙĤÙĪØ§": 6847,
      "ĠØ±Ø¶ÙĪØ§ÙĨ": 6848,
      "ĠÙĪØ§ÙĦÙħÙĬØ³Ø±": 6849,
      "ĠÙĨØ±Ø²ÙĤ": 6850,
      "ĠÙĨØ¤ØªÙĩ": 6851,
      "ĠØŃØ§Ø¬Ø©": 6852,
      "ĠÙĪØ¥ÙĬØ§ÙĬ": 6853,
      "ĠØ¨Ø§ÙĦØµÙĦØ§Ø©": 6854,
      "ĠØ§ÙĤØªØ±Ø¨": 6855,
      "ĠØ¶Ø±Ø§Ø¡": 6856,
      "ĠÙĬÙĥØ§Ø¯ÙĪÙĨ": 6857,
      "ĠÙĬÙĥØ°Ø¨ÙĪÙĥ": 6858,
      "ĠØ§Ø³ØªØ·Ø¹Øª": 6859,
      "ĠØ¨Ø·ÙĪÙĨÙĩÙħ": 6860,
      "ĠÙĬØ¯Ø®ÙĦÙĪÙĨÙĩØ§": 6861,
      "ĠÙĪØºØ±ØªÙĩÙħ": 6862,
      "ĠÙħÙħØ¯": 6863,
      "ĠØ£Ø¨ÙĦØºØªÙĥÙħ": 6864,
      "ĠÙĬÙĦØ¨Ø«ÙĪØ§": 6865,
      "ĠØ¨Ø¦Ø³ÙħØ§": 6866,
      "ĠØªÙħÙĨÙī": 6867,
      "ĠÙĩØ¯ÙĬÙĨØ§": 6868,
      "ĠØ³ÙħÙĬØªÙħÙĪÙĩØ§": 6869,
      "ĠÙĪØ£Ø®Ø±Ùī": 6870,
      "ĠØŃÙĪÙĦÙĩØ§": 6871,
      "ĠØ¨Ø§ÙĦØŃØ³ÙĨÙī": 6872,
      "ĠÙģØ£ØªØ¨Ø¹Ùĩ": 6873,
      "ĠØºÙĦÙĬØ¸Ø§": 6874,
      "ĠØ¨Ø£ÙĬØ¯ÙĬÙĩÙħ": 6875,
      "ĠØ£Ø¹ÙĨØ§Ø¨": 6876,
      "ĠØŃÙħÙĦØªÙĩ": 6877,
      "ĠØ¨Ø±ÙĩØ§ÙĨ": 6878,
      "ĠÙģØ§ØªØ¨Ø¹ÙĪÙĩ": 6879,
      "ĠÙĬØ¶Ø±Ø¨ÙĪÙĨ": 6880,
      "ÙĪØ´ÙĩØ§": 6881,
      "ĠÙĪØ¢Ø®Ø±ÙĬÙĨ": 6882,
      "ĠÙĪØŃØ±Ùħ": 6883,
      "ĠÙħØ·Ø±Ø§": 6884,
      "ĠÙħØ¹Ø¯ÙĪØ¯Ø©": 6885,
      "ĠÙħØ¨Ø§Ø±ÙĥØ©": 6886,
      "ĠÙĦÙĪØ§ÙĤØ¹": 6887,
      "ĠÙĦØ¨Ø§Ø³Ø§": 6888,
      "ĠÙħÙĨØ¹Ùĥ": 6889,
      "ĠØ¹ÙĤØ¨ÙĬÙĩ": 6890,
      "ĠÙĨØªÙĪÙģÙĬÙĨÙĥ": 6891,
      "ĠÙĨÙģØ±ÙĤ": 6892,
      "ĠÙĪØ£ÙĪÙĦØ§Ø¯ÙĥÙħ": 6893,
      "ĠØ¬Ø§ÙħØ¹": 6894,
      "ĠØ´Ø§Ø¹Ø±": 6895,
      "ĠØ´Ø§ÙĩØ¯Ø§": 6896,
      "ĠØ¨Ø§ÙĦÙĥØ§ÙģØ±ÙĬÙĨ": 6897,
      "ĠÙģØ£ÙĩÙĦÙĥÙĨØ§ÙĩÙħ": 6898,
      "ĠØ§ÙĥØªØ³Ø¨": 6899,
      "ĠÙĬÙĨØ·ÙĤ": 6900,
      "ĠØ²Ø§Ø¯ÙĩÙħ": 6901,
      "ĠØªØ¹ØªØ¯ÙĪØ§": 6902,
      "ĠØªØ¹ØªØ°Ø±ÙĪØ§": 6903,
      "ĠÙĦØ¹Ø¨Ø§Ø¯Ùĩ": 6904,
      "ĠÙĬØµÙĬØ¨ÙĩÙħ": 6905,
      "ĠØ§ÙĦÙĥØ±Ø¨": 6906,
      "ĠØ§ÙĦÙĥØ±ÙĬÙħ": 6907,
      "ØªØ±ÙĥÙĪÙĨ": 6908,
      "ĠÙħÙģØ§Øª": 6909,
      "ĠÙħØºØ±ÙĤÙĪÙĨ": 6910,
      "ĠÙħÙĦØ§ÙĤÙĪ": 6911,
      "ĠÙģØ³ØªØ¹ÙĦÙħÙĪÙĨ": 6912,
      "ĠÙģØµØ¯ÙĪØ§": 6913,
      "ĠÙĦØ§ØªØ¨Ø¹": 6914,
      "ĠÙĦØ§ØªØ®Ø°": 6915,
      "ĠÙĦÙĬØ¯Ø®ÙĦ": 6916,
      "ĠÙĦÙĦÙĤÙĪÙħ": 6917,
      "ĠÙĬØ¯Ø§Ùĩ": 6918,
      "ĠÙħÙĨØªØ¸Ø±ÙĪÙĨ": 6919,
      "ĠØ¹Ø§ÙħØ§": 6920,
      "ĠØ¹Ø±ÙĪØ´ÙĩØ§": 6921,
      "ĠØ¹ÙħØ±Ø§ÙĨ": 6922,
      "ĠØ¹Ø§ØµÙħ": 6923,
      "ĠØªØ±ÙĪÙĨÙĩØ§": 6924,
      "ĠØªØ´Ø±ÙĥÙĪØ§": 6925,
      "ĠÙĥØ§ØªØ¨": 6926,
      "ĠÙĪØ£Ø¯Ø®": 6927,
      "ĠÙĪØ£ÙĪØ±Ø«ÙĨØ§": 6928,
      "ĠØ§ÙĦÙħØ¬Ø§ÙĩØ¯ÙĬÙĨ": 6929,
      "ĠØŃØ§ÙģØ¸ÙĬÙĨ": 6930,
      "ĠØ¨Ø§ÙĦØŃÙĬØ§Ø©": 6931,
      "ĠÙĪÙĬØ²ÙĥÙĬÙĩÙħ": 6932,
      "ĠØ¯Ø§Ø¦Ø±Ø©": 6933,
      "ĠÙĪØ§ÙĦØ£ÙĤØ±Ø¨ÙĬÙĨ": 6934,
      "ĠÙĪØ§ÙĦØ£ÙĤØ±Ø¨ÙĪÙĨ": 6935,
      "ĠÙĬØŃØ³Ø¨ÙĨ": 6936,
      "ĠØ²Ø±Ø¹Ø§": 6937,
      "ĠÙĪÙħÙĨØ§ÙģØ¹": 6938,
      "ĠÙĪÙħØªØ§Ø¹": 6939,
      "ĠÙĪÙħØªØ§Ø¹Ø§": 6940,
      "ĠÙħØ³ÙĥÙĬÙĨØ§": 6941,
      "ĠÙģØ¨Ø´Ø±Ùĩ": 6942,
      "ĠØ£ÙĬØ¯ÙĬÙĩÙĨ": 6943,
      "ĠÙģØ§ÙĨØªØ¸Ø±ÙĪØ§": 6944,
      "ĠØªØµÙĬØ¨ÙĩÙħ": 6945,
      "ĠØ§ØµØ·ÙģÙī": 6946,
      "ĠØ§ÙĦØ®Ø±ÙĪØ¬": 6947,
      "Ø¨Ø±ÙĬÙĦ": 6948,
      "ĠÙĬÙĦØ¬": 6949,
      "ĠÙĬØ®Ø±ØµÙĪÙĨ": 6950,
      "ĠÙĬÙĦØŃØ¯ÙĪÙĨ": 6951,
      "ĠÙĬÙĩØªØ¯ÙĬ": 6952,
      "ĠØ¹ÙĤØ¯Ø©": 6953,
      "ĠØªÙĦØ¨Ø³ÙĪÙĨ": 6954,
      "ĠØªØ¶Ø±Ø¹Ø§": 6955,
      "Ø¬ÙħØ¹ÙĪØ§": 6956,
      "ĠÙĤØ¶ÙĬØª": 6957,
      "ĠÙĤØ§ØµØ±Ø§Øª": 6958,
      "ĠÙĪØ§ÙĦÙħÙĨÙĥØ±": 6959,
      "ĠÙĪØ§ÙĦØ¹Ø§ÙĤØ¨Ø©": 6960,
      "ĠÙĨØªÙĦÙĪÙĩØ§": 6961,
      "ĠÙĨÙĨØ¬ÙĬ": 6962,
      "ĠØ¢ÙĨØ³Øª": 6963,
      "ĠØ§ÙĦÙħØ¯Ø§Ø¦ÙĨ": 6964,
      "ĠØ§ÙĦÙħØªÙĥØ¨Ø±ÙĬÙĨ": 6965,
      "ĠØŃØ§Ø´Ø±ÙĬÙĨ": 6966,
      "ĠØ¬ÙĨØªØ§ÙĨ": 6967,
      "ĠØ®Ø·Ø§ÙĬØ§": 6968,
      "ĠØ´ÙģØ¹Ø§Ø¡": 6969,
      "ĠØ§ÙĦØ£ØŃØ§Ø¯ÙĬØ«": 6970,
      "ĠØ«ÙħØ§ÙĨÙĬØ©": 6971,
      "ĠÙģØ£ÙĪØŃÙī": 6972,
      "ĠÙĪÙĥØªØ¨Ùĩ": 6973,
      "ĠÙĪØ¬Ø¦ÙĨØ§": 6974,
      "ĠÙĬÙĨØ²Øº": 6975,
      "ĠÙĬØ¹ØªØ¯ÙĪÙĨ": 6976,
      "ĠÙĪÙħØ«ÙĦÙĩÙħ": 6977,
      "ĠÙĪÙħØ£ÙĪØ§Ùĩ": 6978,
      "ĠÙĬØ®Ø²ÙĬÙĩ": 6979,
      "ĠØªØ¹Ø¬Ø¨Ùĥ": 6980,
      "ĠÙĪØ§ÙĦÙħØ¤ØªÙģÙĥ": 6981,
      "ĠÙĬØ¤Ø®Ø±ÙĩÙħ": 6982,
      "ĠÙĪØ§ÙĦÙĨØ¬ÙĪÙħ": 6983,
      "ĠÙĪØ§ÙĦÙĨØ¨ÙĬÙĬÙĨ": 6984,
      "ĠØ£Ø¯Ø¨Ø§Ø±ÙĩÙħ": 6985,
      "ĠÙĬØ¨Ø®ÙĦÙĪÙĨ": 6986,
      "ĠÙģØ¹ÙĤØ±ÙĪÙĩØ§": 6987,
      "ĠÙĪØ£ÙħÙĪØ§ÙĦÙĩÙħ": 6988,
      "ĠÙĪØ§ØµØ·Ø¨Ø±": 6989,
      "ĠØ¨ØªØ£ÙĪÙĬÙĦÙĩ": 6990,
      "ĠØ§ÙĦØ¯Ø§Ø¹": 6991,
      "ĠØ§ÙĦØ¶Ø¹ÙģØ§Ø¡": 6992,
      "ĠÙĪØ´Ø±Ø§Ø¨": 6993,
      "ĠÙĪÙģØ§ÙĥÙĩØ©": 6994,
      "ĠÙħØ³ÙĨÙĪÙĨ": 6995,
      "ĠØ£Ø¸ÙĨ": 6996,
      "ĠØ£ÙĤØ¯Ø§ÙħÙĨØ§": 6997,
      "ĠÙĦØ°ÙĨØ¨Ùĥ": 6998,
      "ĠÙĬÙĤØ¯Ø±ÙĪÙĨ": 6999,
      "ĠÙĬÙħÙĬÙĨÙĥ": 7000,
      "ĠÙĬØ¬Ø±ÙħÙĨÙĥÙħ": 7001,
      "ĠÙĬØ¨Ø§ÙĬØ¹ÙĪÙĨ": 7002,
      "ĠÙĥØ¯Ø£Ø¨": 7003,
      "ØµÙĦØ¨ÙĨÙĥÙħ": 7004,
      "ĠØ±ØºØ¯Ø§": 7005,
      "ĠØ³ÙĪÙĦØª": 7006,
      "ĠØ³ÙĥÙĬÙĨØªÙĩ": 7007,
      "ĠØ§ÙĦÙħØ´ØŃÙĪÙĨ": 7008,
      "ĠØŃÙĬØ§ØªÙĨØ§": 7009,
      "ĠØŃÙħÙĬÙħØ§": 7010,
      "ĠØ®ÙĬÙģØ©": 7011,
      "ĠØ´Ø§ÙĥØ±Ø§": 7012,
      "Ø¤ÙĦØ¤Ø§": 7013,
      "ĠÙĪÙĬØ¹ÙģÙĪ": 7014,
      "ĠØ§ÙĦØŃÙĪØ§Ø±ÙĬÙĪÙĨ": 7015,
      "ĠÙģØ£ØºØ±ÙĤÙĨØ§ÙĩÙħ": 7016,
      "ĠÙĦÙĬÙĥÙģØ±ÙĪØ§": 7017,
      "ĠØ§ÙĤØ±Ø£": 7018,
      "ĠØºÙĦØ¨Øª": 7019,
      "ĠØ´ÙĬØ¹ØªÙĩ": 7020,
      "ĠÙĪÙĨØ¬ÙĨÙĬ": 7021,
      "ĠØ·ÙĦØ¹ÙĩØ§": 7022,
      "ĠØ§ÙĦØ´ÙĩÙĪØ§Øª": 7023,
      "ĠÙĪÙħØ³Ø§ÙĥÙĨ": 7024,
      "ĠÙĬØ³ØªØ¹ØªØ¨ÙĪÙĨ": 7025,
      "ĠØªØªØ®Ø°ÙĪÙĨ": 7026,
      "ĠØ£Ø¹ÙĤØ§Ø¨ÙĥÙħ": 7027,
      "ĠØ£Ø´ÙĬØ§Ø¡ÙĩÙħ": 7028,
      "ĠØ§ÙĨØµØ±ÙĨÙĬ": 7029,
      "ĠÙģØ§ÙĨØ·ÙĦÙĤØ§": 7030,
      "ĠÙĪÙĦÙĨØ¬Ø²ÙĬÙĨÙĩÙħ": 7031,
      "ĠØ§ÙĦÙħÙĨØªØ¸Ø±ÙĬÙĨ": 7032,
      "ĠØ§Ø±ØªØ¶Ùī": 7033,
      "ĠØ§ÙĦÙĪØ§Ø±Ø«ÙĬÙĨ": 7034,
      "ĠÙĪØ°Ø±ÙĬØ§ØªÙĩÙħ": 7035,
      "ĠÙħØ¹Ø¯ÙĪØ¯Ø§Øª": 7036,
      "ĠØ³ØªØ¬Ø¯ÙĨÙĬ": 7037,
      "ĠØ§ÙĦÙĪØ§ÙĦØ¯Ø§ÙĨ": 7038,
      "ĠØ§ÙĦÙĪÙĩØ§Ø¨": 7039,
      "ĠØ§ÙĦÙĦØ¹ÙĨØ©": 7040,
      "ĠÙħØ¨ÙĦØ³ÙĪÙĨ": 7041,
      "ĠÙħØ´ÙģÙĤÙĬÙĨ": 7042,
      "ĠÙĬÙĦØ§ÙĤÙĪØ§": 7043,
      "ĠÙĬØ¨ÙĬØªÙĪÙĨ": 7044,
      "ĠØ¨ÙĬØ§ØªØ§": 7045,
      "ĠÙħÙĨØªÙĤÙħÙĪÙĨ": 7046,
      "ĠÙģÙĬØ£Ø®Ø°ÙĥÙħ": 7047,
      "ĠÙĪØ§ÙĦØ¢ØµØ§ÙĦ": 7048,
      "ĠØ§ÙĦØ°Ø¦Ø¨": 7049,
      "ĠØ§ÙĦÙħØŃÙĬØ¶": 7050,
      "ĠØ§ÙĦÙħØ´Ø£ÙħØ©": 7051,
      "ĠØ§ÙĦÙħØ®ÙĦÙģÙĪÙĨ": 7052,
      "ĠØ§ÙĦÙħÙĬÙħÙĨØ©": 7053,
      "ĠØ§ÙĦÙħÙĤØ³Ø·ÙĬÙĨ": 7054,
      "ĠØŃØ·Ø§ÙħØ§": 7055,
      "ĠØ®Ø³Ø§Ø±Ø§": 7056,
      "ĠØ§ÙĦØ£ÙĦÙĪØ§ØŃ": 7057,
      "ĠØ§ÙĦØ£Ø¬Ø¯Ø§Ø«": 7058,
      "ĠÙĪØ¥ÙĬØªØ§Ø¡": 7059,
      "ĠØ°Ø§Ø¦ÙĤØ©": 7060,
      "ĠÙģØ£ÙħØ³ÙĥÙĪÙĩÙĨ": 7061,
      "ĠØ§ÙĦØ¹Ø§Ø¬ÙĦØ©": 7062,
      "ĠÙĦÙĬØ¸ÙĦÙħÙĩÙħ": 7063,
      "ĠÙħØ¹Ø§Ø¬Ø²ÙĬÙĨ": 7064,
      "ĠÙĦÙĦØ´Ø§Ø±Ø¨ÙĬÙĨ": 7065,
      "ĠØ§ÙĦÙĨÙĥØ§ØŃ": 7066,
      "ĠØ§ÙĦÙĨØ´Ø£Ø©": 7067,
      "ĠÙĬØ³ÙĪÙħÙĪÙĨÙĥÙħ": 7068,
      "ĠÙħØ±ÙģÙĪØ¹Ø©": 7069,
      "ĠÙģÙĥØ£ÙĨÙħØ§": 7070,
      "ĠÙĪÙĬØ³ØªØ¹Ø¬ÙĦÙĪÙĨÙĥ": 7071,
      "²Ø¯Ø§Ø¯ÙĪØ§": 7072,
      "Ø§ÙĩÙĨ": 7073,
      "Ø§Ø³Ø¨": 7074,
      "Ø§ÙĤÙĪÙĨ": 7075,
      "Ø§Ø¹ÙĬ": 7076,
      "Ø§ÙħØ³Ø©": 7077,
      "ÙĦØ¹ÙĪÙĨ": 7078,
      "ÙĦÙĪÙĥ": 7079,
      "ÙĦÙĪÙĦØ©": 7080,
      "ÙĨØ¯": 7081,
      "ÙĨØ·": 7082,
      "ÙĨØ«": 7083,
      "ÙĨØ¨ÙĬ": 7084,
      "ÙĨÙĪØ±": 7085,
      "ÙĨØ¨Ø¦": 7086,
      "ÙĨØ¨Ø¦ÙĥÙħ": 7087,
      "ÙĨØ¢ÙĨ": 7088,
      "ÙĨÙģØ§Ø¡": 7089,
      "ÙħÙħ": 7090,
      "ÙħØ£": 7091,
      "ÙħØ«": 7092,
      "ÙħÙĬØ±Ø§": 7093,
      "ÙħØ¯Ø§": 7094,
      "ÙħØ¶ÙĪØ§": 7095,
      "ÙħØŃÙĪÙĨ": 7096,
      "ÙħÙĦØ§ÙĤ": 7097,
      "ÙħØµØ©": 7098,
      "ÙħÙĪÙħØ§": 7099,
      "ÙħØ´ÙĪØ§": 7100,
      "ÙĬØ§ÙĦ": 7101,
      "ÙĬØ£": 7102,
      "ÙĬØ¬": 7103,
      "ÙĬØ§ÙĨ": 7104,
      "ÙĬØªÙĩ": 7105,
      "ÙĪØ·": 7106,
      "ÙĪØ±ÙĪÙĨ": 7107,
      "ÙĪÙĬÙĨØ§": 7108,
      "ÙĪØªÙĬ": 7109,
      "ÙĪÙĪØ¯": 7110,
      "ÙĪØªÙĩ": 7111,
      "ÙĪÙĤÙĬÙĨ": 7112,
      "ÙĪØ¶Ø§": 7113,
      "Ø§ÙĦØª": 7114,
      "Ø§ÙĦØªÙĩ": 7115,
      "ÙĩÙĦØ§": 7116,
      "ÙĩÙĬØ©": 7117,
      "ÙĩÙĬØª": 7118,
      "ÙĩÙĤÙĩÙħ": 7119,
      "Ø±Øª": 7120,
      "Ø±Øµ": 7121,
      "Ø±ÙĬÙĨØ§": 7122,
      "Ø±Ø¨ÙĬ": 7123,
      "Ø±ÙĤØ¨": 7124,
      "Ø±Ø«ÙĪÙĨ": 7125,
      "Ø±ÙĪØ´": 7126,
      "ĠØ§ÙĦØ±Ø¶": 7127,
      "ĠØ§ÙĦØ¹ÙĦ": 7128,
      "ĠØ§ÙĦÙĪØ±": 7129,
      "ĠØ§ÙĦØ¨Ø§": 7130,
      "ĠØ§ÙĦØ²ÙĤ": 7131,
      "ĠØ§ÙĦØªÙĨØ§": 7132,
      "ĠØ§ÙĦÙĦØ¤": 7133,
      "ĠØ§ÙĦÙĪØ¬ÙĪÙĩ": 7134,
      "ĠØ§ÙĦÙĦØºÙĪ": 7135,
      "ĠØ§ÙĦÙĪÙĦØ¯Ø§ÙĨ": 7136,
      "ĠØ§ÙĦØ¨ÙĬÙĨØ©": 7137,
      "ĠØ§ÙĦÙĪØ¹ÙĬØ¯": 7138,
      "ĠÙĪØ±Ø¶": 7139,
      "ĠÙĪÙĥØ±": 7140,
      "ĠÙĪØ¨Ø¹": 7141,
      "ĠÙĪÙĩÙĨ": 7142,
      "ĠÙĪØ®Ø°": 7143,
      "ĠÙĪÙħØ±": 7144,
      "ĠÙĪÙĪÙģ": 7145,
      "ĠÙĪÙħÙĬ": 7146,
      "ĠÙĪØ¢ÙĬØ§Øª": 7147,
      "ĠÙĪØ°Ø±": 7148,
      "ĠÙĪÙĪØŃ": 7149,
      "ĠÙĪØ´Ø±Ùĥ": 7150,
      "ĠÙĪÙĦÙĩØ§": 7151,
      "ĠÙĪÙģØ§Ø±": 7152,
      "ĠÙĪØ³ÙħØ¹": 7153,
      "ĠÙĪØ¸Ø§": 7154,
      "ĠÙĪØ´Ùģ": 7155,
      "ĠÙĪØ§Ø±Ùĥ": 7156,
      "ĠÙĪØ¶Ø§": 7157,
      "ĠÙĪÙĩØ¯ÙĪØ§": 7158,
      "ĠÙĪØ¯Ø¹": 7159,
      "ĠÙĪØ«Ø¨Øª": 7160,
      "ĠÙĪÙĪØ±Ø«": 7161,
      "ĠÙĪØµØ±Ùģ": 7162,
      "ĠÙĪÙĪØ§Ø¹Ø¯": 7163,
      "ĠÙĪÙĪØ¬ÙĪÙĩ": 7164,
      "ĠÙĪÙĥØ±ÙĩÙĪØ§": 7165,
      "ĠÙĪØ¸ÙĦÙħÙĪØ§": 7166,
      "ÙĥÙĬ": 7167,
      "ÙĥÙĪØ§": 7168,
      "ÙĥÙĦØ§": 7169,
      "ÙĥØ©": 7170,
      "ÙĥØ§Øª": 7171,
      "ÙĥÙĬØ§": 7172,
      "ÙĥÙĨØ©": 7173,
      "ÙĥØ¨Ø±Ø§": 7174,
      "ÙĥÙĦÙħØ§": 7175,
      "ÙĥØŃÙĪØ§": 7176,
      "ÙĥØ±Ø§Ùħ": 7177,
      "ÙĥØ´Ùģ": 7178,
      "ØªÙħÙĨ": 7179,
      "ØªØ±ÙĬ": 7180,
      "ØªØ¨Øª": 7181,
      "ØªØªÙĨØ§": 7182,
      "ØªØ±Ùģ": 7183,
      "ØªÙĤÙī": 7184,
      "ØªØ§ØªØ§": 7185,
      "ØªÙģÙĤØ§": 7186,
      "Ø¨Ø¶": 7187,
      "Ø¨Ø§Øª": 7188,
      "Ø¨ÙĦÙĪÙĨ": 7189,
      "Ø¨ÙĤØ§": 7190,
      "Ø¨ÙĪÙĩÙħ": 7191,
      "Ø¨ÙĪØ§Ø¨": 7192,
      "Ø¨Ø§Ø·ÙĦ": 7193,
      "Ø¨Ø§Ø¦ÙĩÙħ": 7194,
      "Ø¨Ø«Ø§": 7195,
      "ĠÙħØ£": 7196,
      "ĠÙħØ§Øª": 7197,
      "ĠÙħÙĬØ±": 7198,
      "ĠÙħØ¸": 7199,
      "ĠÙħÙĩØ¯": 7200,
      "ĠÙħØªØ§Ø¨": 7201,
      "ĠÙħØ¨Ø±": 7202,
      "ĠÙħØ¬Ø±": 7203,
      "ĠÙħØ¯Ø§": 7204,
      "ĠÙħØ¶ÙĦ": 7205,
      "ĠÙħÙĦÙĬÙħ": 7206,
      "ĠÙħÙĦØŃ": 7207,
      "ĠÙħØ´Ø±ÙĥÙĪÙĨ": 7208,
      "ĠÙħÙĤØ·": 7209,
      "ĠÙħØ¬Ø±ÙħÙĪÙĨ": 7210,
      "ĠÙħÙĤØ§ÙĦ": 7211,
      "ĠÙħØ²ÙĬØ¯": 7212,
      "ĠÙħÙĩØ§Ø¬Ø±": 7213,
      "ĠÙħÙħØ³Ùĥ": 7214,
      "ĠÙħØ·ÙħØ¦ÙĨ": 7215,
      "ĠÙħØ¨Ø¹ÙĪØ«ÙĪÙĨ": 7216,
      "ĠÙħÙĦÙĤÙĪÙĨ": 7217,
      "ĠÙħØªØ¨Ø¹ÙĪÙĨ": 7218,
      "ĠÙħÙĦÙĪÙħØ§": 7219,
      "ĠÙħÙĪÙĦÙĪØ¯": 7220,
      "ĠÙħØ®ÙĦØ¯ÙĪÙĨ": 7221,
      "Ø¹Ø²": 7222,
      "Ø¹Ø§ÙĨ": 7223,
      "Ø¹Ø§Ø±": 7224,
      "Ø¹Ø°Ø¨": 7225,
      "Ø¹ÙĦÙĩØ§": 7226,
      "Ø¹ÙĦØ§Ùħ": 7227,
      "Ø¹ÙĨÙĥÙħ": 7228,
      "Ø¹Ø¨Ø©": 7229,
      "Ø¹ÙĪÙĥÙħ": 7230,
      "Ø¹Ø«ÙĪØ§": 7231,
      "Ø¹Ø°Ø¨Ùĩ": 7232,
      "ĠØ£Ø¹ÙĦ": 7233,
      "ĠØ£ÙĩØ¯": 7234,
      "ĠØ£Ø°ÙĦÙĥ": 7235,
      "ĠØ£Ø°ÙĥØ±": 7236,
      "ĠØ£ÙĤØª": 7237,
      "ĠØ£Ø«Ø±": 7238,
      "ĠØ£Ø®ÙĦ": 7239,
      "ĠØ£Ø±Ùĥ": 7240,
      "ĠØ£ÙĤØ±": 7241,
      "ĠØ£Ø¨Ø¹Ø«": 7242,
      "ĠØ£Ø°ÙĩØ¨": 7243,
      "ĠØ£ÙĤÙĬÙħÙĪØ§": 7244,
      "ĠØ£Ø·ÙĩØ±": 7245,
      "ĠØ£ÙĤØ§ÙħÙĪØ§": 7246,
      "ĠØ£Ø·Ø¹ÙĨØ§": 7247,
      "ĠØ£ÙĥØ±Ùĩ": 7248,
      "Ø¯Ùĥ": 7249,
      "Ø¯ÙĦÙī": 7250,
      "Ø¯Ø¬Ø±": 7251,
      "Ø¯Ø±Ø¬": 7252,
      "Ø¯ÙĪÙĩÙħ": 7253,
      "Ø¯Ø®ÙĦÙĪØ§": 7254,
      "Ø¯Ø±Ø©": 7255,
      "Ø¯ÙĪØ³": 7256,
      "Ø¯ÙĨÙī": 7257,
      "Ø¯Ø¨Ø±ÙĪÙĨ": 7258,
      "Ø¯Ø¯ÙĥÙħ": 7259,
      "Ø³ÙĨØ§": 7260,
      "Ø³ÙĪÙĩ": 7261,
      "Ø³Ø¯ÙĪÙĨ": 7262,
      "Ø³ÙĪØ©": 7263,
      "Ø³ÙħØ§ÙĨ": 7264,
      "Ø³Ø³ÙĪØ§": 7265,
      "Ø³Ø®Ø±ÙĪÙĨ": 7266,
      "Ø³ÙĦÙħÙĬÙĨ": 7267,
      "Ø³Ø·Ø§Ø³": 7268,
      "ĠÙģØŃ": 7269,
      "ĠÙģØ«": 7270,
      "ĠÙģÙģØ±": 7271,
      "ĠÙģØ°Ø§": 7272,
      "ĠÙģØ±Ø§": 7273,
      "ĠÙģØ¹Ùħ": 7274,
      "ĠÙģØ¹ÙĦÙħ": 7275,
      "ĠÙģÙģØ³": 7276,
      "ĠÙģØ´Ø±": 7277,
      "ĠÙģØ¨Ø¯": 7278,
      "ĠÙģØ¹Ø§": 7279,
      "ĠÙģÙĤØª": 7280,
      "ĠÙģØºÙģØ±": 7281,
      "ĠÙģÙĪÙĦÙĪØ§": 7282,
      "ĠÙģØ¨Ø¹Ø«": 7283,
      "ĠÙģØ²ÙĬÙĨ": 7284,
      "ĠÙģØ¨ÙĦØº": 7285,
      "ĠÙģØ§Ø²": 7286,
      "ĠÙģØ²Ø¹": 7287,
      "ĠÙģÙĦÙĩÙĨ": 7288,
      "ĠÙģØ®ÙĦÙģ": 7289,
      "ĠÙģØ´Ø§Ø±": 7290,
      "ĠÙģØ¨Ø¯ÙĦ": 7291,
      "ĠÙģØªÙħØªØ¹ÙĪØ§": 7292,
      "ĠÙģÙĤÙĪÙĦÙĪØ§": 7293,
      "ĠÙģØ¸ÙĦÙħÙĪØ§": 7294,
      "ĠÙģÙħØªØ¹": 7295,
      "ĠÙģÙĪØ³ÙĪØ³": 7296,
      "ĠÙģØ¯Ø¹ÙĪÙĩÙħ": 7297,
      "ĠÙĦØ¶": 7298,
      "ĠÙĦØ§ÙĨ": 7299,
      "ĠÙĦØ¹Ùħ": 7300,
      "ĠÙĦØ¹ÙĦÙħ": 7301,
      "ĠÙĦØ´Ø±": 7302,
      "ĠÙĦØ²ÙĦ": 7303,
      "ĠÙĦÙĤÙĪØ§": 7304,
      "ĠÙĦØŃÙħ": 7305,
      "ĠÙĦØ¯Ø§": 7306,
      "ĠÙĦØ´Ø±Ùĥ": 7307,
      "ĠÙĦØ¯Ùī": 7308,
      "ĠÙĦÙĩØ¯Ùī": 7309,
      "ĠÙĦÙĪÙĦÙĪØ§": 7310,
      "ĠÙĦØ¨Ø¯Ø§": 7311,
      "ĠÙĦØ³ÙĨØ©": 7312,
      "ĠÙĦØ°ÙĩØ¨": 7313,
      "ĠÙĦØŃØ¯": 7314,
      "ĠÙĦØ²Ø§": 7315,
      "ĠÙĦØ³Ø§ÙĨØ§": 7316,
      "ĠÙĦÙĪÙĨÙĩØ§": 7317,
      "ĠÙĦØ³ÙħÙĬØ¹": 7318,
      "ĠÙĬÙĦÙĩ": 7319,
      "ĠÙĬÙĦÙħ": 7320,
      "ĠÙĬÙĪÙĦ": 7321,
      "ĠÙĬÙĨÙĬ": 7322,
      "ĠÙĬÙĩØ±": 7323,
      "ĠÙĬØ¶ÙĬ": 7324,
      "ĠÙĬØ°ÙĪ": 7325,
      "ĠÙĬÙĪØ±Ø«": 7326,
      "ĠÙĬÙĪØ§Ø±ÙĬ": 7327,
      "ĠÙĬØ³ÙħØ¹ÙĪØ§": 7328,
      "ĠÙĬØ°ÙĩØ¨ÙĪØ§": 7329,
      "ĠÙĬÙĩÙĬ": 7330,
      "ĠÙĬÙĪÙĨØ³": 7331,
      "ĠÙĬØ±Ø§ÙĥÙħ": 7332,
      "ĠÙĬÙĬØ£Ø³": 7333,
      "ÙĤÙĥÙħ": 7334,
      "ÙĤÙĩØ§": 7335,
      "ÙĤØ¶": 7336,
      "ÙĤÙĬØ§Øª": 7337,
      "ÙĤÙĬØ©": 7338,
      "ÙĤÙģØ§": 7339,
      "ÙĤÙĪØª": 7340,
      "ÙĤØ·Ø¹": 7341,
      "ÙĤÙĬÙĥÙħ": 7342,
      "ÙĤØ¶ÙĪØ§": 7343,
      "ÙĤØ§ÙĦØ§": 7344,
      "ÙĤØ¹Ø¯ÙĪØ§": 7345,
      "ÙĤØ³ÙħØ§ÙĨ": 7346,
      "Ø°Ø¹": 7347,
      "Ø°Ø±Ø§": 7348,
      "Ø°ÙĦÙĥÙħ": 7349,
      "ÙĪØ§ØŃØ´": 7350,
      "ÙĪØ§Ø¬Ø§": 7351,
      "ÙĪØ§Ø¹ÙĤ": 7352,
      "ĠØ¨Ø²": 7353,
      "ĠØ¨Ø§Ø¡": 7354,
      "ĠØ¨ÙĪÙĦ": 7355,
      "ĠØ¨ÙĩØ¯": 7356,
      "ĠØ¨ÙĪØ±": 7357,
      "ĠØ¨Ø±Ø³": 7358,
      "ĠØ¨ØªØ§Ø¨": 7359,
      "ĠØ¨Ø¨Ø¯": 7360,
      "ĠØ¨Ø¯Ø§": 7361,
      "ĠØ¨ÙħÙĬ": 7362,
      "ĠØ¨ÙĨÙĬØ§": 7363,
      "ĠØ¨ÙĨØ§Øª": 7364,
      "ĠØ¨ÙĪØ±Ø§": 7365,
      "ĠØ¨Ø±Ùĥ": 7366,
      "ĠØ¨ÙĨÙĬÙĨ": 7367,
      "ĠØ¨Ø³Ø§": 7368,
      "ĠØ¨Ø¨Ø§ÙĦ": 7369,
      "ĠØ¨Ø®ÙĦÙĪØ§": 7370,
      "ĠØ¨Ø§Ø®": 7371,
      "ĠØ¨Ø²ÙĬÙĨ": 7372,
      "ĠØ¨Ø§Ø¨Ø§": 7373,
      "ĠØ¨Ø§Ø²": 7374,
      "ĠØ¨ÙĨØ§ÙĩØ§": 7375,
      "ĠØ¨Ø¶Ø¹": 7376,
      "ĠØ¨Ø±Ø³ÙĪÙĦ": 7377,
      "ĠØ¨ÙĪØ£": 7378,
      "ĠØ¨ÙĪØ¬ÙĪÙĩ": 7379,
      "ĠØ¨Ø¨Ø¹ÙĬØ¯": 7380,
      "ĠØ¨Ø¨ÙĬÙĨØ©": 7381,
      "ĠØ¥Ø³": 7382,
      "ĠØ¥Ø¹Ø±": 7383,
      "ĠØ¥ÙĥØ±Ø§": 7384,
      "ĠØ¥Ø³ÙĦØ§Ùħ": 7385,
      "ĠØ¥Ø·Ø¹Ø§Ùħ": 7386,
      "ĠØ¥ÙħÙĦØ§ÙĤ": 7387,
      "ÙģÙĩÙħ": 7388,
      "ÙģÙĨØ§": 7389,
      "ÙģÙĦØ§": 7390,
      "ÙģÙĬØ±": 7391,
      "ÙģØ«": 7392,
      "ÙģÙĬØ§": 7393,
      "ÙģØ¹ÙĪÙĨ": 7394,
      "ÙģØ¬Ø±": 7395,
      "ÙģÙĪÙģ": 7396,
      "ÙģØªÙĩÙħ": 7397,
      "ÙģÙĬØ©": 7398,
      "ÙģØ¶ÙĦ": 7399,
      "ÙģÙĥØ§": 7400,
      "ÙģØ§Ø²": 7401,
      "ÙģØ¹ÙĦÙĪØ§": 7402,
      "ÙģØ§ØªØ§": 7403,
      "ØŃØ¨": 7404,
      "ØŃØ¯Ø§": 7405,
      "ØŃÙĤØ§": 7406,
      "ØŃØ¨Ø§": 7407,
      "ØŃØ¯Ø©": 7408,
      "ØŃØ¯ÙĪØ§": 7409,
      "ØŃØ¨Ø§Ø±": 7410,
      "ØŃØ§Ø¬": 7411,
      "ØŃØ¶ÙĪØ§": 7412,
      "ØŃØ³Ø¨ÙĪÙĨ": 7413,
      "ØŃÙĦÙģÙĪÙĨ": 7414,
      "ØŃØ§Ø¬ÙĪÙĨ": 7415,
      "Ø£ÙĩØ§": 7416,
      "Ø£ÙĦÙĥ": 7417,
      "Ø£Ø±ÙĪÙĨ": 7418,
      "Ø£Ø®Ø±": 7419,
      "Ø£ÙĨØ³": 7420,
      "Ø£Ø®Ø°ÙĪØ§": 7421,
      "Ø£Ø¬ÙĪØ¬": 7422,
      "Ø£ÙĬÙħØ§ÙĨÙĩÙħ": 7423,
      "ĠÙħÙĨÙĤ": 7424,
      "ĠÙħÙĨÙģ": 7425,
      "ĠÙħÙĨÙĨØ§": 7426,
      "ĠÙħÙĨÙĬØ±": 7427,
      "ĠÙħÙĨØ«": 7428,
      "ĠÙħÙĨÙĬØ±Ø§": 7429,
      "ĠÙħÙĨØ§Ø²": 7430,
      "ĠÙħÙĨØ¸Ø±ÙĬÙĨ": 7431,
      "ĠÙħÙĨØ²ÙĦÙĬÙĨ": 7432,
      "ĠÙħÙĨØ¶ÙĪØ¯": 7433,
      "ĠØ¹Ø¶": 7434,
      "ĠØ¹Ø·": 7435,
      "ĠØ¹Ø°Ø¨": 7436,
      "ĠØ¹Ø§Ø¦": 7437,
      "ĠØ¹Ø³Ø±": 7438,
      "ĠØ¹Ø§ÙĦÙħÙĬÙĨ": 7439,
      "ĠØ¹ØªÙĪØ§": 7440,
      "ĠØ¹ÙĪØ¬": 7441,
      "ĠØ¹ÙĤÙĬÙħ": 7442,
      "ĠØ¹ÙĪÙĤ": 7443,
      "ĠØ¹Ø¬ÙĦ": 7444,
      "ĠØ¹Ø³ÙĬ": 7445,
      "ĠØ¹Ø´Ø±Ø§": 7446,
      "ĠØ¹Ø´ÙĬØ±": 7447,
      "ĠØ¹Ø±ÙģÙĪØ§": 7448,
      "ĠØ¹ÙĬØ´": 7449,
      "ĠØ¹Ø¨Ø³": 7450,
      "ĠØ¹Ø°Øª": 7451,
      "ĠØ¹ÙĪØ±Ø§Øª": 7452,
      "ĠØ¹Ø°Ø±Ø§": 7453,
      "ÙĨØ§Ø±": 7454,
      "ÙĨØ§ÙĨØ§": 7455,
      "ÙĨØ§Ø¬Ø±": 7456,
      "ÙĨØ§ØªÙĩÙħ": 7457,
      "ÙĨØ§Ø¬ÙĪØ§": 7458,
      "ÙħØ§Ø¯": 7459,
      "ÙħØ§Ø«": 7460,
      "ÙħØ§Ø±ÙĪÙĨ": 7461,
      "ÙħØ§Ø³Ø§": 7462,
      "ÙĦØ§Ùĩ": 7463,
      "ÙĦØ§ØªÙĬ": 7464,
      "ÙĦØ§ØªÙĥ": 7465,
      "ÙĦØ§Ø³ÙĦ": 7466,
      "ĠØªØ°": 7467,
      "ĠØªØ®Ø±": 7468,
      "ĠØªØ¨ÙĬ": 7469,
      "ĠØªØ´Ø±": 7470,
      "ĠØªÙĩÙĪ": 7471,
      "ĠØªØ¹Ø§": 7472,
      "ĠØªÙħØ±": 7473,
      "ĠØªØ³Ø¨": 7474,
      "ĠØªÙĤØ§": 7475,
      "ĠØªØ¶ÙĦ": 7476,
      "ĠØªÙĨØª": 7477,
      "ĠØªÙĨØ³": 7478,
      "ĠØªØ°Ùĩ": 7479,
      "ĠØªÙĪØ¬": 7480,
      "ĠØªØ³Ø¨ØŃ": 7481,
      "ĠØªÙĪØ§Ø¨": 7482,
      "ĠØªØºØ±": 7483,
      "ĠØªØ°ÙĥØ±ÙĪØ§": 7484,
      "ĠØªØ¹Ø¯ÙĪÙĨ": 7485,
      "ĠØªØºÙĬ": 7486,
      "ĠØªØ¤Ùħ": 7487,
      "ĠØªØ³ÙħØ¹ÙĪÙĨ": 7488,
      "ĠØªÙħÙĨÙĪØ§": 7489,
      "ĠØªØ±Ø¶ÙĪÙĨ": 7490,
      "ĠØªØ§Ø±Ø©": 7491,
      "ĠØªÙĤØªÙĦ": 7492,
      "ĠØªØ·ÙĩØ±": 7493,
      "ĠØªØ¹ÙĦÙĪØ§": 7494,
      "ĠØªØ±Ø¨Øµ": 7495,
      "ĠØªØ¹ÙħÙī": 7496,
      "ĠØªØ±Ø¶Ùī": 7497,
      "ĠØªÙĪØ§Ø¹Ø¯": 7498,
      "ĠØªÙĬØ³Ø±": 7499,
      "ĠØªØµØ±ÙģÙĪÙĨ": 7500,
      "Ø¬Ùħ": 7501,
      "Ø¬ÙĦØ§": 7502,
      "Ø¬Ø©": 7503,
      "Ø¬ÙĬØ±Ø§": 7504,
      "Ø¬Ø¯Ø§": 7505,
      "Ø¬Ø§Ø¬": 7506,
      "Ø¬Ø²Ùī": 7507,
      "Ø¬Ø§Ø¯ÙĦ": 7508,
      "Ø¬Ø§ÙĩØ¯ÙĪÙĨ": 7509,
      "ĠÙĥÙĩ": 7510,
      "ĠÙĥØ¹": 7511,
      "ĠÙĥØ±Ø³": 7512,
      "ĠÙĥØ§ÙĦØŃ": 7513,
      "ĠÙĥØ§Ùħ": 7514,
      "ĠÙĥÙģÙĪØ§": 7515,
      "ĠÙĥØ´Ùģ": 7516,
      "ĠÙĥØ¯Øª": 7517,
      "ĠÙĥØ§ÙĨØ§": 7518,
      "ĠÙĥÙĩÙģ": 7519,
      "ĠÙĥÙĩÙĬ": 7520,
      "ĠÙĥÙģÙĬÙĩ": 7521,
      "ĠÙĥØ±Ø§ÙħØ§": 7522,
      "ĠÙĥÙģØ§Ø±Ø§": 7523,
      "ĠÙĥØªØ¨Øª": 7524,
      "ÙĥÙħÙĩ": 7525,
      "ĠÙĤØ³Øª": 7526,
      "ĠÙĤØ§Ø¯": 7527,
      "ĠÙĤÙĬÙħØ§": 7528,
      "ĠÙĤØ±Ùī": 7529,
      "ĠÙĤÙĪÙĦÙĪØ§": 7530,
      "ĠÙĤØ±Ø©": 7531,
      "ĠÙĤÙĬØ§Ùħ": 7532,
      "ĠÙĤØ±ØŃ": 7533,
      "ĠÙĤØ±Ø§Ø±Ø§": 7534,
      "ĠÙĤØ§Ø¯Ø±": 7535,
      "ĠÙĤØ§ØªÙĦÙĪÙĥÙħ": 7536,
      "ĠÙĤØ±ÙĪÙĨØ§": 7537,
      "ÙĦÙĬØ§": 7538,
      "ÙĦÙĬÙģØ©": 7539,
      "ĠÙģÙĬØµÙĬØ¨": 7540,
      "ĠÙģÙĬÙĪÙģÙĬÙĩÙħ": 7541,
      "ĠÙģÙĬØªØ¨Ø¹ÙĪÙĨ": 7542,
      "ĠÙģÙĬØ¶Ø§Ø¹Ùģ": 7543,
      "ĠÙģÙĬØ¹Ø°Ø¨Ùĩ": 7544,
      "ĠÙģÙĬÙĤØ³ÙħØ§ÙĨ": 7545,
      "Ø®ÙĨ": 7546,
      "Ø®ÙĦÙĩ": 7547,
      "Ø®Ø§ÙĨ": 7548,
      "Ø®ÙĦÙĩØ§": 7549,
      "Ø®Ø±Ø§Ø¬": 7550,
      "ØµÙĬØ¯": 7551,
      "ØµØ¯Ø§": 7552,
      "ØµÙĪØ±Ø§": 7553,
      "ØµØªÙĪØ§": 7554,
      "ØµØ§Ùħ": 7555,
      "ØµØ§Ø±Ø§": 7556,
      "ĠØ±Ø¹": 7557,
      "ĠØ±Ø·": 7558,
      "ĠØ±Ø§Ø¯": 7559,
      "ĠØ±Ø§Ùĥ": 7560,
      "ĠØ±Ø§Øº": 7561,
      "ĠØ±ÙĩÙĬÙĨ": 7562,
      "ĠØ±Ø¯Øª": 7563,
      "ĠØ±ÙħÙĬØª": 7564,
      "ĠØ±Ø¦Ø§Ø¡": 7565,
      "ĠØ±ØµØ¯Ø§": 7566,
      "ÙĩØ§ÙĨ": 7567,
      "ÙĩØ§ÙĩÙħ": 7568,
      "Ø¶ÙĦÙĩ": 7569,
      "Ø¶Ø±ÙĬÙĨ": 7570,
      "Ø²ÙĦÙĪÙĨ": 7571,
      "Ø²ÙĤÙĪÙĨ": 7572,
      "Ø²Ø¹ÙĪØ§": 7573,
      "Ø²ÙĦØ§Ùħ": 7574,
      "Ø²ÙģØ©": 7575,
      "Ø²ÙĥÙī": 7576,
      "Ø§ÙĨØ¹": 7577,
      "Ø´ÙĤ": 7578,
      "Ø´Ø¦": 7579,
      "Ø´ÙĬØ©": 7580,
      "Ø´Ø²ÙĪØ§": 7581,
      "Ø´ÙĤÙī": 7582,
      "ĠØ£ÙĨÙĬØ¨": 7583,
      "ĠØ£ÙĨÙĩÙħØ§": 7584,
      "ĠØ£ÙĨÙĩØ§Ø±Ø§": 7585,
      "ĠØ£ÙĨØ¨ÙĬØ§Ø¡": 7586,
      "ĠØ£ÙĨØ¹Ø§ÙħØ§": 7587,
      "Ø¥ÙĨ": 7588,
      "Ø¥Ø°ÙĨ": 7589,
      "ĠÙĪØ§ÙĦØ¯": 7590,
      "ĠÙĪØ§ÙĦØ¶": 7591,
      "ĠÙĪØ§ÙĦØº": 7592,
      "ĠÙĪØ§ÙĦÙģØ±": 7593,
      "ĠÙĪØ§ÙĦØªÙĬ": 7594,
      "ĠÙĪØ§ÙĦØ¨Ø§": 7595,
      "ĠÙĪØ§ÙĦØŃØ±": 7596,
      "ĠÙĪØ§ÙĦÙĩØ¯ÙĬ": 7597,
      "ĠÙĪØ§ÙĦØ¯ÙĪØ§": 7598,
      "ĠÙĪØ§ÙĦÙģÙĪØ§": 7599,
      "ĠÙĪØ§ÙĦØ¯ÙĬ": 7600,
      "ĠÙĪØ§ÙĦØŃÙħØ¯": 7601,
      "ĠÙĪØ§ÙĦÙĦØ§Ø¦": 7602,
      "ĠÙĪØ§ÙĦÙģØªÙĨØ©": 7603,
      "ĠÙĪØ§ÙĦØªÙĤÙĪÙī": 7604,
      "ĠÙĪØ§ÙĦÙĬØ³": 7605,
      "ĠÙĪØ§ÙĦØ¯Ø§Ø±": 7606,
      "ĠÙĪØ§ÙĦÙĪÙĦØ¯Ø§ÙĨ": 7607,
      "ĠÙĪØ§ÙĦÙĨØ³Ø§Ø¡": 7608,
      "ĠÙĪØ§ÙĦØ´ÙĬØ§Ø·ÙĬÙĨ": 7609,
      "ĠÙĪØ§ÙĦÙĦØ§ØªÙĬ": 7610,
      "ĠÙĨÙĪÙħ": 7611,
      "ĠÙĨØ¸": 7612,
      "ĠÙĨØ¹Ø¯": 7613,
      "ĠÙĨÙĥØ±": 7614,
      "ĠÙĨØ´Ø±": 7615,
      "ĠÙĨØ§Ø¦": 7616,
      "ĠÙĨØ¨Ø±": 7617,
      "ĠÙĨÙĥÙĪÙĨ": 7618,
      "ĠÙĨØ¹Ø§": 7619,
      "ĠÙĨØ³Ø¨": 7620,
      "ĠÙĨØºÙģØ±": 7621,
      "ĠÙĨØ®ÙĦ": 7622,
      "ĠÙĨØ¨Øª": 7623,
      "ĠÙĨÙĥØ§": 7624,
      "ĠÙĨÙĤØ±": 7625,
      "ĠÙĨØ³Ø¨ØŃ": 7626,
      "ĠÙĨØ§Ø¬": 7627,
      "ĠÙĨÙĩÙĦÙĥ": 7628,
      "ĠÙĨØ³ÙħØ¹": 7629,
      "ĠÙĨØªÙĤ": 7630,
      "ĠÙĨÙĪØ±ÙĩÙħ": 7631,
      "ĠÙĨØ¯Ø¹": 7632,
      "ĠÙĨØ±Ø¯": 7633,
      "ĠÙĨØ¨Ø¯ÙĦ": 7634,
      "ĠÙĨÙĩØ§Ø±Ø§": 7635,
      "ĠÙĨØ¶Ø±Ø¨": 7636,
      "ĠÙĨØ§Ø¸": 7637,
      "ĠÙĨØ¶Ø±Ø©": 7638,
      "ĠÙĨÙĤØ§ØªÙĦ": 7639,
      "ĠÙĨÙĩÙĬØª": 7640,
      "Ø§Ø¨ÙĦ": 7641,
      "Ø§Ø¨Øª": 7642,
      "Ø§Ø¨Ø±ÙĪÙĨ": 7643,
      "Ø§Ø¨Ø¯ÙĬÙĨ": 7644,
      "ĠÙĩÙĬÙĨ": 7645,
      "ĠÙĩÙħØ§": 7646,
      "ĠÙĩØ¶": 7647,
      "ĠÙĩÙĦÙħ": 7648,
      "ĠÙĩØ§Ø±": 7649,
      "ĠÙĩØ°Ø§ÙĨ": 7650,
      "ĠÙĩØ¨Ø§Ø¡": 7651,
      "ĠØ§ÙĦØ°ÙĦØ©": 7652,
      "ĠØ§ÙĦØ°ÙĩØ¨": 7653,
      "ÙĦÙħÙĨØ§": 7654,
      "ÙĦÙħØ©": 7655,
      "ĠÙħØ§Ùĥ": 7656,
      "ĠØ³ÙĨØ§": 7657,
      "ĠØ³ÙĦÙĥ": 7658,
      "ĠØ³Ø¢": 7659,
      "ĠØ³ÙĬØ¯": 7660,
      "ĠØ³ÙĥØ±": 7661,
      "ĠØ³Ø¨ÙĦ": 7662,
      "ĠØ³Ø§Ùģ": 7663,
      "ĠØ³Ø¹ÙĪØ§": 7664,
      "ĠØ³ÙĦÙĬÙħ": 7665,
      "ĠØ³Ø¹Ø©": 7666,
      "ĠØ³ÙĤÙĬÙħ": 7667,
      "ĠØ³Ø¯ÙĬØ¯": 7668,
      "ĠØ³ÙĦÙħØ§": 7669,
      "ĠØ³ÙĪÙĬ": 7670,
      "ĠØ³Ø£ÙĨ": 7671,
      "ĠØ³Ø§Ùĩ": 7672,
      "ĠØ³ÙĥÙĨ": 7673,
      "ĠØ³ÙħØ§ÙĨ": 7674,
      "ĠØ³ÙĨÙĥ": 7675,
      "ĠØ³ÙħØ§Ø¡": 7676,
      "ĠØ³ÙĤØ·": 7677,
      "ĠØ³ÙħØ¹Ø§": 7678,
      "ĠØ³Ø¯Ø±": 7679,
      "ĠØ³ÙģØ§Ùĩ": 7680,
      "ĠØ³ÙĦØ§ÙĦØ©": 7681,
      "ĠØ³ÙĤÙģØ§": 7682,
      "Ø·ÙĪ": 7683,
      "Ø·Ùĩ": 7684,
      "Ø·ÙĬÙĨ": 7685,
      "Ø·ÙĦÙĪÙĨ": 7686,
      "Ø·ÙĦÙĪØ§": 7687,
      "Ø·ÙĤÙĪÙĨ": 7688,
      "Ø·ÙģÙī": 7689,
      "Ø·ÙĦØ¹": 7690,
      "ÙĬØ±Ùī": 7691,
      "ÙĬØ±Ø©": 7692,
      "Ø§Ø¡ÙĪÙĨ": 7693,
      "Ø«Ø©": 7694,
      "Ø«Ø§Ø¡": 7695,
      "Ø«ÙĬÙħ": 7696,
      "Ø«ÙĬØ§": 7697,
      "Ø«Ø±ÙĪÙĨ": 7698,
      "Ø«ÙĤÙī": 7699,
      "Ø«Ø§ÙĨØ§": 7700,
      "Ø¦ÙĬ": 7701,
      "Ø¦Ø±": 7702,
      "Ø¦Øª": 7703,
      "Ø¦ÙĩÙĨ": 7704,
      "Ø¦ÙĨØ©": 7705,
      "Ø¦ÙĨÙĩÙħ": 7706,
      "Ø¦ÙĪØ³": 7707,
      "ĠØ±Ø¨Ø§": 7708,
      "ĠØ¢ÙĨØ³": 7709,
      "ĠØ¢ÙĪÙī": 7710,
      "ĠØ¢ÙĦØ§Ùģ": 7711,
      "ĠØ¢ØªÙĪÙĨÙĬ": 7712,
      "ĠØ¢ÙĪÙĪØ§": 7713,
      "ÙĪÙħÙĪØ§": 7714,
      "ÙĪÙħÙĩØ§": 7715,
      "ĠÙĪØ£Øº": 7716,
      "ĠÙĪØ£Ø´Ø±": 7717,
      "ĠÙĪØ£ÙĦÙģ": 7718,
      "ĠÙĪØ£ÙĪØª": 7719,
      "ĠÙĪØ£ØªÙĪØ§": 7720,
      "ĠÙĪØ£Ø´Ø±Ùĥ": 7721,
      "ĠÙĪØ£ÙĥÙĨ": 7722,
      "ĠÙĪØ£Ø±Ø³ÙĦ": 7723,
      "ĠÙĪØ£ÙĤØ§Ùħ": 7724,
      "ĠÙĪØ£Ø·ÙĩØ±": 7725,
      "ĠÙĪØ£ØŃØµ": 7726,
      "ĠÙĪØ£ØªÙĪÙĨÙĬ": 7727,
      "ĠÙĪØ£ÙĪØ°": 7728,
      "ĠÙĪØ£Ø¬Ø±Ø§": 7729,
      "ĠÙĪØ£Ø³ÙĦÙħ": 7730,
      "ĠÙĪØ£Ø´ÙĩØ¯ÙĪØ§": 7731,
      "ĠÙĪØ£Ø°ÙĨØª": 7732,
      "ĠØ§ÙĦÙħØ¶": 7733,
      "ĠØ§ÙĦÙħØº": 7734,
      "ĠØ§ÙĦÙħØ¹ÙĦ": 7735,
      "ĠØ§ÙĦÙħÙģØª": 7736,
      "ĠØ§ÙĦÙħÙĤØª": 7737,
      "ĠØ§ÙĦÙħÙĪØ¬": 7738,
      "ĠØ§ÙĦÙħØ±Ùģ": 7739,
      "ĠØ§ÙĦÙħØ³Ø¨ØŃ": 7740,
      "ĠØ§ÙĦÙħØ«ÙĦ": 7741,
      "ĠØ§ÙĦÙħØºÙģØ±Ø©": 7742,
      "ĠØ§ÙĦÙħÙĩÙĬÙĨ": 7743,
      "ĠØ§ÙĦÙħØ´Ø§Ø±": 7744,
      "ĠØ§ÙĦÙħÙĩØªØ¯ÙĬÙĨ": 7745,
      "ĠØ§ÙĦÙħØºØ±Ø¨": 7746,
      "ĠØ§ÙĦÙħÙĩØ§Ø¬Ø±ÙĬÙĨ": 7747,
      "ĠØ§ÙĦÙħÙĦØ¥": 7748,
      "ĠØ§ÙĦÙħØµØ¯ÙĤÙĬÙĨ": 7749,
      "ĠØ§ÙĦÙħØ±ÙĬØ¶": 7750,
      "ĠØ§ÙĦÙħØ¶Ø§Ø¬Ø¹": 7751,
      "ĠØŃÙĪ": 7752,
      "ĠØŃØ¨ÙĦ": 7753,
      "ĠØŃØ¬Ø±": 7754,
      "ĠØŃØ§Ùģ": 7755,
      "ĠØŃØ°Ø±": 7756,
      "ĠØŃØ¨Ø§ÙĦ": 7757,
      "ĠØŃØ§Ø³": 7758,
      "ĠØŃØ¨Ùĩ": 7759,
      "ĠØŃÙģØ¸": 7760,
      "ĠØŃØ§ÙģØ¸ÙĪÙĨ": 7761,
      "ĠØŃØ°Ø±ÙĥÙħ": 7762,
      "ĠØŃØ·Ø©": 7763,
      "ĠØŃÙĨÙģØ§Ø¡": 7764,
      "ØºØ¨": 7765,
      "ØªÙħØ±ÙĪÙĨ": 7766,
      "ØªÙħÙĦØª": 7767,
      "ĠÙĦØ§ÙħØ³": 7768,
      "ĠÙĦØ§Ø¹Ø¨ÙĬÙĨ": 7769,
      "ĠØ¬Ø§Ø¯": 7770,
      "ĠØ¬Ø§Ø±": 7771,
      "ĠØ¬ÙĬØ¨": 7772,
      "ĠØ¬Ø¨Ø§ÙĦ": 7773,
      "ĠØ¬ÙĪØ¹": 7774,
      "ĠØ¬ÙĩØ²": 7775,
      "ĠØ¬ØŃÙĬÙħ": 7776,
      "ĠØ¬ÙħØ§ÙĦ": 7777,
      "ĠØ¬ÙĨØªÙĬÙĨ": 7778,
      "ĠØ¬ÙħÙĬÙĦ": 7779,
      "ĠØ¬Ø«ÙĬØ§": 7780,
      "ĠØ®ÙĦ": 7781,
      "ĠØ®ÙĦØ§": 7782,
      "ĠØ®ÙĪÙĦ": 7783,
      "ĠØ®ÙģÙĬ": 7784,
      "ĠØ®Ø¨Ø±Ø§": 7785,
      "ĠØ®Ø§Ùħ": 7786,
      "ĠØ®Ø¨Ø§ÙĦ": 7787,
      "ĠØ®Ø±ÙĪØ§": 7788,
      "ĠØ®Ø§Ø¶": 7789,
      "ĠØ®Ø±Ø¯": 7790,
      "ĠØ®Ø¨ÙĬØ«": 7791,
      "ĠØ®ÙĪØ§Ø±": 7792,
      "ĠØ®ÙħØ±Ø§": 7793,
      "ĠØ®ÙĪØ¶": 7794,
      "ĠØ®Ø³Ø±Ø§": 7795,
      "ĠØ®Ø¶Ø±Ø§": 7796,
      "ĠØ®ÙĬØ§ÙĨ": 7797,
      "ĠØ®ÙĦÙĬÙģØ©": 7798,
      "ÙģØ±ÙĤ": 7799,
      "ÙģØ±ÙĤÙĪÙĨ": 7800,
      "ĠØ´Ø±Ø§": 7801,
      "ĠØ´ØªÙī": 7802,
      "ĠØ´Ø±ØŃ": 7803,
      "ĠØ´Ø§ÙĩØ¯ÙĬÙĨ": 7804,
      "ĠØ´Ø¯Ø§Ø¯": 7805,
      "ĠØ´ÙģØ§Ø¡": 7806,
      "ĠØ´ÙĩØ§Ø¨": 7807,
      "ĠØ´ÙĨØ¢ÙĨ": 7808,
      "ĠØ§ÙĦØ£ÙħÙĨ": 7809,
      "ĠØ§ÙĦØ£ÙĬØ¯": 7810,
      "ĠØ§ÙĦØ£ÙĪØª": 7811,
      "ĠØ§ÙĦØ£Ø²ÙĪØ§Ø¬": 7812,
      "ĠØ§ÙĦØ£Ø¹ÙĬÙĨ": 7813,
      "ĠØ§ÙĦØ£ÙĬÙħØ§ÙĨ": 7814,
      "ĠØ§ÙĦØ£Ø³ÙĪØ§": 7815,
      "ĠØ§ÙĦØ£Ø¹ÙĦÙĪÙĨ": 7816,
      "ĠØ§ÙĦØ£ØµÙģ": 7817,
      "ĠØ§ÙĦØ£Ø¨ÙĪØ§Ø¨": 7818,
      "ĠØ§ÙĦØ£Ø¯ÙĨÙī": 7819,
      "ĠØ§ÙĦØ£ÙĥÙħÙĩ": 7820,
      "ĠÙĤØ§ÙĦØ§": 7821,
      "ĠÙĤØ§ÙĦØªØ§": 7822,
      "ĠÙĪØ¥ÙĦØ§": 7823,
      "ĠÙĪØ¥ÙĦÙĬ": 7824,
      "ĠÙĪØ¥Ø«Ùħ": 7825,
      "ĠÙĪØ¥ÙĤØ§Ùħ": 7826,
      "ĠÙĪØ¥Ø®ÙĪØ§ÙĨÙĩÙħ": 7827,
      "ĠÙĪØ¥Ø®ÙĪØ§ÙĨÙĥÙħ": 7828,
      "Ø¸ÙĨÙĪÙĨ": 7829,
      "Ø¸ÙĨÙĩ": 7830,
      "Ø¸ÙĦÙĦ": 7831,
      "Ø±Ø§ÙĪØ¯": 7832,
      "Ø±Ø§Ø¯ÙĪØ§": 7833,
      "Ø±Ø§Ø¬Ø§": 7834,
      "Ø±Ø§ÙģÙĩØ§": 7835,
      "ĠÙĪÙĦØ¢": 7836,
      "ĠÙĪÙĦÙĬÙĨØ§": 7837,
      "ĠÙĪÙĦÙĨØ³": 7838,
      "ĠÙĪÙĦØ°ÙĬ": 7839,
      "ĠÙĪÙĦØ£ÙĨØ¹Ø§Ùħ": 7840,
      "ĠÙĪÙĦØ¤ÙĦØ¤Ø§": 7841,
      "Ø¢Ùĩ": 7842,
      "Ø¤ÙĩÙħ": 7843,
      "ĠØ¨Ø§ÙĦÙĩÙħ": 7844,
      "ĠØ¨Ø§ÙĦØ¬": 7845,
      "ĠØ¨Ø§ÙĦÙħÙĨ": 7846,
      "ĠØ¨Ø§ÙĦØ´Ø±": 7847,
      "ĠØ¨Ø§ÙĦØ¨Ø±": 7848,
      "ĠØ¨Ø§ÙĦØ³ÙĨ": 7849,
      "ĠØ¨Ø§ÙĦØ¢ÙĬØ§Øª": 7850,
      "ĠØ¨Ø§ÙĦÙĬÙĪÙħ": 7851,
      "ĠØ¨Ø§ÙĦÙħØª": 7852,
      "ĠØ¨Ø§ÙĦØ³Ø§": 7853,
      "ĠØ¨Ø§ÙĦØ¬ÙĨ": 7854,
      "ĠØ¨Ø§ÙĦÙĬÙħÙĬÙĨ": 7855,
      "ĠØ¨Ø§ÙĦØµØ¯ÙĤ": 7856,
      "ĠØ¨Ø§ÙĦØŃÙĥÙħØ©": 7857,
      "ĠØ°Ùĩ": 7858,
      "ĠØ°Ø±Ø§": 7859,
      "ĠØ°ÙħØ©": 7860,
      "ĠØ°ÙĪÙĬ": 7861,
      "ĠØ¹ÙĨØªÙħ": 7862,
      "Ø¹ÙĦÙĨ": 7863,
      "Ø¹ÙĦÙĪÙĩ": 7864,
      "ÙĬØ§ÙĬ": 7865,
      "ÙĬØ§Ùĩ": 7866,
      "ÙĬØ§Ø¯Ø©": 7867,
      "ĠØ£ÙĪÙħÙĨ": 7868,
      "ĠØ£ÙĪÙĦØ§Ø¡": 7869,
      "ĠØ£ÙĪØ³Ø·": 7870,
      "ĠØ£ÙĪØ¹Ø¬": 7871,
      "ĠØ£ÙĪØ²Ø¹": 7872,
      "ĠØ£ÙĪØ¢Ø¨": 7873,
      "ĠØ£ÙĪØ«Ø§ÙĨØ§": 7874,
      "ĠØ§ÙĦØ³ØŃØ§Ø¨": 7875,
      "ĠØ§ÙĦØ³Ø§Ùħ": 7876,
      "ĠØ§ÙĦØ³ÙĨÙĬÙĨ": 7877,
      "ĠØ§ÙĦØ³ÙĥÙĬÙĨ": 7878,
      "ĠØ§ÙĦØ³ØŃØª": 7879,
      "ĠØ§ÙĦØ³Ø§ØŃØ±": 7880,
      "ĠØ§ÙĦØ³ÙħÙĪÙħ": 7881,
      "Ø³ØªÙĪØ¯": 7882,
      "Ø³ØªØ®Ø±Ø¬": 7883,
      "Ø³ØªÙĤØ±": 7884,
      "Ø³ØªØŃÙĬÙĬ": 7885,
      "Ø³ØªØ¶Ø¹ÙģÙĬÙĨ": 7886,
      "Ø³ØªØ¯Ø±Ø¬": 7887,
      "Ø±ÙĪÙĨÙĥ": 7888,
      "ĠÙĪÙĬÙħÙĨ": 7889,
      "ĠÙĪÙĬØªÙħ": 7890,
      "ĠÙĪÙĬØ¤ÙħÙĨ": 7891,
      "ĠÙĪÙĬØ¨ÙĬÙĨ": 7892,
      "ĠÙĪÙĬØŃØ±": 7893,
      "ĠÙĪÙĬÙĦÙĥÙħ": 7894,
      "ĠÙĪÙĬØ³Ø¨ØŃ": 7895,
      "ĠÙĪÙĬØ°ÙĩØ¨": 7896,
      "ĠÙĪÙĬÙĤØ¨": 7897,
      "ĠÙĪÙĬØªØ¨Ø¹": 7898,
      "ĠÙĪÙĬØ¹ÙħÙĦ": 7899,
      "ĠÙĪÙĬÙĤØ°": 7900,
      "ĠÙĪÙĬØ¯Ø®ÙĦÙĩÙħ": 7901,
      "ĠÙĪÙĬØ¶Ø±Ø¨": 7902,
      "ĠÙĪÙĬÙĤÙĬÙħÙĪÙĨ": 7903,
      "ĠÙĪÙĬØ¯Ø¹ÙĪÙĨ": 7904,
      "ĠÙĪÙĬÙĪÙĨØ³": 7905,
      "ĠÙĪÙĬÙģØ³Ø¯ÙĪÙĨ": 7906,
      "ĠÙĪÙĬØŃÙĬÙī": 7907,
      "ĠÙĪÙĬØ¯Ø®ÙĦÙĥÙħ": 7908,
      "ĠÙĪÙĬÙĤØ·Ø¹ÙĪÙĨ": 7909,
      "ĠØ§ÙĦØ±Ø¨Ø¹": 7910,
      "ĠØ§ÙĦØ±Ø¬Ø¹": 7911,
      "Ø¹Ø¯ÙĦÙĪØ§": 7912,
      "Ø§Ø¯ÙĤ": 7913,
      "Ø§Ø¯Ø¹ÙĪÙĨ": 7914,
      "Ø§Ø¯ÙĦÙĪØ§": 7915,
      "ÙĬØ¯ÙĥÙħ": 7916,
      "Ø¹ÙħØ¯Ø§": 7917,
      "Ø¹ÙħØ±Ø©": 7918,
      "Ø®Ø±ÙĥÙħ": 7919,
      "ĠØ«ÙĦ": 7920,
      "ĠØ«ÙĦØ©": 7921,
      "ĠØ«Ø§ÙĨÙĬ": 7922,
      "ĠØ«Ø¹Ø¨": 7923,
      "ĠÙĤÙĦØ¨": 7924,
      "Ø§Ø±Ø¯": 7925,
      "ĠØ£ÙħÙħØ§": 7926,
      "ĠØ£ÙħØªÙĥÙħ": 7927,
      "ĠØ£ÙħØ¯ÙĥÙħ": 7928,
      "ÙĦÙĪÙĨÙĩ": 7929,
      "ÙĦÙĪÙĨØ§ÙĩÙħ": 7930,
      "ĠØ§ÙĦØŃÙĦÙħ": 7931,
      "ĠØ§ÙĦØŃØ±Ø¨": 7932,
      "ĠØ§ÙĦØŃØ²ÙĨ": 7933,
      "ĠØ§ÙĦØŃÙĨØ§Ø¬Ø±": 7934,
      "ĠØ¯ÙħØ§": 7935,
      "ĠØ¯Ø¹ÙĪ": 7936,
      "ĠØ¯Ø®ÙĦØ§": 7937,
      "ĠØ¯Ø§ÙģØ¹": 7938,
      "ĠØ¯Ø§ÙĨÙĬØ©": 7939,
      "ĠØ¯Ø§Ø¹ÙĬ": 7940,
      "ĠÙģØ£ÙĬ": 7941,
      "ĠÙģØ£Ø±": 7942,
      "ĠÙģØ£ÙĤ": 7943,
      "ĠÙģØ£ÙĬÙĨ": 7944,
      "ĠÙģØ£Ø«": 7945,
      "ĠÙģØ£Ø°Ø§": 7946,
      "ĠÙģØ£ÙĨØª": 7947,
      "ĠÙģØ£ØŃØ³ÙĨ": 7948,
      "ĠÙģØ£ØŃÙĬ": 7949,
      "ĠÙģØ£Ø®ÙĦÙģ": 7950,
      "ĠÙģØ£ÙĥØ«Ø±": 7951,
      "ĠÙģØ£Ø±Ø§Ø¯": 7952,
      "ĠÙģØ£ÙĤÙħ": 7953,
      "ĠÙģØ£ØªØ§ÙĩÙħ": 7954,
      "ĠÙģØ£Ø®Ø§Ùģ": 7955,
      "ĠÙģØ£Ø¬Ø±Ùĩ": 7956,
      "ĠÙģØ£ÙĪØ¬Ø³": 7957,
      "ĠÙģØ£Ø¬ÙħØ¹ÙĪØ§": 7958,
      "ĠØ§ÙĦØ¹ÙĦÙī": 7959,
      "ĠØ§ÙĦØ¹ÙĬØ±": 7960,
      "ĠØ§ÙĦØ¹ÙĩØ¯": 7961,
      "ĠØ§ÙĦØ¹ØªÙĬ": 7962,
      "ĠØ§ÙĦØ¹Ø¨Ø¯": 7963,
      "ĠØ§ÙĦØ¹Ø¨Ø§Ø¯": 7964,
      "ĠØ§ÙĦØ¹ÙĨÙĥ": 7965,
      "ĠØ§ÙĦØ¹ÙģÙĪ": 7966,
      "ĠØ§ÙĦØ¹ÙĤØ¨Ø©": 7967,
      "ĠØ§ÙĦØ¹Ø§Ø¯ÙĪÙĨ": 7968,
      "ÙĦÙĤÙĩ": 7969,
      "ÙĦÙĤÙĪØ§": 7970,
      "ÙĦÙĤÙĬÙĨ": 7971,
      "ĠÙĪÙĤÙĩÙħ": 7972,
      "ĠÙĪÙĤÙĨØ§": 7973,
      "ĠÙĪÙĤØ¨ÙĦ": 7974,
      "ĠÙĪÙĤØ·Ø¹": 7975,
      "ĠÙĪÙĤØ¹Øª": 7976,
      "ĠÙĪÙĤÙģÙĪØ§": 7977,
      "ĠÙĪÙĤØªÙĦÙĪØ§": 7978,
      "ĠÙĪÙĤØ°Ùģ": 7979,
      "ĠÙĪÙĤØ§ØªÙĦÙĪÙĩÙħ": 7980,
      "ĠÙĪÙĤØ¹ÙĪØ¯Ø§": 7981,
      "ĠØµØ§ÙĦ": 7982,
      "ĠØµÙĦÙī": 7983,
      "ĠØµÙģØ±": 7984,
      "ĠØµÙĬØ¯": 7985,
      "ĠØµÙĦÙĪØ§": 7986,
      "ĠØµØ¨ØŃ": 7987,
      "ĠØµÙĦØ§Ø©": 7988,
      "ĠØµÙĪØ±ÙĥÙħ": 7989,
      "ĠØµØŃÙģØ§": 7990,
      "ĠØµØ§ÙģØ§Øª": 7991,
      "ĠØµÙĨÙĪØ§ÙĨ": 7992,
      "ÙĩØ¯ÙĩÙħ": 7993,
      "ĠÙģØ¥Ø°": 7994,
[...]
