{
  "version": "1.0",
  "truncation": null,
  "padding": null,
  "added_tokens": [
    {
      "id": 0,
      "content": "<PAD>",
      "single_word": false,
      "lstrip": false,
      "rstrip": false,
      "normalized": false,
      "special": true
    },
    {
      "id": 1,
      "content": "<BOS>",
      "single_word": false,
      "lstrip": false,
      "rstrip": false,
      "normalized": false,
      "special": true
    },
    {
      "id": 2,
      "content": "<EOS>",
      "single_word": false,
      "lstrip": false,
      "rstrip": false,
      "normalized": false,
      "special": true
    }
  ],
  "normalizer": {
    "type": "NFKC"
  },
  "pre_tokenizer": {
    "type": "ByteLevel",
    "add_prefix_space": true,
    "trim_offsets": true,
    "use_regex": true
  },
  "post_processor": null,
  "decoder": {
    "type": "ByteLevel",
    "add_prefix_space": true,
    "trim_offsets": true,
    "use_regex": true
  },
  "model": {
    "type": "BPE",
    "dropout": null,
    "unk_token": null,
    "continuing_subword_prefix": null,
    "end_of_word_suffix": null,
    "fuse_unk": false,
    "byte_fallback": false,
    "vocab": {
      "<PAD>": 0,
      "<BOS>": 1,
      "<EOS>": 2,
      "¡": 3,
      "¢": 4,
      "£": 5,
      "¤": 6,
      "¥": 7,
      "¦": 8,
      "§": 9,
      "¨": 10,
      "©": 11,
      "ª": 12,
      "«": 13,
      "¬": 14,
      "®": 15,
      "¯": 16,
      "°": 17,
      "±": 18,
      "²": 19,
      "³": 20,
      "´": 21,
      "µ": 22,
      "¶": 23,
      "·": 24,
      "¸": 25,
      "¹": 26,
      "º": 27,
      "Ø": 28,
      "Ù": 29,
      "Ċ": 30,
      "Ġ": 31,
      "ģ": 32,
      "Ĥ": 33,
      "ĥ": 34,
      "Ħ": 35,
      "ħ": 36,
      "Ĩ": 37,
      "ĩ": 38,
      "Ī": 39,
      "ī": 40,
      "Ĭ": 41,
      "Ń": 42,
      "Ø§": 43,
      "ÙĦ": 44,
      "ĠÙ": 45,
      "ĠØ": 46,
      "ÙĨ": 47,
      "Ùħ": 48,
      "ÙĬ": 49,
      "ÙĪ": 50,
      "Ø§ÙĦ": 51,
      "Ùĩ": 52,
      "Ø±": 53,
      "ĠØ§ÙĦ": 54,
      "ĠÙĪ": 55,
      "Ùĥ": 56,
      "Øª": 57,
      "Ø¨": 58,
      "ĠÙħ": 59,
      "Ø¹": 60,
      "ĠØ£": 61,
      "Ø¯": 62,
      "Ø³": 63,
      "ĠÙģ": 64,
      "ĠÙĦ": 65,
      "ĠÙĬ": 66,
      "ÙĤ": 67,
      "Ø°": 68,
      "ÙĪØ§": 69,
      "ÙĬÙĨ": 70,
      "ĠØ¨": 71,
      "ÙĩÙħ": 72,
      "ĠØ¥": 73,
      "ÙĪÙĨ": 74,
      "Ùģ": 75,
      "ØŃ": 76,
      "Ø£": 77,
      "ÙĦÙĩ": 78,
      "ĠÙħÙĨ": 79,
      "ĠØ¹": 80,
      "ÙĨØ§": 81,
      "ÙħØ§": 82,
      "ÙĦØ§": 83,
      "Ùī": 84,
      "ĠØª": 85,
      "Ø¬": 86,
      "ĠÙĥ": 87,
      "ÙĥÙħ": 88,
      "Ø©": 89,
      "ĠÙĤ": 90,
      "ĠØ§ÙĦÙĦÙĩ": 91,
      "Ø§Ø": 92,
      "ÙĦÙĬ": 93,
      "ĠÙģÙĬ": 94,
      "ÙħÙĨ": 95,
      "Ø®": 96,
      "Øµ": 97,
      "ĠØ±": 98,
      "ĠØ¥ÙĨ": 99,
      "ÙĩØ§": 100,
      "Ø¶": 101,
      "Ø²": 102,
      "Ø§ÙĨ": 103,
      "Ø´": 104,
      "ĠØ£ÙĨ": 105,
      "Ø¥": 106,
      "ĠÙĪØ§ÙĦ": 107,
      "ÙĦÙī": 108,
      "ĠÙĨ": 109,
      "Ø§Ø¨": 110,
      "ĠÙĩ": 111,
      "ĠØ§ÙĦØ°": 112,
      "ÙĦÙħ": 113,
      "Ø§Øª": 114,
      "ĠÙħØ§": 115,
      "ĠØ³": 116,
      "Ø·": 117,
      "ÙĦÙĥ": 118,
      "ÙĬØ±": 119,
      "Ø§Ø¡": 120,
      "Ø«": 121,
      "Ø¦": 122,
      "ĠØ±Ø¨": 123,
      "ĠØ¢": 124,
      "ÙĪÙĦ": 125,
      "ÙĪÙħ": 126,
      "ĠÙĪØ£": 127,
      "ĠØ§ÙĦÙħ": 128,
      "ĠØŃ": 129,
      "Øº": 130,
      "ØªÙħ": 131,
      "ĠÙĦØ§": 132,
      "ĠØ¬": 133,
      "ĠØ§ÙĦØ°ÙĬÙĨ": 134,
      "ĠØ¹ÙĦÙĬ": 135,
      "ĠØ®": 136,
      "ÙģØ±": 137,
      "ÙĬÙħ": 138,
      "Ø°Ø§": 139,
      "ĠØ´": 140,
      "ĠØ§ÙĦØ£": 141,
      "ĠÙĤØ§ÙĦ": 142,
      "ĠÙĪØ¥": 143,
      "ĠØ¹ÙĦÙī": 144,
      "Ø¸": 145,
      "Ø±Ø§": 146,
      "ĠÙĪÙĦ": 147,
      "ĠØ¥ÙĦØ§": 148,
      "ĠÙĪÙĦØ§": 149,
      "ĠÙĪÙħØ§": 150,
      "Ø¡": 151,
      "Ø¢": 152,
      "Ø±Ø¶": 153,
      "Ø¤": 154,
      "ĠØ¨Ø§ÙĦ": 155,
      "ĠØ°": 156,
      "ĠØ¹ÙĨ": 157,
      "Ø¹ÙĦ": 158,
      "ĠÙĥØ§ÙĨ": 159,
      "ÙĬØ§": 160,
      "ĠØ£ÙĪ": 161,
      "ĠØ§ÙĦØ³": 162,
      "Ø³Øª": 163,
      "Ø±ÙĪÙĨ": 164,
      "ĠÙĪÙĬ": 165,
      "ĠØ§ÙĦØ±": 166,
      "Ø¹Ø¯": 167,
      "Ø§Ø¯": 168,
      "ÙĬØ¯": 169,
      "Ø¹Ùħ": 170,
      "Ø¹ÙĦÙħ": 171,
      "Ø®Ø±": 172,
      "ĠØ«": 173,
      "ĠÙĤÙĦ": 174,
      "Ø§Ø±": 175,
      "ĠØ£Ùħ": 176,
      "ÙĦÙĪÙĨ": 177,
      "ĠØ§ÙĦØŃ": 178,
      "ĠØ¥ÙĦÙī": 179,
      "ĠØ¯": 180,
      "ĠÙģØ£": 181,
      "ĠØ§ÙĦØ¹": 182,
      "ĠÙĪÙħÙĨ": 183,
      "ÙĦÙĤ": 184,
      "ĠÙĪÙĤ": 185,
      "ĠÙĦÙĩÙħ": 186,
      "Ø¤ÙħÙĨ": 187,
      "ĠØ«Ùħ": 188,
      "ÙĥØ±": 189,
      "ĠØµ": 190,
      "ÙĩØ¯": 191,
      "ĠÙģØ¥": 192,
      "ÙĬÙĨØ§": 193,
      "ĠØ§ÙĦÙĤ": 194,
      "ÙģØ³": 195,
      "ĠÙĦÙĬ": 196,
      "ĠØ¨Ùĩ": 197,
      "ĠÙĬØ§": 198,
      "ĠØ§": 199,
      "Ø±ÙĬ": 200,
      "Ø¹ÙĪÙĨ": 201,
      "ĠÙĪÙĥ": 202,
      "Ø¨ÙĬ": 203,
      "ĠØ§ÙĦÙĥ": 204,
      "ĠÙĦÙĥÙħ": 205,
      "Ø°Ø¨": 206,
      "Ø°Ø§Ø¨": 207,
      "ÙĪØ±": 208,
      "ÙĤØ¯": 209,
      "ĠÙĪØ¥ÙĨ": 210,
      "ĠØ¢ÙħÙĨ": 211,
      "ĠØº": 212,
      "ĠÙĦÙĩ": 213,
      "ÙĬØ§Øª": 214,
      "Ø´Ø±": 215,
      "ÙĦÙĪØ§": 216,
      "ĠØ§ÙĦØ±ØŃ": 217,
      "ÙĦÙĨØ§": 218,
      "ÙĨÙĬ": 219,
      "ĠØ¨ÙħØ§": 220,
      "Ø±Ø¨": 221,
      "Ø±Ø³": 222,
      "ĠÙĬÙĪÙħ": 223,
      "ĠØ§ÙĦÙĨØ§": 224,
      "Ø¨ÙĦ": 225,
      "ĠØ´ÙĬ": 226,
      "ĠØ§ÙĦØ³ÙħØ§": 227,
      "ØªÙĬ": 228,
      "ĠØ§ÙĦØ£Ø±Ø¶": 229,
      "Ø§Ø¦": 230,
      "ĠÙĪØ¬": 231,
      "Ø¦Ùĥ": 232,
      "ĠØ°ÙĦÙĥ": 233,
      "ØªØ§Ø¨": 234,
      "ĠÙĩÙĪ": 235,
      "Ø°ÙĬÙĨ": 236,
      "ÙĨØªÙħ": 237,
      "Ø¨ÙĬÙĨ": 238,
      "Ø³Ùħ": 239,
      "ĠÙĥÙĦ": 240,
      "Ø¨Ø¹": 241,
      "ÙĤÙĪÙĦ": 242,
      "ĠØ§ÙĦØ°ÙĬ": 243,
      "ĠÙĩÙħ": 244,
      "Ø¨Ø±": 245,
      "ĠØ¨ÙĬÙĨ": 246,
      "ĠØ¢ÙħÙĨÙĪØ§": 247,
      "ÙĩÙĨ": 248,
      "Ø¨Ø¯": 249,
      "ĠØ§ÙĦØµ": 250,
      "ĠØ¥ÙĦÙĬ": 251,
      "ĠØ±Ø¨Ùĥ": 252,
      "Ø®Ø°": 253,
      "ĠÙĤØ§ÙĦÙĪØ§": 254,
      "ÙħÙĬÙĨ": 255,
      "ÙĥÙĪÙĨ": 256,
      "ĠÙģÙĬÙĩØ§": 257,
      "ĠÙĪØ§ÙĦÙĦÙĩ": 258,
      "ĠÙĦÙħ": 259,
      "ĠÙģØ¥ÙĨ": 260,
      "ÙĩÙĪ": 261,
      "ĠÙħØ¹": 262,
      "ĠÙĪØ§": 263,
      "ĠØ¨Ø¹": 264,
      "ĠÙĬØª": 265,
      "ÙĬØ¨": 266,
      "ĠÙĥØ§ÙĨÙĪØ§": 267,
      "ĠÙĥÙģØ±": 268,
      "ÙĪØ¨": 269,
      "ĠØ£ÙĬ": 270,
      "ĠÙĬÙĨ": 271,
      "ĠÙĦÙĦ": 272,
      "ÙĬØ±Ø§": 273,
      "ĠØ¹ÙĦÙĬÙĩÙħ": 274,
      "ĠØ¥Ø°Ø§": 275,
      "ĠÙĪØª": 276,
      "ĠÙĪØ§ÙĦØ£": 277,
      "ĠÙĤØ¯": 278,
      "ĠÙĬØŃ": 279,
      "ÙĪØ§Øª": 280,
      "Ø²ÙĦ": 281,
      "Ø¹Ø§": 282,
      "Ø¬Ø±": 283,
      "ÙĬÙĦ": 284,
      "ĠØ¨Ø¹Ø¯": 285,
      "ĠÙħÙĪ": 286,
      "ĠÙĬØ±": 287,
      "ĠØ¬Ø§Ø¡": 288,
      "ÙĪÙĦØ¦Ùĥ": 289,
      "ÙĤÙĪØ§": 290,
      "ĠØ¹Ø°Ø§Ø¨": 291,
      "ÙħØ±": 292,
      "ØŃÙħ": 293,
      "ÙĪÙģ": 294,
      "Ø¯Ø§": 295,
      "Ø³Ø¨": 296,
      "ĠÙĬØ´": 297,
      "ÙĪÙĩ": 298,
      "ĠÙģØ§": 299,
      "ĠØ§ÙĦØ¯": 300,
      "ĠÙĤØ¨ÙĦ": 301,
      "Ø³Ùī": 302,
      "ĠÙģÙĦ": 303,
      "ĠÙĩØ°Ø§": 304,
      "ĠØ´ÙĬØ¡": 305,
      "ØªÙī": 306,
      "ĠÙĥÙģØ±ÙĪØ§": 307,
      "ĠÙĥÙĨØªÙħ": 308,
      "ĠÙĤÙĪÙħ": 309,
      "Ø³Ø±": 310,
      "ĠØ¹ÙĨØ¯": 311,
      "ĠØ£ØŃ": 312,
      "ĠØ§ÙĦÙĨØ§Ø³": 313,
      "ĠØ§ÙĦØ³ÙħØ§ÙĪØ§Øª": 314,
      "Ø³ÙĨ": 315,
      "ÙĤØ§": 316,
      "ĠØªØ±": 317,
      "ĠØ¸": 318,
      "ĠØ§ÙĦÙĨ": 319,
      "ĠÙĪÙĨ": 320,
      "ĠÙĪØ£ÙĨ": 321,
      "ĠØ·": 322,
      "Ø²ÙĬ": 323,
      "ĠØ®ÙĦÙĤ": 324,
      "ĠØ§ÙĦØ¬": 325,
      "ÙĪØ¯": 326,
      "ØªÙĩ": 327,
      "ØªÙĩÙħ": 328,
      "ÙħÙĬ": 329,
      "ĠÙĪÙĩÙĪ": 330,
      "ÙĤÙĬÙĨ": 331,
      "ĠØ¨Ø£": 332,
      "Ø¢Ø®Ø±": 333,
      "Ø§ÙĦÙħÙĬÙĨ": 334,
      "ĠÙĬØ¹ÙĦÙħ": 335,
      "ÙĬØ©": 336,
      "ĠØ¥Ø°": 337,
      "ĠÙħÙĨÙĩÙħ": 338,
      "ĠÙĪØ§ÙĦØ°ÙĬÙĨ": 339,
      "ĠØ¹ÙĦÙĬÙĥÙħ": 340,
      "Ø¢ÙĬØ§Øª": 341,
      "ĠØ§ÙĦÙĥØªØ§Ø¨": 342,
      "Ø§Ùģ": 343,
      "ĠÙĬØ£": 344,
      "ĠØ¥ÙĨØ§": 345,
      "ÙħØ¹": 346,
      "ĠØ£Ùģ": 347,
      "ÙĦÙģ": 348,
      "ĠÙģØª": 349,
      "ĠØ¨ÙĦ": 350,
      "ĠÙĪÙĤØ§ÙĦ": 351,
      "ĠØ±Ø³": 352,
      "ĠØ¶": 353,
      "ĠÙģÙĦØ§": 354,
      "ĠØ§ÙĦØ±ØŃÙħÙĨ": 355,
      "ĠÙĪØ§ÙĦØ£Ø±Ø¶": 356,
      "ĠÙĦÙĥ": 357,
      "Ø¬Ø¯": 358,
      "ÙĪÙĦØ§": 359,
      "ÙĤÙĪÙĨ": 360,
      "ĠØ£Ùĩ": 361,
      "ĠÙĬÙĥ": 362,
      "ĠØ§ÙĦØ´": 363,
      "Ø°ÙĦÙĥ": 364,
      "ĠØ£ÙĬÙĩØ§": 365,
      "ĠÙĪØ¹": 366,
      "Ø®Ø±Ø¬": 367,
      "Ø¨Ø§": 368,
      "ĠÙĦÙĨ": 369,
      "ÙĨØ©": 370,
      "Ø§Ø·": 371,
      "ĠØ¥ÙĨÙĩ": 372,
      "ĠØ¹ÙĦÙĬÙĩ": 373,
      "ĠØ§ÙĦØ±ØŃÙĬÙħ": 374,
      "Ø¤ÙħÙĨÙĬÙĨ": 375,
      "Ø§ÙĦØŃ": 376,
      "ĠÙĬØ¹": 377,
      "ÙģØ§": 378,
      "ĠØ¯ÙĪÙĨ": 379,
      "ØªØ§": 380,
      "ĠØªØŃ": 381,
      "ĠØŃØªÙī": 382,
      "ĠÙĪÙĩÙħ": 383,
      "Ø¶ÙĦ": 384,
      "Ø¹ÙħÙĦÙĪÙĨ": 385,
      "Ø°Ø±": 386,
      "ĠØ¨Ø§ÙĦÙĦÙĩ": 387,
      "Ø§ÙģØ±": 388,
      "ÙģØª": 389,
      "ØµØ±": 390,
      "ĠØ£Ø¬": 391,
      "ĠØ³Ø¨ÙĬ": 392,
      "ĠØ²": 393,
      "ÙĬÙħØ§": 394,
      "ĠÙħØ«": 395,
      "ĠÙĪØ¥Ø°Ø§": 396,
      "ĠØ£ÙĪÙĦØ¦Ùĥ": 397,
      "ĠÙĪÙĦÙĥ": 398,
      "ĠØ¨Ø¹Ø¶": 399,
      "ĠØ§ÙĦØ®": 400,
      "Ø¯ÙĬÙĨ": 401,
      "Ø°ÙĥØ±": 402,
      "ĠØ¥ÙĨÙĬ": 403,
      "ĠØ¢ÙĬØ§Øª": 404,
      "Ø¤ÙħÙĨÙĪÙĨ": 405,
      "ĠØ§Øª": 406,
      "ÙĪØª": 407,
      "ĠÙĪÙħ": 408,
      "ĠÙĪÙĦÙĤØ¯": 409,
      "ĠÙħÙĪØ³Ùī": 410,
      "ĠÙģØ±": 411,
      "ĠÙĬØ¯": 412,
      "ĠÙģÙĬÙĩ": 413,
      "ĠÙĬØ³Øª": 414,
      "ØŃØ±": 415,
      "ÙģÙĬ": 416,
      "ÙĨÙĬØ§": 417,
      "ĠØ£Ùĥ": 418,
      "ÙĤØª": 419,
      "ĠÙĪÙĥØ§ÙĨ": 420,
      "ĠØ§ÙĦØ¸": 421,
      "Ø¹ÙĪØ§": 422,
      "ÙĪØŃ": 423,
      "ĠÙĬØ®": 424,
      "ÙĩÙħØ§": 425,
      "ÙĨØ§Øª": 426,
      "ĠÙĬØ´Ø§Ø¡": 427,
      "ĠÙĪÙĦÙĪ": 428,
      "Ø¹ÙĦÙĨØ§": 429,
      "Ø¯ÙĪÙĨ": 430,
      "ĠÙĪØ±": 431,
      "ĠØªÙĥ": 432,
      "ÙĨØª": 433,
      "ÙĪØ±Ø§": 434,
      "ĠÙĪØ¨": 435,
      "ĠÙĦÙĦÙĩ": 436,
      "ĠØ®ÙĬØ±": 437,
      "Ø§ÙĤ": 438,
      "ÙĨÙĩÙħ": 439,
      "ĠÙĬØ³": 440,
      "ĠØ¨Ø³Ùħ": 441,
      "ØºÙģØ±": 442,
      "ĠØ£Øµ": 443,
      "ĠÙĦØ£": 444,
      "ÙĦÙĬÙħ": 445,
      "ĠØ§ÙĦØ¯ÙĨÙĬØ§": 446,
      "Ø¢Ø®Ø±Ø©": 447,
      "ĠÙĪÙĦÙĥÙĨ": 448,
      "ĠÙħØ±": 449,
      "ĠØ£ÙĨÙģØ³": 450,
      "ÙĬØª": 451,
      "Ø¹Ø©": 452,
      "ĠØ¥ÙĨÙħØ§": 453,
      "ĠÙħØ³": 454,
      "ÙĨØ³": 455,
      "ÙħØ³": 456,
      "ĠØ§ÙĦØº": 457,
      "ĠÙħÙħØ§": 458,
      "ĠÙĦÙĪ": 459,
      "ĠÙĦÙĤ": 460,
      "ĠØªØª": 461,
      "ĠØ±Ø¨ÙĩÙħ": 462,
      "ĠØªØ¹": 463,
      "ĠÙĥØ°Ø¨": 464,
      "ĠØ§ÙĦØ¨": 465,
      "ĠÙĪÙĦÙĬ": 466,
      "ĠØ§ÙĦØŃÙĤ": 467,
      "ĠØ§ÙĦØ³ÙħØ§Ø¡": 468,
      "ÙĩØ§Ø±": 469,
      "ĠØ§Ø³Øª": 470,
      "ÙħØ©": 471,
      "Ø¨Ø§Ø¯": 472,
      "ĠÙĦØª": 473,
      "ĠÙħÙĨÙĥÙħ": 474,
      "ĠÙĨÙģØ³": 475,
      "ĠØ£ÙĨØ²ÙĦ": 476,
      "ĠØ±Ø¨ÙĨØ§": 477,
      "ĠØ¹ÙĦÙĬÙħ": 478,
      "ĠÙģÙħÙĨ": 479,
      "Ø«Ø±": 480,
      "ÙĪÙĥ": 481,
      "ĠØªØ¬": 482,
      "ØªÙĪØ§": 483,
      "ĠÙĦØ¹ÙĦ": 484,
      "ØŃÙĤ": 485,
      "Ø®ÙĦ": 486,
      "Ø²ÙĤ": 487,
      "ÙĤÙĪÙĦÙĪÙĨ": 488,
      "ÙĦØ¨": 489,
      "ÙĩØ±": 490,
      "ĠØ¥ÙĦÙĩ": 491,
      "ĠØ¹ÙĦÙħ": 492,
      "ĠØªØ£": 493,
      "ĠØ±Ø¨ÙĥÙħ": 494,
      "ĠØ§ÙĦÙĨØ§Ø±": 495,
      "ÙĪÙĦÙĩ": 496,
      "ĠÙĤÙĦÙĪØ¨": 497,
      "ĠÙģÙĦÙħØ§": 498,
      "ĠØ§Ø": 499,
      "ÙĬÙģ": 500,
      "ĠØ£Ø¹": 501,
      "ĠØªÙĨ": 502,
      "ÙĥØ±ÙĪÙĨ": 503,
      "ĠØ£ÙĦØ§": 504,
      "ĠØ¨Ø¢ÙĬØ§Øª": 505,
      "ĠØ£ÙħØ±": 506,
      "Ø´Ø±Ùĥ": 507,
      "Ø²ÙĬØ²": 508,
      "ĠÙģÙĤ": 509,
      "ĠÙĦÙħÙĨ": 510,
      "Ø°ÙĨ": 511,
      "ĠÙĪØ¢": 512,
      "ĠØ±Ø¨ÙĬ": 513,
      "ĠØ§ÙĦØ¥": 514,
      "Ø¨Øª": 515,
      "Ø·Ø§ÙĨ": 516,
      "ĠÙĪØ§Øª": 517,
      "ØŃÙĨ": 518,
      "Ø§ÙģØ±ÙĬÙĨ": 519,
      "Ø±Ø¬": 520,
      "Ø¯Ø©": 521,
      "ÙĦØŃ": 522,
      "ÙĦÙĥÙħ": 523,
      "Ø¨Ø±Ø§": 524,
      "ĠÙħØ¨ÙĬÙĨ": 525,
      "ÙĦØ§Ø¡": 526,
      "ÙĦÙĬÙĦ": 527,
      "ĠØ±ØŃ": 528,
      "ÙĦØª": 529,
      "ÙĬØ«": 530,
      "ĠÙģÙħØ§": 531,
      "ĠÙĬØ¬": 532,
      "ĠÙĪØ§ÙĦÙħ": 533,
      "Ø¸Ø±": 534,
      "ĠØºÙĬØ±": 535,
      "ĠØ§ÙĦÙģ": 536,
      "ĠØ£Ø±Ø³": 537,
      "ĠÙģÙĥ": 538,
      "ĠØ¨Øº": 539,
      "ĠÙħÙĨÙĩ": 540,
      "Ø¦Ø§": 541,
      "Ø¸ÙĬÙħ": 542,
      "ĠØ³Ø¨ÙĬÙĦ": 543,
      "ÙħÙĪÙĨ": 544,
      "ÙĪÙĩÙħ": 545,
      "ĠØ£Ø®": 546,
      "ØŃØ§Ø¨": 547,
      "ĠØ®Ø§ÙĦ": 548,
      "ĠÙģØ¥Ø°Ø§": 549,
      "ĠÙĪØ±Ø³": 550,
      "ĠÙĬØ¤ÙħÙĨÙĪÙĨ": 551,
      "Ø°Ùĩ": 552,
      "ĠÙħÙĨÙĩØ§": 553,
      "ĠÙĥØ°ÙĦÙĥ": 554,
      "ØµØ¯": 555,
      "ĠÙĦÙĨØ§": 556,
      "ĠØ§ÙĦØ¹Ø°Ø§Ø¨": 557,
      "ÙĪØ§ÙĦ": 558,
      "Ø¨ØŃ": 559,
      "ĠØ§ÙĦØµØ§ÙĦØŃ": 560,
      "ÙĬÙĪÙħ": 561,
      "ĠÙĪØ³": 562,
      "ØªÙĬÙĨØ§": 563,
      "ĠØªØ¹ÙħÙĦÙĪÙĨ": 564,
      "ÙĩØ¯ÙĬ": 565,
      "ĠÙģØ³": 566,
      "ĠÙĬØ¹ÙĦÙħÙĪÙĨ": 567,
      "ÙĥÙĬÙħ": 568,
      "ĠØ¨ÙĩØ§": 569,
      "ÙģÙĪØ±": 570,
      "Ø±Ùĥ": 571,
      "ØªÙĥÙħ": 572,
      "ĠÙĬÙĪ": 573,
      "ÙģØ¹": 574,
      "ĠØ£ÙĨØªÙħ": 575,
      "ĠÙĦÙĦØ°ÙĬÙĨ": 576,
      "ÙĨØ§ÙĩÙħ": 577,
      "ĠØªÙĤ": 578,
      "Ø§Øµ": 579,
      "ÙĨÙĪÙĨ": 580,
      "ĠØ£Ø³": 581,
      "ĠØ£ÙĦÙħ": 582,
      "ĠØ§ÙĦÙħØ¤ÙħÙĨÙĬÙĨ": 583,
      "ĠØ¥ÙĦÙĬÙĥ": 584,
      "ÙĪØ¬": 585,
      "ĠØ¹Ø¨Ø§Ø¯": 586,
      "Ø¦ÙĨ": 587,
      "ĠØ§ÙĦØ£ÙĨ": 588,
      "ĠØ´ÙĬØ¦Ø§": 589,
      "ÙĩÙĨÙħ": 590,
      "ÙĦÙĬÙĨ": 591,
      "ĠÙĪØ¹Ø¯": 592,
      "ĠÙĦÙĦÙħ": 593,
      "ÙĤÙĬÙħ": 594,
      "ĠØ¥ÙĦÙĬÙĩ": 595,
      "ĠØ§ÙĦØ´ÙĬ": 596,
      "Ø§Ùħ": 597,
      "ÙĦÙĬÙĨØ§": 598,
      "ÙĬÙĩ": 599,
      "ÙĪÙĩØ§": 600,
      "ĠØ£Ø¨": 601,
      "ĠØªØ¹ÙĦÙħ": 602,
      "Ø·ÙĬ": 603,
      "Ø¸ÙĦÙħ": 604,
      "ĠØ¹ÙĨÙĩÙħ": 605,
      "ĠØ£ÙĨØ§": 606,
      "ĠÙĦÙħØ§": 607,
      "ØµÙĬØ±": 608,
      "ĠØ¨Ø§ÙĦØŃÙĤ": 609,
      "Ø±Ùī": 610,
      "ØªØ¨": 611,
      "Ø¯ÙĪØ§": 612,
      "ÙĦØ§Ø¦Ùĥ": 613,
      "Ø·Ø¹": 614,
      "ĠØ±Ø¨Ùĩ": 615,
      "ÙĬÙĩÙħ": 616,
      "ÙĩÙĬÙħ": 617,
      "ØªÙĩØ§": 618,
      "ÙĦÙĩØ§": 619,
      "ÙĦØ§Ùħ": 620,
      "ĠØ±Ø¬": 621,
      "ĠØ¬ÙĩÙĨÙħ": 622,
      "ĠÙĪØ¥Ø°": 623,
      "ĠØ£ÙĨÙģØ³ÙĩÙħ": 624,
      "Ø±Ø¢": 625,
      "ĠØ§ÙĦØ¢Ø®Ø±Ø©": 626,
      "Ø¯Ùī": 627,
      "ĠØ¹Ùħ": 628,
      "Ø²ÙĪØ§": 629,
      "ĠØ³ÙĬ": 630,
      "Ø¦Ø°": 631,
      "ÙĬØ§Ø©": 632,
      "ĠØ£ÙĥØ«Ø±": 633,
      "ĠÙģØ¨": 634,
      "ĠÙĥØªØ§Ø¨": 635,
      "ÙĬØ§ÙħØ©": 636,
      "ĠØµØ¯": 637,
      "ĠØ§ÙĦÙĤÙĬØ§ÙħØ©": 638,
      "ĠÙĬØ¤": 639,
      "ØŃØ³ÙĨ": 640,
      "ĠØªØ®": 641,
      "ĠØ±ØŃÙħ": 642,
      "Ø¨Ø±Ø§ÙĩÙĬÙħ": 643,
      "ÙĦØ§ÙĦ": 644,
      "ØªÙĨØ§": 645,
      "Ø¯ÙĬØ¯": 646,
      "ĠÙĬÙĤ": 647,
      "ĠÙĬÙģ": 648,
      "ĠÙĥØ«": 649,
      "ĠÙĤÙĪ": 650,
      "ĠÙĩÙĦ": 651,
      "ÙĦØ§Ø¦ÙĥØ©": 652,
      "ÙĦÙĩÙħ": 653,
      "ÙħÙĨØ§": 654,
      "ÙĪÙī": 655,
      "ÙĪØ¡": 656,
      "ĠÙĪØ¹Ùħ": 657,
      "ĠØ¨Ùĥ": 658,
      "ÙĦØ§Ø©": 659,
      "Ø²ÙĦÙĨØ§": 660,
      "ĠÙģØ±Ø¹ÙĪÙĨ": 661,
      "ÙĩØª": 662,
      "Ø±Ùģ": 663,
      "ĠÙħØ³Øª": 664,
      "Ø£ÙĬ": 665,
      "Ø¬Ø¹ÙĦ": 666,
      "ĠØ°ÙĥØ±": 667,
      "ĠØ§ÙĦØ±Ø³": 668,
      "ĠÙĦÙĤÙĪÙħ": 669,
      "ĠÙĪØ±Ø³ÙĪÙĦÙĩ": 670,
      "ĠØ£Øª": 671,
      "ĠÙĦØ¹": 672,
      "ØŃÙĬ": 673,
      "ĠØªØ¯": 674,
      "ĠÙĨØŃÙĨ": 675,
      "ĠÙĬÙĪÙħØ¦Ø°": 676,
      "ĠØ¸ÙĦÙħ": 677,
      "ĠÙĤÙĦÙĪØ¨ÙĩÙħ": 678,
      "ÙĦÙħØ§": 679,
      "ÙĥØ§": 680,
      "ĠØ¨ÙĬ": 681,
      "ĠÙĤØ¨": 682,
      "ĠØ§ÙĦØ¹Ø²ÙĬØ²": 683,
      "ĠØ§ÙĦØ¸Ø§ÙĦÙħÙĬÙĨ": 684,
      "ÙĨØ³Ø§ÙĨ": 685,
      "ĠØ£Ø±Ø³ÙĦÙĨØ§": 686,
      "ÙĪÙĤ": 687,
      "ĠØ£Ø±": 688,
      "ĠÙĬØµ": 689,
      "ĠÙĥÙĨØ§": 690,
      "ĠØ¥ÙĨÙĩÙħ": 691,
      "ĠÙĨØ³": 692,
      "ĠØ§ÙĦØŃÙĬØ§Ø©": 693,
      "ĠØ£ØµØŃØ§Ø¨": 694,
      "ĠØ§ÙĦØ´ÙĬØ·Ø§ÙĨ": 695,
      "ĠØ§ÙĦØ·": 696,
      "ĠÙħÙĦÙĥ": 697,
      "ĠØ£Ø´": 698,
      "ĠÙģÙĤØ¯": 699,
      "ĠØ¥Ø¨Ø±Ø§ÙĩÙĬÙħ": 700,
      "ĠÙĥÙĬÙģ": 701,
      "ÙĦÙĬÙĦØ§": 702,
      "ØµØ§Ø±": 703,
      "ĠØ¬ÙĨØ§Øª": 704,
      "ĠØ§ÙĦÙĤÙĪÙħ": 705,
      "ÙĨÙĥÙħ": 706,
      "ÙħØª": 707,
      "ØªÙĪÙĨ": 708,
      "ĠÙħØª": 709,
      "ĠÙĥÙħØ§": 710,
      "ĠØ§ÙĦØ¹Ø§ÙĦÙħÙĬÙĨ": 711,
      "ĠÙĪÙĤØ§ÙĦÙĪØ§": 712,
      "ĠØ±ØŃÙĬÙħ": 713,
      "ĠØ§ÙĦØµØ§ÙĦØŃØ§Øª": 714,
      "ĠØ§Ø¨": 715,
      "Ø±ÙĬÙĨ": 716,
      "Ø¨ÙĬØ±": 717,
      "ĠÙĬØº": 718,
      "ĠØ£ÙĪÙĦÙĬ": 719,
      "ĠØ±Ø³ÙĪÙĦ": 720,
      "Ø±Ø¢ÙĨ": 721,
      "Ø§ÙĩØ¯": 722,
      "ÙĦØ©": 723,
      "ÙĨÙĬÙĨ": 724,
      "ĠØ§ÙĦÙĦÙĬÙĦ": 725,
      "Ø¨Ø©": 726,
      "Ø¹Ø¨Ø¯": 727,
      "ÙĩØ¯Ùī": 728,
      "ĠÙĦØ¹ÙĦÙĥÙħ": 729,
      "ÙĪÙĥÙħ": 730,
      "Ø¨ÙĪÙĨ": 731,
      "ĠØ¹Ø¯": 732,
      "Ø¶Ø±": 733,
      "ĠØŃØ³": 734,
      "ĠØ¹ÙĦÙĬÙĥ": 735,
      "ĠØ¨ÙĬÙĨÙĩÙħ": 736,
      "ĠØ§ÙĦØµÙĦØ§Ø©": 737,
      "ĠØ§ÙĦØ¥ÙĨØ³Ø§ÙĨ": 738,
      "ĠØªØ¹ÙĦÙħÙĪÙĨ": 739,
      "ÙĪÙĬ": 740,
      "ĠØ§ÙĦØªÙĬ": 741,
      "ĠÙĪØŃ": 742,
      "ĠØ¨ÙĨÙĬ": 743,
      "ĠØªÙĥÙĪÙĨ": 744,
      "Ø·Ø§": 745,
      "ĠÙĪØ§ØŃ": 746,
      "ĠØ¨Ø¢ÙĬØ§ØªÙĨØ§": 747,
      "ĠØ§ÙĨ": 748,
      "Ø§Ø¹Ø©": 749,
      "Ø¹Ùģ": 750,
      "ĠÙĬØ¹ÙħÙĦÙĪÙĨ": 751,
      "Ø£ÙĨ": 752,
      "ĠØªØ³": 753,
      "ĠØªØ´": 754,
      "ĠØ£ÙĨØª": 755,
      "ĠØ¬Ø¹ÙĦ": 756,
      "ĠØ¬ÙħÙĬ": 757,
      "ĠØ´Ø§Ø¡": 758,
      "Ø¹Ø§Ùħ": 759,
      "ĠØ§ÙĦØ¬ÙĨØ©": 760,
      "ĠØ£ÙĩÙĦ": 761,
      "Ø§Ùĩ": 762,
      "ĠØ£Ø¹ÙĦÙħ": 763,
      "ĠÙĦÙĤØ¯": 764,
      "ĠÙĤÙĦÙĬÙĦØ§": 765,
      "ĠÙĪØ§ÙĦÙĨ": 766,
      "ĠÙĦÙĬØ³": 767,
      "Ø¨Ø±ÙĪØ§": 768,
      "ĠÙĬØ±ÙĬØ¯": 769,
      "ĠÙĪØ§Ø": 770,
      "Ø¨Ø§Ø±": 771,
      "ĠØ£ÙĬØ¯": 772,
      "Ø¯ÙĨØ§": 773,
      "ĠÙĦÙĦÙĨØ§": 774,
      "ÙĤØ±": 775,
      "Ø§Ø¤": 776,
      "ĠØŃÙħ": 777,
      "ĠÙĬØ£ØªÙĬ": 778,
      "Ø¹Øª": 779,
      "ĠØ£Ø¯": 780,
      "ĠÙģØ¶": 781,
      "Ø°ÙĬ": 782,
      "ĠÙĥÙĨØª": 783,
      "ĠÙĨØµ": 784,
      "ĠÙĨØ¹Ùħ": 785,
      "ĠØ§ÙĦÙħØ³": 786,
      "ĠÙĪØ¹ÙħÙĦÙĪØ§": 787,
      "ÙĥÙĨ": 788,
      "ĠÙħÙĥ": 789,
      "ĠØ£Ø¬Ø±": 790,
      "ĠØ£ÙĦÙĬÙħ": 791,
      "Ø³Ø·": 792,
      "ĠÙĬÙħ": 793,
      "ĠØ¨Ø±": 794,
      "Ø¬Ø¹": 795,
      "Ø¶ÙĬ": 796,
      "ĠÙĪÙĤØ¯": 797,
      "ĠØ§ÙĦÙĥØ§ÙģØ±ÙĬÙĨ": 798,
      "ĠØºÙģÙĪØ±": 799,
      "ĠÙĤØ¨ÙĦÙĩÙħ": 800,
      "Ø²ÙĪØ§Ø¬": 801,
      "ĠÙģØ§ÙĨ": 802,
      "ĠÙĬÙĤÙĪÙĦÙĪÙĨ": 803,
      "ĠØ¹ÙĦÙĬÙĨØ§": 804,
      "ĠÙĤØ±ÙĬ": 805,
      "Ø®Ø°ÙĪØ§": 806,
      "ĠÙĦÙĦÙĨØ§Ø³": 807,
      "ĠØ£Ø¹Ùħ": 808,
      "ĠÙĬØ¨": 809,
      "ĠÙĬÙĤÙĪÙĦ": 810,
      "ĠÙĬÙĥÙĪÙĨ": 811,
      "ĠØ¨Ø¥": 812,
      "ØµØ±ÙĪÙĨ": 813,
      "ĠØ¥ÙĨÙĥ": 814,
      "ĠØŃØ±": 815,
      "Ø§Ø¯ÙĤÙĬÙĨ": 816,
      "ĠØµØ±": 817,
      "ĠÙĪØ¬Ø¹ÙĦÙĨØ§": 818,
      "ĠØ£ØŃØ¯": 819,
      "ĠÙĪØ²": 820,
      "ĠØ£ÙĤ": 821,
      "ĠÙģÙĦÙĬ": 822,
      "ĠÙĬÙĩØ¯ÙĬ": 823,
      "ĠØ¹ÙħØ§": 824,
      "ĠØ¹Ø¸ÙĬÙħ": 825,
      "ĠÙĩÙĬ": 826,
      "ĠØ£ÙħØ©": 827,
      "ĠØªØ¬Ø±ÙĬ": 828,
      "ĠØ¬ÙħÙĬØ¹Ø§": 829,
      "ĠÙĪÙĦÙħ": 830,
      "Ø¨Ø¦": 831,
      "ÙĤÙĦÙĪÙĨ": 832,
      "ÙģØ©": 833,
      "Ø¬Ø¹ÙĪÙĨ": 834,
      "Ø·Ø±": 835,
      "ÙĪÙĦÙĪØ§": 836,
      "ÙĬØŃ": 837,
      "ØªÙĥ": 838,
      "ĠØ±Ø²ÙĤ": 839,
      "ĠÙĨØ¬": 840,
      "ĠÙĨÙĪØŃ": 841,
      "ĠØ¢Ø¨": 842,
      "ĠØ¢ÙĬØ©": 843,
      "ĠØ§ÙĦØ¯ÙĬÙĨ": 844,
      "ĠÙħØ«ÙĦ": 845,
      "Ø§Ùĥ": 846,
      "ÙĪÙĦÙī": 847,
      "ÙģÙī": 848,
      "ĠÙĩØ°Ùĩ": 849,
      "ĠØ¢ØªÙĬÙĨØ§": 850,
      "ĠØ¬Ø¹ÙĦÙĨØ§": 851,
      "ĠØ¹ÙĦÙĬÙĩØ§": 852,
      "ĠØ´Ø¯ÙĬØ¯": 853,
      "Ø¤ÙĦØ§Ø¡": 854,
      "ÙĬØ¯Ø§": 855,
      "ĠÙģØ£ÙĪÙĦØ¦Ùĥ": 856,
      "ĠØµØ§ÙĦØŃ": 857,
      "ĠÙģÙĤØ§ÙĦ": 858,
      "ĠÙĥØ«ÙĬØ±Ø§": 859,
      "ÙĪØ©": 860,
      "ÙĪÙĩÙĨ": 861,
      "ÙĩÙĪÙĨ": 862,
      "ĠØ§ÙĦØ²": 863,
      "ØªÙĦÙģ": 864,
      "ĠÙģØ§ÙĦ": 865,
      "ÙģÙĪÙĨ": 866,
      "ĠÙĥØ±": 867,
      "ĠÙĪØ£ÙĨØªÙħ": 868,
      "ĠÙĪÙĬÙĪÙħ": 869,
      "ĠÙģØ£ÙĨ": 870,
      "ĠØ£ÙģÙĦØ§": 871,
      "ĠØ§ÙĦØ±Ø³ÙĪÙĦ": 872,
      "ÙħÙĪØ§": 873,
      "Ø³Ø§": 874,
      "ÙĪØ§Ø¡": 875,
      "ĠØ¬Ø²": 876,
      "ĠØ°ÙĦÙĥÙħ": 877,
      "Ø³Ø¨ØŃ": 878,
      "ĠØ®Ø§ÙĦØ¯ÙĬÙĨ": 879,
      "ÙĬÙĥÙħ": 880,
      "ĠØ§ÙĦØª": 881,
      "ĠØ¨Ùħ": 882,
      "ÙħØ§ÙĨ": 883,
      "ĠØªÙģ": 884,
      "Ø§Øº": 885,
      "ĠÙĨØ¨": 886,
      "ĠØ³Ø¨ØŃ": 887,
      "ĠÙĪÙĦÙĩÙħ": 888,
      "ĠØ§ÙĦÙĤØ±Ø¢ÙĨ": 889,
      "Ø§Ø¦ÙĬÙĦ": 890,
      "ĠÙĪØ¬Ø¹ÙĦ": 891,
      "ĠÙĬØŃØ¨": 892,
      "Ø³Ø±Ø§Ø¦ÙĬÙĦ": 893,
      "ĠÙĥØ°Ø¨ÙĪØ§": 894,
      "ĠØ§ÙĦØ£ÙĨÙĩØ§Ø±": 895,
      "ÙĨÙĥ": 896,
      "ĠØ§ÙĦØ¢Ø®Ø±": 897,
      "Ø¨Ø§ÙĦ": 898,
      "ĠØ£ÙĪÙĦ": 899,
      "Ø³Ø§Ø¡": 900,
      "ĠÙĦÙĩØ§": 901,
      "ĠØ¥Ø³Ø±Ø§Ø¦ÙĬÙĦ": 902,
      "ØŃÙĥÙħ": 903,
      "ÙħØ§Ø¡": 904,
      "ĠÙĥØ§ÙĦ": 905,
      "ĠØ±Ø£": 906,
      "ĠØ§ÙĦØŃÙħ": 907,
      "ĠØ§ÙĦØŃÙĥÙĬÙħ": 908,
      "Ø¨Ø¯Ø§": 909,
      "ĠÙģØ§Ø³Øª": 910,
      "ĠØªÙĥØ°Ø¨": 911,
      "ĠÙĪØ§ØªÙĤÙĪØ§": 912,
      "ĠØ¸ÙĦÙħÙĪØ§": 913,
      "ÙĬÙĦØ§": 914,
      "ĠØ§ÙĦÙĬÙĪÙħ": 915,
      "ØªÙĦ": 916,
      "ØªÙĤÙĬÙĨ": 917,
      "Ø³Ùģ": 918,
      "ĠÙģÙĩÙħ": 919,
      "ĠÙģØ§Øª": 920,
      "ĠÙģÙĪÙĤ": 921,
      "Ø°ÙĥØ±ÙĪÙĨ": 922,
      "ĠØ¨ÙĩÙħ": 923,
      "ÙĨØ§Ùĩ": 924,
      "Ø®ÙĦÙĪØ§": 925,
      "ĠØ£ÙĨÙĩÙħ": 926,
      "ĠÙĩØ¤ÙĦØ§Ø¡": 927,
      "ĠØ¬Ø§Ø¡ÙĩÙħ": 928,
      "ĠØ§ÙĦÙĨØ¨ÙĬ": 929,
      "ÙħÙĬØ¹": 930,
      "ĠÙĦØ¹ÙĦÙĩÙħ": 931,
      "ĠØ¨ØºÙĬØ±": 932,
      "ĠØ£Ø¹ÙħØ§ÙĦ": 933,
      "ĠØ§Ø¯": 934,
      "Ø§Ø¬": 935,
      "ØªÙĬÙĨ": 936,
      "ÙĪØ§Ø¨": 937,
      "ÙģÙĪØ§": 938,
      "ĠØªØ¨": 939,
      "Ø´ÙĬ": 940,
      "ĠØ£ÙĨØ²ÙĦÙĨØ§": 941,
      "Ø«Ùħ": 942,
      "ĠÙĪÙĦÙĨ": 943,
      "ĠØ£ÙħÙĪØ§ÙĦ": 944,
      "ĠØ¥ÙĦÙĬÙĩÙħ": 945,
      "ĠÙĤÙĪÙħØ§": 946,
      "ÙĨÙĩ": 947,
      "Ø±ÙĪÙģ": 948,
      "ĠØ§ÙĦÙħÙĨ": 949,
      "ĠÙĪÙģÙĬ": 950,
      "ĠØ£Ø²ÙĪØ§Ø¬": 951,
      "ĠÙĬØ¤ÙħÙĨ": 952,
      "ĠÙħÙĨØ§": 953,
      "ĠØªØµ": 954,
      "ĠÙĥÙĦØ§": 955,
      "ĠÙĨØ°": 956,
      "ĠØŃÙĤ": 957,
      "ĠØŃÙĥÙĬÙħ": 958,
      "ĠØ§ÙĦØ£ÙĪÙĦ": 959,
      "Ø°Ø¨ÙĬÙĨ": 960,
      "ĠÙĪØ¹ÙĦÙī": 961,
      "ĠØ§ØªØ¨Ø¹": 962,
      "ĠØµØ±Ø§Ø·": 963,
      "ĠÙĪÙĩ": 964,
      "ĠÙĪØ±Ø¨": 965,
      "ĠÙĦØ¨": 966,
      "ĠÙĦØ¢": 967,
      "ĠÙĦÙĪÙĦØ§": 968,
      "ĠÙĬØ®Ø±Ø¬": 969,
      "ĠØªØ³Øª": 970,
      "Ø¬ÙĦ": 971,
      "ĠÙĥØ³Ø¨": 972,
      "ĠÙĩØ¯Ùī": 973,
      "ĠØ³ÙĪØ¡": 974,
      "Ø¦Ø§Øª": 975,
      "ĠØ§ÙĦÙħÙĦØ§Ø¦ÙĥØ©": 976,
      "ØºØ±": 977,
      "Ø¸Ø±ÙĪÙĨ": 978,
      "ĠÙĪÙĥØ°ÙĦÙĥ": 979,
      "ĠØ¹Ø°Ø§Ø¨Ø§": 980,
      "ĠØ£ØŃØ³ÙĨ": 981,
      "ĠØ¯ÙĪÙĨÙĩ": 982,
      "ĠØ£ÙĨÙģØ³ÙĥÙħ": 983,
      "ĠØ£ÙĥØ«Ø±ÙĩÙħ": 984,
      "Ø¨ÙĪØ§": 985,
      "ĠÙħØ§Ø¡": 986,
      "ĠØ£Ø®Ø°": 987,
      "ĠØ¨ÙĥÙħ": 988,
      "ÙģØ§Ø±": 989,
      "Ø£ÙĦ": 990,
      "ĠÙĨÙģ": 991,
      "ĠØ¢ÙħÙĨØ§": 992,
      "ĠØ®ÙĬØ±Ø§": 993,
      "ĠØ¹ÙĨÙĩ": 994,
      "Ø¨Ø¹Ø«": 995,
      "ĠÙĪØ§Ø³Øª": 996,
      "ĠÙĤØ¯ÙĬØ±": 997,
      "ĠØ¶ÙĦØ§ÙĦ": 998,
      "ĠØ£Ø´Ø¯": 999,
      "ÙĩÙĦÙĥ": 1000,
      "ĠÙĪØ¨ÙĬÙĨ": 1001,
      "ĠÙħÙħÙĨ": 1002,
      "ÙģÙĤÙĪÙĨ": 1003,
      "Ø§Ø®": 1004,
      "Ø¦Ø³": 1005,
      "Ø¦Ø©": 1006,
      "ĠØ§ÙĦÙħÙĪØª": 1007,
      "ØºÙĪØ§": 1008,
      "ĠØ´Ùĩ": 1009,
      "ĠØ§ÙĦØ¹Ø¸ÙĬÙħ": 1010,
      "Ø³ÙħØ¹": 1011,
      "ĠÙģØ§Ø³": 1012,
      "ĠÙĤÙĪÙħÙĩ": 1013,
      "ĠØªØŃØªÙĩØ§": 1014,
      "Ø§ÙģØ±ÙĪÙĨ": 1015,
      "Ø°ÙĥØ±ÙĪØ§": 1016,
      "Ø´Ø±ÙĥÙĬÙĨ": 1017,
      "ĠØ£ÙĪÙĦÙĬØ§Ø¡": 1018,
      "ĠØµØ§ÙĦØŃØ§": 1019,
      "ĠØ³Ø¨ØŃØ§ÙĨ": 1020,
      "ÙĪØ²": 1021,
      "Ø§ÙĦÙħÙĪÙĨ": 1022,
      "Ø±Ø©": 1023,
      "ĠÙģØ¹": 1024,
      "ĠÙĬØ¶": 1025,
      "ĠØ³ÙħØ¹": 1026,
      "ĠÙĪØ£Øµ": 1027,
      "ÙĬØ§Ùħ": 1028,
      "ĠØ£ÙĪÙĦÙħ": 1029,
      "ĠØ§ÙĦØ³Ø§Ø¹Ø©": 1030,
      "ĠØ¯ÙĬÙĨ": 1031,
      "Ø¨ÙĬÙĨØ§Øª": 1032,
      "Ø¨Ø¯ÙĪÙĨ": 1033,
      "ĠÙĬØŃÙĬ": 1034,
      "ĠÙĪÙĥØ§ÙĨÙĪØ§": 1035,
      "ĠÙģØ¨Ø£ÙĬ": 1036,
      "ÙĦØ¹": 1037,
      "Ø¨Ø·": 1038,
      "ĠÙħØ¯": 1039,
      "ĠÙħØ¤ÙħÙĨÙĬÙĨ": 1040,
      "Ø¯Ùħ": 1041,
      "ĠÙģØ¶ÙĦ": 1042,
      "ÙĤÙī": 1043,
      "ĠÙĤÙĬÙĦ": 1044,
      "Ø§Ø´": 1045,
      "ÙĦÙĬÙĩ": 1046,
      "ĠÙĪØ§ÙĦÙĤ": 1047,
      "ĠØ¢ÙĦØ§Ø¡": 1048,
      "ĠØ´Ø±Ùĥ": 1049,
      "ĠÙĪØ¥ÙĨØ§": 1050,
      "Ø¹ÙĦÙħÙĪØ§": 1051,
      "ĠÙĪØ¬Ùĩ": 1052,
      "ĠÙħØ¹Ùĩ": 1053,
      "Ø¬Ø±ÙħÙĬÙĨ": 1054,
      "ĠÙģÙĦÙĨ": 1055,
      "ĠØ¢ÙĬØ§ØªÙĨØ§": 1056,
      "Ø¸ÙĦÙħÙĪÙĨ": 1057,
      "ĠØ±ØŃÙħØ©": 1058,
      "ĠØ¨ÙĥÙĦ": 1059,
      "ÙĪØ³": 1060,
      "Ø¹ÙĬÙĨ": 1061,
      "ĠØ£Ø±Ø§": 1062,
      "ĠÙģÙĨ": 1063,
      "ĠÙĬØ¶ÙĦ": 1064,
      "ĠÙĬÙģØª": 1065,
      "ÙĤØ§Ø¨": 1066,
      "ĠØ¨Ø³": 1067,
      "ĠØ¹Ø§ÙĤ": 1068,
      "ĠÙĪÙĦØ¦ÙĨ": 1069,
      "ĠØ°ÙĪ": 1070,
      "Ø´Ø±ÙĥÙĪÙĨ": 1071,
      "ĠØ±Ø¨ÙĥÙħØ§": 1072,
      "ØŃÙħØ©": 1073,
      "Ø¬Ø¯ÙĪØ§": 1074,
      "ĠÙĬÙĥÙĨ": 1075,
      "ĠØ¨Ø¹Ø¶ÙĩÙħ": 1076,
      "ĠÙħØ±ÙĬÙħ": 1077,
      "ØŃØ³ÙĨÙĬÙĨ": 1078,
      "ÙĥØ§Ø©": 1079,
      "ĠÙĤØ¨ÙĦÙĥ": 1080,
      "ĠØ£ÙĬØ¯ÙĬÙĩÙħ": 1081,
      "ÙĨÙī": 1082,
      "Ø±ØŃ": 1083,
      "ĠÙĪØµ": 1084,
      "Ø¨ÙĬØ±Ø§": 1085,
      "ĠÙħØ¨": 1086,
      "Ø°ÙĪ": 1087,
      "ĠÙĨÙĥ": 1088,
      "ĠØ³Ø¨": 1089,
      "ĠØŃØ¯": 1090,
      "ĠØ§ÙĦØ£ÙħØ±": 1091,
      "ĠÙĪÙĦÙħØ§": 1092,
      "ĠØ£ÙĪØªÙĪØ§": 1093,
      "ĠØ§ÙĦØ¹ÙĦÙĬÙħ": 1094,
      "Ø±Ø³ÙĦ": 1095,
      "ĠØ¥ÙĦÙĬÙĥÙħ": 1096,
      "ĠØ£ÙĩÙĦÙĥ": 1097,
      "ĠÙĬÙģØ¹ÙĦ": 1098,
      "ĠØ§Ø¨ÙĨ": 1099,
      "ĠØ¨Ø¥Ø°ÙĨ": 1100,
      "Ø§Ø³": 1101,
      "ĠØ§ÙĦØ¢ÙĬØ§Øª": 1102,
      "ĠÙħØµ": 1103,
      "Ø¹Ø±": 1104,
      "ĠÙģÙĩ": 1105,
      "ĠÙĦØ¯": 1106,
      "ĠÙĬØ²": 1107,
      "ÙĤØ§Øª": 1108,
      "ĠØ¨Ø±Ø¨": 1109,
      "ĠØ¹Ø²ÙĬØ²": 1110,
      "ÙĨØ§ØŃ": 1111,
      "ĠØ¥ÙĨÙĥÙħ": 1112,
      "ĠÙĪØ§ÙĦØ³": 1113,
      "ĠÙĨØ´": 1114,
      "ĠØ³ÙĨ": 1115,
      "Ø«ÙĦ": 1116,
      "ĠØ§ÙĦÙħØ±Ø³": 1117,
      "ĠÙĪÙĦØª": 1118,
      "ĠØµØ§Ø¯ÙĤÙĬÙĨ": 1119,
      "ĠÙĪØ¬ÙĪÙĩ": 1120,
      "ĠØ¨ÙĬÙĨÙĩÙħØ§": 1121,
      "ĠØ£ÙĬÙħØ§": 1122,
      "ĠÙĬÙĥÙģØ±": 1123,
      "ĠØ¢ÙĬØ§ØªÙĩ": 1124,
      "ĠØªÙĥØ°Ø¨Ø§ÙĨ": 1125,
      "ĠØ§ÙĦØ£ÙĪÙĦÙĬÙĨ": 1126,
      "ĠÙĪÙĦÙĩ": 1127,
      "ĠÙĪØ®": 1128,
      "ĠÙħØŃ": 1129,
      "ĠØ£Ø®Ø±Ø¬": 1130,
      "ĠÙĦØ¢ÙĬØ§Øª": 1131,
      "ĠÙĦÙģÙĬ": 1132,
      "ÙĤØ©": 1133,
      "ÙģÙĤÙĪØ§": 1134,
      "Ø¶ÙĪØ§": 1135,
      "Ø²ÙĬÙĨ": 1136,
      "Ø§Ø¨Ø§": 1137,
      "ĠØ§ÙĦÙħØŃØ³ÙĨÙĬÙĨ": 1138,
      "ĠØŃÙĬÙĨ": 1139,
      "ĠØ¬ÙĨØ§ØŃ": 1140,
      "ĠØ´Ø±": 1141,
      "ĠØ§ÙĦØ£Ùħ": 1142,
      "Ø¹Ø¯ÙĪÙĨ": 1143,
      "ĠÙģØ¥ÙĨÙħØ§": 1144,
      "ÙĬØ¨Ø§": 1145,
      "ĠØ®ÙĦÙĤÙĨØ§": 1146,
      "ÙĦÙħØ§Øª": 1147,
      "ØªÙĤ": 1148,
      "ĠÙģØ±ÙĬ": 1149,
      "ÙĤÙĦØ¨": 1150,
      "ĠØ¨ØµÙĬØ±": 1151,
      "ØŃÙĪØ§": 1152,
      "ĠØªÙĦÙĥ": 1153,
      "ĠÙĥÙĦÙħ": 1154,
      "ĠÙĪØ§ÙĦØ´": 1155,
      "ĠØ³ÙĦ": 1156,
      "ĠØ¢ÙĦÙĩ": 1157,
      "ĠÙĪØ£ÙĨØ§": 1158,
      "ĠØ§ÙĦÙħÙĦÙĥ": 1159,
      "ĠØŃÙĬØ«": 1160,
      "ĠÙĤØ§ÙĦØª": 1161,
      "Ø¸Ø§": 1162,
      "ĠØ§ÙĦØ³Ø¨ÙĬ": 1163,
      "ĠØ§ÙģØª": 1164,
      "ĠØ¨ÙĬÙĨÙĥÙħ": 1165,
      "ĠØ³Ø¨ÙĬÙĦØ§": 1166,
      "ĠØ§ØªÙĤÙĪØ§": 1167,
      "ĠÙĬØ¯Ø¹ÙĪÙĨ": 1168,
      "ÙĦØŃÙĪÙĨ": 1169,
      "ĠÙĪØ§ØŃØ¯Ø©": 1170,
      "ĠØ¬Ø²Ø§Ø¡": 1171,
      "ĠÙĨØ°ÙĬØ±": 1172,
      "Ø§ÙĪ": 1173,
      "ÙĨÙĪØ§": 1174,
      "ÙĪØ¹": 1175,
      "Ø±ÙĪØ§": 1176,
      "Ø±Ø´": 1177,
      "ĠØ§ÙĦØ¹ÙĦÙħ": 1178,
      "ĠØ£Ø¨Ø¯Ø§": 1179,
      "Ø¯Ùĩ": 1180,
      "ĠÙģØ¬": 1181,
      "ĠÙģØ¹ÙĦ": 1182,
      "ĠÙģÙĩÙĪ": 1183,
      "ĠÙĦØ¦ÙĨ": 1184,
      "ĠÙĬØ¸ÙĦÙħÙĪÙĨ": 1185,
      "ĠØ¨Ø´Ø±": 1186,
      "ÙģÙĬÙĨ": 1187,
      "ÙģÙĪØ±Ø§": 1188,
      "Ø²ÙĪÙĨ": 1189,
      "ÙĦÙĥØ§ÙģØ±ÙĬÙĨ": 1190,
      "ĠØ¢ÙĦ": 1191,
      "ĠÙĪØ£ÙħØ§": 1192,
      "ØºÙĬ": 1193,
      "ĠØ¬Ø¦": 1194,
      "ĠØ®ÙĦÙģ": 1195,
      "ĠØ´Ùĥ": 1196,
      "Ø±Ø§Ùħ": 1197,
      "Ø±Ø¶ÙĪØ§": 1198,
      "ĠÙĥØ§ÙĨØª": 1199,
      "ĠÙĪÙĬÙĤÙĪÙĦÙĪÙĨ": 1200,
      "ĠÙģØ£Øµ": 1201,
      "ĠÙģØ£Ø®Ø°": 1202,
      "ĠØ§ÙĦÙĤÙĪÙĦ": 1203,
      "Ø±ÙĬØ©": 1204,
      "Ø³Ø¨ÙĪÙĨ": 1205,
      "ĠØ·Ø§Ø¦": 1206,
      "ĠØ§ØªØ®Ø°": 1207,
      "ØºÙģØ±Ø©": 1208,
      "ĠØ§ÙĦØºÙĬØ¨": 1209,
      "ĠØ§ÙĦØ¨ØŃØ±": 1210,
      "Ø·ÙĬØ¹ÙĪÙĨ": 1211,
      "ĠÙģØ¶ÙĦÙĩ": 1212,
      "ĠØ§ÙĦØ³Ø¨ÙĬÙĦ": 1213,
      "Ø§ÙĦØ§": 1214,
      "Ø¨Ùĥ": 1215,
      "ĠØ£ÙĦÙĬ": 1216,
      "ĠØ£Ø¥": 1217,
      "ĠØ¨Ø·": 1218,
      "ĠØªÙĤÙĪÙĦ": 1219,
      "ĠÙĥÙħ": 1220,
      "ĠÙĥØªØ¨": 1221,
      "Ø§Ø¶": 1222,
      "ØµÙĦ": 1223,
      "ĠÙĪØ¥ÙĦÙī": 1224,
      "ĠÙĪÙĦÙĦÙĩ": 1225,
      "ĠÙĪÙĤÙĦ": 1226,
      "ÙĪØ±ÙĩÙħ": 1227,
      "ĠØ§ÙĦØµØ¯": 1228,
      "ĠÙĬØ±ÙĪØ§": 1229,
      "ÙħØ±Ø£": 1230,
      "ĠØ¨Ø£ÙĨ": 1231,
      "ĠÙĦÙĥÙĦ": 1232,
      "ĠØ£ØµØ§Ø¨": 1233,
      "ĠÙħØ³ÙĦÙħ": 1234,
      "ĠØªØ£Ùĥ": 1235,
      "ĠØ£Ø¹ÙħØ§ÙĦÙĩÙħ": 1236,
      "ĠØ¹Ø§ÙĤØ¨Ø©": 1237,
      "ÙĩØ²": 1238,
      "ĠÙħØ±Ø¶": 1239,
      "ĠÙħØªØ§": 1240,
      "Ø¹ÙĪ": 1241,
      "Ø¹Ø¬": 1242,
      "ĠØ£Øº": 1243,
      "ĠÙĬØ·": 1244,
      "ĠØ¨ÙĤ": 1245,
      "ĠÙĪØ§ÙĦØ¨": 1246,
      "ĠÙĪØ§ÙĦØ¥": 1247,
      "ĠØ§ÙĦØ°ÙĥØ±": 1248,
      "ĠØ³ÙĪØ§Ø¡": 1249,
      "Ø¦ÙĪÙĨ": 1250,
      "ĠØŃÙĥ": 1251,
      "ĠØ¬ÙĨ": 1252,
      "Ø±Ø§Ùĥ": 1253,
      "ĠÙĪÙħÙĨÙĩÙħ": 1254,
      "ÙĬÙĨØ§Ùĩ": 1255,
      "ĠÙħØ¹ÙĥÙħ": 1256,
      "Ø³ÙĨØ©": 1257,
      "ĠØ¨Ø£ÙĨÙĩÙħ": 1258,
      "ÙħØ¹Ø±ÙĪÙģ": 1259,
      "ĠÙĨÙģØ³Ùĩ": 1260,
      "Ø°ÙĩØ¨": 1261,
      "ĠÙģØ³ÙĪÙģ": 1262,
      "ĠÙħØ³ØªÙĤÙĬÙħ": 1263,
      "ĠØªØ¯Ø¹ÙĪÙĨ": 1264,
      "ĠÙĪØ§ÙĦÙĨÙĩØ§Ø±": 1265,
      "ĠØ§ÙĦØ²ÙĥØ§Ø©": 1266,
      "ĠØ§ÙĦØŃÙħØ¯": 1267,
      "Ø§ÙĩÙħ": 1268,
      "Ø§Ø±Ø§": 1269,
      "ÙĬØ³Ùī": 1270,
      "ĠØ§ÙĦÙģØ§": 1271,
      "ÙĥÙģØ±": 1272,
      "Ø¹Ø±ÙĪÙĨ": 1273,
      "ĠÙĦØº": 1274,
      "ĠØ¨Øµ": 1275,
      "ØŃØ§": 1276,
      "ØŃØ´": 1277,
      "ØŃÙĬÙħ": 1278,
      "Ø£ÙĦÙĪÙĨ": 1279,
      "ĠØ¹Øµ": 1280,
      "ĠØªÙħ": 1281,
      "ĠØªÙĪ": 1282,
      "ĠØªØ²": 1283,
      "Ø§Ø«": 1284,
      "ĠÙĨØ²ÙĦ": 1285,
      "ĠÙĩØ§": 1286,
      "ĠØ¢ØªÙĬ": 1287,
      "ĠÙĪØ£ÙĪÙĦØ¦Ùĥ": 1288,
      "ĠØ®Ø¨ÙĬØ±": 1289,
      "ĠØ´ÙĩØ¯": 1290,
      "ĠÙĪÙĦØ¯": 1291,
      "Ø¨ÙĦØº": 1292,
      "ĠÙĪØ¬Ø§Ø¡": 1293,
      "Ø¨Ø¹Ø¶": 1294,
      "ĠÙĬÙĨØ¸Ø±ÙĪÙĨ": 1295,
      "ĠØ¬Ø§Ø¡ÙĥÙħ": 1296,
      "ĠØ§ÙĦÙĨÙĩØ§Ø±": 1297,
      "Ø§Ø·ÙĦ": 1298,
      "ĠØ§Ø®": 1299,
      "ĠÙĪØ§ØªØ¨Ø¹": 1300,
      "ĠØ¹Ø¨Ø§Ø¯Ùĩ": 1301,
      "Ø·ÙĬØ¹ÙĪØ§": 1302,
      "Ø±Ùĩ": 1303,
      "ĠÙĪÙĬÙĨ": 1304,
      "ĠÙĪØ§Ø¨": 1305,
      "Ø¹ÙĨØ§": 1306,
      "ĠÙģØ¢": 1307,
      "ĠØ¨Ø®": 1308,
      "ĠØ¨Ø´": 1309,
      "ĠØ¥ÙĬÙħØ§": 1310,
      "ÙĨØ§Ùģ": 1311,
      "Ø¬ÙĨ": 1312,
      "ĠÙĥØ£ÙĨ": 1313,
      "Ø§Ø²": 1314,
      "ĠÙģÙĬÙħØ§": 1315,
      "Ø§ÙĨÙĬ": 1316,
      "Ø´Ø£": 1317,
      "ĠØ£ÙĨÙĩ": 1318,
      "ĠÙĪØ§ÙĦØµ": 1319,
      "Ø«ÙĪØ§": 1320,
      "ĠØ§ÙĦÙħØ´Ø±ÙĥÙĬÙĨ": 1321,
      "ĠÙĪÙĦÙĪÙĦØ§": 1322,
      "Ø¤Ùħ": 1323,
      "ĠØ¨Ø§ÙĦØº": 1324,
      "ĠØ¨Ø§ÙĦØ¨ÙĬÙĨØ§Øª": 1325,
      "ĠØ¹ÙĨÙĥÙħ": 1326,
      "ĠØ¹ÙĨÙĩØ§": 1327,
      "ĠÙĪØ¥ÙĨÙĩ": 1328,
      "Ø³ÙħØ¹ÙĪÙĨ": 1329,
      "ĠÙĪØ§Ø³": 1330,
      "ĠØ§ÙĦÙĨØ³Ø§Ø¡": 1331,
      "ĠØ§ÙĦØ¬Ø¨Ø§ÙĦ": 1332,
      "ĠØ¨Ø£Ø³": 1333,
      "ÙħØ¹ÙĬÙĨ": 1334,
      "ĠØ§ÙĦØ¸Ø§ÙĦÙħÙĪÙĨ": 1335,
      "ĠÙĪØ±ØŃÙħØ©": 1336,
      "ĠØªØ¹ÙĤÙĦÙĪÙĨ": 1337,
      "ĠØ®Ø§ÙĦØ¯ÙĪÙĨ": 1338,
      "ÙĩØªØ¯ÙĪÙĨ": 1339,
      "Ø¹Ø¨Ø¯ÙĪØ§": 1340,
      "ĠØ§ÙĦÙħØ±Ø³ÙĦÙĬÙĨ": 1341,
      "ĠØ§ÙĦØ¨Ø±": 1342,
      "ĠÙĪÙĪ": 1343,
      "Ø¨ØµØ§Ø±": 1344,
      "ĠØ£Ø®Ø±": 1345,
      "ĠØ£ÙĦÙĤ": 1346,
      "Ø³ÙĬ": 1347,
      "ĠÙĦÙĦÙĥØ§ÙģØ±ÙĬÙĨ": 1348,
      "ĠØ¨ÙĨ": 1349,
      "ÙĪÙĨÙĩ": 1350,
      "ØŃÙĪÙĨ": 1351,
      "ĠØ¹Ø¸": 1352,
      "ÙĨØ§Ø¡": 1353,
      "ÙĦØ§Ø«": 1354,
      "ĠØªÙĪÙĦÙĪØ§": 1355,
      "ĠÙĤÙĪÙĦ": 1356,
      "Ø®ÙĪØ§": 1357,
      "Ø´Ùģ": 1358,
      "ĠÙĪØ§ÙĦÙĬÙĪÙħ": 1359,
      "ĠÙĪØ£Ùħ": 1360,
      "ĠØ§ÙĦÙħØµÙĬØ±": 1361,
      "ĠØ§ÙĦÙħØªÙĤÙĬÙĨ": 1362,
      "ĠÙĪÙĬØ³Øª": 1363,
      "Ø§Ø¯ÙĪØ§": 1364,
      "ĠØ§ÙĦØŃØ±Ø§Ùħ": 1365,
      "ĠØ¯Ø¹": 1366,
      "ĠÙģØ£ÙħØ§": 1367,
      "ØªÙĬÙĩÙħ": 1368,
      "ĠÙĬØŃÙĥÙħ": 1369,
      "ĠØ¹ÙĨØ¯Ùĩ": 1370,
      "ĠØªØ±Ùĥ": 1371,
      "ĠØ§ÙĦØ¬ØŃÙĬÙħ": 1372,
      "ĠØ±Ø³ÙĪÙĦØ§": 1373,
      "ĠØ£Ø¬ÙĦ": 1374,
      "ĠØ£Ø¬ÙħØ¹ÙĬÙĨ": 1375,
      "Ø®ÙĦØµ": 1376,
      "ĠØ¹Ø¯ÙĪ": 1377,
      "ĠØŃØ³ÙĨØ§": 1378,
      "ĠÙħÙĥØ§ÙĨ": 1379,
      "ĠÙĤØ±ÙĬØ©": 1380,
      "ĠØŃØ±Ùħ": 1381,
      "ĠÙģÙĩÙĦ": 1382,
      "Ø§ØŃ": 1383,
      "ĠØ§ÙĦÙĩØ¯Ùī": 1384,
      "ĠÙĪØ·": 1385,
      "ĠÙħØ®": 1386,
      "ĠÙħÙĬØ«": 1387,
      "ĠØ£Ø´Ø±Ùĥ": 1388,
      "ĠÙĬØ¹Ùħ": 1389,
      "ÙĤØ¨": 1390,
      "ĠØ¨Ø¯": 1391,
      "ĠØ¨ÙĦÙī": 1392,
      "Ø£ÙĪØ§": 1393,
      "ÙĨØ§ÙĩØ§": 1394,
      "ĠØªØ§Ø¨": 1395,
      "ĠÙĨØµØ±": 1396,
      "Ø§Ø¨Ø±ÙĬÙĨ": 1397,
      "ĠÙħØ§Ø°Ø§": 1398,
      "ĠØ§ÙĦÙħØ¨ÙĬÙĨ": 1399,
      "ĠØ§ÙĦÙħØ¤ÙħÙĨÙĪÙĨ": 1400,
      "ĠØŃØ¬": 1401,
      "ĠØ¹ÙĦÙĬÙħØ§": 1402,
      "ĠÙĪØ¥ÙĦÙĬÙĩ": 1403,
      "ĠØ£ÙĪØªÙĬ": 1404,
      "ĠÙĪÙĬØ¹ÙĦÙħ": 1405,
      "Ø§Ø±Ùĥ": 1406,
      "Ø³ÙħÙī": 1407,
      "ÙĬØ¨Ø§Øª": 1408,
      "ĠÙĦÙĦØ¹": 1409,
      "ĠÙĬØ±Ø¬Ø¹ÙĪÙĨ": 1410,
      "ĠÙģØªÙĨØ©": 1411,
      "ĠÙĬØ¹ÙĤÙĦÙĪÙĨ": 1412,
      "ĠØ£Ø¬Ø±Ø§": 1413,
      "ĠØ²ÙĬÙĨ": 1414,
      "ĠØªÙĥÙĨ": 1415,
      "ÙĪÙĥÙĦ": 1416,
      "Ø¸Ø±ÙĪØ§": 1417,
      "Ø£ÙĬØªÙħ": 1418,
      "Ø¤ÙħÙĨØ§Øª": 1419,
      "ĠØ¹Ø¸ÙĬÙħØ§": 1420,
      "ÙĦÙĪ": 1421,
      "ÙĦØ£": 1422,
      "ÙĩØ¨": 1423,
      "ÙĩÙĬÙĨ": 1424,
      "ĠÙĪÙĬØ±": 1425,
      "ĠÙĪØ¸": 1426,
      "ÙĥØ¨Ø±ÙĪØ§": 1427,
      "ØªØº": 1428,
      "ØªØ¨Ø¹": 1429,
      "ĠÙħÙĥØ±": 1430,
      "ĠÙħØ³ÙħÙī": 1431,
      "Ø¯Ø®ÙĦ": 1432,
      "Ø³ØŃ": 1433,
      "ĠÙģØµ": 1434,
      "ĠÙĬØ¨Ø¯": 1435,
      "ĠÙĬØ¬Ø¯": 1436,
      "ĠÙĬØ¨Ø¹Ø«": 1437,
      "ĠÙĬØ³ÙħØ¹ÙĪÙĨ": 1438,
      "ÙĤØµ": 1439,
      "ĠØ¹Ø§Ø¯": 1440,
      "ĠØ¹Ø¨Ø¯": 1441,
      "ĠØ¹Ø³Ùī": 1442,
      "ÙĦØ§ÙĤ": 1443,
      "ĠÙĤØ±": 1444,
      "ÙħÙĨÙĪØ§": 1445,
      "Ø¶Ùī": 1446,
      "Ø¶Ø¹Ùģ": 1447,
      "Ø´ÙĪÙĨ": 1448,
      "Ø´Ø±ÙĪÙĨ": 1449,
      "ĠÙĨØ§Ø±": 1450,
      "ĠØ³Ø¨Ø¹": 1451,
      "ĠØ³ÙħÙĬØ¹": 1452,
      "Ø«Ø§ÙĦ": 1453,
      "ĠØ¢ØªØ§": 1454,
      "ĠÙĪØ£ÙĤ": 1455,
      "ĠØ®ÙĪÙģ": 1456,
      "ÙĬÙħÙĬÙĨ": 1457,
      "Ø±Ø¶ÙĪÙĨ": 1458,
      "ĠØ¨Ø§ÙĦÙĤ": 1459,
      "ĠØ¨Ø§ÙĦØ¢Ø®Ø±Ø©": 1460,
      "ĠØ°Ø§": 1461,
      "ĠØ£ÙĪÙĦØ§": 1462,
      "ĠØ§ÙĦØ³ÙĬ": 1463,
      "Ø§Ø±Ø©": 1464,
      "ĠÙĪÙĤÙĪÙħ": 1465,
      "ĠÙĪÙĥÙģÙī": 1466,
      "Ø°Ø¨ÙĪÙĨ": 1467,
      "ÙĬØ¨Ø©": 1468,
      "ĠÙĬÙĨÙģØ¹": 1469,
      "ĠÙĬÙĨÙģÙĤÙĪÙĨ": 1470,
      "ĠØ¨Ø¹Ø¯Ùĩ": 1471,
      "ĠÙĬØ´Ø¹Ø±ÙĪÙĨ": 1472,
      "Ø³Ø±ÙĬÙĨ": 1473,
      "ÙĤØ§Ùħ": 1474,
      "ĠØ§ÙĦØ¬ÙĨ": 1475,
      "ĠØ¶ÙĦ": 1476,
      "ĠØ¶Ø±Ø¨": 1477,
      "ÙĬÙħØ§ÙĨ": 1478,
      "ĠØ§ØªØ®Ø°ÙĪØ§": 1479,
      "ĠÙĬØ®ÙĦÙĤ": 1480,
      "ĠØ§Ø«": 1481,
      "ĠÙĪØ¢ØªÙĬÙĨØ§": 1482,
      "ĠØ§ÙĦÙģÙĦÙĥ": 1483,
      "ĠÙĬÙĪØ³Ùģ": 1484,
      "ÙĤÙĬÙħÙĪØ§": 1485,
      "ĠØ³ÙĬØ¦Ø§Øª": 1486,
      "ĠÙĥØ«ÙĬØ±": 1487,
      "Ø§ÙĩØ¯ÙĪØ§": 1488,
      "ĠØªÙĥÙĪÙĨÙĪØ§": 1489,
      "ÙĨØ¬": 1490,
      "ĠØ§ÙĦÙĬ": 1491,
      "ĠØ§ÙĦÙĪ": 1492,
      "ĠØ§ÙĦØ¨ÙĬ": 1493,
      "ĠÙĪØ§Øµ": 1494,
      "ÙĥØ¨Ø±": 1495,
      "ØªØ©": 1496,
      "Ø¨Ùĩ": 1497,
      "ĠØ£ÙħÙĨ": 1498,
      "ĠØ£ÙĬØ§Ùħ": 1499,
      "Ø³Ø§Ø¨": 1500,
      "ĠÙģÙĬÙĨ": 1501,
      "ĠÙĬØºÙģØ±": 1502,
      "ĠÙĬÙħØ³": 1503,
      "ĠØ¹Ø§ÙĦ": 1504,
      "ĠØªØ¤": 1505,
      "ĠÙĥÙĬØ¯": 1506,
      "ĠÙĤØª": 1507,
      "ÙĩØ§Ø¯Ø©": 1508,
      "Ø¶Ø§": 1509,
      "Ø¶Ø¹": 1510,
      "ĠØ¢Ø®Ø±": 1511,
      "ĠØ¢Ø¯Ùħ": 1512,
      "ĠÙĪØ£Ùĩ": 1513,
      "ĠØ¨Ø§ÙĦÙħ": 1514,
      "ĠØ¨Ø§ÙĦÙħØ¹Ø±ÙĪÙģ": 1515,
      "ĠÙĪÙĬØ¹": 1516,
      "ĠØ§ÙĦØ±Ø¬": 1517,
      "ĠØ§ÙĦØ¹Ø±Ø´": 1518,
      "ĠØ§Ø³": 1519,
      "ĠØ§ÙħØ±Ø£": 1520,
      "ÙĤØ¯Ø±": 1521,
      "ĠØºÙģÙĪØ±Ø§": 1522,
      "ĠÙĬØŃØ²": 1523,
      "Ø¬Ø±Ø©": 1524,
      "ĠØ£ØŃØ¯Ø§": 1525,
      "ĠØªØ±Ø¬Ø¹ÙĪÙĨ": 1526,
      "ĠØ§ÙĦØ´ÙħØ³": 1527,
      "ĠØ²ÙĪØ¬": 1528,
      "ĠÙħØ«ÙĦØ§": 1529,
      "ĠØ¨Ø¹Ø¶ÙĥÙħ": 1530,
      "ÙĤØªÙĦ": 1531,
      "ĠØªØ¹Ø¨Ø¯ÙĪÙĨ": 1532,
      "ĠØ±ØŃÙĬÙħØ§": 1533,
      "ĠØ£Ø®Ø§Ùģ": 1534,
      "ĠØ¹ÙħÙĦÙĪØ§": 1535,
      "ĠØ¨ÙĬÙĪØª": 1536,
      "ĠÙĨØ¬Ø²ÙĬ": 1537,
      "ĠÙĥØ±ÙĬÙħ": 1538,
      "ĠØ£ÙĪÙĦÙĪ": 1539,
      "ĠØ£ÙħÙĪØ§ÙĦÙĩÙħ": 1540,
      "ĠÙĦØ¢ÙĬØ©": 1541,
      "ĠØ´ÙĩÙĬØ¯Ø§": 1542,
      "ĠÙĪØ§ÙĦÙĤÙħØ±": 1543,
      "ĠØ£Ø±Ø§Ø¯": 1544,
      "ĠØ§ÙĦÙģØ§Ø³": 1545,
      "Ø§ÙĥÙħ": 1546,
      "ĠØ§ÙĦØ«": 1547,
      "ĠÙĪÙģ": 1548,
      "ĠÙĪØ´": 1549,
      "ÙĥØ°Ø¨ÙĬÙĨ": 1550,
      "ĠÙħØ§ÙĦ": 1551,
      "ĠØ£Ø°": 1552,
      "ĠØ£Ø£": 1553,
      "ĠØ£Ø«": 1554,
      "ĠØ£Ø±Ø¶": 1555,
      "ĠÙĬÙĪØŃ": 1556,
      "ĠÙĬØ´Ø±ÙĥÙĪÙĨ": 1557,
      "ĠØ¨Ø¢": 1558,
      "ĠØ¥ÙĦÙĬÙĨØ§": 1559,
      "ØŃØ¯": 1560,
      "ĠØ¹Ø¬": 1561,
      "ĠØªØ¬Ø¯": 1562,
      "Ø¬Ø²ÙĬ": 1563,
      "ĠÙĤÙĪÙĦØ§": 1564,
      "Ø¶Ø¨": 1565,
      "ĠØ£ÙĨÙħØ§": 1566,
      "ĠÙĪØ§ÙĦØ¢Ø®Ø±Ø©": 1567,
      "ĠÙĨØ§Ø±Ø§": 1568,
      "ĠØ³Ø¹": 1569,
      "ĠØ³ÙĦØ§Ùħ": 1570,
      "Ø·ÙĩØ±": 1571,
      "Ø«ÙĪÙĨ": 1572,
      "ĠØ§ÙĦÙħØ¬Ø±ÙħÙĬÙĨ": 1573,
      "ĠØŃØ³Ø¨": 1574,
      "ØªÙħÙĪÙĨ": 1575,
      "ĠÙĪÙĦÙĥÙħ": 1576,
      "ĠØ¨Ø§ÙĦØ¹": 1577,
      "ĠØ°ÙĬ": 1578,
      "Ø¹ÙĦÙĪØ§": 1579,
      "ĠØ§ÙĦØ³ÙħÙĬØ¹": 1580,
      "ĠØ«ÙĦØ§Ø«": 1581,
      "ÙģØ³ÙĩÙħ": 1582,
      "ĠØ§Ø³Ùħ": 1583,
      "ĠÙĦÙĩÙĪ": 1584,
      "Ø±Ø³ÙĪÙĦ": 1585,
      "Ø§Ø¦ÙĩÙħ": 1586,
      "ĠÙĬØ±Ø¯": 1587,
      "ĠØªØ±Ùī": 1588,
      "ĠÙĬØ£Ùĥ": 1589,
      "ĠØ¨ÙĦØº": 1590,
      "ĠØ§ÙĦØ®ÙĬØ±": 1591,
      "ĠØ£ÙĥØ¨Ø±": 1592,
      "ĠØªØªØ¨Ø¹": 1593,
      "ĠØªØªÙĤÙĪÙĨ": 1594,
      "ĠØ§Ø´": 1595,
      "ĠÙĬØ¬Ø¹ÙĦ": 1596,
      "ĠØ§ÙĦØµØ§ÙĦØŃÙĬÙĨ": 1597,
      "ĠÙĤÙĪØ©": 1598,
      "ĠØªØ´ÙĥØ±ÙĪÙĨ": 1599,
      "Ø¨Ø¦ÙĥÙħ": 1600,
      "ĠÙĬØŃÙĬÙĬ": 1601,
      "ĠÙĨØ´Ø§Ø¡": 1602,
      "ÙĨØ§ÙģÙĤÙĬÙĨ": 1603,
      "ĠÙħÙĬØ«Ø§ÙĤ": 1604,
      "Ø§Ø³Ø±ÙĬÙĨ": 1605,
      "ÙĬØ¹": 1606,
      "ÙĬÙĤ": 1607,
      "ĠÙĪÙĬÙħ": 1608,
      "ÙĥØ±Ø§": 1609,
      "ØªÙĨÙĬ": 1610,
      "Ø¨ÙĨØ§": 1611,
      "Ø¨Ø±ÙĪÙĨ": 1612,
      "ĠÙħØ´": 1613,
      "Ø¹ÙĬÙħ": 1614,
      "ĠØ£Ø±Ø¨": 1615,
      "ĠØ£ØªØ§": 1616,
      "Ø¯ÙĬ": 1617,
      "Ø¯ÙĥÙħ": 1618,
      "Ø³ÙĪØ§": 1619,
      "Ø³Ø§ÙĨ": 1620,
      "ĠÙĬØ¨ÙĬÙĨ": 1621,
      "ÙĤÙĨØ§": 1622,
      "ÙĤØ±Ø¨": 1623,
      "ÙģÙĤ": 1624,
      "ĠØ¹ÙĬÙĨ": 1625,
      "ÙĨØ§ÙĥÙħ": 1626,
      "ĠØªØº": 1627,
      "ĠÙĤØ§Ø¦": 1628,
      "ĠÙĤØªÙĦ": 1629,
      "Ø®Ø±ÙĪÙĨ": 1630,
      "ĠØ±ÙĬØ¨": 1631,
      "Ø²Ø¹": 1632,
      "Ø´Ùī": 1633,
      "ÙĬØ±ÙĪØ§": 1634,
      "Ø§Ø¡ÙĩÙħ": 1635,
      "Ø«Ùī": 1636,
      "ØºÙĪÙĨ": 1637,
      "ĠØ¬ÙĨØ©": 1638,
      "Ø¸Ø§ÙĦÙħÙĬÙĨ": 1639,
      "ĠØ¨Ø§ÙĦØ¨": 1640,
      "ĠØ°ÙĨ": 1641,
      "ÙĬØ§Ø±": 1642,
      "ĠØ£ÙĪØŃ": 1643,
      "ĠØ¯Ø§Ø¨": 1644,
      "Ø¤ÙħÙĨÙĪØ§": 1645,
      "ÙģØ³Ø¯ÙĬÙĨ": 1646,
      "ĠÙĪØ§Ø¹ÙĦÙħÙĪØ§": 1647,
      "ĠÙĬØªÙĤÙĪÙĨ": 1648,
      "ĠÙĬÙĨØµØ±ÙĪÙĨ": 1649,
      "ĠØ¬Ø§Ø¡ØªÙĩÙħ": 1650,
      "ØŃÙħØ¯": 1651,
      "ĠÙĤØ¨ÙĦÙĥÙħ": 1652,
      "ĠØ®ÙĦÙĤÙĥÙħ": 1653,
      "Ø§ÙģÙĪÙĨ": 1654,
      "Ø§ÙģØ¸": 1655,
      "ĠÙĦÙĨÙģØ³": 1656,
      "Ø§Ø·ÙĬÙĨ": 1657,
      "ÙĪØ±Ø§Ø©": 1658,
      "ĠÙĪØ¨Ø§ÙĦ": 1659,
      "ĠÙĪØ¨Ø´Ø±": 1660,
      "ĠÙģÙĤÙĦ": 1661,
      "ĠÙģÙĥØ§ÙĨ": 1662,
      "ØµØ¯ÙĤ": 1663,
      "ĠÙĦÙĦÙħØªÙĤÙĬÙĨ": 1664,
      "ĠØ¹ÙħÙĦ": 1665,
      "ĠØ§ÙĦØ±Ø³ÙĦ": 1666,
      "ĠÙĪØ§ØŃØ¯": 1667,
      "ĠÙĪØ§Ø´": 1668,
      "Ø§Ø¤ÙĥÙħ": 1669,
      "ĠÙĬÙħÙĦÙĥ": 1670,
      "ĠÙģÙĤØ§ÙĦÙĪØ§": 1671,
      "ĠÙĬÙģØªØ±ÙĪÙĨ": 1672,
      "ĠÙĥÙĦÙħØ©": 1673,
      "ÙĪÙĬÙĦ": 1674,
      "ÙĪØªÙī": 1675,
      "ÙĩÙĪØ§": 1676,
      "ĠØ§ÙĦÙħØ§Ø¡": 1677,
      "ĠÙĪÙĩØ§": 1678,
      "ĠÙĪØ§ÙĨ": 1679,
      "ĠÙĪØ§Ø±": 1680,
      "Ø¨Ø¹ÙĪÙĨ": 1681,
      "ĠÙħØ¤ÙħÙĨ": 1682,
      "ĠÙħØºÙģØ±Ø©": 1683,
      "ĠØ£ÙĬÙĨ": 1684,
      "ĠØ£Ø¸ÙĦÙħ": 1685,
      "Ø¯Øª": 1686,
      "ĠÙģÙĦÙħ": 1687,
      "ĠÙģØ§Øµ": 1688,
      "ĠÙĬÙĩØ¯": 1689,
      "Ø°Ø§ÙĨ": 1690,
      "Ø°Ø±ÙĪÙĨ": 1691,
      "ĠØ¹ÙĩØ¯": 1692,
      "ĠØªØ°ÙĥØ±ÙĪÙĨ": 1693,
      "Ø¬ÙĬØ¨": 1694,
      "ĠÙĥÙĨ": 1695,
      "ĠÙĥØ£": 1696,
      "ĠÙĥØ¨ÙĬØ±Ø§": 1697,
      "ÙĦÙĬÙħØ§ÙĨ": 1698,
      "ĠÙĨØ·": 1699,
      "ĠÙĨØ§Ø¯": 1700,
      "ĠÙĩØ¯Ø§": 1701,
      "Ø§ØªÙĦ": 1702,
      "ĠØ³Ø¬": 1703,
      "Ø§Ø¡ÙĥÙħ": 1704,
      "ĠØ§ÙĦÙħÙĦØ£": 1705,
      "ĠØŃÙĤØ§": 1706,
      "ĠØŃØ³ÙĨØ©": 1707,
      "ÙģØ±ÙĪØ§": 1708,
      "ĠØ´Ø¹": 1709,
      "ĠÙĪÙĦØ£": 1710,
      "ĠØ°Ø§Øª": 1711,
      "ĠÙĪÙĬÙĦ": 1712,
      "Ø¹Ø¯ÙĪØ§": 1713,
      "ĠØ£ÙħØ±Ø§": 1714,
      "ĠØ§ÙĦÙĤØ±Ùī": 1715,
      "ĠØ§Ø¹Ø¨Ø¯ÙĪØ§": 1716,
      "ĠØ§ÙĦÙĥØ§ÙģØ±ÙĪÙĨ": 1717,
      "Ø±Ø¨Øµ": 1718,
      "ĠØ¨ÙĬÙĨÙĨØ§": 1719,
      "ĠØ§ÙĦØµØ§Ø¯ÙĤÙĬÙĨ": 1720,
      "ĠÙĪØ§Ø°ÙĥØ±": 1721,
      "ÙĪØ¨ÙĩÙħ": 1722,
      "ĠÙĬÙĨØ²ÙĦ": 1723,
      "ĠØ¨Ø¹Ø¯ÙĩÙħ": 1724,
      "ĠØ¨Ø£ÙħØ±": 1725,
      "ĠØ£ÙģÙħÙĨ": 1726,
      "ĠÙĪØ¹ÙĨ": 1727,
      "Ø°Ø±ÙĩÙħ": 1728,
      "ĠÙĬØ¯ÙĬÙĩ": 1729,
      "ÙĤØªÙĦÙĪÙĨ": 1730,
      "ĠÙĦÙĪØ·": 1731,
      "ĠÙģÙĥØ°Ø¨": 1732,
      "ĠÙĬÙģÙĤ": 1733,
      "ĠÙĤØ¨ÙĦÙĩ": 1734,
      "ĠØŃØ³Ø§Ø¨": 1735,
      "Ø¨Ø§Ø±Ùĥ": 1736,
      "ØªÙĦÙģÙĪÙĨ": 1737,
      "ĠÙģØ§ØªÙĤÙĪØ§": 1738,
      "Ø°ÙĪÙĤÙĪØ§": 1739,
      "ĠÙĪØ¬ÙĪÙĩÙĩÙħ": 1740,
      "ĠØ¢ÙĦÙĩØ©": 1741,
      "ĠÙģØ£ØµØ¨ØŃ": 1742,
      "ĠØ·Ø§Ø¦ÙģØ©": 1743,
      "ĠÙħØªØ§Ø¹": 1744,
      "Ø³ØŃØ§ÙĤ": 1745,
      "ĠØ§Ø±": 1746,
      "Ø§ÙĩØ§": 1747,
      "Ø§Ø¬Ø¯": 1748,
      "ÙħÙĦ": 1749,
      "ÙħØ±ÙĪÙĨ": 1750,
      "ÙĬØªÙħ": 1751,
      "Ø§ÙĦÙī": 1752,
      "ĠØ§ÙĦÙĪØ§": 1753,
      "ĠÙĪÙģØ±": 1754,
      "ĠÙĪØ§Ø¯": 1755,
      "ĠÙĪÙĩØ¯Ùī": 1756,
      "ÙĥÙĬÙĨ": 1757,
      "Ø¨ÙĩÙħ": 1758,
      "ĠØ£ÙħØ§": 1759,
      "ĠØ£Ø¹Ø¯": 1760,
      "Ø¯ÙĩÙħ": 1761,
      "Ø³Ùĥ": 1762,
      "ĠÙģØ§Ø±": 1763,
      "ĠÙĦØ¬": 1764,
      "ĠÙĦØ±Ø¨": 1765,
      "ĠÙĬØ¸": 1766,
      "ĠÙĬÙĦÙĤ": 1767,
      "ÙĤÙĩÙħ": 1768,
      "ÙĤØ·": 1769,
      "ÙĤÙĪØ¨": 1770,
      "ÙĪØ§Ùĩ": 1771,
      "ĠØ¨Ø¬": 1772,
      "ĠØ¨Ø¨Ø¹Ø¶": 1773,
      "ĠØ¥ØŃ": 1774,
      "ÙģØ®": 1775,
      "ØŃØ²": 1776,
      "ÙĦÙĩÙĨ": 1777,
      "ĠØ¹ÙĬØ³Ùī": 1778,
      "ĠØªØ¨Ø¯": 1779,
      "ĠØªØ®Ø±Ø¬": 1780,
      "Ø¬ÙĪÙĨ": 1781,
      "ĠÙģÙĬÙĩÙħ": 1782,
      "Ø®ÙĦÙģ": 1783,
      "ĠØ±Ø²": 1784,
      "ĠØ±Ø¡": 1785,
      "ĠØ£ÙĨØ¹Ùħ": 1786,
      "ĠÙĪØ§ÙĦÙħØ³": 1787,
      "ĠÙĨØ²": 1788,
      "ĠÙĩÙĨ": 1789,
      "ĠØ³Ø±": 1790,
      "ĠØ³Ø®Ø±": 1791,
      "Ø§Ø¡ÙĨØ§": 1792,
      "Ø¦ÙĬÙĨ": 1793,
      "ĠÙĪØ£Ùĥ": 1794,
      "ĠÙĪØ£Ø®": 1795,
      "ĠØ§ÙĦÙħÙĪØªÙī": 1796,
      "ĠØ®Ø·": 1797,
      "ĠØ§ÙĦØ£ÙĦØ¨": 1798,
      "ĠÙĪÙĬØ³": 1799,
      "Ø§Ø¯Ø§": 1800,
      "ÙĬØ¯ÙĪÙĨ": 1801,
      "ĠØ§ÙĦØŃØ³Ø§Ø¨": 1802,
      "ĠØ¯Ø±Ø¬": 1803,
      "ĠØ§ÙĦØ¹ÙĤØ§Ø¨": 1804,
      "ÙĩØ¯ÙĪØ§": 1805,
      "ĠÙĦÙĬÙĤÙĪÙĦ": 1806,
      "ĠÙĪÙĥÙĨØ§": 1807,
      "ĠÙĪÙĥØ°Ø¨": 1808,
      "Ø°Ø¨ÙĩÙħ": 1809,
      "Ø±Ø¨Ùī": 1810,
      "Ø§Ø¦ÙĥÙħ": 1811,
      "ĠØ¨ÙĬÙĨØ§Øª": 1812,
      "ĠÙĬØªÙģ": 1813,
      "ĠÙĬØªØ®Ø°": 1814,
      "ĠÙĤØ¯ÙħØª": 1815,
      "Ø¬Ø±ÙħÙĪÙĨ": 1816,
      "ĠØ¸ÙĨ": 1817,
      "ĠØ¸Ùĩ": 1818,
      "ĠØ£ÙĩÙĦÙĩØ§": 1819,
      "ĠØ£ÙĩÙĪØ§Ø¡": 1820,
      "ĠÙħØ±Ø¬Ø¹": 1821,
      "ĠØªØªÙĦÙī": 1822,
      "ĠÙĥØ°Ø¨Øª": 1823,
      "ĠØ§ÙĦØ¨ÙĦØ§": 1824,
      "ĠØ¥ÙĦÙĩØ§": 1825,
      "ĠØªØ£ØªÙĬÙĩÙħ": 1826,
      "ĠØ£ÙħØ±ÙĨØ§": 1827,
      "ĠØ§ÙĦÙģÙĪØ²": 1828,
      "ĠÙģÙĥÙĬÙģ": 1829,
      "ĠÙĬÙĪÙħØ§": 1830,
      "ĠØ±ØŃÙħØªÙĩ": 1831,
      "ĠÙĨØ¹ÙħØ©": 1832,
      "ĠØ¢ØªÙĬÙĨØ§ÙĩÙħ": 1833,
      "ĠÙĨØ¨Ø£": 1834,
      "ĠÙĥØ³Ø¨Øª": 1835,
      "ĠØ³ÙħØ¹ÙĨØ§": 1836,
      "ĠÙĪØ£ØµÙĦØŃ": 1837,
      "ĠØ£ÙĩÙĦÙĥÙĨØ§": 1838,
      "ĠØ§ÙĦØµØ¯ÙĪØ±": 1839,
      "ÙĩØ²Ø¦ÙĪÙĨ": 1840,
      "ĠØŃÙĥÙĬÙħØ§": 1841,
      "ĠØ§ÙĦØ£ÙĦØ¨Ø§Ø¨": 1842,
      "ĠØ§Ø¦": 1843,
      "ÙĦØªÙħ": 1844,
      "ÙħÙī": 1845,
      "ÙĥÙħØ§": 1846,
      "ØªÙĨ": 1847,
      "ØªØ®Ø°": 1848,
      "Ø¹ÙĬ": 1849,
      "Ø¹Ùī": 1850,
      "ĠØ£ÙĦ": 1851,
      "Ø¯Ø¹": 1852,
      "ĠÙĬØ¶Ø±": 1853,
      "ÙĤØ§ÙĦ": 1854,
      "ÙĦØ§Ùģ": 1855,
      "ĠÙĥÙĦÙĪØ§": 1856,
      "ĠÙĥØ§ÙģØ±ÙĪÙĨ": 1857,
      "ĠÙģÙĬÙĤÙĪÙĦ": 1858,
      "ĠØ¥ÙĨÙĩØ§": 1859,
      "ÙĩØ§Ø¯": 1860,
      "Ø²Ø©": 1861,
      "ĠØ£ÙĨÙĬ": 1862,
      "ĠØ£ÙĨÙī": 1863,
      "ĠÙĪØ§ÙĦÙĥ": 1864,
      "ĠÙĪØ§ÙĦØ°ÙĬ": 1865,
      "Ø§ØªÙĦÙĪØ§": 1866,
      "ĠØ³Ø£": 1867,
      "ĠØ³ØŃØ±": 1868,
      "ĠÙĪØ£Ø¨": 1869,
      "ĠÙĪØ£ÙĦÙĤ": 1870,
      "ĠÙĪØ£ÙħØ±": 1871,
      "ĠØ§ÙĦÙħØª": 1872,
      "ĠØ§ÙĦÙħÙĨØ§ÙģÙĤÙĬÙĨ": 1873,
      "ĠØŃØ±Ø¬": 1874,
      "ØºÙĬØ±": 1875,
      "ØªÙħØª": 1876,
      "ĠØ®ÙĦØª": 1877,
      "ĠØ´Ø¦": 1878,
      "ĠØ°Ø±ÙĬ": 1879,
      "ĠÙĪÙĬØŃ": 1880,
      "ĠÙĪÙĬØ£": 1881,
      "ĠÙĪÙĬÙĩØ¯ÙĬ": 1882,
      "ĠÙĪÙĤÙĬÙĦ": 1883,
      "ĠØ§ÙĩØª": 1884,
      "ÙĪØ±Ø©": 1885,
      "Ø±Ø¨ÙĪØ§": 1886,
      "ĠÙĥÙĦÙħØ§": 1887,
      "ĠÙģØ¥ÙĨÙĩ": 1888,
      "ĠØ¨Ø¹Ø«": 1889,
      "ĠÙĪØ§ÙĦØ£ÙĨ": 1890,
      "Ø³Ø±ÙĪØ§": 1891,
      "ĠÙĪÙĨØŃÙĨ": 1892,
      "ĠÙĬØ£Øª": 1893,
      "ĠØ±Ø³ÙĦÙĨØ§": 1894,
      "ĠØ±Ø³ÙĪÙĦÙĩ": 1895,
      "Ø°Ø±ÙĬÙĨ": 1896,
      "ĠÙĬØ³ØªØ·ÙĬØ¹ÙĪÙĨ": 1897,
      "ĠÙĪØ¨Ø¦Ø³": 1898,
      "ĠÙĥØ°Ø¨Ø§": 1899,
      "ĠØ£Ø¹ÙĬÙĨ": 1900,
      "ĠÙĪØ¢ØªÙĪØ§": 1901,
      "ĠÙĦÙĦÙħØ¤ÙħÙĨÙĬÙĨ": 1902,
      "ĠØ£Ø¨ÙĨØ§Ø¡": 1903,
      "ĠÙħÙĦÙĥØª": 1904,
      "Ø§Ø¤ÙĨØ§": 1905,
      "ĠÙĬØ£ØªÙĬÙĩÙħ": 1906,
      "ĠØ§ÙĦÙħØ³Ø¬Ø¯": 1907,
      "ĠØ§ÙĦØªÙĪØ±Ø§Ø©": 1908,
      "ĠÙĪÙĩØ°Ø§": 1909,
      "ĠÙĦØ¨Ø«": 1910,
      "ĠÙĥØ³Ø¨ÙĪØ§": 1911,
      "ĠØŃØ¯ÙĬØ«": 1912,
      "ĠØ£ÙĬÙħØ§ÙĨÙĩÙħ": 1913,
      "ĠØ£ÙĬÙħØ§ÙĨÙĥÙħ": 1914,
      "ĠØ³ÙĦØ·Ø§ÙĨ": 1915,
      "ĠØªÙĤÙĪÙĦÙĪØ§": 1916,
      "ĠØ¨ØµÙĬØ±Ø§": 1917,
      "Ø£ÙĦÙĪÙĨÙĥ": 1918,
      "ĠØ£Ø®Ø±Ùī": 1919,
      "Ø®ÙĦØµÙĬÙĨ": 1920,
      "ĠØ±Ø²ÙĤØ§": 1921,
      "ĠÙĦÙĬÙĤÙĪÙĦÙĨ": 1922,
      "Ø§ÙĨØ§": 1923,
      "ÙħØ§ÙĦ": 1924,
      "ÙĪÙĦÙĬ": 1925,
      "Ø§ÙĦÙĪØ§": 1926,
      "Ø±Ø¡": 1927,
      "ĠØ§ÙĦØ¢": 1928,
      "ĠÙĪØ°ÙĥØ±": 1929,
      "ÙĥÙĩ": 1930,
      "ĠÙħÙĪØ§": 1931,
      "ĠÙħØ¬": 1932,
      "ĠÙħØŃÙĬ": 1933,
      "ĠØ£Ø¶": 1934,
      "ĠØ£ÙģØ±": 1935,
      "ĠØ£ÙĦÙģ": 1936,
      "ĠØ£Ø¶ÙĦ": 1937,
      "Ø³ÙĪÙĨ": 1938,
      "ĠÙģØ§Ø¯": 1939,
      "ĠÙĦØŃ": 1940,
      "ĠÙĬØ¹Ø¯": 1941,
      "ĠØ¨Ø°ÙĨ": 1942,
      "ĠØ¥ÙħØ§": 1943,
      "ÙĪÙĨÙĪØ§": 1944,
      "ÙģÙĪ": 1945,
      "Ø£ÙĬØª": 1946,
      "Ø£ÙĦÙĥÙħ": 1947,
      "ĠØ¹Ø±Ø¶": 1948,
      "ĠØ¹Ø¯ÙĪØ§": 1949,
      "ĠØªØ·": 1950,
      "ĠÙĥØ¨ÙĬØ±": 1951,
      "Ø¶ÙĪÙĨ": 1952,
      "Ø¶Ø©": 1953,
      "Ø²Ø§": 1954,
      "Ø²ÙĬØ¯": 1955,
      "ĠØ£ÙĨÙĥÙħ": 1956,
      "ĠØ£ÙĨØ´Ø£": 1957,
      "ĠÙĪØ§ÙĦØŃÙĥÙħ": 1958,
      "ĠÙĨÙĪØ±": 1959,
      "ĠÙĨØ§Øµ": 1960,
      "ĠØ³Ø±Ø§": 1961,
      "ĠØ³ÙĨØ©": 1962,
      "ĠÙĪØ£Ø·ÙĬØ¹ÙĪØ§": 1963,
      "ĠØ§ÙĦÙħØ³Øª": 1964,
      "ĠØ§ÙĦÙħØ¯ÙĬÙĨ": 1965,
      "ĠØ§ÙĦØ£Ø¹": 1966,
      "ĠØ§ÙĦØ£ÙĪÙĦÙī": 1967,
      "ĠÙĪØ¥ÙħØ§": 1968,
      "ĠÙĪÙĦØ¹": 1969,
      "ĠØ¨Ø§ÙĦØ£": 1970,
      "ĠØ§ÙĦØ³ØŃØ±": 1971,
      "ĠØ§ÙĦØ³ÙĪØ¡": 1972,
      "ÙĬØ¯Ùĩ": 1973,
      "Ø¹ÙĦÙħÙĪÙĨ": 1974,
      "ĠÙĤÙĦÙĨØ§": 1975,
      "Ø§Ø±ÙĩÙħ": 1976,
      "ĠØ¯Ø¹ÙĪØ§": 1977,
      "ĠØ¯Ø§ÙĪ": 1978,
      "ĠØ¯ÙĬØ§Ø±": 1979,
      "ĠÙģØ£ÙĦÙĤ": 1980,
      "ÙĥØ±ÙĪØ§": 1981,
      "ĠØ¨ÙĩØ°Ø§": 1982,
      "ĠÙĪÙĥÙĦ": 1983,
      "ĠØ§ÙĦÙĥØ°Ø¨": 1984,
      "ĠÙĪØ¥ÙĨÙĬ": 1985,
      "Ø§Ø¦Ø±": 1986,
      "ĠÙĪØ¬Ø¯ÙĨØ§": 1987,
      "ĠØ¨ÙĬÙĨØ©": 1988,
      "ĠÙħØ¹ÙĬ": 1989,
      "ĠÙħØ¹ÙĩÙħ": 1990,
      "ĠÙħØ¹Ø±Ø¶ÙĪÙĨ": 1991,
      "ĠØ¨Ø¹ÙĬØ¯": 1992,
      "ĠØ¨Ø¹Ø°Ø§Ø¨": 1993,
      "ĠÙĬØªÙĪØ¨": 1994,
      "ĠØ¹ÙĨØ¯ÙĨØ§": 1995,
      "ÙĤØ§ÙħÙĪØ§": 1996,
      "ĠÙĪØ£ÙĨØª": 1997,
      "ĠØ£ÙĩÙĦÙĩ": 1998,
      "ĠÙĬÙĥØ³Ø¨ÙĪÙĨ": 1999,
      "ĠØªØŃØ²": 2000,
      "Ø°Ø±ÙĪØ§": 2001,
      "ÙģØªØŃ": 2002,
      "ĠØ§ÙĦØ®ÙĦÙĤ": 2003,
      "ĠÙĬØ¯Ø®": 2004,
      "ĠÙĬØ³ØªÙĪÙĬ": 2005,
      "ĠÙĬØ³ØªÙĩØ²Ø¦ÙĪÙĨ": 2006,
      "ĠØ§ÙĦØ¸ÙĦÙħØ§Øª": 2007,
      "ĠÙĦØ£ÙĨ": 2008,
      "ĠÙħØ±Ø©": 2009,
      "ĠÙĨÙģØ³Ø§": 2010,
      "ĠÙĤÙĦÙĪØ¨ÙĥÙħ": 2011,
      "ĠØ§Øµ": 2012,
      "ĠÙĪØ§ÙĦÙħÙĦØ§Ø¦ÙĥØ©": 2013,
      "ĠØ§ÙĦÙģØ¶ÙĦ": 2014,
      "ĠÙĬÙĪÙĤ": 2015,
      "ĠØ£Ø³ÙĦÙħ": 2016,
      "ĠØ§ÙĦØ£ÙĨØ¹Ø§Ùħ": 2017,
      "ĠØ£Ø¨ØµØ§Ø±": 2018,
      "ØŃÙĬÙĬ": 2019,
      "ĠØ£Ø±Ø£ÙĬØªÙħ": 2020,
      "ØµØ§Ø±Ùī": 2021,
      "ĠØ§Ø¨ØªØº": 2022,
      "ĠÙĨØµÙĬØ¨": 2023,
      "ĠÙĤØ±ÙĬØ¨": 2024,
      "ĠØ£ÙĨØ²ÙĦÙĨØ§Ùĩ": 2025,
      "ĠØ£Ø²ÙĪØ§Ø¬Ø§": 2026,
      "ĠØ³Ø¨ØŃØ§ÙĨÙĩ": 2027,
      "Ø§Ø³Ø±ÙĪÙĨ": 2028,
      "ĠÙģØ±ÙĬÙĤ": 2029,
      "ĠØ§ÙģØªØ±Ùī": 2030,
      "ĠØ£ÙĦÙĬÙħØ§": 2031,
      "ĠÙħØ³ÙĦÙħÙĪÙĨ": 2032,
      "Ø¹Ø¬ÙĦÙĪÙĨ": 2033,
      "ĠØ¨Ø§ÙĦÙĤØ³Ø·": 2034,
      "ĠØ§ÙĦØ³ÙĬØ¦Ø§Øª": 2035,
      "ĠÙĬÙĪØŃÙī": 2036,
      "ĠØ£ÙĪØŃÙĬÙĨØ§": 2037,
      "ĠØ¯Ø§Ø¨Ø©": 2038,
      "ĠØ§ÙĦÙħØ¯ÙĬÙĨØ©": 2039,
      "ĠØ¯Ø§ÙĪÙĪØ¯": 2040,
      "Ø§Ø°Ø¨ÙĬÙĨ": 2041,
      "Ø§Ø°Ø¨ÙĪÙĨ": 2042,
      "ÙħÙĪØ§ÙĦ": 2043,
      "ÙĬØªØ§": 2044,
      "Ø§ÙĦØ©": 2045,
      "Ø±Ø«": 2046,
      "ĠØ§ÙĦÙĦØ§": 2047,
      "ĠØ§ÙĦÙģØ±": 2048,
      "ĠÙĪØ°": 2049,
      "ĠÙĪØ¶": 2050,
      "ĠÙĪØ°ÙĦÙĥ": 2051,
      "ĠÙĪØ±Ø¶ÙĪØ§": 2052,
      "ÙĥÙī": 2053,
      "ÙĥØ¨Ø±ÙĪÙĨ": 2054,
      "ĠÙħØº": 2055,
      "Ø¹ÙĩÙħ": 2056,
      "Ø³ÙĦ": 2057,
      "Ø³ÙħØ§": 2058,
      "ĠÙģØ§Ø®": 2059,
      "ĠÙĬØµØ¯": 2060,
      "ĠÙĬØ³Ø¨ØŃ": 2061,
      "ĠØ¨Ø±ÙĬ": 2062,
      "ĠØ¥ÙĬØ§": 2063,
      "ÙģÙĥ": 2064,
      "ÙģÙĥÙĪÙĨ": 2065,
      "ØŃØµ": 2066,
      "ĠÙħÙĨÙĬ": 2067,
      "ĠØ¹Ø§Ùħ": 2068,
      "ĠØªÙħØ³": 2069,
      "ĠØªÙĪÙĥ": 2070,
      "Ø¬Ø§": 2071,
      "Ø¬Ø²ÙĬÙĨ": 2072,
      "Ø¬ÙĬÙĨØ§Ùĩ": 2073,
      "ĠÙĪØ§ÙĦØ¬": 2074,
      "ĠÙĨÙĤ": 2075,
      "ĠÙĨØ®": 2076,
      "ÙĦÙħÙĬÙĨ": 2077,
      "Ø§ØªÙĦÙĪÙĨ": 2078,
      "Ø·Ùģ": 2079,
      "ĠØ§ÙĦÙħÙģ": 2080,
      "ĠØ§ÙĦÙħØ¬Ø±ÙħÙĪÙĨ": 2081,
      "ÙģØ±ÙĪÙĨ": 2082,
      "Ø±Ø§Ùĩ": 2083,
      "ĠÙĪÙĦØ¯Ø§": 2084,
      "ĠØ°ÙĥØ±Ø§": 2085,
      "Ø¹ÙĦÙĪÙĨ": 2086,
      "ĠØ§ÙĦØ±Ø²ÙĤ": 2087,
      "ĠØ§ÙĦØŃÙĬ": 2088,
      "ĠØ§ÙĦØŃØ³ÙĨ": 2089,
      "ĠØ«ÙħÙĪØ¯": 2090,
      "ÙĥØ±ÙĬÙĨ": 2091,
      "ĠØµØ¨Ø±ÙĪØ§": 2092,
      "ĠÙĪÙĥÙĬÙĦØ§": 2093,
      "Ø¨ÙĬÙĩ": 2094,
      "ĠØ§ÙĦÙĥØ¨Ø±": 2095,
      "ĠØ§ÙĦÙĥÙģØ§Ø±": 2096,
      "ÙĪØ±ÙĥÙħ": 2097,
      "ĠÙĦÙĩÙĨ": 2098,
      "Ø´Ø±ÙĩÙħ": 2099,
      "Ø±Ø³ÙĦÙĨØ§": 2100,
      "ĠÙĪØ§Ø°ÙĥØ±ÙĪØ§": 2101,
      "Ø¬Ø±ÙĪØ§": 2102,
      "ÙħØ±Ø§Øª": 2103,
      "ØŃÙħÙĦ": 2104,
      "ĠÙģØ§Ø¹Ø¨Ø¯": 2105,
      "ĠØ§ÙĦØ¯Ø§Ø±": 2106,
      "ĠÙģÙĦÙĪÙĦØ§": 2107,
      "ĠÙĪØ£ÙĨÙĩ": 2108,
      "ĠØ·Ø¹Ø§Ùħ": 2109,
      "ĠØ§ÙĦØ¬Ø§Ùĩ": 2110,
      "ĠØ¨Ø£ÙħÙĪØ§ÙĦ": 2111,
      "ĠØ£ÙģØ£": 2112,
      "ĠÙĪÙĤØ§ÙĦØª": 2113,
      "ĠØ³Ø¨ÙĬÙĦÙĩ": 2114,
      "ĠØ§ÙĦØ®Ø§Ø³Ø±ÙĬÙĨ": 2115,
      "ĠÙĪÙħÙħØ§": 2116,
      "ÙĤØªÙĦÙĪØ§": 2117,
      "ĠÙĪØ±Ø§Ø¡": 2118,
      "ĠÙĪØ±Ø²ÙĤ": 2119,
      "ĠØªØªØ®Ø°ÙĪØ§": 2120,
      "ĠÙĪÙĦÙĬØ§": 2121,
      "ĠØ£Ø¹Ø¨Ø¯": 2122,
      "ĠÙĬØ¬Ø§Ø¯": 2123,
      "ĠØºÙĬØ±Ùĩ": 2124,
      "ĠØ¨ØºØªØ©": 2125,
      "ØµØ¯ÙĤØ§": 2126,
      "ĠØªÙĤÙĪÙħ": 2127,
      "ĠØ§ÙĦØ´ÙĬØ§Ø·ÙĬÙĨ": 2128,
      "ĠØ±Ø¬ÙĦ": 2129,
      "ĠØµØ¯ÙĤ": 2130,
      "ĠØªØ®Ùģ": 2131,
      "ĠÙĦÙĤÙĪÙħÙĩ": 2132,
      "ØªÙĪÙĨÙĬ": 2133,
      "ĠÙĬØºÙĨÙĬ": 2134,
      "Ø·Ø§ÙĨØ§": 2135,
      "ĠÙĬØ±ÙĬØ¯ÙĪÙĨ": 2136,
      "ĠÙĪØ§Ø®": 2137,
      "Ø§Ø¤ÙĩÙħ": 2138,
      "ĠØ£Ø¯Ø±Ø§Ùĥ": 2139,
      "ĠÙģØ§ÙĨØ¸Ø±": 2140,
      "ĠÙĬÙĥÙĪÙĨÙĪØ§": 2141,
      "ÙĬØŃØ©": 2142,
      "ĠØ§ÙĦØ¢Ø®Ø±ÙĬÙĨ": 2143,
      "ĠÙģÙĪÙĤÙĩÙħ": 2144,
      "ĠØ§Ø¯Ø®ÙĦÙĪØ§": 2145,
      "Ø«ÙħÙĪØ¯": 2146,
      "ĠÙĪØ§Ø³ØªØºÙģØ±": 2147,
      "ĠØ´ÙĩÙĬØ¯": 2148,
      "ĠØ´Ø±ÙĥØ§Ø¡": 2149,
      "Ø±ØŃÙħÙĨ": 2150,
      "ĠÙħØ¨ÙĬÙĨØ§": 2151,
      "ĠØŃØ¯ÙĪØ¯": 2152,
      "ĠÙĬÙģØ¹ÙĦÙĪÙĨ": 2153,
      "ĠØ§ÙĦØ£ÙħÙĪØ±": 2154,
      "ĠØ£ÙĦÙĬØ³": 2155,
      "ĠÙĥÙħØ«ÙĦ": 2156,
      "ØŃØ´Ø©": 2157,
      "ĠØªÙĪØ¹Ø¯ÙĪÙĨ": 2158,
      "ĠØ¨Ø´Ø±Ø§": 2159,
      "ĠÙĦÙĦØ¹Ø§ÙĦÙħÙĬÙĨ": 2160,
      "ĠØ¹Ø§ÙĦÙħ": 2161,
      "ĠÙĬØŃØ²ÙĨÙĪÙĨ": 2162,
      "ĠÙĬÙģÙĤÙĩÙĪÙĨ": 2163,
      "ĠØ§ÙĦØŃØ³ÙĨÙī": 2164,
      "ÙĨØ°Ø±": 2165,
      "ÙħÙĩ": 2166,
      "ÙĬÙĪÙĨ": 2167,
      "ÙĬÙĤØ§": 2168,
      "ÙĪØ°": 2169,
      "Ø±Ø¯": 2170,
      "ĠØ§ÙĦÙĬÙħÙĬÙĨ": 2171,
      "ĠÙĪØµØ¯": 2172,
      "ĠÙĪØ«ÙħÙĪØ¯": 2173,
      "ØªØ§ÙĦ": 2174,
      "Ø¨ÙĦÙĬ": 2175,
      "Ø¨Ø§Ø¡": 2176,
      "ĠÙħØ¤": 2177,
      "ĠÙħØ±ÙĬ": 2178,
      "ĠÙħØ§Ø¦": 2179,
      "ĠÙħÙĤØª": 2180,
      "ĠÙħÙĩÙĬÙĨ": 2181,
      "Ø¹Ø±Ø¶": 2182,
      "Ø¹ÙĬÙĦ": 2183,
      "ĠØ£Ø¨Ø§": 2184,
      "ĠÙĬÙĨØ§": 2185,
      "ĠÙĬÙģØ±": 2186,
      "ĠÙĬØ±ÙĪÙĨ": 2187,
      "ĠÙĬØ³Ø±": 2188,
      "Ø°Ø§Øª": 2189,
      "ĠØ¨Ø°Ø§Øª": 2190,
      "Ø£Ùĥ": 2191,
      "Ø£Ø°ÙĨ": 2192,
      "ÙĦØ§ÙħØ§": 2193,
      "ĠØªÙĦÙĤ": 2194,
      "ĠØªÙĤØ¯": 2195,
      "ĠØªØ³ÙħØ¹": 2196,
      "Ø¬ÙĬÙĨØ§": 2197,
      "ĠÙĤØµ": 2198,
      "ØµÙģ": 2199,
      "ĠØ±Ø§": 2200,
      "ĠØ±ÙĤ": 2201,
      "Ø²Ùī": 2202,
      "ĠÙĪØ§ÙĦØ·": 2203,
      "ĠØ³Ø§Ø¡": 2204,
      "Ø·ÙĦÙĤ": 2205,
      "Ø«ÙħØ§": 2206,
      "ĠØ¢Ø°Ø§ÙĨ": 2207,
      "ĠÙĪØ£ÙĪØŃ": 2208,
      "ĠØ§ÙĦÙħÙĬØª": 2209,
      "ĠØ®Ø°": 2210,
      "ĠØ®Ø¨ÙĬØ±Ø§": 2211,
      "ĠÙĪÙĦØ¹ÙĦ": 2212,
      "ĠØ°Ø±": 2213,
      "ĠØ°ÙĩØ¨": 2214,
      "ĠÙĪÙĬÙĤÙĪÙĦ": 2215,
      "ĠÙĪÙĬØ¬Ø¹ÙĦ": 2216,
      "Ø¹Ø¯Ø§": 2217,
      "Ø¹ÙħÙī": 2218,
      "ĠØ§ÙĦØŃÙĥÙħ": 2219,
      "ĠØ§ÙĦÙĤØ¯": 2220,
      "ĠØ§ÙĦÙĤØ±Ø¨Ùī": 2221,
      "Ø¨ÙĬØ«": 2222,
      "ĠØ§ÙĦÙĥÙģØ±": 2223,
      "ĠØºØ±": 2224,
      "ĠÙĪØ¬ÙĨ": 2225,
      "ÙĩÙĪØ¯": 2226,
      "ĠÙħØ¹Ùĥ": 2227,
      "ĠÙħØ¹Ø±ÙĪÙģ": 2228,
      "ĠØ¨Ø¹Ø¨Ø§Ø¯": 2229,
      "ĠÙĬØªÙĪÙģ": 2230,
      "ĠÙĪØªØ±Ùī": 2231,
      "ĠÙĤØ¯Ø±": 2232,
      "ĠÙĪØ£ÙĨØ²ÙĦ": 2233,
      "ĠÙĪØ£ÙĨØ²ÙĦÙĨØ§": 2234,
      "ĠØ£ÙģÙĦÙħ": 2235,
      "ĠØªÙĥÙģØ±ÙĪÙĨ": 2236,
      "ĠØ£Ø¹Ø¬": 2237,
      "ĠØ£ÙħØ±ÙĩÙħ": 2238,
      "Ø¸Ø±ÙĬÙĨ": 2239,
      "ĠÙĪØ±Ø³ÙĦÙĩ": 2240,
      "ĠÙĪØ³Ø®Ø±": 2241,
      "ĠØ¹Ø¨Ø§Ø¯ÙĬ": 2242,
      "ĠÙĦÙĦÙħÙĥØ°Ø¨ÙĬÙĨ": 2243,
      "Ø·Ø¹ÙĨØ§": 2244,
      "ĠØ³ÙĬØ¦Ø©": 2245,
      "ĠÙĥØªØ§Ø¨Ø§": 2246,
      "Ø±ÙģÙĪÙĨ": 2247,
      "ĠØ¨ÙĬÙĪ": 2248,
      "ĠØ£Ø±Ø³ÙĦÙĨØ§Ùĥ": 2249,
      "Ø§ÙĩØ¯ÙĬÙĨ": 2250,
      "ĠÙĨØµÙĬØ±Ø§": 2251,
      "ĠØ£Ø¬Ø±ÙĩÙħ": 2252,
      "ĠÙĬØ¨ØµØ±ÙĪÙĨ": 2253,
      "ĠØ£ÙĤØ³Ùħ": 2254,
      "Ø§ÙĥÙĬÙĨ": 2255,
      "ĠØ±Ø£Ùī": 2256,
      "Ø´ÙĬØ¡": 2257,
      "ĠÙĬØ¤ÙħÙĨÙĪØ§": 2258,
      "ĠØ§ØªØ¨Ø¹ÙĪØ§": 2259,
      "ĠØ£Ø®Ø°ÙĨØ§": 2260,
      "ĠÙĬØ¶ÙĦÙĦ": 2261,
      "ĠÙĬÙĥÙģØ±ÙĪÙĨ": 2262,
      "ĠÙģØ¬Ø¹ÙĦÙĨØ§": 2263,
      "ĠØ®ÙĦÙģÙĩÙħ": 2264,
      "ĠÙĩØ§Ø±ÙĪÙĨ": 2265,
      "ĠØ´ÙĩØ¯Ø§Ø¡": 2266,
      "ĠØ§Ø®ØªÙĦÙģ": 2267,
      "ĠØ¨Ø§ÙĦØºÙĬØ¨": 2268,
      "ĠØ£Ø´Ø±ÙĥÙĪØ§": 2269,
      "Ø£ÙĪØ§ÙĩÙħ": 2270,
      "ÙĨØ¬ÙĬÙĦ": 2271,
      "ĠØ§ÙĦØ¨ÙĬØª": 2272,
      "ĠØ¨Ø¢ÙĬØ©": 2273,
      "ĠØ°ÙĨÙĪØ¨": 2274,
      "ĠØ¨Ø£ÙħØ±Ùĩ": 2275,
      "ĠØ¯Ø±Ø¬Ø§Øª": 2276,
      "ĠØ£ÙĩÙĪØ§Ø¡ÙĩÙħ": 2277,
      "Ø³ÙħØ§Ø¹ÙĬÙĦ": 2278,
      "ĠØ§ÙĦÙħÙģÙĦØŃÙĪÙĨ": 2279,
      "ºÙģØ±": 2280,
      "ÙĦØ·Ø§ÙĨ": 2281,
      "ÙĬÙĥ": 2282,
      "Ø§ÙĦÙĬÙĨ": 2283,
      "ĠØ§ÙĦØ¨ÙĬÙĨØ§Øª": 2284,
      "ĠÙĪÙĨØ§": 2285,
      "ĠÙĪÙĬØ§": 2286,
      "ĠÙĪØ³Ø¨ØŃ": 2287,
      "ÙĥØª": 2288,
      "ØªØµ": 2289,
      "ØªÙĤÙĪØ§": 2290,
      "ØªØ±ÙĪØ§": 2291,
      "Ø¨ÙĥÙħ": 2292,
      "ĠÙħÙĦ": 2293,
      "ĠÙħÙĤ": 2294,
      "ĠÙħØ¹ÙĦ": 2295,
      "ĠÙħØµØ¯ÙĤØ§": 2296,
      "Ø¹Ø§ÙĦÙī": 2297,
      "ĠØ£Ø³Ø±": 2298,
      "Ø¯Ø§ÙĨ": 2299,
      "ĠÙģØ¯": 2300,
      "ĠÙģØ®": 2301,
      "ĠÙģØ³Ø¨ØŃ": 2302,
      "ĠÙģØ°ÙĪÙĤÙĪØ§": 2303,
      "ĠÙĦØ³": 2304,
      "ĠÙĦÙĬÙĨ": 2305,
      "ĠÙĦØ¥": 2306,
      "ĠÙĬØ°ÙĥØ±ÙĪÙĨ": 2307,
      "ĠØ¨ØŃ": 2308,
      "ĠØ¨ÙħÙĨ": 2309,
      "ĠØ¨ÙħØ¹": 2310,
      "ĠØ¨ØŃÙħØ¯": 2311,
      "ĠØ¥Ø¨ÙĦÙĬ": 2312,
      "ĠØ¹ÙĨØ§": 2313,
      "ĠØ¹Ø´Ø±": 2314,
      "ĠØªØ¶": 2315,
      "ĠØªØ¨ÙĬÙĨ": 2316,
      "ĠØªØ¨Ø¹": 2317,
      "ĠØªØ¨Øª": 2318,
      "ĠØªØ·Ø¹": 2319,
      "Ø¬Ø±Ø§": 2320,
      "ĠÙĥÙģØ§Ø±": 2321,
      "ĠÙĤÙĦÙĬÙĦ": 2322,
      "ĠÙģÙĬÙĥÙħ": 2323,
      "ØµÙĪÙĨ": 2324,
      "Ø¶Ø§Ø¡": 2325,
      "Ø²ÙĬÙĦ": 2326,
      "Ø´Ø±Ø§": 2327,
      "Ø´Ø§Ø±": 2328,
      "ĠØ£ÙĨÙģÙĤÙĪØ§": 2329,
      "ĠÙĨØ¯": 2330,
      "ĠÙĨØ¬Ø¹ÙĦ": 2331,
      "ĠÙĩØ²ÙĪØ§": 2332,
      "Ø§ØªØ§": 2333,
      "ĠØ³Ø£ÙĦ": 2334,
      "Ø·Ùħ": 2335,
      "Ø«Ø§": 2336,
      "ĠÙĪØ£Ø·ÙĬØ¹ÙĪÙĨ": 2337,
      "ĠÙĪØ£ÙĤÙĬÙħÙĪØ§": 2338,
      "ĠØŃÙĨÙĬ": 2339,
      "ØºÙī": 2340,
      "ĠØ¹ÙĦÙĬÙĩÙĨ": 2341,
      "ĠØ®Ø²": 2342,
      "ĠØ®Ø±Ø¬": 2343,
      "ĠØ§ÙĦØ£Ø®": 2344,
      "Ø¸Ø©": 2345,
      "Ø±Ø§Ø±Ø§": 2346,
      "ĠÙĪÙĦÙĦ": 2347,
      "ĠØ¨Ø§ÙĦØ¥": 2348,
      "ĠØ¨Ø§ÙĦØ°ÙĬ": 2349,
      "ĠØ§ÙĦØ³ÙħØ¹": 2350,
      "ĠÙĪÙĬØ¤": 2351,
      "ĠØ«ÙĤ": 2352,
      "ĠØ£ÙħÙĬÙĨ": 2353,
      "ĠÙģØ£Ø®Ø±Ø¬": 2354,
      "ÙģØ³ÙĥÙħ": 2355,
      "ĠØ§Ø¬": 2356,
      "ĠØ§Ø¹Øª": 2357,
      "Ø±ÙĬØ¹": 2358,
      "ĠÙĪÙĥÙģØ±": 2359,
      "ĠÙĪØ¥ÙĨÙĩÙħ": 2360,
      "ĠØºØ§Ùģ": 2361,
      "ÙĨÙĬØ©": 2362,
      "Ø§Ø¦ÙĨ": 2363,
      "ĠÙĪØ¬Ø¯": 2364,
      "ĠØ¨ÙĬÙĨÙĬ": 2365,
      "Ø¨Ø¯ÙĦ": 2366,
      "ÙĥÙĪÙĨÙĨ": 2367,
      "ĠÙĬÙĨØµØ±": 2368,
      "ĠÙĦÙĦØ¥": 2369,
      "ĠÙĦÙĦØ¸Ø§ÙĦÙħÙĬÙĨ": 2370,
      "ĠÙĪØªÙĦÙĥ": 2371,
      "ĠÙħÙĪÙĦØ§": 2372,
      "ĠÙħÙĪØªÙĩØ§": 2373,
      "ĠÙĬØ±Ø¬ÙĪÙĨ": 2374,
      "ĠØ¬Ø§Ø¡Ùĥ": 2375,
      "ĠØ£ØŃÙĤ": 2376,
      "ĠØ§ÙĦÙĨØ¬": 2377,
      "ĠÙĬØ£ÙħØ±": 2378,
      "ĠÙĬØ£ØªÙĬÙĨ": 2379,
      "ÙĦÙģÙĪÙĨ": 2380,
      "ĠØ±Ø³ÙĦ": 2381,
      "ĠØ±Ø³ÙĦÙĩÙħ": 2382,
      "ÙģØ§Ø¹Ø©": 2383,
      "ĠÙħØ«ÙĦÙĩ": 2384,
      "ĠØ§ÙĦØ®Ø§Ø³Ø±ÙĪÙĨ": 2385,
      "ĠÙĬØ¯ÙĬ": 2386,
      "ĠÙĬØ¯Ø®ÙĦ": 2387,
      "ĠØ§ÙĦØºÙģÙĪØ±": 2388,
      "ĠØ§Ø³ØªÙĥØ¨Ø±ÙĪØ§": 2389,
      "ĠÙģÙħÙĨÙĩÙħ": 2390,
      "ĠÙĪØ¢Ø¨": 2391,
      "ĠÙĪØ§ÙĦÙħØ¤ÙħÙĨØ§Øª": 2392,
      "ĠÙĪØ³Ø¹": 2393,
      "ĠØ£Ø³Ø£ÙĦÙĥÙħ": 2394,
      "ĠØ¹Ø¨Ø§Ø¯ÙĨØ§": 2395,
      "ĠØ£Ø¨ÙĪØ§Ø¨": 2396,
      "ĠÙĪØ¹ÙħÙĦ": 2397,
      "ĠÙħØ³ØªÙĤ": 2398,
      "ĠØ¹Ø¯ÙĨ": 2399,
      "ĠØ§ÙĨØ¸Ø±": 2400,
      "ĠØªØ´Ø§Ø¡": 2401,
      "ĠØŃÙħÙĬÙħ": 2402,
      "ĠØ§ÙĦÙħØ³ÙĦÙħÙĬÙĨ": 2403,
      "ĠÙĬÙĤÙĪÙĦÙĪØ§": 2404,
      "Ø¨Ø¦ÙĩÙħ": 2405,
      "ĠØ´Ø¯ÙĬØ¯Ø§": 2406,
      "ĠÙģØ£ÙĨÙī": 2407,
      "ĠØªÙģÙĦØŃÙĪÙĨ": 2408,
      "ĠØ£ÙħÙĪØ§ÙĦÙĥÙħ": 2409,
      "ĠÙĪÙĩÙĬ": 2410,
      "ĠÙĪØ±Ø¨Ùĥ": 2411,
      "ĠÙĪØ£ØµØŃØ§Ø¨": 2412,
      "ĠÙĪØ¬ÙĩÙĩ": 2413,
      "ĠÙĪØ®ÙĦÙĤ": 2414,
      "ĠØ³ÙĦØ·Ø§ÙĨØ§": 2415,
      "ĠØ£Ø¥Ø°Ø§": 2416,
      "ĠØªØ£ÙĥÙĦÙĪÙĨ": 2417,
      "ĠÙĪØ§ØªØ¨Ø¹ÙĪØ§": 2418,
      "ĠÙĥØ«ÙĬØ±Ø©": 2419,
      "ĠÙĪÙĬØ¹ÙĤÙĪØ¨": 2420,
      "ĠØ§ÙĦÙģØ§Ø³ÙĤÙĬÙĨ": 2421,
      "ĠØ§ÙĦØ«ÙħØ±Ø§Øª": 2422,
      "ĠØ«ÙĦØ§Ø«Ø©": 2423,
      "ĠÙģØ§ØµØ¨Ø±": 2424,
      "ĠÙĥØ£ÙĨÙĩÙħ": 2425,
      "ĠÙĨØ·ÙģØ©": 2426,
      "ĠØ³Ø¬Ø¯Ø§": 2427,
      "ØŃØ²Ø§Ø¨": 2428,
      "ĠÙħØ±Ø¬Ø¹ÙĥÙħ": 2429,
      "ĠØ§ÙĦØ¨ÙĦØ§Øº": 2430,
      "ÙĥÙĩØ©": 2431,
      "ĠÙĪØ§ÙĦØŃÙĥÙħØ©": 2432,
      "ĠÙĬÙĪÙĤÙĨÙĪÙĨ": 2433,
      "ĠØ§Ø¨ØªØºØ§Ø¡": 2434,
      "ĠØ¥Ø¨ÙĦÙĬØ³": 2435,
      "ÙĦÙĦ": 2436,
      "ÙĬØ§Ø¨": 2437,
      "Ø§ÙĦÙĥ": 2438,
      "Ø§ÙĦÙĦÙĩ": 2439,
      "Ø±Ùħ": 2440,
      "ĠØ§ÙĦØ¶": 2441,
      "ØªØ¯": 2442,
      "ØªÙĩÙĨ": 2443,
      "ØªÙĪÙĥÙĦ": 2444,
      "ĠÙħØ¯ÙĬÙĨ": 2445,
      "ĠÙħØ¬Ø±ÙħÙĬÙĨ": 2446,
      "ĠØ£Ø°ÙĨ": 2447,
      "ĠÙģÙĦÙĩ": 2448,
      "ĠÙĦØ®": 2449,
      "ĠÙĬÙģØ³": 2450,
      "ĠÙĬØ°ÙĥØ±": 2451,
      "ĠÙĬØ´Ø±Ùĥ": 2452,
      "ĠÙĬØ±Ø³ÙĦ": 2453,
      "ĠÙĬÙĩØªØ¯ÙĪÙĨ": 2454,
      "ÙĤØ¹": 2455,
      "ÙĪØ§Ø±": 2456,
      "ÙĪØ§Ø¨Ø§": 2457,
      "ĠØ¥Ø®": 2458,
      "ÙĪÙĨÙĬ": 2459,
      "ÙĪÙĨÙĥ": 2460,
      "ÙģØªÙħ": 2461,
      "ØŃØª": 2462,
      "Ø£Ø³": 2463,
      "Ø£ØªÙĪÙĨ": 2464,
      "ĠØ¹Ø§Ø¨": 2465,
      "ĠØ¹ÙĦÙħØ§": 2466,
      "ĠØªØ¹Ø¯": 2467,
      "ĠØªÙħØª": 2468,
      "ĠÙĤØ¶Ùī": 2469,
      "ĠÙģÙĬÙĥÙĪÙĨ": 2470,
      "ØµØ§ÙĦ": 2471,
      "ĠØ±Ø¯": 2472,
      "ĠØ±ÙĪØ§": 2473,
      "ĠØ±ÙĪØŃ": 2474,
      "Ø²Ø§ÙĨ": 2475,
      "Ø§ÙĨÙĩÙħ": 2476,
      "ĠÙĪØ§ÙĦØŃ": 2477,
      "ĠÙĪØ§ÙĦÙĨØ§": 2478,
      "ĠÙĪØ§ÙĦØ®": 2479,
      "ĠÙĨØ¹": 2480,
      "ĠÙĨØ¤ÙħÙĨ": 2481,
      "ĠÙĩØ§Ø¯ÙĪØ§": 2482,
      "ĠØ³ÙĪ": 2483,
      "ĠØ³ÙħØ§": 2484,
      "ĠØ³ÙĦÙĬÙħØ§ÙĨ": 2485,
      "Ø·ÙĪØ§": 2486,
      "Ø·ÙĪÙĨ": 2487,
      "Ø«ÙĬØ±": 2488,
      "Ø«Ø¨Øª": 2489,
      "ÙĪÙĦØ¬": 2490,
      "ĠÙĪØ£ÙĬØ¯": 2491,
      "ĠÙĪØ£Ø®Ø°": 2492,
      "ĠØ§ÙĦÙħØµ": 2493,
      "ĠØ§ÙĦÙħÙģØ³Ø¯ÙĬÙĨ": 2494,
      "ĠØŃÙģÙĬ": 2495,
      "ĠØŃÙĦÙĬÙħ": 2496,
      "ĠØ¬Ø§ÙĨ": 2497,
      "ĠØ®Ø´": 2498,
      "ĠØ®Ø§Ø´": 2499,
      "ĠØ§ÙĦØ£Ø¹Ø±": 2500,
      "ĠØ§ÙĦØ£ØŃØ²Ø§Ø¨": 2501,
      "ĠØ°Ø±ÙĬØ©": 2502,
      "ÙĬØ§ØŃ": 2503,
      "ÙĬØ§ÙħØ§": 2504,
      "ĠÙĪÙĬØª": 2505,
      "ĠÙĪÙĬØ¨": 2506,
      "ĠÙĪÙĬØ®": 2507,
      "ĠÙĪÙĬØºÙģØ±": 2508,
      "ĠØ§ÙĦØ±ÙĬØ§ØŃ": 2509,
      "Ø¹ÙħÙĦ": 2510,
      "Ø¹ÙħØ©": 2511,
      "ĠØ£ÙħÙĩØ§": 2512,
      "ĠØ¯Ø®ÙĦ": 2513,
      "ĠÙģØ£ØªÙĪØ§": 2514,
      "ĠÙĦÙĩÙħØ§": 2515,
      "ĠØ«ÙħÙĨØ§": 2516,
      "ÙĥØ±Ø©": 2517,
      "ÙĩØ¯ÙĪÙĨ": 2518,
      "ĠÙģØ¥ÙĨØ§": 2519,
      "ÙĬÙĨØ§ÙĩÙħ": 2520,
      "ĠØ§ÙĦÙĤØ±ÙĪÙĨ": 2521,
      "ĠØ§ÙĦÙĤØ±ÙĬØ©": 2522,
      "ĠÙĦÙĬØ¬Ø²ÙĬ": 2523,
      "ĠÙĪÙĥÙĦØ§": 2524,
      "ĠØ§ÙĦÙĥØ§Ø°Ø¨ÙĬÙĨ": 2525,
      "ÙĪØ±Ø«": 2526,
      "ĠØºØ¶Ø¨": 2527,
      "ØªÙĬÙĩ": 2528,
      "ĠÙĪØ¬Ø§ÙĩØ¯ÙĪØ§": 2529,
      "Ø¨Ø±ÙĬÙĨ": 2530,
      "ĠØ§ÙĦØµÙĪØ±": 2531,
      "ĠØ§ÙĦØµØ§Ø¨Ø±ÙĬÙĨ": 2532,
      "ĠÙģØ¥ÙĨÙĩÙħ": 2533,
      "ĠÙĬØªÙĪÙĦ": 2534,
      "ĠÙĬÙĨØ¨": 2535,
      "ĠÙĪØªØ±Ùĥ": 2536,
      "ĠÙĬØ±Ø²ÙĤ": 2537,
      "ĠØ¬Ø§Ø¡Øª": 2538,
      "ØŃÙħØªÙĩ": 2539,
      "Ø³Ø±Ø©": 2540,
      "Ø³Ø±ÙģÙĬÙĨ": 2541,
      "ĠØ§ÙĦÙĨÙĪØ±": 2542,
      "ĠØ§ÙĦÙĨØ¹ÙĬÙħ": 2543,
      "ĠÙĪØ£ÙĨÙģØ³ÙĩÙħ": 2544,
      "ÙĪØ¯Ùĩ": 2545,
      "ĠÙħÙĨÙĩÙħØ§": 2546,
      "ĠÙģØªÙĥÙĪÙĨ": 2547,
      "ĠØ¶Ø¹Ùģ": 2548,
      "Ø§Ø·ÙĬØ±": 2549,
      "ĠÙĬØ¹Ø¨Ø¯ÙĪÙĨ": 2550,
      "ĠØªØŃØ³Ø¨": 2551,
      "ØµØ±ÙĪØ§": 2552,
      "ĠØ§ÙĦØ®Ø§ÙĦ": 2553,
      "ĠØ¢ÙĬØ§ØªÙĬ": 2554,
      "ĠÙĬØ¯Ø¹": 2555,
      "ĠØ§ÙĦØ¸ÙĨ": 2556,
      "ĠÙĬØ®ØªÙĦÙģÙĪÙĨ": 2557,
      "ĠØ§ÙĦØºÙĬ": 2558,
      "ĠØªØ¹Ø¨Ø¯": 2559,
      "ĠØ§ÙĦØ¨Ø§Ø·ÙĦ": 2560,
      "ĠØªÙĨØ²ÙĬÙĦ": 2561,
      "ĠØ£ÙħØ±Ùĩ": 2562,
      "ĠØ£Ø±Ø³ÙĦ": 2563,
      "ĠØ£Ø®ÙĬÙĩ": 2564,
      "ĠÙĬÙĪØ¹Ø¯ÙĪÙĨ": 2565,
      "ÙĪØ¬Ø§": 2566,
      "Ø·ÙĬØ¹": 2567,
      "Ø±Ø¢ÙĨØ§": 2568,
      "ĠØµØ¯ÙĪØ±ÙĩÙħ": 2569,
      "ĠÙĬÙĤØ§ØªÙĦÙĪÙĨ": 2570,
      "ĠØ§ÙĦØ·ÙĬØ±": 2571,
      "ĠØ§ÙĦØ·ÙĬØ¨Ø§Øª": 2572,
      "ĠØ£ÙĬØ¯ÙĬÙĥÙħ": 2573,
      "ĠØ§ÙĦÙħØ³ÙĬØŃ": 2574,
      "ĠÙĬØ¨Ø³Ø·": 2575,
      "ĠÙĪØ²Ø±": 2576,
      "ĠÙĪØ²ÙĬÙĨ": 2577,
      "ĠØ£ÙĤØ±Ø¨": 2578,
      "Ø¨Ø¦Ø³": 2579,
      "ĠØ±Ø²ÙĤÙĨØ§ÙĩÙħ": 2580,
      "ĠØ¢Ø¨Ø§Ø¡ÙĨØ§": 2581,
      "ĠÙģØ§ÙĦØ°ÙĬÙĨ": 2582,
      "ĠÙĥØ±Ùĩ": 2583,
      "ĠØ±Ø£ÙĪØ§": 2584,
      "ĠØ§ÙĦØŃÙħÙĬØ¯": 2585,
      "ĠØªÙĥØ°Ø¨ÙĪÙĨ": 2586,
      "ĠØ§ÙĦÙħÙĨÙĥØ±": 2587,
      "ĠÙĪØ±Ø¨ÙĥÙħ": 2588,
      "ĠÙĪØ¨ÙĬÙĨÙĥÙħ": 2589,
      "ĠØ¯ÙĬÙĨÙĩÙħ": 2590,
      "ĠØ¯ÙĬÙĨÙĥÙħ": 2591,
      "ĠÙħØµÙĬØ¨Ø©": 2592,
      "ĠØ§ÙĦØ£ÙħØ«Ø§ÙĦ": 2593,
      "ĠÙģØ±ÙĬÙĤØ§": 2594,
      "ĠÙĪØ§ÙĦØ´ÙĩØ§Ø¯Ø©": 2595,
      "ĠÙģØ£Ø®Ø°ØªÙĩÙħ": 2596,
      "ĠØŃÙĥÙħØ§": 2597,
      "ĠØ¨Ø£Ø³ÙĨØ§": 2598,
      "ĠÙĬØ¹ÙħÙĦ": 2599,
      "ĠØªØ§Ø¨ÙĪØ§": 2600,
      "ĠÙĬØ¬Ø¯ÙĪÙĨ": 2601,
      "ĠØ§Ø«ÙĨÙĬÙĨ": 2602,
      "ĠÙĦÙĨÙģØ³Ùĩ": 2603,
      "ĠÙĬÙħÙĦÙĥÙĪÙĨ": 2604,
      "Ø§Ø¬Ø¯ÙĬÙĨ": 2605,
      "ĠØ±Ø¡ÙĪØ³": 2606,
      "ĠÙĪÙĥØ°Ø¨ÙĪØ§": 2607,
      "ĠÙĬØªÙģÙĥØ±ÙĪÙĨ": 2608,
      "ĠØŃÙĨÙĬÙģØ§": 2609,
      "ĠØ§ÙĦØ£Ø¹Ø±Ø§Ø¨": 2610,
      "Ø§Ø¹": 2611,
      "Ø§ÙĪØ±": 2612,
      "Ø§ØŃØ±": 2613,
      "Ø§ÙĥØ±ÙĬÙĨ": 2614,
      "ÙĦØ¤": 2615,
      "ÙĦÙĪØ¨": 2616,
      "ÙĨÙĩØ§": 2617,
      "ÙħØ¹Ø§": 2618,
      "ÙĪØ£": 2619,
      "ÙĪØ¹Ø§": 2620,
      "Ø§ÙĦÙĪÙĨ": 2621,
      "ĠØ§ÙĦØ±Ø§": 2622,
      "ĠØ§ÙĦØ¶ÙĦ": 2623,
      "ĠØ§ÙĦØ¶Ø±": 2624,
      "ĠÙĪÙĥÙħ": 2625,
      "Ø¨ØªÙħ": 2626,
      "ĠÙħÙĩ": 2627,
      "ĠÙħØ¢": 2628,
      "ĠÙħØªÙī": 2629,
      "ĠÙħÙĥØ§": 2630,
      "ĠÙħÙĦØ©": 2631,
      "ĠÙħÙĤØ§Ùħ": 2632,
      "Ø¹ÙĬØ±": 2633,
      "ĠØ£Ø¦": 2634,
      "ĠØ£Ø¨ÙĬ": 2635,
      "ĠØ£ÙĤÙĪÙĦ": 2636,
      "ĠØ£ÙĥÙĪÙĨ": 2637,
      "ĠØ£Ø¨Øª": 2638,
      "ĠØ£Ø±Ø¬": 2639,
      "Ø¯Ø¨Ø§Ø±": 2640,
      "ĠÙģÙħ": 2641,
      "ĠÙģØ·Ø±": 2642,
      "ĠÙģÙĪÙĬÙĦ": 2643,
      "ĠÙĦØ´": 2644,
      "ĠÙĦØ¨Ø¹Ø¶": 2645,
      "ĠÙĬØ³ÙħØ¹": 2646,
      "ÙĤÙĬ": 2647,
      "ÙĤØ°": 2648,
      "ÙĤØ§ÙĨ": 2649,
      "ÙĤØ¨ÙĦ": 2650,
      "Ø°ÙĬØ±Ø§": 2651,
      "ĠØ¨Ø§": 2652,
      "ĠØ¨ÙĨØ§": 2653,
      "ĠØ¥Ø®ÙĪØ§": 2654,
      "ÙģÙĦ": 2655,
      "ÙģÙģ": 2656,
      "ÙģØ¸": 2657,
      "ØŃÙĬØ§": 2658,
      "ØŃØ³Ø¨": 2659,
      "ĠØ¹Ø±Ø¨": 2660,
      "ÙĨØ§Ùĥ": 2661,
      "ÙĦØ§Ø¦": 2662,
      "ĠØªÙģØ±": 2663,
      "ĠØªÙĪÙģ": 2664,
      "ĠØªØ°ÙĥØ±": 2665,
      "ĠØªÙĪÙĦÙī": 2666,
      "ĠØªØ¤ÙħÙĨÙĪØ§": 2667,
      "ĠÙĥØ³": 2668,
      "ĠÙĥÙħÙĨ": 2669,
      "ĠÙĥÙĪÙĨÙĪØ§": 2670,
      "ĠÙĤØ±Ø¢ÙĨØ§": 2671,
      "ÙĦÙĬØ©": 2672,
      "ÙĦÙĬÙĩØ§": 2673,
      "ĠÙģÙĬÙĩÙĨ": 2674,
      "ØµÙĪØ§": 2675,
      "ØµÙĦØ§": 2676,
      "ØµØ©": 2677,
      "ĠØ±Ø´": 2678,
      "ĠØ±ÙĬØŃ": 2679,
      "ĠØ±Ø¶ÙĪØ§": 2680,
      "Ø²Ùħ": 2681,
      "Ø²Ø¨": 2682,
      "ĠÙĪØ§ÙĦÙħÙĬ": 2683,
      "ĠÙĪØ§ÙĦØ±Ø³ÙĪÙĦ": 2684,
      "ĠÙĨÙħ": 2685,
      "ĠÙĨØ±": 2686,
      "ĠÙĨØ¤": 2687,
      "ĠÙĨØ¨ÙĬ": 2688,
      "ĠÙĨÙĪØ±Ø§": 2689,
      "ĠÙĨØµÙĬØ±": 2690,
      "ÙĦÙħÙĪÙĨ": 2691,
      "ĠØ³ÙĨÙĬÙĨ": 2692,
      "ĠØ³Ø±ÙĬØ¹": 2693,
      "Ø«ÙĦÙĩ": 2694,
      "ĠÙĪØ£Ø¹Øª": 2695,
      "ĠØ§ÙĦÙħÙĨØ§": 2696,
      "ĠØŃØ§Ø¬": 2697,
      "ØªÙħØ¹ÙĪÙĨ": 2698,
      "ØªÙħÙĪÙĩ": 2699,
      "ØªÙħÙĪÙĩÙĨ": 2700,
      "ĠØ®Ø§Ùģ": 2701,
      "ĠØ§ÙĦØ£Ø¨ØµØ§Ø±": 2702,
      "ĠÙĪØ¥ÙĬØ§": 2703,
      "ĠÙĪØ¥Ø³ØŃØ§ÙĤ": 2704,
      "ĠÙĪØ¥Ø³ÙħØ§Ø¹ÙĬÙĦ": 2705,
      "Ø¸Ùħ": 2706,
      "Ø±Ø¶Ø§": 2707,
      "Ø±Ø¶Ùī": 2708,
      "ĠØ¨Ø§ÙĦØµ": 2709,
      "Ø¹ÙĦÙĨÙĪÙĨ": 2710,
      "ĠØ£ÙĪØŃÙĬ": 2711,
      "ĠÙĪÙĬÙĤØ¯Ø±": 2712,
      "Ø¹Ø¯ÙĩÙħ": 2713,
      "Ø§Ø¯Ø±": 2714,
      "Ø¹ÙħÙĦÙĪØ§": 2715,
      "ĠÙĤÙĦØªÙħ": 2716,
      "ĠØ£ÙħÙħ": 2717,
      "ĠØ§ÙĦØŃØ¬": 2718,
      "ĠØ¯Ø§Ø±": 2719,
      "ĠØ¯Ø¹Ø§": 2720,
      "ĠØ¯Ø®ÙĦÙĪØ§": 2721,
      "ĠÙĪÙħÙĨÙĩØ§": 2722,
      "ĠØµÙĦØ§": 2723,
      "ĠØ§ÙĦÙĤØ§": 2724,
      "ĠØ§ÙĤØª": 2725,
      "ĠØ§Ø¬Ø¹ÙĦ": 2726,
      "ĠØ§Ø°ÙĥØ±ÙĪØ§": 2727,
      "Ø±ÙĬÙĥ": 2728,
      "Ø¨Ø¹ÙĪ": 2729,
      "ĠÙģØ¥ÙĨÙĥ": 2730,
      "ĠÙĬØªØ¨Ø¹ÙĪÙĨ": 2731,
      "ĠÙĦÙĦØ±ØŃÙħÙĨ": 2732,
      "ĠØ¹Ø°Ø§Ø¨ÙĬ": 2733,
      "ĠÙĬØ´ÙĥØ±ÙĪÙĨ": 2734,
      "ĠÙĤÙĪÙħÙĥ": 2735,
      "ĠØ¹ÙĨØ¯Ùĥ": 2736,
      "ĠØ£ØŃØµ": 2737,
      "ĠØªØ±Ø§Ø¨Ø§": 2738,
      "ĠØ¸Ø§ÙĦÙħÙĬÙĨ": 2739,
      "ĠØ¸ÙĩØ±": 2740,
      "ĠØ·ÙĦÙĤ": 2741,
      "ĠØ·ÙĬØ¨Ø©": 2742,
      "ØªÙĩÙĪØ§": 2743,
      "ØªÙĩÙħØ§": 2744,
      "Ø§ÙģÙĦ": 2745,
      "ĠØ¶Ø±": 2746,
      "ĠØ¶Ø±Ø§": 2747,
      "ĠØ¶ÙĦÙĪØ§": 2748,
      "ĠÙĦÙĥØ§Ø°Ø¨ÙĪÙĨ": 2749,
      "ĠÙĬÙĥØ§Ø¯": 2750,
      "ĠÙĬÙĥØ°Ø¨": 2751,
      "ĠÙĬØ¹Ø°Ø¨": 2752,
      "ĠÙĬØ¹Ø¨Ø¯": 2753,
      "ĠØ£Ø¬Ø±ÙĬ": 2754,
      "ĠÙħØ«ÙĪÙī": 2755,
      "ĠØ¨Ø¹Ø¶Ø§": 2756,
      "ĠÙĪØ±ÙģØ¹": 2757,
      "ĠÙĪØ¨ÙĨØ§Øª": 2758,
      "Ø§ÙĤØ©": 2759,
      "ĠÙĬØ³ÙĬØ±": 2760,
      "ĠÙĬØ³Ø£ÙĦÙĪÙĨÙĥ": 2761,
      "ĠÙĦØ£ÙĪÙĦÙĬ": 2762,
      "ĠÙĦØ£Ø¨ÙĬÙĩ": 2763,
      "ĠØ§ÙĦØºØ§ÙĦ": 2764,
      "ĠØ§ÙĦØºØ±": 2765,
      "ĠØ§Ø³ØªØ·Ø¹": 2766,
      "ĠØ§Ø³ØªÙĪÙī": 2767,
      "ĠÙĨÙģØ³ÙĬ": 2768,
      "ĠÙĨÙģØ³Ùĥ": 2769,
      "ĠØ£ÙĨØ²ÙĦØª": 2770,
      "ĠØªØ¬Ø²ÙĪÙĨ": 2771,
      "ĠØ§Ø¶": 2772,
      "ĠØ£Ø¹Ø±Ø¶": 2773,
      "ĠØªÙĨÙĥ": 2774,
      "ĠØ¨ØºØ§ÙģÙĦ": 2775,
      "ĠØ£Ø³Ø§Ø·ÙĬØ±": 2776,
      "ĠÙĦÙĦÙħÙĦØ§Ø¦ÙĥØ©": 2777,
      "ĠÙĬÙģÙĦØŃ": 2778,
      "ÙĩØªØ¯ÙĬÙĨ": 2779,
      "ĠØ£ØªØ¨Ø¹": 2780,
      "ĠØ£Ø±Ø£ÙĬØª": 2781,
      "ĠÙħØªÙĥ": 2782,
      "ĠØªÙĥÙĪÙĨÙĨ": 2783,
      "ĠØ£Ø¯ÙĨÙī": 2784,
      "ĠÙģØ¶ÙĦØ§": 2785,
      "Ø¶ÙĬØ¹": 2786,
      "ĠÙĤØ±ÙĬØ¨Ø§": 2787,
      "ĠÙģÙĦÙĬØªÙĪÙĥÙĦ": 2788,
      "Ø³Ø§ÙĨØ§": 2789,
      "ĠØªÙģØ¹ÙĦÙĪØ§": 2790,
      "ĠÙĥØ§ÙĦØ°ÙĬÙĨ": 2791,
      "ĠØ§ÙĦÙĨØ¨ÙĬÙĬÙĨ": 2792,
      "ĠØ£Ø¹ÙħØ§ÙĦÙĥÙħ": 2793,
      "ĠØªØ¨ØµØ±ÙĪÙĨ": 2794,
      "ĠÙĨÙģØ¹Ø§": 2795,
      "Ø§Ø®Ø°": 2796,
      "ĠØ³Ø¨ØŃØ§ÙĨÙĥ": 2797,
      "ĠØ¨Ø¥Ø°ÙĨÙĩ": 2798,
      "ĠØ¨Ø±Ø¨ÙĩÙħ": 2799,
      "ĠÙĪØ§ÙĦØ³ÙħØ§Ø¡": 2800,
      "ĠÙĪØ§ÙĦØ´ÙħØ³": 2801,
      "Ø¸Ø§ÙħØ§": 2802,
      "ĠÙģØ£Ø®Ø°ÙĩÙħ": 2803,
      "ĠØ£Ø¥ÙĨØ§": 2804,
      "ĠØ¨Ø·ÙĪÙĨ": 2805,
      "ĠÙħØ³ÙĦÙħÙĬÙĨ": 2806,
      "ĠØ£ØºÙĨÙī": 2807,
      "ĠÙĪØ§ÙĦØ¨ØŃØ±": 2808,
      "ĠÙĪØ§ÙĦØ¥ÙĨØ³": 2809,
      "ĠÙħØ®ØªÙĦÙģ": 2810,
      "ĠÙĪØ¢ØªÙĬÙĨØ§Ùĩ": 2811,
      "ĠØ§ÙĦÙĪØ¹Ø¯": 2812,
      "ĠØ§ÙĦÙģØ§Ø³ÙĤÙĪÙĨ": 2813,
      "ĠÙĪÙĬÙħÙĬØª": 2814,
      "ĠØ¨Ø§ÙĦØ¨Ø§Ø·ÙĦ": 2815,
      "Ø§ÙģØ¸ÙĪÙĨ": 2816,
      "Ø¬ÙĬØ¨ÙĪØ§": 2817,
      "ĠÙģØ£ØµØ¨ØŃÙĪØ§": 2818,
      "ĠÙĪØ§ÙĦÙħØ³Ø§ÙĥÙĬÙĨ": 2819,
      "ĠÙĩÙĨØ§ÙĦÙĥ": 2820,
      "ĠØ§ÙĦØ£Ø¹ÙĦÙī": 2821,
      "ĠØ¯ÙĬØ§Ø±ÙĩÙħ": 2822,
      "ĠÙĬØ¯Ø®ÙĦÙĪÙĨ": 2823,
      "ĠØ£Ø¨ØµØ§Ø±ÙĩÙħ": 2824,
      "ĠØ¨Ø±ÙĬØ¡": 2825,
      "ĠÙĪÙĦØ¹ÙĦÙĥÙħ": 2826,
      "ĠØ¨ÙĬÙĪØªØ§": 2827,
      "ĠØ§Ø®ØªÙĦÙģÙĪØ§": 2828,
      "ĠÙħØ¹ÙĦÙĪÙħ": 2829,
      "ĠØ±ÙĪØ§Ø³ÙĬ": 2830,
      "ĠÙħÙĥØ§ÙĨØ§": 2831,
      "ÙĦØ¦": 2832,
      "ÙĪÙħØ§": 2833,
      "Ø§ÙĦØ§Øª": 2834,
      "Ø±Ø§Øª": 2835,
      "Ø±Ø§Ø¦": 2836,
      "ĠØ§ÙĦÙĬÙħ": 2837,
      "ĠØ§ÙĦØ¹Ùħ": 2838,
      "ĠÙĪØ¯": 2839,
      "ĠÙĪØº": 2840,
      "ĠÙĪØ¹ÙĦÙħ": 2841,
      "ĠÙĪØ¨Ø±": 2842,
      "ĠÙĪÙĪÙĩ": 2843,
      "ĠÙĪØ¶ÙĦ": 2844,
      "ĠÙĪØºØ±": 2845,
      "ØªØ§ÙĨ": 2846,
      "ĠÙħÙħ": 2847,
      "ĠÙħÙĤÙĬÙħ": 2848,
      "Ø¹ÙĦÙĩ": 2849,
      "ĠØ£Ø·": 2850,
      "ĠØ£Ø¨ÙĦØº": 2851,
      "Ø¯Ø±": 2852,
      "Ø³ÙĦØ§Ùħ": 2853,
      "ĠÙģØ·": 2854,
      "ĠÙģØ®Ø°": 2855,
      "ĠÙģØ§Ø·": 2856,
      "ĠÙĦØµ": 2857,
      "ĠÙĦØ°ÙĪ": 2858,
      "ĠÙĬÙĪÙģ": 2859,
      "ĠÙĬÙĦØ¨": 2860,
      "ĠÙĬØ¨ÙĦØº": 2861,
      "ÙĤÙĩ": 2862,
      "ĠØ¨ÙĬØª": 2863,
      "ĠØ¨Ø¦Ø³": 2864,
      "ÙģÙĩ": 2865,
      "ÙģØ¦": 2866,
      "ØŃÙĬÙĨ": 2867,
      "Ø£ÙĦÙĪØ§": 2868,
      "Ø£Ø®Ø°": 2869,
      "ÙħØ§Ùħ": 2870,
      "ĠØªÙħÙĨ": 2871,
      "ĠØªØ¨Ø±": 2872,
      "ĠØªÙĪØ¨": 2873,
      "ĠØªØ§ÙĦÙĦÙĩ": 2874,
      "Ø¬Ø§Ø¨": 2875,
      "ĠÙĥØ¨Ø±": 2876,
      "ĠÙĥØ§ÙģØ±ÙĬÙĨ": 2877,
      "ĠÙĤØ¶ÙĬ": 2878,
      "ÙĦÙĬÙĩÙħ": 2879,
      "ÙĦÙĬØªÙħ": 2880,
      "ĠÙģÙĬÙĩÙħØ§": 2881,
      "ĠØ±Ùĥ": 2882,
      "ÙĩØ§Ø±Ø§": 2883,
      "ÙĩØ§Ø¬Ø±": 2884,
      "Ø¶Ø±ÙĪÙĨ": 2885,
      "ĠØ£ÙĨØµØ§Ø±": 2886,
      "ĠØ£ÙĨØ«Ùī": 2887,
      "ĠØ£ÙĨØ¨Ø§Ø¡": 2888,
      "ĠÙĪØ§ÙĦØ¹": 2889,
      "ĠÙĪØ§ÙĦÙģ": 2890,
      "ĠÙĨÙĨ": 2891,
      "ĠÙĨØŃ": 2892,
      "ĠÙĨÙĤÙĪÙĦ": 2893,
      "ĠÙĨÙĤØµ": 2894,
      "Ø§Ø¨Ùĩ": 2895,
      "ĠÙĩØ¯": 2896,
      "ĠØ³ÙħÙĬ": 2897,
      "ĠØ³Ø§Ø¹Ø©": 2898,
      "Ø«ÙĬ": 2899,
      "ĠØ¢Ø«": 2900,
      "ĠÙĪØ£ØŃ": 2901,
      "ĠÙĪØ£Ø®Ø±": 2902,
      "ĠÙĪØ£ØŃØ³ÙĨ": 2903,
      "ĠÙĪØ£Ø²ÙĪØ§Ø¬": 2904,
      "ĠÙĪØ£ÙĤØ§ÙħÙĪØ§": 2905,
      "ĠØ§ÙĦÙħØ´Ø±": 2906,
      "ĠØ§ÙĦÙħÙĤØ±Ø¨": 2907,
      "ĠØ§ÙĦÙħØ®ÙĦØµÙĬÙĨ": 2908,
      "ĠØŃÙĪÙĦÙĩ": 2909,
      "ØºÙĪ": 2910,
      "ØªÙħÙĪÙĩÙħ": 2911,
      "ĠØ¬Ø¯ÙĬØ¯": 2912,
      "ĠØ®ÙĦØ§ÙĦ": 2913,
      "ĠØ®Ø³Ø±ÙĪØ§": 2914,
      "Ø±Ø§Ø±": 2915,
      "ĠØ¨Ø§ÙĦØ³": 2916,
      "ĠØ¨Ø§ÙĦØ¹Ø¯": 2917,
      "ĠØ¨Ø§ÙĦØŃØ³ÙĨ": 2918,
      "ĠØ¹ÙĨÙĥ": 2919,
      "ÙĬØ§ÙĨØ§": 2920,
      "ĠØ£ÙĪÙĦÙī": 2921,
      "ĠØ§ÙĦØ³Ø¹ÙĬØ±": 2922,
      "ĠÙĪÙĬØµ": 2923,
      "ĠØ§ÙĦØ±ÙĬØŃ": 2924,
      "Ø¹ÙħÙĪÙĨ": 2925,
      "Ø§Ø±Ø¹ÙĪÙĨ": 2926,
      "ĠØ£ÙħØ±ÙĬ": 2927,
      "ĠØ£ÙħØ«Ø§ÙĦ": 2928,
      "ĠÙģØ£Øª": 2929,
      "ĠÙģØ£ØªØ¨Ø¹": 2930,
      "ĠØ§ÙĦØ¹Ø²Ø©": 2931,
      "ĠÙĪÙĤÙĪÙĦÙĪØ§": 2932,
      "ĠØµØ¨Ø±Ø§": 2933,
      "ĠØµØ§ØŃ": 2934,
      "ĠØ§ÙĦÙĤØªØ§ÙĦ": 2935,
      "ĠÙĦÙĬÙĤ": 2936,
      "ĠÙĦÙĬÙĪÙħ": 2937,
      "ĠÙĦÙĬÙĦØ©": 2938,
      "ĠÙĦÙĬØªÙĨÙĬ": 2939,
      "ĠÙĪÙĥÙĨØªÙħ": 2940,
      "ĠØ§ÙĦÙĥØ¨ÙĬØ±": 2941,
      "ĠØ¢ÙħÙĨØªÙħ": 2942,
      "ĠØºÙĦÙĬ": 2943,
      "Ø§Ø¦ÙĬ": 2944,
      "ÙĩÙĪÙī": 2945,
      "ĠØ¨Ø¹ÙĩØ¯": 2946,
      "ĠÙĬØªØ¨Ø¹": 2947,
      "ĠØ¹ÙĦÙĬÙĩÙħØ§": 2948,
      "ĠÙĪØªØªÙĤÙĪØ§": 2949,
      "ØŃÙħÙĪÙĨ": 2950,
      "ÙĪÙģÙĪØ§": 2951,
      "ĠÙĬØ´Ø£": 2952,
      "ĠØ£ØŃÙĦ": 2953,
      "ĠØªØ±ØŃÙħÙĪÙĨ": 2954,
      "ĠØ¸Ø§ÙĦ": 2955,
      "ĠØ¸ÙĦÙħØ§Øª": 2956,
      "ĠÙĪÙĨØ°Ø±": 2957,
      "ĠÙĪÙĨØ°ÙĬØ±Ø§": 2958,
      "ĠÙĪØ£ÙĨÙģÙĤÙĪØ§": 2959,
      "ĠØ·ÙĬÙĨ": 2960,
      "ĠØ·ÙĬØ¨Ø§Øª": 2961,
      "ĠØ§ÙĦØ¬ÙħØ¹": 2962,
      "ÙĪØ¯Ø©": 2963,
      "ĠØ¨Ø£ÙĬØ¯": 2964,
      "ĠØ¨Ø£ÙģÙĪØ§": 2965,
      "ĠØ±Ø³ÙĦØ§": 2966,
      "ĠÙĪØ¹ÙĬÙĪÙĨ": 2967,
      "ĠØªØŃØ¨ÙĪÙĨ": 2968,
      "ĠØªØŃØ´Ø±ÙĪÙĨ": 2969,
      "Ø°Ø±ÙĥÙħ": 2970,
      "ÙģØªÙĨØ©": 2971,
      "ĠØ²Ø¹Ùħ": 2972,
      "ĠÙħØ«ÙĤØ§ÙĦ": 2973,
      "ĠÙĪÙĦÙĥÙĦ": 2974,
      "ĠØ§ÙĦØ®ÙĦ": 2975,
      "ĠØ§ÙĦØ®Ø¨ÙĬØ«": 2976,
      "ĠÙĬØ¯Ø¹ÙĪ": 2977,
      "ĠÙĬØ®Ø§Ùģ": 2978,
      "ĠÙĬØ®Ø§ÙģÙĪÙĨ": 2979,
      "ÙĨØªÙĬÙĨ": 2980,
      "ĠÙĬØ³Ø¬Ø¯": 2981,
      "ØºÙģØ±ÙĪØ§": 2982,
      "ĠØ§ÙĦØºÙĨÙĬ": 2983,
      "ĠÙĦÙĤØ§Ø¡": 2984,
      "ĠÙĦÙĤØ¶ÙĬ": 2985,
      "ĠÙĦØªØ³": 2986,
      "ÙĪÙĥÙĦÙĪÙĨ": 2987,
      "ĠØªØ¬Ø¹ÙĦ": 2988,
      "ÙĦØ¨ÙĪØ§": 2989,
      "ÙĩØ±ÙĪØ§": 2990,
      "ĠØ¹ÙĦÙħØª": 2991,
      "ĠØ£Ø¹ÙĨØ§": 2992,
      "ĠØªÙĨØ²ÙĦ": 2993,
      "ĠØªÙĨÙģÙĤÙĪØ§": 2994,
      "ĠØ§ÙĦØ¥Ø«Ùħ": 2995,
      "Ø¨ØªÙĨØ§": 2996,
      "Ø¨ØªØºÙĪØ§": 2997,
      "ĠØ¨ØºÙĬØ§": 2998,
      "ĠØ£Ø®Ø§ÙĩÙħ": 2999,
      "ĠÙģØ³ÙĬ": 3000,
      "ØªØ¨ÙĪÙĨ": 3001,
      "ĠØ±Ø¬Ø§ÙĦ": 3002,
      "ĠØ±Ø¬ÙĦØ§": 3003,
      "ĠØ±Ø¬Ø§ÙĦØ§": 3004,
      "ĠØ¹ÙħÙĦØ§": 3005,
      "ÙĦØ§ÙĦØ§": 3006,
      "ĠØ°ÙĥØ±ÙĪØ§": 3007,
      "ĠØªØ¯Ø¹": 3008,
      "ĠØ£Ø±ÙĬØ¯": 3009,
      "ĠÙĬØµÙĦÙĪÙĨ": 3010,
      "Ø¹Ø¨Ø¯ÙĪÙĨ": 3011,
      "ÙĪÙĬÙĦÙĩ": 3012,
      "ĠÙĪØ§Ø²": 3013,
      "ĠØŃÙħÙĦ": 3014,
      "ĠÙĬØ£ØªÙĬÙĥÙħ": 3015,
      "ĠÙĨØµÙĬØ¨Ø§": 3016,
      "ĠÙĨØ¹ÙħØª": 3017,
      "ÙĥÙĨÙĪØ§": 3018,
      "ĠØ¨Ø±ÙĩØ§": 3019,
      "Ø¬Ø¹ÙĦÙĩ": 3020,
      "ĠØ±Ø²ÙĤÙĥÙħ": 3021,
      "ĠÙģØ§ÙĦÙĬÙĪÙħ": 3022,
      "ĠØ§ÙĦØªÙĤ": 3023,
      "Ø§ØºÙĪØª": 3024,
      "ĠÙĨØ¨ÙĬØ§": 3025,
      "ĠÙĪØ¬Ø¹ÙĦÙĪØ§": 3026,
      "ĠÙģØ§ØªØ¨Ø¹": 3027,
      "ĠØ§Ø¯Ø¹": 3028,
      "ĠØ§Ø¯Ø¹ÙĪØ§": 3029,
      "ØºØ±ÙĤÙĨØ§": 3030,
      "ĠÙĬØ¶Ø±Ø¨": 3031,
      "ĠØ¨Ø³ÙĦØ·Ø§ÙĨ": 3032,
      "ĠØ°ÙĪÙĤÙĪØ§": 3033,
      "ĠØ®ÙĦÙĤÙĨØ§ÙĥÙħ": 3034,
      "ÙĤÙĦØ¨ÙĪØ§": 3035,
      "ĠØ´ÙĥÙĪØ±": 3036,
      "ĠØªØ£ÙĥÙĦÙĪØ§": 3037,
      "ĠÙĪØ§ÙĦØ¥ÙĨØ¬ÙĬÙĦ": 3038,
      "ĠÙĦØºÙģÙĪØ±": 3039,
      "ĠØªÙĪÙĦÙĬØªÙħ": 3040,
      "ĠÙĪØ§Ø¨ÙĨ": 3041,
      "ĠÙĪØ§Ø³Ø¹": 3042,
      "ĠØ£ÙĦÙĤÙĪØ§": 3043,
      "ĠÙĤÙĪÙĦÙĩÙħ": 3044,
      "ĠØ¯Ø¹Ø§Ø¡": 3045,
      "ĠÙĬØ¨Ø¹Ø«ÙĪÙĨ": 3046,
      "ĠØ¢ØªØ§ÙĩÙħ": 3047,
      "ĠØ§ÙĦÙĬÙĩÙĪØ¯": 3048,
      "ĠØ¢Ø®Ø±ÙĬÙĨ": 3049,
      "ĠÙĪØ£ÙĩÙĦÙĩ": 3050,
      "ĠØ§ÙĦØ®ÙĬØ±Ø§Øª": 3051,
      "ĠØªØªØ¨Ø¹ÙĪØ§": 3052,
      "ĠÙĪÙĩØ§Ø±ÙĪÙĨ": 3053,
      "Ø§ØªÙĦÙĪÙĥÙħ": 3054,
      "ĠÙģÙĥØ°Ø¨ÙĪÙĩ": 3055,
      "ĠÙĪØ£ÙĥØ«Ø±": 3056,
      "ĠÙĪØ§ÙĦÙĥØªØ§Ø¨": 3057,
      "ĠÙĦØ¨Ø«ØªÙħ": 3058,
      "ĠØ§ÙĦØ³ØŃØ±Ø©": 3059,
      "ĠØ§ÙĦÙĦØ§ØªÙĬ": 3060,
      "ĠØ¥ÙĬØ§Ùĩ": 3061,
      "ĠØ¨Ø£ÙħÙĪØ§ÙĦÙĩÙħ": 3062,
      "ĠÙħØ§Ø¦Ø©": 3063,
      "ĠÙĪØ£ÙĪØŃÙĬÙĨØ§": 3064,
      "ĠØ¹Ø±Ø¨ÙĬØ§": 3065,
      "ĠÙĪÙĪÙĩØ¨ÙĨØ§": 3066,
      "ĠØ¨Ø£ÙģÙĪØ§Ùĩ": 3067,
      "Ø§Ø¹Ùģ": 3068,
      "ÙħØ¹ÙĪÙĨ": 3069,
      "ÙĬÙħÙĨ": 3070,
      "ÙĬÙĩØ§": 3071,
      "ÙĬÙĤØ§Øª": 3072,
      "ÙĪØ´": 3073,
      "ÙĪØ¯Ø§": 3074,
      "ÙĪØ³Ùī": 3075,
      "ÙĩÙĤ": 3076,
      "ÙĩÙī": 3077,
      "ÙĩØ¨Ø·": 3078,
      "ĠØ§ÙĦÙģØ³": 3079,
      "ĠØ§ÙĦØªÙĪØ§": 3080,
      "ĠÙĪØ¢Ø®Ø±": 3081,
      "ĠÙĪØŃØ±": 3082,
      "ÙĥØªØ¨": 3083,
      "Ø¨Ø°": 3084,
      "Ø¨Ø«": 3085,
      "Ø¨ÙĨÙĬ": 3086,
      "Ø¨ÙĪØ±Ø§": 3087,
      "ĠÙħØ·": 3088,
      "ĠÙħØ¹Ø¯": 3089,
      "ĠÙħØ±Ø³": 3090,
      "ĠÙħÙĤØ§": 3091,
      "ĠÙħÙĩÙĦÙĥ": 3092,
      "ĠÙħØ§ÙĦØ§": 3093,
      "ĠÙħØ¨Ø§Ø±Ùĥ": 3094,
      "ĠÙħØ®ÙĦØµÙĬÙĨ": 3095,
      "Ø¹Ø¨": 3096,
      "Ø¹Ø§Ø¡": 3097,
      "ĠØ£Ø²": 3098,
      "ĠØ£ÙĦÙĪØ§": 3099,
      "Ø¯Ø§Ø¯Ø§": 3100,
      "Ø³Ùĩ": 3101,
      "Ø³ÙĤ": 3102,
      "Ø³ÙĩÙħ": 3103,
      "ĠÙģÙĨØ§": 3104,
      "ĠÙģØ²": 3105,
      "ĠÙģØ±Ø¶": 3106,
      "ĠÙģØ§Øº": 3107,
      "ĠÙģØ¦Ø©": 3108,
      "ĠÙĦÙĪØ§": 3109,
      "ĠÙĦÙĬØ±": 3110,
      "ĠÙĦØ¨Ø§": 3111,
      "ĠÙĬØ¨Øª": 3112,
      "ĠÙĬØ·Ø¹": 3113,
      "ĠÙĬÙĩÙĦÙĥ": 3114,
      "ĠÙĬÙĦØ¹": 3115,
      "ĠÙĬØ°ÙĩØ¨": 3116,
      "ÙĪØ§Ø±ÙĬ": 3117,
      "ĠØ¨Øª": 3118,
      "ĠØ¨Ø¹ÙĦÙħ": 3119,
      "ĠØ¨ÙĦÙĤ": 3120,
      "ĠØ¨ÙĥØ±Ø©": 3121,
      "ĠØ¥Ø«Ùħ": 3122,
      "ĠØ¥Ø«ÙħØ§": 3123,
      "ØŃÙģ": 3124,
      "ØŃØ¯ÙĪÙĨ": 3125,
      "ØŃÙĪØ±Ø§": 3126,
      "Ø£ÙĬÙĨ": 3127,
      "ĠÙħÙĨØ¹": 3128,
      "ĠÙħÙĨÙĩÙĨ": 3129,
      "ĠØ¹ÙĤ": 3130,
      "ĠØ¹ÙĬÙĨØ§": 3131,
      "ĠØ¹Ø§ÙĩØ¯": 3132,
      "ĠØ¹ÙĪØ¬Ø§": 3133,
      "ĠØªÙģØ³": 3134,
      "ĠØªØ°Ø±": 3135,
      "ĠØªØ´Ø±ÙĥÙĪÙĨ": 3136,
      "ĠØªØ¬Ø¯ÙĪØ§": 3137,
      "ĠØªÙĤØªÙĦÙĪØ§": 3138,
      "Ø¬ÙĪØ§": 3139,
      "Ø¬Ø¹ÙĪØ§": 3140,
      "ĠÙĥØ§": 3141,
      "ĠÙĥÙĦÙĩ": 3142,
      "ĠÙĥÙģÙĪØ±Ø§": 3143,
      "ĠÙĤØ§ÙĨ": 3144,
      "ÙĦÙĬÙħØ§": 3145,
      "Ø®ÙĦØ§": 3146,
      "ØµÙī": 3147,
      "ØµÙĬØ¨": 3148,
      "ĠØ±Ø¢": 3149,
      "Ø´Ø¯": 3150,
      "Ø´ÙĬØ±": 3151,
      "ĠÙĪØ§ÙĦÙĦÙĬÙĦ": 3152,
      "ĠÙĪØ§ÙĦÙĬØªØ§": 3153,
      "ĠÙĨØª": 3154,
      "ĠÙĨÙģØ±": 3155,
      "ĠÙĨØ¹ÙĦÙħ": 3156,
      "ĠÙĨØ²ÙĦÙĨØ§": 3157,
      "ĠÙĨØ¹Ø¨Ø¯": 3158,
      "ĠÙĨØªØ¨Ø¹": 3159,
      "ĠÙĩØ§Ø¯": 3160,
      "Ø§ØªÙĪØ§": 3161,
      "ĠØ³ÙģØ±": 3162,
      "ĠØ³ÙĪÙģ": 3163,
      "ĠØ³ØªØ©": 3164,
      "ĠØ³ÙĪØ±Ø©": 3165,
      "ĠØ³ÙĦØ§ÙħØ§": 3166,
      "ĠØ³Ø§ØŃØ±": 3167,
      "Ø·Ø§Ø¡": 3168,
      "Ø§Ø¡Øª": 3169,
      "Ø¦ÙĥÙħ": 3170,
      "ĠØ±Ø¨ÙĩØ§": 3171,
      "ÙĪÙħÙĪÙĨ": 3172,
      "ĠÙĪØ£Ø¹Ø¯": 3173,
      "ĠÙĪØ£ÙĪÙĦØ§": 3174,
      "ĠÙĪØ£Ø®Ø±Ø¬": 3175,
      "ĠÙĪØ£Ø±Ø¬": 3176,
      "ĠØ§ÙĦÙħØ¤ÙħÙĨØ§Øª": 3177,
      "ĠØ§ÙĦÙħØ³Ø±ÙģÙĬÙĨ": 3178,
      "ĠØŃÙĥÙħ": 3179,
      "ĠØŃÙĪÙĦ": 3180,
      "ĠØŃØ¨Ø§": 3181,
      "ĠØŃØ¨Ø·": 3182,
      "ĠØŃØ²Ø¨": 3183,
      "ØºØ©": 3184,
      "ØºØ±Ø¨": 3185,
      "ØªÙħØ¹": 3186,
      "ØªÙħÙĪÙĩØ§": 3187,
      "ĠØ¬Ø§": 3188,
      "ĠØ¬ÙĦ": 3189,
      "ĠØ¬ÙħØ¹": 3190,
      "ĠØ®Øµ": 3191,
      "ĠØ®ÙĦÙĪØ§": 3192,
      "ĠØ®ÙģØªÙħ": 3193,
      "ĠØ´Ø§": 3194,
      "ĠØ´ÙĤØ§": 3195,
      "ĠØ´Ø§ÙĩØ¯": 3196,
      "ĠØ§ÙĦØ£Ø¹ÙħÙī": 3197,
      "Ø±Ø§Ø¬": 3198,
      "Ø¤ÙĬØ§": 3199,
      "ĠØ¨Ø§ÙĦÙĥ": 3200,
      "ĠØ¨Ø§ÙĦØªÙĬ": 3201,
      "ĠØ¨Ø§ÙĦÙĩØ¯Ùī": 3202,
      "Ø¹ÙĦÙħÙĨ": 3203,
      "ĠÙĪÙĬÙĥ": 3204,
      "ĠØ§ÙĦØ±Ø¨Ø§": 3205,
      "ĠØ«ÙĪØ§Ø¨": 3206,
      "ĠÙģØ£ÙĩÙĦÙĥ": 3207,
      "ĠÙģØ£Ø±Ø³ÙĦÙĨØ§": 3208,
      "ĠÙģØ£Ø¹Ø±Ø¶": 3209,
      "ĠØ§ÙĦØ¹ÙĦÙĬ": 3210,
      "ÙĥØ±ÙĬØ§": 3211,
      "ĠØµÙĨ": 3212,
      "ĠØµØ¨Ø±": 3213,
      "ĠØµÙģØ§": 3214,
      "ĠØµØ±Ùģ": 3215,
      "ĠÙģØ¥ÙħØ§": 3216,
      "ĠØ§ÙĦÙĤØµ": 3217,
      "ĠÙĦÙĬØ³Øª": 3218,
      "ĠØ§ÙĥØª": 3219,
      "ĠØ§Ø¹ÙħÙĦÙĪØ§": 3220,
      "Ø±ÙĬÙĤ": 3221,
      "Ø±ÙĬÙĥÙħ": 3222,
      "Ø±ÙĬØ§Øª": 3223,
      "ĠØ§ÙĦÙĥÙĬÙĦ": 3224,
      "ĠØ¢ÙħÙĨØª": 3225,
      "ĠØ¢ÙħÙĨÙĬÙĨ": 3226,
      "ĠØºÙĨÙĬ": 3227,
      "ĠØºÙĬØ¨": 3228,
      "ÙĦÙĨØ§ÙĩÙħ": 3229,
      "ØªÙĬÙĦØ§": 3230,
      "Ø³ÙħÙĪØ§": 3231,
      "Ø³ÙħØ¹ÙĪØ§": 3232,
      "Ø¨Ø±Ø©": 3233,
      "ĠØ§ÙĦØµÙħ": 3234,
      "ĠØ§ÙĦØµÙĬØŃØ©": 3235,
      "ÙĥÙĪÙĨÙĪØ§": 3236,
      "ĠÙĪØ§Ø¬": 3237,
      "ĠÙĪØ§Ø¬Ø¹ÙĦ": 3238,
      "ĠÙĬØªÙĦÙī": 3239,
      "ĠÙĬØªØ°ÙĥØ±": 3240,
      "ĠÙĬØªØ³Ø§Ø¡": 3241,
      "ĠÙĬØªØ°ÙĥØ±ÙĪÙĨ": 3242,
      "ĠÙĬØªÙĦÙĪ": 3243,
      "ĠÙĬÙĨÙĥ": 3244,
      "ĠÙĬÙĨØ·": 3245,
      "ĠÙĦÙĦØŃÙĤ": 3246,
      "ĠÙĪØªÙĪÙĦÙī": 3247,
      "ĠÙĪØªÙĪÙĥÙĦ": 3248,
      "ĠÙĪØªØ¹Ø§ÙĦÙī": 3249,
      "ĠÙĪØ§ÙĦØ£Ø¨ØµØ§Ø±": 3250,
      "ĠÙĬØ±Ùī": 3251,
      "ĠØ¬Ø§Ø¡Ùĩ": 3252,
      "ĠÙģØ§Ø¹ÙĦ": 3253,
      "ĠÙģØ§Ø¹Øª": 3254,
      "ĠÙģØ§Ø°ÙĥØ±ÙĪØ§": 3255,
      "ĠÙĤÙĪÙħÙĩÙħ": 3256,
      "ĠØ¹ÙĨØ¯ÙĩÙħ": 3257,
      "ĠØ£ØŃÙĬ": 3258,
      "ĠØªØ±Ø§Ø¨": 3259,
      "ĠØªØ±Ø¬Ø¹": 3260,
      "ĠØ¸ÙĦÙħØ§": 3261,
      "ĠØ¸Ø§ÙĦÙħÙĪÙĨ": 3262,
      "ĠØ§ÙĦÙĨÙģØ³": 3263,
      "ĠÙĪÙĨÙģØ®": 3264,
      "ĠØ®ÙĦÙĤØ§": 3265,
      "ÙĪØ¯ÙĪØ§": 3266,
      "ØªÙĩÙĪÙĨ": 3267,
      "Ø§ÙģØ¹": 3268,
      "ĠÙĬØ£Ø®Ø°": 3269,
      "ĠØ£ÙģØª": 3270,
      "ĠÙģØªØŃ": 3271,
      "ĠÙģØªÙĨØ§": 3272,
      "ĠÙĦÙĥÙĨ": 3273,
      "ĠÙĦÙĥÙħØ§": 3274,
      "ĠÙĬÙĥØ°Ø¨ÙĪÙĨ": 3275,
      "ĠØ§ÙĦØ´Ø¬Ø±Ø©": 3276,
      "ĠØ§ÙĦØ´Ø§ÙĥØ±ÙĬÙĨ": 3277,
      "ĠÙĪØ¹Ø§Ø¯": 3278,
      "ĠÙĪØ¹ÙĬØ³Ùī": 3279,
      "Ø¨Ø§Ø±Ø§": 3280,
      "ĠÙĬØ¹Øµ": 3281,
      "ĠÙĬØ¹ÙĬØ¯Ùĩ": 3282,
      "ĠØªØŃØª": 3283,
      "ØµØ±Ùģ": 3284,
      "ĠØ²Ø§Ø¯": 3285,
      "ĠÙħØ«ÙĦÙĥÙħ": 3286,
      "ĠÙĪÙħÙĦØ¦": 3287,
      "ĠÙĬØ³ØªÙĥØ¨Ø±ÙĪÙĨ": 3288,
      "ĠÙĬØ®ÙĦÙģ": 3289,
      "ĠÙĬØ®ÙģÙģ": 3290,
      "ĠÙĪØ±ØŃÙħØªÙĩ": 3291,
      "ĠÙĬØ³ÙĬØ±Ø§": 3292,
      "ĠÙĬØ³ÙĬØ±ÙĪØ§": 3293,
      "ÙħØ³Ùĥ": 3294,
      "ĠØ§ÙĦØºØ§Ø¨Ø±ÙĬÙĨ": 3295,
      "ĠØªØ¹Øª": 3296,
      "ĠØªØ¹Ø§ÙĦÙĪØ§": 3297,
      "ĠÙĪÙĦÙĬØ³": 3298,
      "ÙĩØ±Ø©": 3299,
      "ĠØ¥ÙĦÙĩÙĥÙħ": 3300,
      "ĠØ¹ÙĦÙħÙĨØ§": 3301,
      "ĠØ§ØºÙģØ±": 3302,
      "ĠØªÙĨØ¸Ø±ÙĪÙĨ": 3303,
      "ĠØ£ÙħØ±Øª": 3304,
      "ĠÙĪØ¢Øª": 3305,
      "ĠÙĪØ¢ÙħÙĨ": 3306,
      "ĠÙĪØ¢ÙħÙĨÙĪØ§": 3307,
      "ĠØ§ÙĦØ¥ÙĬÙħØ§ÙĨ": 3308,
      "ĠÙĬØ¬ØŃØ¯ÙĪÙĨ": 3309,
      "ĠÙĪØ§ÙĦÙħØ¤ÙħÙĨÙĪÙĨ": 3310,
      "ĠØ§ÙĦÙģØµÙĦ": 3311,
      "ĠÙģÙĥÙĦÙĪØ§": 3312,
      "ĠØ®Ø§ÙĦÙĤ": 3313,
      "ÙĪØ§ÙĦØ¯": 3314,
      "ÙĪØ§ÙĦØ¯ÙĬÙĨ": 3315,
      "ÙģØ¹ÙĪÙĦØ§": 3316,
      "ĠØ¹Ø¨Ø§Ø¯Ùĥ": 3317,
      "ĠÙĪØ¹Ø¯Ø§": 3318,
      "ĠÙĪØ¹Ø¯Ùĩ": 3319,
      "ĠÙģØ¨Ø¦Ø³": 3320,
      "ĠÙĬØ¤Ø§Ø®Ø°": 3321,
      "ĠØªØ®Ø§Ùģ": 3322,
      "Ø±ÙģÙĪØ§": 3323,
      "ĠÙĦØ¹ÙĦÙĬ": 3324,
      "ĠÙĦØ¹ÙĨØ©": 3325,
      "ĠÙĦØ¹Ø¨Ø§Ø¯": 3326,
      "ĠÙĬØµÙĬØ¨": 3327,
      "ĠÙĬØµÙģÙĪÙĨ": 3328,
      "ĠÙĨØ³ÙĪØ§": 3329,
      "ĠØ§ÙĦØ·ÙĪØ±": 3330,
      "ĠÙħÙĦÙĥØ§": 3331,
      "ĠÙħØªØ´": 3332,
      "ĠØ¹Ø¯ÙĦ": 3333,
      "ÙĪÙĬÙĦØ§": 3334,
      "ĠÙĪØŃØ§ÙĤ": 3335,
      "ĠØ§ÙĨØª": 3336,
      "ĠÙĪØ§Ø¶": 3337,
      "ĠØ¨Ø±ØŃÙħØ©": 3338,
      "ĠØŃØ±Ø«": 3339,
      "ĠØ£ØŃØ¯ÙĩÙħ": 3340,
      "ĠØ£ØŃØ¯ÙĥÙħ": 3341,
      "ĠÙģÙĦÙĬØ³": 3342,
      "ĠØ±Ø²ÙĤÙĨØ§ÙĥÙħ": 3343,
      "ĠÙĨÙĪØŃØ§": 3344,
      "ĠØ¢Ø¨Ø§Ø¤ÙĨØ§": 3345,
      "ĠØ¬Ø¹ÙĦÙĨØ§Ùĩ": 3346,
      "ĠØ§ÙĦÙħÙĨØ°Ø±ÙĬÙĨ": 3347,
      "ĠØªØ³ØªØ¹Ø¬ÙĦÙĪÙĨ": 3348,
      "ØºØ±ÙĤ": 3349,
      "Ø£ÙĦÙĨ": 3350,
      "ĠÙģØ§Ø³ÙĤÙĪÙĨ": 3351,
      "ÙĪØ²Ø§": 3352,
      "ĠÙĬØ¶Ø§Ø¹Ùģ": 3353,
      "ĠÙĪØ¬ÙĩÙĥ": 3354,
      "Ø±ØŃØ§Ùħ": 3355,
      "ĠØ³Ø¨ÙĤØª": 3356,
      "ĠÙĦØ¯ÙĬÙĩÙħ": 3357,
      "ĠÙĦØ¯ÙĨÙĥ": 3358,
      "ĠØ¹Ø²ÙĬØ²Ø§": 3359,
      "ĠØ§ÙĦÙħØ±Ø³ÙĦÙĪÙĨ": 3360,
      "ØªÙĤÙĪÙī": 3361,
      "ĠØ§ÙģØªØ±Ø§Ùĩ": 3362,
      "ĠØªØ£ÙĥÙĦ": 3363,
      "ĠÙħØªØ§Ø¹Ø§": 3364,
      "ØŃØ´Ø§Ø¡": 3365,
      "ĠØªØ²Ø±": 3366,
      "ĠØ¥ÙĬÙħØ§ÙĨØ§": 3367,
      "Ø´ÙģÙĨØ§": 3368,
      "ĠÙĬØ¹ÙħÙĩÙĪÙĨ": 3369,
      "ĠÙĪØ¸ÙĨÙĪØ§": 3370,
      "Ø¯Ø®ÙĦÙĩÙħ": 3371,
      "ĠØ£ÙĪÙĦØ§Ø¯ÙĥÙħ": 3372,
      "ĠÙĪÙĤÙĪÙħÙĩ": 3373,
      "ĠØ³ÙĬØ¦Ø§ØªÙĩÙħ": 3374,
      "ĠÙĪØ§ØµØ¨Ø±": 3375,
      "ĠÙģÙĬÙĨØ¨Ø¦ÙĥÙħ": 3376,
      "ĠØ§ÙĦØ±Ø¬Ø§ÙĦ": 3377,
      "ĠØ£Ø°Ùī": 3378,
      "ĠØ£Ø£ÙĨØªÙħ": 3379,
      "ĠØ³Ø¹ÙĬØ±Ø§": 3380,
      "ĠÙĬØ£ÙĥÙĦÙĪÙĨ": 3381,
      "ĠØ£Ø±Ø¨Ø¹Ø©": 3382,
      "ĠÙĨØ§Ø¯Ùī": 3383,
      "ĠØ´Ø¹ÙĬØ¨Ø§": 3384,
      "ĠØ£ÙĨØ¹ÙħØª": 3385,
      "ĠÙĪØ£Ø¨ÙĤÙī": 3386,
      "ĠØ§ÙĩØªØ¯Ùī": 3387,
      "ĠÙĪØ°ÙĥØ±Ùī": 3388,
      "ĠÙħØŃÙĬØ·": 3389,
      "ĠØ£ÙģØ±Ø£ÙĬØªÙħ": 3390,
      "ĠØ¨Ø°ÙĨÙĪØ¨ÙĩÙħ": 3391,
      "ĠÙĨØ§ØµØ±ÙĬÙĨ": 3392,
      "ĠØªØŃØ²ÙĨ": 3393,
      "ĠÙĪØ¶Ø±Ø¨": 3394,
      "ĠÙĬØ³Ø¨ØŃÙĪÙĨ": 3395,
      "ØŃØµÙĨØ§Øª": 3396,
      "ĠØªÙĪÙĥÙĦØª": 3397,
      "ĠÙĬØ¬Ø§Ø¯ÙĦÙĪÙĨ": 3398,
      "ĠÙħØ¤ÙħÙĨØ§": 3399,
      "ĠÙħØ±ÙĬØ¨": 3400,
      "ĠØ£Ø¨Ø§ÙĨØ§": 3401,
      "ĠØ¢Ø°Ø§ÙĨÙĩÙħ": 3402,
      "ĠÙĪØ¬ÙĨÙĪØ¯Ùĩ": 3403,
      "ĠØ¨ÙħØ¹Ø¬Ø²ÙĬÙĨ": 3404,
      "ĠØ³Ø£ÙĦØªÙĩÙħ": 3405,
      "Ø·ÙħØ¦ÙĨ": 3406,
      "ĠØ®Ø²Ø§Ø¦ÙĨ": 3407,
      "ĠÙĪØªØ±ÙĥÙĨØ§": 3408,
      "ĠØªØ¹Ø¨Ø¯ÙĪØ§": 3409,
      "ĠØªØ°ÙĥØ±Ø©": 3410,
      "ĠØ±Ø´Ø¯Ø§": 3411,
      "ĠÙĪØ£Ø¹ØªØ¯ÙĨØ§": 3412,
      "ĠØ§ÙĦÙħÙĨØ§ÙģÙĤÙĪÙĨ": 3413,
      "Ø¨Ø¹ÙĪØ«ÙĪÙĨ": 3414,
      "ĠÙħØªÙĥØ¦ÙĬÙĨ": 3415,
      "ĠØ¨ÙĦÙĤØ§Ø¡": 3416,
      "ĠÙĪØ§ÙĦÙĬØªØ§ÙħÙī": 3417,
      "ĠÙĬØªØ³Ø§Ø¡ÙĦÙĪÙĨ": 3418,
      "ÙĦÙĪÙĩ": 3419,
      "ÙĨØ¹ÙĪÙĨ": 3420,
      "ÙħØªÙħ": 3421,
      "ÙħØ±Ø§": 3422,
      "ÙĬØ³": 3423,
      "ÙĪØ¶": 3424,
      "ÙĩÙģ": 3425,
      "Ø±ÙĥÙħ": 3426,
      "Ø±Ø§Ø·": 3427,
      "ĠØ§ÙĦÙĥØ±": 3428,
      "ĠØ§ÙĦØ´Ø±": 3429,
      "ĠØ§ÙĦÙģØªÙĨØ©": 3430,
      "ĠÙĪØ«": 3431,
      "ĠÙĪØ¹ÙĦ": 3432,
      "ĠÙĪØŃÙħ": 3433,
      "ĠÙĪØŃØ³ÙĨ": 3434,
      "ÙĥØ«Ø±": 3435,
      "ÙĥÙĬÙĩÙħ": 3436,
      "ØªØ±": 3437,
      "ØªØ±ÙĪÙĨ": 3438,
      "ØªØ¯ÙĨØ§": 3439,
      "ØªØºÙĪØ§": 3440,
      "ØªÙĦØ§Ùģ": 3441,
      "Ø¨Ùī": 3442,
      "Ø¨ÙĩØ§": 3443,
      "Ø¨ÙĪØ±": 3444,
      "Ø¨Ø´Ø±": 3445,
      "Ø¨Ø§Ø¦": 3446,
      "Ø¨Ø´Ø±ÙĪÙĨ": 3447,
      "ĠÙħØ°": 3448,
      "ĠÙħÙģ": 3449,
      "ĠÙħØ³Ø±": 3450,
      "ĠÙħØ¤ÙħÙĨÙĪÙĨ": 3451,
      "ĠÙħØŃØ±": 3452,
      "ĠÙħÙĬØª": 3453,
      "ĠÙħÙĦØ§Ø¦ÙĥØ©": 3454,
      "ĠÙħØºØ±": 3455,
      "ĠÙħÙĦØ§ÙĤ": 3456,
      "ĠÙħÙģØ¹ÙĪÙĦØ§": 3457,
      "Ø¹ØªÙħ": 3458,
      "Ø¹ØªÙĩÙħ": 3459,
      "Ø¹Ø¬ÙĦ": 3460,
      "ĠØ£ØªÙī": 3461,
      "ĠØ£Ø¦ÙĨ": 3462,
      "ĠØ£ÙĩØ¯Ùī": 3463,
      "Ø¯ÙĨ": 3464,
      "Ø¯Ø¯": 3465,
      "Ø¯Ø³": 3466,
      "Ø¯ÙĬØ«": 3467,
      "Ø³ÙĥÙħ": 3468,
      "Ø³ÙĦÙħ": 3469,
      "Ø³Ø±Ø§": 3470,
      "ĠÙģØ³Øª": 3471,
      "ĠÙģØµØ¯": 3472,
      "ĠÙģØ°Ø±ÙĩÙħ": 3473,
      "ĠÙĦØ§Øª": 3474,
      "ĠÙĦÙģØ±": 3475,
      "ĠÙĦØ³Øª": 3476,
      "ĠÙĦÙĬØ¯": 3477,
      "ĠÙĦÙĦÙĤ": 3478,
      "ĠÙĦØ¯ÙĨØ§": 3479,
      "ĠÙĦØ³Ø§ÙĨ": 3480,
      "ĠÙĬØ¯Ø§": 3481,
      "ĠÙĬÙħÙĬ": 3482,
      "ĠÙĬÙĤØªÙĦÙĪÙĨ": 3483,
      "ĠÙĬØ¹ÙĦÙĨÙĪÙĨ": 3484,
      "ÙĤÙĨ": 3485,
      "ÙĤÙĪÙĩ": 3486,
      "Ø°ÙĪÙĨ": 3487,
      "ÙĪØ§Ø¹Ø¯": 3488,
      "ÙĬÙĨÙĥ": 3489,
      "ĠØ¨Ø§Ø±": 3490,
      "ĠØ¨ÙģØ§": 3491,
      "ĠØ¨Ø¸ÙĦÙħ": 3492,
      "ĠØ¨ÙĤØ±": 3493,
      "ĠØ¨ÙħØ¹Ø±ÙĪÙģ": 3494,
      "ĠØ¨ÙĬÙħÙĬÙĨ": 3495,
      "ĠØ¨ÙĤØ¯Ø±": 3496,
      "ĠØ¨Ø´ÙĬØ¡": 3497,
      "ĠØ¥Ø³ØŃØ§ÙĤ": 3498,
      "ĠØ¥ÙģÙĥ": 3499,
      "ĠØ¥ØµÙĦØ§": 3500,
      "ÙĪÙĨØ§": 3501,
      "ÙĪÙĨÙĩØ§": 3502,
      "ÙģØµ": 3503,
      "ÙģÙĩØ§": 3504,
      "ØŃØ©": 3505,
      "ØŃÙħÙĬÙĨ": 3506,
      "ØŃØ³Ø§ÙĨ": 3507,
      "Ø£Øª": 3508,
      "Ø£Ø®Ø±ÙĪÙĨ": 3509,
      "ĠÙħÙĨÙĥ": 3510,
      "ĠÙħÙĨØª": 3511,
      "ĠØ¹Ø§": 3512,
      "ĠØ¹Ø±": 3513,
      "ĠØ¹Øª": 3514,
      "ĠØ¹ÙħØ±": 3515,
      "ĠØ¹ÙģØ§": 3516,
      "ĠØ¹Ø§Øµ": 3517,
      "ĠØ¹Ø¨Ø¯Ø§": 3518,
      "ÙĦØ§Øª": 3519,
      "ĠØªØ¸": 3520,
      "ĠØªØ±ÙĪÙĨ": 3521,
      "ĠØªÙģØª": 3522,
      "ĠØªÙĤÙĪÙĦÙĪÙĨ": 3523,
      "ĠØªØ´Ø±Ùĥ": 3524,
      "ĠØªÙĩØªØ¯ÙĪÙĨ": 3525,
      "ĠØªØ¨Ø§Ø±Ùĥ": 3526,
      "ĠØªØŃÙħÙĦ": 3527,
      "Ø¬ÙĪ": 3528,
      "Ø¬ÙĪØ¯": 3529,
      "Ø¬Ø§Ø±Ø©": 3530,
      "ĠÙĥØ§Øª": 3531,
      "ĠÙĥØ§Ø±": 3532,
      "ĠÙĥØ°Ø§Ø¨": 3533,
      "ĠÙĥØ§Ùģ": 3534,
      "ĠÙĥÙĬØ¯Ø§": 3535,
      "ĠÙĤØ±Ø¶Ø§": 3536,
      "ÙĦÙĬÙĥÙħ": 3537,
      "Ø®ÙĬØ±": 3538,
      "ØµÙĬ": 3539,
      "ØµØ±Ø§": 3540,
      "ĠØ±Ø£ÙĬ": 3541,
      "ĠØ±Ø¶ÙĬ": 3542,
      "ĠØ¥ÙĨÙĨÙĬ": 3543,
      "Ø¶Ø±Ø¨": 3544,
      "Ø²Ø±": 3545,
      "Ø²Øª": 3546,
      "Ø²ÙĬØ±": 3547,
      "Ø§ÙĨÙĩ": 3548,
      "Ø§ÙĨÙĬØ©": 3549,
      "Ø´Ø§": 3550,
      "Ø´ÙĩØ¯ÙĪØ§": 3551,
      "ĠØ£ÙĨÙĥ": 3552,
      "ĠØ£ÙĨØ°Ø±": 3553,
      "ĠØ£ÙĨÙģÙĤ": 3554,
      "ĠØ£ÙĨØ¯Ø§Ø¯Ø§": 3555,
      "ĠÙĨØ±Ùī": 3556,
      "Ø§Ø¨ÙĩØ§": 3557,
      "ĠÙĩÙĪØ§Ùĩ": 3558,
      "ĠØ³Ùħ": 3559,
      "ĠØ³Ùĥ": 3560,
      "ĠØ³Øª": 3561,
      "ĠØ³Ø§Ø¨": 3562,
      "ĠØ³Ø§Ø¦": 3563,
      "ĠØ³ÙĦÙģ": 3564,
      "ĠØ³ØŃØ§Ø¨": 3565,
      "Ø·ÙĨØ§": 3566,
      "Ø·ÙĬÙģ": 3567,
      "Ø§Ø¡ÙĪØ§": 3568,
      "ĠÙĪØ£Ø¯": 3569,
      "ĠÙĪØ£Ø¬Ø±": 3570,
      "ĠÙĪØ£Ø¶ÙĦ": 3571,
      "ĠÙĪØ£Ø·Ø¹ÙĨØ§": 3572,
      "ĠÙĪØ£ÙĪØ±Ø«": 3573,
      "ĠØ§ÙĦÙħØ¹": 3574,
      "ĠØ§ÙĦÙħØ¬": 3575,
      "ĠØ§ÙĦÙħØ¹Øª": 3576,
      "ĠØ§ÙĦÙħÙĥØ°Ø¨ÙĬÙĨ": 3577,
      "ĠØŃØµ": 3578,
      "ĠØŃØ¶Ø±": 3579,
      "ĠØŃØ§ÙģØ¸": 3580,
      "ØºØ§": 3581,
      "ĠØ¬ÙĩØ¯": 3582,
      "ĠØ¬Ø§Ø«": 3583,
      "ĠØ®Ø§Ø¦": 3584,
      "ĠØ®Ø³Ø±": 3585,
      "ĠØ®Ø²ÙĬ": 3586,
      "ĠØ®ÙģØª": 3587,
      "ĠØ®ÙĦØ§Ùģ": 3588,
      "ĠØ´Ø¬Ø±": 3589,
      "ĠØ´ÙĩØ±": 3590,
      "ĠØ´Ø¬Ø±Ø©": 3591,
      "ĠØ´ÙģØ§Ø¹Ø©": 3592,
      "ĠØ§ÙĦØ£Ø³": 3593,
      "ĠØ§ÙĦØ£ÙĦÙĬÙħ": 3594,
      "ĠØ§ÙĦØ£Ø±ØŃØ§Ùħ": 3595,
      "Ø¸ÙĥÙħ": 3596,
      "Ø±Ø§Ø¯": 3597,
      "Ø±Ø§ÙĩÙħ": 3598,
      "Ø¢ÙĨ": 3599,
      "ĠØ¨Ø§ÙĦØŃ": 3600,
      "ĠØ¨Ø§ÙĦØ°ÙĬÙĨ": 3601,
      "ĠØ¨Ø§ÙĦÙĦÙĬÙĦ": 3602,
      "ĠØ°Ø±Ø©": 3603,
      "ĠØ¹ÙĨÙĬ": 3604,
      "ĠØ§ÙĦØ³ÙĦÙħ": 3605,
      "ĠØ§ÙĦØ³Ø¬ÙĨ": 3606,
      "ĠØ§ÙĦØ³Ø¬ÙĪØ¯": 3607,
      "ĠÙĪÙĬØ²": 3608,
      "ĠÙĪÙĬÙĦÙĨØ§": 3609,
      "ĠÙĪÙĬØ²ÙĬØ¯": 3610,
      "Ø§Ø¯ÙĤÙĪÙĨ": 3611,
      "Ø¹ÙħÙĩ": 3612,
      "ĠØ«ÙĬØ§Ø¨": 3613,
      "ÙĦÙĪÙĨÙĥÙħ": 3614,
      "ĠØ§ÙĦØŃØ³ÙĨØ©": 3615,
      "ĠØ§ÙĦØŃØ¯ÙĬØ«": 3616,
      "ĠØ¯Ø§Ø¦": 3617,
      "ĠØ§ÙĦØ¹Ø¬ÙĦ": 3618,
      "ĠÙĪÙħÙĨÙĥÙħ": 3619,
      "ÙĦÙĤØ©": 3620,
      "ĠÙĪÙĤÙĦÙĨØ§": 3621,
      "ÙĥØ±Ùĩ": 3622,
      "ĠØµÙĬØŃØ©": 3623,
      "ÙĩØ¯Ø§Ø¡": 3624,
      "ĠÙģØ¥ÙĨÙĬ": 3625,
      "ÙĬÙĨØ§ÙĥÙħ": 3626,
      "ĠØ§ÙĦÙĤÙĩØ§Ø±": 3627,
      "ĠØ§ÙĦÙĤÙĦÙĪØ¨": 3628,
      "ĠÙĦÙĬØª": 3629,
      "ĠÙĦÙĬØ®Ø±Ø¬": 3630,
      "ĠØ§ÙħØ±": 3631,
      "ĠÙĪÙĥØ«ÙĬØ±": 3632,
      "ĠÙĪÙĥØ£ÙĬÙĨ": 3633,
      "ÙĪØ±ÙĩÙĨ": 3634,
      "ÙĤØ¯Ø§Ùħ": 3635,
      "ĠÙĪØ¥ÙĨÙĥ": 3636,
      "Ø´Ø±ÙĬÙĨ": 3637,
      "ĠØ§ÙĦØ±ØŃÙħØ©": 3638,
      "Ø¨ÙĦØ¯": 3639,
      "Ø¨ÙĦÙĪÙĥÙħ": 3640,
      "Ø¨ÙĦØºÙĪØ§": 3641,
      "ØªÙĬÙĥÙħ": 3642,
      "ĠÙĪØ¬ÙĨØ§Øª": 3643,
      "ĠÙĩÙĪØ¯Ø§": 3644,
      "ĠØ§ÙĦØµØ±Ø§Ø·": 3645,
      "ĠÙħØ¹ÙĨØ§": 3646,
      "ĠÙĪØ§ÙħØ±Ø£": 3647,
      "ĠØ¨Ø¹ÙĬØ¯Ø§": 3648,
      "ĠÙĬØªÙĦÙĪÙĨ": 3649,
      "ĠÙĥÙģØ±ØªÙħ": 3650,
      "ÙĪØ¨Ø©": 3651,
      "ĠØ£ÙĬÙĩÙħ": 3652,
      "ĠØ£ÙĬØ§ÙĨ": 3653,
      "ĠÙĪØ§ÙĦØ£ÙĤØ±Ø¨": 3654,
      "ĠÙĤØ¯ÙĬØ±Ø§": 3655,
      "ĠÙĬØŃØ³Ø¨": 3656,
      "ĠÙĬØŃØ¨ÙĪÙĨ": 3657,
      "ÙĬÙĦØ©": 3658,
      "ĠØ¨Ø¹Ø¯ÙĩØ§": 3659,
      "ĠÙħÙĪØ¹Ø¯": 3660,
      "ĠØ¬Ø§Ø¡ÙĪØ§": 3661,
      "ĠØ¬Ø§Ø¡ÙĨØ§": 3662,
      "Ø¯Ø§ÙĩÙħØ§": 3663,
      "Ø³Ø¨ÙĪØ§": 3664,
      "ĠÙĬØ´ÙĩØ¯": 3665,
      "ĠÙģØ§Ø¹ÙĦÙħÙĪØ§": 3666,
      "ĠÙģØ§ÙĥÙĩØ©": 3667,
      "ĠÙģÙĦÙĩÙħ": 3668,
      "ĠÙģÙĦÙĦÙĩ": 3669,
      "ĠØ¹ÙĨØ¯ÙĬ": 3670,
      "ĠØ£ØŃØ¨": 3671,
      "Ø³ÙĨØªÙĩÙħ": 3672,
      "ĠØ¸Ø§": 3673,
      "ĠÙĪÙĨØ³Ø§Ø¡": 3674,
      "ĠØ·ÙĬØ¨Ø§": 3675,
      "ĠØ·ØºÙī": 3676,
      "ĠØ®ÙĦÙĤÙĩ": 3677,
      "ĠØ®ÙĦÙĤØª": 3678,
      "ÙħÙĬØª": 3679,
      "ĠÙĬØ£ØªÙĥÙħ": 3680,
      "ĠÙĬØ£ØªÙĪÙĨ": 3681,
      "ĠÙģØªÙĨ": 3682,
      "ĠÙĦÙĥØ§ÙĨ": 3683,
      "ĠØ§ÙĦØ´ÙħØ§ÙĦ": 3684,
      "ĠØ§ÙĦØ´Ø§ÙĩØ¯ÙĬÙĨ": 3685,
      "ĠÙĬØ¹Ø°Ø¨ÙĩÙħ": 3686,
      "ĠÙĬØ¹Ø±ÙģÙĪÙĨ": 3687,
      "ØªØ§ÙħÙī": 3688,
      "ĠØªØŃÙĥÙħ": 3689,
      "ĠØ£Ø¬ÙĦÙĩÙħ": 3690,
      "ĠØ£Ø¬ÙĪØ±ÙĩÙĨ": 3691,
      "ĠØ²Ø±": 3692,
      "ÙĬÙħØ§ÙĩÙħ": 3693,
      "ĠÙħØ«ÙĦÙĨØ§": 3694,
      "ĠØ§ÙĦØ®Ø¨ÙĬØ±": 3695,
      "ĠÙĪÙħÙĨØ§": 3696,
      "ĠÙĪÙħØªØ§": 3697,
      "ĠÙĪÙħØ£ÙĪØ§ÙĩÙħ": 3698,
      "ÙģÙĬØ¹": 3699,
      "ĠÙĬØ®Ø´ÙĪÙĨ": 3700,
      "ĠÙĬØ®Ø´Ùī": 3701,
      "ĠÙĬØ®ØªØµ": 3702,
      "ĠÙĪÙĦÙĪØ·Ø§": 3703,
      "ĠÙĪØ¨ÙħØ§": 3704,
      "ĠÙĪØ¨ÙĨÙĬÙĨ": 3705,
      "ĠÙĬØ³Ø±Ø§": 3706,
      "ĠÙĬØ³Ø¹Ùī": 3707,
      "ĠÙĬØ³ØªÙħØ¹ÙĪÙĨ": 3708,
      "ĠÙĬØ³Ø§Ø±Ø¹ÙĪÙĨ": 3709,
      "ĠÙħØ±Ø¯": 3710,
      "ĠÙħØ³Ùĩ": 3711,
      "ĠÙħØ³Ùĥ": 3712,
      "ĠÙħØ³Ø§Ùĥ": 3713,
      "ĠØ§ÙĦØ¨Ø§Ø¨": 3714,
      "ĠØ§ÙĦØ¨ØµØ±": 3715,
      "ĠÙĪÙĦÙĬØ¹ÙĦÙħ": 3716,
      "ĠØ§Ø³ØªØ¶Ø¹Ùģ": 3717,
      "ÙĪÙĥÙĬÙĦ": 3718,
      "ĠØªØ¬Ø§Ø±Ø©": 3719,
      "ĠØ¹ÙĦÙħØªÙħ": 3720,
      "ĠØªØ£Ø®Ø°": 3721,
      "ĠÙĤÙĦÙĪØ¨ÙĨØ§": 3722,
      "ĠØ£Ø¹ÙĪØ°": 3723,
      "ĠØ£Ø¹ØªØ¯ÙĨØ§": 3724,
      "ĠØªÙĨÙģØ¹": 3725,
      "ĠÙģÙĤÙĦÙĨØ§": 3726,
      "ĠØ§ÙĦØ¥ÙĨØ³": 3727,
      "ĠÙĪØ§ØªØ®Ø°ÙĪØ§": 3728,
      "ÙĦØŃÙĪØ§": 3729,
      "Ø¨Ø±Ø§Ø±": 3730,
      "ĠØ£Ø±Ø³ÙĦØª": 3731,
      "Ø°ÙĩØ¨ÙĪØ§": 3732,
      "ĠØªÙĤØ±Ø¨": 3733,
      "ĠØªÙĤÙĦØ¨": 3734,
      "ÙĪØ¬ÙĪÙĩ": 3735,
      "ĠØ§ÙĦØ£ÙĨØ«ÙĬ": 3736,
      "ÙĤÙĬÙħÙĪÙĨ": 3737,
      "Ø·Ø¹ÙĨ": 3738,
      "ĠÙģØ¨ÙħØ§": 3739,
      "ĠÙģØ¨Ø´Ø±": 3740,
      "ĠÙĬØ¤ÙģÙĥÙĪÙĨ": 3741,
      "ĠÙĬØ¤ØªÙĬÙĩ": 3742,
      "ĠØªØ®Ø´": 3743,
      "ĠØªØ®ØªÙĦÙģÙĪÙĨ": 3744,
      "ĠØ±ØŃÙħØª": 3745,
      "ĠÙĬÙĤØ¨ÙĦ": 3746,
      "ĠÙħØ³ØªÙĤØ±": 3747,
      "ĠØ°ÙĥØ±Ùī": 3748,
      "ĠØ£ØªØ±": 3749,
      "ĠØªØ¯Ø®ÙĦÙĪØ§": 3750,
      "ÙĦÙħØ§ØªÙĩ": 3751,
      "ĠØ¨ÙĬØ¶Ø§Ø¡": 3752,
      "ĠÙĬØµØ¯ÙĪÙĨ": 3753,
      "ĠÙĨØ³Ø§Ø¡": 3754,
      "ĠØ§ÙĦØ·Ø¹Ø§Ùħ": 3755,
      "ĠØ§ÙĦØ·Ø§ØºÙĪØª": 3756,
      "ĠÙĬØºØ´Ùī": 3757,
      "ĠÙĪØŃØ¯Ùĩ": 3758,
      "Ø·Ø§Ø¹": 3759,
      "ĠØ¬Ø¹ÙĦÙĥÙħ": 3760,
      "ĠØ£ÙĬØ¯ÙĬ": 3761,
      "ÙĤØ±Ø§Ø¡": 3762,
      "Ø§Ø¤Ùĩ": 3763,
      "ĠØŃÙħÙĬØ¯": 3764,
      "ĠÙĨØ¹ÙħØªÙĬ": 3765,
      "ĠÙĬÙħÙĪØª": 3766,
      "ĠÙĬÙħÙĥØ±ÙĪÙĨ": 3767,
      "ĠÙĬÙħØ´ÙĬ": 3768,
      "ĠÙģØ§ÙĨØª": 3769,
      "ĠØŃØ±ÙħÙĨØ§": 3770,
      "ĠØ£ÙĤÙĦ": 3771,
      "Ø·Ø±ÙĨØ§": 3772,
      "ĠØ±Ø²ÙĤÙĩÙħ": 3773,
      "ĠÙģØ§ÙĦÙĦÙĩ": 3774,
      "ĠÙģØ£ÙĨØ¬ÙĬÙĨØ§Ùĩ": 3775,
      "ĠØ¨ÙħØ¤ÙħÙĨÙĬÙĨ": 3776,
      "ĠØ¨ÙħØ«ÙĦ": 3777,
      "ĠØªÙģØ¹ÙĦÙĪÙĨ": 3778,
      "ĠÙĨØ¨Ø§Øª": 3779,
      "ĠØ±Ø£ÙĬØª": 3780,
      "ĠÙģÙĪÙĤÙĥÙħ": 3781,
      "ĠØ£Ø²ÙĪØ§Ø¬ÙĥÙħ": 3782,
      "ĠØªØµÙĬØ¨": 3783,
      "ĠØ§ÙĦØ£ÙĪÙĦÙĪÙĨ": 3784,
      "ĠÙĦØ¨ÙĨÙĬ": 3785,
      "ĠÙĬØ®Ø±Ø¬ÙĪØ§": 3786,
      "ĠÙĬØ®Ø±Ø¬ÙĪÙĨ": 3787,
      "ĠØ³ÙĪØ¡Ø§": 3788,
      "ĠØ¶ÙĦØ§ÙĦØ§": 3789,
      "ĠÙĪØ¨ÙĬÙĨÙĩÙħ": 3790,
      "ĠÙģØ§Ø³ÙĤÙĬÙĨ": 3791,
      "ĠÙģØ§Ø³Ø£ÙĦ": 3792,
      "ĠØ³ÙħØ¹ÙĪØ§": 3793,
      "ĠÙħØ¯ÙĥØ±": 3794,
      "ĠÙħØ¯Ø¨Ø±ÙĬÙĨ": 3795,
      "ĠØ¨Ø³ØŃØ±": 3796,
      "ĠÙĪØµÙĬØ©": 3797,
      "ĠØ³Ø¨ÙĤ": 3798,
      "ĠÙĬØ²ÙĬØ¯": 3799,
      "ĠÙĪØ¬ÙĪÙĩÙĥÙħ": 3800,
      "ĠØ£Ø®Ø±Ø¬ÙĨØ§": 3801,
      "Ø²ÙĬÙĨÙĩ": 3802,
      "Ø§ÙĪÙĬØ©": 3803,
      "ÙĪØ¹Ø¸Ø©": 3804,
      "ĠØ¬Ø¦Øª": 3805,
      "ĠØ§ÙĦØµØ¯ÙĤØ§Øª": 3806,
      "ĠØ¨ÙĤÙĪØ©": 3807,
      "ĠØ§ÙĦØ°ÙĥØ±Ùī": 3808,
      "ĠÙģØ¢ÙħÙĨÙĪØ§": 3809,
      "ĠØ¨Ø®ÙĬØ±": 3810,
      "ĠØ¥ÙĬÙħØ§ÙĨÙĩÙħ": 3811,
      "ĠØ¥ÙĬÙħØ§ÙĨÙĥÙħ": 3812,
      "Ø§Ø²ÙĤÙĬÙĨ": 3813,
      "ĠØ£ÙĦÙĤÙī": 3814,
      "Ø®ÙĪØ§ÙĨÙĩÙħ": 3815,
      "Ø§Ø±ÙĥÙĨØ§": 3816,
      "ĠØ²ÙĬÙĨØ©": 3817,
      "ĠÙĬØ¨Ø¯Ø£": 3818,
      "ĠØ¹Ø¨Ø¯Ùĩ": 3819,
      "ĠØ¹Ø¨Ø¯ÙĨØ§": 3820,
      "ĠØ¢ØªØ§ÙĥÙħ": 3821,
      "ĠØ£ÙĪÙĦØ§Ø¯ÙĩÙħ": 3822,
      "ĠØ§ÙĦÙĬÙĤÙĬÙĨ": 3823,
      "ĠÙģÙĬÙĨØ¸Ø±ÙĪØ§": 3824,
      "ĠÙĤØªÙĦÙĪØ§": 3825,
      "ĠØ¨Ø§ÙĦÙħØ¤ÙħÙĨÙĬÙĨ": 3826,
      "ĠÙĪÙĬØ¹Ø°Ø¨": 3827,
      "ĠØ§Ø³Ø¬Ø¯ÙĪØ§": 3828,
      "ĠØ§ÙħØ±Ø£Øª": 3829,
      "ĠØ¨ÙĬÙĪØªÙĥÙħ": 3830,
      "ĠÙħØ§ÙĦÙĩ": 3831,
      "ĠØ¨Ø§ÙĦØ¹Ø°Ø§Ø¨": 3832,
      "ĠÙĬØ£ÙĥÙĦ": 3833,
      "ĠØ§Ø´ØªØ±ÙĪØ§": 3834,
      "ÙĬØ¹Ø§Ø¯": 3835,
      "ĠØ£ØªØ§Ùĥ": 3836,
      "ĠØªØºÙĨÙĬ": 3837,
      "ĠÙĪØ§Ø´Ø±Ø¨ÙĪØ§": 3838,
      "ĠÙħØ¤ÙħÙĨØ©": 3839,
      "ĠØ§ÙĦÙĪØ§ØŃØ¯": 3840,
      "ĠØ¨Ø¬Ùĩ": 3841,
      "ĠØ¥ØŃØ³Ø§ÙĨØ§": 3842,
      "ĠØ±Ø¡ÙĪÙģ": 3843,
      "ĠÙĨØ²ÙĦØ§": 3844,
      "ĠÙĪÙĬØ³Ø£ÙĦÙĪÙĨÙĥ": 3845,
      "ĠÙĪØ£ØµÙĦØŃÙĪØ§": 3846,
      "ØªÙĨØ¨ÙĪØ§": 3847,
      "ĠÙĪØ£ÙħØ±Øª": 3848,
      "ĠØ§ÙĦÙħØªÙĤÙĪÙĨ": 3849,
      "ØªÙħØªØ¹ÙĪØ§": 3850,
      "ĠØ¨Ø¹Ø«ÙĨØ§": 3851,
      "ĠÙĪØ§ÙĦØ£ÙĨØ¹Ø§Ùħ": 3852,
      "ĠØ£Ø¹ÙĬÙĨÙĩÙħ": 3853,
      "ĠÙħÙĪØ§Ø²ÙĬÙĨÙĩ": 3854,
      "ĠÙħØ¬ÙĨÙĪÙĨ": 3855,
      "ĠÙĦØ£ÙĨÙģØ³ÙĥÙħ": 3856,
      "ĠØ§ØµØ·": 3857,
      "ĠÙĪØ§ÙĦØ¬Ø¨Ø§ÙĦ": 3858,
      "ĠØ§ÙĦÙĥØ¨Ø±Ùī": 3859,
      "ĠØ§ÙĦØ¬Ø§ÙĩÙĦÙĬÙĨ": 3860,
      "ĠØ£ÙģØ£ÙĨØª": 3861,
      "ĠÙĪØµØ¯ÙĪØ§": 3862,
      "ĠØ±ÙĤØ¨Ø©": 3863,
      "ĠÙħØ¹Ø±ÙĪÙģØ§": 3864,
      "ĠØ¨Ø¹Ø¨Ø§Ø¯Ùĩ": 3865,
      "ĠØ°ÙĨÙĪØ¨ÙĥÙħ": 3866,
      "ĠÙĪÙĨØ§Ø¯Ùī": 3867,
      "ĠÙģØ£Ø®Ø±Ø¬ÙĨØ§": 3868,
      "ĠØ§Ø¬Øª": 3869,
      "ĠØºØ§ÙģÙĦÙĪÙĨ": 3870,
      "ĠÙĦÙĦØ¥ÙĨØ³Ø§ÙĨ": 3871,
      "ĠØ§ÙĦÙĨØ¬ÙĪÙħ": 3872,
      "ĠÙħØ³ØªÙĤÙĬÙħØ§": 3873,
      "ĠØ§ÙĦØ¶Ø§ÙĦÙĬÙĨ": 3874,
      "ĠØŃÙģÙĬØ¸": 3875,
      "ĠØ®Ø´ÙĬØ©": 3876,
      "ĠØ£ÙħÙĩØ§ØªÙĥÙħ": 3877,
      "ĠÙĬÙĨØ¨ØºÙĬ": 3878,
      "ĠØ±Ø¡ÙĪØ³ÙĩÙħ": 3879,
      "Ø§Ø¹ÙĤØ©": 3880,
      "ĠØ§ÙĦØ±Ø§ØŃÙħÙĬÙĨ": 3881,
      "ĠØ§ÙĦØ¶ÙĦØ§ÙĦØ©": 3882,
      "ĠÙħØ¢Ø¨": 3883,
      "ĠÙĪØ§ÙĦÙħÙĬØ²Ø§ÙĨ": 3884,
      "ĠØµÙĦØ§ØªÙĩÙħ": 3885,
      "ĠÙģØ§Ø·Ø±": 3886,
      "ÙģØ¦Ø¯Ø©": 3887,
      "ĠØ¢Ø«Ø§Ø±ÙĩÙħ": 3888,
      "ĠØ§ÙĦÙħØ´Ø±ÙĤ": 3889,
      "ĠØ¨Ø§ÙĦØ¹Ø¯ÙĦ": 3890,
      "ĠØ²Ø¹ÙħØªÙħ": 3891,
      "ĠØ§ÙĦØ®ÙĦØ¯": 3892,
      "ĠØ§ÙĦØªÙĤÙĪÙī": 3893,
      "ĠÙĪØ£ÙĥØ«Ø±ÙĩÙħ": 3894,
      "ĠØ¨Ø£ÙģÙĪØ§ÙĩÙĩÙħ": 3895,
      "ĠØ§ÙĦÙģØ³Ø§Ø¯": 3896,
      "ĠØ§ÙĦØªÙĪØ§Ø¨": 3897,
      "ĠÙģØ§ØºÙģØ±": 3898,
      "ĠÙĬØ¨ØªØºÙĪÙĨ": 3899,
      "ĠÙĥØ§Ø°Ø¨": 3900,
      "ĠØŃØ¨Ø·Øª": 3901,
      "ĠÙģØ§Ø¹ÙĦÙĬÙĨ": 3902,
      "ĠÙĪÙħÙĦØ¦Ùĩ": 3903,
      "ĠØ§ÙĦØ£ÙĨØ«ÙĬÙĬÙĨ": 3904,
      "ĠØ§Ø±Ùĥ": 3905,
      "ÙĦØºÙĪ": 3906,
      "ÙĨØ¹": 3907,
      "ÙĨØµØ±": 3908,
      "ÙĪØ³Ùģ": 3909,
      "Ø§ÙĦÙĩÙħ": 3910,
      "Ø§ÙĦÙĪØª": 3911,
      "ÙĩÙĬ": 3912,
      "ÙĩÙĦÙĩ": 3913,
      "ÙĩØ±ÙĪÙĨ": 3914,
      "ÙĩÙĦÙĪÙĨ": 3915,
      "ĠØ§ÙĦØ®Ø±": 3916,
      "ĠØ§ÙĦÙĬØª": 3917,
      "ĠØ§ÙĦÙĦÙĩÙħ": 3918,
      "ĠÙĪÙĦÙĬÙħ": 3919,
      "ĠÙĪØ¨Ø¯Ø§": 3920,
      "ĠÙĪØµØ¯ÙĤ": 3921,
      "ĠÙĪØºÙĬØ±": 3922,
      "ØªÙĦÙĪØ§": 3923,
      "Ø¨ÙĪ": 3924,
      "Ø¨ÙĬØ¯": 3925,
      "Ø¨Ø±ÙĬ": 3926,
      "Ø¨ØªÙĪØ§": 3927,
      "Ø¨ÙĪØ©": 3928,
      "ĠÙħØ¶": 3929,
      "ĠÙħØ®Ø±Ø¬": 3930,
      "ĠÙħÙģØª": 3931,
      "ĠÙħØµØ±": 3932,
      "ĠÙħÙĦØª": 3933,
      "ĠÙħØŃØ³ÙĨ": 3934,
      "ĠÙħØªÙĨØ§": 3935,
      "ĠÙħØ±ÙĬØ©": 3936,
      "ĠÙħÙĩØªØ¯ÙĪÙĨ": 3937,
      "ĠÙħØ®ÙĦØµ": 3938,
      "ĠÙħØ·ÙĩØ±": 3939,
      "ĠÙħÙģØ³Ø¯ÙĬÙĨ": 3940,
      "ĠÙħØµØ¯ÙĤ": 3941,
      "ĠÙħÙĬØªØ§": 3942,
      "ĠÙħØ£ÙĪØ§ÙĩÙħ": 3943,
      "Ø¹ÙĨ": 3944,
      "Ø¹ÙĥÙħ": 3945,
      "Ø¹Ø¸": 3946,
      "Ø¹Ø°Ø¨ÙĩÙħ": 3947,
      "ĠØ£ØªÙħ": 3948,
      "ĠØ£Ø³Øª": 3949,
      "ĠØ£Ø±Ùī": 3950,
      "ĠØ£ÙĪØ§Ø¨": 3951,
      "ĠØ£Ø·ÙĬØ¹ÙĪØ§": 3952,
      "Ø¯Ø«": 3953,
      "Ø¯Ø§Ø¯": 3954,
      "Ø¯Ø¹ÙĪÙĨ": 3955,
      "Ø¯ÙĩÙĨ": 3956,
      "Ø¯Ø§Ø¯ÙĪØ§": 3957,
      "ĠÙģÙĪ": 3958,
      "ĠÙģØº": 3959,
      "ĠÙģØ¸": 3960,
      "ĠÙģÙĬÙĨØ§": 3961,
      "ĠÙģØªØ§Ø¨": 3962,
      "ĠÙģÙĨØ³": 3963,
      "ĠÙģØ¬Ø¹ÙĦ": 3964,
      "ĠÙĦØ±": 3965,
      "ĠÙĦØ°": 3966,
      "ĠÙĦÙģ": 3967,
      "ĠÙĦØ°ÙĥØ±": 3968,
      "ĠÙĦØŃÙĥÙħ": 3969,
      "ĠÙĦØ±Ø¡": 3970,
      "ĠÙĦØ´ÙĬØ¡": 3971,
      "ĠÙĦØ¨Ø¦Ø³": 3972,
      "ĠÙĬÙĦ": 3973,
      "ĠÙĬØ®Ø±": 3974,
      "ĠÙĬØ³Ø¨": 3975,
      "ĠÙĬÙĪØ¯": 3976,
      "ĠÙĬÙĦØŃ": 3977,
      "ĠÙĬÙĦØª": 3978,
      "ĠÙĬØ¸ÙĦÙħ": 3979,
      "ĠÙĬÙĩØª": 3980,
      "ĠÙĬØ¬Ø¯ÙĪØ§": 3981,
      "ĠÙĬÙĤØªÙĦ": 3982,
      "ÙĤÙħ": 3983,
      "ÙĤÙĬØ§": 3984,
      "ÙĤØ¨Ø©": 3985,
      "ÙĤÙĨØ§Ùĩ": 3986,
      "Ø°Ùģ": 3987,
      "ÙĬÙĨÙĩÙħ": 3988,
      "ĠØ¨Ø¸": 3989,
      "ĠØ¨ÙĬØ¯": 3990,
      "ĠØ¨ÙĦØ§Ø¡": 3991,
      "ĠØ¨ÙĬÙĪÙħ": 3992,
      "ĠØ¨ÙĬØ¯Ùĩ": 3993,
      "ĠØ¨ÙĪØ§ÙĦØ¯": 3994,
      "ĠØ¨ÙĪÙĥÙĬÙĦ": 3995,
      "ĠØ¨Ø§Ø±ÙĥÙĨØ§": 3996,
      "ÙģØ¯": 3997,
      "ÙģØ§Ø¡": 3998,
      "ÙģÙĬÙĨØ§": 3999,
      "ÙģÙĤØ§": 4000,
      "ÙģÙĦØ©": 4001,
      "ØŃÙĩØ§": 4002,
      "ØŃØ´Ø±": 4003,
      "ØŃÙĥÙĪÙĨ": 4004,
      "ØŃØ§Ùħ": 4005,
      "ØŃØ¨ÙĪÙĨ": 4006,
      "ØŃØ¨Ø·": 4007,
      "Ø£ÙĨØ§": 4008,
      "Ø£ÙĦÙĩÙħ": 4009,
      "Ø£ØªÙĬÙĨ": 4010,
      "ĠÙħÙĨØ°Ø±": 4011,
      "ĠÙħÙĨÙĥØ±ÙĪÙĨ": 4012,
      "ĠÙħÙĨØ§ÙģØ¹": 4013,
      "ĠØ¹ÙĤØ¯": 4014,
      "ĠØ¹Ø§Ùĥ": 4015,
      "ĠØ¹Ø±Ø´": 4016,
      "ĠØ¹ÙĤØ¨": 4017,
      "ÙħØ§Ø¦": 4018,
      "ĠØªÙĨØ§": 4019,
      "ĠØªØŃÙħ": 4020,
      "ĠØªØ¤ÙħÙĨÙĪÙĨ": 4021,
      "ĠØªÙģÙĬ": 4022,
      "ĠØªÙĦØ¨": 4023,
      "ĠØªØµØ¯": 4024,
      "ĠØªØ¶Ø±": 4025,
      "ĠØªØ¸ÙĦÙħÙĪÙĨ": 4026,
      "ĠØªØ·ÙĬØ¹ÙĪØ§": 4027,
      "Ø¬ÙĬ": 4028,
      "Ø¬ÙħØ¹": 4029,
      "Ø¬ÙĨÙĪÙĨ": 4030,
      "ĠÙĥÙģÙĪØ±": 4031,
      "ĠÙĥÙĦÙĩØ§": 4032,
      "ĠÙĥÙģÙī": 4033,
      "ĠÙĥØ§Ø´": 4034,
      "ĠÙĤØ§": 4035,
      "ĠÙĤÙĪØ§": 4036,
      "ĠÙĤØ¶": 4037,
      "ĠÙĤØ±Ø¨": 4038,
      "ĠÙĤÙħÙĬ": 4039,
      "ĠÙĤØ§Øµ": 4040,
      "ĠÙĤØ§Ùħ": 4041,
      "Ø§Ø¸": 4042,
      "ÙĦÙĬÙĥ": 4043,
      "ÙĦÙĬØª": 4044,
      "ÙħÙĨÙĥÙħ": 4045,
      "Ø®Ø§": 4046,
      "ØµÙĩ": 4047,
      "ØµÙĬÙĨØ§": 4048,
      "ĠØ±Ùĩ": 4049,
      "ĠØ±ÙģØ¹": 4050,
      "ĠØ¥ÙĨÙĨØ§": 4051,
      "Ø²Ø¹ÙĪÙĨ": 4052,
      "Ø´ÙĬØ§": 4053,
      "ĠØ£ÙĨÙĩØ§": 4054,
      "ĠÙĪØ§ÙĦØ±": 4055,
      "ĠÙĪØ§ÙĦÙħÙĨ": 4056,
      "ĠÙĪØ§ÙĦØ²": 4057,
      "ĠÙĪØ§ÙĦØ¹Ø§": 4058,
      "ĠÙĪØ§ÙĦØ¶Ø±": 4059,
      "ĠÙĪØ§ÙĦØ¹Ø¯ÙĪØ§": 4060,
      "ĠÙĨØªÙĦ": 4061,
      "ĠÙĨØ¹Ø¬": 4062,
      "ĠÙĨÙĨØ¬": 4063,
      "ĠÙĨØ¹ÙĬÙħ": 4064,
      "ĠÙĨÙĩÙĪØ§": 4065,
      "ĠÙĨØµØ§Ø±Ùī": 4066,
      "ĠÙĨØ¹Ø¯ÙĩÙħ": 4067,
      "ÙĦÙħÙĩÙħ": 4068,
      "ĠØ³ÙĬØ±": 4069,
      "ĠØ³ÙĬØ±ÙĪØ§": 4070,
      "ĠØ³Ø§Ø¬Ø¯ÙĬÙĨ": 4071,
      "Ø¦ØªÙĨØ§": 4072,
      "ĠØ¢ÙĨ": 4073,
      "ÙĪÙĦÙĪÙĨ": 4074,
      "ĠÙĪØ£ÙĪÙĦ": 4075,
      "ĠÙĪØ£Ø¨ØµØ§Ø±": 4076,
      "ĠÙĪØ£Ø³Ø±ÙĪØ§": 4077,
      "ĠÙĪØ£Ø±Ø³ÙĦÙĨØ§": 4078,
      "ĠÙĪØ£ÙĪÙģÙĪØ§": 4079,
      "ĠØ§ÙĦÙħÙĥ": 4080,
      "ĠØ§ÙĦÙħØ¯": 4081,
      "ĠØ§ÙĦÙħØŃØ±": 4082,
      "ĠØ§ÙĦÙħØªÙĥ": 4083,
      "ĠØ§ÙĦÙħÙĩØ§Ø¯": 4084,
      "ĠØ§ÙĦÙħÙĬØ¹Ø§Ø¯": 4085,
      "ĠØŃÙĦ": 4086,
      "ĠØŃÙĬØ§": 4087,
      "ĠØŃØ³ÙĨ": 4088,
      "ĠØŃÙĤØª": 4089,
      "ĠØŃØ¨Ø©": 4090,
      "ĠØŃØ§Ø´": 4091,
      "ØºÙĨÙī": 4092,
      "ØºØ¶Ø§Ø¡": 4093,
      "ĠØ¬Ø¯": 4094,
      "ĠØ¬ÙĨØª": 4095,
      "ĠØ¬Ø§ÙĩØ¯": 4096,
      "ĠØ¬Ø¨Ø§Ø±": 4097,
      "ĠØ¬Ø§ÙĩØ¯ÙĪØ§": 4098,
      "ĠØ¬Ø±Ùħ": 4099,
      "ĠØ¬Ø¹ÙĦÙĩ": 4100,
      "ĠØ®Ø±": 4101,
      "ĠØ®ÙħØ³": 4102,
      "ĠØ®Ø·ÙĬ": 4103,
      "ĠØ®Ø·Ø§": 4104,
      "ĠØ®Ø§Ø³Ø±ÙĬÙĨ": 4105,
      "ĠØ®Ø§ÙĪÙĬØ©": 4106,
      "ÙĬÙħØ©": 4107,
      "ĠØ´Ø±Ø¨": 4108,
      "ĠØ´ÙģØ¹": 4109,
      "ĠØ´Ø·Ø±": 4110,
      "ĠØ´ÙĩØ§Ø¯Ø©": 4111,
      "ĠØ´ÙģÙĬØ¹": 4112,
      "ĠØ§ÙĦØ£ØŃ": 4113,
      "ĠØ§ÙĦØ£Ø´": 4114,
      "ĠØ§ÙĦØ£Ø®Ø±": 4115,
      "ĠØ§ÙĦØ£Ø¯Ø¨Ø§Ø±": 4116,
      "ĠØ§ÙĦØ£Ø±Ø§Ø¦": 4117,
      "ĠØ§ÙĦØ£Ø¨Ø±Ø§Ø±": 4118,
      "ĠÙĪØ¥ÙĦÙĩ": 4119,
      "ĠÙĪÙĦØ³": 4120,
      "ĠÙĪÙĦÙĤ": 4121,
      "ĠÙĪÙĦÙħÙĨ": 4122,
      "ĠÙĪÙĦÙĦÙħ": 4123,
      "ĠÙĪÙĦØŃÙħ": 4124,
      "ĠÙĪÙĦÙĦÙĥØ§ÙģØ±ÙĬÙĨ": 4125,
      "Ø±Ø¶ÙĬÙĨ": 4126,
      "Ø¤Ø§Ø¯": 4127,
      "ĠØ¨Ø§ÙĦÙĨ": 4128,
      "ĠØ¨Ø§ÙĦØ´": 4129,
      "ĠØ¨Ø§ÙĦÙĤÙĪÙĦ": 4130,
      "ĠØ¨Ø§ÙĦØ³ÙĬ": 4131,
      "ĠØ¨Ø§ÙĦØ¸Ø§ÙĦÙħÙĬÙĨ": 4132,
      "ĠØ£ÙĪØ²": 4133,
      "ĠØ§ÙĦØ³Ø¨Øª": 4134,
      "ĠØ§ÙĦØ³ÙĦØ§Ùħ": 4135,
      "ĠØ§ÙĦØ³Ø§Ø¬Ø¯ÙĬÙĨ": 4136,
      "ĠØ§ÙĦØ³ÙģÙĩ": 4137,
      "Ø±ÙĪÙĨÙĬ": 4138,
      "ĠÙĪÙĬØ®Ø±Ø¬": 4139,
      "ĠÙĪÙĬÙĦØ¹": 4140,
      "ĠÙĪÙĬÙĤØªÙĦÙĪÙĨ": 4141,
      "ĠØ§ÙĦØ±ÙĪØŃ": 4142,
      "ĠØ§ÙĦØ±Ø§Ø²ÙĤÙĬÙĨ": 4143,
      "Ø§Ø¯ÙĦ": 4144,
      "Ø§Ø¯ÙĪÙĨ": 4145,
      "Ø§Ø¯Ø±ÙĪÙĨ": 4146,
      "Ø§Ø¯ÙĬØ«": 4147,
      "ĠØ«ÙħØ§": 4148,
      "ĠÙĤÙĦØª": 4149,
      "ĠÙĤÙĦØ¨Ùĩ": 4150,
      "Ø§Ø±Ø¬": 4151,
      "Ø§Ø±Ø¹Ø©": 4152,
      "ĠØ£ÙħÙĦÙĥ": 4153,
      "ĠØ§ÙĦØŃØ§ÙĥÙħ": 4154,
      "ĠØ§ÙĦØŃØ±ÙĬÙĤ": 4155,
      "ĠØ¯Ø§Ø®": 4156,
      "ĠÙģØ£ÙĪØŃ": 4157,
      "ĠÙģØ£Ø±Ø³ÙĦ": 4158,
      "ĠÙģØ£ØŃÙĬØ§": 4159,
      "ÙĦÙĤÙĬ": 4160,
      "ĠÙĪÙĤØ¹": 4161,
      "ĠÙĪÙĤØ±Ø§": 4162,
      "ĠÙĪÙĤØ¶ÙĬ": 4163,
      "ĠÙĪÙĤØ§ØªÙĦÙĪØ§": 4164,
      "ÙĥØ±ÙĩÙĪØ§": 4165,
      "ĠØµÙĦ": 4166,
      "ĠØµØ¨": 4167,
      "ĠØµØ¹": 4168,
      "ÙĬÙĨØ§ÙĩØ§": 4169,
      "ĠØ§ÙĦÙĤÙħØ±": 4170,
      "ĠØ§ÙĦÙĤØªÙĦ": 4171,
      "ĠØ§ÙĦÙĤØ¨ÙĪØ±": 4172,
      "ĠÙĦÙĬÙĦØ§": 4173,
      "ĠÙĦÙĬØ¹ÙĦÙħ": 4174,
      "ĠÙĦÙĬØ¶ÙĦ": 4175,
      "ĠÙĦÙĬØºÙģØ±": 4176,
      "ĠÙĦÙĬØŃÙĥÙħ": 4177,
      "ĠØ§Ø°ÙĩØ¨": 4178,
      "ĠØ§ÙĩØ¨Ø·": 4179,
      "ĠÙĪÙĥÙĦÙĪØ§": 4180,
      "ĠÙĪÙĥÙĬÙĦ": 4181,
      "ĠÙĪÙĥÙĬÙģ": 4182,
      "ĠÙĪÙĥØªØ¨": 4183,
      "Ø¨ÙĬØ§Ø¡": 4184,
      "Ø°Ø¨Ùĩ": 4185,
      "ÙĤØ¯ÙħÙĪÙĨ": 4186,
      "ĠØºÙĦ": 4187,
      "ĠØºÙģÙĦØ©": 4188,
      "Ø´Ø±Ùī": 4189,
      "ÙĦÙĨØ§Ùĩ": 4190,
      "ĠÙĬÙĪÙħÙĩÙħ": 4191,
      "ĠÙĬÙĪÙħÙĥÙħ": 4192,
      "Ø§Ø¦Ùĩ": 4193,
      "Ø§Ø¦ÙĤ": 4194,
      "ĠÙĪØ¬Ø¦": 4195,
      "Ø¨Ø¹ÙĬØ¯": 4196,
      "ÙĤÙĪÙĦÙĪØ§": 4197,
      "ĠÙĦÙħØ¨Ø¹ÙĪØ«ÙĪÙĨ": 4198,
      "ĠÙħØ¹Ø§": 4199,
      "ĠÙħØ¹Ø±Ø¶ÙĬÙĨ": 4200,
      "ĠÙĪØ§ÙĤ": 4201,
      "ĠÙĬØªÙĪÙĥÙĦÙĪÙĨ": 4202,
      "ÙĪØ¨Ø§": 4203,
      "ĠØ£ÙĬÙħØ§ÙĨ": 4204,
      "ĠÙĬÙĨÙĤ": 4205,
      "ĠÙĬÙĨØ²": 4206,
      "ĠÙĬÙĨÙĤÙĦØ¨": 4207,
      "ĠÙĬÙĨÙģÙĤ": 4208,
      "ĠÙĦÙĦØ³": 4209,
      "ĠÙĦÙĦØ·": 4210,
      "ĠÙĦÙĦØ°ÙĥØ±": 4211,
      "ĠÙĪØªÙĨ": 4212,
      "ĠÙĪØªØ³": 4213,
      "ĠÙĪØªØ®": 4214,
      "ĠÙĪØªØµ": 4215,
      "ĠÙĤØ¯Ùħ": 4216,
      "ĠÙĤØ¯Ø±Ùĩ": 4217,
      "ĠÙĬØŃÙĦ": 4218,
      "ĠÙĬØŃÙĦÙĪÙĨ": 4219,
      "ĠÙĬØŃÙħÙĦ": 4220,
      "ĠÙĬØŃØ´Ø±ÙĩÙħ": 4221,
      "ĠÙĬØŃÙĦÙģÙĪÙĨ": 4222,
      "ĠÙħÙĪÙĤ": 4223,
      "ĠÙħÙĪØ¯Ø©": 4224,
      "ĠÙĬØ±Ø¬Ø¹": 4225,
      "ĠØ¬Ø§Ø¡ÙĪÙĥ": 4226,
      "ĠØ¬Ø§Ø¡ØªÙĥÙħ": 4227,
      "ØŃÙħÙĨØ§": 4228,
      "Ø³Ø¨Ø§Ø·": 4229,
      "ĠÙĬØ´ØªÙĩÙĪÙĨ": 4230,
      "ĠÙģØ§ØŃ": 4231,
      "ĠÙģØ§ØŃÙĥÙħ": 4232,
      "ĠØ§ÙĦØ¯Ø¹Ø§Ø¡": 4233,
      "ĠÙģÙĦÙĬÙĨ": 4234,
      "ĠÙĤÙĪÙħÙĬ": 4235,
      "ĠØ£ØŃÙĬØ§": 4236,
      "ÙĤØ§ÙĩÙħ": 4237,
      "ĠØªØ±ÙĬØ¯ÙĪÙĨ": 4238,
      "ĠÙĪØ£ÙĨÙĩÙħ": 4239,
      "ĠØ·ØºÙĬ": 4240,
      "Ø²ÙĬØªÙĪÙĨ": 4241,
      "ĠØ®ÙĦÙĤÙĪØ§": 4242,
      "ÙĪØ¯ÙĬ": 4243,
      "ÙĪØ¯ÙĪÙĨ": 4244,
      "ĠØ¨Ø£ØŃØ³ÙĨ": 4245,
      "ĠÙĬØ¹ÙĦÙħÙĩ": 4246,
      "ĠÙĬØ¹ÙĦÙħÙĪØ§": 4247,
      "Ø§ÙģÙĦÙĬÙĨ": 4248,
      "ĠÙĬØ£ØªÙĪØ§": 4249,
      "ĠØ¥ÙĨØ§Ø«Ø§": 4250,
      "ĠÙģØªØ±Ùī": 4251,
      "ĠØ±Ø³ÙĦÙĩ": 4252,
      "ĠØ±Ø³Ø§ÙĦØ§Øª": 4253,
      "ĠÙĬÙĥÙģ": 4254,
      "ĠÙĬÙĥØªÙħÙĪÙĨ": 4255,
      "ĠÙĬÙĥØªØ¨ÙĪÙĨ": 4256,
      "ĠØ§ÙĦØ´ÙģØ§Ø¹Ø©": 4257,
      "ĠÙĪØ¹Ø°Ø§Ø¨": 4258,
      "ĠÙĪØ¹Ø¸Ø§ÙħØ§": 4259,
      "ĠÙĦÙĨØŃÙĨ": 4260,
      "ĠÙĦÙĨÙĥÙĪÙĨÙĨ": 4261,
      "ĠÙĬØ¹Øª": 4262,
      "ĠÙĬØ¹ÙĬØ¯": 4263,
      "ĠÙĬØ¹ÙĤÙĪØ¨": 4264,
      "ØªØ§ÙĩÙħ": 4265,
      "ĠØªØŃØµ": 4266,
      "ĠØªØŃØªÙĩÙħ": 4267,
      "ØµØ±ÙĬÙĨ": 4268,
      "ĠØ£Ø¬ÙĦÙĩÙĨ": 4269,
      "ĠØ£Ø¬Ø¦ØªÙĨØ§": 4270,
      "ĠØ²ÙĦ": 4271,
      "ĠØ²ÙĥØ±ÙĬØ§": 4272,
      "ĠÙħØ«ÙĦÙĩØ§": 4273,
      "ĠÙħØ«ÙĦÙĩÙħ": 4274,
      "ĠØ§ÙĦØ®Ø²ÙĬ": 4275,
      "ĠØ§ØªÙĤÙī": 4276,
      "ĠÙĪÙħÙħÙĨ": 4277,
      "ĠÙĪÙħØ«": 4278,
      "ĠÙĪÙħÙĦØ§Ø¦Ùĥ": 4279,
      "ĠÙĪÙħØºÙģØ±Ø©": 4280,
      "ĠÙĪÙħØ£ÙĪØ§": 4281,
      "ĠÙĪÙħÙĪØ³Ùī": 4282,
      "ĠÙĪÙħÙĪØ¹Ø¸Ø©": 4283,
      "ĠÙĬØ¯Ùĥ": 4284,
      "ĠÙĬØ³ØªØ£Ø°ÙĨ": 4285,
      "ĠÙĬØ³ØªØ¬ÙĬØ¨ÙĪØ§": 4286,
      "ĠÙĬØ³ØªØ¨Ø´Ø±ÙĪÙĨ": 4287,
      "ĠÙĬØ³ØªØ£Ø®Ø±ÙĪÙĨ": 4288,
      "ÙģÙĬÙĩ": 4289,
      "ĠØ£ÙĥÙĨ": 4290,
      "ÙĪØŃØ§": 4291,
      "ĠÙĬØ®ÙĪ": 4292,
      "ĠÙĬØ®Ø²ÙĬ": 4293,
      "ĠÙĬØ´Ø§Ø¡ÙĪÙĨ": 4294,
      "ĠØªÙĥØªÙħÙĪÙĨ": 4295,
      "ĠÙĬØ³Ø£": 4296,
      "ĠÙĬØ³Ø£ÙĦ": 4297,
      "ØºÙģØ±ÙĪÙĨ": 4298,
      "ĠÙħØ±ØªÙĬÙĨ": 4299,
      "ĠÙħØ³Ø¦": 4300,
      "ĠØªØ¹Ø¬": 4301,
      "ĠØªØ¹Ø«ÙĪØ§": 4302,
      "ĠØ§Ø³ØªØŃ": 4303,
      "ĠÙĦØªÙĨ": 4304,
      "ĠÙĦØªÙĨØ°Ø±": 4305,
      "ĠØªØ¬Ø¹ÙĦÙĪØ§": 4306,
      "ÙĩØ±Ùĩ": 4307,
      "ĠØªØ£ÙĪÙĬÙĦ": 4308,
      "ĠØªØ£ÙħØ±ÙĪÙĨ": 4309,
      "ĠØªØ£ÙĪÙĬÙĦÙĩ": 4310,
      "ĠÙĪØ§ØªÙĦ": 4311,
      "ĠÙĪØ§ØªØ®Ø°": 4312,
      "ĠÙĬØ¬ÙħØ¹": 4313,
      "ĠÙĪØ§ÙĦÙħØ¤": 4314,
      "ĠÙĪØ§ÙĦÙħÙĨØ§Ùģ": 4315,
      "ĠÙĪØ§ÙĦÙħØºØ±Ø¨": 4316,
      "ĠØ§ÙĦÙģØ¬Ø±": 4317,
      "Ø¨ØŃÙĬÙĨ": 4318,
      "ĠÙĪØ³ÙĬ": 4319,
      "ĠÙĪØ³ÙĪÙģ": 4320,
      "ĠÙģØ³Ø¬Ø¯ÙĪØ§": 4321,
      "Ø±ÙĥÙĩ": 4322,
      "ĠØªÙĤØ±Ø¨ÙĪØ§": 4323,
      "ÙĪØ¬ÙĩÙħ": 4324,
      "ĠØ§ÙĦØ£ÙĨÙģØ³": 4325,
      "ĠÙĪØ¹Ø¯ÙĨØ§": 4326,
      "Ø§ÙħÙĦÙĬÙĨ": 4327,
      "ĠØªØ¹ÙĦÙħÙĪØ§": 4328,
      "Ø¸ÙĦÙħÙĪØ§": 4329,
      "ĠØ£ÙĨØ§Ø³": 4330,
      "ĠØ±Ø¬ÙĦÙĬÙĨ": 4331,
      "ĠØ¹ÙħÙĦØª": 4332,
      "ĠÙĥØªØ§Ø¨Ùĩ": 4333,
      "ĠØµØ¯ÙĤÙĪØ§": 4334,
      "ĠÙĬØ¤Ø®Ø±": 4335,
      "ĠØªØ®Ø§ÙģÙĪÙĨ": 4336,
      "ĠÙĬÙĤÙĪÙħ": 4337,
      "ĠÙĬÙĤØ§ØªÙĦÙĪÙĥÙħ": 4338,
      "ĠÙĬÙģØµÙĦ": 4339,
      "ĠØ¨ÙĥÙģØ±": 4340,
      "ĠØ¨ÙĥØªØ§Ø¨": 4341,
      "ĠØ°ÙĥØ±ÙĬ": 4342,
      "ĠÙĦØ¹ÙĨÙĩÙħ": 4343,
      "ĠÙĦØ¹Ø¨Ø±Ø©": 4344,
      "ĠØ£Ø±Ø¯ÙĨØ§": 4345,
      "ĠØ£Ø±ØŃØ§Ùħ": 4346,
      "ĠÙĬØµÙĨØ¹ÙĪÙĨ": 4347,
      "ĠÙĨØ³Ø§Ø¦ÙĥÙħ": 4348,
      "ĠØ§ÙĦØ·ÙĬØ¨": 4349,
      "ĠØ£Ø´ÙĩØ±": 4350,
      "ĠØ§Ø¨Øª": 4351,
      "Ø±ÙĬÙĨÙĥ": 4352,
      "ĠÙĪØŃÙĬÙĨ": 4353,
      "Ø·Ø§Ø¹ÙĪØ§": 4354,
      "ĠÙĪØ§ØŃØ¯Ø§": 4355,
      "ĠØªØ³Ø£ÙĦÙĪÙĨ": 4356,
      "Ø§ÙĩØ±ÙĪÙĨ": 4357,
      "ĠÙĪØ§ÙĦÙĨØ¬": 4358,
      "ĠÙĪØ§ÙĦÙĨØ¨ÙĬ": 4359,
      "ĠÙĪØ§ÙĦÙĨØµØ§Ø±Ùī": 4360,
      "ĠØŃÙħÙĦÙĨØ§": 4361,
      "ĠØ£Ø¯Ø¨Ø§Ø±": 4362,
      "ĠÙģØ¶ÙĦÙĨØ§": 4363,
      "ĠÙĨØ¹ÙħÙĦ": 4364,
      "ĠÙĬÙħØ´ÙĪÙĨ": 4365,
      "ĠÙģØ§ÙĨØ¸Ø±ÙĪØ§": 4366,
      "ĠØ£Ø¹ÙħÙī": 4367,
      "ĠÙĬØ¨Ø®": 4368,
      "ĠÙĬØ¨ØºÙĪÙĨ": 4369,
      "ĠÙĪØ¬Ø¹ÙĦÙĨØ§ÙĩÙħ": 4370,
      "ĠÙĪØ²ÙĪØ¬": 4371,
      "ĠØ¢Ø¨Ø§Ø¦": 4372,
      "ĠØ¢Ø¨Ø§Ø¤ÙĥÙħ": 4373,
      "ĠØ¢ØªÙĬÙĨØ§Ùĩ": 4374,
      "ĠÙģØ§ÙĦÙħ": 4375,
      "ĠÙĥØ±ÙĩØ§": 4376,
      "ĠØ¬Ø²Ø§Ø¤ÙĩÙħ": 4377,
      "ĠÙĥØ§ÙĦØ°ÙĬ": 4378,
      "ĠØ§ÙĦØŃÙħÙĬÙħ": 4379,
      "ĠÙģØ§Ø³ØªØ¹": 4380,
      "ĠÙģØ§Ø³ØªØ¬": 4381,
      "ĠÙģØ§Ø³ØªÙĥØ¨Ø±ÙĪØ§": 4382,
      "ĠÙģØ§ØªØ®Ø°": 4383,
      "Ø§Ø¬ÙĪÙĨ": 4384,
      "ĠØ£Ø²ÙĪØ§Ø¬ÙĩÙħ": 4385,
      "ĠØªØµØ¨Ø±ÙĪØ§": 4386,
      "ĠØªØµØ¨ÙĩÙħ": 4387,
      "ĠØµØ±Ø§Ø·Ø§": 4388,
      "ĠÙĦØ¢Ø¯Ùħ": 4389,
      "ĠØ£ØŃØ³ÙĨÙĪØ§": 4390,
      "ĠÙĨÙģØµÙĦ": 4391,
      "ĠÙĪØ§Ø³ØªÙĥØ¨Ø±": 4392,
      "ĠØ£Ø´Ø¯Ùĩ": 4393,
      "ĠÙĪØ¨ÙĬÙĨÙĥ": 4394,
      "ĠÙģØ¹Ø³Ùī": 4395,
      "ĠÙģØ¹ÙĤØ±": 4396,
      "ĠÙĬØŃÙĬÙī": 4397,
      "ĠÙĬØŃÙĬÙĬÙĥÙħ": 4398,
      "Ø¨Ø·ÙĦÙĪÙĨ": 4399,
      "ĠÙĪØ§ÙĦÙĤØ±Ø¢ÙĨ": 4400,
      "ĠØ´Ø±ÙĥØ§Ø¦ÙĬ": 4401,
      "ĠÙģÙĨØ¹Ùħ": 4402,
      "ĠÙģÙĨØ¨Ø°": 4403,
      "ĠØ¨Ø³ÙĬÙħØ§ÙĩÙħ": 4404,
      "ĠÙĨÙĥÙĬØ±": 4405,
      "ĠÙħØµØ¨ØŃÙĬÙĨ": 4406,
      "ĠÙģÙĩÙĬ": 4407,
      "ĠÙĦØ¯ÙĬÙĨØ§": 4408,
      "ĠØ¨Ø±Ø¨Ùĥ": 4409,
      "ĠØ¨Ø±Ø¨ÙĥÙħ": 4410,
      "ĠÙħØŃØ¶Ø±ÙĪÙĨ": 4411,
      "ĠØ£Ø®Ø±Ø¬ÙĪØ§": 4412,
      "ØªÙĤÙħÙĨØ§": 4413,
      "ĠÙģØ±ÙĬØ¶Ø©": 4414,
      "ĠÙĥÙĦÙħØª": 4415,
      "ĠØ¢ÙĦÙĩØªÙĨØ§": 4416,
      "ĠÙģØ¬Ø§Ø¡": 4417,
      "ĠÙģØ¹ÙĦÙĪÙĩ": 4418,
      "ĠØ£Ø¥ÙĦÙĩ": 4419,
      "Ø§Ø¶ÙĬØ©": 4420,
      "ĠØ¨Ø£ÙĨÙģØ³ÙĩÙħ": 4421,
      "ĠØ£ØµØ§Ø¨ÙĩÙħ": 4422,
      "ÙĩØ²Ø¦": 4423,
      "ĠÙħØ±Ø¶Ø§Øª": 4424,
      "ĠÙĪØ§ÙĦØ¨ØµÙĬØ±": 4425,
      "ĠØ¬ÙĨØ¯": 4426,
      "ĠØ§ÙĦÙģØ§ØŃØ´Ø©": 4427,
      "ÙĥÙģØ±ÙĪÙĨ": 4428,
      "ĠØ¨ØµØ§Ø¦Ø±": 4429,
      "ØŃØ§ÙĩØ§": 4430,
      "ĠØªÙħÙĦÙĥ": 4431,
      "ĠØªÙħÙĪØª": 4432,
      "ĠÙĩØ§Ø¬Ø±ÙĪØ§": 4433,
      "ĠÙĪÙĬÙĨØ²ÙĦ": 4434,
      "ĠÙĪØ§Ø¨ØªØº": 4435,
      "Ø¹ÙĨØ§Ø¨": 4436,
      "ĠÙģØ¢Øª": 4437,
      "ĠÙĥØ£ÙĨÙĩ": 4438,
      "ĠÙĪÙĪØ¬Ø¯": 4439,
      "Ø®ÙĪØ§ÙĨÙĥÙħ": 4440,
      "ĠÙĪØ£ÙħÙĪØ§ÙĦ": 4441,
      "ĠÙĪØ£ÙħØ·Ø±ÙĨØ§": 4442,
      "Ø§ØŃØ¨": 4443,
      "ĠØŃØ¬Ø§Ø±Ø©": 4444,
      "ĠØ£ÙĪØªÙĬØªÙħ": 4445,
      "ĠÙĦÙĦØ¹Ø¨ÙĬØ¯": 4446,
      "ĠÙħÙĥØ±ÙĩÙħ": 4447,
      "ĠÙĬØ¨Ø¯ÙĦ": 4448,
      "ĠÙĤØ±ÙĨ": 4449,
      "ĠØ§ÙĦØ³ÙĬØ¦Ø©": 4450,
      "ĠÙĬØ®ÙĦÙĤÙĪÙĨ": 4451,
      "ĠØ³ÙĬØ¦Ø§ØªÙĥÙħ": 4452,
      "ĠØ§ÙĦÙĬØªØ§ÙħÙī": 4453,
      "ĠÙĪØ§ØµØ·": 4454,
      "ĠÙĬÙħØ³Ùĥ": 4455,
      "ĠØ§ÙħØ±Ø£ØªÙĩ": 4456,
      "ĠÙĬØŃØ²ÙĨÙĥ": 4457,
      "ÙĤØªÙĦÙĪÙĩÙħ": 4458,
      "ĠØ£Ø«ÙĬÙħ": 4459,
      "ĠØ¨Ø§ÙĦØ¹Ø¨Ø§Ø¯": 4460,
      "ĠØ§Ø³ÙħÙĩ": 4461,
      "ĠØ¨ÙĦØºØª": 4462,
      "ĠÙħØ´ÙģÙĤÙĪÙĨ": 4463,
      "ĠØ£ØªØ§ÙĩÙħ": 4464,
      "ĠÙĤØ§Ø¦ÙħØ©": 4465,
      "ØºÙĪÙĨÙĩØ§": 4466,
      "ĠÙĪØ¨Ø´Ø±Ùī": 4467,
      "ĠÙģÙĥØ§ÙĨØª": 4468,
      "ĠÙģÙĥØ§ÙĨÙĪØ§": 4469,
      "ĠÙĪØ§Ø´ÙĥØ±ÙĪØ§": 4470,
      "ĠÙĬÙĩØ¯ÙĪÙĨ": 4471,
      "ĠÙĥÙĨØ²": 4472,
      "ĠÙĩØ¯Ø§ÙĨØ§": 4473,
      "Ø±Ø¨ØµÙĪØ§": 4474,
      "ĠØŃØ³Ø§Ø¨ÙĩÙħ": 4475,
      "ĠÙĪÙģØ±Ø¹ÙĪÙĨ": 4476,
      "ĠØ£Ø¹Ø¯Ø§Ø¡": 4477,
      "ĠÙĦØ±Ø¨ÙĩÙħ": 4478,
      "ĠÙĬØ¸ÙĨÙĪÙĨ": 4479,
      "ĠØ¥ØŃØ¯Ø§ÙĩÙħØ§": 4480,
      "ĠØªØ¨Ø¯ÙĬÙĦØ§": 4481,
      "ĠØªØ®Ø±Ø¬ÙĪÙĨ": 4482,
      "ĠØ³Ø±Ø±": 4483,
      "ĠØ®Ø·ÙĪØ§Øª": 4484,
      "ĠØ¸ÙĨÙĨØªÙħ": 4485,
      "ĠØ¸ÙĩÙĪØ±ÙĩÙħ": 4486,
      "ĠÙħØ±Ø¬Ø¹ÙĩÙħ": 4487,
      "ĠØ§ÙĦØ¨ÙĦØ§Ø¯": 4488,
      "ĠØ§Ø¦ØªÙĪÙĨÙĬ": 4489,
      "ĠØ´Ø¦Øª": 4490,
      "ĠØ´Ø¦ÙĨØ§": 4491,
      "ĠØ´Ø¦ØªÙħ": 4492,
      "ĠØ£Ø¨ÙĨØ§Ø¡ÙĩÙħ": 4493,
      "ĠØŃØ¯ÙĬØ«Ø§": 4494,
      "ĠØ§ÙĦØ¢ÙĨ": 4495,
      "ĠÙħØŃÙĬØµ": 4496,
      "ĠÙģØ§Ø¯Ø¹": 4497,
      "ĠÙĬØ¹Ø¯ÙĥÙħ": 4498,
      "ĠÙĬØ¹Ø¯ÙĦÙĪÙĨ": 4499,
      "ĠØ£ÙĨØ´Ø£ÙĥÙħ": 4500,
      "ĠØ§ÙĦÙħØ³ØªÙĤÙĬÙħ": 4501,
      "ĠÙĪÙĦØ¹Ø°Ø§Ø¨": 4502,
      "ĠÙĪØ±Ø¶ÙĪØ§ÙĨ": 4503,
      "ĠÙģØ§Ø®ØªÙĦÙģ": 4504,
      "ĠÙģØ§Ø¹Ø¨Ø¯ÙĪÙĩ": 4505,
      "ĠÙĬØ¬Ø§Ø¯ÙĦ": 4506,
      "ĠÙĬÙĨØ§Ø¯": 4507,
      "ĠÙĤØµØµ": 4508,
      "ĠØ±Ø§ÙĪØ¯": 4509,
      "ĠÙĪØ§ÙĦØ·ÙĬØ±": 4510,
      "ĠØ®Ø°ÙĪØ§": 4511,
      "ĠØ§ÙĦØŃÙĥÙħØ©": 4512,
      "ĠØºØ±ÙĪØ±Ø§": 4513,
      "ĠÙģØ¬Ø¹ÙĦÙĨØ§ÙĩÙħ": 4514,
      "ĠØ¹Ø´Ø±Ø©": 4515,
      "ĠØ®Ø±Ø¬ÙĪØ§": 4516,
      "ĠØ¨Ø§ÙĦØ¥Ø«Ùħ": 4517,
      "ĠØ¨Ø§ÙĦØ¥ÙĬÙħØ§ÙĨ": 4518,
      "ĠÙĪÙĬØ¤ØªÙĪÙĨ": 4519,
      "ĠÙħÙĪÙĦØ§ÙĥÙħ": 4520,
      "ĠÙĬØ£ÙħØ±ÙĥÙħ": 4521,
      "ĠÙĪØ¢Ø¨Ø§Ø¤ÙĥÙħ": 4522,
      "ĠÙĪØ³Ø¹ÙĩØ§": 4523,
      "ĠÙĬÙģØ³ÙĤÙĪÙĨ": 4524,
      "ĠÙĪØ§ÙĦÙĨØ§Ø³": 4525,
      "ĠØ³ÙĪØ¢": 4526,
      "ĠØ³ÙħØ§ÙĪØ§Øª": 4527,
      "ĠØ¬Ø§ÙĨØ¨": 4528,
      "ĠØ®Ø§Ø´Ø¹Ø©": 4529,
      "ĠÙĬØ±Ø²ÙĤÙĥÙħ": 4530,
      "ĠØªØŃØ³Ø¨ÙĨ": 4531,
      "ĠØ£Ø¦ÙħØ©": 4532,
      "ĠØ¥Ø®ÙĪØ§ÙĨ": 4533,
      "ĠÙĥØ³ÙģØ§": 4534,
      "ĠÙĪØ±ÙģØ¹ÙĨØ§": 4535,
      "ĠØ§ÙĦØºØ§ÙĦØ¨ÙĪÙĨ": 4536,
      "ĠØ§ÙĦØºØ±ÙĪØ±": 4537,
      "ĠØ§Ø³ØªØ·Ø¹ØªÙħ": 4538,
      "ĠØ§Ø¶Ø·Ø±": 4539,
      "ĠØªÙĪØ¨ÙĪØ§": 4540,
      "ÙĩØ§Ø¬Ø±ÙĬÙĨ": 4541,
      "ĠØ¨Ø§ÙĦØŃØ³ÙĨØ©": 4542,
      "ĠØºÙĦÙĬØ¸": 4543,
      "ĠÙĪØ§Ø²Ø±Ø©": 4544,
      "ĠÙģØ²Ø§Ø¯": 4545,
      "ĠÙĬÙĦØ¹Ø¨ÙĪÙĨ": 4546,
      "ĠØ¨ØªØ£": 4547,
      "ĠØ¬ÙĦÙĪØ¯": 4548,
      "ĠØ´ÙĤØ§ÙĤ": 4549,
      "ĠÙĪØ¹ÙĦÙħØ§": 4550,
      "ĠÙĥØ§Ø±ÙĩÙĪÙĨ": 4551,
      "ĠÙĥØ§ÙģØ©": 4552,
      "ĠØ±Ø£ÙĬØªÙĩÙħ": 4553,
      "ĠØ¬Ø§Ø«ÙħÙĬÙĨ": 4554,
      "ĠØ§ÙĦØ£Ø³ÙħØ§Ø¡": 4555,
      "ĠÙĪÙĬØ²ÙĬØ¯ÙĩÙħ": 4556,
      "ĠØ§ÙħØ±Ø¦": 4557,
      "ĠÙħØ³Ø§ÙĥÙĨÙĩÙħ": 4558,
      "ĠØ§Ø³ØªØ¶Ø¹ÙģÙĪØ§": 4559,
      "ĠØ§ÙĦÙĬØªÙĬÙħ": 4560,
      "ĠÙħØ·ÙĩØ±Ø©": 4561,
      "ĠÙĦØ±Ø¡ÙĪÙģ": 4562,
      "ĠØ¨Ø¸ÙĦØ§Ùħ": 4563,
      "ĠÙĤÙħÙĬØµÙĩ": 4564,
      "ĠÙĪØ§ÙĦØ¶Ø±Ø§Ø¡": 4565,
      "ĠÙĪØ§ÙĦØ¹Ø¯ÙĪØ§ÙĨ": 4566,
      "ĠØ§ÙĦØ£Ø®Ø±Ùī": 4567,
      "ĠØ§ÙĦØ£Ø±Ø§Ø¦Ùĥ": 4568,
      "ĠØ¨Ø§ÙĦØ³ÙĬØ¦Ø©": 4569,
      "ĠØ§ÙĦØ³ÙģÙĩØ§Ø¡": 4570,
      "ĠØ§ÙĦØŃØ§ÙĥÙħÙĬÙĨ": 4571,
      "ĠØ·ØºÙĬØ§ÙĨÙĩÙħ": 4572,
      "ĠÙĪÙħÙĦØ§Ø¦ÙĥØªÙĩ": 4573,
      "ĠÙĪØ§ÙĦÙħÙĨØ§ÙģÙĤØ§Øª": 4574,
      "ĠØ§Ø·": 4575,
      "ÙĦØ¥": 4576,
      "ÙĦØ¸": 4577,
      "ÙĨØ²ÙĬØ±": 4578,
      "ÙħÙĥ": 4579,
      "ÙħÙĪÙħ": 4580,
      "ÙĬØ¶": 4581,
      "ÙĬØ´": 4582,
      "ÙĬØ¸": 4583,
      "ÙĬÙĪØ¨": 4584,
      "ÙĬØ³Ø±": 4585,
      "ÙĬØªÙĩÙħ": 4586,
      "ÙĬÙĤÙĬÙĨ": 4587,
      "ÙĪÙĪØ§": 4588,
      "ÙĪØµ": 4589,
      "ÙĪØ«": 4590,
      "ÙĪÙĩÙħØ§": 4591,
      "Ø§ÙĦØ¨": 4592,
      "ÙĩØ¬Ø±": 4593,
      "ÙĩØ¨Ø§": 4594,
      "ÙĩØ¨ÙĪÙĨ": 4595,
      "Ø±ÙĨØ§": 4596,
      "Ø±Ø§Ø¡": 4597,
      "Ø±ØªÙħ": 4598,
      "Ø±ÙĨÙĬÙĨ": 4599,
      "ĠØ§ÙĦÙħØ§": 4600,
      "ĠØ§ÙĦØ¯Ø§": 4601,
      "ĠØ§ÙĦÙĩØ¯ÙĬ": 4602,
      "ĠØ§ÙĦØ¶Ø¹Ùģ": 4603,
      "ĠØ§ÙĦÙģØªØŃ": 4604,
      "ĠØ§ÙĦØ¹Ø¯Ø§": 4605,
      "ĠØ§ÙĦÙĩÙĪÙī": 4606,
      "ĠØ§ÙĦØ¨ÙĦØ¯": 4607,
      "ĠÙĪØ®Ø±": 4608,
      "ĠÙĪÙĩØ¯": 4609,
      "ĠÙĪØ´Ø±": 4610,
      "ĠÙĪØ¯Ø§": 4611,
      "ĠÙĪØ³Ø±": 4612,
      "ĠÙĪÙģØ§": 4613,
      "ĠÙĪØ¶Ø¹": 4614,
      "ĠÙĪØ°Ø±ÙĪØ§": 4615,
      "ØªØ¹": 4616,
      "Ø¨Ø³": 4617,
      "ĠÙħØ²": 4618,
      "ĠÙħØªÙħ": 4619,
      "ĠÙħØ´Ø±": 4620,
      "ĠÙħØ³ÙĨ": 4621,
      "ĠÙħØ´Ø±Ùĥ": 4622,
      "ĠÙħØ¨Ø§Ø±": 4623,
      "ĠÙħÙĤØ±": 4624,
      "ĠÙħØ·Ø±": 4625,
      "ĠÙħØ´Ø±ÙĥÙĬÙĨ": 4626,
      "ĠÙħØŃÙħØ¯": 4627,
      "ĠÙħÙĬÙĤØ§Øª": 4628,
      "Ø¹Ùĩ": 4629,
      "Ø¹ÙĤ": 4630,
      "Ø¹Ø¨ÙĬÙĨ": 4631,
      "Ø¹ÙĪØ¯": 4632,
      "Ø¹ÙģØ§": 4633,
      "Ø¹Ø±Ø¶ÙĪØ§": 4634,
      "ĠØ£ÙĩÙħ": 4635,
      "ĠØ£Ø¸": 4636,
      "ĠØ£Ø¨Ø±": 4637,
      "ĠØ£Ø¬Ø¯": 4638,
      "ĠØ£ØªÙĪØ§": 4639,
      "ĠØ£ØªÙĬÙĨØ§": 4640,
      "ĠØ£ØºØ±ÙĤÙĨØ§": 4641,
      "ĠØ£ÙĤØ¯Ø§Ùħ": 4642,
      "Ø¯ØªÙħ": 4643,
      "Ø¯Ø§Ø±": 4644,
      "Ø¯Ø¯ÙĨØ§": 4645,
      "Ø³ÙĬÙĨ": 4646,
      "Ø³Ø®": 4647,
      "Ø³Ø±ÙĪÙĨ": 4648,
      "Ø³Ø¯Ø§": 4649,
      "Ø³Ø¬Ø¯": 4650,
      "ĠÙģÙĪØ§": 4651,
      "ĠÙģØ¹Ø¯": 4652,
      "ĠÙģØ°ÙĦÙĥ": 4653,
      "ĠÙģØ°Ø±": 4654,
      "ĠÙģØ°ÙĥØ±": 4655,
      "ĠÙģØŃÙĤ": 4656,
      "ĠÙģÙĪØ¬": 4657,
      "ĠÙģØµÙĦ": 4658,
      "ĠÙģÙħØ§ÙĦ": 4659,
      "ĠÙĦÙĦÙĥ": 4660,
      "ĠÙĦØ¸": 4661,
      "ĠÙĦÙĩØ¯": 4662,
      "ĠÙĦÙģØ³": 4663,
      "ĠÙĦÙĤÙĪÙĦ": 4664,
      "ĠÙĦØŃÙĤ": 4665,
      "ĠÙĦØ°ÙĨ": 4666,
      "ĠÙĦØ¬Ø¹ÙĦ": 4667,
      "ĠÙĦØ³Ø§": 4668,
      "ĠÙĦØ±Ø³ÙĪÙĦ": 4669,
      "ĠÙĦØ·ÙĬÙģ": 4670,
      "ĠÙĬÙħÙĨ": 4671,
      "ĠÙĬØ«": 4672,
      "ĠÙĬØªÙħ": 4673,
      "ĠÙĬØ±Ø¶": 4674,
      "ĠÙĬÙĤØ¯": 4675,
      "ĠÙĬØ´Ø±": 4676,
      "ĠÙĬÙħÙĬÙĨ": 4677,
      "ĠÙĬØ¬Ø±": 4678,
      "ĠÙĬØ¨Ø§": 4679,
      "ĠÙĬÙĤØª": 4680,
      "ĠÙĬÙħØª": 4681,
      "ĠÙĬØ¦Ø³": 4682,
      "ĠÙĬÙĤØ¯Ø±": 4683,
      "ĠÙĬÙĪÙĦØ¬": 4684,
      "ĠÙĬØ±Ø¶Ùī": 4685,
      "ĠÙĬØ¶ÙĬØ¹": 4686,
      "ĠÙĬØ±ÙĬÙĥÙħ": 4687,
      "ĠÙĬÙĤÙĬÙħÙĪÙĨ": 4688,
      "ÙĤÙģ": 4689,
      "ÙĤØ³Ø·": 4690,
      "Ø°ÙĦ": 4691,
      "Ø°Øª": 4692,
      "Ø°ÙĪØ§": 4693,
      "Ø°ÙĬØ±": 4694,
      "Ø°ÙĨÙĬ": 4695,
      "ÙĪØ§Ùĥ": 4696,
      "ÙĪØ§Ø¯": 4697,
      "ÙĪØ§ÙĥÙħ": 4698,
      "ÙĪØ§ØµÙĪØ§": 4699,
      "ĠØ¨Ø¨": 4700,
      "ĠØ¨Ø¶": 4701,
      "ĠØ¨Ø§Ø¨": 4702,
      "ĠØ¨Ø«": 4703,
      "ĠØ¨ØŃÙħ": 4704,
      "ĠØ¨Ø°ÙĥØ±": 4705,
      "ĠØ¨Ø¶Ø±": 4706,
      "ĠØ¨Ø³Ø·": 4707,
      "ĠØ¨Ø¬ÙĨ": 4708,
      "ÙĪÙĨØ³": 4709,
      "ÙģØŃ": 4710,
      "ÙģÙĥØ±ÙĪÙĨ": 4711,
      "ØŃÙĦ": 4712,
      "ØŃÙĩ": 4713,
      "ØŃÙĥ": 4714,
      "ØŃÙī": 4715,
      "ØŃØªÙĪÙĨ": 4716,
      "ØŃÙĪÙĩÙĨ": 4717,
      "Ø£Ùĩ": 4718,
      "Ø£Ø¨": 4719,
      "Ø£ÙĪÙī": 4720,
      "Ø£Ø³Ø§Ø¡": 4721,
      "ĠÙħÙĨØ³": 4722,
      "ĠÙħÙĨÙĬØ¨": 4723,
      "ĠÙħÙĨÙĥÙĨ": 4724,
      "ĠØ¹ÙĦÙĪØ§": 4725,
      "ĠØ¹Ø¯Ø§": 4726,
      "ĠØ¹ÙħÙĬ": 4727,
      "ĠØ¹Ø¯Ø©": 4728,
      "ĠØ¹ÙĦØ§Ùħ": 4729,
      "ĠØ¹ÙģÙĪØ§": 4730,
      "ĠØ¹ÙĤØ§Ø¨": 4731,
      "ĠØ¹Ø§ÙĩØ¯ÙĪØ§": 4732,
      "ĠØ¹Ø²Ùħ": 4733,
      "ĠØ¹Ø¸Ø§ÙħØ§": 4734,
      "ĠØ¹Ø·Ø§Ø¡": 4735,
      "ĠØ¹ÙĦÙĤØ©": 4736,
      "ÙĨØ§Ø³": 4737,
      "ÙħØ§Øª": 4738,
      "ÙĦØ§ÙĩØ§": 4739,
      "ÙĦØ§ÙĨÙĬØ©": 4740,
      "ĠØªØ³Ø±": 4741,
      "ĠØªÙĩØª": 4742,
      "ĠØªØ¨Ø¯ÙĪÙĨ": 4743,
      "ĠØªÙĤØªÙĦÙĪÙĨ": 4744,
      "Ø¬Ø§Ø±": 4745,
      "Ø¬ÙĪØ¬": 4746,
      "ĠÙĥÙĬ": 4747,
      "ĠÙĥØ¯": 4748,
      "ĠÙĥÙģ": 4749,
      "ĠÙĥØ´": 4750,
      "ĠÙĥØ§Ø¯": 4751,
      "ĠÙĥØ±ÙĬ": 4752,
      "ĠÙĥØ§ÙģØ±": 4753,
      "ĠÙĥØ«Ø±": 4754,
      "ĠÙĥØ§Ø¯ÙĪØ§": 4755,
      "ĠÙĥØ´ÙģÙĨØ§": 4756,
      "ĠÙĤØ·": 4757,
      "ĠÙĤØ³Ùħ": 4758,
      "ĠÙĤØ·Ø¹": 4759,
      "ĠÙĤØ±ÙĬÙĨ": 4760,
      "ĠÙĤØ±Ø¢ÙĨ": 4761,
      "ĠÙĤØ±Ø¨Ùī": 4762,
      "ĠÙĤØ§ØªÙĦÙĪØ§": 4763,
      "ĠÙĤÙĬØ§ÙħØ§": 4764,
      "ĠÙĤØ±Ø§Ø±": 4765,
      "ĠÙģÙĬÙĪÙħ": 4766,
      "Ø®Ø§Ùģ": 4767,
      "Ø®Ø·Ùģ": 4768,
      "ØµÙħ": 4769,
      "ØµØ¨": 4770,
      "ØµÙĬØ©": 4771,
      "ØµÙĬØª": 4772,
      "ØµÙĦØ¨": 4773,
      "ØµØ¨ØŃ": 4774,
      "ØµÙħÙĪØ§": 4775,
      "ĠØ±Ø§Ø¨": 4776,
      "ĠØ±Øº": 4777,
      "ĠØ±Ø§Ø¶ÙĬØ©": 4778,
      "ĠØ¥ÙĨØ³": 4779,
      "ÙĩØ§Ø¨": 4780,
      "ÙĩØ§Ø¬Ø±ÙĪØ§": 4781,
      "Ø¶ÙĬÙĨ": 4782,
      "Ø²ÙĦÙĩ": 4783,
      "Ø²ÙĨØ§": 4784,
      "Ø²Ø¹ÙĨØ§": 4785,
      "Ø§ÙĨÙħ": 4786,
      "Ø´ÙĪØ§": 4787,
      "Ø´ÙĩØ¯": 4788,
      "Ø´Ø§ÙĩØ§": 4789,
      "ĠØ£ÙĨØ¬": 4790,
      "ĠØ£ÙĨØ¬ÙĬÙĨØ§": 4791,
      "ĠÙĪØ§ÙĦØª": 4792,
      "ĠÙĪØ§ÙĦÙħØ±": 4793,
      "ĠÙĪØ§ÙĦØ¯Ùħ": 4794,
      "ĠÙĪØ§ÙĦØ²ÙĬØªÙĪÙĨ": 4795,
      "ĠÙĨØ¶": 4796,
      "ĠÙĨØ³Øª": 4797,
      "ĠÙĨØ§Ùģ": 4798,
      "ĠÙĨØ®Ø±Ø¬": 4799,
      "ĠÙĨØ°Ø±": 4800,
      "ĠÙĨÙĨØ³": 4801,
      "ĠÙĨØ¸Ø±": 4802,
      "ĠÙĨÙĥÙĨ": 4803,
      "ĠÙĨØ±Ø³ÙĦ": 4804,
      "ĠÙĨØ±Ø§Ùĥ": 4805,
      "ĠÙĨØªØ®Ø°": 4806,
      "ĠÙĨØ§ÙĤØ©": 4807,
      "ĠÙĨÙĪØ¯ÙĬ": 4808,
      "ĠÙĨØ±ÙĬÙĨÙĥ": 4809,
      "Ø§Ø¨ÙĩÙħ": 4810,
      "Ø§Ø¨ÙĬÙĦ": 4811,
      "ĠÙĩØ¨": 4812,
      "ĠÙĩÙĦÙĥ": 4813,
      "ĠÙĩÙĨÙĬ": 4814,
      "ĠÙĩØ§Ùĩ": 4815,
      "ĠÙĩØ§ØªÙĪØ§": 4816,
      "ĠØ³ÙĪÙĦ": 4817,
      "ĠØ³ÙĤØ±": 4818,
      "ĠØ³ÙĥÙĬÙĨ": 4819,
      "Ø·Ùī": 4820,
      "Ø·Ø©": 4821,
      "Ø·Ø´": 4822,
      "Ø«ÙĬÙĨ": 4823,
      "Ø¦ÙĦØ§": 4824,
      "ĠØ¢Øª": 4825,
      "ĠØ¢ØªÙĨØ§": 4826,
      "ÙĪÙĦÙĩÙħ": 4827,
      "ÙĪÙĦØ©": 4828,
      "ÙĪÙĦØ¯Ø§ÙĨ": 4829,
      "ÙĪÙĦØªÙĩÙĨ": 4830,
      "ÙĪÙħÙĬÙĨ": 4831,
      "ÙĪÙħØ©": 4832,
      "ĠÙĪØ£ÙĦ": 4833,
      "ĠÙĪØ£Ø¹": 4834,
      "ĠÙĪØ£Ø·": 4835,
      "ĠÙĪØ£ØªÙħ": 4836,
      "ĠÙĪØ£Ø¬ÙĦ": 4837,
      "ĠÙĪØ£ÙĩÙĦÙĥ": 4838,
      "ĠÙĪØ£Ø¯Ø®ÙĦ": 4839,
      "ĠÙĪØ£Ø¹Ø±Ø¶": 4840,
      "ĠÙĪØ£ØºØ±ÙĤÙĨØ§": 4841,
      "ĠØ§ÙĦÙħØ§ÙĦ": 4842,
      "ĠØ§ÙĦÙħØ´": 4843,
      "ĠØ§ÙĦÙħÙĥØ±": 4844,
      "ĠØ§ÙĦÙħÙħØª": 4845,
      "ĠØ§ÙĦÙħØ±Ø¡": 4846,
      "ĠØ§ÙĦÙħØŃØµÙĨØ§Øª": 4847,
      "ĠØ§ÙĦÙħØ¨Ø·ÙĦÙĪÙĨ": 4848,
      "ĠØ§ÙĦÙħØ£ÙĪÙī": 4849,
      "ĠØŃÙĬ": 4850,
      "ĠØŃØ¸": 4851,
      "ĠØŃÙĬØ§Øª": 4852,
      "ĠØŃØ´Ø±": 4853,
      "ĠØŃØ³Ø±": 4854,
      "ĠØŃÙħÙĬ": 4855,
      "ĠØŃØ§Øµ": 4856,
      "ĠØŃÙĬØ§Ø©": 4857,
      "ĠØŃØ§Ø¶": 4858,
      "ĠØŃÙĦØ§ÙĦØ§": 4859,
      "ØºØ§Ø±": 4860,
      "ØºÙĦØ§ÙĦ": 4861,
      "ØºÙĬØ§ÙĨØ§": 4862,
      "ĠØ¬ÙĪØ§Ø¨": 4863,
      "ĠØ¬Ø³Ø¯Ø§": 4864,
      "ĠØ®Ø§Ø·": 4865,
      "ĠØ®ÙĬÙģ": 4866,
      "ĠØ®Ø¶Ø±": 4867,
      "ĠØ®Ø´ÙĬ": 4868,
      "ĠØ®ÙĦØ§Ø¦": 4869,
      "ÙģØ±Ø§": 4870,
      "ĠØ´ÙĥØ±": 4871,
      "ĠØ´ÙĩÙĪ": 4872,
      "ĠØ´ÙģØ§": 4873,
      "ĠØ´Ø§Ùĥ": 4874,
      "ĠØ´ÙĩØ§Ø¯": 4875,
      "ĠØ§ÙĦØ£ÙħÙĬ": 4876,
      "ĠØ§ÙĦØ£ÙĥØ¨Ø±": 4877,
      "ĠØ§ÙĦØ£ÙĬÙĥ": 4878,
      "ĠÙĪØ¥Ø¨Ø±Ø§ÙĩÙĬÙħ": 4879,
      "Ø¸ÙĨÙĥ": 4880,
      "Ø¸ÙĩØ±Ùĩ": 4881,
      "Ø±Ø§ÙħØ§": 4882,
      "Ø±Ø§ÙĥÙħ": 4883,
      "ĠÙĪÙĦÙĪØ§": 4884,
      "ĠÙĪÙĦØ¨Ø¦Ø³": 4885,
      "ĠÙĪÙħØ§ØªÙĪØ§": 4886,
      "Ø¡ÙĪØ§": 4887,
      "Ø¤ÙĥÙħ": 4888,
      "Ø¤ÙĦØ¤": 4889,
      "ĠØ¨Ø§ÙĦØ¹Ø±": 4890,
      "ĠØ¨Ø§ÙĦÙĥÙģØ±": 4891,
      "ĠØ¨Ø§ÙĦÙĨØ°Ø±": 4892,
      "ĠØ°ÙĦØ©": 4893,
      "ĠØ¹ÙĨÙĩÙħØ§": 4894,
      "ĠØ£ÙĪÙģÙĪØ§": 4895,
      "Ø³ØªØ¨Ø±": 4896,
      "Ø±ÙĪÙĨØ§": 4897,
      "ĠÙĪÙĬØ·": 4898,
      "ĠÙĪÙĬÙĥÙĪÙĨ": 4899,
      "ĠÙĪÙĬØ¹Ùģ": 4900,
      "ĠÙĪÙĬÙĪÙĦØ¬": 4901,
      "ĠÙĪÙĬØ¹Ø¨Ø¯ÙĪÙĨ": 4902,
      "ĠØ§ÙĦØ±Ø¹Ø¨": 4903,
      "Ø¹Ø¯ÙĬÙĨ": 4904,
      "ÙĬØ¯ÙĩØ§": 4905,
      "Ø¹ÙħØª": 4906,
      "Ø¹ÙħÙĪØ§": 4907,
      "ĠØ«ÙĪØ§Ø¨Ø§": 4908,
      "ĠØ«Ø¨ÙĪØ±Ø§": 4909,
      "Ø§Ø±ÙĤ": 4910,
      "Ø§Ø±Ùī": 4911,
      "Ø§Ø±ÙĩØ§": 4912,
      "ĠØ£ÙħÙĩ": 4913,
      "ĠØ£ÙħÙĪØ§Øª": 4914,
      "ĠØ£ÙħØ³Ùĥ": 4915,
      "ÙĦÙĪÙĨØ§": 4916,
      "ĠØ§ÙĦØŃØ±": 4917,
      "ĠØ§ÙĦØŃØ¬Ø±": 4918,
      "ĠØ§ÙĦØŃØ±Ø«": 4919,
      "ĠØ§ÙĦØŃÙĪØ§Ø±ÙĬ": 4920,
      "ĠØ¯ÙĬÙĨØ§": 4921,
      "ĠØ¯Ø¨Ø±": 4922,
      "ĠØ¯ÙħØ±": 4923,
      "ĠØ¯Ø§Ø±ÙĩÙħ": 4924,
      "ĠÙģØ£Ùħ": 4925,
      "ĠÙģØ£Ø³Ø±": 4926,
      "ĠÙģØ£ØºØ±ÙĤ": 4927,
      "ĠÙĪÙħÙĨØ°Ø±ÙĬÙĨ": 4928,
      "ÙĦÙĤÙĪÙĨ": 4929,
      "ÙĦÙĤÙī": 4930,
      "ĠÙĪÙĤØ±Ø¢ÙĨ": 4931,
      "Ø¤ÙħÙĨÙĨ": 4932,
      "ĠØ«ÙħØ±Ø§Øª": 4933,
      "ĠØµØ§Ø¨": 4934,
      "ĠØµØ¨Ø§Ø±": 4935,
      "ĠØ§ÙĦÙĤÙĬÙħ": 4936,
      "ÙģØ³Ùĩ": 4937,
      "ÙģØ³Ø¯ÙĪÙĨ": 4938,
      "ĠÙĦÙĬØ¶": 4939,
      "ĠÙĦÙĬÙĥÙĪÙĨ": 4940,
      "ĠÙĦÙĬÙĤÙĪÙĦÙĪÙĨ": 4941,
      "ĠÙĦÙĬÙĥÙģØ±": 4942,
      "ĠÙĦÙĬØ¤ÙħÙĨÙĪØ§": 4943,
      "ĠÙĦÙĬØ¨ÙĦÙĪÙĥÙħ": 4944,
      "ĠÙĦÙĬÙĪØ³Ùģ": 4945,
      "ĠØ¨ÙĩØªØ§": 4946,
      "ĠØ§ÙĤØ±": 4947,
      "Ø±ÙĬØ¨": 4948,
      "ĠÙĪÙĥÙĨ": 4949,
      "ĠÙĪÙĥÙĦÙħ": 4950,
      "ĠÙĪÙĥÙĨØª": 4951,
      "Ø¨ÙĬØª": 4952,
      "Ø¨ÙĬÙĦØ§": 4953,
      "ĠØ§ÙĦÙĥÙĦÙħ": 4954,
      "ĠØ§ÙĦÙĥÙĩÙģ": 4955,
      "ÙĪØ±Ø§Øª": 4956,
      "ÙĤØ¯Ø³": 4957,
      "ĠØºÙĨ": 4958,
      "ĠØºØ¯": 4959,
      "ĠØºØ¯Ø§": 4960,
      "ĠØºÙĦØ¨": 4961,
      "ĠØºÙĦØ§Ùħ": 4962,
      "Ø´Ø±ÙĪØ§": 4963,
      "ÙĦÙĪØ§Øª": 4964,
      "ÙĨÙĬØ§Ø¡": 4965,
      "ĠØ¨ÙħØ§Ø¡": 4966,
      "Ø±Ø³ÙĪÙĦÙĩ": 4967,
      "ĠØ´ÙĬØ¹": 4968,
      "ĠØ´ÙĬØ¹Ø§": 4969,
      "ĠØ´ÙĬØ·Ø§ÙĨ": 4970,
      "ØªÙĬØ©": 4971,
      "Ø§Ø¦ÙĦÙĬÙĨ": 4972,
      "Ø§Ø¦Ø²ÙĪÙĨ": 4973,
      "ĠÙĪØ¬Ø§": 4974,
      "ĠÙĩÙĪØ¯": 4975,
      "Ø¨ÙĬÙĨØ©": 4976,
      "ÙĩÙĨÙĪØ§": 4977,
      "ĠØ¥ÙĦÙĬÙĩØ§": 4978,
      "ĠÙĪØ§Ø¹Øª": 4979,
      "ĠÙĪØ§Ø³ÙħØ¹ÙĪØ§": 4980,
      "ĠØ¨Ø¹Ø²ÙĬØ²": 4981,
      "ĠÙĬØªÙĤ": 4982,
      "ĠÙĥÙģØ±Ø§": 4983,
      "ĠØ£ÙĬÙĥÙħ": 4984,
      "ĠØ£ÙĬØŃØ³Ø¨": 4985,
      "ĠÙĬÙĨØª": 4986,
      "ĠÙĬÙĨØ¸Ø±": 4987,
      "ĠÙĬÙĨÙģØ®": 4988,
      "ĠÙĦÙĦØ´": 4989,
      "ĠÙĦÙĦØ°ÙĬ": 4990,
      "ĠÙĦÙĦØªÙĤÙĪÙī": 4991,
      "ĠÙĪØªÙĥ": 4992,
      "ĠÙĪØªØ²": 4993,
      "ĠÙĪØªÙĪÙģ": 4994,
      "ĠÙĪØªÙģØµ": 4995,
      "ĠÙĪØªÙĪØ§ØµÙĪØ§": 4996,
      "ĠÙĪØ§ÙĦØ£ÙģØ¦Ø¯Ø©": 4997,
      "ĠÙĪØ§ÙĦØ£Ø³Ø¨Ø§Ø·": 4998,
      "ĠÙĬØŃØ³Ø¨ÙĪÙĨ": 4999,
      "ÙĪØ§ØªÙĥÙħ": 5000,
      "Ø²ÙĦÙĬÙĨ": 5001,
      "Ø¹Ø§ÙħØ§": 5002,
      "Ø¬Ø±Øª": 5003,
      "ĠØ¨Ø¹Ø¯Ø§": 5004,
      "ĠØ¨Ø¹Ø¯ÙĬ": 5005,
      "ĠÙħÙĪØ¬": 5006,
      "ĠÙħÙĪÙĦÙī": 5007,
      "ĠÙħÙĪØ¹Ø¯Ø§": 5008,
      "ĠÙĬØ±ØªØ¯": 5009,
      "ĠÙĬØ±Ø¬ÙĪ": 5010,
      "ÙĪÙģÙĪÙĨ": 5011,
      "ÙĪÙģÙĬÙĩÙħ": 5012,
      "Ø³Ø¨Ø§Ø¨": 5013,
      "ĠÙĬØ´ÙĩØ¯ÙĪÙĨ": 5014,
      "ĠÙĬØ´ØªØ±ÙĪÙĨ": 5015,
      "ĠÙģØ§ØŃØ´Ø©": 5016,
      "ĠÙģÙĦØ¹": 5017,
      "ĠÙĤÙĪÙħÙĨØ§": 5018,
      "Ø³Ø±Ùī": 5019,
      "ĠØ£ØŃØ§Ø·": 5020,
      "ĠØªØ±Ø¬": 5021,
      "ĠØªØ±Ø§Ø¶": 5022,
      "ĠØ¸ÙĦØ§ÙĦ": 5023,
      "ĠØ§ÙĦÙĨØ°Ø±": 5024,
      "ĠØ§ÙĦÙĨØ®ÙĦ": 5025,
      "ĠØ§ÙĦÙĨØµØ§Ø±Ùī": 5026,
      "ĠÙĪÙĨØ¬": 5027,
      "ĠÙĪÙĨØµ": 5028,
      "ĠÙĪÙĨØ¹Ùħ": 5029,
      "ĠÙĪÙĨØ²ÙĦÙĨØ§": 5030,
      "ĠÙĪÙĨØ¬Ø¹ÙĦ": 5031,
      "ĠÙĪÙĨØ¬ÙĬÙĨØ§Ùĩ": 5032,
      "ĠÙĪØ£ÙĨÙģØ³ÙĥÙħ": 5033,
      "ĠØ·ÙĦ": 5034,
      "ĠØ·Ø±": 5035,
      "ĠØ·Ø§Øº": 5036,
      "ĠØ·ÙĦØ¹": 5037,
      "ĠØ·ÙĪØ¹Ø§": 5038,
      "ĠØ·ØºÙĬØ§ÙĨØ§": 5039,
      "Ø²ÙĬÙĦØ§": 5040,
      "ĠØ®ÙĦÙĤÙĩÙħ": 5041,
      "ĠØ®ÙĦÙĤÙĨØ§Ùĩ": 5042,
      "ĠØ§ÙĦØ¬ÙĩØ±": 5043,
      "ĠØ¨Ø£ÙĦ": 5044,
      "ĠØ¨Ø£Ø¹ÙĬÙĨ": 5045,
      "ĠØ£ÙģÙĬ": 5046,
      "ĠØ£ÙģØ¦": 5047,
      "ĠØ£ÙģÙĦØŃ": 5048,
      "ĠØ£ÙģÙĪØ§Ùĩ": 5049,
      "ĠØ£ÙģØºÙĬØ±": 5050,
      "ĠÙģØªØ¹": 5051,
      "ĠÙģØªÙĪÙĦÙī": 5052,
      "ĠÙģØªØŃØ§": 5053,
      "ĠÙģØªØ¹Ø§ÙĦÙī": 5054,
      "ĠÙģØªØ±Ø¨ØµÙĪØ§": 5055,
      "ĠØ¨ÙĦØ¯Ø©": 5056,
      "ĠØ¨ÙĦØ³Ø§ÙĨ": 5057,
      "ĠØ¶ÙĬ": 5058,
      "ĠØ¶Ø¹ÙĬ": 5059,
      "ĠØ¶Ø¹ÙģØ§": 5060,
      "ĠÙĦÙĥÙĨØ§": 5061,
      "ĠÙĦÙĥØ¨ÙĬØ±": 5062,
      "ĠÙĦÙĥÙĬÙĦØ§": 5063,
      "ĠØ£ÙĩØ¤ÙĦØ§Ø¡": 5064,
      "ĠØ§ÙĦØ´Ùĩ": 5065,
      "ĠØ§ÙĦØ´ÙĩØ±": 5066,
      "ĠÙĪØ¹Ø´ÙĬØ§": 5067,
      "ĠÙĪØ¹ÙĦØ§ÙĨÙĬØ©": 5068,
      "Ø¨Ø§Ùĩ": 5069,
      "Ø¨Ø§ØŃ": 5070,
      "ĠÙĦÙĨØ¹ÙĦÙħ": 5071,
      "ĠÙĦÙĨØ®Ø±Ø¬": 5072,
      "Ø§ÙĦØŃÙĬÙĨ": 5073,
      "ĠÙĬØ¹Ø±Ø¬": 5074,
      "ĠÙĬØ¹Ø±Ùģ": 5075,
      "ĠÙĬØ¹Ø¸ÙĥÙħ": 5076,
      "ÙģØ§Ø±Ø§": 5077,
      "ĠØ¯ÙĪÙĨÙĩÙħ": 5078,
      "ĠØªØŃØ±": 5079,
      "Ø°Ø±ØªÙĩÙħ": 5080,
      "ØµØ±Ùĩ": 5081,
      "ØµØ±ÙĨØ§": 5082,
      "ØµØ±Ø©": 5083,
      "ĠØ£Ø¬ÙĪØ±ÙĩÙħ": 5084,
      "ĠØ²Ø¯": 5085,
      "ĠØ²ÙĬÙĨØ§": 5086,
      "ĠØ²Ø§Øº": 5087,
      "ÙĬÙħØ§ÙĨÙĩÙħ": 5088,
      "ĠÙĪÙĦÙĥÙĨÙĬ": 5089,
      "ĠØ§ÙĦØ®ÙĪÙģ": 5090,
      "ÙĪØªÙĥ": 5091,
      "ĠÙĪÙħÙĥØ±": 5092,
      "ĠÙĪÙħØ³Ø§": 5093,
      "ĠÙģØ±Ø¬": 5094,
      "ĠÙĬØ¯Ø¨Ø±": 5095,
      "ĠÙĬØ³ØªØ¹": 5096,
      "ĠÙĬØ³ØªØ¹Ø¬ÙĦÙĪÙĨ": 5097,
      "ØŃØ±ÙĬØ±": 5098,
      "ĠØ£ÙĥÙģØ±": 5099,
      "ĠØ£ÙĥÙĨØ©": 5100,
      "ĠØ£ÙĥÙĦÙĩØ§": 5101,
      "ĠÙĪÙĥØ§ÙĨØª": 5102,
      "ĠÙĬØ®ÙģÙī": 5103,
      "ĠØªÙĥÙĦÙħ": 5104,
      "ĠØªÙĥØ³Ø¨ÙĪÙĨ": 5105,
      "ĠØªÙĥÙģØ±ÙĪØ§": 5106,
      "ÙĨØªÙĩØ§": 5107,
      "ĠÙĬØ³Ø±ÙĪÙĨ": 5108,
      "ĠÙĬØ³Ø£ÙĦÙĪÙĨ": 5109,
      "ĠØ£ØµÙĨØ§": 5110,
      "ĠÙĦØ£Ø¬ÙĦ": 5111,
      "ĠÙĦØ£ÙħÙĦ": 5112,
      "ĠÙħØ³ØªÙħ": 5113,
      "ĠÙħØ³ÙĨÙĬ": 5114,
      "ÙĨØ³Ø§Ø¡": 5115,
      "ĠÙĦÙĪØ·Ø§": 5116,
      "ĠÙĦÙĤØ§Ø¡ÙĨØ§": 5117,
      "ĠØªØªØ®Ø°": 5118,
      "ĠØªØªÙĪÙĦÙĪØ§": 5119,
      "ĠØªØªÙĦÙĪ": 5120,
      "ĠØªØªØ¨Ø¹ÙĪÙĨ": 5121,
      "ĠØ§ÙĦØ¨ÙĨØ§Øª": 5122,
      "ĠØ§ÙĦØ¨ØµÙĬØ±": 5123,
      "ĠØ§Ø³ØªÙĥ": 5124,
      "ĠØ§Ø³ØªÙĤØ§ÙħÙĪØ§": 5125,
      "ĠØ§Ø³ØªØ¬Ø§Ø¨": 5126,
      "ĠØ§Ø³ØªØ·Ø§Ø¹ÙĪØ§": 5127,
      "ĠØ§Ø³ØªÙĩØ²Ø¦": 5128,
      "ĠÙĦØªØ£ØªÙĪÙĨ": 5129,
      "ĠÙĦØªØ¨ØªØºÙĪØ§": 5130,
      "ĠØªØ¬ÙĩÙĦÙĪÙĨ": 5131,
      "Ø®ÙĦÙĪÙĩØ§": 5132,
      "ÙĦØ¨Ùĩ": 5133,
      "ÙĦØ¨ÙĪÙĨ": 5134,
      "ĠØ¹ÙĦÙħÙĩ": 5135,
      "ĠØ¹ÙĦÙħÙĥÙħ": 5136,
      "ĠØ¹ÙĦÙħÙĩØ§": 5137,
      "ĠØªØ£ÙħØ±": 5138,
      "ĠØªØ£ØªÙĬÙĨØ§": 5139,
      "ĠØ£Ø¹ÙĤØ§Ø¨": 5140,
      "ĠØªÙĨØ²ÙĬÙĦØ§": 5141,
      "ĠØ¨Ø¢ÙĬØ§ØªÙĬ": 5142,
      "ĠØ¨Ø¢ÙĬØ§ØªÙĩ": 5143,
      "ĠØ£ÙħØ±ÙĥÙħ": 5144,
      "ĠÙĪØ¢ÙĬØ©": 5145,
      "ĠÙĪØ¢Ø®Ø±ÙĪÙĨ": 5146,
      "ĠØ§ÙĦØ¥ÙĨØ¬ÙĬÙĦ": 5147,
      "ĠØ§ÙĦØ¥Ø³ÙĦØ§Ùħ": 5148,
      "ĠÙĪØ§ØªÙĤÙĪÙĩ": 5149,
      "Ø±Ø¬Ø§ÙĦ": 5150,
      "ĠÙĬØ¬Ø±ÙĬ": 5151,
      "ĠÙĪØ§ÙĦÙħØ´Ø±ÙĥÙĬÙĨ": 5152,
      "ĠÙĪØ§ÙĦÙħÙĨØ§ÙģÙĤÙĬÙĨ": 5153,
      "ĠØºÙĬØ±ÙĥÙħ": 5154,
      "ĠØ§ÙĦÙģØ§Ø¦Ø²ÙĪÙĨ": 5155,
      "ĠØ£Ø±Ø³ÙĦØªÙħ": 5156,
      "ĠØ¨ØºÙĦØ§Ùħ": 5157,
      "ĠØ¨ØºØ¶Ø¨": 5158,
      "ĠØ£Ø®ÙĬ": 5159,
      "ĠØ£Ø®ÙĪÙĩÙħ": 5160,
      "ĠØ£Ø®Ø§Ùĩ": 5161,
      "ĠØ®Ø§ÙĦØµØ©": 5162,
      "Ø°ÙĩØ¨Ø§": 5163,
      "ØµØ¯ÙĤÙĬÙĨ": 5164,
      "ĠÙĪØ³ÙĦÙĬÙħØ§ÙĨ": 5165,
      "ĠÙĪØ³Ø§Ø¡Øª": 5166,
      "ĠÙģØ³Ø§Ø¡": 5167,
      "ĠØªÙĤØ¨ÙĦ": 5168,
      "ĠØ£Ø³Ø§ÙĪØ±": 5169,
      "ĠÙĦÙĦÙħØ´Ø±ÙĥÙĬÙĨ": 5170,
      "ØªØ¨Ø¹ÙĪÙĨ": 5171,
      "ĠØ±Ø¬Ø³": 5172,
      "ĠØ±Ø¬ÙĬÙħ": 5173,
      "ĠØ¹ÙħÙĦÙĩ": 5174,
      "ĠØ³ÙĬÙĤÙĪÙĦ": 5175,
      "ĠØ³ÙĬÙĤÙĪÙĦÙĪÙĨ": 5176,
      "ĠØµØ¯ÙĪØ±": 5177,
      "ĠØµØ¯Ø±Ùĥ": 5178,
      "ĠØµØ¯ÙĤØ©": 5179,
      "ĠØµØ¯ÙĪØ±ÙĥÙħ": 5180,
      "ĠÙĬØ¤Øª": 5181,
      "ĠÙĬØ¤Ø®Ø°": 5182,
      "ĠÙĬØ¤Ø°ÙĨ": 5183,
      "ĠÙĬØ¤ØªÙĥÙħ": 5184,
      "ĠÙĬØ¤ØªÙĪÙĨ": 5185,
      "ĠÙĬØ¤Ø°ÙĪÙĨ": 5186,
      "ĠØ±ØŃÙħØªÙĨØ§": 5187,
      "ĠÙĬÙĤØ¶ÙĬ": 5188,
      "ĠÙĤÙĪÙĬ": 5189,
      "ĠØ£ØªØ®Ø°": 5190,
      "ĠØªØ¯Ø±ÙĬ": 5191,
      "ĠØ£Ø±ØŃÙħ": 5192,
      "ĠÙħÙĦÙĥÙĪØª": 5193,
      "ĠØ£Ø´ÙĬ": 5194,
      "ĠÙħØªÙĤØ§Ø¨": 5195,
      "ĠÙĬØºØ±": 5196,
      "ĠÙĬØºÙĨÙĪØ§": 5197,
      "ĠÙĬØºÙĦØ¨ÙĪØ§": 5198,
      "ĠØ±Ø³ÙĪÙĦÙĨØ§": 5199,
      "ĠØŃØ³Ø§Ø¨Ø§": 5200,
      "ĠØŃØ³ÙĬØ¨Ø§": 5201,
      "ÙĪÙĬÙĥÙħ": 5202,
      "ĠØ§ÙĨØµØ±": 5203,
      "ĠØ§ÙĨØªÙĩÙĪØ§": 5204,
      "Ø¹ÙģÙģ": 5205,
      "Ø£ÙĨØ¹Ø§Ùħ": 5206,
      "ĠØªØ³Ø£ÙĦÙĩÙħ": 5207,
      "ĠØªØ´Ø¹Ø±ÙĪÙĨ": 5208,
      "ĠØ¬ÙħÙĬÙĦØ§": 5209,
      "Ø§ÙĩØ±Ø§": 5210,
      "ĠÙĪØ§ØºÙģØ±": 5211,
      "ĠÙĬØ£ØªÙĬÙĩ": 5212,
      "ĠØ£Ø¯Ø±ÙĬ": 5213,
      "ĠØ£Ø¯Ø¨Ø±": 5214,
      "ĠØ£Ø¯Ø¹ÙĪ": 5215,
      "ĠÙģØ¶Ø©": 5216,
      "Ø°ÙĬÙĤ": 5217,
      "ĠÙĨØµØ¨": 5218,
      "ĠÙĨØ¹ÙħØªÙĩ": 5219,
      "ĠØ§ÙĦÙħØ³ÙĥÙĬÙĨ": 5220,
      "ĠÙħÙĥÙĬÙĨ": 5221,
      "ĠÙħÙĥØ±Ø§": 5222,
      "ĠØ¨Ø±Ø¨ÙĬ": 5223,
      "ĠØ¨Ø±ÙĪØŃ": 5224,
      "ĠÙģØ§ÙĨØ·ÙĦÙĤ": 5225,
      "ĠÙģØ§ÙĨØªÙĤÙħÙĨØ§": 5226,
      "ĠØ£Ø¹ÙħÙĦ": 5227,
      "ĠØ¨Ø¥Ø°ÙĨÙĬ": 5228,
      "ĠØ£ØŃØ¯ÙĩÙħØ§": 5229,
      "ĠÙģÙĦÙĬØ£": 5230,
      "ĠÙģÙĦÙĬØ³Øª": 5231,
      "ĠØ±Ø²ÙĤÙĩ": 5232,
      "ĠÙĨØ¬ÙĬÙĨØ§": 5233,
      "ĠÙĨÙĪØŃÙĬ": 5234,
      "ĠØ¢Ø¨Ø§Ø¡ÙĩÙħ": 5235,
      "ĠØ¢Ø¨Ø§Ø¦ÙĥÙħ": 5236,
      "ĠØ¢Ø¨Ø§Ø¤ÙĩÙħ": 5237,
      "ĠØµØ§ÙĦØŃÙĬÙĨ": 5238,
      "ĠÙĥØ±Ø©": 5239,
      "ĠÙģØ£ÙĨØ¨ØªÙĨØ§": 5240,
      "ĠØ§ÙĦØªÙĪØ¨Ø©": 5241,
      "ĠÙĪØ¬Ø¹ÙĦÙĨÙĬ": 5242,
      "ĠÙģØ§ØªÙĤÙĪÙĨ": 5243,
      "Ø§Ø¬Ø§": 5244,
      "ĠÙĪÙĦÙĨØ¬Ø²ÙĬÙĨ": 5245,
      "ĠØ§ÙĦÙħÙĨØª": 5246,
      "ĠØªØµÙģÙĪÙĨ": 5247,
      "ĠÙĨØ°ÙĬØ±Ø§": 5248,
      "ĠØ§ØªØ¨Ø¹Ùĥ": 5249,
      "ĠÙĦØ¨Ø´Ø±": 5250,
      "ĠÙĦØ¨Ø«ÙĪØ§": 5251,
      "ĠØªØ³ØªØ·ÙĬØ¹": 5252,
      "ĠÙĨÙģØ®": 5253,
      "ĠÙĨÙģÙĪØ±Ø§": 5254,
      "ĠÙĪØ§Ø³ØªÙĥØ¨Ø±ÙĪØ§": 5255,
      "ĠÙħÙħÙĨÙĪÙĨ": 5256,
      "ĠÙģØ¹ÙĦÙĬÙĩ": 5257,
      "ĠÙĬØ¶ÙĦÙĪÙĨ": 5258,
      "ĠÙĪØ£ØµÙĬÙĦØ§": 5259,
      "ĠÙģÙĦÙĨÙģØ³Ùĩ": 5260,
      "ĠØ£Ø±Ø§ÙĥÙħ": 5261,
      "ĠØ£Ø±Ø§Ø¯ÙĪØ§": 5262,
      "ĠØ¨Ø³ÙĪØ¡": 5263,
      "ĠÙĪØµØ§ÙĥÙħ": 5264,
      "ĠÙħØ¨Ø´Ø±ÙĬÙĨ": 5265,
      "ĠØ³Ø¨ÙĦØ§": 5266,
      "ĠØ³Ø¨Ø¨Ø§": 5267,
      "ĠØ£ÙĩÙĦÙĥÙĨØ§ÙĩÙħ": 5268,
      "ĠØ£ÙĩÙĦÙĥÙĨØ§ÙĩØ§": 5269,
      "ĠÙĦØ¯ÙĬ": 5270,
      "Ø«ÙĦØ«": 5271,
      "ĠÙĪÙĦØªØ¨ØªØºÙĪØ§": 5272,
      "ĠÙħØŃØµ": 5273,
      "ĠØ¬ÙĨØ§ØŃÙĥ": 5274,
      "ĠØ´Ø±Ø§Ø¨": 5275,
      "ĠØ¢ÙĦÙĩØªÙĥÙħ": 5276,
      "Ø§ÙĪÙĬÙĨ": 5277,
      "ĠÙģØ¹ÙĦÙĪØ§": 5278,
      "ĠØ¨Ø´Ø±Ùī": 5279,
      "ÙģÙĬÙĨØ©": 5280,
      "ĠØ¬Ø¦ÙĨØ§": 5281,
      "ĠØ¬Ø¦ØªÙĥÙħ": 5282,
      "ĠØ®ÙĦÙģÙĩ": 5283,
      "ĠÙģØ£Ø®Ø°ÙĨØ§ÙĩÙħ": 5284,
      "ĠØ§ØªØ®Ø°ØªÙħ": 5285,
      "ĠØ§ÙĦØ¨ØŃØ±ÙĬÙĨ": 5286,
      "ĠØ¨Ø·Ø´": 5287,
      "ĠØ£ØµØ§Ø¨ÙĥÙħ": 5288,
      "ĠÙħØ³ÙĦÙħØ©": 5289,
      "ĠÙħØ±Ø¶Ùī": 5290,
      "ĠØ£ØºÙĪ": 5291,
      "ĠØ£ØºÙĬØ±": 5292,
      "ĠÙĪØ§ÙĦØ¨ØºØ¶Ø§Ø¡": 5293,
      "ĠØ¬ÙĨÙĪØ¯": 5294,
      "ĠÙĦØºÙĬØ±": 5295,
      "ĠØ¹ØµÙĬØª": 5296,
      "ĠØªØ²ÙĥÙī": 5297,
      "ĠØªØ²Ø¹ÙħÙĪÙĨ": 5298,
      "ĠØ¢ØªÙĬÙĥÙħ": 5299,
      "ĠØ¢ØªÙĬØªÙħÙĪÙĩÙĨ": 5300,
      "ĠØ´ÙĩØ¯ÙĨØ§": 5301,
      "ĠÙĪÙĬÙĨÙĩÙĪÙĨ": 5302,
      "ĠØ¨Ø´ÙĬØ±Ø§": 5303,
      "ĠÙĪØ§ÙĦØµØ§Ø¨": 5304,
      "ĠÙĪØ§ÙĦØµØ§Ø¨Ø±ÙĬÙĨ": 5305,
      "ĠÙĪØ§Ø³Ø¹Ø©": 5306,
      "ĠÙĪÙĪØ¶Ø¹": 5307,
      "ĠØ¨ÙĨØ¹ÙħØ©": 5308,
      "ĠÙĪØ£ÙħÙĩ": 5309,
      "ĠØ¯Ø¹ÙĪØ©": 5310,
      "ĠÙĬØŃÙĥÙħÙĪÙĨ": 5311,
      "ĠÙħÙĥØ§ÙĨØªÙĥÙħ": 5312,
      "ĠÙĪØ·ÙħØ¹Ø§": 5313,
      "ĠÙĬØ¹ÙħØ±": 5314,
      "ĠÙĨØµØ±Ùģ": 5315,
      "ĠØŃØ¬Ø§Ø¨": 5316,
      "ÙĦÙĪÙħØ§": 5317,
      "ĠÙĪÙĬØ±Ø³ÙĦ": 5318,
      "ĠÙĪØ¸ÙĦ": 5319,
      "ĠÙĪØ¸ÙĨ": 5320,
      "ĠÙģØµÙĦØª": 5321,
      "ĠÙģØµÙĬØ§Ùħ": 5322,
      "Ø¶Ø¹ÙģÙĬÙĨ": 5323,
      "ĠÙĪØ£ÙĤØ³ÙħÙĪØ§": 5324,
      "ĠØ®ÙĪÙģØ§": 5325,
      "ĠÙĬÙĨÙģØ¹ÙĩÙħ": 5326,
      "ĠÙĬÙĨÙģØ¹ÙĥÙħ": 5327,
      "ĠØ§Ø«ÙĨØªÙĬÙĨ": 5328,
      "ĠÙĪØ¢ØªÙĬÙĨØ§ÙĩÙħ": 5329,
      "ĠØ§ÙĦØ¨ÙĬÙĪØª": 5330,
      "ĠØ£ÙħÙĨØªÙħ": 5331,
      "ĠÙĬÙħØ³ÙĩÙħ": 5332,
      "ĠØªØ¤ÙģÙĥÙĪÙĨ": 5333,
      "ĠÙĪØ£ÙĩÙĦÙĩØ§": 5334,
      "ĠØ¨Ø§ÙĦÙħÙĩØªØ¯ÙĬÙĨ": 5335,
      "ĠØ§ÙĦØ±Ø¬Ø³": 5336,
      "ĠØ§ÙĦØ±Ø¬ÙģØ©": 5337,
      "ĠØ²ÙĪØ¬ÙĬÙĨ": 5338,
      "ĠØ²ÙĪØ¬ÙĩØ§": 5339,
      "ĠÙĪÙģØ¶ÙĦ": 5340,
      "ĠØ£Ø°ÙĦØ©": 5341,
      "ĠØ£Ø°ÙĤÙĨØ§": 5342,
      "ĠØ£Ø«ÙĤØ§ÙĦ": 5343,
      "ĠÙĬÙĪØŃÙĬ": 5344,
      "ĠØ¹Ø¬Ø¨Ø§": 5345,
      "ĠØ¨Ø§ÙĦØ¹Ø´ÙĬ": 5346,
      "ĠØ§Ø´Øª": 5347,
      "ĠÙħÙĬØ«Ø§ÙĤÙĩÙħ": 5348,
      "ĠÙħÙĬØ«Ø§ÙĤÙĥÙħ": 5349,
      "ĠØ£Ø±Ø¨Ø¹ÙĬÙĨ": 5350,
      "ĠØªØºÙĨ": 5351,
      "ĠÙĤØ§Ø¦ÙħØ§": 5352,
      "ĠØ¯Ø§Ø¨Ø±": 5353,
      "ĠÙĦÙĨÙģØ³ÙĬ": 5354,
      "ĠÙĪØ¨Ø§ÙĦÙĪØ§ÙĦØ¯ÙĬÙĨ": 5355,
      "ĠÙĪÙĩØ§ÙħØ§ÙĨ": 5356,
      "ĠÙĪÙĩØ§Ø¬Ø±ÙĪØ§": 5357,
      "ĠÙĪØ§ÙĨØ¸Ø±": 5358,
      "ĠÙĪØ§Ø±Ø²ÙĤ": 5359,
      "ĠØ¹ÙĩØ¯Ø§": 5360,
      "ĠÙĨØ§Ø¯ÙħÙĬÙĨ": 5361,
      "ĠÙĩØ¯Ø§ÙĩÙħ": 5362,
      "ĠÙĩØ¯Ø§ÙĥÙħ": 5363,
      "Ø§ØªÙĦÙĪÙĩÙħ": 5364,
      "ĠØ´Ø¹ÙĬØ¨": 5365,
      "ĠØ´Ø¹Ø§Ø¦Ø±": 5366,
      "ĠØ§Ø±Øª": 5367,
      "ĠØ§Ø±Ø¬Ø¹": 5368,
      "ĠØ§ÙĦÙĪØ§Ø±Ø«": 5369,
      "ĠÙĪØ§Ø¯Ø¹": 5370,
      "ĠÙĪØ§Ø¯Ø¹ÙĪØ§": 5371,
      "ĠØ£Ø¹Ø¯Øª": 5372,
      "ĠÙĦØ¬Ø¹ÙĦÙĨØ§": 5373,
      "ÙĤØ·Ø¹ÙĪØ§": 5374,
      "ĠØ¨Ø¬Ø§ÙĨ": 5375,
      "ĠØ¥ØŃØ¯Ùī": 5376,
      "ĠØªØ¨Ø¯ÙĪØ§": 5377,
      "ĠÙĪØ£Ø®ÙĬÙĩ": 5378,
      "ĠØ¯Ø±Ø¬Ø©": 5379,
      "ĠØ¸ÙĩÙĪØ±": 5380,
      "ĠØ¸ÙĩÙĬØ±Ø§": 5381,
      "ĠØ§Ø¦ØªÙĨØ§": 5382,
      "ĠÙĪØ£ÙĦÙĤÙĬÙĨØ§": 5383,
      "ĠØ°Ø±ÙĬØªÙĬ": 5384,
      "ĠØ°Ø±ÙĬØªÙĩ": 5385,
      "ĠØ°Ø±ÙĬØªÙĩÙħ": 5386,
      "ĠÙĪÙĬØ£Øª": 5387,
      "ĠÙĪÙĬØ£ÙħØ±ÙĪÙĨ": 5388,
      "ĠØ§ÙĩØªØ¯ÙĪØ§": 5389,
      "ĠÙĪØ§ÙĦØ£ÙĨØ«Ùī": 5390,
      "ĠÙĬØ£ØªÙĪÙĥ": 5391,
      "ĠØ£Ø¨ÙĨØ§Ø¡ÙĥÙħ": 5392,
      "ĠÙĦØ¨Ø«Øª": 5393,
      "Ø±Ø¡ÙĪÙĨ": 5394,
      "ĠØ£Ø¶Øº": 5395,
      "ĠØ£ÙģØ±Ø£ÙĬØª": 5396,
      "ĠÙĦØŃÙħØ§": 5397,
      "ĠØ¨Ø°ÙĨÙĪØ¨": 5398,
      "ĠØ¥ÙħØ§ÙħØ§": 5399,
      "ĠØ£ÙĨØ´Ø£ÙĨØ§": 5400,
      "ĠØ¨Ø§ÙĦØ£ÙħØ³": 5401,
      "ĠØ¯Ø¹ÙĪØ§ÙĩÙħ": 5402,
      "ĠØ¯ÙĬØ§Ø±ÙĥÙħ": 5403,
      "ĠÙĬØ¯Ø®ÙĦÙĩ": 5404,
      "ĠØ£Ø³ÙĦÙħÙĪØ§": 5405,
      "ĠØ§ÙĦÙģØ±ÙĤØ§ÙĨ": 5406,
      "ĠÙĪØ°Ø±ÙĬØ§Øª": 5407,
      "ĠÙģØ§Ø®Ø±Ø¬": 5408,
      "ĠØ¹Ø§ÙħÙĦ": 5409,
      "ĠØªÙĪÙĥÙĦÙĨØ§": 5410,
      "ĠÙĨØ®ÙĬÙĦ": 5411,
      "ĠØ§ÙĦØ¬Ø§ÙĩÙĦÙĬØ©": 5412,
      "ĠÙĪØ§Ø®ØªÙĦØ§Ùģ": 5413,
      "ÙħÙĩÙĦ": 5414,
      "ĠÙĬÙĨØ§Ø¯ÙĪÙĨ": 5415,
      "ĠÙĬØ³Ø±ÙĨØ§": 5416,
      "ĠØªÙĤØ¯ÙħÙĪØ§": 5417,
      "ĠØ±Ø§Ø¬Ø¹ÙĪÙĨ": 5418,
      "ĠØ§ÙĦÙħÙĬØªØ©": 5419,
      "ĠØ°Ø±Ø£": 5420,
      "ĠØ§ÙĦÙĤØ¯Ø³": 5421,
      "ĠÙĬØªÙĪÙģÙī": 5422,
      "ĠÙĬØªÙĪÙģØ§ÙĥÙħ": 5423,
      "ĠØ°ÙĨÙĪØ¨ÙĨØ§": 5424,
      "ĠÙĦÙĬÙĨØ°Ø±": 5425,
      "ĠÙĦØ¥Ø®ÙĪØ§ÙĨÙĩÙħ": 5426,
      "ĠÙĨØ¯Ø¹ÙĪ": 5427,
      "ĠØ«ÙĤÙĦØª": 5428,
      "ĠØ§Ø¹ØªØ¯Ùī": 5429,
      "ĠÙĪÙĥÙģØ±Ø§": 5430,
      "ĠØºØ§ÙģÙĦÙĬÙĨ": 5431,
      "ĠÙĬÙĨØµØ±ÙĥÙħ": 5432,
      "ĠØ§ÙĦÙĨØ¬ÙĪÙī": 5433,
      "ĠÙħØ³ØªÙĤØ±Ø§": 5434,
      "ĠØ¥Ø®ÙĪØ©": 5435,
      "ĠØ¹Ø§Ø¨Ø¯ÙĪÙĨ": 5436,
      "ĠØªØ¹Ø¯ÙĨØ§": 5437,
      "ĠØªØ¹Ø¯ÙĦÙĪØ§": 5438,
      "ĠØ³ÙĪÙĬØ§": 5439,
      "ĠØ³ÙħØ§Ø¹ÙĪÙĨ": 5440,
      "ĠÙĪØ£ÙĬØ¯ÙĬÙĥÙħ": 5441,
      "ĠÙĬØ¯Ø¹ÙĪÙĥÙħ": 5442,
      "ĠØ§ÙĦØºÙĬÙĪØ¨": 5443,
      "ĠÙĬÙĤØ§ØªÙĦÙĪÙĨÙĥÙħ": 5444,
      "ĠÙħÙĩÙĬÙĨØ§": 5445,
      "ĠØ£Ø¨ÙĬÙĥÙħ": 5446,
      "ĠÙĦØ´Ø¯ÙĬØ¯": 5447,
      "ĠØ¨Ø§Ø³Ùħ": 5448,
      "ĠØ±ÙĬØŃØ§": 5449,
      "ĠÙĨØ±ÙĬØ¯": 5450,
      "ĠÙĪØ¥ÙĬØ§ÙĥÙħ": 5451,
      "ĠØ¨Ø§ÙĦØµØ¨Ø±": 5452,
      "ĠØ§ÙĦÙĤØ§Ø¹Ø¯ÙĬÙĨ": 5453,
      "ĠØ·ÙĦÙĤØªÙħ": 5454,
      "ĠÙĬØ¹Ø°Ø¨ÙĥÙħ": 5455,
      "ĠØ§ÙĦØºØ§ÙĦØ¨ÙĬÙĨ": 5456,
      "ĠØ§Ø¶Ø±Ø¨": 5457,
      "ĠØªÙĨÙĥØŃÙĪØ§": 5458,
      "ĠÙħØ®ØªÙĦÙģØ§": 5459,
      "ĠØ§ÙĦØ¹ÙħÙĬ": 5460,
      "ĠØ§ÙĦØ¹ÙħØ±": 5461,
      "ĠÙĪØºØ¶Ø¨": 5462,
      "ĠÙĦØµØ§Ø¯ÙĤÙĪÙĨ": 5463,
      "ĠØ³ÙħÙĬØ¹Ø§": 5464,
      "ĠÙĪØ£Ø²ÙĪØ§Ø¬ÙĩÙħ": 5465,
      "ĠØ§ÙĦÙħÙĤØ±Ø¨ÙĬÙĨ": 5466,
      "ĠØ§ÙĦÙħÙĤØ±Ø¨ÙĪÙĨ": 5467,
      "ĠØ¨Ø§ÙĦØ³ÙĪØ¡": 5468,
      "ĠÙĪÙĬØµØ¯ÙĪÙĨ": 5469,
      "ĠØ£ÙħØ«Ø§ÙĦÙĥÙħ": 5470,
      "ĠØ¸Ø§ÙĦÙħØ©": 5471,
      "ĠØ§ÙĦØ¬ÙħØ¹Ø§ÙĨ": 5472,
      "ĠÙĬØ³Ø¬Ø¯ÙĪÙĨ": 5473,
      "ĠÙĦØªØ³ÙĥÙĨÙĪØ§": 5474,
      "ĠØ£Ø¹ÙĨØ§ÙĤÙĩÙħ": 5475,
      "ĠÙģØ³ÙĬÙĤÙĪÙĦÙĪÙĨ": 5476,
      "ĠØªØ¯Ø¹ÙĪÙĩÙħ": 5477,
      "ĠÙĬØµÙĦÙĪÙĨÙĩØ§": 5478,
      "ĠØ¨Ø±ÙĩØ§ÙĨÙĥÙħ": 5479,
      "ĠÙħØ¹Ø¯ÙĪØ¯": 5480,
      "ĠØ£Ø²ÙĥÙī": 5481,
      "ĠØ£ÙĦÙĪØ§ÙĨÙĩ": 5482,
      "ĠÙĦØ¨Ø§Ø³": 5483,
      "ĠÙĬØ°ÙĩØ¨ÙĥÙħ": 5484,
      "ĠØ¨Ø¹ÙĦÙħÙĩ": 5485,
      "ĠØ¹Ø§ÙĩØ¯ØªÙħ": 5486,
      "ĠØªÙģØ³Ø¯ÙĪØ§": 5487,
      "ĠØ±Ø¢Ùĩ": 5488,
      "ĠÙĪØ£Ø±Ø¬ÙĦÙĥÙħ": 5489,
      "ĠØ¨Ø§ÙĦÙĥØªØ§Ø¨": 5490,
      "ĠØµÙĨØ¹ÙĪØ§": 5491,
      "ĠØµØ±ÙģÙĨØ§": 5492,
      "ĠØ§ÙĦÙĤØµØµ": 5493,
      "ĠÙĬÙĨØ·ÙĤÙĪÙĨ": 5494,
      "ĠØ£ØŃÙĬØ§Ø¡": 5495,
      "ĠÙģØªØŃÙĨØ§": 5496,
      "ĠÙĬØ¤Ø§Ø®Ø°ÙĥÙħ": 5497,
      "ĠÙħØªØ´Ø§Ø¨ÙĩØ§": 5498,
      "ĠØ§ÙĨØªÙĤØ§Ùħ": 5499,
      "ĠÙĪØ§Ø¶Ø±Ø¨": 5500,
      "ĠØ£Ø¦ÙĨÙĥÙħ": 5501,
      "ĠÙĬÙħÙĬØªÙĥÙħ": 5502,
      "ĠØ¨ÙģØ§ØŃØ´Ø©": 5503,
      "ĠØ¨ÙĤØ±Ø©": 5504,
      "ĠØ¨ÙĬÙħÙĬÙĨÙĩ": 5505,
      "ĠØ£ÙĨÙģÙĤØªÙħ": 5506,
      "ĠØ³ØªØ¬Ø¯": 5507,
      "ĠØ³ØŃØ§Ø¨Ø§": 5508,
      "ĠØ§ÙĦÙħØ¹ØªØ¯ÙĬÙĨ": 5509,
      "ĠØ¸Ø§ÙĩØ±": 5510,
      "ĠØªØŃÙĥÙħÙĪÙĨ": 5511,
      "ĠÙĬØ®ØªØµÙħÙĪÙĨ": 5512,
      "ĠØ¨Ø¬ÙĩØ§ÙĦØ©": 5513,
      "ĠÙħØ®ÙĦØµØ§": 5514,
      "ĠØ¨ÙĪØ§ÙĦØ¯ÙĬÙĩ": 5515,
      "ĠØ¹ÙĤØ¨Ùī": 5516,
      "ĠÙĤØ§ÙħÙĪØ§": 5517,
      "ĠÙĪØ£ÙĪÙĦÙĪ": 5518,
      "ĠÙĪØ£Ø¨ØµØ§Ø±ÙĩÙħ": 5519,
      "ĠØ§ÙĦÙħØŃØ±Ø§Ø¨": 5520,
      "ĠÙĪÙĦÙĦÙħØ¤ÙħÙĨÙĬÙĨ": 5521,
      "ĠØµÙĦØµØ§ÙĦ": 5522,
      "ĠØµØ¹ÙĬØ¯Ø§": 5523,
      "ĠØ§ÙĩØ¨Ø·ÙĪØ§": 5524,
      "ĠÙĬÙĨÙĤØ¶ÙĪÙĨ": 5525,
      "ĠÙģÙĦÙĬÙĨØ¸Ø±": 5526,
      "ĠÙĬØ®ÙĪØ¶ÙĪØ§": 5527,
      "ĠÙħØ³Ø¦ÙĪÙĦØ§": 5528,
      "ĠØ¨ÙĥÙģØ±ÙĩÙħ": 5529,
      "ĠÙģØ§Ø³ØªØ¹Ø°": 5530,
      "ĠÙģØ§Ø³ØªØ¬Ø¨ÙĨØ§": 5531,
      "ĠÙĬÙĨØ§Ø¯ÙĬÙĩÙħ": 5532,
      "ĠØ³ÙĪØ¢ØªÙĩÙħØ§": 5533,
      "ĠØ¥Ø®ÙĪØ§ÙĨÙĩÙĨ": 5534,
      "ĠØ§ÙĦØ¹Ø¯Ø§ÙĪØ©": 5535,
      "ĠÙħØ¨Ø§Ø±ÙĥØ§": 5536,
      "ĠÙħÙĤØ±ÙĨÙĬÙĨ": 5537,
      "ĠÙĦØ³Ø§ØŃØ±": 5538,
      "ĠØ¨ØŃÙħØ¯Ùĩ": 5539,
      "ĠÙĥØ±ÙĬÙħØ§": 5540,
      "ĠÙģÙĬÙĪÙħØ¦Ø°": 5541,
      "ĠÙĩÙĨÙĬØ¦Ø§": 5542,
      "ĠÙĩØ§ÙĩÙĨØ§": 5543,
      "ĠØ§ÙĦÙħÙħØªØ±ÙĬÙĨ": 5544,
      "ĠØŃØ§ØµØ¨Ø§": 5545,
      "ĠØ®ÙĦØ§Ø¦Ùģ": 5546,
      "ĠØ§ÙĦØ£ÙĬÙĥØ©": 5547,
      "Ø³ØªØ¨Ø±ÙĤ": 5548,
      "ĠØ¨ÙĩØªØ§ÙĨØ§": 5549,
      "ĠÙĪØ§Ø¹ØªØµÙħÙĪØ§": 5550,
      "ĠØ¨Ø£Ø¹ÙĬÙĨÙĨØ§": 5551,
      "ĠØ£ÙģÙĪØ§ÙĩÙĩÙħ": 5552,
      "ĠØ¶Ø¹ÙĬÙģØ§": 5553,
      "ĠÙĦØ£ÙħÙĦØ£ÙĨ": 5554,
      "ĠØ§Ø³ØªØ¬Ø§Ø¨ÙĪØ§": 5555,
      "ĠÙħØªÙĤØ§Ø¨ÙĦÙĬÙĨ": 5556,
      "Ø§ÙĤØ§": 5557,
      "ÙĦÙĪÙħ": 5558,
      "ÙĦÙĪÙĩØ§": 5559,
      "ÙĦÙĪÙī": 5560,
      "ÙĨØ²ÙĦ": 5561,
      "ÙĨØ¸Ø±": 5562,
      "ÙħÙĥÙħ": 5563,
      "ÙħÙĬÙĦ": 5564,
      "ÙħØ£ÙĨ": 5565,
      "ÙĬØ·": 5566,
      "ÙĬØ¡": 5567,
      "ÙĬØ¹ÙĪÙĨ": 5568,
      "ÙĬØ£Ø³": 5569,
      "ÙĬØ²Ø§ÙĨ": 5570,
      "ÙĪÙĪÙĨ": 5571,
      "ÙĪÙĤØ¯": 5572,
      "ÙĪØªÙĩÙħ": 5573,
      "ÙĪØ¹Ø©": 5574,
      "ÙĪÙĬÙĩ": 5575,
      "ÙĪØ¶Ø©": 5576,
      "Ø§ÙĦÙħ": 5577,
      "Ø§ÙĦØ¯ÙĬ": 5578,
      "ÙĩØ±Ø§": 5579,
      "ÙĩÙĬØ¯": 5580,
      "Ø±ÙĪÙĩÙĨ": 5581,
      "ĠØ§ÙĦÙĦ": 5582,
      "ĠØ§ÙĦØ¹Ø¯": 5583,
      "ĠØ§ÙĦØªØ§Ø¨": 5584,
      "ĠØ§ÙĦÙĪØ¯": 5585,
      "ĠØ§ÙĦÙĪØ§ÙĦ": 5586,
      "ĠØ§ÙĦÙĪÙĩØ§": 5587,
      "ĠØ§ÙĦÙĩÙĪÙĨ": 5588,
      "ĠØ§ÙĦØ¨Ø¹Ø«": 5589,
      "ĠØ§ÙĦÙĦØ¹": 5590,
      "ĠØ§ÙĦÙĪØ³": 5591,
      "ĠØ§ÙĦØ±Ø§Ùĥ": 5592,
      "ĠØ§ÙĦØ¨Ø¹ÙĬØ¯": 5593,
      "ĠØ§ÙĦØ«ÙĦØ«": 5594,
      "ĠÙĪÙĦÙī": 5595,
      "ĠÙĪÙĪÙĦ": 5596,
      "ĠÙĪØ°Ø§": 5597,
      "ĠÙĪØ±Ø§": 5598,
      "ĠÙĪØ¨Ø¯": 5599,
      "ĠÙĪØ²ÙĦ": 5600,
      "ĠÙĪØ³ÙĨ": 5601,
      "ĠÙĪÙħØ¹": 5602,
      "ĠÙĪØ¯ÙĬÙĨ": 5603,
      "ĠÙĪØ¯ÙĪØ§": 5604,
      "ĠÙĪØ¨ÙĦØº": 5605,
      "ĠÙĪØ¯Ø®ÙĦ": 5606,
      "ĠÙĪØ°ÙĪÙĤÙĪØ§": 5607,
      "ĠÙĪØªÙħØª": 5608,
      "ĠÙĪÙģØªØŃ": 5609,
      "ÙĥÙĩÙħ": 5610,
      "ÙĥÙĦÙĪÙĨ": 5611,
      "ÙĥÙĪØ±": 5612,
      "ÙĥÙĪØ±Ø§": 5613,
      "ØªØ§Øª": 5614,
      "ØªØ§Ø±": 5615,
      "ØªØ¨ÙĬ": 5616,
      "ØªÙģÙĥ": 5617,
      "Ø¨ÙĨ": 5618,
      "Ø¨ÙĤ": 5619,
      "Ø¨Ø¥": 5620,
      "Ø¨ÙĤÙĪØ§": 5621,
      "Ø¨ÙĪØª": 5622,
      "Ø¨Ø§Ø¦Ø±": 5623,
      "Ø¨Ø´Ø±Ø§": 5624,
      "Ø¨ÙĦÙĪÙĨÙĥÙħ": 5625,
      "ĠÙħÙĩØ§": 5626,
      "ĠÙħÙģØ±": 5627,
      "ĠÙħÙĤØ¯": 5628,
      "ĠÙħØ¨ÙĦ": 5629,
      "ĠÙħØ±Ø³ÙĦ": 5630,
      "ĠÙħØ´Ùģ": 5631,
      "ĠÙħØ¤ÙħÙĨØ§Øª": 5632,
      "ĠÙħØ¨Ø¯ÙĦ": 5633,
      "ĠÙħÙĩØªØ¯ÙĬÙĨ": 5634,
      "ĠÙħØ§ØªÙĪØ§": 5635,
      "Ø¹ÙĩØ§": 5636,
      "Ø¹Ø«": 5637,
      "Ø¹ÙĬÙĩ": 5638,
      "Ø¹Ø¸Ø©": 5639,
      "ĠØ£Ø°Ø§": 5640,
      "ĠØ£ÙĥØ±": 5641,
      "ĠØ£Ø´Ø±": 5642,
      "ĠØ£Ø·Ø¹": 5643,
      "ĠØ£Ø£ÙĨ": 5644,
      "ĠØ£Ø³ÙħØ¹": 5645,
      "ĠØ£ÙĬØ§ÙħØ§": 5646,
      "ĠØ£Ø±ÙĪÙĨÙĬ": 5647,
      "Ø¯ÙĪ": 5648,
      "Ø¯ÙĤ": 5649,
      "Ø¯ÙĩØ§": 5650,
      "Ø¯Ø±ÙĬ": 5651,
      "Ø¯ØªÙĩÙħ": 5652,
      "Ø¯ÙĬÙĨØ§Ùĩ": 5653,
      "Ø³Ø§Øª": 5654,
      "Ø³ÙĦÙĪØ§": 5655,
      "Ø³ÙĨÙĬ": 5656,
      "Ø³ÙĨØ§Øª": 5657,
      "ĠÙģÙģ": 5658,
      "ĠÙģØ´": 5659,
      "ĠÙģØ§Ø¨": 5660,
      "ĠÙģÙĦÙĥ": 5661,
      "ĠÙģØ¦": 5662,
      "ĠÙģÙĪÙĦ": 5663,
      "ĠÙģØªÙħ": 5664,
      "ĠÙģÙĪØ±": 5665,
      "ĠÙģØ®Ø±Ø¬": 5666,
      "ĠÙģØ§ÙĦØŃ": 5667,
      "ĠÙģÙģÙĬ": 5668,
      "ĠÙģÙĨØª": 5669,
      "ĠÙģÙĦÙĬÙħ": 5670,
      "ĠÙģÙĦÙĩØ§": 5671,
      "ĠÙģÙĩØ¯Ùī": 5672,
      "ĠÙģØ§Ø¶": 5673,
      "ĠÙģØ±Ø§Ø±Ø§": 5674,
      "ĠÙģØ¬Ø¹ÙĦÙĩ": 5675,
      "ĠÙģØªÙĬÙĦØ§": 5676,
      "ĠÙģÙĪØ²Ø§": 5677,
      "ĠÙģØ¤Ø§Ø¯": 5678,
      "ĠÙĦÙĦÙĬ": 5679,
      "ĠÙĦØ§Ø¨": 5680,
      "ĠÙĦÙĬÙħ": 5681,
      "ĠÙĦØ³ÙĨ": 5682,
      "ĠÙĦÙģØ§": 5683,
      "ĠÙĦØ±Ø¬": 5684,
      "ĠÙĦØºÙĪØ§": 5685,
      "ĠÙĦØ¦ÙĦØ§": 5686,
      "ĠÙĬÙĦØ§": 5687,
      "ĠÙĬØ§Ø¨": 5688,
      "ĠÙĬØ¦": 5689,
      "ĠÙĬØ¨ÙĬ": 5690,
      "ĠÙĬØªÙĬ": 5691,
      "ĠÙĬÙĩØ§Ø¬Ø±ÙĪØ§": 5692,
      "ÙĤÙĦ": 5693,
      "ÙĤÙĤ": 5694,
      "ÙĤÙĪÙħ": 5695,
      "ÙĤØ¹Ø¯": 5696,
      "ÙĤÙĬØª": 5697,
      "ÙĤØ¹Ø©": 5698,
      "ÙĤØ¨ÙĪØ§": 5699,
      "ÙĤØ·Ø¹ÙĨ": 5700,
      "Ø°ÙĨØª": 5701,
      "Ø°ÙĪÙĤ": 5702,
      "Ø°ÙĤØ§ÙĨ": 5703,
      "ÙĪØ§ÙĨ": 5704,
      "ÙĪØ§ÙĩØ§": 5705,
      "ÙĬÙĨÙĩ": 5706,
      "ĠØ¨ÙĦØ§": 5707,
      "ĠØ¨ÙĬÙĨØ§": 5708,
      "ĠØ¨ÙĬØ§Øª": 5709,
      "ĠØ¨ÙĤÙĪÙĦ": 5710,
      "ĠØ¨Ø°ÙĦÙĥ": 5711,
      "ĠØ¨Ø§Ø·": 5712,
      "ĠØ¨Ø¯ÙĬÙĨ": 5713,
      "ĠØ¨ÙĩÙħØ§": 5714,
      "ĠØ¨Ø§ÙĤ": 5715,
      "ĠØ¨Ø´Ø±Ùĥ": 5716,
      "ĠØ¨Ø§Øº": 5717,
      "ĠØ¨Ø±Ø³ÙĦ": 5718,
      "ĠØ¨ÙĤÙĦØ¨": 5719,
      "ĠØ¨ÙĨØ§Ø¡": 5720,
      "ĠØ¨Ø¶Ø§": 5721,
      "ĠØ¨Ø¨ÙĨÙĬ": 5722,
      "ĠØ¥Ø³ÙħØ§Ø¹ÙĬÙĦ": 5723,
      "ÙģØ§ÙĦ": 5724,
      "ÙģØ¶": 5725,
      "ÙģØ§Øª": 5726,
      "ÙģØ¹ÙĪØ§": 5727,
      "ÙģØ¶ÙĪØ§": 5728,
      "ÙģØŃØ´Ø§Ø¡": 5729,
      "ÙģÙĤØ±Ø§Ø¡": 5730,
      "ØŃØ§Øª": 5731,
      "ØŃØªÙħ": 5732,
      "ØŃØ§Ø±": 5733,
      "ØŃÙģØ§": 5734,
      "Ø£Ùī": 5735,
      "Ø£ØªÙħ": 5736,
      "Ø£ØªÙĬÙĩÙħ": 5737,
      "ÙĦÙĩØªÙĨØ§": 5738,
      "ĠÙħÙĨØ²": 5739,
      "ĠÙħÙĨØ§Ùħ": 5740,
      "ĠÙħÙĨØªÙĤ": 5741,
      "ĠÙħÙĨÙĤÙĦØ¨": 5742,
      "ĠÙħÙĨØ°Ø±ÙĬÙĨ": 5743,
      "ĠØ¹Ø³": 5744,
      "ĠØ¹Ø²": 5745,
      "ĠØ¹Ø±Ùģ": 5746,
      "ÙĨØ§ÙĨ": 5747,
      "ÙħØ§Ø±": 5748,
      "ÙħØ§ÙĪØ§Øª": 5749,
      "ÙĦØ§ÙĨ": 5750,
      "ĠØªÙĦÙĩ": 5751,
      "ĠØªØ«": 5752,
      "ĠØªÙĪÙĦ": 5753,
      "ĠØªØ±Ø¶": 5754,
      "ĠØªØ¤ÙħÙĨ": 5755,
      "ĠØªÙħÙĬ": 5756,
      "ĠØªØºÙģØ±": 5757,
      "ĠØªÙĩØ¯ÙĬ": 5758,
      "ĠØªØ¸ÙĦÙħ": 5759,
      "ĠØªÙĦÙĪ": 5760,
      "ĠØªØ¶Ø¹": 5761,
      "ĠØªØ¹Ø¯ÙĪØ§": 5762,
      "ĠØªÙĪØ§Ø¨Ø§": 5763,
      "ĠØªØ¹ÙĦÙĨÙĪÙĨ": 5764,
      "ĠØªÙĩÙĪÙī": 5765,
      "ĠØªÙĥØ±ÙĩÙĪØ§": 5766,
      "ĠØªÙĩÙĨÙĪØ§": 5767,
      "Ø¬Ùĩ": 5768,
      "Ø¬Ø¨": 5769,
      "Ø¬Ø§ÙĨ": 5770,
      "Ø¬Ø±ÙĪÙĨ": 5771,
      "Ø¬Ø±ÙĬ": 5772,
      "Ø¬ÙĪØ±Ø§": 5773,
      "Ø¬ÙĬÙĥÙħ": 5774,
      "Ø¬Ø²ÙĪÙĨ": 5775,
      "ĠÙĥØ®": 5776,
      "ĠÙĥÙĬÙĦ": 5777,
      "ĠÙĥÙĪÙĥ": 5778,
      "ĠÙĥØ¸ÙĬÙħ": 5779,
      "ĠÙĥÙĦØ§Ùħ": 5780,
      "ĠÙĥØ§Ø°Ø¨ÙĬÙĨ": 5781,
      "ĠÙĥØ¨Ø§Ø¦Ø±": 5782,
      "ĠÙĤÙĨ": 5783,
      "ĠÙĤÙħ": 5784,
      "ĠÙĤØ§Øª": 5785,
      "ĠÙĤÙĪØª": 5786,
      "ĠÙĤÙĪÙĦÙĩ": 5787,
      "ĠÙĤÙĬÙĦØ§": 5788,
      "ĠÙĤÙĪØ§Ø±": 5789,
      "ĠÙģÙĬÙħ": 5790,
      "ĠÙģÙĬØ£Ø®Ø°": 5791,
      "ÙħÙĨÙĬ": 5792,
      "ÙħÙĨÙĩ": 5793,
      "Ø®Ùģ": 5794,
      "Ø®ÙĦÙĬ": 5795,
      "Ø®Ø·": 5796,
      "Ø®ÙĬÙĦ": 5797,
      "Ø®ÙģÙĪÙĨ": 5798,
      "Ø®Ø³ÙĪØ§": 5799,
      "ØµØŃ": 5800,
      "ØµØ§Ø¨": 5801,
      "ØµØ¯Ø©": 5802,
      "ØµØŃØ§Ø¨": 5803,
      "ØµØ§Ùĥ": 5804,
      "ØµØŃÙĬÙĨ": 5805,
      "ĠØ±Ùħ": 5806,
      "ĠØ±Ø¯ÙĪØ§": 5807,
      "ĠØ±Ø¤ÙĬØ§": 5808,
      "ÙĩØ§Øª": 5809,
      "ÙĩØ§ÙĥÙħ": 5810,
      "Ø¶ÙĨ": 5811,
      "Ø¶ØªÙħ": 5812,
      "Ø¶Ø±Ø§": 5813,
      "Ø¶ÙĬØ§": 5814,
      "Ø¶ÙĪØ¯": 5815,
      "Ø²ÙĨ": 5816,
      "Ø²Ùĩ": 5817,
      "Ø²ÙĩÙħ": 5818,
      "Ø²Ø§Ø¡": 5819,
      "Ø²ÙĦÙĪØ§": 5820,
      "Ø²ÙĨÙĬ": 5821,
      "Ø§ÙĨÙĪØ§": 5822,
      "Ø§ÙĨØªÙĬÙĨ": 5823,
      "Ø´Ø§Ø¡": 5824,
      "Ø´ÙĪØ±": 5825,
      "Ø´ÙĤØª": 5826,
      "Ø´ÙĬÙĩÙħ": 5827,
      "ĠØ£ÙĨØ¨": 5828,
      "ĠØ£ÙĨØ·": 5829,
      "ĠØ£ÙĨØ¤ÙħÙĨ": 5830,
      "ĠØ£ÙĨØ¹Ø§Ùħ": 5831,
      "ĠØ£ÙĨØ¨Ø¦ÙĥÙħ": 5832,
      "ĠØ£ÙĨØ°Ø±ÙĪØ§": 5833,
      "ĠØ£ÙĨØ²ÙĦÙĩ": 5834,
      "ĠÙĪØ§ÙĦØ°Ø§": 5835,
      "ĠÙĪØ§ÙĦØ¢": 5836,
      "ĠÙĪØ§ÙĦØ±Ùĥ": 5837,
      "ĠÙĪØ§ÙĦØ¬ÙĨ": 5838,
      "ĠÙĨØ£": 5839,
      "ĠÙĨØ´Ø±Ùĥ": 5840,
      "ĠÙĨÙģØ¹": 5841,
      "ĠÙĨØ¨Ø¦": 5842,
      "ĠÙĨØ¨Ø¹Ø«": 5843,
      "ĠÙĨØŃÙĬÙĬ": 5844,
      "ĠÙĨØ¶ÙĬØ¹": 5845,
      "Ø§Ø¨ÙĤÙĪÙĨ": 5846,
      "ĠØ§ÙĦØ°ÙĦ": 5847,
      "ĠØ§ÙĦØ°ÙĨ": 5848,
      "ĠØ§ÙĦØ°Ø¦": 5849,
      "ÙĦÙħÙĪØ§": 5850,
      "ĠØ³ÙĬÙĨ": 5851,
      "ĠØ³ÙĦÙħ": 5852,
      "ĠØ³Ø¦": 5853,
      "ĠØ³Ø§Ø¯": 5854,
      "ĠØ³Ø¯Ø§": 5855,
      "ĠØ³ÙĨØª": 5856,
      "ĠØ³Ø§ÙĤ": 5857,
      "ĠØ³Ø§Ùħ": 5858,
      "Ø·Øª": 5859,
      "Ø·ÙħØ¹": 5860,
      "Ø·Ø¹Ø§Ùħ": 5861,
      "Ø·ÙĩØ±ÙĪÙĨ": 5862,
      "ÙĦÙĥÙĩ": 5863,
      "ÙĦÙĥÙĨØ§": 5864,
      "Ø«Ø§ÙĤ": 5865,
      "Ø¦ÙĪØ§": 5866,
      "Ø¦Ø§Ø¡": 5867,
      "ĠØ±Ø¨ÙĩÙħØ§": 5868,
      "ĠØ¢ÙĬØª": 5869,
      "ĠØ¢Ø°ÙĨ": 5870,
      "ĠØ¢ÙĨØ§Ø¡": 5871,
      "ÙĪÙĦÙĪØ¯": 5872,
      "ĠÙĪØ£Ø³": 5873,
      "ĠÙĪØ£Ø«": 5874,
      "ĠÙĪØ£Ø¹ÙĦÙħ": 5875,
      "ĠÙĪØ£ÙĨÙĬ": 5876,
      "ĠÙĪØ£Ø²ÙĦ": 5877,
      "ĠÙĪØ£Ø³Ø±": 5878,
      "ĠÙĪØ£ØŃÙĬ": 5879,
      "ĠÙĪØ£ØªØ¨Ø¹": 5880,
      "ĠÙĪØ£Ø¨ÙĨØ§": 5881,
      "ĠÙĪØ£Ø¯Ø¨Ø§Ø±": 5882,
      "ĠÙĪØ£Ø´Ø¯": 5883,
      "ĠÙĪØ£Ø¹ÙĨØ§Ø¨": 5884,
      "ĠÙĪØ£ÙĬÙĪØ¨": 5885,
      "ĠØ§ÙĦÙħØ±": 5886,
      "ĠØ§ÙĦÙħØŃ": 5887,
      "ĠØ§ÙĦÙħØ®": 5888,
      "ĠØ§ÙĦÙħØ«": 5889,
      "ĠØ§ÙĦÙħÙĩØ¯": 5890,
      "ĠØ§ÙĦÙħÙĩØª": 5891,
      "ĠØ§ÙĦÙħØŃÙĬ": 5892,
      "ĠØ§ÙĦÙħÙĪÙĦÙī": 5893,
      "ĠØ§ÙĦÙħØ´Ø±ÙĥÙĪÙĨ": 5894,
      "ĠØ§ÙĦÙħØ´Ø£": 5895,
      "ĠØ§ÙĦÙħØ®ÙĦÙģ": 5896,
      "ĠØ§ÙĦÙħÙĬÙħÙĨ": 5897,
      "ĠØ§ÙĦÙħÙĤØ³Ø·": 5898,
      "ĠØ§ÙĦÙħÙĤØ¯Ø³": 5899,
      "ĠØ§ÙĦÙħÙĬØ²Ø§ÙĨ": 5900,
      "ĠØŃØ§": 5901,
      "ĠØŃØ¨": 5902,
      "ĠØŃØ¯ÙĬØ¯": 5903,
      "ĠØŃØ·Ø§": 5904,
      "ĠØŃØ¸Ø§": 5905,
      "ĠØŃØ³Ø±Ø©": 5906,
      "ĠØŃÙĦÙĬØ©": 5907,
      "ĠØŃÙĦÙĬÙħØ§": 5908,
      "ØºÙĩ": 5909,
      "ØºÙĬØ«": 5910,
      "ØªÙħÙĪØ§": 5911,
      "ØªÙħØ¹ÙĪØ§": 5912,
      "ØªÙħØ³Ùĥ": 5913,
      "ĠÙĦØ§ÙģØª": 5914,
      "ĠØ¬ÙĩØ§": 5915,
      "ĠØ¬Ø¨ÙĦ": 5916,
      "ĠØ¬ÙħØ¹Ø§": 5917,
      "ĠØ¬Ø¨Ø§Ø±Ø§": 5918,
      "ĠØ¬ÙĩØ±Ø©": 5919,
      "ĠØ¹ÙĦÙĬØ§": 5920,
      "ĠØ®Ø§Ø¨": 5921,
      "ĠØ®ÙĦÙĬÙĦØ§": 5922,
      "ĠØ®Ø³Ø§": 5923,
      "ĠØ®Ø§Ø³": 5924,
      "ĠØ®ÙĦØ§ÙĤ": 5925,
      "ÙģØ±Ø©": 5926,
      "ÙĬÙħÙħÙĪØ§": 5927,
      "ĠØ´ØŃ": 5928,
      "ĠØ´Ø·": 5929,
      "ĠØ´Øº": 5930,
      "ĠØ´Ø£ÙĨ": 5931,
      "ĠØ´Ø±ÙĬÙĥ": 5932,
      "ĠØ´ÙĤÙĬØ§": 5933,
      "ĠØ§ÙĦØ£ÙħØ§": 5934,
      "ĠØ§ÙĦØ£Øµ": 5935,
      "ĠØ§ÙĦØ£ÙĦÙĪØ§": 5936,
      "ĠØ§ÙĦØ£ÙħÙĬÙĨ": 5937,
      "ĠØ§ÙĦØ£Ø¬Ø¯": 5938,
      "ĠØ§ÙĦØ£Ø³Ùģ": 5939,
      "ĠØ§ÙĦØ£ÙĬØ§Ùħ": 5940,
      "ĠØ§ÙĦØ£ÙĬÙħÙĨ": 5941,
      "ĠØ§ÙĦØ£ØºÙĦØ§ÙĦ": 5942,
      "ĠØ§ÙĦØ£Ø³Ø¨Ø§Ø¨": 5943,
      "ĠÙĪØ¥ÙĬØª": 5944,
      "ĠÙĪØ¥ÙĦÙĬÙĨØ§": 5945,
      "ĠÙĪØ¥Ø«ÙħØ§": 5946,
      "ĠÙĪØ¥ÙĦÙĬÙĥ": 5947,
      "ĠÙĪØ¥Ø³ØªØ¨Ø±ÙĤ": 5948,
      "Ø¸ÙĪÙĨ": 5949,
      "Ø¸Ø§Ùħ": 5950,
      "Ø±Ø§Ùģ": 5951,
      "Ø±Ø§ÙĩØ§": 5952,
      "ĠÙĪÙĦÙĬÙĨ": 5953,
      "ĠÙĪÙĦØ¨Ø§": 5954,
      "Ø¡Ø§": 5955,
      "Ø¢Ø¨": 5956,
      "ĠØ¨Ø§ÙĦØ®": 5957,
      "ĠØ¨Ø§ÙĦØ·": 5958,
      "ĠØ¨Ø§ÙĦØ¯ÙĬÙĨ": 5959,
      "ĠØ¨Ø§ÙĦØ£ÙĨ": 5960,
      "ĠØ¨Ø§ÙĦØ±ØŃÙħÙĨ": 5961,
      "ĠØ¨Ø§ÙĦØ®ÙĬØ±": 5962,
      "ĠØ¨Ø§ÙĦÙĦØºÙĪ": 5963,
      "ĠØ¨Ø§ÙĦÙĪØ§Ø¯": 5964,
      "ĠØ¨Ø§ÙĦÙĨØ§Ø³": 5965,
      "ĠØ¨Ø§ÙĦÙģØŃØ´Ø§Ø¡": 5966,
      "ĠØ°ÙĦ": 5967,
      "ĠØ°ÙĪØ§": 5968,
      "ĠØ°Ø§Ø¦": 5969,
      "ĠØ¹ÙĨÙĬØ¯": 5970,
      "ĠÙĥØ§ÙĨØªØ§": 5971,
      "ÙĬØ§Ø±Ø©": 5972,
      "ĠØ£ÙĪØª": 5973,
      "ĠØ£ÙĪÙģÙī": 5974,
      "ĠØ£ÙĪØ±Ø«": 5975,
      "ĠØ§ÙĦØ³Ø±": 5976,
      "ĠØ§ÙĦØ³Ø¨Ø¹": 5977,
      "ĠØ§ÙĦØ³Ø¯Ø³": 5978,
      "ĠØ§ÙĦØ³ÙģÙĬÙĨØ©": 5979,
      "Ø³ØªØºÙģØ±": 5980,
      "ĠÙĪÙĬØ¯": 5981,
      "ĠÙĪÙĬÙģ": 5982,
      "ĠÙĪÙĬØŃÙĤ": 5983,
      "ĠÙĪÙĬÙĥÙģØ±": 5984,
      "ĠÙĪÙĬØ°Ø±ÙĪÙĨ": 5985,
      "ĠÙĪÙĬØªØ®Ø°": 5986,
      "ĠÙĪÙĬØ«Ø¨Øª": 5987,
      "ĠØ§ÙĦØ±Ø´": 5988,
      "ĠØ§ÙĦØ±ÙĤØ§Ø¨": 5989,
      "ĠØ§ÙĦØ±Ø´Ø¯": 5990,
      "ĠØ§ÙĦØ±Ø¤ÙĬØ§": 5991,
      "ÙĬØ¯ÙĪØ§": 5992,
      "Ø¹ÙħÙĩÙħ": 5993,
      "Ø®Ø±Ø©": 5994,
      "Ø®Ø±Ø§Øª": 5995,
      "ĠÙĤÙĦØ¨Ùĥ": 5996,
      "Ø§Ø±Ùĩ": 5997,
      "ĠØ£ÙħÙĥ": 5998,
      "ĠØ£ÙħØ¯Ø§": 5999,
      "ĠØ§ÙĦØŃØ·": 6000,
      "ĠØ§ÙĦØŃÙĪØª": 6001,
      "ĠØ§ÙĦØŃØ¯ÙĬØ¯": 6002,
      "ĠØ§ÙĦØŃØ§ÙĤØ©": 6003,
      "ĠØ¯ÙģØ¹": 6004,
      "ĠØ¯Ø§Ùħ": 6005,
      "ĠØ¯ÙĥØ§": 6006,
      "ĠØ¯ÙħØª": 6007,
      "ĠÙģØ£Ø±Ø³": 6008,
      "ĠÙģØ£ÙĨØ³": 6009,
      "ĠÙģØ£Ø°ÙĨ": 6010,
      "ĠÙģØ£ØªÙĨØ§": 6011,
      "ĠÙģØ£ÙĪÙĦÙī": 6012,
      "ĠÙģØ£ÙĤÙĬÙħÙĪØ§": 6013,
      "ĠÙģØ£ÙĤØ¨ÙĦ": 6014,
      "ĠÙģØ£ÙħØ³Ùĥ": 6015,
      "ĠÙģØ£Ø¨Ùī": 6016,
      "ĠÙģØ£ØŃØ¨Ø·": 6017,
      "ĠÙģØ£Ø¹Ø±Ø¶ÙĪØ§": 6018,
      "ĠØ§ÙĦØ¹Ø³Ø±": 6019,
      "ĠØ§ÙĦØ¹Ø§Ø¬": 6020,
      "ĠØ§ÙĦØ¹Ø§ÙħÙĦÙĬÙĨ": 6021,
      "ĠØ§ÙĦØ¹Ø¸Ø§Ùħ": 6022,
      "ĠÙĪÙĤØ§": 6023,
      "ĠÙĪÙĤØ±": 6024,
      "ĠÙĪÙĤØª": 6025,
      "ĠÙĪÙĤØ¶": 6026,
      "ĠÙĪÙĤÙĪØ¯": 6027,
      "ĠÙĪÙĤÙĦÙĬÙĦ": 6028,
      "ĠÙĪÙĤÙģÙĬÙĨØ§": 6029,
      "ĠÙĪÙĤÙĪÙĦÙĩÙħ": 6030,
      "ĠÙĪÙĤÙĦØ¨Ùĩ": 6031,
      "ĠØ«ÙħØ±Ùĩ": 6032,
      "ĠØµÙħ": 6033,
      "ĠØµÙĪØ§": 6034,
      "ĠØµØº": 6035,
      "ĠØµÙĦØŃ": 6036,
      "ĠØµØ§Øº": 6037,
      "ĠØµØºÙĬØ±": 6038,
      "ĠØµØŃÙģ": 6039,
      "ĠØµØ§Ø¹ÙĤØ©": 6040,
      "ÙĩØ¯ÙĬÙĨ": 6041,
      "ÙĩØ¯ÙĨØ§": 6042,
      "ĠÙģØ¥Ø®ÙĪØ§ÙĨÙĥÙħ": 6043,
      "ĠØ§ÙĦÙĤÙĬÙĪÙħ": 6044,
      "ĠØ§ÙĦÙĤÙĪÙĬ": 6045,
      "ĠØ§ÙĦÙĤÙĪØ©": 6046,
      "ĠØ§ÙĦÙĤØ±Ø§Ø±": 6047,
      "ĠØ§ÙĦÙĤØ§Ø±Ø¹Ø©": 6048,
      "ĠØ§ÙĦÙĤØ±ÙĨÙĬÙĨ": 6049,
      "ÙģØ³Ø¯": 6050,
      "ĠÙĦÙĬØ§ÙĦ": 6051,
      "ĠÙĦÙĬØ²": 6052,
      "ĠÙĦÙĬØ¨ÙĬÙĨ": 6053,
      "ĠÙĦÙĬØ¸ÙĦÙħ": 6054,
      "ĠÙĦÙĬØ¬Ø¹ÙĦ": 6055,
      "ĠÙĦÙĬØ°ÙĥØ±ÙĪØ§": 6056,
      "ĠÙĦÙĬØŃØ²": 6057,
      "ĠÙĦÙĬØ£Ùĥ": 6058,
      "ĠÙĦÙĬØ¸ÙĩØ±Ùĩ": 6059,
      "ĠØ¨ÙĩÙĨ": 6060,
      "ĠØ¨ÙĩÙĬÙħØ©": 6061,
      "ĠØ§Ø¹ÙĦÙħÙĪØ§": 6062,
      "ĠØ§ÙĤØªÙĦÙĪØ§": 6063,
      "Ø±ÙĬÙĩÙħ": 6064,
      "Ø±ÙĬØŃ": 6065,
      "Ø±ÙĬØ¶": 6066,
      "Ø±ÙĬØªÙĩ": 6067,
      "ĠÙĪÙĥØªØ§Ø¨": 6068,
      "ĠØ§ÙĦÙĥØ§Ø°Ø¨ÙĪÙĨ": 6069,
      "Ø°Ø¨ØŃ": 6070,
      "ÙĤØ¯ÙĪÙĨ": 6071,
      "ĠÙĪØ¥ÙĨÙħØ§": 6072,
      "ĠÙĪØ¥ÙĨÙĥÙħ": 6073,
      "ĠØºØ¶": 6074,
      "ĠØºÙħØ±": 6075,
      "ĠØºÙĨÙĬØ§": 6076,
      "ĠØºØ±Ùģ": 6077,
      "ĠØºØ§ÙĦØ¨": 6078,
      "ĠÙĦÙĩÙĪØ§": 6079,
      "ÙĨÙĬØ³Ø±": 6080,
      "Ø±Ø¨Ùĥ": 6081,
      "ĠÙĬÙĪÙħÙĬÙĨ": 6082,
      "ĠØ§ÙĦÙĨØ§ÙĤØ©": 6083,
      "ĠØ§ÙĦÙĨØ§ØµØŃÙĬÙĨ": 6084,
      "Ø¨ÙĦÙĪ": 6085,
      "Ø¨ÙĦØ©": 6086,
      "Ø§Ø¦ÙĦ": 6087,
      "Ø§Ø¦Ø¨ÙĬÙĨ": 6088,
      "Ø§Ø¦ÙĨÙĬÙĨ": 6089,
      "Ø§Ø¦ÙģØ©": 6090,
      "ØªØ§Ø¨ÙĪØ§": 6091,
      "Ø¨ÙĬÙĨÙĪØ§": 6092,
      "Ø³ÙħÙĬØ¹": 6093,
      "ĠÙĥÙĦÙĩÙħ": 6094,
      "ĠÙĥÙĦØ¨ÙĩÙħ": 6095,
      "Ø¨Ø±Ùĩ": 6096,
      "ĠØ§ÙĦØµÙĬØ¯": 6097,
      "ĠØ§ÙĦØµÙĬØ§Ùħ": 6098,
      "ĠØ§ÙĦØµØŃÙģ": 6099,
      "ĠØ§ÙĦØµØ§Ø¹ÙĤØ©": 6100,
      "ĠÙĦÙħØŃ": 6101,
      "ĠÙĦÙħÙĬÙĤØ§Øª": 6102,
      "ĠÙĦÙħØ¬ÙĨÙĪÙĨ": 6103,
      "ĠÙģØ¥ÙĨÙĩØ§": 6104,
      "ÙĩÙĪÙĩ": 6105,
      "ĠÙħØ¹ÙĬÙĨ": 6106,
      "ĠÙħØ¹Ø´Ø±": 6107,
      "ĠÙħØ¹Ø§Ø¬": 6108,
      "ĠÙħØ¹ØªØ¯": 6109,
      "ĠÙĪØ§Ø¹Ø¨Ø¯ÙĪØ§": 6110,
      "ĠÙĪØ§ÙĤØ¹": 6111,
      "ĠÙĪØ§ÙĤØªÙĦÙĪÙĩÙħ": 6112,
      "ĠÙĪØ§ÙĩØ¬Ø±": 6113,
      "ĠØ¨Ø¹ØµØ§Ùĥ": 6114,
      "ĠÙĬØªÙĥ": 6115,
      "ĠÙĬØªÙĨØ§": 6116,
      "ĠÙĬØªØ¨ÙĬÙĨ": 6117,
      "ĠÙĬØªØ®Ø°ÙĪØ§": 6118,
      "ĠÙĬØªÙĪÙĦÙī": 6119,
      "ĠÙĬØªÙĪÙĥÙĦ": 6120,
      "ĠÙĬØªØ±Ø¨Øµ": 6121,
      "ĠÙĬØªÙĤØ¨ÙĦ": 6122,
      "ĠÙĥÙģØ±Ùĩ": 6123,
      "ÙĪØ¨ÙĪØ§": 6124,
      "ĠØ£ÙĬÙĩ": 6125,
      "ĠÙĬÙĨØ§ÙĦ": 6126,
      "ĠÙĬÙĨØ³": 6127,
      "ĠÙĬÙĨÙĩÙĪÙĨ": 6128,
      "ĠÙĬÙĨØ¨Ø¦ÙĩÙħ": 6129,
      "ĠÙĦÙĦØ£": 6130,
      "ĠÙĦÙĦØ®": 6131,
      "ĠÙĦÙĦØº": 6132,
      "ĠÙĦÙĦØ¯ÙĬÙĨ": 6133,
      "ĠÙĦÙĦØ´Ø§Ø±": 6134,
      "ĠÙĦÙĦØ¨Ø´Ø±": 6135,
      "ĠÙĦÙĦÙģÙĤØ±Ø§Ø¡": 6136,
      "ĠÙĪØªØ±": 6137,
      "ĠÙĪØªØ¨": 6138,
      "ĠÙĪØªÙĥÙĪÙĨ": 6139,
      "ĠÙĪØªØ®Ø±Ø¬": 6140,
      "ĠÙĪØªØ°Ø±ÙĪÙĨ": 6141,
      "ĠÙĪØ§ÙĦØ£ÙħØ±": 6142,
      "ĠÙĪØ§ÙĦØ£ÙĪÙĦÙī": 6143,
      "ĠÙĤØ¯Ø±ÙĪØ§": 6144,
      "ĠÙĬØŃÙħ": 6145,
      "ĠÙĬØŃØª": 6146,
      "ĠÙĬØŃØ´Ø±ÙĪÙĨ": 6147,
      "ĠÙĬØŃØ±ÙģÙĪÙĨ": 6148,
      "ĠÙĬØŃØ§ÙģØ¸ÙĪÙĨ": 6149,
      "Ø¹Ø§ÙģØ§": 6150,
      "Ø¬Ø±Ùĩ": 6151,
      "Ø¬Ø±ÙĨØ§": 6152,
      "ĠÙħÙĪØ«": 6153,
      "ĠÙħÙĪØ¹Ø¸Ø©": 6154,
      "ĠÙĬØ±Ùĩ": 6155,
      "ĠÙĬØ±Ùĥ": 6156,
      "ĠÙĬØ±Ø«": 6157,
      "ĠÙĬØ±Ø¯ÙĪÙĨ": 6158,
      "ĠÙĬØ±ÙħÙĪÙĨ": 6159,
      "ĠÙĬØ±ÙģØ¹": 6160,
      "ĠØ¬Ø§Ø¡ÙĨÙĬ": 6161,
      "ĠØ¬Ø§Ø¡ÙĪÙĩØ§": 6162,
      "ĠØ¬Ø§Ø¡ÙĪÙĥÙħ": 6163,
      "ĠØ¹Ø°Ø§Ø¨Ùĩ": 6164,
      "ÙĪÙģÙĬÙĨÙĥ": 6165,
      "ĠÙĬØ´ÙĥØ±": 6166,
      "ĠÙĬØ´Ø§ÙĤ": 6167,
      "ĠÙĬØ´ÙģØ¹": 6168,
      "ĠÙģØ§Ùĥ": 6169,
      "ĠÙģØ§Ø¬": 6170,
      "ĠÙģØ§Ø¹ÙĦÙħ": 6171,
      "ĠÙģØ§Ø¬Ø¹ÙĦ": 6172,
      "ĠÙģØ§Ø¹Ùģ": 6173,
      "ĠÙģØ§ÙĤØ±": 6174,
      "ĠÙģØ§ÙĥØªØ¨": 6175,
      "ĠÙĤØ¨ÙĦØ©": 6176,
      "ĠÙģÙĦÙĪ": 6177,
      "ĠÙģÙĦØ£": 6178,
      "ĠÙģÙĦÙĥÙħ": 6179,
      "ĠÙģÙĦØ¨Ø«": 6180,
      "ĠØ¹ÙĨØ¯ÙĥÙħ": 6181,
      "ĠØ¹ÙĨØ¯ÙĩØ§": 6182,
      "ĠØ£ØŃØ³": 6183,
      "ĠØ£ØŃÙĦØ§Ùħ": 6184,
      "Ø³ÙĨØªÙĥÙħ": 6185,
      "ĠØªØ±ÙĬØ¯": 6186,
      "ĠØªØ±ÙĪÙĩØ§": 6187,
      "ĠØ¸ÙĦ": 6188,
      "ĠØ¸ÙĨØ§": 6189,
      "ĠØ¸ÙĦÙĦ": 6190,
      "ĠØ§ÙĦÙĨØµØ±": 6191,
      "ĠØ§ÙĦÙĨÙĥØ§": 6192,
      "ĠØ§ÙĦÙĨØ´Ø£": 6193,
      "ĠÙĪÙĨÙħ": 6194,
      "ĠÙĪÙĨØŃ": 6195,
      "ĠÙĪÙĨÙĥÙĪÙĨ": 6196,
      "ĠÙĪÙĨØµØ±": 6197,
      "ĠÙĪÙĨØ¬ÙĬÙĨØ§": 6198,
      "ĠÙĪÙĨÙĪØŃØ§": 6199,
      "ĠÙĪÙĨØ²Ø¹ÙĨØ§": 6200,
      "ĠÙĪØ£ÙĨØ°Ø±": 6201,
      "ĠÙĪØ£ÙĨÙĩØ§Ø±": 6202,
      "ĠÙĪØ£ÙĨØ¨ØªÙĨØ§": 6203,
      "ĠØ·Ø±ÙĬ": 6204,
      "ĠØ·Ø¨Ø¹": 6205,
      "ĠØ·ÙĬØ±Ø§": 6206,
      "ĠØ·Ø±Ùģ": 6207,
      "ĠØ·Ø§Ø¹Ø©": 6208,
      "ĠØ®ÙĦÙĤÙĨØ§ÙĩÙħ": 6209,
      "ĠØ§ÙĦØ¬ÙĪØ§Ø±": 6210,
      "ØªÙĩØª": 6211,
      "ØªÙĩÙī": 6212,
      "ÙħÙĬØ©": 6213,
      "ĠØ¨Ø£ÙĬ": 6214,
      "ĠØ¨Ø£ÙĩÙĦÙĥ": 6215,
      "Ø¢Ø®Ø±ÙĬÙĨ": 6216,
      "ĠÙĬØ¹ÙĦÙħÙĩÙħ": 6217,
      "Ø§ÙģØ§": 6218,
      "Ø§ÙģØ§Øª": 6219,
      "Ø§ÙģÙĦÙĪÙĨ": 6220,
      "ĠÙĬØ£ØªÙĩÙħ": 6221,
      "ĠÙĬØ£Ø°ÙĨ": 6222,
      "ĠÙĬØ£ÙħØ±ÙĪÙĨ": 6223,
      "ĠØ£ÙģØ§Ø¡": 6224,
      "ĠÙģØªÙĪÙĦ": 6225,
      "ĠÙģØªØµØ¨ØŃ": 6226,
      "ĠÙģØªØŃØ±ÙĬØ±": 6227,
      "ĠÙģØªØ¨ÙĬÙĨÙĪØ§": 6228,
      "ĠØ¶ÙĬÙģ": 6229,
      "ĠØ¶Ø±Ùĩ": 6230,
      "ĠÙĦÙĥÙĦÙħØ§Øª": 6231,
      "Ø¬Ø¯ÙĨ": 6232,
      "ÙĤÙĪÙĨØ§": 6233,
      "ĠØ£ÙĩÙĦÙĩÙħ": 6234,
      "ĠÙĬÙĥØ³Ø¨": 6235,
      "ĠÙĬÙĥÙĦÙħÙĩÙħ": 6236,
      "ĠÙĪØ¹Øµ": 6237,
      "ĠÙĪØ¹ÙĬØ¯": 6238,
      "ĠÙĪØ¹ÙĦÙĬÙĩØ§": 6239,
      "ĠÙĦÙĨØ¨ÙĬ": 6240,
      "ĠÙĦÙĨØ±Ø§Ùĥ": 6241,
      "ĠÙĬØ¹Ø±Ø¶": 6242,
      "ĠÙĬØ¹Ø±Ø¶ÙĪÙĨ": 6243,
      "ÙģØ§Ùĩ": 6244,
      "ÙģØ§ÙĤ": 6245,
      "ĠØ¯ÙĪÙĨÙĬ": 6246,
      "ØªØ§Ùĩ": 6247,
      "ĠØªØŃÙĪÙĬÙĦØ§": 6248,
      "ÙģØªÙĬÙĨ": 6249,
      "ØµØ±Øª": 6250,
      "ØµØ±Ø®": 6251,
      "ØµØ±ÙģÙĪÙĨ": 6252,
      "ĠØ£Ø¬ÙĦØ§": 6253,
      "ĠØ£Ø¬Ø¹ÙĦ": 6254,
      "ĠØ£Ø¬ÙĬØ¨": 6255,
      "ĠØ£Ø¬ÙĦÙĩØ§": 6256,
      "ĠØ£Ø¬ÙħØ¹ÙĪÙĨ": 6257,
      "ĠØ³Ø¨ÙĬÙĦÙĬ": 6258,
      "ĠØ²Ø®Ø±": 6259,
      "ĠØ²ÙĦÙģ": 6260,
      "ĠÙħØ«ÙĨÙī": 6261,
      "ĠÙĪÙĦÙĥÙĨØ§": 6262,
      "ĠØ¨Ø¹Ø¶Ùĩ": 6263,
      "ĠØ¨Ø¹Ø¶ÙĨØ§": 6264,
      "ĠØ¨Ø¹Ø¶ÙĩØ§": 6265,
      "ĠØ§ÙĦØ®Ø·": 6266,
      "ĠØ§ÙĦØ®ÙħØ±": 6267,
      "ĠØ§ÙĦØ®ÙĨØ²ÙĬØ±": 6268,
      "ĠØ¢ÙĬØ§ØªÙĥ": 6269,
      "ĠÙĪÙħØ«ÙĦ": 6270,
      "ĠÙĪÙħÙĥØ±ÙĪØ§": 6271,
      "ĠÙĪÙħØ«ÙĦÙĩ": 6272,
      "ĠÙĪÙħØ¨Ø´Ø±Ø§": 6273,
      "ĠÙģØ±Ø¯Ø§": 6274,
      "ĠÙģØ±Ø§Øº": 6275,
      "ĠÙģØ±ØŃÙĪØ§": 6276,
      "ĠÙģØ±ØŃÙĪÙĨ": 6277,
      "ĠÙĬØ¯Ùĩ": 6278,
      "ĠÙĬØ¯Ø±ÙĬÙĥ": 6279,
      "ĠÙĬØ³ØªÙĨÙĥ": 6280,
      "ĠÙĬØ³ØªØ¬ÙĬØ¨": 6281,
      "ĠÙĬØ³ØªÙĤØ¯ÙħÙĪÙĨ": 6282,
      "ĠÙĬØ³ØªÙĪÙĪÙĨ": 6283,
      "ÙģÙĬÙĩØ§": 6284,
      "ĠØ§ÙĦØ¸ÙĦ": 6285,
      "ĠÙĬØ®ÙģÙĪÙĨ": 6286,
      "ĠÙĬØ®Ø³Ùģ": 6287,
      "ĠÙĪÙĦÙĪØ§ÙĦØ¯ÙĬ": 6288,
      "ĠÙĪØ±Ø¯": 6289,
      "ĠÙĪØ±Ø¨ÙĬ": 6290,
      "ĠÙĪØ±Ø£ÙĪØ§": 6291,
      "ĠÙĪØ±Ø§Ø¦ÙĩÙħ": 6292,
      "ĠØªÙĥØ§Ø¯": 6293,
      "ĠØªÙĥØ³Ø¨": 6294,
      "ĠÙĪØ¨ÙĨ": 6295,
      "ĠÙĪØ¨Ø«": 6296,
      "ĠÙĬØ³Ø£ÙĦÙĥÙħ": 6297,
      "ĠÙĬØ³ÙĪÙħÙĪÙĨ": 6298,
      "ĠÙĬØ³ØªÙħØ¹": 6299,
      "ĠÙĦØ£ÙħØ§": 6300,
      "ĠÙĦØ£Ø®": 6301,
      "ĠÙĦØ£Ø²ÙĪØ§Ø¬": 6302,
      "ĠÙĦØ£ÙĥÙģØ±": 6303,
      "ĠÙĦØ£ØŃØ¯": 6304,
      "ĠÙĦØ£Ø¬Ø±Ø§": 6305,
      "ĠÙĦØ£ÙĩÙĦÙĩ": 6306,
      "ĠÙħØ±ÙĪØ§": 6307,
      "ĠÙħØ±ÙģÙĪ": 6308,
      "ÙĬØªÙĨØ§": 6309,
      "ÙĬØªÙĩØ§": 6310,
      "ÙĬØªÙĨÙĬ": 6311,
      "ĠÙħØ³Ø·": 6312,
      "ĠÙħØ³Ø§Ùģ": 6313,
      "ĠÙħØ³Ø§Ø¬Ø¯": 6314,
      "ĠÙħØ³ØŃÙĪØ±Ø§": 6315,
      "ĠÙħØ³Ø®Ø±Ø§Øª": 6316,
      "ÙħØ³Ø©": 6317,
      "ÙħØ³ØŃÙĪØ§": 6318,
      "ĠØ§ÙĦØºÙħ": 6319,
      "ĠØ§ÙĦØºÙģØ§Ø±": 6320,
      "ĠØ§ÙĦØºÙħØ§Ùħ": 6321,
      "ĠÙĦÙĤÙĪÙĬ": 6322,
      "ĠÙĦÙĤÙĬØªÙħ": 6323,
      "ĠÙĦÙĤØ§ÙĦÙĪØ§": 6324,
      "ĠÙĦÙĤØ§Ø¯Ø±ÙĪÙĨ": 6325,
      "ĠØªØªØ°ÙĥØ±ÙĪÙĨ": 6326,
      "ĠØªØªÙģÙĥØ±ÙĪÙĨ": 6327,
      "ĠØªØ¹Ø±Ùģ": 6328,
      "ĠØªØ¹ÙģÙĪØ§": 6329,
      "ĠØªØ¹Ø¬ÙĦ": 6330,
      "ĠØªØ¹Ø§ÙĦÙī": 6331,
      "ĠÙĥØ°Ø¨ÙĪÙĨ": 6332,
      "ĠÙĥØ°Ø¨ÙĪÙĥ": 6333,
      "ĠØ§ÙĦØ¨ÙĤØ±": 6334,
      "ĠØ§ÙĦØ¨Ø·ÙĪÙĨ": 6335,
      "ĠØ§ÙĦØ¨Ø´Ø±Ùī": 6336,
      "ĠÙĪÙĦÙĬØ¹ÙĦÙħÙĨ": 6337,
      "ĠØ§Ø³ØªØ£Ø°ÙĨ": 6338,
      "ĠØ§Ø³ØªØºÙģØ±ÙĪØ§": 6339,
      "ĠÙĦØªØ¨ÙĬÙĨ": 6340,
      "ĠÙĦØªÙĥÙĪÙĨ": 6341,
      "ĠÙĦØªØ®Ø±Ø¬": 6342,
      "ĠÙĦØªØ±Ùĥ": 6343,
      "ĠÙĦØªØ¹ÙĦÙħÙĪØ§": 6344,
      "ĠÙĦØªØ¤ÙħÙĨÙĪØ§": 6345,
      "ĠØªØ¬Ø¹ÙĦÙĨØ§": 6346,
      "Ø®ÙĦØ¯ÙĪÙĨ": 6347,
      "ĠØªØ£ØªÙĬ": 6348,
      "ĠØ£Ø¹Ø±Ø¶ÙĪØ§": 6349,
      "ĠØªÙĨØªÙĩ": 6350,
      "ĠØªÙĨØ¨Øª": 6351,
      "ĠØªÙĨØµØ±ÙĪÙĨ": 6352,
      "ĠØ£ÙħØ±ÙĪØ§": 6353,
      "ĠØ£ÙħØ±ÙĩØ§": 6354,
      "Ø´Ø±ÙĥØ§Øª": 6355,
      "ĠÙģÙĤÙĪÙĦØ§": 6356,
      "ĠÙģÙĤØ§ØªÙĦÙĪØ§": 6357,
      "ĠÙĪØ¢ÙĦ": 6358,
      "ĠÙĪØ¢Ø«": 6359,
      "ĠÙĪØ¢ØªÙī": 6360,
      "Ø¨ØªÙĥÙħ": 6361,
      "ÙĦØŃÙĬÙĨ": 6362,
      "ĠÙħØ¨ÙĬÙĨØ©": 6363,
      "ĠÙħØ¨ÙĬÙĨØ§Øª": 6364,
      "ÙĦØªÙĨØ§": 6365,
      "ĠÙģÙħØ§Ø°Ø§": 6366,
      "ĠÙĬØ¬ÙĬØ±": 6367,
      "ĠÙĬØ¬Ø²ÙĬ": 6368,
      "ĠÙĬØ¬Ø²ÙĪÙĨ": 6369,
      "ĠÙĬØ¬ØŃØ¯": 6370,
      "ĠÙĬØ¬Ø²Ùī": 6371,
      "ĠÙĬØ¬Ø¹ÙĦÙĩ": 6372,
      "ĠÙĬØ¬ÙħØ¹ÙĪÙĨ": 6373,
      "ĠÙĬØ¬ØªØ¨ÙĬ": 6374,
      "ĠÙĪØ§ÙĦÙħØª": 6375,
      "ĠÙĪØ§ÙĦÙħØŃØµÙĨØ§Øª": 6376,
      "ĠÙĪØ§ÙĦÙħÙĩØ§Ø¬Ø±ÙĬÙĨ": 6377,
      "Ø¸Ø±ÙĨÙĬ": 6378,
      "ĠØ§ÙĦÙģÙĤØ±Ø§Ø¡": 6379,
      "ĠÙģÙĥØ£ÙĨ": 6380,
      "ĠÙģÙĥÙģØ±ÙĪØ§": 6381,
      "ĠØ£Ø®Øª": 6382,
      "ĠØ£Ø®Ø¨Ø§Ø±": 6383,
      "ĠØ®Ø§ÙĦØ¯Ø§": 6384,
      "ĠØ§ÙĦØµØ§ÙĦØŃÙĪÙĨ": 6385,
      "ĠÙĪØ³Ø§Ø¡": 6386,
      "ĠÙĪØ³Ø§Ø±": 6387,
      "ĠÙĪØ³Ø¨Ø¹": 6388,
      "ĠÙĪØ³ÙĦØ§Ùħ": 6389,
      "ĠÙĪØ³ÙĦØ·Ø§ÙĨ": 6390,
      "ÙĩØ¯ÙĬÙĩÙħ": 6391,
      "ĠÙģØ³Ø§Ø¯Ø§": 6392,
      "ĠÙĬÙĪØµÙĦ": 6393,
      "ĠÙĬÙĪØ¹Ø¸": 6394,
      "ĠÙĬÙĪØ²Ø¹ÙĪÙĨ": 6395,
      "ĠØªÙĤØ±": 6396,
      "ĠØªÙĤÙĬØ§": 6397,
      "ĠØªÙĤØ·Ø¹": 6398,
      "ĠØªÙĤØ§ØªÙĦÙĪÙĨ": 6399,
      "ĠØ£Ø³Ø³": 6400,
      "ĠØ£Ø³ÙģØ§": 6401,
      "ĠØ£Ø³ÙĦØŃ": 6402,
      "ĠØ£Ø³ÙĪØ©": 6403,
      "ĠØ£Ø³ÙħØ§Ø¡": 6404,
      "ĠØ£Ø³ÙģÙĦ": 6405,
      "ÙĪØ¬Ø³": 6406,
      "ĠØ¹Ø¨Ø§Ø¯ØªÙĩ": 6407,
      "ĠØ§ÙĦØ£ÙĨØ¨ÙĬØ§Ø¡": 6408,
      "ĠØ£Ø¨ÙĨØ§": 6409,
      "ĠØ£Ø¨Ùī": 6410,
      "ĠØ£ÙĨØ§Ø¨": 6411,
      "ØªØ¨ÙĩØ§": 6412,
      "ØªØ¨ØªÙħ": 6413,
      "Ø·Ø¹ÙĬÙĨ": 6414,
      "ĠØ±Ø¬Ø¹": 6415,
      "ĠØ±Ø¬Ø²": 6416,
      "ĠØ±Ø¬Ø²Ø§": 6417,
      "ĠØ¹ÙħØ¯": 6418,
      "ĠØ¹ÙħÙĦÙĥÙħ": 6419,
      "ĠØ³ÙĬØ¹ÙĦÙħÙĪÙĨ": 6420,
      "ĠØ³ÙĬØµÙĬØ¨": 6421,
      "ĠØ³ÙĬÙĩØ¯ÙĬÙĨ": 6422,
      "ĠÙģØ¨Ø´Ø±ÙĩÙħ": 6423,
      "ĠØµØ¯ÙĤØ§Øª": 6424,
      "ĠØµØ¯Ø±Ùĩ": 6425,
      "ĠÙĬØ¤ØªÙĬ": 6426,
      "ĠØªØ®ÙģÙĬ": 6427,
      "ÙĦØ§ÙĦØ©": 6428,
      "ĠÙĬÙĤØ§ÙĦ": 6429,
      "ĠÙĬÙĤÙĬÙħØ§": 6430,
      "ĠØ¨ÙĥÙĦÙħØ§ØªÙĩ": 6431,
      "ĠÙħØ³ØªÙĩÙħ": 6432,
      "ĠØ£ØªÙĤÙĪÙĦÙĪÙĨ": 6433,
      "ĠØ£ØªØ£ØªÙĪÙĨ": 6434,
      "ĠÙĦØ¹ÙĨ": 6435,
      "ĠÙĦØ¹Ø¨": 6436,
      "ĠÙĦØ¹ÙĦÙĩ": 6437,
      "ĠÙĦØ¹ÙĦÙī": 6438,
      "ĠÙĦØ¹ÙĨØª": 6439,
      "ØŃÙĬÙĪÙĨ": 6440,
      "ØŃÙĬÙī": 6441,
      "ĠØªØ¯Ø¹ÙĪØ§": 6442,
      "ĠØ¸ÙĦÙħØª": 6443,
      "ĠØ¸ÙĦÙħÙĩÙħ": 6444,
      "ĠØ¸ÙĦÙħÙĨØ§ÙĩÙħ": 6445,
      "ĠØ¨ÙĬØ¹": 6446,
      "ĠØ¨ÙĬØªÙĬ": 6447,
      "ĠÙĤØ¨ÙĦÙĬ": 6448,
      "ĠØ£Ø±Ø¯ØªÙħ": 6449,
      "ĠÙĬØµÙĦØŃ": 6450,
      "ĠÙĨØ³ÙĬØ§": 6451,
      "ĠÙĨØ³ÙĬØª": 6452,
      "ĠÙĨØ³Ø§Ø¦ÙĩÙħ": 6453,
      "ĠÙĨØ³Ø§Ø¡ÙĩÙħ": 6454,
      "ĠÙĨØ³Ø§Ø¡ÙĥÙħ": 6455,
      "ĠØ§ÙĦØ·ÙĬÙĨ": 6456,
      "ĠØ§ÙĦØ·Ø±Ùģ": 6457,
      "ĠÙħÙĦÙĥÙĩ": 6458,
      "ĠØ£Ø´ÙĩØ¯": 6459,
      "ÙħØªØ¹": 6460,
      "ĠÙħØªØ®Ø°": 6461,
      "ĠÙħØªØ±Ùģ": 6462,
      "ĠÙħØªØ¹ÙĨØ§": 6463,
      "ĠÙĬØºØ´": 6464,
      "Ø§ÙĩØ¯ÙĪÙĨ": 6465,
      "ĠØ¹Ø¯Ø¯": 6466,
      "ĠØ¹Ø¯ÙĨØ§": 6467,
      "ĠØ¹Ø¯Ø¯Ø§": 6468,
      "Ø¶Ø±Ø©": 6469,
      "ĠÙĪØŃÙģ": 6470,
      "ĠÙĪØŃØ´Ø±": 6471,
      "Ø·Ø§Ø³": 6472,
      "ĠØ§ÙĨÙĤÙĦØ¨": 6473,
      "ĠØ§ÙĨØ¸Ø±ÙĪØ§": 6474,
      "ĠØ§ÙĨÙģØ±ÙĪØ§": 6475,
      "ĠØ§ÙĨØ·ÙĦÙĤ": 6476,
      "ĠØ§ÙĨÙĤÙĦØ¨ÙĪØ§": 6477,
      "ĠØªØ³Ø¹": 6478,
      "ĠØªØ³Ø±ÙĪÙĨ": 6479,
      "ĠØªØ³Ø¹Ùī": 6480,
      "ĠØªØ³Ø£ÙĦÙĪØ§": 6481,
      "ĠØªØ´ÙĩØ¯": 6482,
      "ĠØªØ´ØªØ±ÙĪØ§": 6483,
      "ĠØªØ´ÙĩØ¯ÙĪÙĨ": 6484,
      "ĠØ¬Ø¹ÙĦÙĪØ§": 6485,
      "ĠØ¬ÙħÙĬØ¹": 6486,
      "ĠÙĪØ§ÙĦÙĨÙĪØ±": 6487,
      "ĠÙĪØ§ÙĦÙĨØ®ÙĦ": 6488,
      "ĠÙĪØ§ÙĦÙĨØ¨ÙĪØ©": 6489,
      "ĠÙĪØ§Øº": 6490,
      "ĠÙĦÙĦÙĨØ§Ø¸Ø±ÙĬÙĨ": 6491,
      "ĠØŃÙħØ¥": 6492,
      "ĠØ£Ø¯ÙĦÙĥÙħ": 6493,
      "ĠÙģØ¶ÙĦÙĪØ§": 6494,
      "ĠÙģØ¶Ø±Ø¨": 6495,
      "Ø°ÙĬÙĤÙĩÙħ": 6496,
      "ĠÙĨØµÙģ": 6497,
      "ĠÙĨØµØ±Ø§": 6498,
      "ĠÙħÙĥÙĨØ§": 6499,
      "ĠÙħÙĥÙĨØ§ÙĩÙħ": 6500,
      "ĠÙħÙĥÙĨÙĪÙĨ": 6501,
      "ĠØ£Ø¬Ø±Ùĩ": 6502,
      "ĠØ£Ø¬Ø±ÙħÙĪØ§": 6503,
      "Ø³Ø·ÙĪØ§": 6504,
      "ĠØ¨Ø±Ø²": 6505,
      "ĠØ¨Ø±Ø§Ø¡": 6506,
      "ĠØ¨Ø±ØŃÙħ": 6507,
      "ĠÙĪÙĤØ¯Ø±": 6508,
      "ĠÙģØ§ÙĨÙģ": 6509,
      "ĠÙĬØ¨Ø®ÙĦ": 6510,
      "ĠØ¨Ø¥ØŃØ³Ø§ÙĨ": 6511,
      "ĠØŃØ±ÙħØ§": 6512,
      "ĠØŃØ±ÙħØª": 6513,
      "ĠÙĪØ¬Ø¹ÙĦÙĨØ§Ùĩ": 6514,
      "ĠÙĪØ¬Ø¹ÙĦÙĨØ§ÙĩØ§": 6515,
      "ĠÙĪØ²Ø§Ø¯": 6516,
      "ĠØ£ÙĤÙħ": 6517,
      "ĠÙĬÙĩØ¯ÙĬÙĩÙħ": 6518,
      "Ø·Ø±Øª": 6519,
      "ĠØ±Ø²ÙĤÙĩØ§": 6520,
      "ĠØ¢Ø¨Ø§Ø¦ÙĩÙħ": 6521,
      "ĠØ¢Ø¨Ø§Ø¡ÙĥÙħ": 6522,
      "ĠØ¢ØªÙĬÙĨØ§ÙĥÙħ": 6523,
      "ĠØ¬Ø¹ÙĦÙĨØ§Ùĥ": 6524,
      "ĠØ¬Ø¹ÙĦÙĨØ§ÙĩØ§": 6525,
      "ĠÙģØ£ÙĨØ²ÙĦ": 6526,
      "ĠÙģØ£ÙĨØ²ÙĦÙĨØ§": 6527,
      "ĠØ¬Ø²Ø§Ø¤Ùĩ": 6528,
      "ĠØ§ÙĦØªÙĤÙī": 6529,
      "ĠÙĨØ¨Ø¥": 6530,
      "ØŃÙĥÙħØ©": 6531,
      "ĠÙĥØ§ÙĦÙħ": 6532,
      "ĠÙĥØ§ÙĦØ¹": 6533,
      "ĠÙĥØ§ÙĦØ£": 6534,
      "ĠÙĥØ§ÙĦÙħÙĩÙĦ": 6535,
      "ĠØ±Ø£Ø³Ùĩ": 6536,
      "ĠÙģØ§Ø³ØªØºÙģØ±": 6537,
      "ĠÙģØ§Ø³ØªØ¬Ø§Ø¨": 6538,
      "ĠÙģØ§Ø³ØªØ¨ÙĤÙĪØ§": 6539,
      "ØªÙĦØ·": 6540,
      "ĠÙģØ§ØªÙĥÙħ": 6541,
      "ĠÙģÙĪÙĤÙĩØ§": 6542,
      "ĠØ£Ø¹ÙħØ§ÙĦÙĨØ§": 6543,
      "ĠØªØ¨Ø®Ø³ÙĪØ§": 6544,
      "Ø´ÙĬØ§Ø·ÙĬÙĨ": 6545,
      "ĠØ§ÙĦÙħÙĨØ¸Ø±ÙĬÙĨ": 6546,
      "ĠÙĪÙģÙĬÙĩØ§": 6547,
      "ĠÙĨØ°ÙĤÙĩ": 6548,
      "ĠØŃÙĤÙĩ": 6549,
      "ĠØ§ØªØ¨Ø¹Øª": 6550,
      "ĠØ§ØªØ¨Ø¹ÙĪÙĩ": 6551,
      "ĠÙĪÙĩÙĦ": 6552,
      "ĠÙĪÙĩØ¨": 6553,
      "ĠÙĪØ±Ø¨ÙĨØ§": 6554,
      "ĠÙĦØ¢Øª": 6555,
      "ĠÙĬØ®Ø±Ø¬ÙĥÙħ": 6556,
      "ĠØªØ³ØªØºÙģØ±": 6557,
      "ĠØªØ³ØªÙĥØ¨Ø±ÙĪÙĨ": 6558,
      "ĠÙĥØ³Ø¨ØªÙħ": 6559,
      "ĠØ£Ø®Ø°ØªÙĩÙħ": 6560,
      "ĠÙĨÙģØ¹ÙĦ": 6561,
      "ĠÙĪØ¨ÙĬÙĨÙĩ": 6562,
      "ĠÙģØ§Ø³ÙĦÙĥ": 6563,
      "ĠÙģØ¹ÙĦÙĬÙĩØ§": 6564,
      "ĠÙĬØ¶Ø¹ÙĨ": 6565,
      "ĠÙĬØ¶ØŃÙĥÙĪÙĨ": 6566,
      "ĠØ³ÙħØ¹ÙĩÙħ": 6567,
      "ĠÙħØ¯Ø±Ø§Ø±Ø§": 6568,
      "ĠÙħØ¯ØŃÙĪØ±Ø§": 6569,
      "ĠÙħØ¯Ø®ÙĦØ§": 6570,
      "Ø§Ø´Ø±ÙĪÙĩÙĨ": 6571,
      "ĠØ´Ø±ÙĥØ§Ø¡ÙĥÙħ": 6572,
      "ĠØ´Ø±ÙĥØ§Ø¦ÙĥÙħ": 6573,
      "ÙĪØ³ÙĪØ³": 6574,
      "Ø¹ÙĬÙĨÙĪØ§": 6575,
      "ĠÙģÙĨØ¬ÙĬÙĨØ§Ùĩ": 6576,
      "ĠÙĬÙģØªÙĨÙĪÙĨ": 6577,
      "ĠØ¨Ø³ÙĦØ§Ùħ": 6578,
      "ĠÙĪØµØ§ØŃØ¨": 6579,
      "ĠÙħØ¨ØµØ±Ø§": 6580,
      "ĠÙħØ¨ØµØ±Ø©": 6581,
      "ĠÙĨÙĥØ±Ø§": 6582,
      "ĠÙĨÙĥÙĦÙģ": 6583,
      "ĠÙħØµÙĬØ±Ø§": 6584,
      "ĠÙħØµÙģØ±Ø§": 6585,
      "ĠÙĬØ²Ø§ÙĦ": 6586,
      "ÙĤØ§ØªÙĦ": 6587,
      "ĠÙĪØ§ÙĦØ³ÙĦÙĪÙī": 6588,
      "ĠÙĪØ§ÙĦØ³ÙħØ§ÙĪØ§Øª": 6589,
      "ĠÙĨØ´Ø£": 6590,
      "ĠÙĨØ´ÙĪØ±Ø§": 6591,
      "ĠØ³ÙĨØ¨": 6592,
      "ĠØ³ÙĨØ¯Ø³": 6593,
      "ĠÙĬÙĥÙģØ±ÙĪØ§": 6594,
      "ĠÙĪÙĦÙĩÙĪ": 6595,
      "ĠÙĪØ®ÙĬØ±": 6596,
      "ĠØ§ÙĦØ£ÙħÙĪØ§ÙĦ": 6597,
      "ĠÙĪØ§ÙĦØ´ÙĩØ¯Ø§Ø¡": 6598,
      "ÙĨÙĪØ§ÙĨ": 6599,
      "ÙĪØ¹ÙĬØ¯": 6600,
      "ĠÙģØ¬ÙħØ¹": 6601,
      "ĠÙģØ¹ÙĦØª": 6602,
      "ĠØ¬Ø¦ÙĨØ§Ùĥ": 6603,
      "ĠØ®ÙĦÙģØ§Ø¡": 6604,
      "ĠØ´ÙĥÙĪØ±Ø§": 6605,
      "ĠÙģØ£ØµÙĦØŃÙĪØ§": 6606,
      "ĠÙģØ£Ø®Ø°ÙĨØ§Ùĩ": 6607,
      "ĠØ§ØªØ®Ø°Øª": 6608,
      "ĠÙĥØªØ¨ÙĨØ§": 6609,
      "ĠÙĪÙĤÙĦÙĪØ¨ÙĩÙħ": 6610,
      "ĠØ£ØµØ§Ø¨Ùĥ": 6611,
      "Ø¹ÙĪØ¯Ø§": 6612,
      "ĠØ£ØºÙĨÙĬØ§Ø¡": 6613,
      "ĠÙĬØ·Ø¹Ùħ": 6614,
      "ĠÙĬØ·Ø¨Ø¹": 6615,
      "ĠØ¨ÙĤÙĪÙħ": 6616,
      "ĠØ¨ÙĤØ§Ø¯Ø±": 6617,
      "ĠØ¹ØµÙĪØ§": 6618,
      "ĠØ¹ØµØ¨Ø©": 6619,
      "ĠØ¹ØµØ§Ùĩ": 6620,
      "ĠØ¹ØµØ§Ùĥ": 6621,
      "ĠØªÙħÙĬØ¯": 6622,
      "Ø§Ø«Ø§": 6623,
      "ĠØ¢ØªÙĬØªÙħ": 6624,
      "ĠÙĪØ¬Ø§Ø¡Øª": 6625,
      "ĠÙĪØ¬Ø§Ø¡ÙĪØ§": 6626,
      "ĠÙĪØ¬Ø§Ø¡ÙĩÙħ": 6627,
      "ĠØ§Ø®Ø±Ø¬": 6628,
      "ĠÙĪØ§Ø¨ÙĦ": 6629,
      "ĠÙĪØ§Ø¨ØªØºÙĪØ§": 6630,
      "ĠÙģØ¢ÙħÙĨ": 6631,
      "ĠØ¨Ø®ÙĦÙĤ": 6632,
      "ĠØ¨Ø®ÙĦØ§ÙĤ": 6633,
      "ĠØ¨Ø®Ø§Ø±Ø¬": 6634,
      "ĠØ¥ÙĬÙħØ§ÙĨÙĩØ§": 6635,
      "ĠÙĥØ£ÙĨÙħØ§": 6636,
      "ĠÙĥØ£ÙĨÙĩØ§": 6637,
      "Ø´Ø£ÙĨØ§": 6638,
      "ĠÙĪØ§ÙĦØµÙĦØ§Ø©": 6639,
      "ĠØ¨Ø§ÙĦØºØ¯ÙĪ": 6640,
      "ĠØ§ÙĦØ¨Ø±ÙĤ": 6641,
      "ĠÙĪÙĪÙĬÙĦ": 6642,
      "ĠÙĪÙĪØµÙĬÙĨØ§": 6643,
      "ĠØ£ÙĦÙĤÙĬ": 6644,
      "ĠØ¨ÙĨØµØ±Ùĩ": 6645,
      "ĠÙĪÙĬØ³ØªØ®ÙĦÙģ": 6646,
      "ĠÙĪÙĬØ³ØªØ¹Ø¬ÙĦÙĪÙĨ": 6647,
      "ĠÙĪÙĬØ³ØªØŃÙĬÙĪÙĨ": 6648,
      "ĠØ¯Ø¹ÙĪØª": 6649,
      "ĠÙħÙĥØ§ÙĨÙĩ": 6650,
      "ĠÙĪØ·Ø¹Ø§Ùħ": 6651,
      "ĠÙĪØ·Ø§Ø¦ÙģØ©": 6652,
      "ĠÙħÙĬØ«Ø§ÙĤØ§": 6653,
      "ĠØ¨Ø¯ÙĦÙĨØ§": 6654,
      "ĠÙĨØµØ±ÙĩÙħ": 6655,
      "ĠÙĨØµØ±ÙĥÙħ": 6656,
      "ĠØŃØ¬Ø©": 6657,
      "ĠÙĪÙĬØ¹ÙĦÙħÙĩÙħ": 6658,
      "ĠÙĪÙĬØ¹ÙĦÙħÙĥÙħ": 6659,
      "ĠØ²ÙĬÙĨØªÙĩÙĨ": 6660,
      "ĠÙĪÙĬØ±ÙĬØ¯": 6661,
      "ĠÙĪÙĬØ±ÙĬØ¯ÙĪÙĨ": 6662,
      "ĠÙħÙĥØ±ÙĪØ§": 6663,
      "ĠÙħÙĥØ±ÙħÙĪÙĨ": 6664,
      "Ø¯Ø®ÙĦÙĥÙħ": 6665,
      "ĠÙģØµÙĦÙĨØ§": 6666,
      "ĠÙĬØ¨Ø¯Ø¦": 6667,
      "ĠÙĬØ¨Ø¹Ø«ÙĩÙħ": 6668,
      "Ø¶Ø¹ÙģÙĪÙĨ": 6669,
      "ĠØ³Ø¨Ø¹Ø©": 6670,
      "ĠÙĪØ£ÙĤÙħ": 6671,
      "ĠÙĪØ£ÙĤÙĪÙħ": 6672,
      "ĠÙĬÙĨÙģØ¹ÙĨØ§": 6673,
      "ĠØ¶Ø±Ø¨ÙĪØ§": 6674,
      "ĠØ¶Ø±Ø¨ÙĨØ§": 6675,
      "ĠØ¶Ø±Ø¨ØªÙħ": 6676,
      "ĠØ§Ø«ÙĨ": 6677,
      "ĠØ§ÙĦØ¨ÙĬØ¹": 6678,
      "ĠÙĪØ§ØµØ¨Ø±ÙĪØ§": 6679,
      "ĠÙģÙĬÙĨØ¨Ø¦ÙĩÙħ": 6680,
      "ĠÙĬÙħØ³Ø³Ùĥ": 6681,
      "ĠÙĥÙĬØ¯ÙĩÙħ": 6682,
      "ĠÙĤØªÙĦØª": 6683,
      "Ø¶Ø§Ø¹Ùģ": 6684,
      "Ø¶Ø§Ø¬Ø¹": 6685,
      "Ø¶Ø¹Ùĩ": 6686,
      "ĠØ§ÙĦØ±Ø¬Ø²": 6687,
      "ĠØ§Ø³ØªÙħØª": 6688,
      "ĠØ§ÙħØ±Ø£Ø©": 6689,
      "ĠÙĪÙģØ¶": 6690,
      "ĠÙĪÙģØ¬Ø±ÙĨØ§": 6691,
      "ĠÙĪØ´ÙĩØ¯ÙĪØ§": 6692,
      "ĠÙħØ§ÙĦÙĥ": 6693,
      "ĠØ£Ø±Ø¶ÙĨØ§": 6694,
      "ĠØ£Ø±Ø¶ÙĥÙħ": 6695,
      "Ø¬Ø²ÙĬÙĩÙħ": 6696,
      "ĠØ³Ø¹Ùī": 6697,
      "Ø·ÙĩØ±ÙĥÙħ": 6698,
      "ĠØŃØ³Ø¨ÙĨØ§": 6699,
      "ĠØŃØ³Ø¨ØªÙħ": 6700,
      "ØªÙħÙĪÙĨØ§": 6701,
      "ĠÙĬØ±Ø¯ÙĪÙĥÙħ": 6702,
      "ĠØ£Ø±Ø¨Ø¹": 6703,
      "ĠØ£Ø±Ø¨Ø§Ø¨Ø§": 6704,
      "ĠØ£ØªØ§ÙĥÙħ": 6705,
      "ĠØ£ØªØ§ÙĩØ§": 6706,
      "ĠÙĤØ§Ø¦ÙĦ": 6707,
      "ĠÙĤØ§Ø¦Ùħ": 6708,
      "ĠÙĤØªÙĦØªÙħ": 6709,
      "Ø²Ø¹ØªÙħ": 6710,
      "ĠØ£ÙĪØŃÙī": 6711,
      "ĠÙĪØ§ÙĨØª": 6712,
      "ĠÙĪØ§Ø±ØŃÙħÙĨØ§": 6713,
      "ĠØ£ÙĬÙĨÙħØ§": 6714,
      "ĠÙĬÙĩØ¯ÙĬÙĨ": 6715,
      "ĠØ¹ÙĩØ¯ÙĩÙħ": 6716,
      "ĠØ³Ø¬ÙĬÙĦ": 6717,
      "ĠÙĪÙĬÙĦØªÙī": 6718,
      "ĠÙĪØ¹ÙĨØ¯": 6719,
      "ĠÙĪØ¹ÙĨØ¯Ùĩ": 6720,
      "ĠÙĪØ¹ÙĨØ¯ÙĩÙħ": 6721,
      "ĠÙĬÙģÙĤÙĩÙĪÙĩ": 6722,
      "ĠØ§Ø±Ø¬Ø¹ÙĪØ§": 6723,
      "ĠÙĪÙģØ±ÙĬÙĤØ§": 6724,
      "ĠÙĪØ§Ø¯Ø®ÙĦÙĪØ§": 6725,
      "ĠØ£ÙħØ§ÙĨÙĬ": 6726,
      "ĠÙģØ§Ø±ØªÙĤ": 6727,
      "ĠÙĦØ¬ÙĩÙĨÙħ": 6728,
      "ĠÙĬØ¸ÙĩØ±": 6729,
      "ĠÙĬØ¸ÙĩØ±ÙĪØ§": 6730,
      "ĠÙĬÙĦÙĤÙĬ": 6731,
      "ĠÙĬÙĦÙĤÙĪÙĨ": 6732,
      "ĠÙĬÙĦÙĤÙī": 6733,
      "ĠÙĬÙĦÙĤØ§ÙĩØ§": 6734,
      "ÙĤØ·Ø¹ÙĪÙĨ": 6735,
      "ĠØ£ÙĨØ¹ÙħÙĨØ§": 6736,
      "ĠÙĨØ²Øº": 6737,
      "ĠØ³Ø®Ø±ÙĪØ§": 6738,
      "ĠØ³Ø®Ø±ÙĬØ§": 6739,
      "ĠÙĪØ£ÙĥÙĦÙĩÙħ": 6740,
      "ĠÙĪØ£ÙĥÙĪØ§Ø¨": 6741,
      "ĠÙĪØ£Ø®Ø§Ùĩ": 6742,
      "ĠØ§Ø¦Øª": 6743,
      "ĠØ£ÙĦÙĨ": 6744,
      "ĠØ£ÙĦØ³ÙĨØªÙĩÙħ": 6745,
      "Ø¯Ø¹ÙĪÙĩÙħ": 6746,
      "ĠÙĬØ¶Ø±ÙĪØ§": 6747,
      "ĠÙĬØ¶Ø±ÙĩÙħ": 6748,
      "ĠÙĬØ¶Ø±ÙĥÙħ": 6749,
      "ĠÙĪØ§ÙĦÙĥØ§ÙģØ±ÙĪÙĨ": 6750,
      "ĠØ³Ø£ÙĦØª": 6751,
      "ĠÙĪØ£Ø¨ØµØ±": 6752,
      "ĠÙĪØ£ÙĦÙĤÙī": 6753,
      "ĠØ§ÙĦÙħØªÙĪÙĥÙĦÙĪÙĨ": 6754,
      "ĠÙĪÙĬØŃÙĦ": 6755,
      "ĠÙĪÙĬØŃØ³Ø¨ÙĪÙĨ": 6756,
      "ĠÙĥÙĦÙħØ§Øª": 6757,
      "ĠÙħÙĪØ§Ø¶Ø¹Ùĩ": 6758,
      "ĠØ£ÙģØ±Øº": 6759,
      "ĠÙĦØŃØ§ÙģØ¸ÙĪÙĨ": 6760,
      "ĠÙĬØ¹Ø¯ÙĩÙħ": 6761,
      "ĠØªØ·ØºÙĪØ§": 6762,
      "ĠØªØ·ÙĦØ¹": 6763,
      "ĠÙĨÙĪØ±Ùĩ": 6764,
      "ĠØ³Ø±Ø§Ø¬Ø§": 6765,
      "ĠÙĪÙĦØ¹Ø¨Ø§": 6766,
      "ĠÙģØ£ÙĦÙĤÙĪØ§": 6767,
      "ĠÙģØ£ÙĦÙĤÙī": 6768,
      "ĠÙħØ¹ÙĬØ´": 6769,
      "ĠÙĬØªÙĪØ¨ÙĪÙĨ": 6770,
      "ĠØªØŃØ²ÙĨÙĪØ§": 6771,
      "ĠÙĦØ£ÙĨÙģØ³ÙĩÙħ": 6772,
      "ĠÙĨØµÙĬØ¨ÙĩÙħ": 6773,
      "ĠØ§ÙĦÙģØ±ÙĬÙĤÙĬÙĨ": 6774,
      "ĠÙĪØ±Ø¶ÙĪØ§ÙĨØ§": 6775,
      "ĠÙħØºØ§ÙĨÙħ": 6776,
      "ĠÙĬØµØ¯ÙģÙĪÙĨ": 6777,
      "ĠØ¹Ø§ÙħÙĦÙĪÙĨ": 6778,
      "ĠØªÙħØ³ÙĪÙĩØ§": 6779,
      "ĠØªÙħØ³ÙĪÙĩÙĨ": 6780,
      "ĠÙĨÙĤØ¶": 6781,
      "ĠÙģØ§Ø¹Ø¨Ø¯ÙĪÙĨ": 6782,
      "ĠØ¨Ø£ÙħÙĪØ§ÙĦÙĥÙħ": 6783,
      "ĠØ£ÙģØ£ÙħÙĨ": 6784,
      "ĠÙĪØ±Ø²ÙĤÙĥÙħ": 6785,
      "ĠÙĪØ±Ø²ÙĤÙĨØ§ÙĩÙħ": 6786,
      "ĠØªØ®ÙģÙĪÙĩ": 6787,
      "ĠÙĪØ§Ø®Ø´ÙĪÙĨ": 6788,
      "ĠÙĪØ§Ø®ÙģØ¶": 6789,
      "ĠÙĪØ§Ø³ØªØºÙģØ±ÙĪØ§": 6790,
      "ĠÙħØ±ÙĬØ¶Ø§": 6791,
      "Ø£ÙĥÙĦ": 6792,
      "ĠØªÙĦÙĤÙģ": 6793,
      "ĠØªÙĦÙĤØ§Ø¡": 6794,
      "ĠØªÙĤØ¯ÙĬØ±": 6795,
      "ĠÙĪÙĦØ¹ÙĦÙĩÙħ": 6796,
      "ĠÙĪÙĬØ¬Ø¹ÙĦÙĪÙĨ": 6797,
      "ĠØ§ÙĦÙĤØ¯Ø±": 6798,
      "ĠÙĪØ¬ÙĨÙĪØ¯": 6799,
      "ĠØ¨Ø¹Ø¨Ø§Ø¯ÙĬ": 6800,
      "ĠÙĬØªÙĪÙģÙĪÙĨ": 6801,
      "ĠÙģØ¬Ø¹ÙĦÙĨØ§Ùĩ": 6802,
      "ĠÙħÙĦØ¬": 6803,
      "ĠÙħÙĤØªØ§": 6804,
      "ĠÙģØ¯ÙĬØ©": 6805,
      "ĠÙģØ®ÙĦÙĤ": 6806,
      "ĠÙģØ®ÙĪØ±": 6807,
      "ĠÙģØ³Ø¨ØŃØ§ÙĨ": 6808,
      "ĠØ¨ÙħØ¹Ø°Ø¨ÙĬÙĨ": 6809,
      "ĠØªØ¨Ø¹Ùĥ": 6810,
      "ĠÙĥÙģØ§Ø±Ø©": 6811,
      "ĠØ®Ø²ÙĨØªÙĩØ§": 6812,
      "ĠÙĪÙĦÙĦØ±Ø³ÙĪÙĦ": 6813,
      "ĠØ§Ø¹ØªØ²ÙĦ": 6814,
      "ĠÙĬÙĨØµØ±Ùĩ": 6815,
      "ĠÙĦÙĦØ¥ÙĬÙħØ§ÙĨ": 6816,
      "ĠÙĬØ£ØªÙĬÙĨÙĥÙħ": 6817,
      "ĠÙĪØ¢Ø¨Ø§Ø¡ÙĩÙħ": 6818,
      "ĠÙĪØ¢Ø¨Ø§Ø¤ÙĨØ§": 6819,
      "ĠØ£Ø¨ÙĪØ§Ø¨ÙĩØ§": 6820,
      "ĠØ§ÙĦØ¶Ø§ÙĦÙĪÙĨ": 6821,
      "ĠÙĦØ®Ø§Ø³Ø±ÙĪÙĨ": 6822,
      "ĠÙĬÙģØ³Ø¯ÙĪÙĨ": 6823,
      "ĠØ¥Ø®Ø±Ø§Ø¬": 6824,
      "ĠØ¹Ø§Ø¨Ø¯ÙĬÙĨ": 6825,
      "ĠØªÙħØªØ¹ÙĪØ§": 6826,
      "ĠØ±ÙĪØŃÙĨØ§": 6827,
      "ĠÙĪØ£Ø®Ø°ÙĨØ§": 6828,
      "ĠØŃÙģÙĬØ¸Ø§": 6829,
      "ĠØ®Ø§Ø´Ø¹ÙĬÙĨ": 6830,
      "ĠÙĪÙĬØªÙĪØ¨": 6831,
      "ĠÙĪÙĬØ¨ØºÙĪÙĨÙĩØ§": 6832,
      "ĠÙĪÙĬØ®Ø§ÙģÙĪÙĨ": 6833,
      "ĠØ£ÙħÙĩØ§ØªÙĩÙħ": 6834,
      "ĠØ¯Ø®ÙĦØª": 6835,
      "ĠØ¯Ø®ÙĦØªÙħ": 6836,
      "ĠÙĬØªÙĪÙĦÙĩÙħ": 6837,
      "ĠØ¶Ø¹ÙģÙĬÙĨ": 6838,
      "ĠØ§ÙĦØºÙĬØ¸": 6839,
      "ĠÙĪØ²ÙĬÙĨØªÙĩØ§": 6840,
      "ĠØ§ÙĦØ¶ÙĦØ§ÙĦ": 6841,
      "ĠÙħÙĩØ·Ø¹ÙĬÙĨ": 6842,
      "ĠØ£Ø±Ø¬ÙĦÙĩÙħ": 6843,
      "ĠÙģØ·Ø±ÙĨÙĬ": 6844,
      "ÙģØ¸ÙĪØ§": 6845,
      "ĠØªÙģØ±ÙĤÙĪØ§": 6846,
      "ĠØ±Ø¶ÙĪØ§ÙĨ": 6847,
      "ĠÙĪØ§ÙĦÙħÙĬØ³Ø±": 6848,
      "ĠÙĨØ±Ø²ÙĤ": 6849,
      "ĠÙĨØ¤ØªÙĩ": 6850,
      "ĠØŃØ§Ø¬Ø©": 6851,
      "ĠÙĪØ¥ÙĬØ§ÙĬ": 6852,
      "ĠØ¨Ø§ÙĦØµÙĦØ§Ø©": 6853,
      "ĠØ§ÙĤØªØ±Ø¨": 6854,
      "ĠØ¶Ø±Ø§Ø¡": 6855,
      "ĠÙĬÙĥØ§Ø¯ÙĪÙĨ": 6856,
      "ĠÙĬÙĥØ°Ø¨ÙĪÙĥ": 6857,
      "ĠØ§Ø³ØªØ·Ø¹Øª": 6858,
      "ĠØ¨Ø·ÙĪÙĨÙĩÙħ": 6859,
      "ĠÙĬØ¯Ø®ÙĦÙĪÙĨÙĩØ§": 6860,
      "ĠÙĪØºØ±ØªÙĩÙħ": 6861,
      "ĠÙħÙħØ¯": 6862,
      "ĠØ£Ø¨ÙĦØºØªÙĥÙħ": 6863,
      "ĠÙĬÙĦØ¨Ø«ÙĪØ§": 6864,
      "ĠØ¨Ø¦Ø³ÙħØ§": 6865,
      "ĠØªÙħÙĨÙī": 6866,
      "ĠÙĩØ¯ÙĬÙĨØ§": 6867,
      "ĠØ³ÙħÙĬØªÙħÙĪÙĩØ§": 6868,
      "ĠÙĪØ£Ø®Ø±Ùī": 6869,
      "ĠØŃÙĪÙĦÙĩØ§": 6870,
      "ĠØ¨Ø§ÙĦØŃØ³ÙĨÙī": 6871,
      "ĠÙģØ£ØªØ¨Ø¹Ùĩ": 6872,
      "ĠØºÙĦÙĬØ¸Ø§": 6873,
      "ĠØ¨Ø£ÙĬØ¯ÙĬÙĩÙħ": 6874,
      "ĠØ£Ø¹ÙĨØ§Ø¨": 6875,
      "ĠØŃÙħÙĦØªÙĩ": 6876,
      "ĠØ¨Ø±ÙĩØ§ÙĨ": 6877,
      "ĠÙģØ§ØªØ¨Ø¹ÙĪÙĩ": 6878,
      "ĠÙĬØ¶Ø±Ø¨ÙĪÙĨ": 6879,
      "ÙĪØ´ÙĩØ§": 6880,
      "ĠÙĪØ¢Ø®Ø±ÙĬÙĨ": 6881,
      "ĠÙĪØŃØ±Ùħ": 6882,
      "ĠÙħØ·Ø±Ø§": 6883,
      "ĠÙħØ¹Ø¯ÙĪØ¯Ø©": 6884,
      "ĠÙħØ¨Ø§Ø±ÙĥØ©": 6885,
      "ĠÙĦÙĪØ§ÙĤØ¹": 6886,
      "ĠÙĦØ¨Ø§Ø³Ø§": 6887,
      "ĠÙħÙĨØ¹Ùĥ": 6888,
      "ĠØ¹ÙĤØ¨ÙĬÙĩ": 6889,
      "ĠÙĨØªÙĪÙģÙĬÙĨÙĥ": 6890,
      "ĠÙĨÙģØ±ÙĤ": 6891,
      "ĠÙĪØ£ÙĪÙĦØ§Ø¯ÙĥÙħ": 6892,
      "ĠØ¬Ø§ÙħØ¹": 6893,
      "ĠØ´Ø§Ø¹Ø±": 6894,
      "ĠØ´Ø§ÙĩØ¯Ø§": 6895,
      "ĠØ¨Ø§ÙĦÙĥØ§ÙģØ±ÙĬÙĨ": 6896,
      "ĠÙģØ£ÙĩÙĦÙĥÙĨØ§ÙĩÙħ": 6897,
      "ĠØ§ÙĥØªØ³Ø¨": 6898,
      "ĠÙĬÙĨØ·ÙĤ": 6899,
      "ĠØ²Ø§Ø¯ÙĩÙħ": 6900,
      "ĠØªØ¹ØªØ¯ÙĪØ§": 6901,
      "ĠØªØ¹ØªØ°Ø±ÙĪØ§": 6902,
      "ĠÙĦØ¹Ø¨Ø§Ø¯Ùĩ": 6903,
      "ĠÙĬØµÙĬØ¨ÙĩÙħ": 6904,
      "ĠØ§ÙĦÙĥØ±Ø¨": 6905,
      "ĠØ§ÙĦÙĥØ±ÙĬÙħ": 6906,
      "ØªØ±ÙĥÙĪÙĨ": 6907,
      "ĠÙħÙģØ§Øª": 6908,
      "ĠÙħØºØ±ÙĤÙĪÙĨ": 6909,
      "ĠÙħÙĦØ§ÙĤÙĪ": 6910,
      "ĠÙģØ³ØªØ¹ÙĦÙħÙĪÙĨ": 6911,
      "ĠÙģØµØ¯ÙĪØ§": 6912,
      "ĠÙĦØ§ØªØ¨Ø¹": 6913,
      "ĠÙĦØ§ØªØ®Ø°": 6914,
      "ĠÙĦÙĬØ¯Ø®ÙĦ": 6915,
      "ĠÙĦÙĦÙĤÙĪÙħ": 6916,
      "ĠÙĬØ¯Ø§Ùĩ": 6917,
      "ĠÙħÙĨØªØ¸Ø±ÙĪÙĨ": 6918,
      "ĠØ¹Ø§ÙħØ§": 6919,
      "ĠØ¹Ø±ÙĪØ´ÙĩØ§": 6920,
      "ĠØ¹ÙħØ±Ø§ÙĨ": 6921,
      "ĠØ¹Ø§ØµÙħ": 6922,
      "ĠØªØ±ÙĪÙĨÙĩØ§": 6923,
      "ĠØªØ´Ø±ÙĥÙĪØ§": 6924,
      "ĠÙĥØ§ØªØ¨": 6925,
      "ĠÙĪØ£Ø¯Ø®": 6926,
      "ĠÙĪØ£ÙĪØ±Ø«ÙĨØ§": 6927,
      "ĠØ§ÙĦÙħØ¬Ø§ÙĩØ¯ÙĬÙĨ": 6928,
      "ĠØŃØ§ÙģØ¸ÙĬÙĨ": 6929,
      "ĠØ¨Ø§ÙĦØŃÙĬØ§Ø©": 6930,
      "ĠÙĪÙĬØ²ÙĥÙĬÙĩÙħ": 6931,
      "ĠØ¯Ø§Ø¦Ø±Ø©": 6932,
      "ĠÙĪØ§ÙĦØ£ÙĤØ±Ø¨ÙĬÙĨ": 6933,
      "ĠÙĪØ§ÙĦØ£ÙĤØ±Ø¨ÙĪÙĨ": 6934,
      "ĠÙĬØŃØ³Ø¨ÙĨ": 6935,
      "ĠØ²Ø±Ø¹Ø§": 6936,
      "ĠÙĪÙħÙĨØ§ÙģØ¹": 6937,
      "ĠÙĪÙħØªØ§Ø¹": 6938,
      "ĠÙĪÙħØªØ§Ø¹Ø§": 6939,
      "ĠÙħØ³ÙĥÙĬÙĨØ§": 6940,
      "ĠÙģØ¨Ø´Ø±Ùĩ": 6941,
      "ĠØ£ÙĬØ¯ÙĬÙĩÙĨ": 6942,
      "ĠÙģØ§ÙĨØªØ¸Ø±ÙĪØ§": 6943,
      "ĠØªØµÙĬØ¨ÙĩÙħ": 6944,
      "ĠØ§ØµØ·ÙģÙī": 6945,
      "ĠØ§ÙĦØ®Ø±ÙĪØ¬": 6946,
      "Ø¨Ø±ÙĬÙĦ": 6947,
      "ĠÙĬÙĦØ¬": 6948,
      "ĠÙĬØ®Ø±ØµÙĪÙĨ": 6949,
      "ĠÙĬÙĦØŃØ¯ÙĪÙĨ": 6950,
      "ĠÙĬÙĩØªØ¯ÙĬ": 6951,
      "ĠØ¹ÙĤØ¯Ø©": 6952,
      "ĠØªÙĦØ¨Ø³ÙĪÙĨ": 6953,
      "ĠØªØ¶Ø±Ø¹Ø§": 6954,
      "Ø¬ÙħØ¹ÙĪØ§": 6955,
      "ĠÙĤØ¶ÙĬØª": 6956,
      "ĠÙĤØ§ØµØ±Ø§Øª": 6957,
      "ĠÙĪØ§ÙĦÙħÙĨÙĥØ±": 6958,
      "ĠÙĪØ§ÙĦØ¹Ø§ÙĤØ¨Ø©": 6959,
      "ĠÙĨØªÙĦÙĪÙĩØ§": 6960,
      "ĠÙĨÙĨØ¬ÙĬ": 6961,
      "ĠØ¢ÙĨØ³Øª": 6962,
      "ĠØ§ÙĦÙħØ¯Ø§Ø¦ÙĨ": 6963,
      "ĠØ§ÙĦÙħØªÙĥØ¨Ø±ÙĬÙĨ": 6964,
      "ĠØŃØ§Ø´Ø±ÙĬÙĨ": 6965,
      "ĠØ¬ÙĨØªØ§ÙĨ": 6966,
      "ĠØ®Ø·Ø§ÙĬØ§": 6967,
      "ĠØ´ÙģØ¹Ø§Ø¡": 6968,
      "ĠØ§ÙĦØ£ØŃØ§Ø¯ÙĬØ«": 6969,
      "ĠØ«ÙħØ§ÙĨÙĬØ©": 6970,
      "ĠÙģØ£ÙĪØŃÙī": 6971,
      "ĠÙĪÙĥØªØ¨Ùĩ": 6972,
      "ĠÙĪØ¬Ø¦ÙĨØ§": 6973,
      "ĠÙĬÙĨØ²Øº": 6974,
      "ĠÙĬØ¹ØªØ¯ÙĪÙĨ": 6975,
      "ĠÙĪÙħØ«ÙĦÙĩÙħ": 6976,
      "ĠÙĪÙħØ£ÙĪØ§Ùĩ": 6977,
      "ĠÙĬØ®Ø²ÙĬÙĩ": 6978,
      "ĠØªØ¹Ø¬Ø¨Ùĥ": 6979,
      "ĠÙĪØ§ÙĦÙħØ¤ØªÙģÙĥ": 6980,
      "ĠÙĬØ¤Ø®Ø±ÙĩÙħ": 6981,
      "ĠÙĪØ§ÙĦÙĨØ¬ÙĪÙħ": 6982,
      "ĠÙĪØ§ÙĦÙĨØ¨ÙĬÙĬÙĨ": 6983,
      "ĠØ£Ø¯Ø¨Ø§Ø±ÙĩÙħ": 6984,
      "ĠÙĬØ¨Ø®ÙĦÙĪÙĨ": 6985,
      "ĠÙģØ¹ÙĤØ±ÙĪÙĩØ§": 6986,
      "ĠÙĪØ£ÙħÙĪØ§ÙĦÙĩÙħ": 6987,
      "ĠÙĪØ§ØµØ·Ø¨Ø±": 6988,
      "ĠØ¨ØªØ£ÙĪÙĬÙĦÙĩ": 6989,
      "ĠØ§ÙĦØ¯Ø§Ø¹": 6990,
      "ĠØ§ÙĦØ¶Ø¹ÙģØ§Ø¡": 6991,
      "ĠÙĪØ´Ø±Ø§Ø¨": 6992,
      "ĠÙĪÙģØ§ÙĥÙĩØ©": 6993,
      "ĠÙħØ³ÙĨÙĪÙĨ": 6994,
      "ĠØ£Ø¸ÙĨ": 6995,
      "ĠØ£ÙĤØ¯Ø§ÙħÙĨØ§": 6996,
      "ĠÙĦØ°ÙĨØ¨Ùĥ": 6997,
      "ĠÙĬÙĤØ¯Ø±ÙĪÙĨ": 6998,
      "ĠÙĬÙħÙĬÙĨÙĥ": 6999,
      "ĠÙĬØ¬Ø±ÙħÙĨÙĥÙħ": 7000,
      "ĠÙĬØ¨Ø§ÙĬØ¹ÙĪÙĨ": 7001,
      "ĠÙĥØ¯Ø£Ø¨": 7002,
      "ØµÙĦØ¨ÙĨÙĥÙħ": 7003,
      "ĠØ±ØºØ¯Ø§": 7004,
      "ĠØ³ÙĪÙĦØª": 7005,
      "ĠØ³ÙĥÙĬÙĨØªÙĩ": 7006,
      "ĠØ§ÙĦÙħØ´ØŃÙĪÙĨ": 7007,
      "ĠØŃÙĬØ§ØªÙĨØ§": 7008,
      "ĠØŃÙħÙĬÙħØ§": 7009,
      "ĠØ®ÙĬÙģØ©": 7010,
      "ĠØ´Ø§ÙĥØ±Ø§": 7011,
      "Ø¤ÙĦØ¤Ø§": 7012,
      "ĠÙĪÙĬØ¹ÙģÙĪ": 7013,
      "ĠØ§ÙĦØŃÙĪØ§Ø±ÙĬÙĪÙĨ": 7014,
      "ĠÙģØ£ØºØ±ÙĤÙĨØ§ÙĩÙħ": 7015,
      "ĠÙĦÙĬÙĥÙģØ±ÙĪØ§": 7016,
      "ĠØ§ÙĤØ±Ø£": 7017,
      "ĠØºÙĦØ¨Øª": 7018,
      "ĠØ´ÙĬØ¹ØªÙĩ": 7019,
      "ĠÙĪÙĨØ¬ÙĨÙĬ": 7020,
      "ĠØ·ÙĦØ¹ÙĩØ§": 7021,
      "ĠØ§ÙĦØ´ÙĩÙĪØ§Øª": 7022,
      "ĠÙĪÙħØ³Ø§ÙĥÙĨ": 7023,
      "ĠÙĬØ³ØªØ¹ØªØ¨ÙĪÙĨ": 7024,
      "ĠØªØªØ®Ø°ÙĪÙĨ": 7025,
      "ĠØ£Ø¹ÙĤØ§Ø¨ÙĥÙħ": 7026,
      "ĠØ£Ø´ÙĬØ§Ø¡ÙĩÙħ": 7027,
      "ĠØ§ÙĨØµØ±ÙĨÙĬ": 7028,
      "ĠÙģØ§ÙĨØ·ÙĦÙĤØ§": 7029,
      "ĠÙĪÙĦÙĨØ¬Ø²ÙĬÙĨÙĩÙħ": 7030,
      "ĠØ§ÙĦÙħÙĨØªØ¸Ø±ÙĬÙĨ": 7031,
      "ĠØ§Ø±ØªØ¶Ùī": 7032,
      "ĠØ§ÙĦÙĪØ§Ø±Ø«ÙĬÙĨ": 7033,
      "ĠÙĪØ°Ø±ÙĬØ§ØªÙĩÙħ": 7034,
      "ĠÙħØ¹Ø¯ÙĪØ¯Ø§Øª": 7035,
      "ĠØ³ØªØ¬Ø¯ÙĨÙĬ": 7036,
      "ĠØ§ÙĦÙĪØ§ÙĦØ¯Ø§ÙĨ": 7037,
      "ĠØ§ÙĦÙĪÙĩØ§Ø¨": 7038,
      "ĠØ§ÙĦÙĦØ¹ÙĨØ©": 7039,
      "ĠÙħØ¨ÙĦØ³ÙĪÙĨ": 7040,
      "ĠÙħØ´ÙģÙĤÙĬÙĨ": 7041,
      "ĠÙĬÙĦØ§ÙĤÙĪØ§": 7042,
      "ĠÙĬØ¨ÙĬØªÙĪÙĨ": 7043,
      "ĠØ¨ÙĬØ§ØªØ§": 7044,
      "ĠÙħÙĨØªÙĤÙħÙĪÙĨ": 7045,
      "ĠÙģÙĬØ£Ø®Ø°ÙĥÙħ": 7046,
      "ĠÙĪØ§ÙĦØ¢ØµØ§ÙĦ": 7047,
      "ĠØ§ÙĦØ°Ø¦Ø¨": 7048,
      "ĠØ§ÙĦÙħØŃÙĬØ¶": 7049,
      "ĠØ§ÙĦÙħØ´Ø£ÙħØ©": 7050,
      "ĠØ§ÙĦÙħØ®ÙĦÙģÙĪÙĨ": 7051,
      "ĠØ§ÙĦÙħÙĬÙħÙĨØ©": 7052,
      "ĠØ§ÙĦÙħÙĤØ³Ø·ÙĬÙĨ": 7053,
      "ĠØŃØ·Ø§ÙħØ§": 7054,
      "ĠØ®Ø³Ø§Ø±Ø§": 7055,
      "ĠØ§ÙĦØ£ÙĦÙĪØ§ØŃ": 7056,
      "ĠØ§ÙĦØ£Ø¬Ø¯Ø§Ø«": 7057,
      "ĠÙĪØ¥ÙĬØªØ§Ø¡": 7058,
      "ĠØ°Ø§Ø¦ÙĤØ©": 7059,
      "ĠÙģØ£ÙħØ³ÙĥÙĪÙĩÙĨ": 7060,
      "ĠØ§ÙĦØ¹Ø§Ø¬ÙĦØ©": 7061,
      "ĠÙĦÙĬØ¸ÙĦÙħÙĩÙħ": 7062,
      "ĠÙħØ¹Ø§Ø¬Ø²ÙĬÙĨ": 7063,
      "ĠÙĦÙĦØ´Ø§Ø±Ø¨ÙĬÙĨ": 7064,
      "ĠØ§ÙĦÙĨÙĥØ§ØŃ": 7065,
      "ĠØ§ÙĦÙĨØ´Ø£Ø©": 7066,
      "ĠÙĬØ³ÙĪÙħÙĪÙĨÙĥÙħ": 7067,
      "ĠÙħØ±ÙģÙĪØ¹Ø©": 7068,
      "ĠÙģÙĥØ£ÙĨÙħØ§": 7069,
      "ĠÙĪÙĬØ³ØªØ¹Ø¬ÙĦÙĪÙĨÙĥ": 7070,
      "²Ø¯Ø§Ø¯ÙĪØ§": 7071,
      "Ø§ÙĩÙĨ": 7072,
      "Ø§Ø³Ø¨": 7073,
      "Ø§ÙĤÙĪÙĨ": 7074,
      "Ø§Ø¹ÙĬ": 7075,
      "Ø§ÙħØ³Ø©": 7076,
      "ÙĦØ¹ÙĪÙĨ": 7077,
      "ÙĦÙĪÙĥ": 7078,
      "ÙĦÙĪÙĦØ©": 7079,
      "ÙĨØ¯": 7080,
      "ÙĨØ·": 7081,
      "ÙĨØ«": 7082,
      "ÙĨØ¨ÙĬ": 7083,
      "ÙĨÙĪØ±": 7084,
      "ÙĨØ¨Ø¦": 7085,
      "ÙĨØ¨Ø¦ÙĥÙħ": 7086,
      "ÙĨØ¢ÙĨ": 7087,
      "ÙĨÙģØ§Ø¡": 7088,
      "ÙħÙħ": 7089,
      "ÙħØ£": 7090,
      "ÙħØ«": 7091,
      "ÙħÙĬØ±Ø§": 7092,
      "ÙħØ¯Ø§": 7093,
      "ÙħØ¶ÙĪØ§": 7094,
      "ÙħØŃÙĪÙĨ": 7095,
      "ÙħÙĦØ§ÙĤ": 7096,
      "ÙħØµØ©": 7097,
      "ÙħÙĪÙħØ§": 7098,
      "ÙħØ´ÙĪØ§": 7099,
      "ÙĬØ§ÙĦ": 7100,
      "ÙĬØ£": 7101,
      "ÙĬØ¬": 7102,
      "ÙĬØ§ÙĨ": 7103,
      "ÙĬØªÙĩ": 7104,
      "ÙĪØ·": 7105,
      "ÙĪØ±ÙĪÙĨ": 7106,
      "ÙĪÙĬÙĨØ§": 7107,
      "ÙĪØªÙĬ": 7108,
      "ÙĪÙĪØ¯": 7109,
      "ÙĪØªÙĩ": 7110,
      "ÙĪÙĤÙĬÙĨ": 7111,
      "ÙĪØ¶Ø§": 7112,
      "Ø§ÙĦØª": 7113,
      "Ø§ÙĦØªÙĩ": 7114,
      "ÙĩÙĦØ§": 7115,
      "ÙĩÙĬØ©": 7116,
      "ÙĩÙĬØª": 7117,
      "ÙĩÙĤÙĩÙħ": 7118,
      "Ø±Øª": 7119,
      "Ø±Øµ": 7120,
      "Ø±ÙĬÙĨØ§": 7121,
      "Ø±Ø¨ÙĬ": 7122,
      "Ø±ÙĤØ¨": 7123,
      "Ø±Ø«ÙĪÙĨ": 7124,
      "Ø±ÙĪØ´": 7125,
      "ĠØ§ÙĦØ±Ø¶": 7126,
      "ĠØ§ÙĦØ¹ÙĦ": 7127,
      "ĠØ§ÙĦÙĪØ±": 7128,
      "ĠØ§ÙĦØ¨Ø§": 7129,
      "ĠØ§ÙĦØ²ÙĤ": 7130,
      "ĠØ§ÙĦØªÙĨØ§": 7131,
      "ĠØ§ÙĦÙĦØ¤": 7132,
      "ĠØ§ÙĦÙĪØ¬ÙĪÙĩ": 7133,
      "ĠØ§ÙĦÙĦØºÙĪ": 7134,
      "ĠØ§ÙĦÙĪÙĦØ¯Ø§ÙĨ": 7135,
      "ĠØ§ÙĦØ¨ÙĬÙĨØ©": 7136,
      "ĠØ§ÙĦÙĪØ¹ÙĬØ¯": 7137,
      "ĠÙĪØ±Ø¶": 7138,
      "ĠÙĪÙĥØ±": 7139,
      "ĠÙĪØ¨Ø¹": 7140,
      "ĠÙĪÙĩÙĨ": 7141,
      "ĠÙĪØ®Ø°": 7142,
      "ĠÙĪÙħØ±": 7143,
      "ĠÙĪÙĪÙģ": 7144,
      "ĠÙĪÙħÙĬ": 7145,
      "ĠÙĪØ¢ÙĬØ§Øª": 7146,
      "ĠÙĪØ°Ø±": 7147,
      "ĠÙĪÙĪØŃ": 7148,
      "ĠÙĪØ´Ø±Ùĥ": 7149,
      "ĠÙĪÙĦÙĩØ§": 7150,
      "ĠÙĪÙģØ§Ø±": 7151,
      "ĠÙĪØ³ÙħØ¹": 7152,
      "ĠÙĪØ¸Ø§": 7153,
      "ĠÙĪØ´Ùģ": 7154,
      "ĠÙĪØ§Ø±Ùĥ": 7155,
      "ĠÙĪØ¶Ø§": 7156,
      "ĠÙĪÙĩØ¯ÙĪØ§": 7157,
      "ĠÙĪØ¯Ø¹": 7158,
      "ĠÙĪØ«Ø¨Øª": 7159,
      "ĠÙĪÙĪØ±Ø«": 7160,
      "ĠÙĪØµØ±Ùģ": 7161,
      "ĠÙĪÙĪØ§Ø¹Ø¯": 7162,
      "ĠÙĪÙĪØ¬ÙĪÙĩ": 7163,
      "ĠÙĪÙĥØ±ÙĩÙĪØ§": 7164,
      "ĠÙĪØ¸ÙĦÙħÙĪØ§": 7165,
      "ÙĥÙĬ": 7166,
      "ÙĥÙĪØ§": 7167,
      "ÙĥÙĦØ§": 7168,
      "ÙĥØ©": 7169,
      "ÙĥØ§Øª": 7170,
      "ÙĥÙĬØ§": 7171,
      "ÙĥÙĨØ©": 7172,
      "ÙĥØ¨Ø±Ø§": 7173,
      "ÙĥÙĦÙħØ§": 7174,
      "ÙĥØŃÙĪØ§": 7175,
      "ÙĥØ±Ø§Ùħ": 7176,
      "ÙĥØ´Ùģ": 7177,
      "ØªÙħÙĨ": 7178,
      "ØªØ±ÙĬ": 7179,
      "ØªØ¨Øª": 7180,
      "ØªØªÙĨØ§": 7181,
      "ØªØ±Ùģ": 7182,
      "ØªÙĤÙī": 7183,
      "ØªØ§ØªØ§": 7184,
      "ØªÙģÙĤØ§": 7185,
      "Ø¨Ø¶": 7186,
      "Ø¨Ø§Øª": 7187,
      "Ø¨ÙĦÙĪÙĨ": 7188,
      "Ø¨ÙĤØ§": 7189,
      "Ø¨ÙĪÙĩÙħ": 7190,
      "Ø¨ÙĪØ§Ø¨": 7191,
      "Ø¨Ø§Ø·ÙĦ": 7192,
      "Ø¨Ø§Ø¦ÙĩÙħ": 7193,
      "Ø¨Ø«Ø§": 7194,
      "ĠÙħØ£": 7195,
      "ĠÙħØ§Øª": 7196,
      "ĠÙħÙĬØ±": 7197,
      "ĠÙħØ¸": 7198,
      "ĠÙħÙĩØ¯": 7199,
      "ĠÙħØªØ§Ø¨": 7200,
      "ĠÙħØ¨Ø±": 7201,
      "ĠÙħØ¬Ø±": 7202,
      "ĠÙħØ¯Ø§": 7203,
      "ĠÙħØ¶ÙĦ": 7204,
      "ĠÙħÙĦÙĬÙħ": 7205,
      "ĠÙħÙĦØŃ": 7206,
      "ĠÙħØ´Ø±ÙĥÙĪÙĨ": 7207,
      "ĠÙħÙĤØ·": 7208,
      "ĠÙħØ¬Ø±ÙħÙĪÙĨ": 7209,
      "ĠÙħÙĤØ§ÙĦ": 7210,
      "ĠÙħØ²ÙĬØ¯": 7211,
      "ĠÙħÙĩØ§Ø¬Ø±": 7212,
      "ĠÙħÙħØ³Ùĥ": 7213,
      "ĠÙħØ·ÙħØ¦ÙĨ": 7214,
      "ĠÙħØ¨Ø¹ÙĪØ«ÙĪÙĨ": 7215,
      "ĠÙħÙĦÙĤÙĪÙĨ": 7216,
      "ĠÙħØªØ¨Ø¹ÙĪÙĨ": 7217,
      "ĠÙħÙĦÙĪÙħØ§": 7218,
      "ĠÙħÙĪÙĦÙĪØ¯": 7219,
      "ĠÙħØ®ÙĦØ¯ÙĪÙĨ": 7220,
      "Ø¹Ø²": 7221,
      "Ø¹Ø§ÙĨ": 7222,
      "Ø¹Ø§Ø±": 7223,
      "Ø¹Ø°Ø¨": 7224,
      "Ø¹ÙĦÙĩØ§": 7225,
      "Ø¹ÙĦØ§Ùħ": 7226,
      "Ø¹ÙĨÙĥÙħ": 7227,
      "Ø¹Ø¨Ø©": 7228,
      "Ø¹ÙĪÙĥÙħ": 7229,
      "Ø¹Ø«ÙĪØ§": 7230,
      "Ø¹Ø°Ø¨Ùĩ": 7231,
      "ĠØ£Ø¹ÙĦ": 7232,
      "ĠØ£ÙĩØ¯": 7233,
      "ĠØ£Ø°ÙĦÙĥ": 7234,
      "ĠØ£Ø°ÙĥØ±": 7235,
      "ĠØ£ÙĤØª": 7236,
      "ĠØ£Ø«Ø±": 7237,
      "ĠØ£Ø®ÙĦ": 7238,
      "ĠØ£Ø±Ùĥ": 7239,
      "ĠØ£ÙĤØ±": 7240,
      "ĠØ£Ø¨Ø¹Ø«": 7241,
      "ĠØ£Ø°ÙĩØ¨": 7242,
      "ĠØ£ÙĤÙĬÙħÙĪØ§": 7243,
      "ĠØ£Ø·ÙĩØ±": 7244,
      "ĠØ£ÙĤØ§ÙħÙĪØ§": 7245,
      "ĠØ£Ø·Ø¹ÙĨØ§": 7246,
      "ĠØ£ÙĥØ±Ùĩ": 7247,
      "Ø¯Ùĥ": 7248,
      "Ø¯ÙĦÙī": 7249,
      "Ø¯Ø¬Ø±": 7250,
      "Ø¯Ø±Ø¬": 7251,
      "Ø¯ÙĪÙĩÙħ": 7252,
      "Ø¯Ø®ÙĦÙĪØ§": 7253,
      "Ø¯Ø±Ø©": 7254,
      "Ø¯ÙĪØ³": 7255,
      "Ø¯ÙĨÙī": 7256,
      "Ø¯Ø¨Ø±ÙĪÙĨ": 7257,
      "Ø¯Ø¯ÙĥÙħ": 7258,
      "Ø³ÙĨØ§": 7259,
      "Ø³ÙĪÙĩ": 7260,
      "Ø³Ø¯ÙĪÙĨ": 7261,
      "Ø³ÙĪØ©": 7262,
      "Ø³ÙħØ§ÙĨ": 7263,
      "Ø³Ø³ÙĪØ§": 7264,
      "Ø³Ø®Ø±ÙĪÙĨ": 7265,
      "Ø³ÙĦÙħÙĬÙĨ": 7266,
      "Ø³Ø·Ø§Ø³": 7267,
      "ĠÙģØŃ": 7268,
      "ĠÙģØ«": 7269,
      "ĠÙģÙģØ±": 7270,
      "ĠÙģØ°Ø§": 7271,
      "ĠÙģØ±Ø§": 7272,
      "ĠÙģØ¹Ùħ": 7273,
      "ĠÙģØ¹ÙĦÙħ": 7274,
      "ĠÙģÙģØ³": 7275,
      "ĠÙģØ´Ø±": 7276,
      "ĠÙģØ¨Ø¯": 7277,
      "ĠÙģØ¹Ø§": 7278,
      "ĠÙģÙĤØª": 7279,
      "ĠÙģØºÙģØ±": 7280,
      "ĠÙģÙĪÙĦÙĪØ§": 7281,
      "ĠÙģØ¨Ø¹Ø«": 7282,
      "ĠÙģØ²ÙĬÙĨ": 7283,
      "ĠÙģØ¨ÙĦØº": 7284,
      "ĠÙģØ§Ø²": 7285,
      "ĠÙģØ²Ø¹": 7286,
      "ĠÙģÙĦÙĩÙĨ": 7287,
      "ĠÙģØ®ÙĦÙģ": 7288,
      "ĠÙģØ´Ø§Ø±": 7289,
      "ĠÙģØ¨Ø¯ÙĦ": 7290,
      "ĠÙģØªÙħØªØ¹ÙĪØ§": 7291,
      "ĠÙģÙĤÙĪÙĦÙĪØ§": 7292,
      "ĠÙģØ¸ÙĦÙħÙĪØ§": 7293,
      "ĠÙģÙħØªØ¹": 7294,
      "ĠÙģÙĪØ³ÙĪØ³": 7295,
      "ĠÙģØ¯Ø¹ÙĪÙĩÙħ": 7296,
      "ĠÙĦØ¶": 7297,
      "ĠÙĦØ§ÙĨ": 7298,
      "ĠÙĦØ¹Ùħ": 7299,
      "ĠÙĦØ¹ÙĦÙħ": 7300,
      "ĠÙĦØ´Ø±": 7301,
      "ĠÙĦØ²ÙĦ": 7302,
      "ĠÙĦÙĤÙĪØ§": 7303,
      "ĠÙĦØŃÙħ": 7304,
      "ĠÙĦØ¯Ø§": 7305,
      "ĠÙĦØ´Ø±Ùĥ": 7306,
      "ĠÙĦØ¯Ùī": 7307,
      "ĠÙĦÙĩØ¯Ùī": 7308,
      "ĠÙĦÙĪÙĦÙĪØ§": 7309,
      "ĠÙĦØ¨Ø¯Ø§": 7310,
      "ĠÙĦØ³ÙĨØ©": 7311,
      "ĠÙĦØ°ÙĩØ¨": 7312,
      "ĠÙĦØŃØ¯": 7313,
      "ĠÙĦØ²Ø§": 7314,
      "ĠÙĦØ³Ø§ÙĨØ§": 7315,
      "ĠÙĦÙĪÙĨÙĩØ§": 7316,
      "ĠÙĦØ³ÙħÙĬØ¹": 7317,
      "ĠÙĬÙĦÙĩ": 7318,
      "ĠÙĬÙĦÙħ": 7319,
      "ĠÙĬÙĪÙĦ": 7320,
      "ĠÙĬÙĨÙĬ": 7321,
      "ĠÙĬÙĩØ±": 7322,
      "ĠÙĬØ¶ÙĬ": 7323,
      "ĠÙĬØ°ÙĪ": 7324,
      "ĠÙĬÙĪØ±Ø«": 7325,
      "ĠÙĬÙĪØ§Ø±ÙĬ": 7326,
      "ĠÙĬØ³ÙħØ¹ÙĪØ§": 7327,
      "ĠÙĬØ°ÙĩØ¨ÙĪØ§": 7328,
      "ĠÙĬÙĩÙĬ": 7329,
      "ĠÙĬÙĪÙĨØ³": 7330,
      "ĠÙĬØ±Ø§ÙĥÙħ": 7331,
      "ĠÙĬÙĬØ£Ø³": 7332,
      "ÙĤÙĥÙħ": 7333,
      "ÙĤÙĩØ§": 7334,
      "ÙĤØ¶": 7335,
      "ÙĤÙĬØ§Øª": 7336,
      "ÙĤÙĬØ©": 7337,
      "ÙĤÙģØ§": 7338,
      "ÙĤÙĪØª": 7339,
      "ÙĤØ·Ø¹": 7340,
      "ÙĤÙĬÙĥÙħ": 7341,
      "ÙĤØ¶ÙĪØ§": 7342,
      "ÙĤØ§ÙĦØ§": 7343,
      "ÙĤØ¹Ø¯ÙĪØ§": 7344,
      "ÙĤØ³ÙħØ§ÙĨ": 7345,
      "Ø°Ø¹": 7346,
      "Ø°Ø±Ø§": 7347,
      "Ø°ÙĦÙĥÙħ": 7348,
      "ÙĪØ§ØŃØ´": 7349,
      "ÙĪØ§Ø¬Ø§": 7350,
      "ÙĪØ§Ø¹ÙĤ": 7351,
      "ĠØ¨Ø²": 7352,
      "ĠØ¨Ø§Ø¡": 7353,
      "ĠØ¨ÙĪÙĦ": 7354,
      "ĠØ¨ÙĩØ¯": 7355,
      "ĠØ¨ÙĪØ±": 7356,
      "ĠØ¨Ø±Ø³": 7357,
      "ĠØ¨ØªØ§Ø¨": 7358,
      "ĠØ¨Ø¨Ø¯": 7359,
      "ĠØ¨Ø¯Ø§": 7360,
      "ĠØ¨ÙħÙĬ": 7361,
      "ĠØ¨ÙĨÙĬØ§": 7362,
      "ĠØ¨ÙĨØ§Øª": 7363,
      "ĠØ¨ÙĪØ±Ø§": 7364,
      "ĠØ¨Ø±Ùĥ": 7365,
      "ĠØ¨ÙĨÙĬÙĨ": 7366,
      "ĠØ¨Ø³Ø§": 7367,
      "ĠØ¨Ø¨Ø§ÙĦ": 7368,
      "ĠØ¨Ø®ÙĦÙĪØ§": 7369,
      "ĠØ¨Ø§Ø®": 7370,
      "ĠØ¨Ø²ÙĬÙĨ": 7371,
      "ĠØ¨Ø§Ø¨Ø§": 7372,
      "ĠØ¨Ø§Ø²": 7373,
      "ĠØ¨ÙĨØ§ÙĩØ§": 7374,
      "ĠØ¨Ø¶Ø¹": 7375,
      "ĠØ¨Ø±Ø³ÙĪÙĦ": 7376,
      "ĠØ¨ÙĪØ£": 7377,
      "ĠØ¨ÙĪØ¬ÙĪÙĩ": 7378,
      "ĠØ¨Ø¨Ø¹ÙĬØ¯": 7379,
      "ĠØ¨Ø¨ÙĬÙĨØ©": 7380,
      "ĠØ¥Ø³": 7381,
      "ĠØ¥Ø¹Ø±": 7382,
      "ĠØ¥ÙĥØ±Ø§": 7383,
      "ĠØ¥Ø³ÙĦØ§Ùħ": 7384,
      "ĠØ¥Ø·Ø¹Ø§Ùħ": 7385,
      "ĠØ¥ÙħÙĦØ§ÙĤ": 7386,
      "ÙģÙĩÙħ": 7387,
      "ÙģÙĨØ§": 7388,
      "ÙģÙĦØ§": 7389,
      "ÙģÙĬØ±": 7390,
      "ÙģØ«": 7391,
      "ÙģÙĬØ§": 7392,
      "ÙģØ¹ÙĪÙĨ": 7393,
      "ÙģØ¬Ø±": 7394,
      "ÙģÙĪÙģ": 7395,
      "ÙģØªÙĩÙħ": 7396,
      "ÙģÙĬØ©": 7397,
      "ÙģØ¶ÙĦ": 7398,
      "ÙģÙĥØ§": 7399,
      "ÙģØ§Ø²": 7400,
      "ÙģØ¹ÙĦÙĪØ§": 7401,
      "ÙģØ§ØªØ§": 7402,
      "ØŃØ¨": 7403,
      "ØŃØ¯Ø§": 7404,
      "ØŃÙĤØ§": 7405,
      "ØŃØ¨Ø§": 7406,
      "ØŃØ¯Ø©": 7407,
      "ØŃØ¯ÙĪØ§": 7408,
      "ØŃØ¨Ø§Ø±": 7409,
      "ØŃØ§Ø¬": 7410,
      "ØŃØ¶ÙĪØ§": 7411,
      "ØŃØ³Ø¨ÙĪÙĨ": 7412,
      "ØŃÙĦÙģÙĪÙĨ": 7413,
      "ØŃØ§Ø¬ÙĪÙĨ": 7414,
      "Ø£ÙĩØ§": 7415,
      "Ø£ÙĦÙĥ": 7416,
      "Ø£Ø±ÙĪÙĨ": 7417,
      "Ø£Ø®Ø±": 7418,
      "Ø£ÙĨØ³": 7419,
      "Ø£Ø®Ø°ÙĪØ§": 7420,
      "Ø£Ø¬ÙĪØ¬": 7421,
      "Ø£ÙĬÙħØ§ÙĨÙĩÙħ": 7422,
      "ĠÙħÙĨÙĤ": 7423,
      "ĠÙħÙĨÙģ": 7424,
      "ĠÙħÙĨÙĨØ§": 7425,
      "ĠÙħÙĨÙĬØ±": 7426,
      "ĠÙħÙĨØ«": 7427,
      "ĠÙħÙĨÙĬØ±Ø§": 7428,
      "ĠÙħÙĨØ§Ø²": 7429,
      "ĠÙħÙĨØ¸Ø±ÙĬÙĨ": 7430,
      "ĠÙħÙĨØ²ÙĦÙĬÙĨ": 7431,
      "ĠÙħÙĨØ¶ÙĪØ¯": 7432,
      "ĠØ¹Ø¶": 7433,
      "ĠØ¹Ø·": 7434,
      "ĠØ¹Ø°Ø¨": 7435,
      "ĠØ¹Ø§Ø¦": 7436,
      "ĠØ¹Ø³Ø±": 7437,
      "ĠØ¹Ø§ÙĦÙħÙĬÙĨ": 7438,
      "ĠØ¹ØªÙĪØ§": 7439,
      "ĠØ¹ÙĪØ¬": 7440,
      "ĠØ¹ÙĤÙĬÙħ": 7441,
      "ĠØ¹ÙĪÙĤ": 7442,
      "ĠØ¹Ø¬ÙĦ": 7443,
      "ĠØ¹Ø³ÙĬ": 7444,
      "ĠØ¹Ø´Ø±Ø§": 7445,
      "ĠØ¹Ø´ÙĬØ±": 7446,
      "ĠØ¹Ø±ÙģÙĪØ§": 7447,
      "ĠØ¹ÙĬØ´": 7448,
      "ĠØ¹Ø¨Ø³": 7449,
      "ĠØ¹Ø°Øª": 7450,
      "ĠØ¹ÙĪØ±Ø§Øª": 7451,
      "ĠØ¹Ø°Ø±Ø§": 7452,
      "ÙĨØ§Ø±": 7453,
      "ÙĨØ§ÙĨØ§": 7454,
      "ÙĨØ§Ø¬Ø±": 7455,
      "ÙĨØ§ØªÙĩÙħ": 7456,
      "ÙĨØ§Ø¬ÙĪØ§": 7457,
      "ÙħØ§Ø¯": 7458,
      "ÙħØ§Ø«": 7459,
      "ÙħØ§Ø±ÙĪÙĨ": 7460,
      "ÙħØ§Ø³Ø§": 7461,
      "ÙĦØ§Ùĩ": 7462,
      "ÙĦØ§ØªÙĬ": 7463,
      "ÙĦØ§ØªÙĥ": 7464,
      "ÙĦØ§Ø³ÙĦ": 7465,
      "ĠØªØ°": 7466,
      "ĠØªØ®Ø±": 7467,
      "ĠØªØ¨ÙĬ": 7468,
      "ĠØªØ´Ø±": 7469,
      "ĠØªÙĩÙĪ": 7470,
      "ĠØªØ¹Ø§": 7471,
      "ĠØªÙħØ±": 7472,
      "ĠØªØ³Ø¨": 7473,
      "ĠØªÙĤØ§": 7474,
      "ĠØªØ¶ÙĦ": 7475,
      "ĠØªÙĨØª": 7476,
      "ĠØªÙĨØ³": 7477,
      "ĠØªØ°Ùĩ": 7478,
      "ĠØªÙĪØ¬": 7479,
      "ĠØªØ³Ø¨ØŃ": 7480,
      "ĠØªÙĪØ§Ø¨": 7481,
      "ĠØªØºØ±": 7482,
      "ĠØªØ°ÙĥØ±ÙĪØ§": 7483,
      "ĠØªØ¹Ø¯ÙĪÙĨ": 7484,
      "ĠØªØºÙĬ": 7485,
      "ĠØªØ¤Ùħ": 7486,
      "ĠØªØ³ÙħØ¹ÙĪÙĨ": 7487,
      "ĠØªÙħÙĨÙĪØ§": 7488,
      "ĠØªØ±Ø¶ÙĪÙĨ": 7489,
      "ĠØªØ§Ø±Ø©": 7490,
      "ĠØªÙĤØªÙĦ": 7491,
      "ĠØªØ·ÙĩØ±": 7492,
      "ĠØªØ¹ÙĦÙĪØ§": 7493,
      "ĠØªØ±Ø¨Øµ": 7494,
      "ĠØªØ¹ÙħÙī": 7495,
      "ĠØªØ±Ø¶Ùī": 7496,
      "ĠØªÙĪØ§Ø¹Ø¯": 7497,
      "ĠØªÙĬØ³Ø±": 7498,
      "ĠØªØµØ±ÙģÙĪÙĨ": 7499,
      "Ø¬Ùħ": 7500,
      "Ø¬ÙĦØ§": 7501,
      "Ø¬Ø©": 7502,
      "Ø¬ÙĬØ±Ø§": 7503,
      "Ø¬Ø¯Ø§": 7504,
      "Ø¬Ø§Ø¬": 7505,
      "Ø¬Ø²Ùī": 7506,
      "Ø¬Ø§Ø¯ÙĦ": 7507,
      "Ø¬Ø§ÙĩØ¯ÙĪÙĨ": 7508,
      "ĠÙĥÙĩ": 7509,
      "ĠÙĥØ¹": 7510,
      "ĠÙĥØ±Ø³": 7511,
      "ĠÙĥØ§ÙĦØŃ": 7512,
      "ĠÙĥØ§Ùħ": 7513,
      "ĠÙĥÙģÙĪØ§": 7514,
      "ĠÙĥØ´Ùģ": 7515,
      "ĠÙĥØ¯Øª": 7516,
      "ĠÙĥØ§ÙĨØ§": 7517,
      "ĠÙĥÙĩÙģ": 7518,
      "ĠÙĥÙĩÙĬ": 7519,
      "ĠÙĥÙģÙĬÙĩ": 7520,
      "ĠÙĥØ±Ø§ÙħØ§": 7521,
      "ĠÙĥÙģØ§Ø±Ø§": 7522,
      "ĠÙĥØªØ¨Øª": 7523,
      "ÙĥÙħÙĩ": 7524,
      "ĠÙĤØ³Øª": 7525,
      "ĠÙĤØ§Ø¯": 7526,
      "ĠÙĤÙĬÙħØ§": 7527,
      "ĠÙĤØ±Ùī": 7528,
      "ĠÙĤÙĪÙĦÙĪØ§": 7529,
      "ĠÙĤØ±Ø©": 7530,
      "ĠÙĤÙĬØ§Ùħ": 7531,
      "ĠÙĤØ±ØŃ": 7532,
      "ĠÙĤØ±Ø§Ø±Ø§": 7533,
      "ĠÙĤØ§Ø¯Ø±": 7534,
      "ĠÙĤØ§ØªÙĦÙĪÙĥÙħ": 7535,
      "ĠÙĤØ±ÙĪÙĨØ§": 7536,
      "ÙĦÙĬØ§": 7537,
      "ÙĦÙĬÙģØ©": 7538,
      "ĠÙģÙĬØµÙĬØ¨": 7539,
      "ĠÙģÙĬÙĪÙģÙĬÙĩÙħ": 7540,
      "ĠÙģÙĬØªØ¨Ø¹ÙĪÙĨ": 7541,
      "ĠÙģÙĬØ¶Ø§Ø¹Ùģ": 7542,
      "ĠÙģÙĬØ¹Ø°Ø¨Ùĩ": 7543,
      "ĠÙģÙĬÙĤØ³ÙħØ§ÙĨ": 7544,
      "Ø®ÙĨ": 7545,
      "Ø®ÙĦÙĩ": 7546,
      "Ø®Ø§ÙĨ": 7547,
      "Ø®ÙĦÙĩØ§": 7548,
      "Ø®Ø±Ø§Ø¬": 7549,
      "ØµÙĬØ¯": 7550,
      "ØµØ¯Ø§": 7551,
      "ØµÙĪØ±Ø§": 7552,
      "ØµØªÙĪØ§": 7553,
      "ØµØ§Ùħ": 7554,
      "ØµØ§Ø±Ø§": 7555,
      "ĠØ±Ø¹": 7556,
      "ĠØ±Ø·": 7557,
      "ĠØ±Ø§Ø¯": 7558,
      "ĠØ±Ø§Ùĥ": 7559,
      "ĠØ±Ø§Øº": 7560,
      "ĠØ±ÙĩÙĬÙĨ": 7561,
      "ĠØ±Ø¯Øª": 7562,
      "ĠØ±ÙħÙĬØª": 7563,
      "ĠØ±Ø¦Ø§Ø¡": 7564,
      "ĠØ±ØµØ¯Ø§": 7565,
      "ÙĩØ§ÙĨ": 7566,
      "ÙĩØ§ÙĩÙħ": 7567,
      "Ø¶ÙĦÙĩ": 7568,
      "Ø¶Ø±ÙĬÙĨ": 7569,
      "Ø²ÙĦÙĪÙĨ": 7570,
      "Ø²ÙĤÙĪÙĨ": 7571,
      "Ø²Ø¹ÙĪØ§": 7572,
      "Ø²ÙĦØ§Ùħ": 7573,
      "Ø²ÙģØ©": 7574,
      "Ø²ÙĥÙī": 7575,
      "Ø§ÙĨØ¹": 7576,
      "Ø´ÙĤ": 7577,
      "Ø´Ø¦": 7578,
      "Ø´ÙĬØ©": 7579,
      "Ø´Ø²ÙĪØ§": 7580,
      "Ø´ÙĤÙī": 7581,
      "ĠØ£ÙĨÙĬØ¨": 7582,
      "ĠØ£ÙĨÙĩÙħØ§": 7583,
      "ĠØ£ÙĨÙĩØ§Ø±Ø§": 7584,
      "ĠØ£ÙĨØ¨ÙĬØ§Ø¡": 7585,
      "ĠØ£ÙĨØ¹Ø§ÙħØ§": 7586,
      "Ø¥ÙĨ": 7587,
      "Ø¥Ø°ÙĨ": 7588,
      "ĠÙĪØ§ÙĦØ¯": 7589,
      "ĠÙĪØ§ÙĦØ¶": 7590,
      "ĠÙĪØ§ÙĦØº": 7591,
      "ĠÙĪØ§ÙĦÙģØ±": 7592,
      "ĠÙĪØ§ÙĦØªÙĬ": 7593,
      "ĠÙĪØ§ÙĦØ¨Ø§": 7594,
      "ĠÙĪØ§ÙĦØŃØ±": 7595,
      "ĠÙĪØ§ÙĦÙĩØ¯ÙĬ": 7596,
      "ĠÙĪØ§ÙĦØ¯ÙĪØ§": 7597,
      "ĠÙĪØ§ÙĦÙģÙĪØ§": 7598,
      "ĠÙĪØ§ÙĦØ¯ÙĬ": 7599,
      "ĠÙĪØ§ÙĦØŃÙħØ¯": 7600,
      "ĠÙĪØ§ÙĦÙĦØ§Ø¦": 7601,
      "ĠÙĪØ§ÙĦÙģØªÙĨØ©": 7602,
      "ĠÙĪØ§ÙĦØªÙĤÙĪÙī": 7603,
      "ĠÙĪØ§ÙĦÙĬØ³": 7604,
      "ĠÙĪØ§ÙĦØ¯Ø§Ø±": 7605,
      "ĠÙĪØ§ÙĦÙĪÙĦØ¯Ø§ÙĨ": 7606,
      "ĠÙĪØ§ÙĦÙĨØ³Ø§Ø¡": 7607,
      "ĠÙĪØ§ÙĦØ´ÙĬØ§Ø·ÙĬÙĨ": 7608,
      "ĠÙĪØ§ÙĦÙĦØ§ØªÙĬ": 7609,
      "ĠÙĨÙĪÙħ": 7610,
      "ĠÙĨØ¸": 7611,
      "ĠÙĨØ¹Ø¯": 7612,
      "ĠÙĨÙĥØ±": 7613,
      "ĠÙĨØ´Ø±": 7614,
      "ĠÙĨØ§Ø¦": 7615,
      "ĠÙĨØ¨Ø±": 7616,
      "ĠÙĨÙĥÙĪÙĨ": 7617,
      "ĠÙĨØ¹Ø§": 7618,
      "ĠÙĨØ³Ø¨": 7619,
      "ĠÙĨØºÙģØ±": 7620,
      "ĠÙĨØ®ÙĦ": 7621,
      "ĠÙĨØ¨Øª": 7622,
      "ĠÙĨÙĥØ§": 7623,
      "ĠÙĨÙĤØ±": 7624,
      "ĠÙĨØ³Ø¨ØŃ": 7625,
      "ĠÙĨØ§Ø¬": 7626,
      "ĠÙĨÙĩÙĦÙĥ": 7627,
      "ĠÙĨØ³ÙħØ¹": 7628,
      "ĠÙĨØªÙĤ": 7629,
      "ĠÙĨÙĪØ±ÙĩÙħ": 7630,
      "ĠÙĨØ¯Ø¹": 7631,
      "ĠÙĨØ±Ø¯": 7632,
      "ĠÙĨØ¨Ø¯ÙĦ": 7633,
      "ĠÙĨÙĩØ§Ø±Ø§": 7634,
      "ĠÙĨØ¶Ø±Ø¨": 7635,
      "ĠÙĨØ§Ø¸": 7636,
      "ĠÙĨØ¶Ø±Ø©": 7637,
      "ĠÙĨÙĤØ§ØªÙĦ": 7638,
      "ĠÙĨÙĩÙĬØª": 7639,
      "Ø§Ø¨ÙĦ": 7640,
      "Ø§Ø¨Øª": 7641,
      "Ø§Ø¨Ø±ÙĪÙĨ": 7642,
      "Ø§Ø¨Ø¯ÙĬÙĨ": 7643,
      "ĠÙĩÙĬÙĨ": 7644,
      "ĠÙĩÙħØ§": 7645,
      "ĠÙĩØ¶": 7646,
      "ĠÙĩÙĦÙħ": 7647,
      "ĠÙĩØ§Ø±": 7648,
      "ĠÙĩØ°Ø§ÙĨ": 7649,
      "ĠÙĩØ¨Ø§Ø¡": 7650,
      "ĠØ§ÙĦØ°ÙĦØ©": 7651,
      "ĠØ§ÙĦØ°ÙĩØ¨": 7652,
      "ÙĦÙħÙĨØ§": 7653,
      "ÙĦÙħØ©": 7654,
      "ĠÙħØ§Ùĥ": 7655,
      "ĠØ³ÙĨØ§": 7656,
      "ĠØ³ÙĦÙĥ": 7657,
      "ĠØ³Ø¢": 7658,
      "ĠØ³ÙĬØ¯": 7659,
      "ĠØ³ÙĥØ±": 7660,
      "ĠØ³Ø¨ÙĦ": 7661,
      "ĠØ³Ø§Ùģ": 7662,
      "ĠØ³Ø¹ÙĪØ§": 7663,
      "ĠØ³ÙĦÙĬÙħ": 7664,
      "ĠØ³Ø¹Ø©": 7665,
      "ĠØ³ÙĤÙĬÙħ": 7666,
      "ĠØ³Ø¯ÙĬØ¯": 7667,
      "ĠØ³ÙĦÙħØ§": 7668,
      "ĠØ³ÙĪÙĬ": 7669,
      "ĠØ³Ø£ÙĨ": 7670,
      "ĠØ³Ø§Ùĩ": 7671,
      "ĠØ³ÙĥÙĨ": 7672,
      "ĠØ³ÙħØ§ÙĨ": 7673,
      "ĠØ³ÙĨÙĥ": 7674,
      "ĠØ³ÙħØ§Ø¡": 7675,
      "ĠØ³ÙĤØ·": 7676,
      "ĠØ³ÙħØ¹Ø§": 7677,
      "ĠØ³Ø¯Ø±": 7678,
      "ĠØ³ÙģØ§Ùĩ": 7679,
      "ĠØ³ÙĦØ§ÙĦØ©": 7680,
      "ĠØ³ÙĤÙģØ§": 7681,
      "Ø·ÙĪ": 7682,
      "Ø·Ùĩ": 7683,
      "Ø·ÙĬÙĨ": 7684,
      "Ø·ÙĦÙĪÙĨ": 7685,
      "Ø·ÙĦÙĪØ§": 7686,
      "Ø·ÙĤÙĪÙĨ": 7687,
      "Ø·ÙģÙī": 7688,
      "Ø·ÙĦØ¹": 7689,
      "ÙĬØ±Ùī": 7690,
      "ÙĬØ±Ø©": 7691,
      "Ø§Ø¡ÙĪÙĨ": 7692,
      "Ø«Ø©": 7693,
      "Ø«Ø§Ø¡": 7694,
      "Ø«ÙĬÙħ": 7695,
      "Ø«ÙĬØ§": 7696,
      "Ø«Ø±ÙĪÙĨ": 7697,
      "Ø«ÙĤÙī": 7698,
      "Ø«Ø§ÙĨØ§": 7699,
      "Ø¦ÙĬ": 7700,
      "Ø¦Ø±": 7701,
      "Ø¦Øª": 7702,
      "Ø¦ÙĩÙĨ": 7703,
      "Ø¦ÙĨØ©": 7704,
      "Ø¦ÙĨÙĩÙħ": 7705,
      "Ø¦ÙĪØ³": 7706,
      "ĠØ±Ø¨Ø§": 7707,
      "ĠØ¢ÙĨØ³": 7708,
      "ĠØ¢ÙĪÙī": 7709,
      "ĠØ¢ÙĦØ§Ùģ": 7710,
      "ĠØ¢ØªÙĪÙĨÙĬ": 7711,
      "ĠØ¢ÙĪÙĪØ§": 7712,
      "ÙĪÙħÙĪØ§": 7713,
      "ÙĪÙħÙĩØ§": 7714,
      "ĠÙĪØ£Øº": 7715,
      "ĠÙĪØ£Ø´Ø±": 7716,
      "ĠÙĪØ£ÙĦÙģ": 7717,
      "ĠÙĪØ£ÙĪØª": 7718,
      "ĠÙĪØ£ØªÙĪØ§": 7719,
      "ĠÙĪØ£Ø´Ø±Ùĥ": 7720,
      "ĠÙĪØ£ÙĥÙĨ": 7721,
      "ĠÙĪØ£Ø±Ø³ÙĦ": 7722,
      "ĠÙĪØ£ÙĤØ§Ùħ": 7723,
      "ĠÙĪØ£Ø·ÙĩØ±": 7724,
      "ĠÙĪØ£ØŃØµ": 7725,
      "ĠÙĪØ£ØªÙĪÙĨÙĬ": 7726,
      "ĠÙĪØ£ÙĪØ°": 7727,
      "ĠÙĪØ£Ø¬Ø±Ø§": 7728,
      "ĠÙĪØ£Ø³ÙĦÙħ": 7729,
      "ĠÙĪØ£Ø´ÙĩØ¯ÙĪØ§": 7730,
      "ĠÙĪØ£Ø°ÙĨØª": 7731,
      "ĠØ§ÙĦÙħØ¶": 7732,
      "ĠØ§ÙĦÙħØº": 7733,
      "ĠØ§ÙĦÙħØ¹ÙĦ": 7734,
      "ĠØ§ÙĦÙħÙģØª": 7735,
      "ĠØ§ÙĦÙħÙĤØª": 7736,
      "ĠØ§ÙĦÙħÙĪØ¬": 7737,
      "ĠØ§ÙĦÙħØ±Ùģ": 7738,
      "ĠØ§ÙĦÙħØ³Ø¨ØŃ": 7739,
      "ĠØ§ÙĦÙħØ«ÙĦ": 7740,
      "ĠØ§ÙĦÙħØºÙģØ±Ø©": 7741,
      "ĠØ§ÙĦÙħÙĩÙĬÙĨ": 7742,
      "ĠØ§ÙĦÙħØ´Ø§Ø±": 7743,
      "ĠØ§ÙĦÙħÙĩØªØ¯ÙĬÙĨ": 7744,
      "ĠØ§ÙĦÙħØºØ±Ø¨": 7745,
      "ĠØ§ÙĦÙħÙĩØ§Ø¬Ø±ÙĬÙĨ": 7746,
      "ĠØ§ÙĦÙħÙĦØ¥": 7747,
      "ĠØ§ÙĦÙħØµØ¯ÙĤÙĬÙĨ": 7748,
      "ĠØ§ÙĦÙħØ±ÙĬØ¶": 7749,
      "ĠØ§ÙĦÙħØ¶Ø§Ø¬Ø¹": 7750,
      "ĠØŃÙĪ": 7751,
      "ĠØŃØ¨ÙĦ": 7752,
      "ĠØŃØ¬Ø±": 7753,
      "ĠØŃØ§Ùģ": 7754,
      "ĠØŃØ°Ø±": 7755,
      "ĠØŃØ¨Ø§ÙĦ": 7756,
      "ĠØŃØ§Ø³": 7757,
      "ĠØŃØ¨Ùĩ": 7758,
      "ĠØŃÙģØ¸": 7759,
      "ĠØŃØ§ÙģØ¸ÙĪÙĨ": 7760,
      "ĠØŃØ°Ø±ÙĥÙħ": 7761,
      "ĠØŃØ·Ø©": 7762,
      "ĠØŃÙĨÙģØ§Ø¡": 7763,
      "ØºØ¨": 7764,
      "ØªÙħØ±ÙĪÙĨ": 7765,
      "ØªÙħÙĦØª": 7766,
      "ĠÙĦØ§ÙħØ³": 7767,
      "ĠÙĦØ§Ø¹Ø¨ÙĬÙĨ": 7768,
      "ĠØ¬Ø§Ø¯": 7769,
      "ĠØ¬Ø§Ø±": 7770,
      "ĠØ¬ÙĬØ¨": 7771,
      "ĠØ¬Ø¨Ø§ÙĦ": 7772,
      "ĠØ¬ÙĪØ¹": 7773,
      "ĠØ¬ÙĩØ²": 7774,
      "ĠØ¬ØŃÙĬÙħ": 7775,
      "ĠØ¬ÙħØ§ÙĦ": 7776,
      "ĠØ¬ÙĨØªÙĬÙĨ": 7777,
      "ĠØ¬ÙħÙĬÙĦ": 7778,
      "ĠØ¬Ø«ÙĬØ§": 7779,
      "ĠØ®ÙĦ": 7780,
      "ĠØ®ÙĦØ§": 7781,
      "ĠØ®ÙĪÙĦ": 7782,
      "ĠØ®ÙģÙĬ": 7783,
      "ĠØ®Ø¨Ø±Ø§": 7784,
      "ĠØ®Ø§Ùħ": 7785,
      "ĠØ®Ø¨Ø§ÙĦ": 7786,
      "ĠØ®Ø±ÙĪØ§": 7787,
      "ĠØ®Ø§Ø¶": 7788,
      "ĠØ®Ø±Ø¯": 7789,
      "ĠØ®Ø¨ÙĬØ«": 7790,
      "ĠØ®ÙĪØ§Ø±": 7791,
      "ĠØ®ÙħØ±Ø§": 7792,
      "ĠØ®ÙĪØ¶": 7793,
      "ĠØ®Ø³Ø±Ø§": 7794,
      "ĠØ®Ø¶Ø±Ø§": 7795,
      "ĠØ®ÙĬØ§ÙĨ": 7796,
      "ĠØ®ÙĦÙĬÙģØ©": 7797,
      "ÙģØ±ÙĤ": 7798,
      "ÙģØ±ÙĤÙĪÙĨ": 7799,
      "ĠØ´Ø±Ø§": 7800,
      "ĠØ´ØªÙī": 7801,
      "ĠØ´Ø±ØŃ": 7802,
      "ĠØ´Ø§ÙĩØ¯ÙĬÙĨ": 7803,
      "ĠØ´Ø¯Ø§Ø¯": 7804,
      "ĠØ´ÙģØ§Ø¡": 7805,
      "ĠØ´ÙĩØ§Ø¨": 7806,
      "ĠØ´ÙĨØ¢ÙĨ": 7807,
      "ĠØ§ÙĦØ£ÙħÙĨ": 7808,
      "ĠØ§ÙĦØ£ÙĬØ¯": 7809,
      "ĠØ§ÙĦØ£ÙĪØª": 7810,
      "ĠØ§ÙĦØ£Ø²ÙĪØ§Ø¬": 7811,
      "ĠØ§ÙĦØ£Ø¹ÙĬÙĨ": 7812,
      "ĠØ§ÙĦØ£ÙĬÙħØ§ÙĨ": 7813,
      "ĠØ§ÙĦØ£Ø³ÙĪØ§": 7814,
      "ĠØ§ÙĦØ£Ø¹ÙĦÙĪÙĨ": 7815,
      "ĠØ§ÙĦØ£ØµÙģ": 7816,
      "ĠØ§ÙĦØ£Ø¨ÙĪØ§Ø¨": 7817,
      "ĠØ§ÙĦØ£Ø¯ÙĨÙī": 7818,
      "ĠØ§ÙĦØ£ÙĥÙħÙĩ": 7819,
      "ĠÙĤØ§ÙĦØ§": 7820,
      "ĠÙĤØ§ÙĦØªØ§": 7821,
      "ĠÙĪØ¥ÙĦØ§": 7822,
      "ĠÙĪØ¥ÙĦÙĬ": 7823,
      "ĠÙĪØ¥Ø«Ùħ": 7824,
      "ĠÙĪØ¥ÙĤØ§Ùħ": 7825,
      "ĠÙĪØ¥Ø®ÙĪØ§ÙĨÙĩÙħ": 7826,
      "ĠÙĪØ¥Ø®ÙĪØ§ÙĨÙĥÙħ": 7827,
      "Ø¸ÙĨÙĪÙĨ": 7828,
      "Ø¸ÙĨÙĩ": 7829,
      "Ø¸ÙĦÙĦ": 7830,
      "Ø±Ø§ÙĪØ¯": 7831,
      "Ø±Ø§Ø¯ÙĪØ§": 7832,
      "Ø±Ø§Ø¬Ø§": 7833,
      "Ø±Ø§ÙģÙĩØ§": 7834,
      "ĠÙĪÙĦØ¢": 7835,
      "ĠÙĪÙĦÙĬÙĨØ§": 7836,
      "ĠÙĪÙĦÙĨØ³": 7837,
      "ĠÙĪÙĦØ°ÙĬ": 7838,
      "ĠÙĪÙĦØ£ÙĨØ¹Ø§Ùħ": 7839,
      "ĠÙĪÙĦØ¤ÙĦØ¤Ø§": 7840,
      "Ø¢Ùĩ": 7841,
      "Ø¤ÙĩÙħ": 7842,
      "ĠØ¨Ø§ÙĦÙĩÙħ": 7843,
      "ĠØ¨Ø§ÙĦØ¬": 7844,
      "ĠØ¨Ø§ÙĦÙħÙĨ": 7845,
      "ĠØ¨Ø§ÙĦØ´Ø±": 7846,
      "ĠØ¨Ø§ÙĦØ¨Ø±": 7847,
      "ĠØ¨Ø§ÙĦØ³ÙĨ": 7848,
      "ĠØ¨Ø§ÙĦØ¢ÙĬØ§Øª": 7849,
      "ĠØ¨Ø§ÙĦÙĬÙĪÙħ": 7850,
      "ĠØ¨Ø§ÙĦÙħØª": 7851,
      "ĠØ¨Ø§ÙĦØ³Ø§": 7852,
      "ĠØ¨Ø§ÙĦØ¬ÙĨ": 7853,
      "ĠØ¨Ø§ÙĦÙĬÙħÙĬÙĨ": 7854,
      "ĠØ¨Ø§ÙĦØµØ¯ÙĤ": 7855,
      "ĠØ¨Ø§ÙĦØŃÙĥÙħØ©": 7856,
      "ĠØ°Ùĩ": 7857,
      "ĠØ°Ø±Ø§": 7858,
      "ĠØ°ÙħØ©": 7859,
      "ĠØ°ÙĪÙĬ": 7860,
      "ĠØ¹ÙĨØªÙħ": 7861,
      "Ø¹ÙĦÙĨ": 7862,
      "Ø¹ÙĦÙĪÙĩ": 7863,
      "ÙĬØ§ÙĬ": 7864,
      "ÙĬØ§Ùĩ": 7865,
      "ÙĬØ§Ø¯Ø©": 7866,
      "ĠØ£ÙĪÙħÙĨ": 7867,
      "ĠØ£ÙĪÙĦØ§Ø¡": 7868,
      "ĠØ£ÙĪØ³Ø·": 7869,
      "ĠØ£ÙĪØ¹Ø¬": 7870,
      "ĠØ£ÙĪØ²Ø¹": 7871,
      "ĠØ£ÙĪØ¢Ø¨": 7872,
      "ĠØ£ÙĪØ«Ø§ÙĨØ§": 7873,
      "ĠØ§ÙĦØ³ØŃØ§Ø¨": 7874,
      "ĠØ§ÙĦØ³Ø§Ùħ": 7875,
      "ĠØ§ÙĦØ³ÙĨÙĬÙĨ": 7876,
      "ĠØ§ÙĦØ³ÙĥÙĬÙĨ": 7877,
      "ĠØ§ÙĦØ³ØŃØª": 7878,
      "ĠØ§ÙĦØ³Ø§ØŃØ±": 7879,
      "ĠØ§ÙĦØ³ÙħÙĪÙħ": 7880,
      "Ø³ØªÙĪØ¯": 7881,
      "Ø³ØªØ®Ø±Ø¬": 7882,
      "Ø³ØªÙĤØ±": 7883,
      "Ø³ØªØŃÙĬÙĬ": 7884,
      "Ø³ØªØ¶Ø¹ÙģÙĬÙĨ": 7885,
      "Ø³ØªØ¯Ø±Ø¬": 7886,
      "Ø±ÙĪÙĨÙĥ": 7887,
      "ĠÙĪÙĬÙħÙĨ": 7888,
      "ĠÙĪÙĬØªÙħ": 7889,
      "ĠÙĪÙĬØ¤ÙħÙĨ": 7890,
      "ĠÙĪÙĬØ¨ÙĬÙĨ": 7891,
      "ĠÙĪÙĬØŃØ±": 7892,
      "ĠÙĪÙĬÙĦÙĥÙħ": 7893,
      "ĠÙĪÙĬØ³Ø¨ØŃ": 7894,
      "ĠÙĪÙĬØ°ÙĩØ¨": 7895,
      "ĠÙĪÙĬÙĤØ¨": 7896,
      "ĠÙĪÙĬØªØ¨Ø¹": 7897,
      "ĠÙĪÙĬØ¹ÙħÙĦ": 7898,
      "ĠÙĪÙĬÙĤØ°": 7899,
      "ĠÙĪÙĬØ¯Ø®ÙĦÙĩÙħ": 7900,
      "ĠÙĪÙĬØ¶Ø±Ø¨": 7901,
      "ĠÙĪÙĬÙĤÙĬÙħÙĪÙĨ": 7902,
      "ĠÙĪÙĬØ¯Ø¹ÙĪÙĨ": 7903,
      "ĠÙĪÙĬÙĪÙĨØ³": 7904,
      "ĠÙĪÙĬÙģØ³Ø¯ÙĪÙĨ": 7905,
      "ĠÙĪÙĬØŃÙĬÙī": 7906,
      "ĠÙĪÙĬØ¯Ø®ÙĦÙĥÙħ": 7907,
      "ĠÙĪÙĬÙĤØ·Ø¹ÙĪÙĨ": 7908,
      "ĠØ§ÙĦØ±Ø¨Ø¹": 7909,
      "ĠØ§ÙĦØ±Ø¬Ø¹": 7910,
      "Ø¹Ø¯ÙĦÙĪØ§": 7911,
      "Ø§Ø¯ÙĤ": 7912,
      "Ø§Ø¯Ø¹ÙĪÙĨ": 7913,
      "Ø§Ø¯ÙĦÙĪØ§": 7914,
      "ÙĬØ¯ÙĥÙħ": 7915,
      "Ø¹ÙħØ¯Ø§": 7916,
      "Ø¹ÙħØ±Ø©": 7917,
      "Ø®Ø±ÙĥÙħ": 7918,
      "ĠØ«ÙĦ": 7919,
      "ĠØ«ÙĦØ©": 7920,
      "ĠØ«Ø§ÙĨÙĬ": 7921,
      "ĠØ«Ø¹Ø¨": 7922,
      "ĠÙĤÙĦØ¨": 7923,
      "Ø§Ø±Ø¯": 7924,
      "ĠØ£ÙħÙħØ§": 7925,
      "ĠØ£ÙħØªÙĥÙħ": 7926,
      "ĠØ£ÙħØ¯ÙĥÙħ": 7927,
      "ÙĦÙĪÙĨÙĩ": 7928,
      "ÙĦÙĪÙĨØ§ÙĩÙħ": 7929,
      "ĠØ§ÙĦØŃÙĦÙħ": 7930,
      "ĠØ§ÙĦØŃØ±Ø¨": 7931,
      "ĠØ§ÙĦØŃØ²ÙĨ": 7932,
      "ĠØ§ÙĦØŃÙĨØ§Ø¬Ø±": 7933,
      "ĠØ¯ÙħØ§": 7934,
      "ĠØ¯Ø¹ÙĪ": 7935,
      "ĠØ¯Ø®ÙĦØ§": 7936,
      "ĠØ¯Ø§ÙģØ¹": 7937,
      "ĠØ¯Ø§ÙĨÙĬØ©": 7938,
      "ĠØ¯Ø§Ø¹ÙĬ": 7939,
      "ĠÙģØ£ÙĬ": 7940,
      "ĠÙģØ£Ø±": 7941,
      "ĠÙģØ£ÙĤ": 7942,
      "ĠÙģØ£ÙĬÙĨ": 7943,
      "ĠÙģØ£Ø«": 7944,
      "ĠÙģØ£Ø°Ø§": 7945,
      "ĠÙģØ£ÙĨØª": 7946,
      "ĠÙģØ£ØŃØ³ÙĨ": 7947,
      "ĠÙģØ£ØŃÙĬ": 7948,
      "ĠÙģØ£Ø®ÙĦÙģ": 7949,
      "ĠÙģØ£ÙĥØ«Ø±": 7950,
      "ĠÙģØ£Ø±Ø§Ø¯": 7951,
      "ĠÙģØ£ÙĤÙħ": 7952,
      "ĠÙģØ£ØªØ§ÙĩÙħ": 7953,
      "ĠÙģØ£Ø®Ø§Ùģ": 7954,
      "ĠÙģØ£Ø¬Ø±Ùĩ": 7955,
      "ĠÙģØ£ÙĪØ¬Ø³": 7956,
      "ĠÙģØ£Ø¬ÙħØ¹ÙĪØ§": 7957,
      "ĠØ§ÙĦØ¹ÙĦÙī": 7958,
      "ĠØ§ÙĦØ¹ÙĬØ±": 7959,
      "ĠØ§ÙĦØ¹ÙĩØ¯": 7960,
      "ĠØ§ÙĦØ¹ØªÙĬ": 7961,
      "ĠØ§ÙĦØ¹Ø¨Ø¯": 7962,
      "ĠØ§ÙĦØ¹Ø¨Ø§Ø¯": 7963,
      "ĠØ§ÙĦØ¹ÙĨÙĥ": 7964,
      "ĠØ§ÙĦØ¹ÙģÙĪ": 7965,
      "ĠØ§ÙĦØ¹ÙĤØ¨Ø©": 7966,
      "ĠØ§ÙĦØ¹Ø§Ø¯ÙĪÙĨ": 7967,
      "ÙĦÙĤÙĩ": 7968,
      "ÙĦÙĤÙĪØ§": 7969,
      "ÙĦÙĤÙĬÙĨ": 7970,
      "ĠÙĪÙĤÙĩÙħ": 7971,
      "ĠÙĪÙĤÙĨØ§": 7972,
      "ĠÙĪÙĤØ¨ÙĦ": 7973,
      "ĠÙĪÙĤØ·Ø¹": 7974,
      "ĠÙĪÙĤØ¹Øª": 7975,
      "ĠÙĪÙĤÙģÙĪØ§": 7976,
      "ĠÙĪÙĤØªÙĦÙĪØ§": 7977,
      "ĠÙĪÙĤØ°Ùģ": 7978,
      "ĠÙĪÙĤØ§ØªÙĦÙĪÙĩÙħ": 7979,
      "ĠÙĪÙĤØ¹ÙĪØ¯Ø§": 7980,
      "ĠØµØ§ÙĦ": 7981,
      "ĠØµÙĦÙī": 7982,
      "ĠØµÙģØ±": 7983,
      "ĠØµÙĬØ¯": 7984,
      "ĠØµÙĦÙĪØ§": 7985,
      "ĠØµØ¨ØŃ": 7986,
      "ĠØµÙĦØ§Ø©": 7987,
      "ĠØµÙĪØ±ÙĥÙħ": 7988,
      "ĠØµØŃÙģØ§": 7989,
      "ĠØµØ§ÙģØ§Øª": 7990,
      "ĠØµÙĨÙĪØ§ÙĨ": 7991,
      "ÙĩØ¯ÙĩÙħ": 7992,
      "ĠÙģØ¥Ø°": 7993,
      "ĠÙģØ¥ÙĦÙĬÙĨØ§": 7994,
      "ĠÙģØ¥ÙĬØ§ÙĬ": 7995,
      "ÙĬÙĨØ§Ùĥ": 7996,
      "ĠØ§ÙĦÙĤÙĪØ§Ø¹Ø¯": 7997,
      "ÙģØ³ÙĩÙĨ": 7998,
      "ĠÙĦÙĬÙģØª": 7999,
      "ĠÙĦÙĬØªÙĨØ§": 8000,
      "ĠÙĦÙĬÙĩÙĦÙĥ": 8001,
[...]
