ĠÙĪÙĥØ£ÙĬÙĨ	3633
Ø±ÙĥÙĩ	4322
ĠÙħØ´ØªØ±ÙĥÙĪÙĨ	9310
Ø¨ÙĬÙĩ	2094
ĠÙģØ³ÙĬÙĤÙĪÙĦÙĪÙĨ	5476
ĠØ§ÙĦØ±Ø¶	7126
ÙĬØ§Ø©	632
ĠÙĪÙĤÙģÙĪØ§	7976
ĠÙģØ¨Ø¹Ø«	7282
ÙĪØ§Ø±ÙĬ	3117
ĠØ£Ø´ØŃØ©	8792
ÙĨÙĪØ§	1174
ĠÙħØ³ÙĨØ§	8512
ĠØ§ÙĦÙĪØ³ÙĬÙĦØ©	10036
ĠÙĥØ§Ø´	4034
ĠØ¨Ø¹Ø¶Ø§	2756
ĠÙħÙĪØ§Ø¶Ø¹Ùĩ	6758
ĠÙĪÙĦÙĬØ®	8548
ĠÙħÙĪØªÙĩØ§	2373
ÙĥÙĩ	1930
ÙģÙĦØ©	4001
ĠÙĤÙĪÙħÙĨØ§	5018
Ø±ÙĬÙĨÙĥ	4352
ĠØ£Ø²ÙĥÙī	5481
ĠÙĬØ³Ø£ÙĦÙĪÙĨÙĥ	2761
ĠØµØ¯Ø±Ùĥ	5178
ĠÙģÙĦØ£	6178
ĠÙĪÙĩÙħ	383
ĠØ¹Ø´Ø±	2314
ĠØŃØ§ØµØ¨Ø§	5545
ĠÙĤØµÙĪØ±Ø§	9482
Ø«ÙĦØ«	5271
ĠØ§ÙĦØ³Ø§Ùħ	7875
ÙĦØ§Ø¦Ùĥ	613
ÙħÙī	1845
ĠÙĬØ´Ø±Ùĥ	2452
ĠÙĥØ´Ùģ	7515
Ø¬Ø±ÙĪÙĨ	5771
ĠØ¨Ø§ÙĦØ¹Ø´ÙĬ	5346
ĠÙĪØ§ÙĦØ±ÙħØ§ÙĨ	9835
ĠÙĪØ§ØºÙĦØ¸	10151
ĠØ·Ø±ÙĬÙĤ	8273
ĠÙĪÙĬÙĨØ°Ø±ÙĪÙĨÙĥÙħ	10317
ĠØ£Ø«Ø±	7237
ĠÙĦØµØ§ØŃØ¨Ùĩ	9636
ĠØ´Ø±ÙĥØ§Ø¦ÙĥÙħ	6573
ÙĦØ¨Ùĩ	5133
ĠÙĬØ¹	377
ÙĪØ§Ø¨Ø§	2457
ĠØ¹ÙĦÙĬØ§	5920
ĠØ´ÙĤØ§ÙĤ	4549
ĠÙģØ§Ø³ÙĤÙĪÙĨ	3351
®	15
ĠØ£Ø²	3098
ĠÙĬØ¨ØµØ±ÙĪÙĨ	2253
ÙĪÙĬÙĦØ§	3334
ĠØºÙĦÙĬØ¸	4543
ÙħØªØ¹ÙĩÙħ	8795
ĠØŃØ¨Ø·Øª	3901
ĠÙĤØ¨ÙĦØ§	8768
ĠØ¯Ø¹ÙĪØª	6649
ĠØ¥ØµÙĦØ§ØŃ	9759
ĠÙĪØªÙħØª	5608
Ø¬Ø±ÙĬ	5772
ĠÙĩÙħ	244
ĠÙĪØ¥ÙĦÙī	1224
ĠÙħØ±Ø¬Ø¹ÙĩÙħ	4487
ĠØ¨Ø®Ø§Ø±Ø¬	6634
ĠØ¹ÙĪÙĤ	7442
ĠÙĪØ§Ø´	1668
ĠØ§ÙĦØ£ÙħÙĪØ±	2154
ĠÙĪØ§Ø¨	1305
ĠÙĦÙĬØ¬ÙħØ¹	8007
ĠÙħØºÙĦÙĪÙĦØ©	9446
ĠÙģØ§ÙĦÙħ	4375
ĠÙģØ³Ø§Ø¯Ø§	6392
ĠÙģØ§Ø³ØªØ¬Ø§Ø¨	6538
ĠØŃØ§ÙģØ¸	3580
ĠÙĪÙĬØªÙħ	7889
ĠØºØ±ÙĪØ±Ø§	4513
ÙĥÙĩØ©	2431
ĠØ§ÙĦÙĨØ¬ÙĪÙħ	3872
ĠÙģØ²ÙĬÙĨ	7283
ĠÙĬÙĨØ²ØºÙĨÙĥ	10173
ĠÙĤÙĦÙĨØ§	1975
ØŃØ¨	7403
ĠØªØ¨ØªØºÙĪØ§	9530
ĠÙģØ±Ø¬ÙĩØ§	10009
ĠØ¥ÙĬÙħØ§ÙĨÙĩÙħ	3811
ĠØ´Ø¬Ø±Ø©	3591
ĠÙĦØªØ¨ÙĬÙĨ	6340
ĠÙĪØ¯	2839
ĠÙĨÙĤ	2075
ĠÙĬØ³Ø£	4296
ĠØ¬Ø§Ø¡ÙĪÙĩØ§	6162
ĠØ´ÙĩØ¯ÙĪØ§	9145
ÙģÙĬ	416
ĠØ§ÙĦØ·Ø§ØºÙĪØª	3756
ĠÙĦÙĪØ·	1731
ĠÙĪØ·ÙħØ¹Ø§	5313
ĠØ£ÙħÙĨØªÙħ	5331
ĠØªÙĪÙĦÙĪØ§	1355
ĠÙĨÙģØ±	3155
ĠØ£ØªÙĤÙĪÙĦÙĪÙĨ	6433
ĠÙĬØµØ¹Ø¯	8779
ĠÙĪÙĦÙĥÙĨÙĬ	5089
ĠØ£ÙĬØ¯ÙĬÙĨØ§	8838
ĠÙĬØ¯Ø¹ÙĪ	2977
Ø±Ø³ÙĦ	1095
ĠÙĪØ£Ø¨ØµØ§Ø±ÙĩÙħ	5519
ĠÙĪØ§ÙĦÙģØ±	7592
ĠÙĬØ¬Ø§Ø¯	2123
ÙģØªÙĨØ©	2971
ĠÙĪÙĬØ³Ø¹ÙĪÙĨ	9374
ØŃÙĪØ§	1152
ĠØ§ÙĦØµÙĪØ§Ø¹ÙĤ	8089
ĠØ³ÙĤØ·	7676
ĠØ§ÙĦÙĦÙĩÙħ	3918
ĠÙĨØ¬ÙĨÙĬ	8887
ĠØ§ÙĦÙĨØ®ÙĦ	5025
ĠØ§ÙĦÙģÙĪØ²	1828
ĠØ£ÙģÙħÙĨ	1726
ĠØªØ£Ø³	8590
ĠØªÙĥÙĦÙģ	8478
ĠÙĥØ§ÙĦØ°ÙĬÙĨ	2791
ĠØ£ØªØ£ØªÙĪÙĨ	6434
ĠÙĬØ³ÙĤÙĪÙĨ	8489
ĠØ§ÙĦØŃÙħØ¯	1267
ĠØªØ±Ø¶Ø§Ùĩ	10068
ĠÙģØ£Ø®Ø°ØªÙĩÙħ	2596
ĠØ£ÙĩÙĦÙĥÙĨØ§ÙĩÙħ	5268
ĠØ§ØªØ¨Ø¹Øª	6550
ĠÙĪØ§ØŃ	746
ĠÙĨØ´Ø±	7614
ĠØ£ÙħÙĪØ§ÙĦÙĥÙħ	2409
ĠÙħØ¨Ø§Ø±Ùĥ	3094
ĠØºØ´Ø§	8043
ĠØ¹Ø§Ø¨	2465
Ø®Ø±Ø¬ÙĬÙĨ	8369
ÙĥØª	2288
ĠØ«Ùħ	188
ĠÙĬØ²ÙĥÙĬÙĩÙħ	9051
Ø¸Ø§	1162
ĠÙĩÙħØ§	7645
ĠØ§ÙĦØ±Ø¬ÙģØ©	5337
ØŃØ¨ÙĪÙĨ	4006
ĠØ§ÙĦØ¹ÙĩØ¯	7960
ĠØŃØ§Ø³	7757
ĠØ¶ÙĦ	1476
ĠÙĦÙĦØ¥ÙĨØ³Ø§ÙĨ	3871
ĠØ¬Ø¨ÙĦ	5916
ĠØ£Ø¬ÙĪØ±ÙĩÙħ	5084
ĠØ§ÙĦÙģØ³Ø§Ø¯	3896
Ø·Ø§Ø¹	3759
ĠÙĬØµØ¯ÙģÙĪÙĨ	6777
Ø¬Ø¹ÙĦ	666
ĠÙĦØ§ØªØ¨Ø¹	6913
ĠÙĤØ§Øª	5785
ĠØ¨Ø±Ø¨ÙĥÙħ	4410
ĠØ§ÙĦØ°Ø¦Ø¨	7048
ĠØ®ÙĦ	7780
ĠÙĦØ¢ÙĥÙĦÙĪÙĨ	8973
ĠÙĪØ£ÙħÙĦÙĬ	9185
ĠØ£ÙĪØ±Ø«ØªÙħÙĪÙĩØ§	10095
ÙģØ§Ùĥ	8386
ÙĪÙĨÙĩ	1350
ĠØªØ¶Ø±Ø¹Ø§	6954
ĠØ³ÙĪØ¢ØªÙĩÙħØ§	5533
Ø³ÙĨØªÙĩÙħ	3672
ĠÙĪØ§ÙĦÙħØ¤ØªÙģÙĥ	6980
ĠÙĦØ¨Ø¯Ø§	7310
ĠØ¬ÙĨØ¯	4426
ĠÙĦÙħÙĬÙĤØ§ØªÙĨØ§	10116
ĠÙĨÙĤØµØµ	9654
ĠØ§ÙĦÙħÙĤØ±Ø¨ÙĬÙĨ	5466
ĠØ³ØŃØ§Ø¨Ø§	5508
ØªÙħÙĦØª	7766
ĠØ§ÙĦÙĦØ¹	5590
ĠÙĪØ§ÙĦÙħØ´Ø±ÙĥÙĬÙĨ	5152
ĠØ£Ùħ	176
ĠÙĪØ£Ø¬Ø±Ø§	7728
ÙĩÙĪØ§	1676
Ø§ÙĩØ±Ø§	5210
ĠØ¨Ø¥ÙĬÙħØ§ÙĨ	8863
ĠÙĬÙĩÙĬ	7329
ĠØ¨ØºØ¶Ø¨	5158
ĠØ¨ÙĩÙħØ§	5714
ĠÙĨØ³ÙħØ¹	7628
ĠØ§ÙĦÙħØ¯ÙĬÙĨ	1965
ĠØ¨Ø´Ø±Ùī	5279
ĠÙĬØ£Ùĥ	1589
ĠÙĦÙĦØŃÙĤ	3246
ĠØªÙĨØµØ±ÙĪÙĨ	6352
Ø¨ØŃ	559
ĠÙĪÙĦÙĦÙĨØ³Ø§Ø¡	9541
ĠØªØ®Ø§ÙģÙĪÙĨ	4336
ĠÙĬØ³ØªÙĪÙĪÙĨ	6283
ĠØ§ÙĦØ¨Ø§Ø·ÙĦ	2560
ÙĥÙĦÙĪÙĨ	5611
Ø¹ÙģØ§	4633
ĠÙĬØ®Ø§ÙģÙĪÙĨ	2979
ĠØ§ÙĦØ£ÙĬØ§Ùħ	5940
ĠÙĬØ£ØªÙĩÙħ	6221
ĠÙħØªØ´Ø§Ø¨Ùĩ	9733
Ø«Ø©	7693
ĠÙĪØ¬ÙĨÙĪØ¯	6799
ĠÙĩØ°Ø§ÙĨ	7649
ĠÙħØªÙĥ	2782
ĠÙĪÙĤØ§ÙĦÙĪØ§	712
ÙĦÙĬÙĩÙħ	2879
Ø¨ÙĪØ±	3444
ĠÙĬÙĨØµØ±ÙĪÙĨÙĩÙħ	9323
ĠÙĪØ§ÙĦØ·ÙĬØ¨	9487
ĠÙĪØ¨Ø´Ø±	1660
ĠØªÙģØª	3522
ĠÙĪØªÙĪÙģÙĨØ§	9986
ĠÙĬÙĩØª	3980
ĠØ§ÙĦØ¬Ø§Ùĩ	2110
Ø§ÙĨÙħ	4786
ĠÙĪØ¶Ø±Ø¨	3394
Ø¨ÙĨØ§	1611
ĠÙĨØ³Ø¨Ø§	10238
Ø³ØŃ	1433
Ø«Ùī	1636
ĠØ¬ÙĩØ§	5915
ĠÙģØ¹Ø§	7278
ĠÙħØ·Ø±	4625
ĠØ§ÙĦØ£ÙĦÙĪØ§	5936
ĠÙĬÙĥØ§Ø¯	2750
ĠØºØ§ÙĦØ¨	6078
ĠØ§ÙĦÙħÙĨØªÙĩÙī	8957
ĠØªØ¹ÙĦÙħ	602
ĠÙĪÙħÙĨÙĩÙħ	1254
ĠØ¨Ø¹Ø«ÙĨØ§	3851
ĠØªØ£ÙĪÙĬÙĦ	4308
ĠÙģÙĪÙĦ	5663
ĠÙĨØŃÙĨ	675
ĠÙĥÙģØ±Ùĩ	6123
ĠÙģØ±Ø´	8440
ĠØ±ÙĪØŃÙĬ	9567
ĠØ§ÙĦÙħØ´Ø§Ø±ÙĤ	10250
ĠØ¹Ø°Ø§Ø¨	291
ĠØªÙħÙĨ	2871
Ø¨Ø±ÙĪØ§	768
ĠØ£ÙĦØŃÙĤ	9386
ĠØ§ÙĦØºÙĬ	2558
ĠØ³ÙĬØ¬Ø¹ÙĦ	8709
ĠÙĦÙĬÙĤ	2936
ĠØ§ÙĦÙħØµ	2493
ĠØ§Ø·ÙħØ£ÙĨ	9916
ĠÙĦØ¨	966
ØŃÙĪÙĨ	1351
ĠØ§ÙĦÙĪÙĩØ§Ø¨	7038
ÙĪØ§ÙĦØ¯ÙĬÙĨ	3315
ĠØªØ®ØªÙĦÙģÙĪÙĨ	3744
Ø§Ø±ÙĩÙħ	1976
ĠÙĪØ±ÙĤ	8470
ĠÙĪÙħØºÙģØ±Ø©	4280
ĠÙħØ³ØªÙĥØ¨Ø±Ø§	8747
ĠÙģØ²Ø§Ø¯	4545
Ø±Ø¢ÙĨØ§	2568
ĠØ¨ÙģØ§ÙĥÙĩØ©	9754
ĠØµØ±	817
ĠØ«ÙħÙĨØ§	2516
ÙĨØ¬	1490
ĠØªØ®ØªØµ	8730
ĠÙĨØªÙĦ	4061
ĠÙģØ·	2854
ØµÙĬØ©	4771
ĠÙħØªØ®Ø°	6461
ĠÙĪØ§ÙĦÙĦÙĬÙĦ	3152
ĠØ£ÙģØ±Ø£ÙĬØª	5396
ĠØ¨Ø±Ø¨ÙĩÙħ	2799
ĠØªØ¯Ø®ÙĦÙĪØ§	3750
ĠÙĪØ¸ÙĦÙħÙĪØ§	7165
ĠØ¹Ø±Ø¶	1948
ĠÙĤØ±ÙĬÙĨÙĩ	9950
ĠÙĪØ¥ÙĨØ§	1050
ĠÙģØ±ØŃÙĪÙĨ	6277
ĠØ¨ÙĦØ¯	8330
ĠÙĪØ§ÙĦÙħØ³ÙĥÙĬÙĨ	9361
ĠØ§ÙĦÙħÙĨ	949
ĠØ®Ø¨ÙĬØ±	1289
ĠÙħÙĨØ²	5739
ØºÙĬ	1193
ĠÙĪØ´Ø±	4610
Ø§Ø¯ÙĪÙĨ	4145
Ø³ÙĪØ©	7262
ĠØ§ÙĦÙĤÙĪÙĬ	6045
ĠØ¨Ø§Ø¨	4702
ĠÙĪØ¬ÙĨ	2225
ÙĤÙĦÙĪÙĨ	832
ĠØ§ÙĦØ³Ø§Ø¹Ø©	1030
ĠÙģØ³ÙĨÙĬØ³Ø±Ùĩ	10308
ĠÙĪØ§ÙĦÙĨ	766
ĠÙĦÙĬØ¶	4939
ĠÙĪÙģØ¶ÙĦÙĨØ§ÙĩÙħ	10163
Ø·Ø©	4821
ĠÙĪØ²ÙĬÙĨ	2577
ĠØ§ÙĦØ¨Ø§ÙĤÙĬÙĨ	10178
ĠÙĤÙħÙĬ	4039
ĠØ¨ÙĨÙĬØ§ÙĨØ§	10206
ĠØ§Ø³ØªØºÙĨÙī	8562
Ø±Ùħ	2440
ĠØŃÙģÙĬØ¸Ø§	6829
ĠØ¬ÙĨØ§ØŃ	1140
ĠÙģØ£ÙĩÙĦÙĥÙĨØ§ÙĩÙħ	6897
ĠÙĦÙĬÙĤÙĪÙĦÙĪÙĨ	4941
ØŃØµ	2066
ĠØ¬ÙĦÙĪØ¯ÙĩÙħ	9915
ĠÙĤØ§ØªÙĦÙĩÙħ	10071
ĠÙĦÙĩÙĨ	2098
ĠØ£Ø¹	501
ÙĬÙĪÙħ	561
ĠØŃØ¬Ø±	7753
ØŃØ´	1277
ĠØ§ÙĦØ³ÙĪØ¡	1972
ĠÙħÙĦØª	3933
ĠÙĩØ¨	4812
ĠÙĦØªØ£ØªÙĪÙĨ	5129
ĠÙĬØ±Ø«	6157
ĠÙĬØ±Ø¶	4674
ĠØ¨ÙĬÙĨØ§Øª	1812
ÙĦÙĪÙĦØ©	7079
Ø¶Ø§	1509
ĠÙĪÙĦØ¯Ø§	2084
Ø§ÙĨÙĬØ©	3549
ĠÙĥØ§Ø°Ø¨ÙĬÙĨ	5781
ĠÙģÙĪÙĬÙĦ	2643
ĠÙĦÙĬÙĦØ§	4173
ĠØ¨Ø£ÙĬ	6214
ĠØªØªØ®Ø°ÙĪÙĨ	7025
ĠÙĦØºÙĪØ¨	9130
ĠÙĪØ´ÙĩØ¯	9278
ĠØ¨Ø¹Ø«ÙĨØ§ÙĩÙħ	9401
ĠÙĪØ¶Ø±Ø¨Øª	9737
ĠØ¹Ø¯Ø§ÙĪØ©	9942
ĠØ§ÙĦØ¯Ø±Ø¬Ø§Øª	10293
ĠÙĦØ¬ÙĩÙĨÙħ	6728
ÙĪÙĦØ¦Ùĥ	289
ĠØ£ÙĪÙĦÙī	2921
ĠÙĪØ¬Ø¹ÙĦÙĨØ§	818
ĠØ´ÙĥÙĪØ±	3036
ĠÙģÙĨØ³	3963
ĠØ¹Ø§Ùĥ	4015
ĠØ§ÙĦØºØ§ÙĦØ¨ÙĪÙĨ	4536
ĠØ§ÙĦØ¶ÙĦ	2623
Ø´Ø¦	7578
Ø¢Ùĩ	7841
ĠØ¥ÙĨØ§	345
ĠØ¨Ø¬ÙĩØ§ÙĦØ©	5513
ĠØ±Ø¡	1785
ĠÙĬØŃÙĥÙħ	1369
ĠØ®Ø§Ø´Ø¹Ø©	4529
ĠÙģÙĦÙĨÙģØ³Ùĩ	5260
ĠÙĬÙĩØ§Ø¬Ø±ÙĪØ§	5692
ØªÙĩØª	6211
ĠØ²ÙģÙĬØ±	8417
Ø§Ø³Ø±ÙĬÙĨ	1605
ĠØ£ÙĪØ§Ø¨	3951
ĠÙĬØ£Ø¨	8296
ĠÙĪØ¶Ø¹ØªÙĩØ§	9919
ĠØ£Ø±Ø¨Ø¹Ø©	3382
ĠØ³ÙħØ§ÙĨ	7673
ĠÙģØ§Ø°ÙĥØ±ÙĪØ§	3255
ĠØªØŃØªÙĩØ§	1014
ØªÙħØªØ¹ÙĪØ§	3850
ĠÙĥÙĦØ¨ÙĩÙħ	6095
ĠØªØ´Ø±	7469
ĠÙĬØ³ØªÙĩØ²Ø¦ÙĪÙĨ	2006
Ø°Ø§Øª	2189
ĠØ´ÙĬØ¨Ø§	8056
ĠØ£Ø®Ø±Ùī	1919
ĠÙĪØ¥ÙĨÙĩ	1328
ĠÙĬÙĤÙĪÙĦÙĪÙĨ	803
ĠÙĪØ¥ÙĦÙĬÙĥ	5947
ÙģØ³	195
ÙĪØ³	1060
ĠØ§ÙĦØŃØ±	4917
Ø§ÙĦØŃÙĬÙĨ	5073
ØŃÙħÙĦ	2104
ĠÙģØ§Ø¹Ø¨Ø¯ÙĪÙĨ	6782
ĠÙĪØ§ÙĦÙĨØ¨ÙĪØ©	6489
ĠÙĪØ§ÙĦÙĨØ¬ÙĪÙħ	6982
ĠÙģÙĬØ¶Ø§Ø¹Ùģ	7542
ĠÙĬØ·ÙħØ«ÙĩÙĨ	10316
ĠÙħØ¬ÙĬØ¯	9407
ĠØ¨Ø³Ùħ	441
ĠØ£Ø¹ØªØ¯ÙĨØ§	3724
Ø§ÙĦØŃ	376
ĠØ¹Ø¬	1561
ĠÙħÙĪÙĦÙī	5007
ĠÙĬØŃÙĥÙħÙĪÙĨ	5311
ĠØ¥ÙĦØ§	148
ĠÙĪØ§ÙĦØªÙĪØ±Ø§Ø©	9953
ØªØ§Øª	5614
ĠØªØºØ±	7482
ĠØŃÙĦÙĬÙħ	2496
ĠÙĨÙħ	2685
ĠØªÙĥÙĦÙħ	5104
ĠÙĨÙĤÙĪÙĦ	2893
Ø§ÙĦÙĦÙĩ	2439
ĠØ£Øµ	443
ÙĨØ§Ùģ	1311
ĠÙĪÙĬÙĪÙĦØ¬	4901
ĠÙģÙĨØª	5669
ĠÙĪÙĤÙĪÙħÙĩ	3373
ĠÙĬØŃØª	6146
ĠÙĥØ°Ø¨ÙĪÙĥ	6333
ĠÙĬØ£ÙĥÙĦÙĩ	9300
ĠØ´Ø¦Øª	4490
ĠÙĨØ°Ø±Øª	9958
ĠØ£Ø«ÙĤØ§ÙĦÙĩÙħ	10022
ÙĦÙħØ§Øª	1147
ĠØªÙĨÙģÙĤÙĪÙĨ	8611
ÙĪØ¡	656
ÙģÙĥØ§	7399
ĠÙģØ§ÙĨØªØ¸Ø±ÙĪØ§	6943
ÙĦØ§Ø«	1354
Ø³Ø§Ø¨	1500
Ø¬Ùĩ	5768
ĠÙĤØ¨ÙĦ	301
ĠØ¨Ø¹Ø¨Ø§Ø¯ØªÙĩÙħ	9497
ÙĪÙģÙĪØ§	2951
ĠØ¨Ø¹Ø«	1889
ĠÙĬÙģÙĤ	1733
ĠØºÙĦÙĬ	2943
ĠÙĬØ²ÙĥÙĬ	9053
ĠÙĨØ³Øª	4797
ĠÙĤØ§Ø¦	1628
Ø¸ÙĨÙĩ	7829
ĠØªØŃÙħ	4020
ĠÙĤØ±Ø©	7530
ØªØ®Ø°	1848
ĠÙħØºØ§ÙĨÙħ	6776
ĠØ¸ÙĦÙħØªÙħ	8763
ĠÙģØ³ÙĪÙģ	1262
Ø§Ø·Ø¦ÙĬÙĨ	8376
ĠØ¢ÙĦØ°ÙĥØ±ÙĬÙĨ	9090
Ø±Ø§Ùģ	5951
ĠØ¹Ø´Ø±Ø§	7445
ĠÙĨØ¨Ø£	1834
ĠÙĩØ¯Ø§ÙĩÙħ	5362
ĠÙħÙĦÙĥ	697
Ø¬ÙĪ	3528
ĠØ§ÙĦÙħØ´	4843
Ø¬Ø±Øª	5003
ĠÙĪØ¥ÙĦÙĬÙĨØ§	5945
ĠØ¶Ø±Ùĩ	6230
ĠÙĪØ¹Ø¯ÙĪÙĥÙħ	8692
ĠØ§ÙĦØ³Ø§ÙħØ±ÙĬ	10267
ĠØŃÙĬØ§Ø©	4857
ĠÙĦØ£Ø¬Ø±Ø§	6305
ĠÙĦØ²ÙĦ	7302
Ø¹ÙĦÙĩ	2849
ĠÙĦÙĬÙĥÙģØ±	4942
ĠØ¨Ø§ÙĦÙħÙĪØ¯Ø©	9265
ĠÙĪØ§ÙĦØº	7591
ĠØ§ÙĦØ·	696
Ø¨ÙĦÙĪ	6085
ĠØ®ÙĦØ§ÙĦ	2913
ĠÙĦÙĬØ¤ÙħÙĨÙĪØ§	4943
ĠÙĥØ§Ø´Ùģ	9826
ĠØªØ§Ø±Ø©	7490
Ø¯ØªÙĩÙħ	5652
ĠÙĪØ£ØªØ¨Ø¹ÙĪØ§	10080
Ø¬ÙĬÙĨØ§	2197
ÙĩÙĦÙĪÙĨ	3915
ĠØ£ØµØ§Ø¨Ø¹ÙĩÙħ	9110
ØŃÙĪÙĩÙĨ	4717
ØŃÙģ	3124
ĠÙĪÙħØ±	7143
ĠÙĬÙĥÙĦÙģ	8350
ĠÙĪØ§ÙĨØµØ±ÙĨØ§	9326
ÙĬØªÙĪÙĨ	8511
ĠØªØ°ÙĥØ±Ø©	3410
ĠØ±ØŃÙħØªÙĩ	1831
ĠØ£ØªØ¹ÙĦÙħÙĪÙĨ	8752
ØºÙģØ±Ø©	1208
ĠÙģØ¬Ø¹ÙĦÙĩ	5675
ĠØ§Ø¹ØªØ¯Ùī	5429
ĠÙĨØ£ØªÙĬ	10075
ĠØ¹Ø§ÙĩØ¯ØªÙħ	5486
ĠØ£Ø±Ø§Ø¯ÙĪØ§	5262
ĠØ§ÙĦØ³ÙĥÙĬÙĨØ©	10268
ĠØ§ØªØ¨Ø¹ÙĪØ§	2259
ĠØ¬Ø§Ø¡ØªÙĥÙħ	4227
Ø®ÙĦÙģ	1783
ĠÙĦØ¥Ø¨Ø±Ø§ÙĩÙĬÙħ	9522
ĠØ£Ø±Ø¶	1555
ĠØ§Ø¯Ø¹	3028
ĠÙĤØ±ÙĬØ¨	2024
ĠØ§ÙĦÙĤÙĦÙĪØ¨	3628
ĠÙĩØ°Ùĩ	849
ĠØ£Ø®	546
ĠÙĬØ£Øª	1893
Ø¸Ø±ÙĪØ§	1417
ÙħÙĪØ§ÙĦ	2043
ĠØ¹ÙĦÙĬÙĩÙħ	274
ĠØ·Ø±Ø§Ø¦ÙĤ	10296
ĠØ¹Ø²Ùħ	4733
Ø°ÙĥØ±ÙĪÙĨ	922
ĠØ¨Ø¹Ø¯Øª	8179
ĠØªØŃÙĪÙĬÙĦØ§	6248
ĠØ§ÙĦÙħØª	1872
¢	4
ĠØ¨ÙĬØ¶Ø§Ø¡	3752
ĠØ£Ø°ÙĦØ©	5341
ĠÙģÙĦÙĦÙĩ	3669
ĠÙĪØ¢ØªÙĬÙĨØ§ÙĩÙħ	5329
ĠÙģØ³	566
ĠØ¨Ø§Ø±ÙĥÙĨØ§	3996
ĠØ¯Ø§ÙĨÙĬØ©	7938
Ø±ÙĬÙģ	8019
ĠÙģØ¥Ø®ÙĪØ§ÙĨÙĥÙħ	6043
ĠÙĦØ¢Ø¯Ùħ	4389
ĠØªÙĤÙĦØ¨ÙĩÙħ	9789
ĠÙĪÙħØ«ÙĦØ§	9885
ĠÙħØŃØ³ÙĨ	3934
ĠØ®ÙĦÙģ	1195
ĠÙĥØ£ÙĨÙħØ§	6636
ĠØ§ÙĦÙĥØ±ÙĬÙħ	6906
ĠÙħÙĦØªÙĨØ§	9805
ĠØ£ØªØ§ÙĥÙħ	6705
¡	3
ĠØ®Ø´	2498
ĠÙģÙĦØ¨Ø«	6180
ĠÙĪØ¸	1426
ĠØ£ÙĨØ²ÙĦ	476
ĠØ§ÙĦØ¹Ø¸ÙĬÙħ	1010
ĠÙĪÙĦÙĦÙħØ¤ÙħÙĨÙĬÙĨ	5521
ĠØ´ÙĬØ·Ø§ÙĨØ§	8058
ĠØ¨ÙĬÙĪØªØ§	2827
ÙĦÙĬÙĨ	591
Ø°Ø¨ØŃ	6070
ÙĬØ§ØŃ	2503
ĠØ£Ø±Ø³ÙĦØªÙħ	5156
ĠØªØŃØ²ÙĨ	3393
ĠØ§ÙĦØµØ¯ÙĪØ±	1839
ĠÙĬØ¹ÙĤÙĦÙĪÙĨ	1412
ĠÙĩÙĪØ¯Ø§	3644
ÙģÙĬÙĩ	4289
ĠÙĨØ¹Ùħ	785
ĠØ®ÙĦÙģÙĩ	5283
ĠÙĪØªØ®Ø±Ø¬	6140
ĠÙĬØ´ÙĥØ±ÙĪÙĨ	2734
ĠØªÙĪÙĥÙĦØª	3397
ĠØ§ÙĦØ¨Ø±ÙĬØ©	8541
ĠÙģØ£ÙĨÙĩ	8904
ÙħÙĨÙĩ	5793
ĠÙģØ§ØªØ¨Ø¹ÙĪÙĨÙĬ	10311
ĠÙĪØ§ÙĦØ³ÙĦØ§Ùħ	9055
ĠØªØ¬	482
ĠØªØµØ¨Ø±ÙĪØ§	4386
ĠÙĦÙĤØ§Ø¡	2984
ĠØ¹Ø³Ùī	1442
ĠØ·ÙĪÙĦØ§	8268
ĠÙĪÙĨÙĤÙĦØ¨	8248
ĠÙģØ±ØŃÙĪØ§	6276
ĠØªØ£Ø®Ø±	8591
ĠÙĬØ³ØªÙĥØ¨Ø±ÙĪÙĨ	3288
ĠØ§ÙĦØ£Ø¹ÙħÙī	3197
ĠÙģÙĬÙĩÙħØ§	2881
ÙģØ®	1775
Ø§Ø«Ø§	6623
ĠÙģØ°ÙĥØ±	4655
ĠÙĪÙĬÙĦØ¹	4140
ĠØ§ÙĦØ±ØŃÙħØ©	3638
Ø³ØŃØ§ÙĤ	1745
ĠØ£Ø¶ÙĦ	1937
ĠØ±ÙĪØ§	2473
ĠÙĪÙĨØ²ÙĦÙĨØ§	5030
ĠØ£Ø´Ø¯	999
ĠÙĪØ§Øµ	1494
ĠØ³Ø¨Ø¨Ø§	5267
ĠÙĪØ£ÙĨÙĬ	5876
ĠØ¨ÙĩÙĬÙħØ©	6061
Ø¹ÙĨØ§Ø¨	4436
ĠÙĬØ¯Ø®ÙĦÙĪÙĨÙĩØ§	6860
ĠÙħÙħØ³Ùĥ	7213
Ø¹Ø§ÙĨ	7222
ĠÙĬÙĦÙħ	7319
ĠØ³ÙĤÙģØ§	7681
ĠØ¹Ø¯ÙĪØ§ÙĨ	9416
ØªØ§ÙĦ	2174
Ø¯Ùī	627
ÙĦÙĬÙħØ§ÙĨ	1698
ÙĬØªÙĩÙħ	4586
ĠÙĪÙĬÙĩØ¯ÙĬ	1882
ĠÙħØ¨ØµØ±Ø§	6580
Ø£Ø¬ÙĪØ¬	7421
Ø¬Ø§ÙĩØ¯ÙĪÙĨ	7508
ĠÙĬØ¹Ø¯ÙĩÙħ	6761
ĠÙĬØŃØ°Ø±	8170
ĠÙĪØ£Ø®ÙĬ	9369
ĠÙĨÙĨØ²ÙĦ	9650
Ø¨ØªÙĦÙĬÙĥÙħ	8625
Ø¨ÙĪØ§	985
ĠØ³ÙĪÙĬØ§	5439
ĠØ£Ø£ÙĨ	5644
ĠØ§ÙĦØ³ÙħØ§	227
ĠÙĨÙģØ³Ø§	2010
ĠØ¨Ø±ÙĩØ§	3019
ĠÙĬØªÙĦÙĪ	3243
ĠØ®Ø²ÙĨØªÙĩØ§	6812
ĠÙĪÙĪØŃ	7148
ĠÙģÙĬÙĥÙĪÙĨ	2470
Ø¹Ø°Ø¨	7224
ÙĦØ¨ÙĩÙħ	8585
ĠÙĪØ§ÙĦÙĩØ¯ÙĬ	7596
ĠØ¬Ø§ÙĩØ¯Ø§Ùĥ	9844
ĠØ§ÙĦØ±Ø³ÙĪÙĦ	872
Ø¬ÙħØ¹ÙĪØ§	6955
ĠØ§ÙĦØ¨ÙĬÙĪØª	5330
ĠØ§ÙĦÙħÙĨÙĬØ±	8955
ĠÙĪØ§ÙĦØ£ÙĪÙĦØ§Ø¯	10290
ĠØ§ÙĦØ¶Ø±	2624
ĠÙĪÙħÙĥØ±ÙĪØ§	6271
ĠØ§ÙĦØ´Ø¯ÙĬØ¯	8353
Ø£	77
Ø²Ø¹ØªÙħ	6710
ĠÙĦØ¹Ø¨	6436
ĠØ±Ø³Ø§ÙĦØ§Øª	4253
Ø±Ø¬ÙĪÙĨ	8627
ĠÙĥØ±	867
ĠØ¬ÙĦØ¯Ø©	9711
ĠÙĪØ§ÙĦÙĬØ³Ø¹	10236
ĠÙħÙĨÙĩØ§	553
Ø²ÙĦÙĪÙĨ	7570
ĠØªØ±Ø¬Ùģ	9990
ĠØªÙĤØªÙĦ	7491
ĠÙĪØ£Ø¯Ø®	6926
ĠØ§ÙħØª	8013
ĠØ§ÙĦØŃØ²ÙĨ	7932
ĠØ£ÙĤØ¯Ø§ÙħÙĨØ§	6996
ĠØ§ØªÙĤÙī	4276
ĠÙĦÙĬØ¤ÙħÙĨÙĨ	8008
Ø§Ø¯ÙĤ	7912
ĠÙģØ³Ø¨ØŃÙĩ	9517
ÙĪÙĥÙĦ	1416
ĠØ¨Ø·Ø´	5287
ĠØ§ÙĦØ®Ø¨Ø§Ø¦	8422
ĠØµØ¹ÙĬØ¯Ø§	5523
ĠÙĪÙĦÙĩÙĪ	6595
ĠÙģØ±Ø¯Ø§	6274
ĠØ¹Øµ	1280
ĠÙĦØªØ£Ùĥ	8568
ĠØ³Ø¨ÙĬ	392
ĠÙĨØ¬ÙĬÙĨØ§	5233
ĠÙģØ³ÙĨÙĬØ³Ø±	8673
Ø´Ùģ	1358
ĠÙĨØ®Ø§Ùģ	9461
ĠÙħØ¤ØµØ¯Ø©	9468
ĠØ§ÙĦÙĦ	5582
ĠØ§Ø	499
ĠØ®Ø§ÙĦ	548
Ø·ÙĬØ¹	2567
ĠØ§ÙĦÙģØ§Ø¦Ø²ÙĪÙĨ	5155
ÙĪØ§Ø¹ÙĤ	7351
Ø±Ø¨Ø§	8051
ØµØ¯ÙĤØ§Øª	8658
ĠÙģØ§ÙĨØ¸Ø±ÙĪØ§	4366
ĠØ§ÙĦÙħØ«	5889
ĠÙĪÙħÙĤ	8431
ĠØ®Ø±Ø¯ÙĦ	10256
ĠÙĪØ¥Ø³ØŃØ§ÙĤ	2704
Ø§Ø¦ÙĨÙĬÙĨ	6089
ĠÙĬØ·Ø¹ÙħÙĩ	9115
ĠØ¹Ø³ÙĬ	7444
ĠØ¯Ø®ÙĦØªÙħ	6836
Ø´ÙĪØ§	4787
Ø³Ùĥ	1762
Ø¨Ø§	368
ĠÙģØ£ÙĨ	870
ĠÙĦØŃÙĤ	4665
ĠÙĬØ¬Ø²ÙĪÙĨ	6369
ĠØ£ØºÙĪÙĬØªÙĨÙĬ	10019
ĠÙģØªÙħØªØ¹ÙĪØ§	7291
Ø¹Ùĩ	4629
ØŃÙī	4715
ĠØ¢Ø¨Ø§Ø¦	4372
ÙĦÙĥÙĩ	5863
ĠØ§ÙĦØ®ÙĬØ±	1591
Ø¹Ø§Ùħ	759
ĠØ°ÙĬ	1578
ĠØ§ÙĦÙĤØ±ÙĪÙĨ	2521
Ø¤ÙĬØ§	3199
ĠØªÙħØªØ¹ÙĪØ§	6826
ĠØ³ÙħÙĬØªÙħÙĪÙĩØ§	6868
ĠÙģÙĥÙĦØ§	8643
ĠÙĪØ§ÙĦØµØ§Ø¨Ø¦ÙĬÙĨ	10020
ĠÙģÙĤØ§ØªÙĦÙĪØ§	6357
ØªÙħØ³Ùĥ	5913
ÙĪØ§Ùĥ	4696
ĠØ£ÙħØ¯Ø§	5999
ĠØªÙĦØ¨Ø³ÙĪÙĨ	6953
ÙĩØ¨Ø·	3078
Ø¶ÙĬØ§Ø¡	8859
ĠÙĬÙĩØ¯ÙĬÙĩÙħ	6518
ĠØ¨ÙĨØ¹ÙħØ©	5308
Ø§ÙĦÙĪÙĨ	2621
ĠØ§ÙĦÙħØ³ØªØ¹Ø§ÙĨ	9424
ĠÙĬØ¶ÙĦ	1064
ĠÙģØ§ØªØ®Ø°	4383
ĠØ¯Ø§Ø±ÙĩÙħ	4924
ĠØ¢Ø¨Ø§Ø¦ÙĨØ§	9898
ĠÙĬÙħØ³Ùĥ	4455
Ø£ØªÙĬÙĩÙħ	5737
ĠØ§ÙĦÙģÙĤØ±Ø§Ø¡	6379
ĠÙĪØ§ÙĦØŃÙĥÙħ	1958
ĠØ§ÙĨÙĤÙĦØ¨	6473
ĠÙĬÙģØªØ±ÙĪÙĨ	1672
ĠØ£ÙĦÙĪØ§	3099
ĠÙĥØ§ÙĦØ£Ø¹ÙĦØ§Ùħ	10156
Ø¨Ø´Ø±	3445
ĠØ¸Ø§ÙĩØ±	5510
Ø±Ø¶	153
ĠØ¹Ø§ÙĩØ¯	3132
ĠØªØªÙĤÙĪÙĨ	1594
Ø¹ÙĪÙĨ	201
ĠØ«ÙĬØ§Ø¨	3613
ĠØŃÙģÙĬ	2495
ÙĨØ§ÙĥÙħ	1626
ĠÙĬØŃÙĦÙĪÙĨ	4219
ĠØ§ÙĦØ·ÙĪÙĦ	8787
ĠØ£Ø®Ø¨Ø§Ø±	6383
ĠØŃØ¯ÙĬØ¯	5903
ĠØ¬Ø¹ÙĦÙĨØ§ÙĩØ§	6525
ÙĦØ§Ø¦	2662
ĠØ¨Ø£ÙĩÙĦÙĥ	6215
ĠÙģØ±Ø¶ØªÙħ	9696
ĠÙĥÙģÙĪØ§	7514
ĠÙħØªÙĬÙĨ	8798
ĠÙĪØ¬Ø§Ø¡ÙĩÙħ	6627
ĠØŃÙĪÙĦÙĩ	2909
ĠÙĬÙĪÙĨØ³	7330
ÙĪÙĥØ§	8577
ĠÙĦÙĪÙĦÙĬÙĩ	8528
ĠÙĬÙĨÙĥØŃ	9724
ĠØ§Ø³ØªØ£Ø°ÙĨ	6338
ÙĩØ§Ø±	469
Ø¯Ø±ÙĬØ³	10045
ĠØ¯Ø§ÙĪÙĪØ¯	2040
ĠÙĤÙĪÙħÙĬ	4235
ĠÙĬØ±Ø¯ÙĪÙĨ	6158
ĠÙģØ°Ø±	4654
ĠÙĨÙģÙĪØ±Ø§	5254
ĠÙĬØµÙĦØŃ	6450
ĠØ£ÙĦØ§	504
ĠÙĪØ¬ÙĩÙĩØ§	9015
ĠÙħØ§Ø¦Ø¯Ø©	9469
ĠØ¨Ø£ÙģÙĪØ§ÙĩÙĩÙħ	3895
ĠØ§ÙĦÙħØ¹	3574
ÙĤØ¯Ø§Ùħ	3635
ĠØ«ÙĤÙģÙĪØ§	9545
ĠØ¬Ø¹ÙĦÙĩ	4100
ĠÙĪÙĬØ¶Ø±Ø¨	7901
ĠÙħØ³Ø±	3450
ĠØ§ÙĦÙħÙĦØ¥	7747
ĠØªÙģÙĦØŃÙĪÙĨ	2408
ĠÙģØªÙĨ	3682
ĠØªØŃØ¨ÙĪÙĨ	2968
ĠØ§ÙĦÙĤØ¯	2220
ÙĦÙĪÙĩ	3419
ĠÙĥÙĦÙĩ	3142
ĠØªØ³ØªØºÙģØ±	6557
Ø¨Ùĥ	1215
ÙĪÙĦÙĩÙħ	4827
ĠØ£Ø·Ø¹ÙĨØ§	7246
ĠØ§ÙĦØ¹Ø²ÙĬØ²	683
ĠÙĬÙģØªÙĬÙĥÙħ	8740
ĠØºÙħØ±Ø©	10114
ØµØ¯ÙĤ	1663
ĠÙĨØ§Ø¦ÙħÙĪÙĨ	10237
ĠÙĨØ±Ø¯	7632
ĠØ§ÙĦÙĦØ¤ÙĦØ¤	10180
ĠØ¢Ø¨Ø§Ø¤ÙĩÙħ	5237
ĠÙħØ¯ØŃÙĪØ±Ø§	6569
ĠØ£Ø«ÙħØ±	9282
ĠØ§ÙĦØ¹ÙģÙĪ	7965
ĠÙĬØ´Ø¹Ø±	8202
ĠÙĦÙĬØ¬Ø¹ÙĦ	6055
ĠÙĥØªØ¨	1221
ĠÙĥÙĩÙĬØ¦Ø©	10227
ÙĪÙĨÙĪØ§	1944
ĠÙĨØ¹Ø¯	7612
ĠÙĤØ§ÙĨØªØ§Øª	9702
ĠÙĪÙĬØ³ØªØºÙģØ±ÙĪÙĨ	9186
ĠÙģØ§Øª	920
ÙĬØ§ÙħØ©	636
ĠØ¥ÙĦÙĩÙĥÙħ	3300
ÙĦØ§ØªÙĥ	7464
ĠØªØ³	753
Ø±Ø¨ØµÙĪØ§	4474
ĠÙĬØ³ÙħØ¹ÙĪÙĨ	1438
ÙĥÙĪØ±	5612
ĠÙĪØ§ÙĦØ·ÙĬØ±	4510
ĠØ§ÙĦÙħÙĤØ³Ø·ÙĬÙĨ	7053
ĠØ£ØªØªØ®Ø°	8751
ĠØ¨ØŃÙģÙĬØ¸	9525
ĠÙģØ§Ø¯Ø¹ÙĪÙĩ	9909
ĠÙĪØ§ÙĦØ£ÙĤØ±Ø¨	3654
ĠØ¢ØªÙĨØ§	4826
ĠØ§Ø®Øª	9151
ĠØ§ÙĦØ¥Ø³ÙĦØ§Ùħ	5148
ĠÙģØ£ØªØ§ÙĩÙħ	7953
ĠØ³Ø±Ø§ØŃØ§	9423
ĠÙĦØ¹ÙĦÙĩÙħ	931
ĠÙĪÙĥÙĩÙĦØ§	8022
Ø£ÙĦ	990
ĠÙĬØ³Ø±ÙĨØ§	5416
ĠØ£ØªÙĪÙĥ	8750
ĠÙĥØ¨ÙĬØ±ÙĩÙħ	9419
ĠØ§ÙĦÙħÙĬØ²Ø§ÙĨ	5900
ĠØ£ÙħØ«Ø§ÙĦÙĩØ§	9669
ĠØ§ÙĦÙĨØ°ÙĬØ±	8239
ĠÙģØ£ØªÙĪØ§	2514
ĠØ§ÙĦÙĦØ§	2047
ĠÙĥÙĦÙħØŃ	9077
Øº	130
ĠØªØ®ÙģÙĪÙĩ	6787
ĠÙģÙĬÙĨØ¨Ø¦ÙĩÙħ	6680
ĠØ²ÙĥØ§Ø©	8412
ĠÙĥØªØ§Ø¨ÙĬÙĩ	8715
ĠØ£Ø±ÙĬØ¯	3009
ĠÙĪØ¥Ø«Ùħ	7824
ĠÙħÙħØ²ÙĤ	9630
ĠÙĬØ´ÙĩØ¯	3665
ĠÙĪØ§ÙĦØ¹Ø¯ÙĪØ§	4060
<EOS>	2
ĠØ¯ÙĬØ§Ø±ÙĥÙħ	5403
ĠØ§ÙĦØŃØ¬	2718
ĠØ§ÙĦÙħÙģØ³Ø¯ÙĬÙĨ	2494
ĠÙĨ	109
ĠØ£ÙĤÙĦ	3771
ĠÙĬØ°ÙĩØ¨ÙĪØ§	7328
ĠÙĬØ³Ø±Ø§	3706
ĠÙħØ±ØŃØ¨Ø§	8508
ÙĤÙĬÙħÙĪÙĨ	3737
ÙĦÙĬÙħ	445
Ø±Ø§Ø¡	4597
ĠÙħÙĤØ§	3091
ĠØ´ÙĩØ¯ÙĨØ§	5301
ĠØ£Ø³ÙħØ§Ø¡	6404
Ø±ÙĬØ¨	4948
ÙĨØ¯	7080
ĠÙĬÙĨÙĬØ¨	10200
ĠØ¨ØµØ§Ø¦Ø±	4429
ĠØ£Ø±Ø§Ùĥ	9018
ĠØªØŃØ´Ø±ÙĪÙĨ	2969
ĠØ¹Ø°Ø§Ø¨Ø§	980
ĠØªØ¹Ø¯ÙĪØ§	5762
ĠØŃÙģØ¸	7759
ĠØ§Ø¨ÙĨÙĬ	8805
ĠÙĪØ³Ø¹Øª	8659
ĠÙĦÙĦØ´Ø§Ø±	6134
ĠØ§ÙĦØ³Ø¹ÙĬØ±	2922
Ø§ÙĦÙĪØª	3911
ĠØ¨ÙĩØ¯	7355
ĠÙģØ¥ÙĨ	260
ĠÙħØŃ	1129
ĠÙĨÙģØ¹Ø§	2795
Ø§Ø±ÙĥÙĨØ§	3816
Ø¸Ø§Ùħ	5950
ĠÙĪØ¥ÙĬØª	5944
ĠÙģØ¹Ùħ	7273
ĠÙĪÙĩÙĨ	7141
ĠØªØ±Ø¯ÙĨ	8230
ĠÙĪØ°ÙĥØ±Ùī	3388
ĠØºÙĦØ¨Øª	7018
ĠØ¨Ø£ÙģÙĪØ§	2965
ĠÙĬØ³ØªØºÙģØ±ÙĪÙĨ	8455
ØªÙĩÙħ	328
ĠØ§ÙĦØ¹Ø±Ø´	1518
ĠØ£ØŃÙĤ	2376
Ø±Ø§	146
ĠÙĦØ£ÙĤØ·Ø¹ÙĨ	8499
ÙģØª	389
ĠØ¥ÙĦÙī	179
ĠÙħÙĦ	2293
ĠÙĬÙħÙĪØª	3766
ÙĥÙĬÙħ	568
ĠØ¨Ø§ÙĦÙħÙĩØªØ¯ÙĬÙĨ	5335
ĠØ£ÙĨÙģØ³ÙĩÙĨ	8510
ĠÙĪØ§ÙĦÙħØ³ØªØ¶Ø¹ÙģÙĬÙĨ	8635
ĠÙĪØ¹Ø¯ÙĩØ§	8691
ĠØ§ÙĦÙĤÙĩØ§Ø±	3627
ĠÙģØ¯ÙĬØ©	6805
ĠÙģØ£ØµØ¨ØŃØªÙħ	9342
ĠÙĪØ°	2049
ĠÙĬØµØ¯ÙĨÙĥ	9451
ĠØ£Ø±ØŃØ§ÙħÙĥÙħ	9893
ĠÙĬØŃØ§ÙĪØ±Ùĩ	10291
ĠØªÙĨÙģØ¹	3725
Ø«Ø±	480
Ø§Ø¤	776
ĠÙħÙĪÙĤ	4223
Ø³ÙĦØ§Ùħ	2853
ĠÙĦÙĥÙĦÙħØ§Øª	6231
ĠÙĪÙĦÙĩ	1127
ĠØŃØ¨Ø©	4090
ĠØ´ÙĥØ±	4871
ĠÙĦØ²Ø§ÙħØ§	10198
ĠØŃØ¸Ø§	5905
ĠØ§Ø°ÙĩØ¨	4178
ĠÙĥØ°Ø§Ø¨Ø§	9769
ĠØ¹Ø¨Ø¯Ø§	3518
ĠØ¬Ø¦ØªÙĥÙħ	5282
ĠÙĪØ§ÙĦÙĦØ§Ø¦	7601
Ø¨ÙĪÙĩÙħ	7190
ĠØ³ÙģØ§Ùĩ	7679
ĠØ¨ÙħØ¹	2310
Ø³Ø®	4647
ĠØªØ¨Ø¹Ùĥ	6810
Ø·ÙĦÙĪØ§	7686
ĠØ§ÙĦØ¹ÙĦÙĬÙħ	1094
ĠØ§Ø¹Ø¨Ø¯ÙĪØ§	1716
ĠØ¨Ø¹ÙĬØ±	8110
ÙĪÙĬ	740
ĠØ§ÙĦÙĤØ¯ÙĪØ³	9496
ĠØ±Ø³ÙĦÙĨØ§	1894
ĠÙĪØ¢ØªÙĬØªÙħ	8621
ĠÙģÙĤÙĬØ±	8617
ĠÙħØ¨Ø§Ø±ÙĥØ§	5536
ĠÙĬÙģØ¹ÙĦ	1098
Ø£Ø®Ø°ÙĪØ§	7420
ĠØªØªÙĤÙĪØ§	8531
Ø²ÙĩÙħ	5818
ĠØ¯Ø§Ø®Ø±ÙĪÙĨ	9863
ĠÙģØ²Ø§Ø¯ØªÙĩÙħ	9913
ĠÙĦØ¢	967
ĠØ¨Ø®	1308
ĠÙĪÙħ	408
ĠØ³Ø£ÙĦ	2334
ÙĤÙĪÙĨØ§	6233
ĠÙĦÙħØŃÙĬ	8094
ĠÙĬØ¬Ø¹ÙĦÙĪÙĨ	9306
ØªÙħØ¹	3186
Ø¹Ø¯ÙĦÙĪØ§	7911
ĠØªÙĤÙĪÙĦÙĪÙĨ	3523
ĠÙĪØ³Ø¨Ø¹	6388
Ø¶ÙĪØ§	1135
ĠÙĪØ£ÙĩÙĦÙĥ	4838
ÙģØªØŃ	2002
ĠÙĬØ¹Øµ	3281
ĠÙĥØ°Ø¨ØªÙħ	8538
ĠÙĪØ³Ø¹Ø±	8661
ĠØºØ¶Ø¨ÙĬ	10113
ØŃØ±ÙĬØ±	5098
Ø¶Ø±Øª	8816
Ø´ÙĤØª	5826
ĠØ£Ø¬ÙħØ¹ÙĬÙĨ	1375
Ø§Ø¤Ùĩ	3763
ĠØªÙĥ	432
Ø¨Ø±ÙĪÙĨ	1612
ĠØ§ÙĦÙħØŃ	5887
ĠÙĪØ¹ÙĦÙī	961
ĠØ¢ØªÙĬÙĥ	9142
ĠØ§ÙĦØ¹ÙĨÙĥØ¨ÙĪØª	10273
ĠØ¹Ø§ÙħÙĦÙĪÙĨ	6778
ĠÙĬØ®Ø±Ø¬ÙĪÙĨ	3787
ĠØŃØ³Ø±	4854
ĠÙģØªØŃØª	8323
ĠØ·Ø§Ø¦Ùģ	9097
ĠÙĬØ¨	809
ĠØ¬ÙĨØ§Øª	704
Ø§ÙĦÙħÙĬÙĨ	334
ĠØ§ÙĦÙħØ¨Ø·ÙĦÙĪÙĨ	4848
ĠØ§ÙĦÙħÙĨØªØ¸Ø±ÙĬÙĨ	7031
ÙĤØ¨ÙĦÙĪØ§	9200
ĠØ§ÙĦØ®Ø±ÙĪØ¬	6946
ĠÙĨØ¤ØªÙĬÙĩ	9607
ĠØ§ÙĦØ·Ø¹Ø§Ùħ	3755
ĠØ¨Ø§Ø®	7370
ĠÙĨØ¤ÙħÙĨ	2481
ĠØ§ÙĦÙĥÙĪØ§ÙĥØ¨	10278
ĠØ£ØŃØ¨Ø¨Øª	9785
ĠÙģØ§ÙĥÙĩÙĬÙĨ	10127
ĠÙĦÙħØŃ	6101
ĠØ¨Ø§ÙĦÙĩØ¯Ùī	3202
ĠÙĥØ§ÙĨ	159
Ø®Ø§Ùģ	4767
ÙĪØ¬	585
ĠØ§ÙĦÙħØºÙģØ±Ø©	7741
Ø§Ø¹Ø©	749
ØŃÙĬÙħ	1278
ĠØ§Ø®ØªÙĦÙģ	2267
Ø°ÙĦÙĥ	364
ĠÙģØ§Ø®ØªÙĦÙģ	4504
ĠØ§ÙĦÙĪØ§ÙĦ	5586
ĠØ§ÙĦÙĨÙĩÙī	8237
ĠÙĦÙĪØ¬Ø¯ÙĪØ§	8529
ĠØªØ¬ÙĦÙī	8578
ĠØ§ØµØ·	3857
ĠÙĨØ¯Ø±ÙĬ	9533
ĠÙĬØ¤Øª	5181
ĠÙĪØ¥Ø¨Ø±Ø§ÙĩÙĬÙħ	4879
ĠÙĬØªØ³Ø§Ø¡ÙĦÙĪÙĨ	3418
ĠØŃÙģÙĬØ¸	3875
ĠÙĪØ§ØµØ¨Ø±	3375
ÙĦÙĪØ¨	2616
ĠÙħÙĨØ¸Ø±ÙĬÙĨ	7430
ĠÙĬÙĨØªÙĩ	8132
ĠÙģØ¹Ø§ÙĦ	8993
ĠØ¨Ø£Ø¹ÙĬÙĨÙĨØ§	5551
ĠÙĬØºØ§Ø«	8807
ĠÙĦØ³ØªÙħ	9518
ØŃÙĬÙĪØ§	8758
ĠØªØ¹Ø§ÙĦÙĪØ§	3297
ĠÙĬÙĨÙĬ	7321
ĠÙĥÙĨØªÙĨ	8847
Ø§Ø±Ø§	1269
ÙģØ³Ø¯ÙĬÙĨ	1646
ĠÙĬØ±Ø¯ÙĪÙĥÙħ	6702
ĠÙħØ¨Ø§Ø±ÙĥØ©	6885
ĠÙĪÙĬÙĤÙĪÙĦ	2215
Ø§ØºÙĪØª	3024
ØŃØ±ÙĬÙĨ	8458
ĠÙĬÙĥØ³Ø¨	6235
ĠÙĦØ£Ø¸ÙĨÙĥ	8498
ĠØ®Ø§Ùģ	2701
ÙĬØ¯	169
ĠØªØ·Ø¹ÙĩÙħØ§	9532
Ø¨Ø§Ø³Ø·	8371
ĠØ´Ø§Ùĥ	4874
ĠÙĬÙĥØ°Ø¨	2751
ĠÙĪØ§ÙĦÙħØª	6375
Ø¯Ùĩ	1180
ĠÙĦÙĨØŃÙĨ	4260
ĠÙĦØ¯	1106
ĠÙģØ§Ø³ÙĦÙĥ	6563
ĠØ£Ø±Ø¶ÙĨØ§	6694
ĠÙĩÙĬ	826
Ø·ÙĬØ¹ÙĪÙĨ	1211
ĠØ§ÙĦÙĪØ§	1753
ØµÙĦØ¨	4773
ĠØ¨Ø¹Ø´Ø±	8111
ÙĤØªÙĦ	1531
ĠØ§ÙĦØ¨ÙĦØ§Øº	2430
ĠØ£ÙĤØ³ÙħØªÙħ	9504
ĠØ³Ø¬ÙĬÙĨ	9333
ĠØ§ÙĦØ³ÙĬ	1463
ĠÙĦØªØ¹ÙĦÙħÙĪØ§	6344
Ø±Ø§Ø¯ÙĪØ§	7832
ĠÙĬÙĪØŃ	1556
ĠØ²ÙĬÙĨ	1414
ĠÙĨØ¨Ø¯ÙĦ	7633
ĠÙĪÙĥÙģØ±Ø§	5430
ĠØªØºÙĬ	7485
ĠÙģØ£ÙĥØ«Ø±	7950
ĠÙģØ§Ø³	1012
ĠÙĦÙħÙĨ	510
ĠÙħØ³Øª	664
ĠÙĤÙĬÙĦØ§	5788
ĠÙĨØ§Ø¦	7615
Ø¬Ø±ÙĨØ§	6152
ĠÙħØ¹Ø¬Ø²ÙĬ	8101
ĠÙĪØ¹ØªÙĪØ§	8361
ØµØ¯ÙĤØ§	2126
ĠØ§ÙĦÙĩØ¯Ùī	1384
ĠÙĨØ¶ÙĬØ¹	5845
Ø¶Ø§Ø¬Ø¹	6685
ĠÙĬØ¶ÙĬ	7323
ĠÙĪØ§ÙĦØ£ÙĪÙĦØ§	8163
ĠÙĪÙĥØ°Ø¨ÙĪØ§	2607
ÙĤÙĬØ§Øª	7336
ĠÙĪØ§ÙĦØ®	2479
ĠÙģÙĨÙģØ®	9019
ĠÙħØ³ØªÙħØ±	10011
ĠÙĦØ¢Ø¨Ø§Ø¦ÙĩÙħ	8974
ĠØµ	190
ĠØ£ÙĨØª	755
Ø®Ø±Ø¬	367
ĠØŃØ¬	1401
ĠØ§ÙĦÙħØ´Ø±	2906
ĠØŃØ¬Ø©	6657
ĠØ¨Ø£ÙħÙĪØ§ÙĦÙĩÙħ	3062
ĠØ¨Ø¹ÙĬØ¯	1992
ĠÙĪØ¹ÙĨØ¯Ùĩ	6720
ĠÙĪÙĦØ³ÙĪÙģ	9855
ÙĬÙħØ§ÙĨÙĩÙħ	5088
ĠØ£Ø¯Ø¹ÙĪÙĥÙħ	8846
ĠØ§ÙĦØ¹Ø¬ÙĦ	3618
ĠØ¥	73
ĠÙĪØµØ±Ùģ	7161
ĠÙħØ¹Ø±ÙĪØ´	8105
ĠØ¸ÙĦÙħ	677
Ø¶Ø§Ø¡	2325
ĠÙħØ¬	1932
ÙģØ«	7391
Ø¨ÙĤØ§	7189
ĠÙĪØ§Ø²	3013
ĠØ¹ÙħÙĦØª	4332
ĠÙĦÙĦØ¸Ø§ÙĦÙħÙĬÙĨ	2370
ĠÙĬØ¸	1766
ĠØ¹ÙĤØ¨	4017
ĠØ·Ø§ÙĦÙĪØª	8275
ĠÙĪØ£Ø¶ÙĦ	3571
ĠØ§ÙĦØ£Ø³	3593
ĠÙĪØ¢ØªÙī	6360
ĠØ§ÙĦÙĬÙĤÙĬÙĨ	3823
ĠØ¸ÙĦÙħØª	6443
Ø°Ø§Ø¨	207
ĠØ³ÙĨØ¨	6592
ĠÙĬØ¯	412
Ø±Ùģ	663
ĠÙĦØŃÙħ	7304
ĠØ§ÙĦØµØŃÙģ	6099
Ø±Ø¬Ø§ÙĦ	5150
ĠÙĥØ«ÙĬØ±	1487
ĠØ´ÙĤÙĬØ§	5933
ĠØ¨Ø§ÙĦÙĤ	1459
ĠÙĪØ¹ÙĦ	3432
Ø§Ø±Ø©	1464
ĠÙĪØ§Ø®ØªÙĦØ§Ùģ	5413
Ø°ÙĨ	511
ĠÙĦØ³ÙħÙĬØ¹	7317
ÙĤØ§ÙĦ	1854
ĠÙĦÙĬØ¹ÙĦÙħ	4174
ĠÙģÙĥØ§ÙĨØª	4468
ĠÙĪØ¹Ø¯ÙĥÙħ	8690
ĠÙħØ³ÙĦÙħØ©	5289
ĠØ³Ø®Ø±ÙĩØ§	9368
ĠÙĬØ¹Ø±Ùģ	5075
ĠØ¯ÙĬØ§Ø±	1979
ĠÙĪØ£ÙĤØ§Ùħ	7723
ĠÙĪØ£Ø²ÙĪØ§Ø¬ÙĥÙħ	9660
ĠØ¯Ø®ÙĦØª	6835
ĠØ³ÙĥÙĬÙĨØªÙĩ	7006
ĠØ¥ÙĥØ±Ø§	7383
ĠØ¶Ø¹ÙģÙĬÙĨ	6838
ĠÙĤÙĦ	174
ĠØ§ÙĦÙģØ±	2048
ĠÙĪÙĨØ³ÙĬ	8249
ÙĤÙĦØ¨	1150
ĠÙĪØ£ÙĥØ«Ø±	3056
ĠØ¨Ø¨	4700
ĠÙĦØ¢ØªÙĬÙĨØ§	8971
ÙģÙĦ	2655
ĠØ±Ø£ÙĬ	3541
ĠØªØ¬Ø²Ùī	8581
¯	16
ĠÙģØ§Ø³ØªØ¹Ø°	5530
ĠØ§ÙĦÙħØªÙĥ	4083
ĠÙĬØµÙĦÙĪÙĨÙĩØ§	5478
ĠØ³ÙĨØ§	7656
ĠÙĪÙĬØ§	2286
ĠÙĬØ®Ø±Ø¬ÙĪØ§	3786
ĠØ§ÙĦØ¹ÙĦ	7127
Ø³Ø§ÙĨ	1620
ĠØªØ¨Ø§Ø±Ùĥ	3526
ĠØ¹Ø¬ÙĪØ²	9289
ĠØ³Ø¹ÙĬØ±Ø§	3380
Ø¬Ø²ÙĬ	1563
ĠÙĬØ±Ø¬ÙĪ	5010
ĠØ¢ÙĬØ§ØªÙĩ	1124
Ø¨ÙĬØ«	2222
ĠØ¸ÙĩÙĪØ±	5380
ĠØ§ÙĦÙĤØ§Ø±Ø¹Ø©	6048
ĠØ°Ø±ÙĬØªÙĩ	5385
ĠØ§ØªØ®Ø°ÙĪØ§	1479
ĠÙĬØ¬ØªÙĨ	8631
ĠÙĪØ£ÙĥÙĪØ§Ø¨	6741
ĠØ±Ø´Ø¯Ø§	3411
ĠØ³Ø±	1790
ĠÙĥØ«ÙĬØ±Ø©	2419
ĠØ¨Ø§ÙĦÙĪØ§Ø¯	5964
ĠØ¬Ø¦ÙĨØ§Ùĥ	6603
ØªÙħØ¹ÙĪÙĨ	2698
ĠØªÙĪÙģ	2664
ĠØ¥ÙĦÙĩØ§	1825
ĠØ¹ÙĬØ³Ùī	1778
ĠØ¹ÙĦÙĬÙĩÙħØ§	2948
Ø¯Ø®ÙĦ	1432
ĠØ¬Ø¦ÙĨØ§	5281
ĠØ¨Ø§ÙĦÙĨØ°Ø±	4892
ĠØ§ÙĦÙĨØµØ±	6191
ĠØ£Ø¯Ø¹ÙĬ	8845
ØŃÙĤØ§	7405
ĠÙĪÙĤÙĪØ¯ÙĩØ§	10105
ÙĬØ£Ø³ÙĪØ§	10176
ĠÙĪÙĦÙĦ	2347
Ø§Ø¯Ø±	2714
Ø²Ø©	1861
Ø´ÙĬ	940
Ø£Ø°ÙĨ	2192
ÙĬØ§Ø±Ø©	5972
ĠØ´Ø·	5929
ĠØ£Ø¨ÙĦØºØªÙĥÙħ	6863
ĠÙĪØ±ÙģØ¹	2757
ĠØ£Ø±Ø³ÙĦØª	3731
ĠÙģÙĨØ§	3104
ĠÙĦØ¹Ø¨Ø§Ø¯	3326
ĠÙģØ£Ø±Ø³ÙĦ	4158
ĠÙĪØµØ±ÙģÙĨØ§	10187
ĠÙĦØ§ÙģØªØ¯ÙĪØ§	10086
ĠÙħÙĥÙĨØ§	6499
ĠÙĦÙĪÙĦÙĪØ§	7309
ĠÙĪÙĨØŃÙĨ	1892
ĠØ®ÙĦÙĤÙĥ	8278
ĠÙħØ«ÙĦÙĩÙħ	4274
ĠØ£ÙĨÙĩØ§	4054
ĠÙħÙĪØ¯Ø©	4224
ĠÙģØ¹Ø³Ùī	4395
ĠØ§ÙĦÙģØ¬Ø§Ø±	8640
ĠØ¨Ø£ÙĨÙģØ³ÙĩÙħ	4421
ĠÙħÙĨÙĥØ±ÙĪÙĨ	4012
ĠØ§ÙĦÙĦØ§Ø¦ÙĬ	9441
Ø¨ÙĦØ©	6086
Ø·Ø§ÙĨØ§	2135
ĠÙħØ²	4618
ĠÙĦÙĬØ¹Ø°Ø¨ÙĩÙħ	8006
ĠÙĪØªØ¤ÙħÙĨÙĪÙĨ	8151
ĠØ§ÙĨØ¸Ø±ÙĪØ§	6474
ÙħØ§Ø«	7459
Ø§Ø²	1314
ĠØŃØ²Ø¨	3183
ĠÙĪØ§ÙĤØ¹	6111
ĠØªØŃØ²	2000
ĠØ§ÙĦØ¶ÙĦØ§ÙĦ	6841
ĠÙĪØ§ÙĦØ¯Ùħ	4794
ĠØ§ÙĦØ´ÙĩÙĪØ§Øª	7022
ĠÙģÙĦÙĬÙĨØ¸Ø±	5526
ĠÙħØ«ÙĦÙĨØ§	3694
ĠØŃØ±ÙĬØ±	8866
ĠÙĨØ²Ø¯	9362
ĠÙĬØ³ØªØ£Ø°ÙĨÙĪÙĨÙĥ	9888
ĠØ¨ØºØªØ©	2125
ĠØ§ÙĦÙĨØµÙĬØ±	8235
ĠÙģØ¥ÙĨÙĩØ§	6104
Ø°Ø±ÙĪÙĨ	1691
ĠØªÙĥØ°Ø¨ÙĪÙĨ	2586
ĠÙĬØ±ÙĩÙĤ	8186
Ø¨Ø§ÙĬØ¹	8372
Ø²ÙĨØ§	4784
ĠÙĪÙĬØ³ØªØ®ÙĦÙģ	6646
ÙĤØ·Ø¹	7340
ĠØ±ØºØ¯Ø§	7004
ĠØ±Ø£ÙĪÙĩ	8930
ĠØ£ÙĨÙģÙĤ	3554
ĠØ§ÙĦØ¬ÙĨØ©	760
Ø±Ø«ÙĪÙĨ	7124
ĠÙĥØ£Ø³Ø§	9330
ĠØ¬ÙĩØ±Ø©	5919
ØŃÙħØ©	1073
ĠÙĪØ¬	231
ĠØ¨Ø¨Ø¹Ø¶	1773
ĠÙĬØµØ¯Ø±	9449
ĠØ´ØªÙī	7801
ĠØ£Ø·ÙĦØ¹	9631
ØµÙĪØ§	2675
ĠÙĪÙĥØ§ÙĨØª	5102
ĠÙĪØªØ²ÙĩÙĤ	9985
Ø«ÙĦ	1116
ĠÙĪÙĥÙĨØª	4951
ĠØ¹ØµØ¨Ø©	6619
ĠÙĪØ±Ø¶	7138
ĠÙĪØ§ÙĦØ£Ø±Ø¶	356
Ø«Ø¨Øª	2489
ĠØªØ¯Ø¹	3008
ĠØ£ÙĨØ´Ø£ÙĨØ§	5400
ĠÙĪØ³ÙĬÙĤ	8662
ĠÙĪØµØ§ØŃØ¨ØªÙĩ	10157
ĠØ´Ø±Ùĥ	1049
ĠÙĪÙĥÙģ	8020
ĠØŃØ°Ø±	7755
ĠØ§ÙĦØ¹Ø¨Ø¯	7962
ĠÙģØ£ÙĨØ²ÙĦ	6526
ĠÙĪÙĪØ¬Ø¯	4439
ĠØ§ÙĦÙĨØ§ÙĤØ©	6083
ĠØ£ÙĨØ²ÙĦÙĨØ§	941
ÙĤØ§ÙĬØ©	8221
ĠØ£Ø³ÙĪØ©	6403
ĠØ¨Ø®Ø¨Ø±	9158
ĠÙĪØ§ÙĦØ¯ÙĪØ§Ø¨	10233
ĠØ§ÙģØªØ±Ø§Ùĩ	3362
ĠØ§Ø¯	934
ĠÙĬØ³Ø¹Ùī	3707
ĠØªÙĪÙĦÙĬØªÙħ	3040
ĠÙĨØµÙĬØ¨ÙĩÙħ	6773
ĠÙĨØ°ÙĤÙĩ	6548
ĠØªØ¹Ø¬Ø¨Ùĥ	6979
ĠÙĨØ±ÙģØ¹	9606
ĠÙĪÙĤÙĦØ¨Ùĩ	6031
ĠØ§ÙĦÙħØ´Ø§Ø±	7743
Ø¸Ø§ÙĩØ±	9081
ÙħØ§ÙĨ	883
ĠØ§ÙĦØ¨Ø§	7129
ĠØ§ÙĦÙħØ±	5886
ĠØªÙĪØ§Ø¨Ø§	5763
ĠØªÙĨÙĩØ±	8610
ĠÙħØµØ¯ÙĤ	3941
ĠØ£Ø¹ÙĨØ§ÙĤÙĩÙħ	5475
ĠØ¯	180
ĠÙĥÙĨØªÙħ	308
ÙħØ§ÙĦ	1924
ĠÙħÙĦØ©	2631
ĠØµØº	6035
ĠØ£Ø³ÙģÙĦ	6405
ĠØ³ÙħØ¹Ø§	7677
ĠØªÙĤÙĪÙĦÙĪØ§	1916
ĠØ¬Ø¹ÙĦÙĨØ§ÙĥÙħ	8895
ĠØ§Ø³ÙħÙĩ	4461
ĠØ¹ÙĦÙĬÙĥÙħ	340
Ø§Ø±ÙĤ	4910
ĠÙĪØ£ÙħÙĩ	5309
ÙĬØ´	4582
ĠØ£Ø¹ÙħÙī	4367
Ø¯ÙĪÙĨÙĩÙħ	8469
ĠØ§ÙĦØ£ÙĪØªØ§Ø¯	10258
Ø¨ÙĬÙĨ	238
ÙĪØ§Øª	280
ĠØ¥ÙĦÙĬÙĩ	595
ÙĤØ±Ø¨	1623
ĠÙĪÙĤØ¹ÙĪØ¯Ø§	7980
Ø§Øª	114
Ø¯Ø¨Ø±ÙĪÙĨ	7257
ĠØ³ÙĪÙģ	3163
ÙĦØ§ÙħØ§	2193
ĠÙģØªØ¨Ø§Ø±Ùĥ	8321
ÙģØ¹	574
ĠØ¥ÙĬØ§Ùĩ	3061
ĠÙĬÙĥÙģ	4254
ĠÙĤØª	1507
ĠØ¹Ø´Ø±Ø©	4515
ĠØ§ÙĦÙħØ±Ø¡	4846
Ø³Ø®Ø±ÙĪÙĨ	7265
ĠÙĬØ¶Ø±ÙĩÙħ	6748
Ø§Ø	92
ĠÙĪÙĤØ§ÙĦ	351
ĠÙĪØ¢Ø«	6359
ĠÙĬØ¨ÙĬ	5690
ĠÙħÙĬØ«	1387
ĠÙģØ£ÙĩÙĦÙĥ	3207
ĠØ£ØºÙĪ	5291
ÙģÙĩ	2865
ĠØ£Ø®Ø°ØªÙĩÙħ	6560
ĠÙĤÙĪÙĦ	1356
ĠØªØ«	5752
Ø·Ø§	745
ĠØ¨Ø³Ø§	7367
ĠØ£Ø´ÙĥØ±	8791
ĠØ§Ø«ÙĨ	6677
ĠÙĬÙĬØ£Ø³	7332
ĠÙĨÙģØ³Ùĥ	2769
ĠÙĤØ¨ÙĦÙĥ	1080
ĠØ¨ØŃÙħØ¯	2311
ĠÙĪØµØ¯ÙĤ	3921
ĠÙĪÙĬØ±	1425
ĠÙĪØ¨ÙĬÙĨ	1001
ĠØ¥Ø³ÙħØ§Ø¹ÙĬÙĦ	5723
ĠØµØ¯	637
Ø¸ÙĩØ±Ùĩ	4881
ĠØ¸ÙĦ	6188
ĠÙĪØ¹ÙĦÙħ	2841
ĠØ£ÙħØ±Øª	3304
ÙĩÙĪÙĨ	862
Ø¯Øª	1686
ĠØªØ¸ÙĦÙħÙĪÙĨ	4026
Ø³Ø·ÙĪØ§	6504
ĠÙĥØ§ÙĦÙħ	6532
Ø±ÙĬÙĩÙħ	6064
ĠÙĤØ¨ÙĦÙĩÙħ	800
ĠÙĪØŃØ´Ø±	6471
ĠÙĪØ£ÙĤØ±Ø¶ÙĪØ§	9231
ĠÙĪÙĩØ¯ÙĪØ§	7157
ĠØ§ÙĦØ®Ø§Ø¦ÙĨÙĬÙĨ	8424
ĠÙĦÙħØŃÙĬØ·Ø©	10282
ĠØ§ÙĦØ£Ø±Ø§Ø¦	4117
ÙĦØ§ÙĦØ§	3006
ÙĩÙħØ§	425
ĠÙĨÙĨÙĤØµÙĩØ§	9651
ĠÙĤØ¨	682
ĠØ§ÙĦØ³ØŃØ§Ø¨	7874
ĠÙĪØ¬Ø¨Ø±ÙĬÙĦ	8073
ĠØ¨Ø¹ÙĬØ³Ùī	8114
ĠØ³ÙĪÙĦØª	7005
ĠØ¶ÙĦØ§ÙĦØªÙĩÙħ	8985
ĠÙĪØ¥ÙħØ§	1968
ĠØ§ÙĦÙĥÙģØ±	2223
ĠØ£ÙĨØ¨Ø§Ø¡	2888
ØªÙī	306
ĠÙģØ¸ÙĦÙħÙĪØ§	7293
Ø§ÙĦÙħ	5577
§	9
ĠÙħØ®Øª	9195
ĠØ£Ø³ÙģØ§	6401
ĠØªÙĦÙĤØ§Ø¡	6794
ÙĥÙĩÙħ	5610
ĠØ³Ø¨ÙĤØª	3356
ĠÙĪØ±Ø¨ÙĬ	6290
ĠÙĪØªÙĥÙĪÙĨÙĪØ§	8157
ĠÙĬØ¬Ø±ÙħÙĨÙĥÙħ	7000
ÙħØ±Ø§Øª	2103
ÙĩÙħ	72
ĠØ£ÙĪØ«Ø§ÙĨØ§	7873
ĠØ¥Ø°	337
ĠÙģØ¢Øª	4437
ĠØ§ÙĦÙĤÙĬÙĪÙħ	6044
ĠØ±Ø¬Ø¹	6415
Ø§Ø´Ø§	9008
ÙĤØ¯Ø³	4957
ĠØ§ÙĦØ±Ø¬Ø¹	7910
ĠØ£ÙĪØªÙĬØªÙħ	4445
ĠÙĦØ¹ÙĦÙħ	7300
ĠØ´Ø§Ø¡	758
ĠØ³Ø±Ø§Ø¨ÙĬÙĦ	9366
ĠØ´Ø¹ÙĬØ¨	5365
ĠÙĤØ§ØµØ±Ø§Øª	6957
ĠÙģØ£Ø®Ø±Ø¬	2354
ĠØ£Ø¹Ø¨Ø¯	2122
ĠØ£Ø¨Ø§ÙĨØ§	3401
ĠØºÙĦÙģ	8038
ĠÙĬÙĦÙĤÙī	6733
ĠÙĬØ¹ÙĦÙħÙĩØ§	8294
ĠÙĦØ¹ÙĦ	484
ÙĤÙĬØª	5697
ĠÙĤØªÙĦØª	6683
Ø¤	154
ĠØ£Ø¨ÙĪØ§Ø¨ÙĩØ§	6820
ÙĥÙĬÙĩÙħ	3436
ĠÙĬØ³ØªØºÙĬØ«	8457
ĠØ«ÙĦØ§Ø«Ø©	2423
ĠÙģØªØŃØ±ÙĬØ±	6227
ĠÙĬÙĦØŃÙĤÙĪØ§	9815
ĠØªÙĤØ±Ø¨ÙĪØ§	4323
ĠÙĪØ£Øµ	1027
ĠÙĬØ¯ÙĬ	2386
Ø¹Ø¯ÙĪØ§	1713
ĠØ§ÙĦÙħÙĬØªØ©	5419
ĠÙĪØ§Ø´ÙĩØ¯	9325
ĠØ²Ø§Ø¯ÙĩÙħ	6900
ĠØ§ÙĦÙĨØ®ÙĦØ©	9991
Ø³ÙħÙī	1407
ĠØ§ÙĦÙĨØ¬ÙĪÙī	5433
ĠØ§ÙĦØŃÙĨØ§Ø¬Ø±	7933
ĠØ§ÙĦÙģÙĪØ§ØŃØ´	8641
Ø£ÙĪØ§ÙĩÙħ	2270
ĠØ±Ø§	2200
ĠØ¨Ø¹Ø¯ÙĬ	5005
ĠÙģØ¶ÙĦÙĩ	1212
ĠÙĬØª	265
ĠÙĬÙĤØ¶Ùī	8736
ĠØ«Ø¹Ø¨Ø§ÙĨ	10270
ĠÙĥØ¯	4748
ĠØ§ÙĦÙģØ§Ø³ÙĤÙĬÙĨ	2421
ÙĪÙĩÙħ	545
Ø²ÙĦÙĪØ§	5820
ĠØ§ÙĦÙħØ³ÙĥÙĬÙĨ	5220
ÙĪÙĤ	687
ØºÙĪ	2910
ĠÙĬÙĨØ¸Ø±ÙĪØ§	8133
ĠÙħØŃØ¬ÙĪØ±Ø§	9073
ÙĤØ¯ÙĪÙĨ	6071
ĠØ¨Ø±ÙĩØ§ÙĨ	6877
ĠØ£Ø¹Ùħ	808
ÙĦÙĪÙĥ	7078
ĠÙĪØ¢Ø¨Ø§Ø¡ÙĩÙħ	6818
ĠÙĬÙĪÙħØ¦Ø°	676
ĠÙĪØ§ÙĦÙĪÙĦØ¯Ø§ÙĨ	7606
ÙĦØ§ÙĤ	1443
Øµ	97
ĠØ§ÙĦÙħÙĩØ§Ø¯	4084
ĠÙĪØ§ÙĦÙħÙĨØ§Ùģ	4315
ĠØ£ÙĪÙĦØ§Ø¯ÙĩÙĨ	9235
Ø®ÙĦØµÙĬÙĨ	1920
ÙģÙĤ	1624
ĠÙĬØŃØ²	1523
ĠØ£ØµØ¨	8491
Ø²ÙĤ	487
ĠÙħÙĬØ«Ø§ÙĤÙĩ	9307
ĠÙħÙģØ±ÙĪØ¶Ø§	10042
Ø§Ø¹Ùģ	3068
ĠÙĦÙĪ	459
ĠÙĨÙģØµÙĦ	4391
ĠØ§	199
ĠØ§ÙĦÙħ	128
Ø¹Ø¯ÙĩÙħ	2713
ĠÙĦÙĩØ¯Ø§ÙĥÙħ	9933
Ø£ØªÙħ	5736
ĠØªÙĪÙĦ	5753
ĠØ§ÙĦØ±Ø¹Ø¨	4903
ĠÙĬØªÙĪÙĥÙĦ	6120
ĠØ¬ÙĨØ¨Ø§	9124
ĠÙĤØ±Ø¢ÙĨ	4761
ĠØ§ÙĦØ¬ØŃÙĬÙħ	1372
ĠÙĦÙĦØ¯ÙĬÙĨ	6133
ĠØ£Ø±Ø¨	1615
ĠØ¨Ø°ÙĥØ±	4705
ĠØ¨Ø®ÙĦØ§ÙĤÙĩÙħ	10159
ĠØºØ§ÙģÙĦÙĪÙĨ	3870
ĠÙĬØ³Ø§Ø±Ø¹ÙĪÙĨ	3709
ĠÙĦØ¯ÙĬÙĨØ§	4408
ĠÙĬØ¯Ø®	2004
ĠØ³ÙĤØ±	4818
ĠØ£ÙħÙĨ	1498
ĠÙħØ³Ø·ÙĪØ±Ø§	10141
Ø±Ø³ÙĪÙĦÙĩ	4967
ĠÙĩØ§Ø¬Ø±	9140
ĠÙĬÙĪÙħØ§	1830
ĠÙĬØ®Ø±ØµÙĪÙĨ	6949
ĠÙĪÙĤØ·Ø¹	7974
ĠÙĥØ°Ø¨ÙĪÙĨ	6332
ĠØŃÙħØ¥	6492
ĠÙħØªØ§Ø¨	7200
Ø§Ø´Ø¹ÙĬÙĨ	9010
ĠÙĪØ£Ø¨	1869
ĠØµØ¯Ø±Ùĩ	6425
ÙģØªÙħ	2461
ĠÙħØ³ØªÙĩÙħ	6432
Ø¶ÙĦÙĪÙĩÙĨ	8400
ĠØ§ÙĦØªÙĪØ§	3080
ĠØ·Ø±ÙĬÙĤØ§	10132
ĠÙģÙĦ	303
ĠØ´ÙĥÙĪØ±Ø§	6605
Ĩ	37
ĠØªØ³Ø¹Ùī	6480
ĠØ£Ø¯	780
ĠÙĦÙĬ	196
ĠÙĬÙĪÙģÙĪÙĨ	9637
ĠØ¹Ø¨Ø§Ø¯ÙĨØ§	2395
ĠØ¨Ø§ÙĦØ¯ÙĬÙĨ	5959
ĠÙĪÙĦØªØ·ÙħØ¦ÙĨ	9064
ĠØ¨Ø·Ø§Ø±Ø¯	9105
ĠÙĬÙĪØµÙĦ	6393
Ø¬ÙĦ	971
ĠØ§ÙĦÙĥØ§ÙģØ±ÙĪÙĨ	1717
ÙĩØ±Ùĩ	4307
Ø·ÙĦÙĪÙĨ	7685
ĠØ§ÙĦÙħØ´Ø±ÙĥÙĬÙĨ	1321
ĠÙĤÙĦØª	4149
ĠØ¹ÙĦÙĬÙĨØ§	804
ĠØªÙĨØ¸Ø±ÙĪÙĨ	3303
Ø³ÙĦÙĪØ§	5655
ĠÙĬØ´Ø¥	8201
Ø¸ÙĦÙħ	604
ĠØªØ³Ø¤ÙĩÙħ	8831
ĠØªØ®Ø´	3743
ĠØ¶Ø±Ø¨Ø§	9239
ĠÙĪØ«	3431
ĠÙĬØªÙĪÙģ	2230
ĠØªÙģØ±ØŃÙĪÙĨ	9599
ĠÙģØ£ÙħØ³ÙĥÙĪÙĩÙĨ	7060
ĠØªØªÙĪÙģØ§ÙĩÙħ	8533
Ø·	117
ÙĪØ±Ø§Ø©	1658
ĠØ¨Ø±Ø§Ø¡Ø©	10153
ĠÙĪØ§Ø³Ø¬Ø¯	9170
ĠØ¬Ø§Ø¡ÙĪÙĥ	4226
Ø¹ÙħØª	4906
ĠØ§ÙĦÙħØ±Ùģ	7738
ĠØ£Ø±Ø£ÙĬØª	2781
ĠØªØ´ØªÙĩ	8832
ĠØ¶	353
ĠÙħØ´ÙĬØ¯	9308
ĠÙĨØµÙĬØ¨Ø§	3016
ĠØºÙĨ	4958
ĠÙĥÙģØ§Ø±Ø©	6811
ĠÙģÙĤØª	7279
ĠØ§ÙĦÙĤØ¯ÙĬÙħ	9495
ĠØ«ÙĪØ§Ø¨Ø§	4908
Ø±Ø§ÙĩØ§	5952
ĠØ§ÙĦÙħØ®ÙĦÙģÙĪÙĨ	7051
ĠÙĬÙĦØªÙģØª	9816
Ø¯Ø®ÙĦÙĩÙħ	3371
ĠÙĦÙĨØ¹ÙĦÙħ	5071
ĠÙĪÙģÙĬÙĩØ§	6547
ĠÙĬØ¶ØŃÙĥÙĪÙĨ	6566
ÙĤØ·Ø¹ÙĪÙĨ	6735
ĠÙĬØ³ØªÙĨ	8449
ĠØ§Ø·	4575
ĠÙĬØ¤Ø®Ø°	5182
ĠÙģØ£Ø¹Ø±Ø¶ÙĪØ§	6018
ĠØ±Ø¤ÙĬØ§ÙĬ	10073
ĠÙĬÙħØ³	1503
ĠØªØ£ÙĥÙĦ	3363
ĠÙĪØ§ÙĦÙĤØ±Ø¢ÙĨ	4400
ĠÙĪØ±Ø¶ÙĪØ§ÙĨ	4503
ĠÙĥÙĬØ¯ÙĩÙħ	6682
ÙĬÙĤØ§	2168
ÙĪØªÙĬ	7108
ĠØªØ³ØªÙĥØ¨Ø±ÙĪÙĨ	6558
ĠØ¨Ø§Ø¨Ø§	7372
ĠØ¬Ø¯ÙĬØ¯	2912
ĠÙĤØ¶ÙĬØªÙħ	9643
ĠØ§ÙĦÙħÙĥØ±ÙħÙĬÙĨ	9963
ĠÙģØ§ØµØ¨Ø±	2424
ĠØ¨Ø¶Ø±	4706
Ø¹Ø«	5637
ÙĨØ§Ø±	7453
ÙĪÙĥÙĦÙĪÙĨ	2987
ĠÙħØºØ±ÙĤÙĪÙĨ	6909
ĠÙģØ³ÙĪÙĤ	8669
ĠØ§ÙĦØ£ÙĨÙĩØ§Ø±	895
ĠÙĥØ£ÙĨ	1313
ĠØ¨Ø§ÙĦØµØ§ÙĦØŃÙĬÙĨ	9609
ĠØ¨ØµÙĬØ±Ø§	1917
Ø¯Ø§Ø¯Ø§	3100
ĠØ³Ø¹Ùī	6697
ĠÙħØ´Ø±Ùĥ	4622
Ø¯Ø§Ø¯ÙĪØ§	3957
ĠÙĥØ¹	7510
ĠÙħØªØ§	1240
ØºÙĨÙī	4092
ÙħØ±Ø£	1230
Ø®ÙĪØ§ÙĨÙĩÙħ	3815
ÙģÙĬÙĨØ©	5280
ĠØ³ÙĨØ¯Ø®ÙĦÙĩÙħ	9059
Ø±Ø³	222
ĠÙĬØ±Ø¬Ø¹ÙĪÙĨ	1410
ĠÙĪØ£ÙĩÙĦÙĩ	3050
ĠÙĪØ§ÙĦÙĨØ¬Ùħ	9895
Ø§ØªÙĦÙĪØ§	1866
ĠÙĪØ§ÙĦØµØ§Ø¨	5304
ĠØ´ÙģÙĬØ¹	4112
ĠÙģØªØ«ÙĬØ±	8324
ĠØŃØ³Ø§Ø¨ÙĬÙĩ	9341
ØŃÙħØ¯	1651
ĠÙħÙĨÙĥÙħ	474
ĠÙĪØ¬ÙĬÙĩØ§	8071
Ø§Ø¨ÙĬÙĦ	4811
ĠØ³ÙĬØµÙĬØ¨	6421
ØŃØ¯ÙĪØ§	7408
ÙĨØ§ÙĨØ§	7454
ĠÙĬØµÙĨØ¹ÙĪÙĨ	4347
ĠØ¥ÙĦÙĩÙĥ	8587
ĠØ§ÙĦØ±Ø§ØŃÙħÙĬÙĨ	3881
ÙģØªÙĪÙĨÙĥ	8403
ÙĥØ´Ùģ	7177
ĠÙĪØ¨ÙĬÙĨÙĥÙħ	2589
Ø¬Ø¨	5769
ĠÙĪØ§ÙĦÙħÙĦÙĥ	8632
ÙĬØŃØ©	2142
ÙĦÙħØ§ØªÙĩ	3751
ĠÙħÙĤØ±	4624
ØªÙģÙĥ	5617
ĠÙĬÙĤÙĪÙħ	4337
ĠØ§ÙĦØ¸Ø§ÙĦÙħ	8464
ĠØ¢ÙĨØ§Ø¡	5871
ĠÙĪØ¶ÙĦ	2844
ØªÙĩÙĪØ§	2743
ĠØ²Ø±Ø¹Ø§	6936
Ø¬Ø§Ø±Ø©	3530
ĠÙĬÙĦÙĩ	7318
ÙħÙĬØ±Ø§	7092
ÙĩÙĦÙĩ	3913
ĠØ¨Ø§ÙĦÙħØ¬Ø±ÙħÙĬÙĨ	9263
Ø±ÙĪÙĨ	164
Ø¹ØªÙĩÙħ	3459
ĠØºÙģÙĪØ±Ø§	1522
ĠÙĬÙĨÙĩÙĪÙĨ	6128
ĠÙħØªØ¨Ø¹ÙĪÙĨ	7217
ÙģØ¹ÙĪÙĦØ§	3316
ĠÙĨÙģ	991
Ġ	31
ĠÙĪØªÙĪØ§ØµÙĪØ§	4996
ĠÙĦØ£Ùĥ	8495
ĠØ¹ØªÙĬØ§	9763
ĠÙĬØ³ØªÙĨÙĥÙģ	10137
ĠÙĨÙĪØ±ÙĩÙħ	7630
ÙĦÙĥÙħ	523
Ø§ÙģØ¸ÙĪÙĨ	2816
Ø§Ø³ÙĬØ©	9042
ĠÙĪØªÙģØµÙĬÙĦ	9987
ÙĩØ¯ÙĬÙĨ	6041
ĠØ®Ø¶Ø±	4867
ĠÙĪÙĤØ¶	6026
ĠØ´Ø·Ø·Ø§	10089
ĠÙĪØ§ÙĦÙħØ±	4793
ĠÙĬØ£ØªÙĬÙĩÙħ	1906
ĠØ³ÙĨÙĦÙĤÙĬ	9060
ĠØ°Ø±ÙĬ	1879
Ø¸Ø©	2345
ĠØ£ÙĨØ²ÙĦÙĩ	5834
ĠØ¯Ø¹Ø§Ø¡	3045
ĠØµØ±ØµØ±Ø§	8869
ĠØ´Ø¦ØªÙħØ§	9908
ÙĤÙĥÙħ	7333
ĠÙĦØ¹ÙĨÙĩ	8756
ØŃÙĨ	518
ĠÙĪØ§ÙĤ	4201
ĠÙĪØºØ±	2845
ĠØªÙĬØ³Ø±	7498
ĠÙĪÙĬØ¤	2351
ĠÙĬÙĤØªÙĦÙĪÙĨ	3483
ĠÙĦØªØ±ÙĪÙĨ	8566
ĠÙĪÙĥÙħ	2625
Ø¯Ø¹	1852
ĠØ£ÙĩÙĦÙĩØ§	1819
ĠØ¨Ø±Ø¨	1109
ĠÙĦÙĬÙĥÙĪÙĨ	4940
ĠÙĦØ£ÙĩÙĦÙĩ	6306
ĠØ´ÙĨØ¢ÙĨ	7807
ĠÙģÙĤÙĬØ±Ø§	8618
ÙģÙĦØ§	7389
ĠÙħØ³ÙħÙī	1431
ĠÙĤØ±	1444
ĠÙħØ³ØªÙĤ	2398
Ø´Ø¯	3150
ĠØ£Ø¦ÙħØ©	4532
ĠÙħÙĬØª	3453
ĠÙĪØ§ÙĦØ³ÙħØ§Ø¡	2800
ĠØµØ§ÙĦ	7981
ĠÙħÙĬØªØ§	3942
ĠØ¨ÙĤØ±Ø©	5504
ĠÙĪØ®ÙĬØ±	6596
ĠÙĦÙĬÙĨØ°Ø±	5425
Ø±Ø§Ùĥ	1253
Ø³ÙħÙĪØ§	3231
ĠØ¹ÙĨÙĥÙħ	1326
ĠØªØµÙģÙĪÙĨ	5247
ÙĪØ±	208
ĠØ£Ø¯Ø¨Ø§Ø±ÙĩÙħ	6984
ĠØ¥Ø®ÙĪØ§ÙĨØ§	9597
ĠØ¯Ø§ÙħØª	10100
ĠÙĪÙĬÙĤØªÙĦÙĪÙĨ	4141
Ø´ÙĬØ§	4053
Ø¨Ø§Ø±Ø§	3280
ĠÙĪØ¹Ø¯Ø§	3318
ĠØ£ØŃØ¯ÙĩÙħ	3340
ĠØ§ÙĦØ³ÙħØ§Ø¡	468
ĠØ°ÙĥØ±Ùī	3748
ÙĦÙĥ	118
ĠØ¨Ø³Ø·	4707
ØµØ¯Ø§	7551
ĠØ£ÙĨÙģØ³ÙĨØ§	8509
ĠÙħØ³Ø¦	4300
ØºÙĪÙĨ	1637
ĠÙģÙĦÙĬØµ	8881
ĠÙĦØ¨Ø´Ø±	5250
ÙĦØ§ÙĨÙĬØ©	4740
ÙĨÙĬÙĩ	8050
Ø§ÙĦÙħÙĪÙĨ	1022
ĠÙĥÙĦØ§	955
ĠÙĪØ®ÙĦÙĤØªÙĩ	9559
ĠØªÙĦÙĤ	2194
ĠØ¨Ø¢ÙĬØ§ØªÙĬ	5142
ĠØ¨ØµØ§ØŃ	9132
ĠÙĦÙĬØ³Ø¬ÙĨ	8836
ĠØ§ÙĦØ±ÙĬØ§ØŃ	2509
Ø¹Ø¨Ø¯ÙĪÙĨ	3011
Ø¨ÙĨÙĬ	3086
ĠØ®Ø·	1797
ĠØªÙĤÙĬØ§	6397
Ø¹Ø±	1104
ĠØ¹Ø°Øª	7450
ÙĬÙĪÙĨ	2167
ÙĩØ±	490
ĠÙĪØ§ÙĦØ¯ÙĪØ§	7597
ĠÙĪÙĬÙĨØ²ÙĦ	4434
ĠØ³ÙĦØ·Ø§ÙĨ	1915
ĠÙĬÙĥØªÙħÙĪÙĨ	4255
ĠØ£Ø±Ø¬ÙĦÙĩÙħ	6843
Ø§Ø¦Ø·	8063
ĠÙĦÙĬÙĨ	2305
ĠÙĦÙĬÙĥÙĪÙĨÙĪØ§	8005
ĠØ§ÙĦÙĤØ¨ÙĪØ±	4172
ĠØ§Ø³ØªÙĥØ§ÙĨÙĪØ§	10013
ĠÙĪØªÙĪÙĥÙĦ	3248
ÙĪØªÙĥ	5091
ĠØ§ÙĦØ®ÙĦØ§ÙĤ	8421
ĠØ¨ÙĬÙĨÙĥÙħ	1165
ĠØ§ÙĦØ£Ø³ÙģÙĦÙĬÙĨ	10091
ĠØ«Ø§ÙĨÙĬ	7921
Ø¨Ø¹ÙĪÙĨ	1681
ĠØ£ÙĪÙĦÙĬØ§Ø¤ÙĩÙħ	8811
ĠÙĬØ¹Ø°Ø¨	2752
ĠÙĦØµØ§Ø¯ÙĤÙĪÙĨ	5463
ÙĪÙĪÙĨ	5571
ĠØ§ÙĦÙģØ§Ø³	1545
ĠØ®Ø§ÙĦØ¯ÙĬÙĨ	879
ĠØ§ÙĦØµØ¯ÙĤØ§Øª	3806
ĠÙĦØµ	2857
ĠØ¸Ùĩ	1818
ĠÙĥØ¨Ø§Ø¦Ø±	5782
ĠØ³ÙħÙĬ	2897
ĠØ	46
ØªÙĩ	327
ĠÙĦÙĪØ§	3109
ĠÙĦØ°ÙĪ	2858
Ø¬ÙĨ	1312
ĠÙĦÙĦØ®Ø¨ÙĬØ«	10121
ĠØªØ¸Ø§ÙĩØ±Ø§	9767
ĠÙĨØ®	2076
ĠÙħÙĩÙĬÙĨØ§	5445
Ø´ÙĤÙī	7581
ĠØ±Ø¨ÙĬ	513
ĠÙģØ§Ø³ØªÙħØ¹ÙĪØ§	8989
ÙĬØ¡	5567
Ø¬ÙĦØ§	7501
Ø§ÙĤØ©	2759
ĠØ£ÙĪÙħÙĨ	7867
Ø¦ÙĪÙĨ	1250
ĠÙĪØ¹ØµÙī	8365
ĠØ§Ø³ØªÙĪÙī	2767
ĠÙģÙĦÙĬØ¹ÙħÙĦ	8882
ĠØ²ÙĦ	4271
ĠÙģØ¬Ø§Ø¬Ø§	9085
ĠØ«ÙĦØ§Ø«	1581
ĠÙħØ·ÙĦØ¹	9686
ĠÙĪØ±Ø³	550
ĠÙĪØ¥Ø«ÙħØ§	5946
ĠÙĨØ´ÙĪØ±Ø§	6591
ĠØ§Ø¹Øª	2357
ĠØ£ÙĪØ±Ø«	5975
ØªÙĨØ§ÙģØ³	8732
ĠÙĪØ§ÙĦØ·	2203
ĠØªÙĤÙĪÙħÙĪØ§	9466
ĠÙĥØ³Ø¨	972
ĠÙħÙĦØŃ	7206
ÙģÙĤØ§	4000
ĠØªØ¯Ø¹ÙĪØ§	6442
ĠØ£Ø¨ØµØ§Ø±	2018
ĠÙĬØ³ÙĬØ±ÙĪØ§	3293
ĠØ¨ÙĤØ±Ø§Øª	9756
ĠÙĥÙĦÙĩÙħ	6094
ĠÙĪØªØ·ÙħØ¦ÙĨ	8158
ĠØ¨ÙĪØ±	7356
ĠØ¨Ø§ÙĦØŃÙĥÙħØ©	7856
ĠØ£Ø¨ÙĬÙĥÙħ	5446
ĠØ£ÙĤ	821
ĠØ§ÙĦØªÙĤÙī	6529
ĠÙĪØªØ¯	8147
ĠØ±Ø¨Ø§	7707
Ø±ØŃØ§Ùħ	3355
ĠÙħØ¬ÙħØ¹	9408
ÙĩØ¯ÙĪÙĨ	2518
ÙĩØ²Ø¦ÙĪÙĨ	1840
ĠØ³ÙĬØ±ÙĪØ§	4070
ĠØ±Ø¯ÙĪØ§	5807
ĠÙĪØ¢Øª	3305
ĠÙĥÙĬØ¯ÙĥÙĨ	9258
ĠØ¨Ø¥Ø°ÙĨÙĩ	2798
ØªØ¹	4616
ĠØ£ÙĩÙĦÙĩ	1998
ĠØ§ÙĦÙĥØ±	3428
ĠØ§ÙĦÙħØ¹ÙĦ	7734
ĠÙħØ¤ÙħÙĨØ©	3839
ĠØ¨Ø§ÙĦØŃØ³ÙĨÙī	6871
ĠØŃØ¨Ùĩ	7758
ĠØªØªØ®Ø°	5118
ĠØ£Ø¬Ø§Ø¬	8407
ĠÙħØ³ÙĥÙħ	8513
ĠÙĪÙĤÙĪÙħÙĩÙħØ§	9237
ĠØ«ÙĤÙģØªÙħ	9546
ĠØ¨Ø£ÙħØ±	1725
ĠØ§ÙĦØºØ§Ø¨Ø±ÙĬÙĨ	3295
ĠÙĪÙħÙĦØ§Ø¦ÙĥØªÙĩ	4573
Ø·ÙĩØ±ÙĥÙħ	6698
ĠØ§Ø³ØªÙĥØ¨Ø±	8559
Ø¶ÙĪÙĨ	1952
Ø£ÙĪØ§	1393
ĠÙģØ§Øº	3107
Ø§ÙĨ	103
ĠÙĬØºÙĨÙĪØ§	5197
Ø®Ø°ÙĪØ§	806
ĠØ£Ø¨ÙĨØ§Ø¡	1903
Ø¹Ø±Ø¶	2182
ĠØ®ÙĬØ§ÙĨ	7796
ĠØªÙĥØªØ¨	8479
ĠØªÙĨØªÙĩÙĪØ§	8615
ĠÙģÙģØ±	7270
ĠØ§ÙĦÙĤØ¯Ø³	5421
Ø´Ø±ÙĩÙħ	2099
ĠÙĬØªÙĪÙģØ§ÙĥÙħ	5423
ĠÙĦÙĬØ¬ÙħØ¹ÙĨÙĥÙħ	10275
ĠÙĥØ±ÙĬÙħØ§	5540
ĠÙĪØ§ÙĦÙģÙĪØ§ØŃØ´	10234
ĠÙĪØ£Ø±Ø³ÙĦ	7722
ĠÙĪÙĨØ¹ÙĦÙħ	8244
ÙĥÙĦÙħØ§	7174
ĠØ³ÙģØ±	3162
ĠÙģØ¨Ø¦Ø³	3320
ĠÙĪØ£ÙĬØ¯ÙĬÙĥÙħ	5441
ĠØ§Ø¬	2356
ĠØ®Ø§Ø´	2499
ÙĤØ¹Ø©	5698
ĠØ®Ø§Ø³	5924
ĠØ³Ø¨Ø¹Ø©	6670
ĠØ§ÙĦÙĦÙĩ	91
ĠØ¹Ø¯ÙĪØ§	1949
ĠØ§ÙĦØ¬Ø§ÙĩÙĦÙĬÙĨ	3860
ĠØ³Ø±Ø§Ø¬Ø§	6765
ĠØ£Ø¨ÙĪØ§Ø¨	2396
ĠØ³ÙĥÙĨØ§	9772
ĠÙĪÙģØ±Ø¹ÙĪÙĨ	4476
ĠÙģÙĦÙĬÙĨ	4234
ĠÙĬÙĪÙģ	2859
ĠÙĪÙĬØºÙģØ±	2508
ĠÙĬØ®ØªØµ	3702
ĠÙģØ±ÙĪØ¬	8443
Ø¬ÙĪÙĨ	1781
ĠÙĪÙĥÙĬÙģ	4182
ĠÙĩÙĪ	235
ĠÙĥØ§ÙĨÙĪØ§	267
ĠØ¨ÙħØ§	220
Ø¦ÙĨÙĩÙħ	7705
ĠÙģØ§ÙĥØªØ¨ÙĨØ§	10129
ĠØ¨Ø±Ø¨ÙĨØ§	9054
ĠØ§ÙĦØ´ÙĬ	596
ÙģØ¦	2866
ĠÙĬÙĩØ¯ÙĬ	823
ĠØ§ÙĦØ¯ÙĨÙĬØ§	446
ÙĤØªÙĦÙĪÙĨ	1730
ĠÙĨÙĨØ¬	4063
ĠØªÙħØ³ÙĪÙĩÙĨ	6780
Ø§Ø¦ÙĩÙħ	1586
ĠØ£ÙĦÙĪØ§ÙĨÙĩ	5482
ĠÙĪØ¬Ø§Ø¡Øª	6625
ÙĪØ¹Ø¸Ø©	3804
ĠÙĪÙĪÙģ	7144
ĠØ§ØªØ®Ø°ØªÙħ	5285
ĠÙĪÙĤÙĦÙĨØ§	3621
ĠÙĪÙĬØŃ	1880
ĠÙĦÙĬØ¯Ø®ÙĦ	6915
ĠØªÙģØ¶ÙĬÙĦØ§	8921
ĠÙģ	64
Ø³ÙĤÙĬÙĨØ§ÙĥÙħ	9693
ĠØ±ÙĤ	2201
Ø§ÙĩØ¯	722
Ø¹Øª	779
ĠØ¯ÙĬÙĨØ§	4921
ĠÙħÙĪÙĤÙĨÙĬÙĨ	9879
ĠÙĬØŃÙħÙĦÙĪÙĨ	10123
ĠØ³ÙĨÙĥ	7674
ĠÙĦØªØ®Ø±Ø¬	6342
ĠØ±Ø³	352
ĠØµÙĦØ§Ø©	7987
Ø±Ø¨Ø©	8052
ĠØªØ³Ø±ÙģÙĪØ§	9943
ĠØ°Ø±ÙĬØªÙĩÙħ	5386
ĠØº	212
ĠÙĬØ´Ø±ÙĥÙĪÙĨ	1557
ĠÙĬØ±ÙĬØ¯ÙĪÙĨ	2136
ĠÙģØ£ÙĪØŃÙī	6971
ÙħÙĥÙħ	5563
ĠÙĦÙĬØ³Øª	3218
ĠÙĪØµÙĬØ©	3797
ĠØ¬ÙĪØ§Ø¨	4863
ĠØ¶Ø±Ø¨ÙĪØ§	6674
ĠØ¢ÙħÙĨÙĪÙĨ	8035
ĠÙħØ§Ø¦ØªÙĬÙĨ	9470
ĠÙĪÙĪÙĩ	2843
ĠØ¹Ø¸	1352
ĠØ§ÙĦØªÙĨÙĪØ±	8912
ĠØ®Ø§Ø¦ÙĨØ©	9778
ĠÙĪØ§ÙĦØ¥ÙĨØ³	2809
ĠØ³Ø¨ÙĤ	3798
ĠØ£Ø¸	4636
ĠØªØ¹ÙĦÙĪØ§	7493
ĠØ§ÙĦØ¯ÙĪØ§Ø¨	8210
ĠÙĪÙĨØµØ±ÙĪØ§	8254
ĠØ±Ø²ÙĤÙĩØ§	6520
ĠØ§ÙĦØ£ØµÙĪØ§Øª	10090
ĠÙĬØŃÙĬÙī	4397
ØµØŃÙĬÙĨ	5805
ĠØ®ÙĦÙĤÙĥÙħ	1653
ĠÙħÙĪØ¹Ø¸Ø©	6154
Ø¨ÙĬØ±Ø§	1085
ĠØ§ÙĦØŃØ±ÙĬÙĤ	4155
ĠØ£ØŃÙĬØ§	4236
ĠÙħØŃØµ	5273
Ø±ÙĬØ¶	6066
ĠÙĩØ§ÙħØ§ÙĨ	9141
ĠØ¥Ø¨Ø±Ø§ÙĩÙĬÙħ	700
ĠØ§ÙĦÙħÙģ	2080
ĠÙĬØ¹Ø¨Ø¯	2753
Ø¹Ùħ	170
ĠÙĬÙħÙĦÙĥ	1670
ĠØ¬Ø§Ø¡ØªÙĩÙħ	1650
ĠÙĬØ³ØªÙħØ¹	6299
Ø¹Ø¯	167
ĠØºÙĦØ§	8036
ĠØªØ±ÙĩÙĤ	8228
ĠÙĬØ¹Ø±ÙģÙĪÙĨ	3687
Ø¸Ùħ	2706
ĠØ§ÙĦØ¥ØŃØ³Ø§ÙĨ	8624
ĠÙĦÙģØ³Ø¯Øª	9934
ĠÙĪØ¨Ø§ÙĦ	1659
ĠÙħØ¹Ø¯	3089
ĠÙģØ§Ø³ØªØ¬Ø¨ÙĨØ§	5531
ĠØ«ÙħØ§	4148
Ø§ÙĪ	1173
ĠØ¨Ø¥Ø³ØŃØ§ÙĤ	8864
ĠÙĤØ±Ø¨Ø§ÙĨØ§	9830
Ø¯Ø¹ÙĪÙĩÙħ	6746
ĠØŃØ³ÙĨØ©	1707
ĠÙĨØµØ±ÙĩÙħ	6655
ÙĪØ¨ÙĩØ§	8130
ĠØºØ±	2224
ĠÙĪÙħØ£ÙĪØ§	4281
ĠÙĪØ§ÙĦÙħÙĬØ²Ø§ÙĨ	3884
ĠÙĬØ²Ø§ÙĦÙĪÙĨ	9050
ĠÙĪØªØ±Ùī	2231
ĠØ¨Ø¢ÙĬØ©	2273
ĠØ¨Ø£ØŃØ³ÙĨ	4245
ĠØ´Ø±ÙĥØ§Ø¤ÙĩÙħ	9013
ĠØªØ·Ø¦	9417
ĠØ·ÙĬØ±Ø§	6206
ĠÙĩØ¯	2896
Ø¹Ø§Ø¡	3097
ĠØªØµØ¨Ùĥ	8966
ĠØ²Ø¨ÙĪØ±Ø§	8415
ĠÙħÙĪØªÙĪØ§	8181
ĠØ§ÙĦØ¬Ø¨	8281
ĠÙĬØ¨ÙĥÙĪÙĨ	8861
Ø·Ø±ÙĨ	8885
ĠÙĬØ¬Ø§Ø¯ÙĦ	4506
ĠÙħÙĨØ§Ø³Ùĥ	8963
ĠØ¨ÙĩØªØ§	4946
Ø¨ÙĨ	5618
ĠØ¬ÙĬØ¨Ùĥ	10253
ĠÙģØªØ§Ø¨	3962
ÙĪØ¨Ø§	4203
ĠÙģØ±Ø¬	5094
ĠÙħØªØ¹ÙĨØ§	6463
ĠØ§ÙĦÙħÙĥ	4080
ĠÙĬØ¹Øª	4262
ĠÙĬØ®ÙĪÙģ	8466
ĠØ¨ÙĬØªØ§	8767
ĠÙĬÙĥÙģØ±ÙĪÙĨ	2262
ĠÙĬØ§Ø¨	5688
Ø¹Ø«ÙĪØ§	7230
ĠÙħÙĨØ²ÙĦÙĬÙĨ	7431
ĠÙĪØ¢ÙĬØ©	5145
ĠØ£Ø¯Ø±Ø§Ùĥ	2139
ĠØ¨Ø±Ø§Ø¡	6506
ĠÙĬØªØ®Ø°ÙĪØ§	6118
ĠÙĪÙĨØ§Ø¯ÙĬÙĨØ§Ùĩ	9507
ĠÙĨØµØ±ÙĥÙħ	6656
ĠÙĦÙĦØ³Ø§Ø¦ÙĦÙĬÙĨ	9873
ĠØªØ·ÙĦØ¹	6763
ĠØ¨Ø¹ÙĬØ¯Ø§	3648
ĠØ£ÙĬÙħØ§ÙĨ	4204
ĠÙĪØ£ØµØ¨ØŃ	9000
Ø®ÙĦ	486
ĠØ¨ÙĤÙĦØ¨	5719
ĠØ§ÙĦØ£Ø³ÙĪØ§ÙĤ	10259
ĠØ§ÙĦÙĪØ§ØŃØ¯	3840
ĠØªØ¹Ø±Ø¶	8534
ĠÙĬØ·Ø¨Ø¹	6615
ĠÙĤ	90
ĠÙĪØ§ÙĦØ£ÙĨØ¹Ø§Ùħ	3852
ĠØŃØ¬Ø§Ø±Ø©	4444
ĠØªØ±Ø¬	5021
ÙĤÙħ	3983
ĠØ«ÙĤÙĬÙĦØ§	9544
ĠÙħØ¹Ùĩ	1053
ĠÙĪØ§ÙĦÙħØ³	1787
ĠØ§ÙĦÙħÙĩÙĬÙĨ	7742
ÙĨÙģØ§Ø¡	7088
Ø¦Ø§Ø¡	5867
ĠÙĬØªØ·ÙĩØ±ÙĪÙĨ	8122
ĠÙĤØµØ§Øµ	9483
Ń	42
ĠÙĪØ³Ø±	4612
ĠØ¨ÙĥÙĦÙħØ©	8744
ĠØ¨Ø§ÙĦØ®	5957
ĠÙĬÙĦ	3973
ĠÙĪØ§ÙĦØ£ÙģØ¦Ø¯Ø©	4997
ĠÙħØ³ØªÙĥØ¨Ø±ÙĪÙĨ	8746
ĠÙģÙģØ²Ø¹	10046
ĠÙĬØ±Ø¶Ùī	4685
ĠÙĬØ£	344
ĠÙĬØªØ¯Ø¨Ø±ÙĪÙĨ	8124
ĠÙĬØªØ¨Ø¹	2947
ĠÙĦÙĥÙħØ§	3274
ĠÙģÙĬÙĨØ¸Ø±ÙĪØ§	3824
ĠÙĪØ§ÙĦØµØ¨ØŃ	9165
ĠÙĪØ³ÙĨ	5601
Ø´Ø§	3550
ĠÙĬØªØ®Ø°ÙĪÙĨÙĥ	9379
ĠØ²ÙĪØ¬	1528
Ø±Ø§ÙħØ§	4882
ĠØ®ÙģØªÙħ	3193
ĠØµØ§Ø¯ÙĤÙĬÙĨ	1119
ĠØªØŃØªÙĩÙħ	4267
ĠÙĬØ®ÙģÙĪÙĨ	6286
ĠØ¹ÙĩØ¯ÙĩÙħ	6716
ĠÙĨØ¬	840
ĠÙĬØ³ØªØ·ÙĬØ¹	8453
ÙĦØ§Ø¦Ø¯	9598
ĠÙħØ³ÙĨ	4621
Ø®Ø°	253
ĠÙĦÙĦÙħØ¤ÙħÙĨÙĬÙĨ	1902
ĠØ£ÙĪÙĦÙĬØ³	8810
Ø¨ÙĦØºÙĪØ§	3641
ĠÙģØ§ØªÙĤÙĪÙĨ	5243
ĠÙħÙĨØªØ¸Ø±ÙĪÙĨ	6918
ĠØªØ±ÙĪÙĨÙĩØ§	6923
ĠØŃØ±	815
ĠØ§ÙĦÙĪÙĦØ¯Ø§ÙĨ	7135
ĠÙĪÙĦÙĤØ¯	409
ĠÙĬØªØ®Ø§Ùģ	8121
ĠÙĦØ¨Ø³	8970
ĠÙħØºØ±	3455
ĠØ§ØªØ¨Ø¹	962
ĠÙĬØ³ØªØ£Ø°ÙĨ	4285
ĠØ¹Ø·Ø§Ø¡	4735
ÙģØ±ÙĪØ§	1708
³	20
ĠØ¹Ø¨Ø§Ø¯ØªÙĩ	6407
ĠÙģØ¹ÙĦÙħ	7274
ĠØ¨ÙĤØ·Ø¹	9118
ĠØ®Ø§ÙĦÙĤ	3313
ĠÙģØ¬Ø¹ÙĦÙĨØ§	2263
ĠÙħØ´Ø±ÙĥØ©	9923
ĠÙħÙĤØª	2180
ÙĨØ¸Ø±	5562
ĠÙĪØ¬ÙĨØ©	8068
ĠØ¯ÙĬÙĨ	1031
ĠÙĬØŃØ¨ÙĪÙĨ	3657
ĠÙħØ¢Ø¨Ø§	9588
ĠØ§ÙĦØ±Ø³	668
ØµØ§ÙĦ	2471
ĠÙĬÙĨØµØ±Ùĩ	6815
ĠÙĬÙĤÙĦØ¨	8735
ĠÙħÙĤØ¯Ø§Ø±Ùĩ	10043
ĠÙĦÙĬØ¸ÙĩØ±Ùĩ	6059
ĠÙĨØ·ÙģØ©	2426
ĠØ¹ÙĦÙħØªÙħ	3720
Ø°ÙĥØ±ÙĪØ§	1016
ĠÙĪØªØ³ØªØ®Ø±Ø¬	8162
ĠÙĦØªØ¹ÙĪØ¯ÙĨ	10306
ĠØ¹Ø°Ø§Ø¨ÙĬ	2733
ĠÙĤØ±ÙĨØ§	9220
Ø±ÙĪÙĨØ§	4897
ÙĪÙĤØ¯	5572
ĠÙĪÙĦÙĬÙĨØ§	7836
ĠØªØ±ÙĪÙĩØ§	6187
ĠØ£Ùĥ	418
ÙĩØªØ¯ÙĪÙĨ	1339
ØŃÙĪØ±Ø§	3126
Ø§Ø®Ø°	2796
Ø¨Ø¯ÙĦ	2366
ĠÙĦÙĬØ®Ø±Ø¬ÙĨ	9782
ĠØ³ÙĨØ³ØªØ¯Ø±Ø¬	9061
ĠÙħÙĪØ§Ø®Ø±	9406
ĠÙĪØªØ¨	6138
ĠÙħØ¹ÙĥÙħ	1256
ĠØªØ¯Ø±Ø³ÙĪÙĨ	8761
ĠÙĤØ±Ø£Øª	9224
ĠÙĬØ®Ø§Ùģ	2978
ĠÙĬØµÙĦÙĪØ§	8780
ĠÙĪÙĬÙĩØ¯ÙĬÙĥÙħ	9399
ĠØ°ÙĨØ¨	9320
ÙĩØ±Ø§	5579
Ø¨ØŃÙĬÙĨ	4318
ĠØ§ÙĦØ¨ÙĬØ¹	6678
ĠÙĪØ£ØŃÙĬ	5879
ĠÙħØ³ÙĥÙĬÙĨØ§	6940
ĠÙĨØ°Ø±	4800
ĠÙĪØ¨Ø±Ø²Øª	9626
ĠØ±Ø¢Ùĩ	5488
ĠØ³ÙħÙĬØ¹	1452
ĠÙĪÙĨØ®	8243
ĠØ§ÙĦÙħØ§ÙĥØ±ÙĬÙĨ	9918
ÙĨØ§ØŃ	1111
ĠØªÙĩØª	4742
ĠÙĬØªÙĤØ¨ÙĦ	6122
ĠØ¨Øº	539
Ø±Ø¡ÙĪÙĨ	5394
ĠØªÙģØ¹ÙĦÙĪÙĨ	3778
ĠÙĪÙĤÙĩÙħ	7971
ĠØ£Ø´Ø±ÙĥÙĪØ§	2269
ÙĪÙĦÙĪÙĨ	4074
Ø§Øº	885
ĠÙĬÙĨØµØ±ÙĪÙĨÙĩ	9322
ÙĬØªÙĨÙĬ	6311
ĠØ³Ø¹ØªÙĩ	9292
ĠØªØ°Ø±ÙĨ	9700
ĠÙĪØ§ÙĦÙħÙĩØ§Ø¬Ø±ÙĬÙĨ	6377
ĠÙĤØ¯Ø±ÙĨØ§	9498
ĠÙĬÙĤØ¯	4675
ØªØ±ÙĥÙĪÙĨ	6907
ÙĪÙĥÙħ	730
ĠÙĦØ¨Ø«ØªÙħ	3058
ĠÙģØ¨Ø´Ø±	3740
ĠÙĪÙĨØ¹ÙħØ©	8253
Ø¸ÙĦÙħÙĪÙĨ	1057
ĠØªØ¨Ø¹Ø§	9528
ĠØ§ÙĦÙħÙĨØ²ÙĦÙĬÙĨ	8956
ĠÙĪÙĨØµØŃØª	9992
ĠØ±Ø¡ÙĪØ³	2606
Ø¢Ø®Ø±Ø©	447
ĠØ¯Ø¹ÙĪØªÙĩÙħ	10271
ĠÙħØ¹Ø§Ø°	9869
Ø¨Ø¹Ø«ÙĨ	8982
ĠÙĦÙĦØªÙĤÙĪÙī	4991
ĠØ§ÙĦÙĪØ¹Ø¯	2812
ĠØ§ÙĦÙħÙĦØ§Ø¦ÙĥØ©	976
ÙĦØ¦	2832
ĠÙģØ±ÙĬÙĤØ§	2594
ĠØ¸Ø§	3673
ĠÙĪØ¢ÙħÙĨÙĪØ§	3307
ĠØµØ¯Ø±ÙĬ	8716
ĠÙĤÙĨ	5783
Ø¶ÙĬ	796
ĠØµÙĦØµØ§ÙĦ	5522
ĠÙĦÙħ	259
ĠÙĪØ§Ø®Ø´ÙĪÙĨ	6788
ĠÙħØŃØ¶Ø±ÙĪÙĨ	4411
ĠØ®Ø³Ø§Ø±Ø§	7055
Ø¬ÙĨÙĪÙĨ	4030
ÙħØ¹Ø±ÙĪÙģ	1259
ĠØ¨Ø¥ØŃØ³Ø§ÙĨ	6511
ĠÙĬÙĥØ°Ø¨ÙĪÙĨ	3275
ĠØ§ØŃØªÙħ	8018
ĠÙģØªÙĨÙĤÙĦØ¨ÙĪØ§	9787
ĠØ£ÙĤØ³Ùħ	2254
ØªÙĤÙĪÙī	3361
ĠØ§ÙĦÙĥØ±Ø¨	6905
ĠØªØ¬Ø¯ÙĪÙĩ	9291
ĠÙģØªÙĬÙĦØ§	5676
ĠÙĪØ§ÙĨ	1679
ĠÙħÙĨØ¶ÙĪØ¯	7432
Ø¨ÙĬÙĪØªÙĩÙħ	8026
ĠØ£ÙħÙĩØ§ØªÙĩÙħ	6834
ĠÙģØ£ÙĬÙĨ	7943
ĠØ²Ø¨Ø±	8411
ĠØŃØ¯Ø§Ø¦ÙĤ	9039
ØºØ±	977
ĠÙĪØ£ÙĥØ«Ø±ÙĩÙħ	3894
¥	7
ĠÙħØ¯Ø®ÙĦØ§	6570
ĠÙĪØ±Ø§Ø¡ÙĩÙħ	8473
ĠÙħØ§Øª	7196
ĠØ³ÙĥÙĨ	7672
ĠØ±Ø¬ÙĦÙĬÙĨ	4331
ĠÙĪÙĬØªØ®Ø°	5986
ĠØ£ÙĤØ·	8876
ĠØ¥ÙĦÙĩ	491
ĠØ§ÙĦØŃÙĪØ§Ø±ÙĬÙĪÙĨ	7014
Ø§Ø¦ÙĥÙħ	1811
ĠØŃØ§Ùģ	7754
ÙĬØ¶	4581
ĠÙĬØªÙĥ	6115
ĠØ§ÙĦØµØ§Øº	8087
ĠÙģØ°ÙĦÙĥ	4653
ĠØ¨Ø¹Ø¶	399
ĠØ±Ø¯Ø¯ÙĨØ§	9566
ĠØ§ÙĦØ¬ÙħØ¹	2962
ÙĤØ§ØªÙĦ	6587
Ø«ÙħØ§	2206
ÙĬØ§Ùĩ	7865
ĠØ¢Ø®Ø±ÙĬÙĨ	3049
ĠÙĪØ±Ø¨ÙĨØ§	6554
ÙĬØªÙĩ	7104
ĠÙģÙĬØ£Ø®Ø°	5791
ĠÙĬØ±ÙĬØ¯	769
ĠØ§ÙĦÙĤØ±Ø¨Ùī	2221
ĠÙĪÙĦÙĨØ¬Ø²ÙĬÙĨÙĩÙħ	7030
ĠØ¨Ø¹Ø¯ÙĩØ§	3659
ĠØ§ÙĦØ¥Ø«Ùħ	2995
ĠÙĨØ£	5839
ĠÙĬÙĨØ¬ÙĬÙĥÙħ	8140
ĠÙĪÙĦÙĬÙĤÙĪÙĦÙĪØ§	8554
ÙĤÙĪØ¨	1770
ĠØµØ±Ùģ	3215
Ø¯Ùħ	1041
ĠÙĬÙĤØ¯Ø±ÙĪÙĨ	6998
ĠÙĬÙģØ³ÙĤÙĪÙĨ	4524
ĠÙĬØµÙĬØ¨ÙĥÙħ	9732
Ø¹Ø§ÙĦÙī	2297
Ø±Ø¶Ø§	2707
ĠØ§Ø¬Ø¹ÙĦ	2726
ĠÙĪØ±Ø§Ø¡ÙĥÙħ	8474
ĠØ§ÙĦÙħØ³Øª	1964
ĠØµØ¹	4168
ĠÙĬØ¤Ø°ÙĨ	5183
ĠÙĨØ²	1788
ĠÙĨÙĥØ±	7613
ĠØ´Ø§ÙĩØ¯ÙĬÙĨ	7803
ĠØ£Ø³Ø±Ø¹	9513
ĠÙĬØ°ÙĥØ±ÙĪÙĨ	2307
ĠØ£ÙĬØ§ÙĨ	3653
ĠÙĤØ¨ÙĦØ©	6176
ĠÙĬØ¨Ø®ÙĦÙĪÙĨ	6985
ÙĪØ¯ÙĩÙħ	8285
ÙģÙĬØ¸	8460
ª	12
ĠÙĪÙĬØŃÙĬÙī	7906
ĠÙĪØ²ÙĪØ±Ø§	8872
ĠÙĪÙĬØ³ØªØ¹Ø¬ÙĦÙĪÙĨ	6647
ĠØ¨Ø§ÙĦØ¹Ø¯	2917
ĠØ¨Ø¹Ø¨Ø§Ø¯Ùĩ	3865
Ø³ÙħØ¹	1011
ĠØ¸ÙĦÙħØ§	3261
ÙĦÙĬÙĥ	4043
ĠÙĪØ¥ÙĬØ§ÙĬ	6852
ÙĪØ±ÙĪÙĨ	7106
ÙħØ±ÙĨÙĩÙħ	8193
ĠÙĪØ£ÙĨÙĩØ§Ø±Ø§	8265
ĠØ¨Ø£Ø®	8288
ĠÙĬØ·ÙĪÙģ	9112
ĠÙĤØ§	4035
ÙĩØ²Ø¦	4423
ĠØ¨Ø£ÙĨÙĩ	8291
ĠÙĪØ¬ÙĪÙĩÙĩÙħ	1740
ĠØªØªØ®Ø°ÙĪØ§	2120
ĠØ¨ÙĬÙĪÙħ	3992
ĠØ³Ø§Ø¯Ø³ÙĩÙħ	10077
ĠÙĪØ¬ÙĨØ§Øª	3643
ĠÙģØ¸	3960
ĠÙĨÙĤØ¶	6781
ĠÙħÙĩØ·Ø¹ÙĬÙĨ	6842
ĠÙħÙĩØªØ¯ÙĬÙĨ	5634
Ø³ÙĨØ§Øª	5657
ĠÙĥØ§Ø¯ÙĪØ§	4755
ĠÙĪÙĬÙģ	5982
ĠØ£ØµÙĨØ§ÙħØ§	10010
Ø§Ø¦ÙĬ	2944
ÙĬÙĨÙĩÙħ	3988
ĠÙĦÙĨÙģØ³ÙĬ	5354
ĠØ§ÙĦØ³ÙĬØ¦	9236
ĠÙĪÙĦÙĦÙĥØ§ÙģØ±ÙĬÙĨ	4125
ĠÙĥÙĦÙĪØ§	1856
Ø§Ø·ÙĬÙĨ	1657
Ø³Ø§Øª	5654
ĠØ¯ÙħØ±ÙĨØ§	9977
ÙĬØ§	160
ĠÙģØ³Ø§Ø¡	5167
ÙĪØ²ÙĨ	8991
ĠÙĤØ§Øµ	4040
ĠØ§ÙĦØ¶Ø¹ÙģØ§Ø¡	6991
ÙĪØ§Ø¬Ø§	7350
ĠÙģÙĥØ°Ø¨	1732
ĠÙĪØ³Ø®Ø±	2241
ĠÙĨÙĨØ³	4801
ĠÙģÙĬÙĪÙģÙĬÙĩÙħ	7540
ĠÙĪÙĦÙĤØ§Ø¡	9857
Ø¦Ø§Øª	975
Ø¯	62
ĠØ¶Ø§ÙĦÙĬÙĨ	8337
ĠÙĬØ¦	5689
ÙħØ³ØŃÙĪØ§	6318
ĠÙħØ´Ø±	4620
ĠÙĦÙģ	3967
ĠÙĪØ§ÙĦÙĨØ¨ÙĬÙĬÙĨ	6983
ĠÙĪØ³Ø¨ØŃØ§ÙĨ	9508
ĠØ§ÙĦØ®ÙĦÙĤ	2003
ĠØ§ÙĦØº	457
ĠØ¨Ø°ÙĦÙĥ	5711
ĠØ¨Ø£ÙĬØ¯ÙĬÙĩÙħ	6874
ĠØ´Ø±	1141
ĠÙħØ³ÙĨÙĪÙĨ	6994
ĠÙĬÙģØµÙĦ	4339
ĠÙħÙĪÙĦØ§	2372
ĠÙĪØ£ÙħØ·Ø±ÙĨØ§	4442
ĠÙģØ£ÙĦÙĤÙĬ	9429
ĠÙĬØªÙģ	1813
ĠØ§ÙĦØ£Ø²ÙĪØ§Ø¬	7811
ÙĩÙĪØ±Ø§	8099
ÙĪÙĤÙĬÙĨ	7111
ĠÙģØ®	2301
ĠØ§ÙĦÙħØ±Ø³	1117
ĠØ³Ø£ÙĦØªÙĩÙħ	3405
ĠÙħØµØ±	3932
ĠØ¹ÙĦÙħØ§	2466
ĠÙĨØµÙĬØ¨	2023
ĠÙĬØ´ØªÙĩÙĪÙĨ	4230
ÙĩØ¨ÙĪÙĨ	4595
ĠÙĨØ¨ÙĬ	2688
ĠØªÙĦÙĪ	5760
ĠØ§ÙĦÙħØŃÙĬ	5892
Ø¤ÙĦØ¤Ø§	7012
ĠÙĦÙĩØ¨	8046
Ø§Ø¦ÙĩØ§	8062
ĠØ§ØŃÙĥÙħ	8014
ĠÙĪØ¬Ø¹ÙĦÙĨØ§Ùĩ	6514
ØŃØ²Ø§Ø¨	2428
ĠÙĪØ£ÙĩÙĦÙĩØ§	5334
ĠÙĦØ¯ÙĬÙĩ	9046
ĠÙĪÙĬÙĨØ°Ø±ÙĪÙĨ	9154
ĠÙĪØ§Ø¬ØªÙĨØ¨ÙĪØ§	9723
ĠÙĤØ±ÙĬØ©	1380
ĠÙĪÙĤØ·Ø¹ÙĨØ§ÙĩÙħ	10274
ĠÙĪØ£Ø¨ÙĨØ§	5881
ĠØªÙĪØ¨	2873
Ø§Ø¦ÙĤ	4194
ĠØ£Ø¬Ø¯	4638
ĠØ£Ø«	1554
ĠÙĪÙĦÙĬÙĨ	5953
ÙĨÙī	1082
ĠÙĬØ¹Ø±Ø´	8379
ĠÙĪØ¨Ø§Ø¡ÙĪØ§	8485
ĠØ§ÙĦÙĨØ¨ÙĬ	929
ĠØ§ÙĦÙģØ³	3079
ĠØ§ÙĦØ¯ÙħØ¹	8207
ĠØ¸ÙĩÙĬØ±Ø§	5381
ĠÙĪÙĦØ£ÙĨØ¹Ø§Ùħ	7839
ĠÙħÙĬØ«Ø§ÙĤÙĥÙħ	5349
Ø§ØŃ	1383
ĠØªØ¹Øª	3296
ĠÙģØªØŃØ§	5053
ĠØŃÙĬØ§ØªÙĨØ§	7008
ÙĪØ§ÙĥÙħ	4698
ĠÙĪØ¥ÙĨÙĩÙħ	2360
ÙĬØ¯ÙĪØ§	5992
ĠÙģØ¨Ø¯ÙĦ	7290
ÙĦÙĬÙħØ§	3145
ĠÙĪØ±Ø³ÙĦÙĩ	2240
ĠÙĦÙĬØŃÙĥÙħ	4177
ĠØ¯Ø¹ÙĪ	7935
ĠÙĬØªØ²ÙĥÙī	8126
ĠØ§ÙĦØªÙĤ	3023
ĠÙĬØ¬Ø§Ø¯ÙĦÙĪÙĨ	3398
ĠØ³ÙĨÙĨ	9058
ĠÙģØ§Ø¹Ø¨Ø¯Ùĩ	9463
ĠØ¨ÙĦÙĤØ§Ø¡	3416
ÙĬÙĤ	1607
Ø£ÙĦÙĥ	7416
ĠØŃÙħÙĬÙħ	2402
ĠÙĪØµÙĪØ±ÙĥÙħ	9029
ĠÙĪØ£ÙħØ±	1871
ĠØ³ÙĥØ§Ø±Ùī	9773
ĠÙħØ¹Ø¬Ø²ÙĬÙĨ	8103
ĠÙħØ±ÙģÙĪØ¹Ø©	7068
ĠØºØ«Ø§Ø¡	8045
ĠØ¨Ùĩ	197
ĠØ§ÙĦØ£	141
ÙħØªÙħ	3421
ĠØªØ¸	3520
ĠÙĪØ§Ø³Ø£ÙĦÙĪØ§	9173
ĠØ§ÙĦÙħÙĨØ°Ø±ÙĬÙĨ	3347
ĠÙħØµØ¨ØŃÙĬÙĨ	4406
Ø§Ø«	1284
ĠÙĦÙĦÙħØ³ÙĦÙħÙĬÙĨ	8696
ĠØ®Ø§Ø·	4865
ĠØ£ÙĪÙĦÙĪ	1539
ĠØ³ÙĨ	1115
ĠÙĪØ§ÙĦØ®ÙĬÙĦ	9570
ĠØ£Ø¶Øº	5395
ĠÙĤÙĪÙĦØ§	1564
ĠØ°ÙĥØ±	667
ĠÙĦÙĦØ¥	2369
ĠØ¬Ø¦ØªÙħ	9091
ĠØ¨Ø¹Ø¯ÙĩÙħ	1724
ĠØ¢	124
ØŃØ§Ø¨	547
ĠÙĨØ§Ø¯Ùī	3383
ĠÙĬØ¨Ø§ÙĬØ¹ÙĪÙĨ	7001
ĠØªØ±Ø¶ÙĪÙĨ	7489
ĠÙĪÙĤØ¨ÙĦ	7973
ĠÙħÙĨÙĬØ±	7426
ĠÙĪÙĨÙĤØµ	8250
ĠØ£ÙĥÙĦÙĩ	8462
ĠÙĪØ³ÙĬØ¹ÙĦÙħ	9892
ĠÙĬØªØ¶Ø±Ø¹ÙĪÙĨ	10285
ĠÙĪØ§ÙĦÙĦØ§ØªÙĬ	7609
ĠÙĬÙĩØªØ¯ÙĪÙĨ	2454
ĠØ£Ø¹Ø¬	2237
ÙĤØ±	775
ĠØªØ³ÙħØ¹	2196
ĠØ§ÙĦØºØ§ÙĦØ¨ÙĬÙĨ	5456
ÙħØ§Ø¦	4018
ĠØºØ·Ø§Ø¡	8042
ĠØ¨Ø§ÙĦÙģØŃØ´Ø§Ø¡	5966
ĠØ§ÙĦÙħØªÙĤÙĬÙĨ	1362
ĠÙģÙĬÙĤØ³ÙħØ§ÙĨ	7544
ĠØ®Ø³Ø±ÙĪØ§	2914
ĠØªÙĨØ¨Øª	6351
ĠØ£ØŃÙĬØ§ÙĩØ§	9881
ĠØ¨Ø¹Ø°Ø§Ø¨	1993
ÙĩØ¯ÙĪØ§	1805
ĠØ£ÙĩÙĦÙĥ	1097
ĠØ¹ÙĦÙī	144
ĠÙģÙĬ	94
ĠÙĦÙĨØ¨ÙĪ	8375
ĠØ§ÙĦØ¯Ø§Ø¹	6990
ĠØªÙĤÙħ	8675
ĠÙħÙĩÙĬÙĨ	2181
ĠØ§ÙĦØ£ÙĪÙĦ	959
ØªÙĪÙĥÙĦ	2444
ĠÙĪØ³ÙĬ	4319
Ø¬Ø§Ø±	4745
ĠØ§ÙĦØ³ÙģÙĬÙĨØ©	5979
ĠÙĪØ£ÙĨÙĩØ§Ø±	6202
ĠØ²Ø®Ø±	6259
ĠÙģØ²	3105
ĠØ®ÙĦÙĤØ§	3265
ĠØ³Ø¨Ø¹Ø§	9225
ĠØ§Ø³ÙĥÙĨÙĪØ§	9268
ĠÙģÙĬÙĤÙĪÙĦÙĪØ§	9388
ĠÙĪØ§ÙĦØ¨ØµÙĬØ±	4425
ĠØ¨Ø³Ø·Ø©	9939
ĠØ·Ø§Ø¦ÙģØ©	1743
Ø¹ÙĪØ§	422
Ø§Ø±Ø¹ÙĪÙĨ	2926
ĠØªÙĦÙĤÙģ	6793
ĠØ£Ø¶ØºØ§Ø«	10029
ĠÙĨÙĤØ¶ÙĩÙħ	10166
ĠÙĦØ³Øª	3476
ĠØ¨Ø³ÙĬÙħØ§ÙĩÙħ	4404
ĠÙģØ±Ø§Øª	8441
ĠØ£ÙģÙĦÙħ	2235
ĠØ¨ÙĬÙĨ	246
ĠØ¨Ø¯ÙĦÙĪØ§	9204
ÙĨØª	433
ĠØ³Ø§Ø¨	3562
ĠÙĦØ§ÙĨ	7298
ĠØ£Ø¨Ø±ØŃ	9924
ĠÙħØµÙĦØŃÙĪÙĨ	9043
ĠØ§ÙĦØ³ØŃØ±Ø©	3059
ĠØ§ÙĦØ¨ÙĦØ¯	4607
ĠÙĩØ¶	7646
ÙħØ§Ø¡	904
ĠÙĨØ´	1114
ÙĪÙĬÙĩ	5575
ÙģØ§ÙĤØ§	8388
ÙĨÙĩØ§	2617
ĠØ§ÙĦØ±Ø§	2622
ĠÙģØ£Ø®Ø§Ùģ	7954
ĠÙĪØ§ÙĦØªÙĬ	7593
ØªÙĦÙĪ	8937
ĠÙĬØ·ÙħØ«	9116
ĠÙĦÙĦØ¬	8142
ĠØ¹Ø¬ÙĦ	7443
ĠØ£Ø±Ø¶ÙĥÙħ	6695
ĠÙģØ±	411
ĠØ¬Ø±Ùħ	4099
ĠÙĪÙĨØµ	5028
ĠØ±Ø³Ø§ÙĦØªÙĩ	8332
ĠØ³Ø¨ÙĦ	7661
ĠØ§ÙĦÙħØ®ÙĦØµÙĬÙĨ	2908
ĠÙħÙĩØ§Ø¬Ø±	7212
ĠÙģØ£ÙĤÙĬÙħÙĪØ§	6013
ĠÙħØªÙħ	4619
ĠÙĦÙĦØ¹	1409
ĠØ¨Ø³ÙĪØ¡	5263
ĠÙģÙĦÙĪ	6177
ĠØ£Ø³ÙĦÙħØª	9439
Ø¨Ø±Ø§Ø±	3730
ĠÙħÙĥ	789
ĠÙĦÙĥÙĦÙħØ§ØªÙĩ	8344
ĠÙģØ±ÙĬ	1149
ĠÙĤØ¨ÙĦÙĩ	1734
ĠÙģØ³ØªØ¹ÙĦÙħÙĪÙĨ	6911
ØŃØ©	3505
ÙĨØ³Ø§ÙĨ	685
ĠØ¨Ø¢Ø¨Ø§Ø¦ÙĨØ§	10320
ĠØ§ÙĦÙħÙĦØ£	1705
ĠØ¯ÙģØ¹	6004
ÙĤÙĪÙĦÙĪØ§	4197
ĠØ±	98
ĠÙħØ®ÙĦØµØ§	5514
ĠÙĬØ¨Ø®ÙĦ	6510
ĠÙĨØ§ØµØ±ÙĬÙĨ	3392
ÙĨØ§	81
ĠÙĪØ±Ø§Ø¦Ùĩ	8475
ÙĬØ¹Ø§Ø¯	3835
ĠØ®Ø°ÙĪØ§	4511
ĠØ£ÙħÙĩ	4913
Ø±Ø§Øª	2835
ĠØ§Ø³ØªÙĥØ¨Ø±ÙĪØ§	2389
ĠØ§ÙĦÙħØŃÙĬØ¶	7049
ĠØ¸Ø§ÙĩØ±ÙĬÙĨ	10031
ĠÙĪÙħÙħÙĨ	4277
ĠÙģØ§Ø±ØªÙĤ	6727
ĠÙĬØŃÙħÙĦ	4220
ĠØ¨ÙĦØºØª	4462
ĠØ£Ùģ	347
ĠØ¹Ø¨Ø¯Ùĩ	3819
ĠÙĬØ£ÙĥÙĦ	3833
ĠÙĪÙĤÙĦÙĬÙĦ	6028
ĠØ§ÙĦÙĤÙĪØ©	6046
ĠØ´ÙĩØ±Ø§	8987
ĠØ§ÙĦÙħØ³Ø¬Ø¯	1907
ĠØ³Ø±ÙĤ	9364
ĠÙĪØ§ÙĨØ¸Ø±	5358
ĠÙĬØ´Ø£	2952
ĠØ±Ø¬Ø§ÙĦ	3002
ĠÙĩØ§Ø¯	3160
ĠÙģØªØ®	8314
ĠØµØ¨Ø±ÙĨØ§	9717
ĠÙĪØ¥ÙĦÙĬ	7823
ĠØªØµÙĦ	8964
ĠÙĨØ²ÙĦÙĩ	9363
¸	25
ÙģØ§	378
Ø§ÙĦÙĩÙħ	3910
ĠØ¨Ø¹Ø¯Ø§	5004
ĠÙĬØ¯Ø±ÙĬÙĥ	6279
ĠØªØ£	493
ĠØ§ÙĦÙģØ§	1271
ĠÙģÙĦÙĪÙĦØ§	2107
ĠØ¹Ø¯Ø¯	6466
Ø¯Ø©	521
ĠÙĬÙĦØŃ	3977
ĠÙħØ¯Ø±Ø§Ø±Ø§	6568
ĠØ£ÙģØªÙĪÙĨÙĬ	8307
ĠÙĪØ®Ø³Ø±	9068
ĠÙĬÙģØ±ÙĤÙĪØ§	9474
ĠÙĪØºØ±ØªÙĥÙħ	9628
ĠÙĪÙĦÙĬÙħØŃØµ	9802
ĠØ£Ø£ÙĨØ°Ø±ØªÙĩÙħ	10044
ĠØ§ÙĦÙģØªÙĨØ©	3430
ĠØ¨Ø§ÙĦØ¨ÙĨÙĬÙĨ	9317
Ø¨Ø´Ø±ÙĪÙĨ	3447
ĠØ¨Ø§ÙĦÙĤØ±Ø¢ÙĨ	9232
Ø´Ø±ÙĥÙĬÙĨ	1017
Ø´Ø±ÙĬÙĨ	3637
ĠØ¹ÙĩØ¯	1692
ĠÙĨÙĪØ±Ùĩ	6764
ĠØªØ£Ùĥ	1235
ĠØ§ÙĨØª	3336
ĠØ§ÙģØª	1164
Ø°ÙĬÙĤ	5217
Ø²Ø¨	2682
ĠØ£ÙģÙĪØ§ÙĩÙĩÙħ	5552
ĠÙĨØ¯Ø¹ÙĪ	5427
ØµØ§Ø¨	5801
ĠØ®Ø§Ø¨	5921
ĠØ´ÙĩÙĪ	4872
ĠØ¹ÙĦÙĬÙħØ§	1402
ØµØ±Ùģ	3284
ĠÙĦØªØ³ÙĥÙĨÙĪØ§	5474
ĠØ·Ø¨Ø¹	6205
ĠÙģÙĪÙĤÙĩØ§	6542
ĠÙĬÙĨ	271
ĠØ§ÙĩØª	1884
ĠÙĪØ´Ø±Ø§Ø¨	6992
ØªÙĦØ·	6540
ĠÙģØ³ÙĤÙĪØ§	8666
ĠÙĬØ²ÙĥÙī	9049
ĠÙģØ¯ÙħØ±	9516
ĠÙĨØ¬ÙĬØ§	8886
ĠØªÙħÙĪØ±	9135
ĠØ§Ø¬Ø¹ÙĦÙĨÙĬ	9615
ĠØ§ÙĦØ®Ø±	3916
ĠÙĪÙĨÙĤÙĪÙĦ	8246
Ø°ÙĥØ±Ø©	8428
ĠÙģÙĪÙĤÙĩÙħ	2144
ĠÙĦÙĬØ²Ø¯Ø§Ø¯ÙĪØ§	10109
ĠØµØ¨	4167
ĠØ£Ø³ØªØºÙģØ±	9807
ĠÙĪØ£ÙĥÙĨ	7721
ĠÙĤØ¶Ùī	2469
ĠØ«ÙĦ	7919
ØªÙĨ	1847
ĠÙĪØ³ÙĦØ·Ø§ÙĨ	6390
ÙĪØ«	4590
ĠØªØºÙģØ±	5757
ĠØ¥ÙĬÙħØ§ÙĨØ§	3367
ĠØ§ÙĦØ°Ø¦	5849
ĠÙĪØ§ÙĦØ´Ø¬Ø±	9078
ĠÙĪÙģØ±ØŃÙĪØ§	9346
ĠÙĪØ§ÙĦØ¥ÙĥØ±Ø§Ùħ	9121
ĠØŃØ¯ÙĪØ¯	2152
ĠÙĪØ§ÙĦÙħÙĦØ§Ø¦ÙĥØ©	2013
ĠÙĪØ£Ø·	4835
ĠØ§ÙĦØ£ÙĨØ¨Ø§Ø¡	8687
ÙĦØ¹ÙĪÙĨ	7077
ØµØ±Ø®	6251
ĠØªØ¹Ø¨Ø¯ÙĪÙĨ	1532
ĠÙĦÙĦÙħØ³Ø±ÙģÙĬÙĨ	8695
ĠÙĪÙĬÙĤÙĬÙħÙĪÙĨ	7902
ÙĩÙĪÙī	2945
ĠØ§Ø¨ÙĨ	1099
Ø¹ÙĬ	1849
ĠØ·ÙĦÙĤ	2741
ĠÙĬØµÙĦÙĪÙĨ	3010
ÙĦØ§	83
Ø§ÙĦØ¨	4592
ĠÙĪÙģØ¶ÙĦ	5340
ĠÙĬØŃØ§ÙģØ¸ÙĪÙĨ	6149
ĠØŃØ³Ø±Ø©	5906
ĠÙĪÙĦÙĨØ³	7837
ĠØ§ÙĨÙģ	8824
ĠÙĥÙģØ±ÙĩÙħ	8128
ĠØ£ÙħÙĨØ©	9246
ĠÙĪØ§ÙĩØ¬Ø±	6113
ĠØ¢ØªØ§Ùĩ	9227
ĠØ£ÙħØ©	827
ĠØ®ÙĪÙģ	1456
ĠÙģØ§Ø·Ø±	3886
ÙħÙĪÙħ	4580
ĠØ´Ø¦ØªÙħ	4492
ÙĤÙĨØ§Ùĩ	3986
ĠØ¢Ø¨Ø§Ø¡ÙĩÙħ	5235
ĠÙĦÙĩØ°Ø§	8047
ĠÙĦØ¹Ùħ	7299
ĠÙĪØ§Ø³ÙħØ¹	8108
ĠÙĬØ£Ø¬ÙĪØ¬	8300
ĠØ¨ØªØ§Ø¨Ø¹	10205
ÙĤÙĩÙħ	1768
ĠÙĬØŃØ²ÙĨÙĪÙĨ	2162
ÙĨØ§Ùĥ	2661
ĠÙĪØ§ÙĦØ£	277
ĠØ¨Ø§ÙĦÙĥØªØ§Ø¨	5490
ĠØ¨Ø§ÙĦ	155
ÙĥØ¨Ø±ÙĪÙĨ	2054
ĠØ£ÙģØ§Ø¡	6224
ĠÙĪØ°ÙĦ	9443
ĠÙĪØ§ÙħØ±Ø£ØªÙĩ	9784
ÙĨØ§Ø³	4737
ĠØ§ÙĦØ®ÙĦØ¯	3892
ĠÙĬØ´ÙģØ¹	6168
ĠØ§ÙĥØªØ³Ø¨ÙĪØ§	9720
ĠØ¨Ø§Ø±Ø¯	9752
ĠÙģØªÙĦÙĤÙī	8326
ĠØ£ÙģØ£	2112
Ø¨Ø±Ø§	524
ĠÙĨØªØ¨Ø¹	3159
ĠØ§ÙĦØ®Ø¨ÙĬØ±	3695
ĠÙĪØ£ØªÙĪØ§	7719
ĠÙĪ	55
Ø¦Ø§	541
ĠÙĬÙĩØ±Ø¹ÙĪÙĨ	10201
Ø²Ø§ÙĨ	2475
ĠÙĪÙĪØ§Ø¹Ø¯	7162
ĠØ£ÙģØ¥ÙĨ	8311
Ø°ÙĩØ¨ÙĪØ§	3732
ĠÙģÙĦÙĥÙħ	6179
ĠØ´ÙĩØ§Ø¯Ø©	4111
ĠÙĪØ¨ÙĦØº	5605
ĠÙĪÙĬØ³ØªØ¹Ø¬ÙĦÙĪÙĨÙĥ	7070
ĠØªØŃØ·	8395
Ø¨ÙĦ	225
Ø°ÙĪ	1087
ĠÙĪÙĥÙĦ	1983
Ø§Ø¦	230
ĠØ£ÙħØ±ÙĩÙħ	2238
Ù	29
ĠÙĤØ³Ùħ	4758
ÙĦÙģØªÙħ	8313
ĠÙĬØ³ØªÙĪÙĬØ§ÙĨ	9435
ĠØ´ÙĬØ¹	4968
ÙĩÙĨ	248
Ø¨Ø·ÙĦÙĪÙĨ	4399
ĠÙĬÙĦØ¨Ø«ÙĪØ§	6864
ĠÙħØ³Ø¦ÙĪÙĦØ§	5528
Ø§Ø¶	1222
ĠØ¹Ø¨Ø§Ø¯	586
ĠÙģØ§Ø³ØªÙģØªÙĩÙħ	8936
ĠÙĥØ§Ùħ	7513
ĠÙĪØ§ÙĦØ¶Ø±	4059
ĠØ±Ø§ÙĪØ¯ØªÙĩ	9911
ĠØ¨Ø§ÙĦØºÙĬØ¨	2268
ĠÙħØ¹ÙĦÙĪÙħ	2829
ĠÙĪØ«ÙħÙĪØ¯	2173
ĠÙĬÙħÙĨ	4671
Ø·ÙĬÙĨ	7684
ĠÙĬØ°ÙĩØ¨ÙĥÙħ	5484
Ø§Ø·	371
ĠÙĦÙĬÙĤÙĪÙĦÙĨ	1922
ĠØ§ÙĦØ¬ÙĨ	1475
ØµØ©	2677
ĠØŃÙĬØ§Øª	4852
Ø¬ÙĬØ±Ø§	7503
ĠÙĦÙĥØ¨ÙĬØ±	5062
ĠØ¨Ø±Ø¨ÙĬ	5223
ĠÙģÙĪÙĤÙĩ	8940
ĠÙģÙĤØ·Ø¹	8620
ĠÙĨØ°ÙĬØ±Ø§	5248
ĠÙĪÙĦÙĬØ²ÙĬØ¯ÙĨ	10304
ĠØ¨Ø¦Ø³	2864
ĠÙĪØ¥ÙĨÙĥ	3636
ĠÙĬØ¨Ø¯ÙĦ	4448
ĠÙĨØ²Øº	6737
ĠØ¨ÙĦØ§Ø¡	3991
ĠÙĪØ¯ÙĪØ§	5604
ĠÙĬÙģØªØŃ	9022
ĠÙħØªØ¨Ø±	8799
ĠÙģÙĦÙĬØªÙĪÙĥÙĦ	2788
ĠÙĪØ¸ÙĨÙĪØ§	3370
Ø§Ø±Ø¬	4151
ĠÙĬÙģØªÙĨ	9021
ÙĬØ³Ø±	4585
ĠØ¨Ø£ÙĨØ§	8287
ĠØŃÙħÙĦÙĩØ§	8842
ĠØ£ÙĬÙħØ§ÙĨÙĩÙĨ	9871
ĠØ§ÙĦÙħØ´Ø£ÙħØ©	7050
ĠØªØ£ÙĥÙĦÙĪØ§	3037
ĠÙħÙģØ§Øª	6908
ĠÙĬØ±Ø§Ø¡ÙĪÙĨ	8188
ĠÙĪØ¹Ø§Ø¡	8358
ĠÙĬØ¹ÙĬØ¯	4263
ĠÙĬØ¤ÙģÙĥ	8725
ĠÙĦÙĨØ¨ÙĪØ¦ÙĨÙĩÙħ	10299
ĠØ§ÙĦÙĨØ¨ÙĬÙĬÙĨ	2792
ĠØ¬ÙħÙĬØ¹Ø§	829
Ø§Ø²ÙĩÙħ	9163
ĠÙĬØ¬ØŃØ¯	6370
ĠØ£Ø¬ÙĦØª	8406
ĠØ§Ø²Ø¯Ø§Ø¯ÙĪØ§	8601
ĠÙĪÙħØ«ÙĦÙĩ	6272
ĠÙģØ§	299
ĠØªØ³Ø¨ØŃ	7480
ĠÙĪØ±Ø¨Øª	8968
ĠØ£ÙĩÙĦÙĥÙĨØ§ÙĩØ§	5269
ĠÙĨØ¨Ø´Ø±Ùĥ	8924
ØªÙħØªØ¹ØªÙħ	9393
ĠÙģØ£ÙĨØ³	6009
ĠÙĪØ£ÙĤØ§ÙħÙĪØ§	2905
ĠØ£Ø¹ÙĬÙĨÙĥÙħ	9403
ÙĪØ£	2619
Ø¹Ø§ÙħØ§	5002
ĠÙĥÙħ	1220
ĠÙĪØ´Ùģ	7154
ÙħØ«	7091
ĠÙĪÙĪÙĩØ¨ÙĨØ§	3066
ĠØªØªÙĪÙĦÙĪØ§	5119
ĠÙĦÙĦØ´ÙħØ³	9984
ĠØ§ÙĦÙĪØ±	7128
ĠÙĦÙħØ¨Ø¹ÙĪØ«ÙĪÙĨ	4198
ĠØ£ÙĩÙĪØ§Ø¡	1820
ĠØ§ÙĩØªØ¯Ùī	3387
ĠÙģØ§Ø±Ø¬Ø¹	9347
ĠØŃÙĪÙĦÙĥÙħ	9709
ĠØ¹ÙĨÙĬ	3604
ĠÙĬØ·	1244
ĠÙĬÙĨÙĤØ¶ÙĪÙĨ	5525
ĠÙģØ¬Ø§Ø¡ÙĪÙĩÙħ	9901
ÙĥÙĬÙĨ	1757
ĠÙĪØ¢Ø®Ø±	3081
ĠØŃÙĪÙĦÙĩÙħ	9708
ĠØ£ÙĬØªÙĩØ§	8131
ĠÙħØ¹Ø¯ÙĪØ¯	5480
ÙĤØµÙĩØ§	9218
ĠÙħÙĪØªÙĩ	8180
ĠÙģÙĤÙĪÙĦÙĪØ§	7292
ĠØªØ´Ø§Ø¨Ùĩ	8833
ĠØŃØ±ÙħØ§	6512
Ø§ÙĩØ±ÙĪÙĨ	4357
ĠÙĦØ£ÙĪÙĦ	8496
ĠÙģÙĨØ§Ø¯ÙĪØ§	9694
ĠÙģÙĦÙĬØ³ØªØ¬ÙĬØ¨ÙĪØ§	10016
ĠÙĪØ§ÙĦØ°ÙĬ	1865
ĠÙĨØ¹Ø¬	4062
ĠØ§ÙĦÙħÙĬÙħÙĨ	5897
Ċ	30
ĠÙĤØ±ØŃ	7532
ĠØªØµØ¨ÙĩÙħ	4387
ĠØ³ØªØ¬Ø¯	5507
ĠØ¥ÙħØ§	1943
ĠØ£ÙĪØªÙĬ	1404
ÙĪØ§ØªÙĥÙħ	5000
ĠÙħÙĨØ§Ùħ	5740
ÙĥØ±Ø§Ùħ	7176
ĠØ£ÙħØªÙĥÙħ	7926
ĠØ§ÙĦØ¨ÙĤØ±	6334
ĠØ¨Ø£ÙħÙĪØ§ÙĦÙĥÙħ	6783
ĠÙĪØ§ØŃØ¯Ø§	4355
ĠÙĪÙĬÙĦØªÙī	6718
ĠÙĨÙĥØ«ÙĪØ§	9035
ĠÙħØ¯Ø¨Ø±Ø§	9005
ĠØ³ÙħØ¹ØªÙħÙĪÙĩ	8999
ĠÙĥÙĨØª	783
ØŃØ¨Ø§	7406
Ø¬Ø©	7502
ĠØŃØ§ÙģØ¸ÙĪÙĨ	7760
ĠÙĨØ§Ø¬	7626
ĠØ¨Ø§Ø³Ùħ	5448
ĠØªØ¹Ø¯ÙĨØ§	5437
ØŃÙħÙĬÙĨ	3506
Ø±Ø§Ø±	2915
ĠÙĥØ°Ø¨ÙĪØ§	894
ĠÙĬØ¸ÙĩØ±ÙĪØ§	6730
Ø®ÙĬÙĦ	5797
ĠØ§ÙĦØªÙĤÙĪÙī	3893
ĠØ£ÙĪØ²Ø§Ø±ÙĩÙħ	9861
ĠØªØ°Ø±	3135
ĠÙĪØ§ØµØ·	4454
ĠØ§ÙĦÙħÙĩØª	5891
ĠØªØ³Ø¬Ø¯	8826
ĠÙĦÙģÙĬ	1132
ĠØ§ÙĦÙħØµÙĬØ±	1361
Ø§Ø¨	110
ĠØ§ÙĦÙħØ¯ÙĬÙĨØ©	2039
ĠÙĬÙĥÙĪÙĨÙĪØ§	2141
ĠÙĦÙĦØº	6132
ĠÙĬÙĥØ³Ø¨ÙĪÙĨ	1999
ĠØ¨Ø¹Ø¶ÙĩØ§	6265
ĠØªØ£Ø°ÙĨ	8593
ĠÙĪÙĬØ¯Ø¹ÙĪÙĨ	7903
ĠÙĪÙĦÙĬØ²ÙĬØ¯	8553
ĠÙĪØ£Ø²ÙĪØ§Ø¬	2904
ÙĤØ¯Ø±	1521
ĠÙħÙĥØ±	1430
ØµØ±ÙĨØ§	5082
ĠØ³ØŃØ§Ø¨	3565
Ø®ÙĦÙģÙĬÙĨ	9359
ÙĪÙĨÙĩØ§	3502
ĠØ·Ø§Ø¦	1206
ÙĬØª	451
ĠØ§ÙĦÙĨÙģ	8234
ĠÙħØ±ÙĬØ¨	3400
ĠØ£Ø±Ø³	537
ĠØµØ¯ÙĤØ©	5179
ÙĬØŃ	837
ÙģØ±ÙĤÙĪÙĨ	7799
ØŃÙĤ	485
ĠÙĦØ£ÙĪÙĦÙĬ	2762
ØµÙħÙĪØ§	4775
ĠØªØ±ØŃÙħÙĪÙĨ	2954
ĠØ§ÙĦØ¸ÙĨ	2556
ĠØ£ØŃÙĥÙħ	8215
Ø±Ø³ÙĦÙĨØ§	2100
ĠØ¬Ø²	876
ĠÙĪØ£ØŃØµ	7725
ĠØ§ÙĦØ£Ø±Ø¶	229
ĠØ¬Ø¨Ø§Ø±	4097
ØªÙħÙĪØ§	5911
ĠÙĤØ±Ø¶Ø§	3536
ĠÙģØµÙĦ	4658
ĠØ§ÙĦØ£ØµÙģ	7816
ĠØ£Ø®Ø¯Ø§ÙĨ	8653
Ùģ	75
ĠÙĦÙĬØ³	767
Ø´Ø±ÙĪÙĨ	1449
Ø¨ÙĬØ¨	8023
ĠØ¨Ø´	1309
ĠÙĩØ¯Ø§ÙĨØ§	4473
ĠÙħØ¯ÙĬÙĨ	2445
ĠÙħÙĥØ±Ø§	5222
ĠØ°Ø±ÙĬØªÙĩÙħØ§	9394
ÙģÙĤØ±Ø§Ø¡	5730
ĠÙħØ¨Ø¯ÙĦ	5633
ĠÙĦØ¹ÙģÙĪ	8757
ÙĤØ¨ÙĦ	2650
ÙĪÙĦØ¬	2490
ØªÙĬØ©	4971
ĠØªØ³Øª	970
ĠÙĥØªØ§Ø¨Ùĩ	4333
ĠÙĪÙĩÙĪ	330
ĠØ§ÙĦØ¨ÙĬØª	2272
ĠØ¨ÙħØ§Ø¡	4966
ĠØ£ÙħØ±ÙĩØ§	6354
ÙĪÙħØ©	4832
Ø³Ø·ÙĪÙĨ	8852
ĠÙĪØ±Ø¨Ùĥ	2411
ĠÙĪÙģØ§Ø±	7151
ĠØ¨Ø£Ø³ÙĥÙħ	9174
ĠÙĪÙĬÙĦ	1712
Ø§ÙĦÙī	1752
ĠÙħÙģØ³Ø¯ÙĬÙĨ	3940
ĠÙĦÙĦÙħØ´Ø±ÙĥÙĬÙĨ	5170
ĠÙĥØ±Ø©	5239
ĠÙĬØ¯Ø®ÙĦ	2387
ĠÙĬÙĦØ¹	3115
ĠØ§ÙĦØ³Ø¨Ø¹	5977
ĠØ¯Ø¹Ø§ÙĥÙħ	9611
ĠÙĪÙĬÙģØ¹ÙĦÙĪÙĨ	10097
ØŃØ¯	1560
Ø±Ø¶Ùī	2708
ĠØ±Ø£Ø³Ùĩ	6536
ĠÙĪÙħØªØ¹	8435
ĠÙģÙĤÙĦ	1661
ĠØ´Ø§ÙĩØ¯	3196
Ø²ÙĬØ²	508
ÙĥØŃÙĪØ§	7175
ĠØ¨Ø±Ø²ÙĪØ§	8854
ĠÙħØ£	7195
ØµØŃ	5800
ĠÙĪØ³	562
ĠÙĬØ¤ÙħÙĨ	952
ĠØ³Ø¦	5853
ĠØªÙĩØªØ²	9944
Ø±Ø§ÙĪØ¯	7831
ĠÙģØªÙĨÙĪØ§	8318
ĠØ®ÙĦØ§Ùģ	3588
ĠÙĪØµ	1084
ĠÙħØŃÙħØ¯	4627
ÙģØªÙĩÙħ	7396
ĠØªØ¨	939
ĠÙģØ§Ø¯	1939
ĠÙĦØ¬Ø¹ÙĦÙĨØ§	5373
Ø¶Ø±ÙĬÙĨ	7569
ĠÙĪØ¹ÙĨ	1727
ØªÙĤÙħÙĨØ§	4413
Ø®Ø±Ø©	5994
ĠÙħÙģØ§ØªØŃÙĩ	10170
ĠÙģÙĨØ³ÙĬ	9809
ĠÙĦÙģØ§Ø³	10056
Ø³Ùī	302
ĠÙĪÙģ	1548
ĠØ³Ø£	1867
ĠÙĪØ±Ø£ÙĪØ§	6291
ĠÙĬÙģÙĦØŃ	2778
ĠÙĪØ£ÙĤÙĪÙħ	6672
ĠØµÙĦÙī	7982
ØªØ§Ø¨	234
ĠÙĬØŃØ³Ø¨	3656
ĠÙĨÙĪÙħ	7610
ĠÙĪØ£ØŃÙĦ	9657
ĠÙģØ¤Ø§Ø¯Ùĥ	10053
ĠÙģØ§Ø±ÙĩØ¨ÙĪÙĨ	9349
ØªÙĬÙĨ	936
ĠØ¥ÙħØ§ÙħØ§	5399
ĠØºÙĬØ§Ø¨	8041
ĠØ£Ø®Ø°ÙĨØ§	2260
ĠØ§Ø«ÙĨØªÙĬÙĨ	5328
ĠØ§ÙĦÙĨØ¹ÙĬÙħ	2543
ĠØ®ÙĦØ§Ø¦	4869
ĠÙģØ£ÙĤÙħ	7952
ÙģØ¹ÙĪØ§	5727
ĠÙĪÙĦÙĦØ¢Ø®Ø±Ø©	9540
ĠÙĪÙģØªØŃØª	10041
ĠØ§ÙĦÙĪØµÙĬØ©	9243
ĠÙĦÙĪØ§ÙĤØ¹	6886
Ø³	63
ĠÙĦÙĦÙĨØ§Ø¸Ø±ÙĬÙĨ	6491
ĠÙģØ¹ÙĦÙĪØ§	5278
ØºÙĩ	5909
ĠØ¹Ø¸Ø§ÙħØ§	4734
ĠØ£ÙĥØ¨Ø±	1592
ÙĬØ§Ø¯Ø©	7866
ĠÙħØ¨	1086
ĠØ£ÙĦÙģ	1936
ĠØ£Ø¨Ø§	2184
ĠÙĪØ£ÙĤÙĦ	9229
ĠÙĪØ§ÙĦÙĨØ¨ÙĬ	4359
ĠØ§ÙĦÙħÙĩØªØ¯	10084
ĠÙĪØ§ÙĦØ®Ø§ÙħØ³Ø©	9571
ĠØ§ÙĦØŃØ³Ø§Ø¨	1802
ĠØ·ÙĬØ¨Ø§	3675
ĠØ§ÙĦØ±Ø¨Ø§	3205
ĠÙĬØªÙħÙĨ	8117
ĠÙĤØ¨ÙĦÙĥÙħ	1652
ĠÙħØ³ØªÙħ	5113
Ø²ÙĬØªÙĪÙĨ	4241
ĠØ¨ÙģØ§ØŃØ´Ø©	5503
Ø¨Ø§Ø±Ùĥ	1736
ĠØ§Ø¦ØªÙĪÙĨÙĬ	4489
ĠÙĪØ§Øº	6490
ĠÙĨØªÙĦÙĪÙĩØ§	6960
ØµØ±Ø§	3540
ĠØ¢ÙĪÙĪØ§	7712
ĠØ±ÙĪØŃÙĨØ§	6827
ØŃØ§Ø¬	7410
ĠÙĨØ³ÙĬØªÙħ	8784
ĠØµØ±Ø§Ø·	963
ĠØ¨Ø±ÙĩØ§ÙĨÙĥÙħ	5479
ĠÙĪÙĦÙĩÙĨ	9066
ÙĬØ¸	4583
ĠØ£ÙĨØ¬ÙĬÙĨØ§ÙĥÙħ	9952
ĠØ³ÙĨØª	5856
ĠÙħØº	2055
ĠØ®Ø§Ø³Ø±ÙĬÙĨ	4105
ĠÙĦÙĦØ´	4989
ÙĪØ¨ÙĪØ§	6124
ĠÙĪÙĦÙĬÙĩÙħ	8547
ĠØ¹ÙĨÙĩÙħ	605
ĠØ£Ø¹Ø¸Ùħ	8603
ĠÙħÙĨÙĩÙħ	338
ØµÙĬÙĨØ§	4048
Ø¹ÙĦ	158
ĠØ¬Ø¹ÙĦÙĪØ§	6485
ĠØ§ÙĦØ¹ÙĤØ¨Ø©	7966
ĠØ±Ø§ÙĪØ¯	4509
Ø·ÙĦØ¹	7689
ĠÙĪÙĩØ¯Ùī	1756
ĠÙħÙĨÙĬ	2067
ĠÙĪØ§Ø³ØªÙĥØ¨Ø±ÙĪØ§	5255
ØºÙĦØ§ÙĦ	4861
ĠÙĪÙĬØ¹ÙĦÙħÙĩÙħ	6658
ĠØ£ÙĪÙĦØ§Ø¡	7868
ĠØ§ÙĦØ®Ø§ÙĦÙĤÙĪÙĨ	9583
ĠÙĦÙĬØª	3629
ĠØªØ±ÙĬÙĨ	8223
ĠØªØ£ØªÙĩÙħ	8592
Ø§Ø¬	935
ĠÙĬØ¹Ø¯	1941
ĠÙĬØ®ÙģÙī	5103
ĠÙģÙĥØ£ÙĨ	6380
ĠØ§Ø±ØªØ¨ØªÙħ	9343
ĠØ¨Ø§ÙĦÙĨÙģØ³	9859
ĠØºÙģØ±	8037
ĠØ¹Ø¸ÙĬÙħØ§	1420
ĠÙĤØ±Ø¦	9221
ĠØ§ÙĦÙģ	536
ĠÙĬØ¯Ùĩ	6278
ĠØ±Ø£ÙĪØ§	2584
ĠÙħØ¨Ø´Ø±Ø§	9031
ĠØ¨Ø¢ÙĬØ§Øª	505
ĠÙĪØ¨ÙĨÙĬÙĨ	3705
Ø§Ø¦ÙħÙĬÙĨ	8065
ĠÙĪØ£ØºØ±ÙĤÙĨØ§	4841
ĠØ£Ø¬ÙĬØ¨	6255
ĠØ§ÙĦÙħÙĨØ´	8954
ĠÙħØ¹ÙĩÙħ	1990
ĠÙģØ®Ø°ÙĪÙĩ	9634
ĠÙĪØ¢ÙĬØ§Øª	7146
ĠÙĥÙĪÙĥØ¨Ø§	10070
ĠÙħÙĪØ¬	5006
ĠÙħÙĤØªØ§	6804
ĠÙħÙĪÙĦØ§ÙĥÙħ	4520
ĠØ®	136
ĠÙħÙĥØ§ÙĨØªÙĥÙħ	5312
ĠØŃ	129
Ø²	102
ĠÙĨØ¹ÙħØªÙĩ	5219
ĠØ§ÙĦÙħÙĬØ¹Ø§Ø¯	4085
ĠØµØ¯ÙĤÙĪØ§	4334
Ø«Ø§ÙĤ	5865
ĠÙĦØ¹Ø¨Ø§Ø¯Ùĩ	6903
ÙĤÙĬÙĥÙħ	7341
ĠØªØ£ØªÙĬÙĨØ§	5139
ĠÙħÙĤØ§Ø¹Ø¯	9690
ĠÙģØ§ÙĤØ±Ø¡ÙĪØ§	10128
ĠÙģÙĨØ¨Ø°	4403
Ø§ÙģØ±	388
ĠÙĪÙħØ«ÙĦÙĩÙħ	6976
ĠØ§ÙĦØŃÙĥÙĬÙħ	908
ĠØªØ·ÙĩØ±	7492
ĠÙĪØ£Ø¬Ø±	3570
ĠØ³ØŃØ±	1868
ĠÙģÙĦÙĬØ³Øª	5231
ĠÙĥØ¯Ø£Ø¨	7002
ĠÙĥØ¨Ø±	2876
ĠØ°ÙĨÙĪØ¨ÙĩÙħ	9321
Ø§ÙĪÙĪÙĨ	9084
ĠØ§ÙĦØµÙħ	3234
ĠØ§ÙĦØ¯	300
ĠÙĬØ±Ø²ÙĤÙĥÙħ	4530
ĠÙĪØ¢	512
ĠÙĪÙĨØ§Ø¯Ùī	3867
ĠØ´Ùĩ	1009
ĠØ£Ø±Ø§	1062
ĠÙĤØ§Ø¦ÙħØ§	5352
ĠÙħØ±Ø¶Ùī	5290
ĠÙĦØ¨Ø§Ø³	5483
ĠØ§ÙĦÙħÙĨØ§	2696
ĠÙħØ¹ÙĦ	2295
ĠÙĪÙĤÙĪÙĦÙĪØ§	2932
ĠØ£ÙĨÙĬØ¨	7582
ĠÙģØ¨Ø¥Ø°ÙĨ	8714
Ø¸Ø±ÙĬÙĨ	2239
ĠØ¬Ø²Ø§Ø¤Ùĩ	6528
ĠÙĪØ´ÙĩØ¯ÙĪØ§	6692
ĠØ£ÙĬØ¯ÙĬÙĥÙħ	2573
ĠØªÙĤØªÙĦÙĪØ§	3138
ĠÙĦÙĨÙĥÙĪÙĨÙĨ	4261
ÙĪØ³Ùī	3075
ĠØ¨Ø§ÙĤ	5715
ĠØ¬ÙĨØªÙĬÙĨ	7777
ĠÙĪØ§ÙĦØŃØ¬Ø§Ø±Ø©	9569
ØµØ±ÙĪØ§	2552
ĠØ£	61
ĠÙģØ°Ø±ÙĩÙħ	3473
ĠÙģØºÙģØ±	7280
Ø®Ø§ÙĨ	7547
ĠØŃÙħÙĬØ¯	3764
ĠÙĪØ§ÙĦØ¨ØºØ¶Ø§Ø¡	5293
ĠÙĪØ²Ø§Ø¯	6516
Ø¨ÙĦÙĪÙĨ	7188
ĠÙĪØªØ²	4993
ÙĦÙģÙĪÙĨ	2380
ĠÙĬØ±ÙĪØ§	1229
ÙĤØ¨	1390
ĠØ§ÙĦÙĪØ¬ÙĪÙĩ	7133
ĠÙĦÙĬÙĤØ¶ÙĬ	9675
ĠÙĬØ³ØªØ¹Ø¬ÙĦÙĪÙĨ	5097
ĠØ¨Ø§ÙĦØ¥Ø«Ùħ	4517
ĠÙģØ§Ø±Ø¬Ø¹ÙĪØ§	9348
ĠÙģØ¨ÙĦØº	7284
ĠÙĪØ§ÙĦÙħØ´Ø±ÙĥØ§Øª	8634
ĠØ§ÙĦÙĩØ¯ÙĬ	4602
ÙĦØŃÙĬÙĨ	6362
ĠØ¨ØµÙĬØ±Ø©	9076
ĠØ¬Ø¦ØªÙħÙĪÙĨØ§	9094
ĠØ¬Ø¯ÙĦØ§	9842
ĠØŃØ³Ø¨ÙĩÙħ	9297
ĠØªÙĥØ±ÙĩÙĪØ§	5766
ĠØ¨Ø¬ÙĨÙĪØ¯	9940
ĠÙĥØ¨ÙĬØ±	1951
ĠØ¯Ø§ÙģØ¹	7937
Ø¨ÙĩÙħ	1758
ĠÙĦØ£ÙħÙĦ	5112
ĠÙĬØ®ÙĪ	4292
ĠØ®ÙĦÙĤÙĨØ§	1146
ĠÙĦØ°ÙĨ	4666
¤	6
ĠÙĦØ¹ÙĨØª	6439
ĠØ±Ø³ÙĪÙĦÙĩÙħ	8812
ĠØ¨Ø£ÙĬØ¯ÙĬÙĥÙħ	9679
ĠØ³ÙĦØ§ÙĦØ©	7680
ÙĦØ§Ùħ	620
ĠØŃÙĬØ§	4087
¹	26
ĠÙģØµØ¨Ø±	9215
ĠÙģØ§ØªØ¨Ø¹	3027
ÙĦØª	529
ĠØ¨Ø£Ø³	1333
Ø£ÙĬÙĨ	3127
ĠØ´Ø£ÙĨ	5931
ÙĬØªÙĩØ§	6310
ĠÙĬØ£ÙĥÙĦÙĩÙĨ	9301
ĠØ§ÙĦÙĪØ§ÙĤØ¹Ø©	9344
Ø¬Ø¹ÙĪÙĨ	834
ĠØ¹Ø§ÙĤ	1068
ĠØ§ÙĦÙĪ	1492
ĠØ¨ÙĬÙĨÙĬ	2365
Ø±Ø§ÙĥÙħ	4883
ĠØ£ÙĩØ¤ÙĦØ§Ø¡	5064
ĠÙĨØ±Ø³ÙĦ	4804
ĠØ³ÙģØ§ÙĩØ©	10246
ĠÙħØ´Ø±Ø¨ÙĩÙħ	9922
ÙĦÙĪÙħØ§	5317
Ø§Ø´Ø±ÙĪÙĩÙĨ	6571
ĠØ¨Ø·Ø´Ø§	9104
ĠÙĪÙĦÙĥÙĨÙĥÙħ	8502
ĠÙĬØ¶Ø§Ø¹Ùģ	3353
ØªÙĦÙģÙĪÙĨ	1737
ĠÙģØ±ÙĬØ¶Ø©	4414
ØºØ¨	7764
Ø§ÙģÙĦÙĬÙĨ	4248
ĠÙĦØ³Ø§ÙĨÙĬ	9519
ĠØ¢ØªØ§ÙĩÙħØ§	9228
ĠØ§ÙĦØŃØ±Ø¨	7931
ĠÙĪØ§ÙĦÙħØ¤ØªÙģÙĥØ§Øª	10174
ĠÙĤØ§ÙĨ	3144
Ø°Ø§	139
ĠÙģÙĦÙĩØ§	5671
ĠØ£ÙĥÙĦ	8461
ĠÙĪØ£ÙĪØªÙĬÙĨØ§	10247
ĠÙħÙĨÙĩ	540
ØªÙĥÙħ	572
ĠÙĪÙĥÙĨØªÙħ	2940
ÙĤØ¹	2455
ĠØ£ØŃÙĦ	2953
ĠØ£ÙģØª	3270
ĠØ§ÙĦØŃÙĪØª	6001
ĠØ¹ÙħØ¯	6418
ĠØ·ÙĪÙĬÙĦØ§	8274
ĠÙĪØ§ÙĦÙħØºØ±Ø¨	4316
ĠÙĨØ§ØµØ±	9421
ĠØªØ§ÙĦÙĦÙĩ	2874
ÙĦÙĤÙĩ	7968
ĠØ¨Ùħ	882
Ø¹Ø¯Ø§	2217
Ø¨ÙĦØº	1292
ĠØ§Øµ	2012
ĠÙĬØ±Ø¬ÙĪÙĨ	2374
ĠÙĪØ§ÙĦÙħØ¤ÙħÙĨØ§Øª	2392
ĠÙħØ·ÙħØ¦ÙĨ	7214
ĠØ¹Ø¯Ø¯Ø§	6468
ĠØ§ÙĦÙĥÙĦÙħ	4954
ĠÙĬØ±Ø§ÙĥÙħ	7331
ĠÙĬØŃØ¯Ø«	8173
Ø£ÙĬØªÙħ	1418
Ø«	121
ĠØªØ¤ÙģÙĥÙĪÙĨ	5333
ĠØ¹Ø¯ÙĦ	3333
ĠØ¨ÙĨÙĬÙĨ	7366
ĠØ§ÙĦØ¥ÙĨØ¬ÙĬÙĦ	5147
ĠØ¹ÙħÙĦÙĥÙħ	6419
ĠØ¹ÙĤØ¨Ùī	5516
ĠÙĪÙĪÙĤØ§ÙĩÙħ	9176
Ø®ÙĨ	7545
ĠØ§Ø°ÙĩØ¨Ø§	8017
ĠØ¨Ø§ÙĦÙĩÙħ	7843
ĠØ¨Ø§ÙĦÙĨ	4128
ĠÙĪØ§ÙĦÙĬÙĪÙħ	1359
ĠÙĪØ§ÙĦ	107
ĠÙĬØ°ÙĩØ¨	3116
ĠÙĦØ³ÙĨØ©	7311
ĠØ³Ø¹ÙĬÙĥÙħ	9294
ĠØ¬Ø§Ø¡ÙĨØ§	3662
ĠØ§ÙĦØ¬	325
ĠÙĪÙĬÙħÙĬØª	2814
ÙĦÙĤØ©	3620
ĠÙħØ±ÙģÙĪ	6308
Ø«ÙĪÙĨ	1572
ĠØ®Ø±ÙĪØ§	7787
ĠÙĦÙĦÙħØ¬Ø±ÙħÙĬÙĨ	8693
ĠÙĦØ¬Ø¹ÙĦÙĥÙħ	9935
ĠØ¨Ø¬Ø§ÙĨØ¨Ùĩ	10027
ĠÙĪÙĦØ¨Ø§Ø³ÙĩÙħ	10093
ĠÙģÙĬÙħØ§	1315
ĠØ°ÙĪ	1070
ĠÙĬÙģÙĤÙĩÙĪÙĨ	2163
ĠÙģØ§ÙĨØ¸Ø±	2140
ĠØ°ÙĥØ±ÙĪØ§	3007
ĠØ¨ÙĬÙĪØªÙĩÙħ	9502
ĠÙĦÙĬØŃØ²ÙĨ	10110
ÙĦÙĪÙĨÙĥÙħ	3614
Ø¨ÙĩØ§	3443
ĠÙĪØ§ÙĦÙģ	2890
ĠØ£ØŃ	312
ĠØ³Ø§Ø¡	2204
ĠØ§ÙĦÙħØ³ÙĦÙħÙĬÙĨ	2403
ĠØ¬Ø§Ø¡Ùĩ	3252
ĠÙĪØ¹Ø§Ø¯	3278
ĠØ£ØªÙħ	3948
ĠØ¹ÙģÙĪØ§	4730
ĠÙģØ§Ùĥ	6169
ĠÙĪØ¥ÙĨÙĬ	1985
ÙħØ§Ø³Ø§	7461
ĠØ¶ØŃÙī	8340
ĠÙħØ³Ø¬Ø¯	8514
ÙĬØ£	7101
Ø¬Ø§Ø¯ÙĦ	7507
ĠÙħØ«ÙĦØ§	1529
ĠØºÙĨÙĬØ§	6076
ĠÙħØ¹Ø§ÙĬØ´	9870
ØŃØ¨Ø·	4007
ĠØ£Ø¹Ø¯Øª	5372
ĠÙĦØ£ÙĨ	2008
ĠÙĬØ±Ùĥ	6156
ĠØ£ÙĬÙĨÙħØ§	6714
ĠØ¹Ø¨Ø¯	1441
ĠØ§ÙĦØ±ØŃ	217
ÙħØ§ÙĪØ§Øª	5749
Ø§ÙĨÙĩÙħ	2476
ĠÙĬØ´ÙĥØ±	6166
ĠÙĦÙĪÙĨÙĩØ§	7316
ØŃØ³ÙĨ	640
ĠÙĦÙĦÙħÙĥØ°Ø¨ÙĬÙĨ	2243
ĠÙĤØ§ÙĦÙĪØ§	254
Ø¯ÙĨÙī	7256
ĠØ§ÙĦØºÙģØ§Ø±	6320
ĠØ§ÙĦÙĬÙĪÙħ	915
ĠØ§ÙĦÙħØ§Ø¡	1677
ÙĩØ¯ÙĩÙħ	7992
ĠØ¨ÙħØ¹Ø¬Ø²ÙĬÙĨ	3404
ĠØ£Ø¬Ø±	790
ÙħÙĦ	1749
Ø´ÙĬØ©	7579
ĠØ§ÙĦÙĨØ³Ø§Ø¡	1331
ĠØ£Ø±Ø³ÙĦÙĨØ§Ùĥ	2249
ÙĪÙģ	294
Ø°ÙĥØ±ÙĬÙĨ	8427
ĠÙģØ§Ø¯Ø®ÙĦÙĪØ§	9412
ĠØ¯Ø§Ø¹ÙĬ	7939
ÙĩØªØ¯ÙĬÙĨ	2779
ĠÙĦÙĬØ¨ÙĬÙĨ	6053
ÙĩÙī	3077
ĠÙĪÙĨØ®ÙĦ	8247
ĠÙĪØ£ÙĦÙĤÙĪØ§	9391
ĠØ¸Ø§ÙĦÙħØ©	5471
ĠØ¸ÙĩÙĪØ±ÙĩÙħ	4486
ĠØ¹ÙĤØ¨Ø§	9699
Ø°ÙĪÙĤÙĪØ§	1739
Ø´ÙĩØ¯ÙĪØ§	3551
ĠØ¨ÙĬØ¯	3990
ĠÙĪØ¯ÙĬÙĨ	5603
Ø¬Ø¯ÙĨ	6232
ĠÙĤØ¶ÙĬØª	6956
ĠÙĪØŃØ±	3082
ĠØ§ÙĦØ°ÙĬÙĨ	134
ĠÙĪØªÙģØµÙĬÙĦØ§	9988
ĠÙĩÙħØª	8079
Ħ	35
ĠØ³ÙĪ	2483
ĠÙĪÙĦØªØµ	9062
ÙĥÙĪÙĨ	256
Ø¯Ø§	295
ĠØªØ¹ÙĦÙħÙĪÙĨ	739
ĠØ®Ø±Ø¯	7789
ĠÙĪÙĩØ§Ø±ÙĪÙĨ	3053
ĠØªØµØ¯ÙĬÙĤ	9825
ĠØ¨ÙħØ¹Ø°Ø¨ÙĬÙĨ	6809
ĠÙĬÙĤØ§ØªÙĦÙĪÙĨ	2570
ÙĬØªØ§	2044
ÙĪÙĬÙĨØ§	7107
ĠÙĬÙĦØª	3978
ÙĤÙĨØ§	1622
ĠØ³Ø§Ø¯	5854
Ø§ÙģÙĦÙĪÙĨ	6220
Ø¬Ø§Ø¨	2875
ĠÙĦÙĨØ¨ÙĬ	6240
ĠØªØ¤ÙħÙĨÙĪÙĨ	4021
ĠÙĪÙĬØ±ÙĬØ¯ÙĪÙĨ	6662
ĠÙĪÙĦÙħØ§	1092
ĠØ¬ÙĨØªÙĥ	9843
ĠØ¹Ø²ÙĬØ²	1110
Ø¨Ø©	726
ĠØºÙĦØ¨	4961
ĠØ®Ø§Ùħ	7785
ĠÙĬØŃØ´Ø±	8169
ĠØ£Ø·ÙĩØ±	7244
ĠÙĬÙĨØªÙĩÙĪØ§	8138
ĠÙĨØ§Ø¸	7636
Ø¶ÙĦ	384
ĠÙĦÙĬÙħ	5681
ĠÙĦØ¹ÙĦÙĥÙħ	729
ĠØ¨Ø¹Ø«Ø±	8112
ĠÙĦÙĥØ§ÙĨ	3683
ĠÙĪØ§ÙĦÙħØ³Ø¬Ø¯	9360
ĠØŃÙĦØ§ÙĦØ§	4859
ĠØ³ÙĬÙĤÙĪÙĦ	5175
ĠÙĬØ¹ÙħØ±	5314
ĠÙĪÙĨØ¨Ø¦ÙĩÙħ	8252
ĠÙģØ£ÙħÙĦÙĬØª	9978
ĠÙģØ£Ø®Ø°	1202
ĠÙħØ¹ÙĦÙĪÙħØ§Øª	10321
ĠØ¨ÙĬÙĪØªÙĥÙħ	3830
ĠØµÙĪØ§	6034
ĠÙĨØ¨Ø¥	6530
ĠØ§ÙħØ±Ø¦	4557
ĠÙĪÙĦØªØ¨ÙĦØºÙĪØ§	9065
ĠÙĦØ°Ø©	9811
ĠÙĬØ°ÙĪÙĤÙĪÙĨ	10202
ĠÙħÙĪØ¹Ø¯Ø§	5008
ĠØ®ÙĪÙĦ	7782
ĠØ§Ø³ØªÙħØ¹	9269
ĠÙĪØ±Ø¨ÙĥÙħ	2588
ĠØ¬Ø§ÙĨ	2497
ĠÙĬØ±Ø«ÙĪÙĨ	8185
ĠØ·ØºÙĬØ§ÙĨØ§	5039
ĠØ°Ø±Ø§	7858
Ø·Ùħ	2335
ĠØªØ°ÙĥØ±ÙĪØ§	7483
ĠÙĪÙĬØµØ¯ÙĪÙĨ	5469
ĠØ³ÙĬØ¦Ø§Øª	1486
ÙħØ¹	346
ĠØ£Ø¬ÙĦÙĩÙĨ	4269
ÙĥÙī	2053
Ø§Ø¯ÙĪØ§	1364
ĠÙĥØ§ÙĦØ°ÙĬ	4378
ĠØªØ²Ø±	3366
ĠÙħØ´ÙĥÙĪØ±Ø§	9309
ĠÙħØºÙĨÙĪÙĨ	9445
ÙĬÙĪØ¨	4584
ÙĪÙĨÙĬ	2459
ĠÙĬØ£ØªÙĬÙĥÙħ	3015
Ø¯Ø¹ÙĪÙĨ	3955
ĠÙħØ¨Ø¹ÙĪØ«ÙĪÙĨ	7215
ĠÙĪØ¶	2050
ĠÙĥØ°Ø¨Ø§	1899
ĠÙĬÙĪÙħÙĥÙħ	4192
Ø±Ø§ÙĩÙħ	3598
ĠÙĬÙĨØ§Ø¯ÙĪÙĨ	5415
ĠÙħØ§Ø¦	2179
ĠÙĨÙĤØ§ØªÙĦ	7638
ĠÙĬÙĨØ§ÙĦÙĩÙħ	8139
ĠÙħØ®	1386
ĠÙģÙĬÙĪÙħ	4766
ĠÙĬÙĥØªØ¨ÙĪÙĨ	4256
ÙĤØªÙĦÙĪÙĩÙħ	4458
ĠÙĬØ¸ÙĨ	9353
ĠØ³Ø¬ÙĬÙĦ	6717
ĠØ§ÙĦÙģØ¶ÙĦ	2014
<PAD>	0
ĠØ£Ø¨Ø¹Ø«	7241
ÙĩØ§Ø¬Ø±ÙĪØ§	4781
ĠÙĪÙĤÙĪÙĦÙĩÙħ	6030
ĠÙĪØªØ°Ø±ÙĪÙĨ	6141
ĠØ§ÙĦØŃÙĥÙħØ©	4512
ĠÙĪØ£ÙĦÙĤÙĬÙĨØ§	5383
Ø¨Ø¥	5620
ĠØ§Ø¹ÙĦÙħÙĪØ§	6062
ÙĪÙģÙĬÙĨÙĥ	6165
ĠÙĤØ§Ø¯Ø±	7534
ĠØ³Ø§ÙĤ	5857
ĠÙĦÙĬØ¯	3477
ĠÙĥÙĩÙģÙĩÙħ	10226
ĠØ§ÙĦØ£ÙĪØª	7810
ĠÙĩØ§ØªÙĪØ§	4816
ĠØ£Ø®ÙĦÙģ	8649
ĠØ§ÙĦØ¸ÙĦ	6285
ĠØ¹Ø¶	7433
ĠÙģØ¥ÙĨÙĩÙħ	2533
ĠØ§ÙĦØ³ÙĬØ¦Ø©	4450
ĠÙĬØ¹ÙĬØ¯Ùĩ	3282
ØªÙĦØ§Ùģ	3441
ĠØµØ¯ÙĬÙĤØ§	8720
ĠØ£ÙĦÙĪØ§ÙĨÙĩØ§	9692
ĠÙĪØ£Ø¯Ø¨Ø§Ø±ÙĩÙħ	10082
ĠØ§ÙĦØ£ØŃØ²Ø§Ø¨	2501
ĠÙħØ§Ø°Ø§	1398
ĠÙħØ¤	2177
ĠØ°ÙĩØ¨	2214
ĠÙĨØ¹ÙħØªÙĬ	3765
ĠÙĪÙĦÙĤ	4121
ĠØ§ÙĦØ¹ÙĤØ§Ø¨	1804
ĠÙĪØªØ±	6137
ĠØ§ÙĦØ®	400
ĠÙĤØ§ÙħÙĪØ§	5517
ØµÙĩ	4047
ĠØ§ÙĥØª	3219
ĠÙĥÙħØ«ÙĦ	2156
ĠØ´ÙĬØ¹ØªÙĩ	7019
ĠÙĥØ§ÙĦØ£ÙĨØ¹Ø§Ùħ	8929
ĠÙĬØºÙģØ±	1502
ĠØ£Ø¯Ø¨Ø§Ø±	4362
ĠÙĬÙħØ´ÙĪÙĨ	4365
Ø´Ùī	1633
ĠØ§ÙĦØ£Ø´ÙĤÙī	9852
ĠØ§ÙĦÙĤØµ	3217
ĠÙĬØ³ØªÙĪÙĬ	2005
ĠÙģØ¦	5662
ÙģØ³ÙĩÙĨ	7998
ĠØªÙħØªØ¹	9563
ĠØªØ±ÙĩÙĤÙĩÙħ	8231
ĠØªØ±Ø¶	5754
ĠÙĨØ³Ø¨	7619
Ø§Ø·ÙĬØ±	2549
ØºÙģØ±ÙĪØ§	2982
ĠØ®Ø§Ø¶	7788
ĠÙĪØ¬Ø¹ÙĦÙĪØ§	3026
ØŃÙħ	293
ÙĪÙħÙĬÙĨ	4831
ĠØµØ¨ØŃ	7986
Ø¶ÙĬÙĦØ§	8858
·	24
ÙĦÙĪ	1421
ĠØ§ÙĦØ£ØŃ	4113
ĠØ¨Ø¬ÙĩØ§Ø²ÙĩÙħ	9797
ĠÙģÙĦØ¹	5017
ĠØŃØ±ÙĤÙĪÙĩ	8867
ĠØµØºÙĬØ±	6038
ĠÙĥØ£ÙĨÙĩÙħ	2425
ĠÙĨØµØ±Ø§	6498
ĠØ¹ÙħÙĦ	1665
ĠØ¨Ø±Ø³ÙĪÙĦ	7376
ĠØ¬Ø§Ø¯	7769
ĠÙĬØ¯Ùĥ	4284
ĠØ£Ø´Ø¯Ùĩ	4393
ĠØ¨ÙĨØ§ÙĩØ§	7374
ĠÙĪØ¹Ø¯ÙĩÙħ	8689
ĠØ£Ø±Ø¯ÙĨØ§	4345
ĠØ³ÙĬØ¬Ø²ÙĬÙĩÙħ	8711
ĠØ¥ÙĬÙħØ§ÙĨÙĩ	9160
ĠØ£Ø¥	1217
Ø«Ø±ÙĪÙĨ	7697
ÙĩØ§Ø¬Ø±	2884
ĠÙĦÙĬØ°ÙĥØ±ÙĪØ§	6056
ĠÙģØ§Ø³ØªÙĪÙī	8933
ĠØ¹ÙĨ	157
ĠÙģØ§Ø¬ÙĦ	8203
Ø¯ÙĪ	5648
ĠØ¬Ø§ÙħØ¹	6893
Ø§Ø¨Ùĩ	2895
ĠÙĪØ£ÙĪØŃÙĬÙĨØ§	3064
Ø±Ø¨Ø¹Ø©	8053
ĠÙĪØ§ÙĦØ°ÙĬÙĨ	339
ĠÙĥÙĬÙĦ	5777
ĠØ£ÙĨØ¹ÙħØª	3385
ĠÙĦØ²ÙĦÙģÙī	10197
ĠÙĪÙĥ	202
ĠÙĪØ£Ø¯	3569
Ø¨Ø§Ø¦	3446
ĠØªØ¶Ø¹	5761
ĠØ§ÙĦØµØ§ÙĦØŃÙĬÙĨ	1597
ĠÙģØ£ÙħØ³Ùĥ	6015
ĠÙĪØ§ÙĨØª	6712
ÙĦÙĤÙĪØ§	7969
ĠØ±Ø¡ÙĪØ³ÙĩÙħ	3879
ĠØªÙĦØ¨	4023
Ø£Ùĥ	2191
ÙģØ±	137
ĠÙģÙĦÙĬØ£ØªÙĪØ§	10015
ĠØ£ÙģØ¨Ø¹Ø°Ø§Ø¨ÙĨØ§	8312
ĠØ§ÙĦØ·ÙĪØ±	3330
ĠØªØ¨Ø¯ÙĪØ§	5377
ÙĪØ¯ÙĪØ§	3266
ĠØ³ÙĥØ±	7660
ĠÙĬØ´ØªØ±ÙĪÙĨ	5015
ĠØ±Ø³ÙĦÙĩ	4252
ĠØ£Ø¹ÙħØ§ÙĦÙĩÙħ	1236
ĠØ®Ø§ÙĦØ¯ÙĪÙĨ	1338
ĠØ§ÙĦØ£ÙĦØ¨	1798
ØªÙĤ	1148
ĠØ£ÙĤÙĪÙĦ	2636
ĠÙĪÙĦÙī	5595
ĠØ£ÙĨØ¨	5828
Ø¹ÙĨÙĥÙħ	7227
ĠÙĨØ¤	2687
ĠÙĪÙħØ¹	5602
Ø°Ùĩ	552
ĠØ¹ÙħÙĦØ§	3005
Ø·ÙĨØ§	3566
ĠØ§ÙĦÙĤØªØ§ÙĦ	2935
ÙĪØµ	4589
ĠÙĬØºØ±	5196
ĠÙĦØ¥Ø®ÙĪØ§ÙĨÙĩÙħ	5426
ĠØ¨ÙĬÙĨØ§	5708
Ø¹ÙĦÙĪÙĩ	7863
ÙĨØ§ÙĨ	5747
ĠÙħÙĪØªØªÙĨØ§	8183
ĠÙĬÙĥØªØ¨	8351
ĠÙĬØºÙĬØ±ÙĪØ§	8808
ĠØŃØ³Ø§ÙĨ	8817
ĠØ§ÙĦØŃØ·	6000
Ø§Ø¤ÙĥÙħ	1669
ÙĪØ¶Ø§	7112
ĠÙĨØ¯Ø¹	7631
ÙĬØ§ØªÙĥÙħ	8048
ĠØ¨ÙħØ³Ø¨ÙĪÙĤÙĬÙĨ	8919
ĠØ¯ÙĬÙĨÙĬ	9001
ĠØªÙģØ±ÙĤÙĪØ§	6846
ĠØ£Ø³Ø±Ùī	9514
ĠØ£ØŃØµÙĬÙĨØ§Ùĩ	9617
ĠÙĦÙĦØ³	4209
ĠØªØ·	1950
ĠØ¢ØªÙĬÙĨØ§	850
Ø°Ø¨Ùĩ	4185
ĠØ³Ø¨ÙĬÙĦ	543
ØŃÙĥÙħÙĩ	8927
Ø	28
ĠÙħØ³ØªÙĤØ±Ø§	5434
ĠÙĪØŃÙĤØª	8819
ĠÙĦÙħØŃØ¶Ø±ÙĪÙĨ	10115
ÙģØ§Ø±Ø§	5077
Ø§ØªÙĦ	1702
ÙħØ±	292
ĠÙĥØ§ÙĦ	905
Ø¹Ø¬ÙĦÙĪÙĨ	2033
ÙĪÙģÙĪÙĨ	5011
ĠØ¯Ø§Ø¦	3617
ĠØ±Ø§Ø¯	7558
ĠØ®Ø·Ø¨Ùĥ	9372
ĠÙĦØ¬Ø¹ÙĦÙĨØ§Ùĩ	10025
ĠÙĪØ§ÙĦØŃÙĥÙħØ©	2432
ĠØªØ¤ÙħØ±	9252
ĠÙĪÙĩÙĦ	6552
ĠØ¢ÙĦØ¢ÙĨ	9089
ĠÙĪØ§ÙĦØ¹	2889
Ø§Ø¯ÙĤÙĪÙĨ	3611
ĠØ£Ø´Ø¯ÙĥÙħ	8986
ĠØ¥ÙĨÙĥ	814
ĠÙģÙħÙĨÙĩÙħ	2390
ÙĪÙĬÙĦ	1674
Ø¨Ø§ØŃ	5070
ĠÙģØ¯Ø¹ÙĪÙĩÙħ	7296
ĠÙĬØµÙĦØŃÙĪÙĨ	8781
ĠØ³	116
Ø¹Ø¨Ø¯	727
ĠÙĪØ¸Ø§	7153
ĠØ¬Ø§Ø«	3583
ÙĥØ±	189
ĠØ§ÙĦØ³ÙĥÙĬÙĨ	7877
ĠØ§ÙĦØºÙĬÙĪØ¨	5443
ĠØ£ÙĨØ°Ø±	3553
ĠØ§ÙģØªØ±ÙĬØªÙĩ	9083
°	17
ĠÙĪØ£ÙĪÙĦ	4075
ĠØ§ÙĦØ®ÙĬØ±Ø©	9303
ØŃÙĦÙģÙĪÙĨ	7413
ĠÙĬÙĤØ§ÙĦ	6429
ĠØ·Ø§ØºÙĬÙĨ	9996
ĠÙĥÙĬØ¯	1506
Ø¨ÙĦÙĪÙĨÙĥÙħ	5625
ĠØ¬Ø¦Øª	3805
ĠÙħØ³Ø§Ùĥ	3713
ĠØ£Ø¬ÙĦ	1374
ĠÙħØ¨ÙĦ	5629
ĠØ£Ø³ÙĦØŃ	6402
ĠØ®Ø±Ø¬Ø§	9536
ĠØ£Ø±Ø¬	2639
Ø²ÙģØ©	7574
ĠØ¨Ø§ÙĦÙĤØ³Ø·	2034
ÙĪÙĥ	481
Ø§ÙģØ±ÙĪÙĨ	1015
ĠÙħØµÙĬØ±Ø§	6584
ĠÙĪØ§Ø®ÙģØ¶	6789
ĠÙĬÙĦØ¹Ø¨ÙĪÙĨ	4546
ĠØ§Ø¯ÙģØ¹	8942
Ø¹ÙĦÙħÙĨ	3203
ĠØ§ÙĦØ¸Ø§ÙĦÙħÙĪÙĨ	1335
ĠÙĪÙĨØ¬ÙĨÙĬ	7020
ĠØ¹Ø³ÙĬØªÙħ	10215
ĠÙĨØ±	2686
ÙĤØ·	1769
ĠÙĪØ£Ø±Ø¬ÙĦÙĩÙħ	9707
ĠØ¹Ø§ÙĤØ¨Ø©	1237
ĠØªØ¹	463
Ø°Ø§ÙĨ	1690
ĠÙĦÙģØ±Ø¹ÙĪÙĨ	9749
ĠÙĪØ§ÙĦØŃ	2477
ĠØ±Ø¬ÙĦØ§	3003
Ø§Ø¡Øª	3169
ÙĤÙĬÙĨ	331
Ø£ÙĪÙī	4720
ĠÙĪØ§ÙĦÙħÙĨØ§ÙģÙĤÙĬÙĨ	5153
ĠÙĬÙģØ³Ø¯ÙĪÙĨ	6823
Ø±Ùĩ	1303
ĠØ£Ø£	1553
ĠÙĪÙĦ	147
Ø¤ÙħÙĨÙĬÙĨ	375
ĠÙĬØ¤ØªÙĬÙĩÙħ	8723
ĠØ£Ø¹Ø±Ø¶	2773
ĠØªØ§Ø¨	1395
ĠØ¢Ø¯Ùħ	1512
ĠØ£ÙħØ±Ø§	1714
ĠÙĦØ´ÙĬØ¡	3971
ĠØªØ®Ø²ÙĪÙĨ	8729
ĠÙĬÙħÙĬÙĨ	4677
ÙħØ³ÙĨØ§	8521
ĠÙĬØµÙĦØ§ÙĩØ§	8782
ÙĪÙĦÙĪØ¯	5872
ĠÙĪØ§ÙĦØ³Ø§Ø¹Ø©	9056
ĠØ±Ø³ÙĪÙĦ	720
ĠØ¢ØªÙĬØªÙħÙĪÙĩÙĨ	5300
ĠÙĪØ§Ø°ÙĥØ±	1721
ĠØ£ÙĬØŃØ³Ø¨	4985
ĠØ£ÙĬØ¯ÙĬ	3761
Ø·ÙĩØ±ÙĬÙĨ	9295
ĠÙĬÙĨÙĩØ§ÙĥÙħ	8141
ĠÙĪÙĬÙĦÙĥÙħ	7893
ĠØ¨Ø´ÙĬØ¡	3497
ĠÙĬØ£ØªÙĬÙĨÙĥÙħ	6817
ĠÙĨØ§Ø¯ÙħÙĬÙĨ	5361
ĠØ£ÙĪØªÙĪØ§	1093
ĠÙĪØŃØ³ÙĨ	3434
Ø¬ÙĬØ¨ÙĪÙĨ	9329
ĠØ§ÙĦØ®Ø·Ø§Ø¨	10136
ĠÙģØ¥ÙĦÙĬÙĨØ§	7994
ĠØªØ¹Ø¯	2467
ĠÙĨØµÙĬØ±Ø§	2251
ĠØ±Ø³ÙĦØ§	2966
ĠÙĪØ¬Ùĩ	1052
ĠØ§ÙĦØ«ÙĪØ§Ø¨	9275
ĠÙĪØ£ÙĨÙĩ	2108
ØŃÙħØªÙĩ	2539
ĠÙĪØ§Ø¹ØªØµÙħÙĪØ§	5550
Ø¬ÙĪØ¯	3529
ÙĦÙħ	113
Ø³ÙĤ	3102
ĠØ¬Ø¹ÙĦÙĨØ§Ùĥ	6524
Ø³ÙĪÙĩ	7260
ĠØ¹ÙĦÙĬÙĩ	373
ĠÙħÙĨØª	3511
ĠÙĪØ£ÙĤ	1455
ĠØ¶ÙĦØ§ÙĦØ§	3789
ĠØªØ±Ùĥ	1371
ĠÙĪÙĦØ¯ÙĬÙĨØ§	9149
ĠØ§ÙĦÙĤØµØ§Øµ	9719
ĠÙĪØ¢Ø«Ø§Ø±Ø§	10143
ÙĤØªÙĦÙĪØ§	2117
ĠØ§Ø³ØªØ¶Ø¹Ùģ	3717
ĠÙĦØ§Ø¨	5680
ÙĬØ«	530
ĠÙģÙĪÙĤÙĥÙħ	3781
ĠÙĬØµØ¯Ø¹ÙĪÙĨ	9450
Ø¨Ø§Øª	7187
ĠØ·Ø¹Ø§Ùħ	2109
ĠØªÙĤÙĪÙħ	2127
ĠØŃØ³ÙĨØ§	1378
ĠÙĤÙĦÙĬÙĦ	2322
ĠÙģÙĪØ±	5665
ĠØªÙĨØ²ÙĬÙĦ	2561
ĠÙĥØ¸ÙĬÙħ	5779
ĠÙĦÙĬÙĨØ°Ø±ÙĥÙħ	9520
ĠØ£ÙħØ³Ùĥ	4915
ĠØŃØ³Ø¨ØªÙħ	6700
ØªÙĬØ§ÙĨ	8060
ĠØ§ÙĦØŃÙħÙĬÙħ	4379
ĠØ³ÙħØ¹Ùĩ	8997
ĠÙĨØ³Ø¨ØŃ	7625
ĠÙĨØ¶Ø±Ø¨ÙĩØ§	10240
ĠØ§ÙĦÙĦØ¹ÙĨØ©	7039
ĠÙĪØªØ´	8149
Ø¹ÙĨØ§ÙĤ	9156
Ø³ÙĩÙħ	3103
ĠØ³ÙħØ¹ÙĪØ§	3793
Ø³ÙĨ	315
ĠØªØ£ØªÙĬ	6348
Ø¨Ø¦ÙĥÙħ	1600
Ø¨Ø´Ø±Ø§	5624
ĠØ§ÙĦÙĥØ§ÙģØ±	8027
ĠØªØ´Ø±ÙĥÙĪÙĨ	3136
ÙĤÙĪÙĩ	3486
ĠØ¨Ø§ÙĦÙĥ	3200
ÙĪÙĨØ§	3501
ĠØ±Ùĩ	4049
ĠÙĪÙĬØ³Ø¨ØŃ	7894
Ø§Ø·Ø¨ÙĨÙĬ	8377
ÙħÙĪØ§	873
ĠÙĪØªØ±ÙĥÙĨØ§	3408
ĠÙĬÙĦÙĤÙĪÙĨ	6732
ĠØ¹Ø±ÙĪØ´ÙĩØ§	6920
ĠÙĦÙĦÙħØŃØ³ÙĨÙĬÙĨ	8694
ĠÙħØŃÙģÙĪ	9071
ĠØ´ÙĬØ®Ø§	8059
Ø³Øª	163
ĠØ£Ø±Ø§Ø¯ÙĨÙĬ	9274
ĠÙĪÙĬÙĥÙģØ±	5984
ĠÙĪØ·	1385
ĠÙĥØ´	4750
ĠØ£ØªÙĬÙĨØ§ÙĩÙħ	9925
ĠÙĦØ¹Ø¨Ø±Ø©	4344
ĠÙħØ±ÙĬÙħ	1077
ĠØ¨Ø¹ÙĪÙĦØªÙĩÙĨ	8115
ĠÙĬÙĨØµØ±ÙĨÙĬ	9551
ĠØ®Ø¨Ø§ÙĦØ§	10255
ĠÙģØ§Øµ	1688
ĠÙĪØ¬ÙĨÙĪØ¯ÙĩÙħØ§	10167
ĠÙĥÙĬ	4747
ĠØ£Ø¨ÙĦØºÙĥÙħ	9633
ĠØ¨ÙĬÙħÙĬÙĨÙĥ	9757
ĠÙħÙĨÙĥ	3510
ÙĨØ°Ø±	2165
ĠØŃÙĥÙħØ§	2597
ĠÙħÙĬØ±Ø§Ø«	10188
ÙĪÙĦØªÙĩÙĨ	4830
ĠØ§ÙĦØ£Ø±Ø§Ø¦Ùĥ	4568
Ø§Ø¬Ø¯	1748
Ø¦Øª	7702
ĠÙħØ¹Ø°Ø¨ÙĩÙħ	8102
ĠÙĪØ£ÙĬØ¯	2491
Ø±Øµ	7120
Ø§Ø³	1101
ĠØ§ÙĦØ°ÙĩØ¨	7652
ĠÙĪÙĨØ¬ÙĬÙĨØ§	6198
ĠØ±Ø£ÙģØ©	8931
ĠØ¨Ø§ÙĦØ¹Ø±ÙĪØ©	9974
ĠØ¨Ø§ÙĦÙħØªÙĤÙĬÙĨ	10263
ĠØ´ÙĬØ§Ø·ÙĬÙĨ	8057
ĠØ§ÙĦÙĨØ´ÙĪØ±	8240
ĠØ¶Ø¹Ùģ	2548
ĠÙĪØ£ØŃ	2901
Ø±Ø§Ø±Ø§	2346
ĠÙĦÙĬØ¸ÙĦÙħ	6054
ĠØŃØ±Ø«ÙĥÙħ	9735
ĠÙĬÙĨØ¸Ø±ÙĪÙĨ	1295
ĠÙĪØ±ØŃÙħØ©	1336
ĠÙĪØ§ØºÙģØ±	5211
ĠØ§ÙĦÙħØ¹ØªØ¯ÙĬÙĨ	5509
Ø³ÙĥÙħ	3468
ĠØµØ¯ÙĪØ±ÙĩÙħ	2569
ĠØªØ³ØªØ¹Ø¬ÙĦÙĪÙĨ	3348
ĠØ§ÙĦØªÙĨØ§	7131
ĠØ´Ø§	3194
ĠØ°ÙĨ	1641
ĠØªØŃØ³Ø¨	2551
ĠØ§ÙĦØŃØ³ÙĨ	2089
Ø§Ø¯Ø§	1800
ĠØªØ¬Ø±ÙĬ	828
Ø¨ÙĦØ¯	3639
ĠØ¹Ø¯ÙĨØ§	6467
ĠØ³Ø¢	7658
Ø®ÙĪØ§ÙĨÙĥÙħ	4440
ĠÙĪÙĬÙĥÙĪÙĨ	4899
Ø¹Ø§	282
ĠØ§ÙĦØµØ§Ø¹ÙĤØ©	6100
ĠØ£ÙħØ¯ÙĥÙħ	7927
ĠÙĥÙģÙĪØ±	4031
ĠÙĬÙĦØ¬	6948
ĠØ¬Ø§ÙĩØ¯	4096
ĠÙĬØŃØ§Ø¯ÙĪÙĨ	8174
ĠØ§ÙĦØ±ÙĬØŃ	2924
ĠÙĨÙĪØŃØ§	3344
ĠØ§ÙĦØ¹Ø§ÙħÙĦÙĬÙĨ	6021
ĠØ£ÙĦÙĬÙħ	791
ĠØªØ£ÙĪÙĬÙĦØ§	8596
ØµØ±Ø©	5083
ĠÙĪØ¬Ø¹ÙĦÙĨÙĬ	5242
ĠÙĬØ£ØªÙĪÙĥ	5391
ĠÙħÙħØ§	458
ĠØªØ±Ø¬Ø¹ÙĪÙĨ	1526
Ø¬Ø§Ø©	9457
ĠØªÙĥØ°Ø¨Ø§ÙĨ	1125
ĠØ³ÙĦØ§ÙħØ§	3166
ĠÙĪÙģØ¬Ø±ÙĨØ§	6691
ĠØ¨Ø¢	1558
ĠØ°ÙĨÙĪØ¨ÙĨØ§	5424
ĠÙĬØ¹ÙħÙĦ	2599
ĠÙĪÙĦÙĥÙĨ	448
ĠÙĬØŃØ°Ø±ÙĪÙĨ	8171
ĠØ§ÙĦÙħØ¬Ø±ÙħÙĪÙĨ	2081
ĠÙģÙĦØ¹ÙĦÙĥ	9989
ĠÙĪØ£Ø®Ø§Ùĩ	6742
ĠØ£Ø®Ø·	8648
ÙĬØªÙħ	1751
ĠØ¥ÙĬØ§ÙĨØ§	9453
Ø±ÙĪÙģ	948
Ø¯ØªÙħ	4643
ĠØ·Ø±Ùģ	6207
Ø¦ÙĪØ³	7706
Ø¸ÙĨÙĪÙĨ	7828
ĠÙĪØ³ÙĪÙģ	4320
ĠØ§ÙĦØ¥	514
ĠØ£Ø±	688
ĠÙĨØ¬Ø²ÙĬ	1537
Ø¨ÙĪØ±Ø§	3087
ÙħØ¹ÙĪÙĨ	3069
ÙĩÙĪÙĩ	6105
ĠÙħÙĪÙĦØ§ÙĩÙħ	9554
ĠÙģØ§ØªÙĥÙħ	6541
ĠØ£ÙĨÙĩØ§Ø±Ø§	7584
ĠØ¯Ø¹ÙĪØ§	1977
ĠØ¨Ø³ÙĦØ·Ø§ÙĨ	3032
ĠÙĪØ§ÙĦØ´ÙĬØ§Ø·ÙĬÙĨ	7608
ĠØµÙģØ§	3214
ĠØ³Ø¨Ø¹ÙĬÙĨ	9226
ĠØ£ÙħØ±ÙĨØ§	1827
ĠØ§Ø³ØªØ¬ÙĬØ¨ÙĪØ§	8560
ĠÙĪÙĬØ±ÙĬÙĥÙħ	9212
ĠØªØ±	317
ĠØ¨ÙĩÙĬØ¬	8011
ĠÙĬÙħÙĬÙĨÙĥ	6999
ĠØ£Ø¨ÙĨØ§	6409
Ø´Ø±	215
ĠØ§ÙĦØ¨Ø§Ø¨	3714
ĠÙĪØ£ÙĤØ¨ÙĦ	9230
ĠÙĪØ¢ÙħÙĨØªÙħ	9730
ĠÙĪØ¢ÙĦ	6358
ĠØ§ÙĦØ¨ØŃØ±ÙĬÙĨ	5286
ĠØ³ÙħØ§	2484
ÙģÙĥØ±ÙĪÙĨ	4711
ĠÙĬÙĦØŃØ¯ÙĪÙĨ	6950
ÙĦÙħÙĨØ§	7653
ĠØ°ÙĥØ±Ùĩ	8748
Ø®ÙĦØ¯ÙĪÙĨ	6347
ĠÙĪÙĬØ¹ÙĦÙħÙĥÙħ	6659
Ø´ÙģÙĤ	9184
ÙĤÙĪÙħ	5695
Ø±ÙĪÙĨÙĥ	7887
Ø§ØªÙĦÙĪÙĩÙħ	5364
Ø´Ø±Ùī	4189
ĠÙĦØ¨Ø¦Ø³	3972
Ø¨Ø¹ÙĬØ¯	4196
ĠÙģØªØµØ¨ØŃ	6226
Ø§Ø°Ø¨ÙĪÙĨ	2042
ĠØ§ÙĦÙĪÙĦÙĬ	9241
ĠØ·ÙĦÙĤØªÙħÙĪÙĩÙĨ	9620
ĠØ¥Ø®ÙĪØ§ÙĨ	4533
Ø¬Ø¯ÙĪØ§	1074
ĠØ£ÙĨÙģÙĤÙĪØ§	2329
ĠÙĪØ§ÙĦÙĤ	1047
ÙĦÙĨØ§ÙĩÙħ	3229
Ø·ÙĩØ±ÙĪÙĨ	5862
ĠØ§ÙĦØ®ÙħØ±	6267
ĠØªÙĥØ³Ø¨	6294
ĠØŃÙĪ	7751
ĠÙĪÙĬÙĤØ·Ø¹ÙĪÙĨ	7908
ĠØ£ØºÙĨÙī	2807
ĠÙĪÙĦØ¹ÙĨÙĩÙħ	9427
ĠØŃØ§ÙħÙĬØ©	10085
ĠØ£ØµØŃØ§Ø¨	694
ĠÙĪØªØ¬Ø¹ÙĦ	8153
ÙĥØ±ÙĬÙĨ	2091
ĠØŃØ³Ø¨Ø§ÙĨØ§	9298
ĠØ±ØŃÙħØª	3745
ÙĤØ³Ø·	4690
ĠÙĪØ³ÙĦÙĬÙħØ§ÙĨ	5165
ĠÙĤØ§ÙĦØªØ§	7821
ĠÙĬØ¨Ø§	4679
ĠØ£Ø¨ÙĪÙĩÙħ	8700
ÙĬØ¨	266
ĠÙĪØ¹ÙĦÙħÙĨØ§Ùĩ	9624
ĠØ¯ÙĪÙĨÙĩÙħØ§	8390
ĠÙĬØ¹Ø²Ø¨	8383
ÙĤØ¶ÙĪØ§	7342
ĠØŃØ±Øµ	8865
ĠØ§ÙĦØ¹Ø¯Ø§ÙĪØ©	5535
Ø§Ø¯Ø¹ÙĪÙĨ	7913
ĠØªØŃØ³Ø¨ÙĨ	4531
ĠÙĪÙĬÙĩØ¯ÙĬÙĩÙħ	9398
ĠØ§ÙĦÙħØµØ¯ÙĤÙĬÙĨ	7748
ĠÙĪÙħÙĨ	183
ĠØ§ÙĦØ¹Ø§Ø¬	6020
ĠØ£Ø¹ÙħÙĦ	5227
ĠØ¨ÙĤØ±	3493
ĠÙĪØ¨Ø¹	7140
ĠØ¨Ø·ÙĨÙĩ	9103
ÙģØ§ÙĤ	6245
ĠÙĪØ§ÙĦÙĥÙģØ§Ø±	9389
Ø¶Ø¨	1565
ĠØ§ÙĨØ·ÙĦÙĤÙĪØ§	10150
ĠØ¨ÙĩØ°Ø§	1982
ĠÙĬØŃ	279
ĠÙĬÙĨÙĥØ«ÙĪÙĨ	9725
ĠØ´Ø±ÙĬÙĥ	5932
Ø¨Ø±Ùĩ	6096
ÙĨÙĪØ§ÙĨ	6599
ĠØºÙĦØ§Ùħ	4962
ĠÙĪØ±Ø²ÙĤÙĨØ§ÙĩÙħ	6786
ĠØ£Ø¬Ø±ÙĬ	2754
ĠÙĪØ§ÙĦÙģÙĦÙĥ	9647
ĠÙĪØ§ÙĦØ¨ØºÙĬ	9119
ØªÙħÙĪÙĩÙĨ	2700
ĠÙĬÙĪØ¹Ø¸	6394
ĠØ§ÙĦÙħØ±ÙĬØ¶	7749
ĠÙĤØ±Ø¨	4038
ĠØŃØ³Ø§Ø¨Ø§	5200
ĠÙĪØ§ÙĦØ³Ø§Ø¨ÙĤÙĪÙĨ	9057
ĠÙģÙĦÙĬØ³	3342
Ø¨Ø¯	249
ĠØªØ¹Ø¯ÙĦÙĪØ§	5438
ĠØ¹ØµØ§Ùĥ	6621
ĠØ§ÙĦØ£ÙĪÙĦÙĬÙĨ	1126
ĠØªØ¹ÙĦÙĨÙĪÙĨ	5764
ĠØ®ÙĪØ§Ø±	7791
ĠÙĪÙĦØ°ÙĬ	7838
ĠØ¨Øµ	1275
ĠØ§ÙĦØ¹ÙħØ±	5461
ĠØ§ÙĦØ³ÙħØ§ÙĪØ§Øª	314
ĠÙĤÙħ	5784
ÙħØ§Ø«ÙĬÙĦ	10217
ĠØ£ØŃØ³	6183
ĠÙĬØªØ®Ø§ÙģØªÙĪÙĨ	10286
ĠÙĪÙħÙĥØ±	5092
ĠÙģÙĥÙĨØªÙħ	8644
Ø³ØªØ¨Ø±	4896
ĠÙĦÙĬØ·ÙĩØ±ÙĥÙħ	8010
ĠÙĨØ³ÙĤÙĬÙĥÙħ	8785
ĠÙģÙĤÙĦÙĨØ§	3726
ĠØ¢ÙĦ	1191
ĠØ£Ø¶Ø¹Ø§ÙģØ§	9410
ĠØ¨Ø±ÙĬØ¡	2825
ĠÙĪØ§Ø±ØŃÙħÙĨØ§	6713
ĠÙĪØ§ØªØ®Ø°	4312
ĠÙħØ·Ø±Ø§	6883
ĠÙĪØ£Ø´Ø±Ùĥ	7720
Ø¨Ø±Ø¦	8081
ĠØ®ÙĦØ§ÙĤ	5925
ĠØ·ÙĩÙĪØ±Ø§	8277
ĠÙĤØªÙĦÙĪÙĩ	9315
ĠØ£Ø¹ÙħØ§ÙĦÙĨØ§	6543
ĠØ¨ØªØ£ÙĪÙĬÙĦ	9914
ĠØ§ÙĦÙħÙĬÙħÙĨØ©	7052
ĠÙģØ´	5659
ĠØ§Ø±Ø¬Ø¹ÙĪØ§	6723
ĠØ§ÙĦØµØ§ÙĦØŃ	560
Ø£ÙĩØ§	7415
ĠÙĪØ³Ø§Ø±	6387
ĠÙģØªÙĨØª	8317
ĠØ®ÙħØ³	4102
ĠÙĪØ§ÙĦÙħ	533
ĠÙģÙħØªØ¹	7294
ĠØ¹Ø°Ø¨	7435
ĠÙĪØ£ÙħØ§	1192
ĠØ¬	133
ĠØ¬Ø§Ø¡	288
ĠØ±Ø¯ÙĪÙĩØ§	9565
ĠØ§ÙĦØŃØ³ÙĨØ©	3615
ĠÙģØ£	181
ĠØ¯ÙĪÙĨ	379
ĠØ³Ø±ÙĬØ¹	2693
ĠØ£ÙģÙĦØŃ	5048
Ø¸ÙĪÙĨ	5949
ĠØ§ÙĦØ®ØµØ§Ùħ	8425
ĠÙħØµÙĬØ¨Ø©	2592
ĠØ¢ØªÙĬÙĥÙħ	5299
ĠØºÙĬØ¨	3228
ĠØ§ÙĦØ£ÙĬÙħÙĨ	5941
ĠØ§ÙĤØªØªÙĦÙĪØ§	9614
ĠÙĬØ®ØµÙģØ§ÙĨ	10303
ĠØ®Ø§ÙĪÙĬØ©	4106
ĠØªÙħØ±	7472
ĠØ£Ø°Ùī	3378
ĠØªØ±ØªÙĬÙĦØ§	8229
ĠØªØ¨Ø±Ø£	9641
ĠØ±Ø¬Ø§ÙĦØ§	3004
ĠÙĨÙģÙĤØ©	8981
ĠÙģØ¤Ø§Ø¯	5678
ĠÙĬØ¯Ø§	3481
ĠØŃØ§Ø´	4091
ĠÙħÙĨØ°Ø±ÙĬÙĨ	5743
ĠØ¢ØªÙĬÙĨØ§ÙĩÙħ	1833
Ø±Ø¢	625
ĠÙĨØ³ÙĬØª	6452
ĠÙĪÙĥØ±	7139
ÙħØ§Ø¯	7458
ĠÙĥÙĦÙħØ§	1887
ĠÙĥØ§ÙĦØ¹ÙĩÙĨ	10155
ĠØ¨ÙĦØº	1590
ĠÙħØ±ÙĪØ§	6307
ĠÙĪÙĨØ²Ø¹ÙĨØ§	6200
ÙģØ¯	3997
ÙĪØ²ÙĨØ§	8992
ĠØ£Øª	671
ÙĪÙĦÙĪØ§	836
ĠØ§Ø³ØªÙħØª	6688
ĠÙģØ¥ÙĨÙĥÙħ	8098
ĠÙĩ	111
ĠØ¨Ø§ÙĦÙĨÙĩØ§Ø±	9860
ĠØªÙģØ±	2663
ĠÙĪÙĬØŃØ³Ø¨ÙĪÙĨ	6756
ĠØªÙĤØ¯ÙĬØ±Ø§	9480
ĠØ¹ÙĨØ¯Ùĥ	2736
ĠØ¨Ø§ÙĦÙħ	1514
ĠÙĨØ¬Ø§ÙĩÙħ	8889
ĠÙĪÙĥÙĨ	4949
ØµØ§Ø±Ùī	2021
ĠØ§ÙĦØ¹ÙĦÙĬ	3210
ĠØ§ÙĦÙĬÙĩÙĪØ¯	3048
ĠØ±Ø§Ø¶ÙĬØ©	4778
ĠØ§ÙĨØ·ÙĦÙĤ	6476
ÙĪØ§Ùĩ	1771
ĠÙĪÙĦÙĬØªÙĤ	8552
Ø±ÙĬÙĥ	2728
ĠÙĪØ³Ø¹	2393
ĠØªÙĦÙĩ	5751
ĠØ£Ø°ÙĨ	2447
ĠÙĬØ¤Ø¯Ùĩ	8722
ĠØ°ÙĦ	5967
ĠØªØ¹Ø°Ø¨ÙĩÙħ	8535
ĠØ¹ÙĦÙħÙĩ	5135
ĠØ¶Ø±Ø¨ÙĨØ§	6675
ĠØ§ÙĦØ±Ø¬	1517
ØªØ¯ÙĨØ§	3439
ĠØ¨Ø¹ÙĩØ¯Ùĩ	9676
ĠØ³Ùħ	3559
ĠØŃØ´Ø±	4853
ĠÙĤØªÙĦÙĨØ§	9260
Ø¹Ø§Ø±	7223
ÙĤÙĪØ§	290
ÙĥØ§Ø©	1079
ĠØ¨Ø£ÙĨ	1231
ÙģØ§Ø²	7400
Ø±ÙĪØ§	1176
ĠÙĦÙĬÙĩÙĦÙĥ	8001
ĠÙģØ£Ø®Ø°ÙĩÙħ	2803
ÙĦÙħÙĬÙĨ	2077
ĠÙĦÙĬØ¨ÙĦÙĪÙĥÙħ	4944
ĠØªØ²Ø¹ÙħÙĪÙĨ	5298
ØªÙĨÙĬ	1610
ĠØªØ®Ø±Ø¬ÙĪÙĨ	4482
ĠØ£ÙĪØ¢Ø¨	7872
ĠØ¶ØŃØ§ÙĩØ§	8339
ĠÙĪØ§ÙĦØµØ§Ø¯ÙĤÙĬÙĨ	9166
ĠØªØµÙĬØ¨	3783
ĠÙħÙĩØªØ¯ÙĪÙĨ	3937
ĠØ§ÙĦØ®Ø§ÙĦ	2553
ÙĪÙħ	126
ĠØ£ÙĥØ«Ø±	633
ĠØ¥ØŃØ³Ø§ÙĨØ§	3842
ĠØ¨Ø£ÙĩÙĦÙĩ	8292
ĠØ¹ÙĦÙħÙĨØ§Ùĩ	8589
ĠØ¨ÙĪØ£ÙĨØ§	10209
ĠØ£ÙĪØŃ	1643
ĠÙĦÙĦØ¥ÙĬÙħØ§ÙĨ	6816
ĠÙĪØ£ÙĨØ¬ÙĬÙĨØ§	8264
Ø¨ÙĬØ§Ø¡	4184
ĠÙĨØ³ÙģØ§	8783
ĠØ£ØŃØ³ÙĨØªÙħ	10131
ĠØ£ÙħÙĬÙĨ	2353
ĠÙĬØ¬Ø±	4678
Ø¹ÙĨ	3944
ĠÙĬØŃØ§Ø³Ø¨	8175
ĠÙĪØ¨Ø¯	5599
ĠØ¹ÙħÙĦÙĩÙħ	8707
ħ	36
ĠØ¥ÙĦÙĬÙĥ	584
ØªÙĩÙĦÙĥÙĨØ§	8286
ĠÙĪØ§ÙĦØ¯	7589
ĠÙĦØ¹ÙĦÙĩ	6437
ĠØ§ÙĦØŃÙĬ	2088
ĠØ¨ØŃÙĪØ±	9523
ÙĦÙħÙĪÙĨ	2691
ĠØ¨ØºÙĬØ±	932
ĠØ¹ÙĦÙħØª	2991
ĠØªÙĩÙĪÙī	5765
ĠÙģØ£ÙĦÙĤÙī	6768
ĠÙĪØŃ	742
ĠØ±Ø¬Ø¹ØªÙħ	8706
Ø·Ø´	4822
Ø§ÙĦØª	7113
ĠÙĤØ§ÙĦØª	1161
ĠÙĦÙĨÙģØ³	1656
ĠØ°Ø§Øª	1711
ĠÙģØ±Ø¶	3106
ĠÙĨÙĩÙĬØª	7639
ĠÙģØ£ÙĩÙĦÙĥÙĪØ§	9716
ĠØ£ÙĬ	270
ĠÙħØ«	395
ĠØ³ÙĬØ±Øª	9839
Ø°ÙĪÙĤ	5702
ÙĤØ§Øª	1108
Ø·Ùģ	2079
ĠÙĬØ¹ÙĦÙħÙĩ	4246
ĠØ±ÙĤÙĬØ¨	9485
ĠÙĪØ£ØŃØ§Ø·	9658
ĠÙħÙĦØ¬Ø£	10168
ĠÙĬØ¶Ø±ÙĥÙħ	6749
ĠØ¹Ø¬ÙĦØ§	9286
ĠÙĤÙĪÙħØ§	946
ĠÙĦÙĬÙĦØ©	2938
ĠØ¹Ø¨Ø§Ø¯ÙĬ	2242
Ø·Ø¹ÙĨØ§	2244
ĠÙĪØ§ÙĦØ£Ø³Ø¨Ø§Ø·	4998
ĠÙĬØ¯Ø¨Ø±	5095
ĠÙĪÙĬØ³ØªØŃÙĬÙĪÙĨ	6648
ĠØ¨Ø±ÙĬ	2062
ÙĪÙħÙĪØ§	7713
ĠØ£Ø¹Ø²Ø©	8602
ĠØ£ØºÙĬØ±	5292
ĠÙĥÙĦÙħØª	4415
Ø¨Ø§Ø¡	2176
ĠÙĪÙģØ¶	6690
ĠÙģØ¹ÙĦÙĬ	8994
Ø¨ÙĤÙĪØ§	5621
ÙĬÙħ	138
ĠØ°ÙĥØ±Ø§	2085
ĠØ£Ø¹ÙħØ§ÙĦ	933
ĠØ¹ØµØ§Ùĩ	6620
ĠÙĪØ£ÙĨØ¨Øª	8261
ĠØ³ÙĦ	1156
ĠØ·Ø¨Ø§	8269
ĠÙģÙĦÙĩÙĨ	7287
ĠÙģÙĥØ£ÙĨÙħØ§	7069
Ø±Ø§Ùħ	1197
ĠØ£ÙĩÙĦ	761
ĠÙĬØ´Ø±Ø¨	9936
ĠØ³Ø®Ø±ÙĬØ§	6739
ĠØ£ÙĨÙģØ³	450
ĠØ§ÙĦØ£ÙĬØ¯	7809
ĠØ®Ø§Ø¦	3584
ĠÙĦÙĤÙĪÙĦ	4664
ĠÙħÙĬØ«Ø§ÙĤÙĩÙħ	5348
ĠÙħØ³ÙĦÙħ	1234
ĠÙĤØ§ÙĦ	142
ĠØ¨Ø±ÙĬØŃ	9452
ĠÙħÙĨØ§	953
ĠØ£Ø¨Ø´Ø±	8698
Ø²ÙĬØ±	3547
ØªØ¨ÙĬ	5616
ĠÙħÙĨØ³ÙĥØ§	9941
ĠÙĦØ§Øª	3474
ĠÙĬÙĪÙħ	223
ĠÙĪÙĬØ³	1799
ØªÙĥ	838
ĠÙĪÙĬÙħÙĨ	7888
ĠÙĪØ§ØªÙĤÙī	8626
Ø§Ø±Ø¹Ø©	4152
ÙģØ¹ÙĪÙĨ	7393
ĠÙģØ£Ø³Ø±	4926
ĠÙĪØ£Ø®ÙĬÙĩ	5378
Ø·Ø¹Ø§Ùħ	5861
ĠÙĤØ³Øª	7525
Ø¬Ø§Ø¬Ø©	10223
ÙĤØ§Ùĩ	8218
ĠØ¥ÙĥØ±Ø§Ùĩ	10212
ĠØ¥ÙģÙĥ	3499
ÙĬØ§Ø±	1642
ĠØ§ÙĨ	748
Ø§ØŃØ¨	4443
ĠÙĪØ¹ÙĬØ¯	6238
ĠÙĥØ§ÙĦØŃ	7512
ĠÙĦØ¹ÙĦÙĥ	8755
ĠØ´Ø±ÙĥØ§Ø¦ÙĩÙħ	9012
ÙĦÙģ	348
ĠÙĤØ±ÙĬÙĨ	4760
Ø¹Ø¨ÙĬÙĨ	4631
ĠÙĬØªØ³Ø§Ø¡	3241
ĠØ§Ø³Øª	470
ĠÙĥÙģØ±	268
Ø¯Ø±	2852
ĠØŃØ§ÙģØ¸ÙĬÙĨ	6929
ĠÙĪØ¹Ø°Ø¨	8359
ĠØ¹Ø§ÙĤØ±Ø§	9026
ĠØ¶ÙĦÙĦØª	9238
ĠØ¥ØµÙĦØ§ØŃÙĩØ§	9761
ĠÙģÙĦØ£ÙĨ	8213
ĠØ´ÙĬØ¹Ø§	4969
ĠÙĬØ±ØŃÙħ	8184
Ø¯Ø¬Ø±	7250
ÙĦÙĬÙĨØ§	598
ĠØ¹Ø¯ÙĪÙĩ	8814
ĠÙĪØ±ØŃÙħØªÙĩ	3291
ĠØªØ®Ø±	7467
Ø¹Ø±Ø¶ÙĪØ§	4634
ĠÙĤÙĦÙĪØ¨ÙĩÙħ	678
ĠÙģÙĥÙĬÙģ	1829
ĠÙģØ¥ÙĨÙĬ	3625
ĠØŃÙĪÙĦÙĩØ§	6870
ĠØµØ§ØŃØ¨Ø©	9672
ĠØªØ®Ø´ÙĪÙĩÙħ	9790
ÙĪÙĪØ§	4588
Ø¨Ø¦ÙĩÙħ	2405
ĠØ¥ÙĦÙĬÙĩØ§	4978
ĠØ¬ÙħÙĬÙĦ	7778
ĠÙĤØ³ÙħØ©	9948
ÙĤÙĦ	5693
ĠØ¨Ø§ÙĦØ£ÙĨ	5960
ĠØ¨Ø¹ØµØ§Ùĥ	6114
ÙģÙĪÙĨ	866
ĠØºÙĬØ§Ø¨Øª	10279
ĠØ§ÙĦÙĦØ§ØªÙĬ	3060
ĠÙĦÙĬØºÙģØ±	4176
ĠÙģØ£ÙĪÙĦØ¦Ùĥ	856
ĠÙĬÙĨÙģÙĤÙĪÙĨ	1470
ĠØ¨Ø¹Ø¨Ø§Ø¯	2229
ĠØ¨Ø§ÙĦØ¥	2348
ĠØ¨Ø´Ø±Ø§	2159
ĠÙĪÙħÙĨÙĩØ§	2722
Ø£ÙĦÙĪØ§	2868
Ø§ÙħÙĦÙĬÙĨ	4327
ĠÙħØ¹	262
Ø§ÙĥÙħ	1546
ĠÙħÙģØ¹ÙĪÙĦØ§	3457
ĠÙģØ§Ø¶	5673
ĠÙĦÙģØ§	5683
ĠÙĬØŃÙĦÙģÙĪÙĨ	4222
ĠÙĪÙĪØ¬ÙĪÙĩ	7163
ĠØ¹Ø¨Ø³	7449
ÙĤÙĬÙħÙĪØ§	1485
ĠØ§ÙĦØ£Ø³Ùģ	5939
ĠÙĬØ³ØŃØ¨ÙĪÙĨ	8490
ĠÙĦØ¯ÙĨ	9045
ĠØ§ÙĦØ£ÙħÙĬÙĨ	5937
ĠØªÙħØ³ÙĨØ§	9456
ĠÙĨÙħÙĥÙĨ	9605
ĠÙĪÙĬØ¯Ø±Ø¡ÙĪÙĨ	10096
ĠØ§ÙĦØ³Ø§Ø¬Ø¯ÙĬÙĨ	4136
ĠØ®ÙĦÙĤÙĩ	3677
ĠÙĦÙĬØªÙĨØ§	8000
ĠÙħÙĦÙĪÙħÙĬÙĨ	9510
ĠÙĬØ¸ÙĦÙħÙĪÙĨ	1185
Ø¨Ø±ÙĬÙĦ	6947
ĠÙĬÙĩØªØ¯ÙĪØ§	9817
ĠØ§ÙĦØºØ§ÙĦ	2764
ĠØªÙĪØ¨ÙĪØ§	4540
¶	23
ĠÙħØ±ÙĤÙĪÙħ	8506
ĠØ¨Ø§ÙĦÙħÙģØ³Ø¯ÙĬÙĨ	9264
ĠÙģØ¬ÙħØ¹	6601
ĠÙĥØ§Ø±ÙĩÙĪÙĨ	4551
ĠØ¨Ø±Ùĥ	7365
ĠÙĪÙĦØ¤ÙĦØ¤Ø§	7840
ĠÙĨØ¹ÙħØª	3017
ĠØªØ®Ø§Ø·Ø¨ÙĨÙĬ	8731
ĠÙģØ£ØªØ¨Ø¹ÙĩÙħ	9670
ĠØ§ÙĦØ±Ø§Ø²ÙĤÙĬÙĨ	4143
ĠÙĦØ³Ø§	4668
ĠØ¨Ø®ÙĦØ§ÙĤ	6633
ĠÙĦÙĬØ¶ÙĦÙĪØ§	9980
ĠØ¬Ø§ÙĩØ¯ÙĪØ§	4098
ĠØ´ÙĬØ·Ø§ÙĨ	4970
ĠØ§ÙĦØ±Ø´Ø§Ø¯	10098
ĠØ±Ø¬Ø³	5172
ĠØ¨ÙĨ	1349
ĠØ£ÙģØ¦	5047
ÙĥÙħÙĩ	7524
ĠÙģØªÙħ	5664
ĠÙħØ³ÙĪØ¯Ø§	8518
ĠÙĦÙĦØ·Ø§Ø¦ÙģÙĬÙĨ	9875
ĠØ¥Ø³	7381
ĠØ«ÙĤÙĦØª	5428
Ø§Ø¦ÙĨ	2363
ĠØ¬ÙĩØ§Ø¯Ø§	10087
Øª	57
Ø®ÙĦÙĩ	7546
ØµØ¨ØŃ	4774
ĠØªØ¬Ø¹ÙĦÙĨÙĬ	9681
ĠÙĪØ£Ø³	5873
ĠÙĪÙĨØ¬Ø¹ÙĦÙĩÙħ	9993
ĠØ§ÙħØ±Ø£Ø©	6689
ĠÙģØ£ÙħØ§	1367
ĠØªØ¬Ø§Ø¯ÙĦ	8582
ĠÙĪÙĤØ¶ÙĬÙĨØ§	10104
ĠØ¬Ø¹ÙĦÙĨØ§	851
ĠØ§ÙĦØ³ØŃØ±	1971
ĠÙĦØ£ØŃØ¯	6304
ÙĤØ§Ùħ	1474
ĠÙĩÙĬÙĩØ§Øª	8884
ĠÙĪØ±ÙģØ¹ÙĨØ§	4535
ĠØºÙĬØ±ÙĬ	8638
ĠØ§Ø®Ø±Ø¬	6628
ĠÙĤØ¨ÙĦÙĩØ§	8771
ĠØ£ØŃØµÙĨØª	9616
ĠÙĨØ¶Ø±Ø¨	7635
ĠÙĪÙĪÙĦØ¯Ø§	10038
Ø±Ùĥ	571
ĠØ¨ÙĬÙĨÙĩÙħØ§	1121
ØªØ§	380
ĠÙĬØ¨Ø¹Ø«	1437
ĠÙģÙĬÙĤÙĪÙĦ	1858
ĠÙħØ¹Ø±Ø¶ÙĬÙĨ	4200
ĠØªØ¤Ùħ	7486
ĠÙĪØ£Ø®Ø±Ø¬	3175
ĠÙĬØ¹ÙĦÙħÙĩÙħ	6217
ĠÙħÙĤØªØ¯Ø±	9473
ĠØ°Ø±Ø¹Ø§	9494
ĠÙģØ¬Ø¹ÙĦÙĨØ§Ùĩ	6802
ĠØ§ÙĦÙħÙĪØ¬	7737
ĠØ£Ø¹Ø°Ø¨Ùĩ	8604
ĠÙĬØ£ØªÙĪØ§	4249
ĠØ´ÙĩÙĬØ¯Ø§	1542
ĠÙģØ§Ø·	2856
ĠÙĬÙĪØ¯	3976
Ø³ØªÙĤØ±	7883
Ø³ÙĬÙĨ	4646
ĠÙħØªØªØ§Ø¨Ø¹ÙĬÙĨ	8803
ĠÙĪØªÙĨØ³	8152
ÙħÙĬØª	3679
ĠÙħØ¹ÙĤØ¨	8100
ĠÙĪØ£ÙĨØªÙħ	868
ĠÙĬØ³Ø£ÙĦÙĪÙĨ	5109
ÙĤÙĪÙĨ	360
ĠÙħØ£ÙĪØ§ÙĩÙħ	3943
ĠÙĦÙĦØ°ÙĥØ±	4211
ĠØ§ÙĦÙĤØ§Ø³Ø·ÙĪÙĨ	9613
ĠÙĤÙĪØª	5786
Ø§Ø¬ÙĩØ§	8946
ÙĪØ°	2169
ĠØ¬ÙĨÙĪØ¯	5294
ÙħØ§Øª	4738
ĠÙħØ¬Ø±ÙħÙĪÙĨ	7209
ĠÙĬØ¹Ø°Ø¨ÙĩÙħ	3686
ĠÙĪØ¹ÙħÙĦ	2397
ĠØ§Ø³ØªÙĬØ³Ø±	8563
ĠØ³Ø¨ØŃØ§ÙĨÙĩ	2027
ĠØ£Ø°ÙĤÙĨØ§Ùĩ	9280
ĠØ§ÙĦÙĩÙĪÙī	4606
ĠÙĪØŃÙħ	3433
Ø¯Ø³	3466
Ĭ	41
ĠØ§ÙĦØ³ÙĦÙħ	3605
Ø§Ø¬Ø§	5244
ÙĦÙĬÙģØ©	7538
Ø§Ø¨Øª	7641
ĠÙĬØ®Ø³Ùģ	6287
ĠÙģØ¹ÙĦØª	6602
ĠÙĪÙĦØ³	4120
Ø·ÙĬÙģ	3567
ĠÙģÙĬÙĩ	413
ĠØ¨Ø¹Ø¶ÙĨØ§	6264
ĠÙĪÙĨÙħ	6194
ĠÙĬØ·ÙĩØ±	9114
ĠØ¹ÙħØ±	3515
Ø±Ø¢ÙĨ	721
ĠÙĪÙħÙĦØ¦	3287
ĠÙĦÙĬØ¸ÙĦÙħÙĩÙħ	7062
ĠØªÙĥØªÙħÙĪÙĨ	4295
ĠØ£Ø¬Ø±ÙĩÙħ	2252
ĠÙĦØªÙĥÙĪÙĨ	6341
ĠØ¥ÙĨØ³	4779
ĠØ±Ø¨ÙĥÙħØ§	1072
ĠÙĪØ§Ø³	1330
ĠÙĪØ³Ø§Ø¡Øª	5166
ĠÙĩØ¯Ø§	1701
ĠØ¨Ø§ÙĦØ¢ÙĬØ§Øª	7849
Ø°Ùģ	3987
ĠØŃÙĪÙĦ	3180
ĠØ§ÙĦØ¨Ø¹Ø«	5589
ĠØ¨ÙħØ¬ÙĨÙĪÙĨ	8915
ĠØ¨Ø³ÙĪØ±Ø©	9024
ĠÙģÙĪØ¬	4657
ĠÙĤÙĦØ¨Ùĥ	5996
ĠØ¨ÙĤÙĪÙĦ	5710
ĠÙĬØ¨Øª	3112
ĠØ§ÙĦØŃØ§ÙĥÙħ	4154
ĠØ§ÙĦØ£ØŃØ§Ø¯ÙĬØ«	6969
ĠÙģÙħØ«ÙĦÙĩ	9591
ĠØµÙĨØ¹ÙĪØ§	5491
ĠÙĤØ§ÙĦØ§	7820
ĠÙĪÙĬÙĤØ°ÙģÙĪÙĨ	10269
ĠÙĦÙĨØ±Ø§Ùĥ	6241
ĠÙħØ´Ø±ÙĥÙĪÙĨ	7207
ĠÙĬØ°ÙĥØ±	2451
ĠØ£Ø·	2850
ĠØ¨ÙĥÙģØ±ÙĩÙħ	5529
ĠØªÙĥØ°Ø¨	911
ĠÙħØªØ±	8796
ĠØ¬ÙĨØ¨	9123
ĠÙĬØ¤ÙħÙĨÙĪÙĨ	551
ĠÙĬØ¬Ø¹ÙĦÙĩ	6372
ĠÙĪØ¨ÙħØ§	3704
ÙĤØ§ÙĦØ§	7343
ĠÙĪØ±Ø³ÙĦØ§	8656
ĠÙĨØªØ®Ø°Ùĩ	9959
ĠØ§Ø´ØªØ±Ø§Ùĩ	10023
ĠØ£ÙĬÙĨ	1684
ĠØ§ÙĦØ£ÙĨØ«Ùī	8686
ĠÙĩØ¯Ø§ÙĬ	9332
ĠÙĬØµÙģÙĪÙĨ	3328
ĠØªØŃÙĥÙħÙĪÙĨ	5511
ĠØ¨Ø·Ø´ØªÙħ	10018
ĠÙĪØ§ÙħØ±Ø£	3647
ĠÙģØ¢	1307
ÙĪÙĪØ¯	7109
ĠØ¨Ø¨Ø¹ÙĬØ¯	7379
ĠÙĪØ¬Ø§ÙĩØ¯ÙĪØ§	2529
Ø¨ÙĪ	3924
ĠØ§ÙĦØ¬Ø¨ÙĦ	8282
ĠØªØºØ±ÙĨÙĥÙħ	10221
ĠØ´ÙĩØ¯	1290
Ø¡	151
ĠØµØºÙĬØ±Ø©	10108
ĠÙĬØ³ØªØºÙģØ±	8450
ĠÙģØ£Øµ	1201
ĠÙĪÙĤØ¶ÙĬ	4163
ĠÙĪÙĤØ§	6023
ĠÙĬÙĩØ¯ÙĬÙĨ	6715
ĠØŃØ±Ùħ	1381
ĠØ¨Ø£Ø¹ÙĬÙĨ	5045
ºÙģØ±	2280
ĠØ¹ÙĦÙĬÙĩØ§	852
ĠØ£Ø°ÙĩØ¨	7242
ĠÙģÙħÙĨ	479
ØŃØ¯ÙĪÙĨ	3125
Ø²ÙĬÙĨÙĩ	3802
ĠØ¨Ø´ÙĬØ±	9159
ĠÙĪØ²ÙĬÙĨØ©	9586
ĠØ§ÙĦØ²ÙĤÙĪÙħ	10179
Ø±Ø¨ÙĪØ§	1886
ĠØ£Ø±Ø³ÙĦÙĨØ§	686
ĠØ¸ÙĩØ±	2740
ĠÙĪØ§ÙĦØ£ÙĨØ«Ùī	5390
ÙĬØ£Ø³	5569
ĠØ¹ÙĨØ¯ÙĨØ§	1995
Ø¶Ø±Ø§	5813
ĠÙģØªØ±Ùī	4251
ĠÙĬØ±ÙħÙĪÙĨ	6159
ĠÙĪÙĦÙĥ	398
ĠÙģØ¬Ø§Ø¡	4417
ĠØ§ÙĨØ¸Ø±	2400
ĠÙĬØŃØ²ÙĨÙĥ	4457
Ø³ÙħØ¹ÙĪØ§	3232
ĠØ£Ø¨Ùī	6410
ÙĬÙĥÙħ	880
Ø¶Ùī	1446
ĠØ¶ÙĦØ§ÙĦ	998
ØªØ§Ø¨Ø¹ÙĬÙĨ	8074
ĠØ®ÙĬØ±Ø§	993
Ø´Ø²ÙĪØ§	7580
ĠÙĦÙĥÙĬ	8341
ĠÙĦÙĥÙĨØª	8342
ĠØ£Ø³Ø§Ø¡	8681
ĠÙģØ£ÙĨØ¨Ø¦ÙĥÙħ	8906
ĠÙĦÙĬØ¶ÙĦ	4175
ĠÙĨÙĥÙģØ±	9032
ĠØ£Ø¯ÙĦÙĥÙħ	6493
ĠÙĬØ·Ø§Ùģ	9113
ĠÙĪÙĬÙĦØ¹Ø¨ÙĪØ§	9862
ĠÙģØ£ÙĪØŃÙĬÙĨØ§	9865
ĠÙģÙĬÙĩÙħ	1782
ĠØ¬Ø¯	4094
ÙĪØ¯Ø©	2963
ĠÙĪÙĤØ¯Ø±	6508
Ø¨Ø±Øµ	8080
ĠØ³ÙĬ	630
ĠÙĪÙħÙĦØ¦Ùĩ	3903
ĠØ§Ø±	1746
ĠØ¨Ø£ÙģÙĪØ§ÙĩÙĥÙħ	9685
ĠØºØ´Ø§ÙĪØ©	10280
ØŃØ§ÙĩØ§	4430
ĠÙģØ¶ÙĦÙĨØ§	4363
ĠÙĪØ¸ÙĦÙĦÙĨØ§	10021
ĠÙħÙĨÙĤ	7423
Ø³ÙģÙĨØ§	8938
ĠÙĬÙĨØ¨Ø¦ÙĩÙħ	6129
ĠØ«ÙĦØ©	7920
ĠÙĤÙĪÙħÙĩÙħ	3256
ĠØ£Ø±Ø¬Ùĩ	9590
ĠØ§ÙĦÙĥØ§ÙģØ±ÙĬÙĨ	798
ĠØŃÙĬØ«	1160
ÙĪØ¹Ø©	5574
ĠÙĪØ¬Ø¯ÙĨØ§	1987
ĠÙģØªØ±Ø¨ØµÙĪØ§	5055
ĠØ®Ø°ÙĪÙĩ	9492
ĠØ§Ø³ØªØ·Ø¹Øª	6858
ĠØ£ÙģØ±Ø£ÙĬØªÙħ	3390
ĠÙĬØ³Ø¬Ø¯ÙĪÙĨ	5473
ĠØ§ÙĦÙħÙģÙĦØŃÙĪÙĨ	2279
ĠÙĬÙĤØ¨ÙĦ	3746
ĠÙĪÙĬØŃØ¨ÙĪÙĨ	9395
ĠØ£Ø±Ø£ÙĬØªÙĥÙħ	9622
ĠÙĨÙģØ¹	5841
ĠØ¥ÙĦÙĬÙĨØ§	1559
ĠÙĪØ¹ÙĬØ³Ùī	3279
ĠÙĨØ§Øµ	1960
ĠÙĤØ±ÙĨ	4449
ÙĩØ±ÙĪØ§	2990
ĠØ¨Ø±ØŃÙħ	6507
ĠØ´Ø¹Ø§Ø¦Ø±	5366
ĠØªØ¬Ø¯	1562
ĠØ§ÙĦØµØ§Ø¨Ø±ÙĬÙĨ	2532
ĠØ¶Ø±Ø¨	1477
ĠÙĬÙĨØ³	6127
ĠÙĥÙģØ±ÙĨØ§	8129
ĠØ§ÙĦØ·ÙĬÙĨ	6456
ĠÙĪÙĥØ§ÙĨÙĪØ§	1035
ĠÙĪØ§Ø¹Ø¨Ø¯ÙĪØ§	6110
ĠÙĨÙĩØ§Ø±Ø§	7634
ĠÙģØ£ØŃØ¨Ø·	6017
ØªØº	1428
ĠØ±ÙģØ¹	4050
ØµØ±Ùĩ	5081
ĠÙĬÙĨØ·	3245
ĠØ£ÙħÙĪØ§ÙĦÙĨØ§	8953
ĠØ¨ÙĦ	350
ĠÙĦÙĦÙĥ	4660
ĠÙĪØ£ÙĦØŃÙĤÙĨÙĬ	9961
ĠØŃØ¨	5902
ÙģØ¹ÙĦÙĪØ§	7401
ĠÙĤÙĪØ§	4036
ĠØ£Ø¨ÙĨØ§Ø¦ÙĩÙĨ	10146
ĠØ§ÙĦÙģØ¬Ø±	4317
ĠÙĬØ¶ÙĦÙĪÙĥ	9020
ĠÙĪÙĬØŃÙĤ	5983
Ø¨Ø§Ùĩ	5069
ĠÙĥØ§ØªØ¨	6925
ĠÙģÙĤØ§ÙĦÙĪØ§	1671
Ø¹Ø¨	3096
ĠÙĨØ³ÙĪØ§	3329
ĠÙĦØ£ÙħÙĦØ£ÙĨ	5554
ĠØµØ§ÙĦØŃ	857
ĠÙħØ®ÙĦØ¯ÙĪÙĨ	7220
ĠØ´ØŃ	5928
ĠÙĦØŃØ¯	7313
ĠØ¹Ø±Ø¨	2660
ĠØ³ØªØ¬Ø¯ÙĨÙĬ	7036
ÙĤØ°	2648
ĠØŃØ¬Ø§Ø¨	5316
ĠÙĪØ¸ÙĦ	5319
ĠÙĥØªØ¨Øª	7523
ĠØ£ÙģØ¦Ø¯ØªÙĩÙħ	10001
Ø¸Ø±ÙĪÙĨ	978
ĠØ¨Ø¢ÙĦÙĩØªÙĨØ§	9285
ĠÙģÙĪ	3958
ĠÙĪØ§ÙĦÙĥØªØ§Ø¨	3057
Ø§ØªØ§	2333
ĠÙħÙĥØ±ÙĩÙħ	4447
ĠÙĪØ§ÙĦØ¥ÙĬÙħØ§ÙĨ	9120
ĠÙĨØ¯Ø®ÙĦÙĩØ§	9534
ĠØ±Ø¬ÙĦ	2129
ĠØªÙģÙĬ	4022
Ø®Ø§	4046
ĠÙģØ¬	1181
ÙģØ§ØªØ§	7402
ÙĪÙħÙĩØ§	7714
ĠÙĥÙĪÙĨÙĪØ§	2670
ĠØŃÙĤ	957
ÙĦÙĨØ§Ùĩ	4190
Ø¨	58
ĠØ¨ÙĦÙĤ	3120
ĠÙĪØ¢ØªØ§ÙĨÙĬ	9729
ĠÙģØ®Ø±Ø¬	5666
ĠØ°Ø§Ø¦	5969
ĠÙĩØ¤ÙĦØ§Ø¡	927
ÙĥØ°Ø¨ÙĬÙĨ	1550
ĠØ¨Ø§ÙĦØµ	2709
ĠØ¥Ø¹Ø±Ø§Ø¶	10211
ĠÙĦØ§	132
ĠÙĨØ±ÙĬØ¯	5450
Ø¹ÙĦØ§Ùħ	7226
ĠØ®ÙĦÙĤØª	3678
ĠØ±Ø¬Ø§ÙĦÙĥÙħ	9683
ĠØŃØ§Øµ	4856
ĠÙħØ¯	1039
Ø¹ÙĤ	4630
ĠÙĦØ¢ÙĬØ©	1541
ÙģÙĥÙĪÙĨ	2065
ĠØ§ÙĦÙĪØ¯	5585
ĠØµØ§ÙĦØŃÙĬÙĨ	5238
ĠÙĨØ²ÙĦ	1285
ĠÙĪØ°Ø±ÙĬØ§Øª	5407
ĠÙĬØ³ÙĬØ±	2760
ĠÙĬÙĨØ²ÙģÙĪÙĨ	9872
ĠØµØ±ÙģÙĨØ§	5492
ÙħÙĩÙĦ	5414
Ø§ÙģØ¹ÙĬÙĨ	8295
ĠØ§Ø±ØªØ¶Ùī	7032
ĠÙĬØ³ØªØŃÙĬÙĬ	8452
ĠÙĪÙħØ§ØªÙĪØ§	4886
ĠØŃØ³Ø§Ø¨	1735
ĠØ§ÙĦØ®Ø¨ÙĬØ«	2976
ĠØ£Ø²ÙĪØ§Ø¬ÙĥÙħ	3782
Ø¸Ø±Ø©	8637
ĠØ¨ÙģØ§	3491
ĠÙĬØ±ÙĬØ¯ÙĪØ§	8837
ĠØ¥ÙĨØ§Ø«Ø§	4250
ĠÙĩÙĨØ§ÙĦÙĥ	2820
ÙĩØ§Øª	5809
ĠØ¹Ø§ÙĦÙħÙĬÙĨ	7438
ĠØ¹ÙĪØ¬	7440
ĠÙĬÙĤØµÙĪÙĨ	8737
ØªØ±	3437
Ø§Ø¯ÙĬØ«	4147
ĠØ§ÙĦØ¶Ø¹Ùģ	4603
ĠØ§Ø³ØªØ·Ø§Ø¹ÙĪØ§	5127
ĠÙĬØ°ÙĩØ¨ÙĨ	9698
ØµØ§Ø±	703
ĠØ¨Ø·ÙĪÙĨ	2805
ĠÙĬØ¹Ø·ÙĪØ§	8382
ĠØ³Ø¨ÙĤÙĪÙĨØ§	9038
ĠØ£Ø®Ø§Ùģ	1534
ĠÙħÙĦÙĥØ§	3331
ÙĪØ§Ø¨	937
ĠØ¢ØªØ§	1454
ĠÙĪÙĦÙĬÙħ	3919
ĠÙĨØ¯	2330
ÙĬØ±Ø©	7691
ĠÙĦÙħØ§	607
ĠÙĪØ·Ø±Ø§	9191
ĠÙĥØ³Ø¨ÙĪØ§	1911
ĠÙĤØ§Ø¦Ùħ	6708
ĠØ¨Ø§ÙĦØ¨Ø£Ø³Ø§Ø¡	9319
Ø²Ø¹ÙĪØ§	7572
ĠØ¨ÙĨØ¹ÙħØª	9179
ĠØ§ÙĦØŃ	178
ĠÙĦØ´Ø±	7301
ĠÙĬØºØ´Ùī	3757
ĠÙĨÙĥØ§ÙĦØ§	9034
ĠØ§ÙĦÙĤÙĪÙĦ	1203
Ø¹ÙĬÙĨÙĪØ§	6575
ĠÙĬÙĨØµØ±ÙĪÙĨ	1649
ĠÙĨØ§Ùģ	4798
ĠØ¨Ø´ÙĬØ±Ø§	5303
ĠØ±Ø§Ùĥ	7559
ĠØµØŃÙģØ§	7989
ĠØ§ÙĦØ¢Ø®Ø±ÙĬÙĨ	2143
ĠÙĪØªÙĨØ³ÙĪÙĨ	10288
ĠÙĦÙĥØ§Ø°Ø¨ÙĪÙĨ	2749
ĠØªÙĨØªÙĩ	6350
ĠÙĬØ¬ÙħØ¹ÙĥÙħ	9891
ĠÙħØ³Ø§Ø¬Ø¯	6314
ĠÙĦØºÙģÙĪØ±	3039
ĠØ¨ÙħØ¤ÙħÙĨÙĬÙĨ	3776
ĠÙĪØ¹ØµÙĬÙĨØ§	8367
ĠÙģÙĥ	538
ĠØ³Ø¨ÙĬÙĦÙĩ	2114
ÙģÙĪØ±	570
ĠØ¨Ø§ÙĦÙĨØ§Ø³	5965
ĠÙĪØ¨Ø§ÙĦØŃÙĤ	8487
ĠØªÙģØ¬ÙĬØ±Ø§	8920
ĠÙħÙĨØ§Ø²ÙĦ	10214
ĠØªØ°ÙĥØ±ÙĪÙĨ	1693
ØµØ¨	4770
ĠÙħÙĩØ¯	7199
Ø¹Ùī	1850
ĠÙĪÙģØ±ÙĬÙĤØ§	6724
Ø¥Ø°ÙĨ	7588
ĠØ§Ø³ØªÙĤØ§ÙħÙĪØ§	5125
ĠØªÙĨØª	7476
ĠÙĬØ¹Ø±Ø´ÙĪÙĨ	10300
£	5
ĠÙĬÙģØ±	2186
ĠØ²ÙĦÙģÙī	10135
ĠÙĪØ°Ø±ÙĬØ§ØªÙĩÙħ	7034
ĠØ¨Ø´Ø±Ùĥ	5716
Ø§ÙĪØ±	2612
ĠÙĪÙĬØ²	3608
ĠÙĬØ³Ø±ÙĪÙĨ	5108
ĠÙħÙĤØªØ¯	9471
ĠÙħØ±Ø¬Ø¹	1821
ØºÙĪÙĬÙĨÙĩÙħ	9662
ĠÙģØ£ÙĪØŃ	4157
ĠÙĬØªÙĦÙī	3239
ĠØ¨	71
ĠØªØ¬Ø§Ø±Ø©	3719
ĠÙĦÙĩ	213
ÙĥÙĨ	788
ĠØ£Ø®Ø§Ùĩ	5161
ĠÙħÙĪÙĦÙĪØ¯	7219
ĠØªØªØ¨Ø¹	1593
ĠØ£Ø°ÙĦÙĥ	7234
ĠØ§ÙĦÙĤØ±ÙĬØ©	2522
Ø¨Ø«	3085
ĠÙĪÙĬØ²ÙĥÙĬÙĩÙħ	6931
ĠØ³Ø¨Ø§ØªØ§	9037
ĠÙģÙĦÙĥ	5661
ĠØ¹ÙĤÙĬÙħ	7441
ĠÙĪØ§ÙĦÙħÙĤÙĬÙħ	8633
ĠÙĪØ§Ø´ÙĥØ±ÙĪØ§	4470
ĠØŃØµ	3578
Ø¯Ùĥ	7248
ĠØ¥Ø®	2458
Ø²ÙĪØ§	629
Ø²Øª	3546
ĠØªØŃØ²ÙĨÙĪÙĨ	9433
ĠÙĥØ§ÙģØ±ÙĪÙĨ	1857
ĠØ¬Ø³Ø¯Ø§	4864
ĠØ¯Ø§Ùħ	6005
ĠÙĥÙĦ	240
Ø´Ø±ÙĪØ§	4963
ĠÙĨØ¹ÙĦÙħ	3156
Ø£ÙĬØª	1946
ĠÙĪØ£Ø·ÙĬØ¹ÙĪØ§	1963
ÙĬÙħÙĬÙĨ	1457
ĠØ¨Ø§Ø·	5712
ĠØ´Ø§ÙĥØ±Ø§	7011
Ø§Ø±Ø¯	7924
ĠØ£ÙħÙĪØ§ÙĦØ§	8952
ĠØ¨Ø§ÙĦØ¹Ø¯ÙĪØ©	9667
ĠÙħÙĤØ§ÙħØ§	9689
ĠØ§ÙĦÙħØ«ÙĦ	7740
ĠØªØ§Ø¨ÙĪØ§	2600
ĠÙĪÙĤÙĨØ§	7972
ÙĥØ§Øª	7170
ÙĬØ³	3423
ÙģØ§Øª	5726
ĠÙĪÙĪØŃÙĬÙĨØ§	10184
ĠØ°ÙĥØ±ÙĬ	4342
ĠÙĬØ¤ØªÙĬ	6426
ĠØ§ÙĦØ¯Ø§Ø±	2106
ĠÙĪØ²ÙĬÙĨØ§ÙĩØ§	8875
Ø·Ø§ÙĨ	516
ĠÙĬØ¬ÙħØ¹ÙĪÙĨ	6373
ĠØ¢ÙĨØ³Øª	6962
ĠØ§Ø³ØªØºÙģØ±	8558
ĠØ£ØŃÙĦØ§Ùħ	6184
ÙĪÙĬÙĦÙĩ	3012
ĠÙĦØªØ³	2986
ĠØºÙĬØ±Ùĩ	2124
ĠØ§ÙĦØ±Ø¶Ø§Ø¹Ø©	10177
ĠØªØ±ÙĥÙĪØ§	9188
ÙĨØ§Ø¡	1353
ÙĪØª	407
ĠÙģØ¯	2300
ĠÙĬØ®ÙĦÙĤ	1480
Ø¶Ø©	1953
ĠÙħÙĨÙĤÙĦØ¨ÙĪÙĨ	10066
ĠØ£ÙĪÙĦØ¦Ùĥ	397
²Ø¯Ø§Ø¯ÙĪØ§	7071
ĠØ£ÙħØ±Ùĩ	2562
ÙĦÙĬØ§	7537
ĠØ³Ø¨ÙĬÙĦÙĥ	8410
ĠÙħØ±Ø¬Ø¹ÙĥÙħ	2429
ĠÙĦØ¹ÙĨØ©	3325
Ø¯ÙĬÙĨØ§Ùĩ	5653
ĠÙĦØ®ÙĦÙĤ	9560
ĠØ·ÙĦÙĤÙĩØ§	9619
ĠÙĪØ§ÙĦÙħØ¤ÙħÙĨÙĪÙĨ	3310
ĠØ±ÙĬØ¨	1631
ĠØ¨Ø£ÙĦ	5044
ĠØ£Ø³	581
ĠÙģØ£ÙĤØ¨ÙĦ	6014
ĠÙĦÙĦØ·	4210
ĠÙĪØºÙĬØ±	3922
ĠØ´Ø±Ø§Ø¨	5275
ĠÙĪØ£Ø´Ø¯	5883
ĠØ§ÙĦØ±Ø´	5988
ĠØ¨Ø£Ø³ÙĨØ§	2598
ĠÙĪØ£ÙĬØ¯ÙĨØ§Ùĩ	9572
ĠÙĪØ¹Ø¯	592
ĠÙħØªØ§Ø¹ÙĨØ§	9111
ĠÙĤØ¯Ø±Ùĩ	4217
ĠØ£ÙĦÙĤÙī	3814
ĠÙĨØ¨Ø¹Ø«	5843
ĠÙĪÙĨØ§	2285
ĠÙĬØªÙĪØ¨	1994
ĠØ£ÙĤØ³Ø·	8878
ĠÙģØ£Ø«	7944
ĠØ§ÙĦØ¹Ø§ÙĦÙħÙĬÙĨ	711
ĠÙĬØ®Ø±Ø¬	969
ĠÙĨØŃÙĬÙĬ	5844
ÙĦÙĬÙĩØ§	2673
ĠØ®Ø·Ø§ÙĬØ§	6967
ĠØ¹ÙĬØ´Ø©	10216
ĠØ£ÙĬØ¯	772
ĠÙĦÙĥÙĨ	3273
ĠÙĪØ²ÙĪØ¬ÙĨØ§ÙĩÙħ	9897
ĠÙĦØ¬Ø¹ÙĦ	4667
ĠØ£Ø±Ùī	3950
ÙĨØ§ÙģÙĤÙĬÙĨ	1603
ĠØ§ÙĦØ£Ø¨Ø±Ø§Ø±	4118
ĠÙĪØ±ØŃÙħ	8471
Ø£Ùĩ	4718
Ø¹Ø¯ÙĪÙĨ	1143
Ø²ÙĬ	323
ĠÙĬØ´Ø§Ø¡ÙĪÙĨ	4294
ĠØ°ÙĦØ©	4893
ĠÙĬÙĩÙĦÙĥ	3114
ĠØ§ÙĦÙħØ®	5888
ĠÙĬÙĤØª	4680
ÙĪØ©	860
Ø§Ø·ÙĦ	1298
Ø«Ø§ÙĦ	1453
ĠØ§ÙĦØ³Ø¬ÙĪØ¯	3607
ÙĪØ±ÙĩÙĨ	3634
ÙĤØ§ÙĩÙħ	4237
ØŃØ§Øª	5731
ĠÙĪØ¶Ø¹	4614
ĠÙĪÙħÙĪØ³Ùī	4282
ĠÙĬØ±ÙģØ¹	6160
ĠÙĪÙĩØ¨	6553
ĠÙĬØ¨Ø®	4368
ĠÙĬØºØ´ÙĬ	8806
ĠÙħÙĦØªØŃØ¯Ø§	9806
ĠØ¨Ø§Ø³Ø·	9595
ĠÙĦØ¬	1764
ĠØ§ÙģØªØ±Ø§Ø¡	9082
ĠÙĪØ£Ø·Ø¹ÙħÙĪØ§	9962
Ø¦ØªÙĨØ§	4072
Ø³Ø¬Ø¯	4650
ÙĩØ§Ø¯Ø©	1508
ĠÙĦØªØ¬Ø±ÙĬ	8573
ĠÙĦÙĥØ¨ÙĬØ±ÙĥÙħ	10004
ĠÙħØ°	3448
ĠÙģØªØ¨ÙĬÙĨÙĪØ§	6228
Ø®ÙĪØ§ÙĨ	9183
ĠØ£Ø±Ø§ÙĥÙħ	5261
ĠÙģÙħØ§ÙĦØ¦ÙĪÙĨ	9931
ĠØ§ÙĦØ¹Ø¯Ø§	4605
ĠÙĬØŃÙĬ	1034
ĠØ®ÙħØ±Ø§	7792
ĠÙĦØ¥ÙĦÙī	9521
ĠÙĦÙĬØ¬Ø²ÙĬÙĩÙħ	9577
ĠØ§ÙĦØ£Ø¹ÙĬÙĨ	7812
ĠÙ	45
ĠÙĤØ¶	4037
ĠØ£ÙĦÙĤÙĬ	6644
ĠØ§ÙĦØ¹ÙĨÙĥ	7964
ĠÙĨØ¨ÙĬÙĩÙħ	9608
ĠÙĦÙĥÙĦ	1232
ĠØªÙĥØ³Ø¨ÙĪÙĨ	5105
ĠØªÙħÙĬ	5756
ĠØ³Ø¯ÙĬØ¯Ø§	10242
ÙĬÙħØ§	394
ĠÙĨØ´Ø£	6590
ØªØ¨	611
Ø¯ÙĩØ§	5650
ĠØ¸ÙĩÙĪØ±ÙĩØ§	10028
ĠØªØ±ÙĥØª	9187
Ī	39
ĠÙģÙĩØ¯Ùī	5672
ĠØ§ÙĦØµØ§ÙĦØŃÙĪÙĨ	6385
ĠØªØ³ÙĦÙĬÙħØ§	8830
ĠØªØ¹Ø¶ÙĦÙĪÙĩÙĨ	8537
ĠÙĬÙĪØ±Ø«	7325
ĠØªØ¹ÙĪØ¯ÙĪØ§	8536
ĠØ¨Ø§ÙĦØ³	2916
ÙĩØ§Ø¬Ø±ÙĬÙĨ	4541
ĠØ§ÙĦØ´ÙĬØ·Ø§ÙĨ	695
ĠØ¸Ø§ÙĩØ±Ø§	8233
ÙħÙĬÙĦ	5564
ĠÙĦØ£ÙĨØª	8497
ĠÙĪÙĥØ§ÙĨ	420
ĠØŃØ¯ÙĬØ«Ø§	4494
ĠÙģØ²Ø¹	7286
ĠØ§ÙĦØµØ¨ØŃ	8086
ÙĪÙĦÙĩ	496
ĠØ¢ÙĬØª	5869
ĠØ¯Ø¹Ø§	2720
ĠØ³Ø¨ØŃØ§ÙĨÙĥ	2797
ĠØ§ÙĦÙĨÙģØ³	3263
ĠÙĦÙģØ±	3475
Ø§Ø¨Ø¯ÙĬÙĨ	7643
ĠØ¯Ø¹	1366
ĠØ³Ø¨ÙĦÙĨØ§	9036
Ø«ÙĬØ±	2488
ĠØ§ÙĦÙħÙĨØ§ÙģÙĤÙĪÙĨ	3413
Ø¨ÙĬØ¹	8024
ĠÙģØ§Ø°ÙĩØ¨	8204
Ø¦Ø³	1005
Ø£ÙĦÙĨ	3350
Ø¯ÙĪØ§	612
ĠÙģØ£ÙĦÙĤÙĪØ§	6767
ĠØ¨Ø´Ø±ÙĥØ§Ø¦ÙĩÙħ	10064
ĠØ¨Ø§ÙĦØ¸Ø§ÙĦÙħÙĬÙĨ	4132
ĠÙĪØªØªÙĤÙĪØ§	2949
ĠÙĨÙĤÙħÙĪØ§	9460
ĠÙĨØ¶	4796
Ø²Ø¹ÙĪÙĨ	4052
ĠÙħØ¹Ø´Ø±	6107
ĠÙĪØ³Ø¹ÙĩØ§	4523
ÙĪÙģØ§	8194
ĠÙĪÙĦØªØ¹ÙĦÙħÙĨ	9063
ĠØªØ¹ØªØ°Ø±ÙĪØ§	6902
ĠÙĬØ¤Ø®Ø±	4335
ØªØ®Ø°ÙĨ	9384
ĠÙĪÙĥØ°ÙĦÙĥ	979
ĠØ£ÙĨÙĩÙħØ§	7583
ĠØ¨Ø¯	1391
ĠÙĪÙĦØ¹ÙĦ	2212
ĠØ£Ø³Øª	3949
ĠÙĩØ¨Ø§Ø¡	7650
ĠÙģØµÙĬØ§Ùħ	5322
ØºØ©	3184
ĠØ§ÙĦÙħØ³ÙĬØŃ	2574
ĠØªØ±ÙħÙĬ	8224
Ø±Ø§Ø·	3427
ĠÙĥØªØ§Ø¨	635
ĠÙħØ³Ø§ÙĥÙĬÙĨ	8517
ĠØ£ÙĨØ¹Ø§Ùħ	5831
ĠÙħØŃØ±ÙĪÙħÙĪÙĨ	9745
ĠÙħØ³ØªÙĤÙĬÙħ	1263
Ø®ÙĦØ§	3146
ĠÙħØ±ØªÙĬÙĨ	4299
ĠÙģÙĨ	1063
ĠØ£ÙĬÙĩØ§	365
Ø·ÙĬØ¹ÙĪØ§	1302
ĠÙĪÙĤØ§ØªÙĦÙĪÙĩÙħ	7979
ĠØ£ÙĥØ«Ø±ÙĥÙħ	8712
ÙĦÙĬÙĦ	527
ĠØ¯Ø¹Ø§ÙĨØ§	9610
ĠØ§ÙĦÙħØ¨ÙĬÙĨ	1399
ĠØ¢ÙħÙĨ	211
ĠÙĪÙĦÙĥÙħ	1576
ĠØ¨Ø²ÙĬÙĨØ©	10208
ĠÙĬØ±Ø³ÙĦ	2453
ĠØ³Ø¹ÙĪØ§	7663
ĠÙĪÙĦØª	1118
ĠØŃØ¸	4851
ĠÙĪÙĤÙĪØ¯	6027
Ø¢Ø¨	5956
ĠÙĪØ¥ÙĬØªØ§Ø¡	7058
ĠÙĨØ³Ø§Ø¡	3754
ÙĨØ²ÙĦ	5561
ÙĨÙĥ	896
ĠÙģØ³ÙĬØ±ÙĪØ§	8671
ĠÙĦØªÙģØª	8567
ĠØ£ÙħÙĩØ§	2512
ĠØ¨ÙĬØª	2863
ĠÙģØ§ÙĦØªÙĤ	8900
ØªÙĬ	228
ĠØ£Ø±Ø£ÙĬØªÙħ	2020
ĠØ®ÙĬÙģØ©	7010
ĠÙħØŃÙĬØ·Ø§	9409
Ø£ÙĬÙħØ§ÙĨÙĩÙħ	7422
ĠÙģÙĤØªÙĦÙĩ	10193
ĠØ°Ø±ÙĬØ©	2502
ĠÙħØ¹Ø¯ÙĪØ¯Ø§Øª	7035
ĠÙħØ¹Ø§Ø¬	6108
ĠÙĪØ´Ø±Ùĥ	7149
ÙĦØ©	723
ĠÙģØ£ØºØ±ÙĤ	4927
ĠÙĪÙĬÙĪÙĨØ³	7904
ĠÙģØªÙĦÙĥ	8315
ĠÙĪØ±Ø²ÙĤ	2119
Ø®Ø±ÙĥÙħ	7918
ĠØµØ±Ø§Ø·Ø§	4388
ØªÙģÙĤØ§	7185
ĠØ§ÙĦÙħÙĥØ°Ø¨ÙĬÙĨ	3577
ØµÙĬØ¯	7550
ĠØ§Ø¹ÙħÙĦÙĪØ§	3220
ĠÙģØ£ÙĪØ¬Ø³	7956
Ø°Ø¨ÙĬÙĨ	960
ÙĦØ§Ø¡	526
ĠÙĪØ¥Ø°	623
ĠØ±Ø·	7557
ĠÙĪØ§Ø¨ÙĦ	6629
Ø±ÙĪÙĩÙĨ	5581
ØªØ§ÙĩÙħ	4265
ĠØªÙħÙĪØª	4432
ĠÙĪÙĬØ°ÙĩØ¨	7895
ĠÙĬØ¨ØªØºÙĪÙĨ	3899
Ø¬Ø§ÙĨ	5770
ĠØ£ÙģÙĬØ¶ÙĪØ§	9999
ĠØ§Ø³	1519
ĠÙģÙĬÙĨØ§	3961
ĠØªÙħØ´	9134
ĠÙĪÙħØ£ÙĪØ§ÙĩÙħ	3698
ĠØ§ÙĦÙĤØªÙĦ	4171
ĠÙĪÙĦØŃÙħ	4124
ÙĨØµØ±	3908
ĠÙĦÙĬØ§ÙĦ	6051
Ø§ÙĨÙĪØ§	5822
ĠÙģØ§Ø¹Ùģ	6173
ĠÙĦÙĥÙģÙĪØ±	8343
ĠÙģØ¥Ø°Ø§	549
ĠØ§Ø´ØªØ±ÙĪØ§	3834
Ø£Ùī	5735
ĠØ§ÙĦØºØ§ÙĪÙĬÙĨ	8525
ĠØ§ÙĦÙħØ´Ø±ÙĤÙĬÙĨ	9661
ĠØ¨Ø§ÙĦØ¹	1577
ĠØ°ÙĦÙĥÙħ	877
ĠÙĪÙĨØ°Ø±	2957
ĠØªÙĤØ¹Ø¯ÙĪØ§	8678
ĠØ¨Ø°ÙĨÙĪØ¨ÙĩÙħ	3391
ĠÙĪÙħØ£ÙĪØ§Ùĩ	6977
ĠØ¢ØªÙĬØª	9143
ĠÙĨØªØ±Ø¨Øµ	9704
ĠÙħØºÙģØ±Ø©	1683
ĠÙĬØ£ÙħØ±ÙĥÙħ	4521
ĠØ®ÙĦÙĬÙĦØ§	5922
ĠØ§ÙĦØ£ÙħØ±	1091
ĠØ¢ÙĦØ§Ø¡	1048
ĠØªØ·ØºÙĪØ§	6762
ĠÙģØ³Ø¨ØŃØ§ÙĨ	6808
ĠØ£ØµØ§Ø¨Ùĥ	6611
ĠØªØµÙĬØ¨ÙĩÙħ	6944
Ø±ÙĤØ¨	7123
ĠØªØ¤Ø§Ø®Ø°	9254
ÙģÙĨØ§	7388
ĠØ§ÙĦÙĪØ§ÙĦØ¯Ø§ÙĨ	7037
ĠÙģØ£Ø°ÙĨ	6010
Ø³Ø±Ø©	2540
ĠÙĪÙĦÙĨØ¬Ø²ÙĬÙĨ	5245
ĠÙĬØ¯Ø®ÙĦÙĪÙĩØ§	9557
ÙĤØª	419
ĠÙĪÙĤØ°Ùģ	7978
ĠÙĪÙĥØ±ÙĩÙĪØ§	7164
ĠØ£ÙĨØ¹ÙħÙĨØ§	6736
ĠÙĥÙĩÙĬ	7519
ÙĨØ§ØªÙĩÙħ	7456
Ø¨ÙĪØ©	3928
ĠØ¬Ø¯Ø§ÙĦ	9841
ÙĤÙĩØ§	7334
ĠØ£ÙĨØªÙħ	575
ĠÙĦØ£Ø¸ÙĨÙĩ	8501
Ø§ÙģØ¹	3268
ĠØ³Ø§Ùħ	5858
ĠÙĪÙĬØ¤ÙħÙĨ	7890
ĠÙģÙĦÙĦ	8212
ĠÙģØµÙĦØª	5321
ĠÙĬÙĨØ¨ØºÙĬ	3878
ĠØ¥Ø®ÙĪØ§ÙĨÙĩÙĨ	5534
ĠÙĪØ¹ÙħØ§	8356
ĠØ±Ùĥ	2882
Ø¢ÙĨ	3599
ĠØ£Ø¯Ø¨Ø±	5214
ĠØ£ÙĨÙĥÙħ	1956
ØªÙĨØ§	645
ĠØ±Ø²ÙĤÙĩÙħ	3773
ĠØ§ÙĦØŃØ§ÙĥÙħÙĬÙĨ	4571
ĠÙĦÙĥÙĬÙĦØ§	5063
ĠÙĪØªÙĨØ°Ø±	8155
ĠÙĪÙĦØ£ØµÙĦØ¨ÙĨÙĥÙħ	9335
ĠØ§ÙĦØ³ÙħØ¹	2350
ĠØ¶Ø¹ÙģØ§	5060
ĠØ¨Ø¬ÙĩÙĨÙħ	9356
ĠØ£Ø±Ø¨Ø¹ÙĬÙĨ	5350
ĠÙĪÙĦÙĪ	428
ĠØ¹ÙĦÙħÙĩØ§	5137
ĠÙĨØ¬ÙĪÙī	8888
Ø¯Ø§ÙĨ	2299
ĠÙĨØ±Ùī	3556
ĠÙĪØ§ÙĦØµØ§ÙĦØŃÙĬÙĨ	9167
ĠØ«ÙħØ±Ùĩ	6032
Ø¶Ø¹Ùĩ	6686
Ø§ÙģØ¸	1655
ĠÙĬØ±ØªØ¯	5009
ÙĪØŃ	423
ĠÙĬØ³ÙĪÙħÙĪÙĨÙĥÙħ	7067
ĠØ¯ÙĬÙĨÙĩ	9002
ĠØ§ÙĦÙĪÙĤØª	9242
ĠØ§Ø³ØªØ¶Ø¹ÙģÙĪØ§	4559
ĠØ¨Ø·	1218
ĠÙħØ³Ø§ÙĥÙĨÙĩÙħ	4558
ĠÙģÙģ	5658
ÙĥØ¨Ø±ÙĬÙĨ	9245
ĠØ¶Ø±Ø¨ØªÙħ	6676
ĠÙĦÙĤÙĪÙĬ	6322
ĠÙĬÙĨØ²ÙĦ	1723
ĠÙĪÙĬØ¨Ø´Ø±	9575
ĠØ¢Ø¨Ø§Ø¦ÙĩÙĨ	9899
ĠÙģØ£ÙĦÙĤÙĪÙĩ	9430
ĠÙĬÙħØ´ÙĬ	3768
ĠØ¨Ø§ÙĦØµÙĦØ§Ø©	6853
ĠÙħØ«ÙĤØ§ÙĦ	2973
ĠÙģÙĤ	509
Ø¹ÙĪ	1241
ĠØµØ¨Ø±ÙĪØ§	2092
ĠØ§ÙĦÙĥØ¨Ø±	2095
ĠÙĤØ¯ÙĬØ±Ø§	3655
ĠÙĨØ²ÙĦØ§	3844
ĠØ¨Ø§ÙĦØ´Ø±	7846
ĠÙħÙĤØªØµØ¯	9472
ĠØ¨Ø¹Ø¶ÙĩÙħ	1076
ÙĨÙĬÙĨ	724
ĠÙģÙħ	2641
ØªØ§ÙĨ	2846
ĠÙĦØ¯ÙĨØ§	3479
ĠÙĦØªÙĨ	4304
ĠÙĪÙĤÙģÙĬÙĨØ§	6029
ØªØ§ÙĨÙĪÙĨ	9629
ØªØ±ÙĪÙĨ	3438
ĠÙĪØ·ÙĩØ±	9193
ĠØ§Ø³ØªÙĥØ¨Ø§Ø±Ø§	10012
ĠÙĦÙĬÙĥÙģØ±ÙĪØ§	7016
ĠÙĪØ£Ø±Ø³ÙĦÙĨØ§	4078
ÙĦÙĤÙĬÙĨ	7970
ĠØ§ÙħØ±Ø£ØªÙĩ	4456
ĠØ¨Ø¢Ø¨Ø§Ø¦	9284
ĠÙĪÙħÙĨØ§ÙģØ¹	6937
ĠØ¹Ø¨Ø§Ø¯Ø§	8685
ĠØ§ÙĦÙģØªØŃ	4604
ÙĦÙĩØªÙĨØ§	5738
ĠØ¨ÙĤØ§Ø¯Ø±	6617
ĠÙĦÙĩÙĪ	1584
Ø³Ø±ÙģÙĬÙĨ	2541
ĠØ´Ø¦ÙĨØ§	4491
ĠÙħØµÙģÙĪÙģ	9044
ĠØ¬ÙĬØ¨	7771
ĠÙģØªØŃÙĨØ§	5496
ĠØ«	173
ĠØªÙħÙĨÙī	6866
ĠØŃØ§Ø´Ø±ÙĬÙĨ	6965
ĠØ§ÙĦÙĨØ§Ø³	313
ĠØ¹Ø§ÙĦÙħ	2161
ĠØ³ÙĥÙĬÙĨ	4819
ĠØ¹ÙĨÙĬØ¯	5970
ĠØ§ÙĦÙĨÙħÙĦ	8236
ĠØ¨Ø§	2652
ĠÙĨØŃØ´Ø±	9652
ĠÙħÙĤØ§ÙħÙĬ	9691
Ø±ÙĬØ©	1204
ĠØ§ÙĦØ¹Ø§Ø¬ÙĦØ©	7061
ĠÙĪØªØµ	4215
ĠØ£ÙĤØ¯Ø§Ùħ	4642
ĠØ£ÙĪÙĦØ§Ø¯ÙĩÙħ	3822
ĠÙģØ¹ÙĤØ±ÙĪÙĩØ§	6986
Ø¸Ø±ÙĨÙĬ	6378
ĠØªÙĩÙĪ	7470
ĠØ£Ø¦ÙĨØ§	9589
ĠÙĪØ§ÙĦØ´ÙħØ³	2801
ĠØ£ÙĥØ«Ø±ÙĩÙħ	984
ĠÙĪØ£ØµÙĬÙĦØ§	5259
ĠØ¨ÙĦØºÙĪØ§	8331
Ø¢	152
ĠÙĬÙĥØ§Ø¯ÙĪÙĨ	6856
ĠÙħÙĥØ§ÙĨ	1379
ĠØ§ÙĦÙĨØ´Ø£Ø©	7066
ĠÙĪÙħØµØ¯ÙĤØ§	8434
ĠÙĪØ±Ø³ÙĦÙĬ	8657
ÙĪØ§ØŃØ´	7349
ĠØ¨Ø¸	3989
Ø¯ÙĪÙĨ	430
ĠØ³Ø¹	1569
ĠÙĬØ±Ø¯	1587
Ø¹ÙĨØ§	1306
Ø£Ø¨	4719
ĠÙĨÙĨ	2891
ĠØ£ÙĥÙģØ±	5099
ĠØ§ÙĦØ£ÙĨÙģØ§ÙĦ	8688
ĠÙĬØ³ØªØ£Ø°ÙĨÙĥ	9887
ĠØ´Ø¬Ø±	3589
ĠØªØ¬Ø¹ÙĦÙĨØ§	6346
Ø¯ÙĨØ§	773
ĠÙĬØ¹Ø¸Ùħ	8384
ĠØ£Ø³Ø£ÙĦÙĥÙħ	2394
ĠØ¨Ø§ÙĦØŃØ³ÙĨ	2918
ĠØ§Ø³ØªÙĨØµØ±	8561
ĠØªÙĤØ§ØªÙĦÙĪØ§	8679
ÙĦØ§Ø«Ø©	9181
ÙĤØ§	316
Ø³Ø±Ùī	5019
ĠÙĥØ´Ø¬Ø±Ø©	9946
ĠØªØºÙĨ	5351
ĠØ£ÙĨØ§Ø¨	6411
ĠÙĬÙĨÙģØ¹ÙĩÙħ	5326
ĠÙĬÙħÙĥØ±ÙĪÙĨ	3767
ĠØªØŃÙħÙĦ	3527
ĠØ·Ø§ØºÙĪÙĨ	9997
ÙĥØ¨Ø±Ø§	7173
ĠÙĬØ®Ø´Ùī	3701
Ø£ÙĨØ§	4008
ĠØ´Ø±Ø§	7800
ÙĦÙĬÙĩ	1046
ÙĩØ²	1238
²	19
ĠÙĬØ¹Ùħ	1389
ĠØ§ÙĦØ®ÙĦ	2975
ĠÙĨÙĪØ¯ÙĬ	4808
ĠÙĪØ§ÙĦÙĨØ®ÙĦ	6488
ĠÙĪØ§ÙĦØŃØ³Ø§Ø¨	9568
ĠØ®ØµÙħØ§ÙĨ	9713
Ø°Ø±Ø§	7347
ĠØŃØ¬Ø§Ø¨Ø§	9208
ĠØ§ÙĦØºÙĬØ«	8522
ÙĦØ§ÙĦ	644
ĠÙħÙĥÙĨØ§ÙĩÙħ	6500
ĠØ¨ÙĤ	1245
ĠØ¹ÙĦÙĪØ§	4725
ĠØ®Ø´ÙĬ	4868
ĠÙĪØ¹ÙĦÙĬÙĩØ§	6239
ĠØ´ÙĩÙĪØ¯Ø§	9969
Ø²ÙĦ	281
ĠÙĬÙĩØªØ¯ÙĬ	6951
ĠÙħÙĨØ§Ø¹	8962
ĠØ£ÙħØ±ÙĥÙħ	5144
ĠØ£Ø¥ÙĨÙĥ	9101
Ø¬ÙĪØ¬	4746
ĠØ§ÙĦØ±ÙĤØ§Ø¨	5989
ĠØªÙħÙĦÙĥ	4431
ÙĨØ¢ÙĨ	7087
ĠØ¥ÙĬÙħØ§ÙĨÙĩØ§	6635
ÙĨ	47
ĠØ¨Ø§ÙĦØ´	4129
ĠØºÙĦØ§ÙħØ§	8040
ĠÙĪÙħÙĤØ§ÙħØ§	8438
ĠØ§ÙĦØ¨ØŃØ±	1210
ÙĥÙħ	88
ĠÙģØ£Ø¬Ø±Ùĩ	7955
ĠÙģØ£ÙĪÙĦÙī	6012
Ø³Ø³ÙĪØ§	7264
ĠÙģÙĦÙħ	1687
ĠÙĬØªØ±ÙĤØ¨	8123
ĠÙĬØªÙĪÙĦÙĩÙħ	6837
ĠÙĪÙģØ§ÙĥÙĩØ©	6993
ĠÙģÙĦÙĨØ£ØªÙĬÙĨ	9016
ĠØ§ÙĦØ£Ø³ÙħØ§Ø¡	4555
ĠÙģØ£Ø®Ø°ÙĨØ§Ùĩ	6607
ĠØŃØ§Ø¶Ø±Ø©	9965
ĠÙĦÙĬÙĩØ¯ÙĬÙĩÙħ	8009
ĠØ£ÙĬÙħØ§	1122
ĠØ§ÙĩØ¨Ø·	4179
ĠØ§ØªØ¨Ø¹Ùĥ	5249
ĠØ§ÙĦØ£Ø´	4114
ĠÙĪØ§ÙĦÙĨØ³Ø§Ø¡	7607
ĠØªØ¨ÙĬ	7468
ĠÙģÙħÙĨÙĥÙħ	8575
ĠÙħØ³ÙĦÙħÙĬÙĨ	2806
ĠÙĪØ¬Ø¦ÙĨØ§	6973
ĠÙĦÙĦÙĩ	436
ĠÙĨØ´Ø±Ùĥ	5840
ÙĥÙĨÙĪØ§	3018
ĠØµØ¯ÙĪØ±ÙĥÙħ	5180
ĠÙĪØ¶Ø§	7156
ĠØºØ´ÙĬÙĩÙħ	8044
Ø·Ø±	835
ĠØºØ¶Ø¨Ø§ÙĨ	9578
ĠØ¢Ø°Ø§ÙĨÙĩÙħ	3402
ĠØ®ØµÙĬÙħ	9712
ÙģØ©	833
ĠÙĬØªÙĪØ¨ÙĪØ§	9431
ĠØ§ÙĦØ±Ø³ÙĦ	1666
ĠØ£Ø¨Ø¯Ø§	1179
Ø±Ø§Ùĩ	2083
ĠØµØ¨Ø±	3213
ĠÙĥØ§ÙĨØª	1199
ĠÙĩÙĦÙĥ	4813
ĠØ¬Ø¨Ø§Ø±Ø§	5918
ĠÙĬÙģØªØ±Ùī	9023
Ø§Ø¦Ø±	1986
Ø§Ø¨Ø±ÙĬÙĨ	1397
ĠÙĤÙĦÙĬÙĦØ§	765
ØµÙĬØ±	608
ĠÙĪØ§ØªØ¨Ø¹	1300
Ø£ÙĦÙĥÙħ	1947
ĠÙĥÙĦÙħØ§Øª	6757
Ø¹ÙĦÙĨØ§	429
ĠØ¶Ø±Ø§Ø±Ø§	8338
Ø¶	101
ĠÙĤÙĬØ§ÙħØ§	4764
ĠÙĪÙĩ	964
ĠÙģØ§ÙĨØ·ÙĦÙĤØ§	7029
ĠÙĪØ¹Ø²Ø±	8366
Ø·Ø±ÙĨØ§	3772
ĠØ±Ø¨ÙĩÙħØ§	5868
ĠÙĦØªØ¹ÙĪØ¯	8572
ĠØ¨ÙĨÙĬØ§	7362
ĠØ·Ø±Ø§Ø¦	8272
ĠÙĪØ§ÙĦØ±ÙĪØŃ	9834
ĠØ¨Ø¹ÙĩØ¯	2946
ĠÙĤØ·Ø¹Øª	9949
ĠØ·ÙĦÙĪØ¹	9994
ĠØ´Ø¯ÙĬØ¯	853
ĠÙĦÙģØ±ÙĪØ¬ÙĩÙħ	9750
Ø·Ø§Ø¹ÙĪØ§	4354
ĠÙĬØ¬Ø¯ÙĪØ§	3981
Ø±ÙĬÙĨ	716
ĠÙĦØ®	2449
ĠØ¨Ø¯Ø§	7360
Ø°ÙĥØ±	402
ØªØ§Ø¹	8391
ĠÙĬØ£ÙħØ±	2378
ĠÙĪØ£Ø¨ØµØ§Ø±	4076
ĠÙĨØ±ÙĬÙĨÙĥ	4809
Ø¬Ø¯Ø§	7504
ĠØ¨ÙħØµØ±Ø®	8917
ĠÙĪØ§ÙĦÙħØ±Ø¬Ø§ÙĨ	9954
ĠÙĪØ£Ùĩ	1513
ÙĪØ¹Ø§	2620
ĠÙĪÙħØ«ÙĦ	6270
Ø¹ÙħØ¯Ø§	7916
ĠØ®ÙĪÙģØ§	5325
ĠØ£ÙģØ¶ØªÙħ	8309
Ø±ÙĬØŃØ§ÙĨ	10112
Ø²Ø±Ø¹	9770
ĠÙĦÙĦØ£Ø°ÙĤØ§ÙĨ	10120
Ø¬ÙĬØ¨	1694
ĠÙĨÙĩÙĪØ§	4065
ĠÙĬØ³ØªØ£Ø®Ø±ÙĪÙĨ	4288
ĠØ±ØŃÙĬÙħØ§	1533
ĠÙĬØ¯ÙĬÙĩ	1729
ĠØ¢Ø°Ø§ÙĨ	2207
ĠØ§ÙĦÙĥÙĬÙĦ	3224
ĠÙĦÙĦÙħ	593
ÙĦÙĩÙħ	653
ĠØ¹ÙĨÙĩ	994
ĠÙģØ§ØŃØ´Ø©	5016
ĠØ§ÙĦØ¬Ø¨Ø§ÙĦ	1332
ĠÙĪØ£ÙĬÙĪØ¨	5885
ĠÙĪÙĨÙħÙĬØª	8257
ĠØ£ÙģØ£ÙħÙĨÙĪØ§	9465
ĠØ¬Ø§Ø¡ÙĪØ§	3661
ĠØ£Ø®Ø±Ø¬ÙĪØ§	4412
ĠÙĬØºÙĬØ¸	8809
Ø³Ø±Ø§Ø¦ÙĬÙĦ	893
ĠÙĪÙĬØ±Ø³ÙĦ	5318
ÙĪØ³ÙĥÙħ	9017
ĠØ§ÙĦØ£Ø¨ÙĪØ§Ø¨	7817
ĠØªØŃÙĬØ©	8396
ĠØªÙĨÙģ	8607
Ø¹ÙħÙĦ	2510
Ø«Ùħ	942
ĠØ£ØªÙī	3461
ĠØ¹Øª	3514
ĠÙĪÙĥÙĬÙĦØ§	2093
ĠØ·ÙĬØ¨Ø§Øª	2961
Ø¨ØªÙĨØ§	2996
ĠØªÙĤØ±Ø¨	3733
ĠØ§ÙĦØ°ÙĥØ±Ùī	3808
ĠØ§Ø±Ø¬Ø¹	5368
ĠÙĪÙĬØ¬Ø¹ÙĦÙĪÙĨ	6797
ĠØ§ÙħØ±	3631
Ø°Ø¹	7346
ĠÙģØ§ÙĦØ°ÙĬÙĨ	2582
ÙĦØ¹	1037
ĠØ£ÙĨÙĬ	1862
ĠØ¥ÙĨÙĩÙħ	691
ĠØ£ÙĪØ²Ø¹ÙĨÙĬ	10265
ĠÙĬØ®ÙĪØ¶ÙĪØ§	5527
ĠÙĪØªÙĤØ·Ø¹ÙĪØ§	8160
ĠÙĪØ²	820
ĠØ§ÙĦØ¸	421
ĠÙĤØ¨ÙĦÙĨØ§	8770
ĠÙĩÙĪØ¯	4975
ĠØ§Ø³ØªÙĩØ²Ø¦	5128
ÙģØªØ§ÙĨ	8401
ĠØµØ¯ÙĬÙĤ	8718
ĠØ¨Øª	3118
ØŃØªÙħ	5732
ĠÙĪÙĦØ¨Ø¦Ø³	4885
ĠÙĦÙĦØ·Ø§ØºÙĬÙĨ	9876
ĠØªÙĪÙģÙī	9600
ĠØŃÙĥ	1251
ĠÙĪØ£ÙĪÙĦØ§Ø¯Ø§	9706
ĠØ¬ÙħÙĬØ¹	6486
ĠÙĦØ¹ÙĨÙĩÙħ	4343
ĠÙĪØ§Ø±Ø²ÙĤ	5359
ĠÙĦØ±Ø¬	5684
ĠÙĨØ¨Ø¦	5842
ĠØ§ÙĦØŃØ¯ÙĬØ¯	6002
ĠÙĦÙĦØ´Ø§Ø±Ø¨ÙĬÙĨ	7064
ĠÙģØ®ÙĦÙģ	7288
ĠØ±Ø¤ÙĬØ§	5808
ĠØ¢Ø«	2900
ĠØ§ÙĦØŃÙĤ	467
ĠÙģØµ	1434
ĠÙĦÙĬØ¬Ø²ÙĬ	2523
ĠØ¥ÙĨÙĨÙĬ	3543
ĠØ§Ø®ØªØ±	9152
ĠÙĪØ§ÙĦØ¥	1247
ĠÙĬÙģÙĤÙĩÙĪÙĩ	6722
ĠÙĪÙħÙĪØ¹Ø¸Ø©	4283
ĠÙĪØ¥ÙĦØ§	7822
ØŃÙĬØ§	2658
ÙĤÙĪÙĨÙĩ	8345
ÙĪØ§Ø¹Ø¯	3488
ĠØ§ÙĦÙĥÙĩÙģ	4955
ĠÙĬÙĥ	362
ĠÙĪØ¢ØªÙĪØ§	1901
ĠØ¨Ø§ÙĦØ®ÙĬØ±	5962
ĠØ¨Ø®Ø§Ø±Ø¬ÙĬÙĨ	10160
ĠÙĨÙĥØ±Ø§	6582
ÙĬÙĥ	2282
ĠØªØµØ±ÙģÙĪÙĨ	7499
ĠÙģØ§Ø¹ÙĦÙĬÙĨ	3902
ĠÙĬØ´	297
ĠÙħØ³Ø±Ùģ	9742
ĠÙĪØ§ÙĤØªØ±Ø¨	10284
ĠÙĪØ®ÙĦÙĤ	2414
ĠØ³ØªØ©	3164
ĠØ§ÙĦØ´Ø±	3429
ĠÙģØ£ØŃÙĬØ§	4159
ĠÙģØ¶ÙĦ	1042
ĠØªØ¨Ø·ÙĦÙĪØ§	8949
ĠØ§ÙĦÙħØªÙĥØ¨Ø±ÙĬÙĨ	6964
ĠØ§ÙħØ±Ø£ØªÙĬ	9271
ĠÙĪØ±Ø¯	6289
ĠØ¨Ø§ÙĦØ¬ÙĨ	7853
Ø§Ùģ	343
ĠÙĬØªÙĪÙģÙī	5422
ĠÙģØ£Ø±Ø§Ø¯	7951
ĠÙĬÙĨÙģØ¹	1469
ĠØ£Ø²ÙĪØ§Ø¬	951
Ø®Ùģ	5794
ĠÙĨØµÙģ	6497
ĠÙĤØ¨Ø¶	8769
ĠØ±Ø¢	3149
ØŃØ¨Ø§Ø±	7409
ÙĩÙĬØª	7117
ĠÙĦØ§Ø¹Ø¨ÙĬÙĨ	7768
ĠØ¢ØªÙĪÙĨÙĬ	7711
ĠØ°	156
ĠØ¢Øª	4825
ĠØ§ÙĦÙĪØ¹ÙĬØ¯	7137
Ø§ØºÙĬÙĨ	8922
ĠØ¨Ø±Ø²Ø®	10152
ĠÙĬØ¸Ø§ÙĩØ±ÙĪÙĨ	9354
ĠÙĦØ£ÙĨÙģØ³ÙĩÙħ	6772
ĠÙħÙĤÙĬÙħ	2848
ĠÙĬØ¬Ø²Ùī	6371
ĠÙĪØ¬Ø¹ÙĦÙĨØ§ÙĥÙħ	8870
ĠÙħØ´	1613
ÙĬØ§ÙĨØ§	2920
ĠØ¹ÙĦÙĬ	135
ĠÙĪÙĬÙħ	1608
ĠÙĦØ·ÙĬÙģ	4670
Ø´Ø±ÙĥÙĪÙĨ	1071
ĠÙĬØªÙģÙĥØ±ÙĪÙĨ	2608
ĠØ¨Ø§ÙĦØ¥ÙĬÙħØ§ÙĨ	4518
ĠØ§ÙĦØ£Ø®	2344
ĠÙĪØ£ÙĨÙģÙĤÙĪØ§	2959
Ø®Ø±ÙĪÙĨ	1630
ĠØ³Ø§Ùĩ	7671
ĠØ£Ø¨ØµØ±	8699
ĠØ§ÙĦØ®Ø·	6266
ĠÙĦØ£ÙĥÙģØ±ÙĨ	10140
ÙģÙĤÙĪÙĨ	1003
Ø´Ø§Ø±	2328
ĠÙģØº	3959
ĠØªØ²ÙĥÙī	5297
ĠØ§ÙĦÙĬØª	3917
ĠØ§ÙĦØªÙĪØ±Ø§Ø©	1908
Ø£ØªÙĪÙĨ	2464
ĠÙģØ¨Ø´Ø±ÙĩÙħ	6423
ĠØ§ÙĦÙĦØ¤	7132
ĠÙĬÙĤØ§ØªÙĦÙĪÙĨÙĥÙħ	5444
ĠØ³ÙĨÙĬÙĨ	2692
ĠÙĬØŃØ¶	8168
Ø¨Ø¦Ø³	2579
Ø´ÙĬÙĩÙħ	5827
ĠØ¹Ø±Ø¨ÙĬ	9762
ĠØ¬ÙĦ	3189
ĠÙĥÙģØ±ØªÙħ	3650
ÙĪØ¬ÙĩÙħ	4324
ĠÙĪÙĬÙĤØ¨	7896
ĠÙĦÙĩØ¯	4662
ĠØ¢ØªØ§ÙĩÙħ	3047
ĠØ¸ÙĨÙĨØªÙħ	4485
ĠØ¨Ø¹Ø¶Ùĩ	6263
ÙĪØ¨	269
Ø³Ø¨Ø§Ø¨	5013
ĠØ¨ØªØ£ÙĪÙĬÙĦÙĩ	6989
ĠØ®Ø§Ø·Ø¦ÙĬÙĨ	9966
Ø¦Ø©	1006
ĠÙĬÙħØªØ±ÙĪÙĨ	9937
ĠÙĪÙĦÙĬØª	8546
ĠØ£ÙĥÙĦÙĩØ§	5101
ĠÙģØ¹ÙĤØ±	4396
ÙĪØ¡ÙĪØ§	8742
ĠÙĤØ§ØªÙĦÙĪØ§	4763
ĠÙĦÙĬØ³ÙĪØ§	8835
ĠÙĥØ±ÙĬÙħ	1538
ĠØ¨ÙĨÙĬ	743
ĠØ±ØŃÙħ	642
ĠØªØ¨ÙĬÙĨ	2316
ĠØ±ØµØ¯Ø§	7565
ĠØ§ÙĦÙģØµÙĦ	3311
ĠÙĪØ§ÙĦØ¢ØµØ§ÙĦ	7047
ĠØªØ¹ÙĤÙĦÙĪÙĨ	1337
ĠÙĪØŃØ§ÙĤ	3335
Ø°ÙĨÙĬ	4695
ĠØ¯ÙĥØ§	6006
Ø«ÙĤÙī	7698
ĠÙĪÙĤØ¹	4161
ĠÙĪÙĦØ£	1710
ÙĨØ©	370
ÙĬÙħÙĨ	3070
ĠÙĬØ±Ùĩ	6155
ĠÙģØ§Ø¬Ø¹ÙĦ	6172
ĠÙħ	59
ĠÙĬØ£Ø°ÙĨ	6222
ĠÙĪÙĬØ¹ÙģÙĪ	7013
Ø§Ùħ	597
Ø§Ø¹ÙĬ	7075
ĠØ£Ø±ÙĨÙĬ	8774
ĠØ³ÙĬØ¹ÙĦÙħÙĪÙĨ	6420
ĠÙģØ§Ø®ØªÙĦØ·	9448
ĠÙĬÙħØ³ÙĥÙĩÙĨ	9907
ĠÙĨÙĥØ§ØŃØ§	10239
Ø¹ÙħÙī	2218
Ø¯ÙĩÙħ	1761
ĠÙĪÙĬÙĤÙĪÙĦÙĪÙĨ	1200
Ø¯ÙĬ	1617
ĠÙģØ¥ÙħØ§	3216
ÙģÙĪÙģ	7395
ĠØ¹ÙĨØ¯ÙĩÙħ	3257
ĠØªØ´Ø±ÙĥÙĪØ§	6924
ĠØ®ÙĬØ±	437
ĠÙĬØ®ÙĦÙģ	3289
ĠØªÙĤØ±Ø¨Ø§	9788
ÙĬÙĦØ§	914
ĠØ§ÙĦÙħØ´ØŃÙĪÙĨ	7007
ĠØ§ÙĦÙĪØ³	5591
ĠØ§ØµÙĦÙĪÙĩØ§	9438
ĠÙĪØ¯Ø§	4611
ĠØ¹Ø§ÙĥÙģÙĬÙĨ	9820
ÙħÙħ	7089
ĠØ®Ø§Ø¦ÙģØ§	9779
ĠØ¯Ø§Ø¨	1644
Ø¥ÙĨ	7587
ĠÙĪÙħÙĤØ§Ùħ	8433
ĠÙĪØªØ¬Ø¹ÙĦÙĪÙĨ	10289
ĠØ¨Ø¹Ø¯	285
ĠØªØ²	1283
ĠØ¸ÙĦÙħØ§Øª	2956
ØŃØ§Ùħ	4005
ĠÙģÙĬÙħ	5790
ĠÙĪÙĤÙĦÙĪØ¨ÙĩÙħ	6610
Ø¹ÙģÙģ	5205
ĠÙĪØ«Ø¨Øª	7159
Ø¹Ø²	7221
ĠØªÙĪØ¹Ø¯ÙĪÙĨ	2158
ĠÙĪÙĦØ¦ÙĨ	1069
ĠÙĪØ§ÙĦØ¨	1246
ĠÙģØ§Ø®	2059
ØªÙĩØ§	618
Ø§ÙĤ	438
ĠÙĬØ¨Ø¯Ø£	3818
ĠÙĬØŃØ³Ø¨ÙĨ	6935
ĠÙĤØµØµ	4508
ĠÙħÙĪØ¹Ø¯ÙĩÙħ	8182
ĠØ§Ø³ØªØºÙģØ±ÙĪØ§	6339
ĠÙĬØ·Ø¹Ùħ	6614
ĠØ¨Ø±	794
Ø·Ø§Ø¡	3168
ĠØ¬ÙĦÙĪØ¯	4548
ĠØ§ÙĦÙħØ³	786
Ø§ÙģØ¸ÙĬÙĨ	9324
Ø±ØŃÙħÙĨ	2150
ĠÙħÙĨÙĬØ¨ÙĬÙĨ	9455
ĠØ£ÙĨÙĩ	1318
ĠØ²Ø®Ø±Ùģ	10134
ĠÙĨØ¹Ø¯ÙĩÙħ	4067
ĠÙĪÙħØ³Ø§ÙĥÙĨ	7023
ÙĨØªÙĬÙĨ	2980
ĠØ§ÙĦØ¬Ø§ÙĩÙĦÙĬØ©	5412
ĠÙģØ£ØµØ§Ø¨ÙĩÙħ	9095
ĠÙĬØ³ØªØ¹Ø¬ÙĦ	8454
ĠØ§ÙĦØŃØ·ÙħØ©	10099
ĠÙĬØ±Ø²ÙĤÙĪÙĨ	8187
Ø¤Ø§Ø¯	4127
ĠØ¹ÙĬÙĨØ§	3131
ÙĩÙģ	3425
ĠØ³ÙĬÙĩØ¯ÙĬÙĨ	6422
ĠØ±Ø³ÙĪÙĦÙĩ	1895
ĠØ§ÙĦØµÙĦØ§Ø©	737
ĠØ®ÙĬÙģ	4866
ĠÙħØ²ÙĬØ¯	7211
Ø¬Ø±ÙĪØ§	2102
ĠÙħÙĩ	2627
ĠÙĬØ¤ÙģÙĥÙĪÙĨ	3741
ĠØ®Ø§ÙĦØµØ©	5162
ĠØ§ÙĦÙħÙĤØ±Ø¨ÙĪÙĨ	5467
ĠØ¨ÙĬØ¶	8766
Ø°	68
Ø±ØŃ	1083
ĠÙĪÙĨÙĪØ±	8245
Ø¬Ø±ÙħÙĬÙĨ	1054
ĠØ§Ø¯Ø¹ÙĪØ§	3029
Ø¨Ø¹Ø°Ø§Ø¨ÙĨØ§	8078
ÙĦÙī	108
ĠÙĪÙĬØ¹	1516
ĠØ§ÙĦÙĨÙĥØ§ØŃ	7065
ĠÙĦØº	1274
ĠØ±ÙĤØ¨Ø©	3863
ĠØ¨Ø§ÙĦØ³Ø§Ø¹Ø©	9666
ĠÙĬØ¹ÙĤØ¨	8380
ĠØ£ÙĪØ¢Ø¨Ø§Ø¤ÙĨØ§	10266
ĠØ¨ÙĦÙī	1392
ĠØ£Ø°Ø§	5640
ĠÙĬØ¬Ø¯ÙĪÙĨ	2601
ĠØ¨Ø¶Ø§Ø¹ØªÙĩÙħ	10065
ĠÙģØ¨Ø¯	7277
ÙĪØŃØ§	4291
ĠØ®Ø·ÙĬØ¦	9848
Ø¤ÙħÙĨÙĨ	4932
ĠÙģÙĪÙĤ	921
ĠØ¬Ø§ÙĨØ¨	4528
ĠÙĪÙĬØ¯	5981
ĠÙĪØªÙģ	8148
ĠÙĪÙħØ£ÙĪØ§ÙĥÙħ	9886
ĠÙĤÙĪØ§ÙħÙĬÙĨ	9828
ĠØ¬Ø§Ø¡Øª	2538
ĠØŃØ·Ø§ÙħØ§	7054
ĠÙģØ§ØµØ¨Ø±ÙĪØ§	9327
ĠØ§ÙĨØµØ±	5203
ÙģØ±Ø§	4870
ĠØ¥ØŃØ¯Ùī	5376
ĠÙĬÙģ	648
ĠÙĪØ§ÙĦÙģØªÙĨØ©	7602
ĠØ¨Ø±Ø¯Ø§	8853
ĠÙĪØ§ÙĦØ±ÙĥØ¹	10074
ĠÙĪØ®Ø±	4608
ĠÙĬÙĪ	573
ĠÙĥØ§ÙģØ±ÙĬÙĨ	2877
ĠÙģØ¹ÙĦÙĪÙĩ	4418
ÙĦØ¨	489
ĠÙĨØ¨ÙĬØ§	3025
ĠÙħØªØ´Ø§Ø¨ÙĩØ§	5498
ĠØ´ÙĬ	226
ĠÙĪØ§ÙĦØ±Ø³ÙĪÙĦ	2684
ĠÙĪØ£ÙħÙĪØ§ÙĦÙĩÙħ	6987
ĠØªØ¨ØªÙħ	8948
ĠÙĪÙĦØ¹ÙĦÙĩÙħ	6796
ĠØ³Ø§Ùģ	7662
Ø¨Ø±Ø©	3233
ĠØªÙģØ³Ø¯ÙĪØ§	5487
ĠÙĥÙģØ§Ø±	2321
ĠØ§ÙĦØ°ÙĥØ±	1248
ĠÙĪØ¬ÙĨÙĪØ¯Ùĩ	3403
ĠØ¬Ø§Ø¡ÙĩÙħ	928
ĠØ¨Ø¬ÙĨ	4708
ĠÙĪÙĨØ¬	5027
ÙħØµØ©	7097
ĠØ§ÙĦÙĥÙģÙĦ	8028
ĠÙģØ¹ÙĨØ¯	8995
ĠØ¨Ø£ÙģÙĪØ§Ùĩ	3067
ĠØµØ§ØŃØ¨ÙĬ	9671
ĠØªÙĪ	1282
ÙĪØ·	7105
ĠÙĬØºØ´	6464
ĠÙĪÙĬØ¹Ø¨Ø¯ÙĪÙĨ	4902
ĠØ¨Ø¨ÙĨÙĬ	5722
ĠØªØ¨Ø±	2872
ĠØ£Ø·Ø¹	5643
ĠÙĪØ£Ø®Ø±Ùī	6869
ĠØ¢ÙĦÙĩØªÙĩÙħ	9080
Ø¨ÙĦÙĪÙĩÙħ	8055
ĠÙĪØ¨	435
ÙĤÙĤ	5694
ĠÙĪÙĨÙģØ®Øª	9726
ĠØ¹ÙĬÙĨÙĩØ§	9311
ĠÙĩØ§ÙĩÙĨØ§	5543
ĠØ§ÙĦØ¬ÙĩØ±	5043
ĠØ¨ÙĬÙĨÙĩ	8082
ĠÙĤØªÙĦ	1629
ĠÙĬØ³ÙĬØ±Ø§	3292
ĠØ¯ÙĬÙĨÙĩÙħ	2590
ĠÙĤÙĦØªÙħ	2716
ĠØ¸ÙĦÙħÙĩÙħ	6444
ÙĪØŃÙĬ	8465
ĠÙģØ¬Ø¹ÙĦÙĨØ§ÙĩÙħ	4514
ÙĦÙħÙĪØ§	5850
ĠØªÙĨØ°Ø±	8609
ĠÙģØªÙĥÙĪÙĨ	2547
ĠÙĬØ¹Ø°Ø¨ÙĥÙħ	5455
ĠØ§ÙĦØ·ÙĦØ§ÙĤ	8788
ĠÙĪÙĬØŃØ°Ø±ÙĥÙħ	9397
ĠÙĪØ£ÙĨØ²ÙĦÙĨØ§	2234
ĠØªÙĪÙĦÙī	2666
Ø¸	145
ĠØŃÙĥÙĬÙħ	958
ĠÙĪØ£ÙĪØŃÙī	9491
ĠØ£ØŃØ³ÙĨ	981
ĠÙĪØ§ÙĦØ²ÙĥØ§Ø©	9837
ĠÙģØŃØ§ÙĤ	10191
ĠØ£Ø¨Ø±	4637
ÙĪÙĬÙĥÙħ	5202
ĠÙĪÙĬØ®Ø±Ø¬	4139
ĠÙģØ§Ø³Ø£ÙĦ	3792
ĠØ¨ÙĨØ§Ø¡	5720
ĠÙĦÙĦØ¹Ø¨Ø§Ø¯	9211
ĠØ³Ø§ÙĩÙĪÙĨ	10244
ĠØ³ÙĨÙĥØªØ¨	10245
ĠØ®ÙĦØ§Ø¦Ùģ	5546
ĠÙĪÙĬÙģØ³Ø¯ÙĪÙĨ	7905
ÙģÙĬÙĩØ§	6284
ĠØ¥ÙĦÙĬÙĩÙĨ	8091
ĠÙģØ±Ø§Ø±Ø§	5674
Ø¨ÙĬÙĨØ©	4976
ĠØ£ØªØ¹Ø¨Ø¯ÙĪÙĨ	8753
ĠÙħØŃÙĬØ·	3389
ĠÙĨØ®Ø±Ø¬ÙĥÙħ	9957
ĠÙĪØ¥ÙĦÙĩ	4119
Ø¨Ùĩ	1497
ĠØªÙĤØ¯ÙħÙĪØ§	5417
ÙĩÙĦÙĥ	1000
ØªØ§Ùĩ	6247
ĠØ¨ÙĤÙĪÙħ	6616
ĠÙħØ·ÙĩØ±Ø©	4561
ØªÙħÙĨ	7178
ĠÙģØ£ØªØ¨Ø¹Ùĩ	6872
ÙħØ¶ÙĪØ§	7094
ĠÙĪØ£ÙĪØ°	7727
ĠÙĬÙĨØ¨Ø£	9580
ĠØ¶Ø§	8333
ĠØ£Ø®Ø°Øª	8978
ĠÙĦÙĥØ¨ÙĬØ±Ø©	10005
ĠÙĦØ¨Ø¹Ø¶	2645
ĠØªØ¬ÙĩÙĦÙĪÙĨ	5131
ĠÙĦØŃØ§ÙģØ¸ÙĪÙĨ	6760
ĠØ£Øº	1243
Ø§ØµØ©	8680
ĠÙĦÙĩØ¯Ùī	7308
ĠØ¹Ø§ØµÙģ	9765
ĠÙģÙĨÙģØ®ÙĨØ§	10313
ÙĤØ§ÙĨ	2649
ĠØ£ÙĩÙĦÙĨØ§	8348
ĠØ£ØŃÙĬØ§Ø¡	5495
ĠÙĥØ°Ø¨	464
ĠÙģØ§Ø¹Ø¨Ø¯ÙĪÙĩ	4505
ĠØŃØ¨Ø§ÙĦ	7756
ĠÙħÙĨØ¹Ùĥ	6888
ĠÙĦÙĬØ®Ø±Ø¬ÙĥÙħ	9783
ĠÙģÙĬØ¶Ø§Ø¹ÙģÙĩ	10229
ĠÙĬØªØ¨	8116
ĠØ¹Ø§ÙĤØ¨	9025
ĠÙĬÙĤØªÙĦ	3982
ĠÙĬÙĨØ·ÙĤÙĪÙĨ	5494
ĠØ¸Ø§ÙĩØ±Ø©	9786
ĠÙĦÙĬÙģØª	7999
ĠØ£ÙģØ¨Ø§ÙĦ	8306
Ø¨Ø¹	241
Ø§ÙĦÙĪØ§	1926
Ø¬ÙĬ	4028
ĠÙĤØ¯	278
ĠÙħØ±Ø¯	3710
ĠØ£ÙģØ£ÙħÙĨ	6784
Ø°ÙĬØ±	4694
ĠØ§ÙĦØ´ÙĩØ§Ø¯Ø©	8354
Ø§ÙģÙĦ	2745
ĠØ§Ø³ØªØ¬Ø§Ø¨	5126
ĠÙĪÙĦÙĨØ°ÙĬÙĤÙĨÙĩÙħ	10312
ĠØ£ÙģÙĦØ§	871
ĠÙĪÙĬØ°Ø±ÙĪÙĨ	5985
Ø§Ø±	175
ĠÙģØµØ¯	3472
ĠØ§ÙĦØ¢ÙĨ	4495
ĠØ¥Ø®ÙĪØ§	2654
ĠØ£Ø¹Ø¯Ø§Ø¡	4477
ĠÙĪØ§ÙĦØ²ÙĬØªÙĪÙĨ	4795
ĠÙħØ³Ø®Ø±Ø§Øª	6316
Ø¨ÙĪØ§Ø¨	7191
ĠØ£ÙĨØ²ÙĦØª	2770
ÙĨØ¨ÙĬ	7083
Ø§ÙĪÙĬØ©	3803
ĠÙĤØªÙĦØªÙħ	6709
ĠÙĥÙģ	4749
ĠØ§ØµØ·Ùģ	9437
ĠØ§ÙĦØ£Ø¯ÙĨÙī	7818
ĠÙģÙĪØ§	4651
ÙĤØµ	1439
Ø¹ÙħØ±Ø©	7917
ĠØŃÙĦÙĬÙħØ§	5908
ĠÙĥÙģØ±Ø§	4983
ØªÙħÙĪÙĨØ§	6701
ØªØ¨Ø¹	1429
ĠÙĪÙĩØ§	1678
ÙĪØ§ÙĩØ§	5705
ĠØ£ÙĨØ§Ø³	4330
ĠÙĨÙģØ±Ø§	9705
ĠÙĪØªØµÙģ	8156
ĠØ£ÙģØ±Øº	6759
Ø¸ÙĬÙħ	542
ĠÙĨØ§Ø±Ø§	1568
ĠÙħØ·ÙĩØ±	3939
ĠÙĪØ£Ø«	5874
ĠØ¨Ø±Ø³ÙĦ	5718
ĠÙħØ®ØªÙĦÙģ	2810
ÙĥÙĬ	7166
ĠÙģØ§ØŃ	4231
ĠØ§ÙĦÙĨØ¯Ø§ÙħØ©	8241
ÙĬØ¯Ùĩ	1973
ĠÙĦØ¹ÙĨ	6435
ĠØŃÙħÙĦ	3014
ĠØ¨ØŃØ¨ÙĦ	9524
ĠÙĤØ¯Ø±ÙĪØ§	6144
Ø´	104
Ø³Ø§	874
ĠØªØŃØ§Ø¬ÙĪÙĨ	8397
ĠØ±Ø¬Ø¹ÙĪØ§	8705
Ø§Ø«Ø±	9139
ĠÙħØªØ§Ø¹	1744
ĠÙĪÙĥØ°Ø¨	1808
ĠÙĬØ³Ø¬Ø¯	2981
Ø§Ø¯Ø±ÙĪÙĨ	4146
ĠØ¹ØªÙĬØ¯	9764
ĠÙģÙĥØ´ÙģÙĨØ§	8646
ĠØ§ÙĦØµØ§ÙĦØŃØ§Øª	714
ĠÙģØªÙĨØªÙħ	8316
ÙĩØ§ÙĨ	7566
ĠÙĪØ§ÙĦÙĥ	1864
ĠÙħÙħ	2847
ĠÙĪØ¥Ø³ØªØ¨Ø±ÙĤ	5948
ĠØ§ÙĦÙħØ³ØŃØ±ÙĬÙĨ	8850
ÙĩÙĨÙĪØ§	4977
ĠÙĦ	65
ÙħÙĬÙĨ	255
ĠØ£ÙĪØ³Ø·	7869
ĠÙĬÙĤ	647
ĠØ³ÙħØ§ÙĪØ§Øª	4527
ĠØ¬Ø²Ø¡Ø§	8910
Ø¯Ø®ÙĦÙĥÙħ	6665
ĠÙĦØ§ØªØ®Ø°	6914
ĠØ¹ÙĦÙħ	492
ĠØ²	393
ĠÙĪØ¹Ùħ	657
ĠÙĪÙĤØ¯	797
Ø¬Ø¹ÙĪØ§	3140
ĠÙĤÙĪÙħÙĩ	1013
ĠØ¨ÙĦØ§	5707
ĠÙĦØ±Ø¨Ùĩ	9350
ĠØ¹Ø±Ø¶Ø§	9414
ĠÙĪØ²ÙĪØ¬Ùĥ	9896
ĠØ·Ø±ÙĬØ§	9995
ĠØ³ÙĦÙĥ	7657
Ø¦Ø±	7701
Ø³Ø¨ÙĪØ§	3664
ĠØ¹ÙĪØ¬Ø§	3133
ĠÙĬÙĨÙģØ®	4988
ĠÙħÙĥÙĬÙĨ	5221
ĠÙĬØŃØ´Ø±ÙĪÙĨ	6147
ĠØ®ÙĦÙĬÙģØ©	7797
ĠØ¹Ø¨Ø¯ÙĨØ§	3820
ĠÙĤØµ	2198
ĠØ£ØµØ§Ø¨ÙĩÙħ	4422
ĠÙĥØ«ÙĬØ±Ø§	859
ĠÙĪÙĨØ°ÙĬØ±Ø§	2958
ĠØ¨ÙĨØµØ±Ùĩ	6645
ÙĬÙĨØ§Ùĩ	1255
ĠØ¨Ø£ÙĨÙĩÙħ	1258
ĠÙĨØ¹Ø¬Ø©	9838
ĠÙģÙĬÙĨØ¨Ø¦ÙĥÙħ	3376
ĠÙĪØ¨Ø¯Ø§	3920
ĠÙħØ±ØªÙģÙĤØ§	8507
ĠÙĤÙĪÙĦÙĩÙħ	3044
ĠØ§ÙĦØ¨Ø·ÙĪÙĨ	6335
ĠÙħØªØ±Ùģ	6462
ĠØ£Ø®ÙģÙĬ	8650
ĠØ§ÙĦÙģØ±Ø¯ÙĪØ³	9442
ĠÙĪØ§ÙĦØ¹Ø´ÙĬ	9646
ĠÙĬØ³Ø£ÙĦÙĥÙħ	6297
ĠØ¨ØºØ§ÙģÙĦ	2775
ÙĪØ¬Ø§	2566
ØŃÙħÙĪÙĨ	2950
ĠÙħÙĨÙĤÙĦØ¨	5742
Ø§Ø³Ø¨	7073
ĠØ¹ÙĤØ§Ø¨	4731
ĠØ¹Ø§	3512
ĠØ¹Ø·	7434
ĠÙĥØ§Ø°Ø¨Ø§	9799
ĠØŃÙĦÙĬØ©	5907
Ø³ØªØ¨Ø±ÙĤ	5548
ĠÙĪÙĨØ§Ø¯ÙĪØ§	9506
ĠØ£Ø®Ø¨Ø§Ø±ÙĥÙħ	10144
ĠÙħÙĦØªÙĩÙħ	9509
ØªÙĤÙħ	9075
ÙĨØ§Ø¬Ø±	7455
ĠÙĩØ²ÙĪØ§	2332
ĠØ§ÙĦØ´	363
ĠØ§Ø³ØªØ¬Ø§Ø¨ÙĪØ§	5555
ĠÙĦØ¢ØªÙĬØ©	8972
Ø«ÙĪØ§	1320
ĠÙħØ¯Ø¯ÙĨØ§ÙĩØ§	9006
ĠØ§ÙĦØ±Ø¬Ø³	5336
ĠÙħØµÙģØ±Ø§	6585
ĠÙĪØ¹Ø³Ùī	8360
ĠØ§ÙĦÙħØ¯	4081
ĠÙĪØ¢Ø¨	2391
ĠØ«Ø¨ÙĪØ±Ø§	4909
ĠÙĬØ¯Ø¹ÙĪÙĥÙħ	5442
ĠÙĪØ¹ÙĦÙĬÙĩ	8362
ĠØ§ÙĦØ®Ø¨Ø§Ø¦Ø«	10302
ÙĬØ²Ø§ÙĨ	5570
ĠÙģÙħØªØ§Ø¹	9592
ĠØ²ÙĪØ¬ÙĩØ§	5339
ĠØ¹Ø¸ÙĬÙħ	825
Ø§ÙĩØ¯ÙĪØ§	1488
ĠØ§ÙĦØ£Ø®ÙĬØ§Ø±	9538
ĠÙĪÙĬÙĥ	3204
ĠØ£ÙħÙĩØ§ØªÙĥÙħ	3877
ĠÙĪÙĥØ«ÙĬØ±	3632
ĠØ¢ÙĬØ§ØªÙĨØ§	1056
ĠÙģÙĥÙĬØ¯ÙĪÙĨ	8645
ĠÙħÙĥØ±ÙħÙĪÙĨ	6664
ĠÙģØŃ	7268
ĠÙĬÙĨÙĥ	3244
ĠÙĥØ°Ø¨Øª	1823
ĠØ§ÙĦØ¹Ø¯Ø©	10033
ĠØ¨Ø¬Ø§ÙĨ	5375
ĠÙĨØªÙĤ	7629
ĠÙħØ±ØŃØ§	8505
ĠØ£ÙĨÙģØ³ÙĥÙħ	983
ĠØ§ÙĦÙħÙħØªØ±ÙĬÙĨ	5544
ĠØ£ÙĪÙĦØ§Ø¯ÙĥÙħ	3372
ĠØ§ÙĦÙħÙĥØ±	4844
ĠØ£ÙĬØ¯ÙĬÙĩÙħ	1081
Ø¯Ø±ÙĬ	5651
ĠØ¬Ø²Ø§Ø¤ÙĩÙħ	4377
ĠÙĦÙĥÙĨØ§	5061
ĠÙĪØ¨ÙĬÙĨÙĥ	4394
Ø§Ø¨ÙĩØ§	3557
ĠØ´ÙĩØ¯Ø§Ø¡	2266
ÙĪØ±Ø«	2526
ĠØ§ÙĦÙħØŃØµÙĨØ§Øª	4847
ĠØµÙĨÙĪØ§ÙĨ	7991
ĠÙĪØŃÙģ	6470
ĠÙĦØ¯Ùī	7307
ÙĪØ¨ÙĩÙħ	1722
ĠØ¨ÙĬØ¯Ùĩ	3993
ĠÙĪØ§ÙĦØ£ØŃØ¨Ø§Ø±	8165
ĠØ¨ÙħØµØ§Ø¨	8916
ĠØ£Ø®Ø±ÙĨØ§	9177
ĠØ§ÙĦÙĤØ±Ø§Ø±	6047
ĠØ§ÙĦÙħØ³ØªÙĤÙĬÙħ	4501
ĠØªØ¤ØªÙĬ	9251
ĠÙħØŃÙĬ	1933
ĠØ®Ø³Ø±	3585
ĠØªØ³Ø£ÙĦÙĪÙĨ	4356
ĠØªØ³Ø¹	6478
ĠÙĤØ§ÙĨØªÙĪÙĨ	9701
ĠÙĩÙĬÙĨ	7644
ĠØ£ÙĪÙĦ	899
ĠÙĨÙĥÙĪÙĨ	7617
Ø°Ø±	386
Ø£ÙĦÙĩÙħ	4009
ØŃÙĬÙĬ	2019
ÙĩØ±Ø©	3299
ĠØ®Ø§Ø´Ø¹ÙĬÙĨ	6830
ĠÙĪÙĬØŃÙĦÙģÙĪÙĨ	9396
ĠÙĨÙģØ³ÙĬ	2768
ĠÙĬØºÙĨÙĬ	2134
ÙħØ§Ø±ÙĪÙĨ	7460
ÙĩØ¯Ùī	728
ĠØ¨ÙħØ¨Ø¹ÙĪØ«ÙĬÙĨ	10309
ĠÙĦÙĦØ°ÙĬ	4990
ÙĪØ¬ÙĪÙĩ	3735
ĠØ§ÙĦÙĪØ¯ÙĤ	10035
ĠÙĪÙĬØŃÙĦ	6755
ĠØ§ÙĦØ£ÙĪÙĦÙī	1967
ĠØ¥Ø«ÙħØ§	3123
ĠØ®Ø·Ø§	4104
ĠØ§ÙĦÙĬÙħÙĬÙĨ	2171
ĠØ§ÙĤØªÙĦÙĪØ§	6063
ĠØ¥Ø®Ø±Ø§Ø¬	6824
ĠÙģØ³Ø¬Ø¯	8667
ÙĨØ¹	3907
ĠØ§ÙĦØ³ÙģÙĩØ§Ø¡	4570
ĠØ¨Ø§ÙĦÙĥÙģØ±	4891
ĠÙĩØ°Ø§	304
ĠØ§ÙĥØªØ³Ø¨	6898
ĠÙģØ¥ÙĬØ§ÙĬ	7995
ĠÙĬØªÙħØ§Ø³Ø§	8125
ĠÙĪØ®ÙģÙĬØ©	9069
ÙĬØ¯ÙĩØ§	4905
ĠØ±Ø³ÙĪÙĦÙĥÙħ	8813
ĠØ³Ø±Ø±	4483
ĠÙĬØ¤ÙħÙĨÙĪØ§	2258
ĠÙĦÙĩÙħØ§	2515
ĠÙģØªÙĪÙĥÙĦ	8319
ĠÙĨØ°	956
Ø¨ØµØ§Ø±	1344
ĠØ®Ø±Ø¬	2343
Ø¦ÙĥÙħ	3170
ÙĤØ©	1133
ĠÙĥØ°Ø§Ø¨	3533
ĠÙĪØ£ÙĩÙĦÙĬÙĩÙħ	9262
ĠØ±Ø¯Øª	7562
ĠÙĪÙĤÙĬÙĦ	1883
Ø¬ÙĬØ¨ÙĪØ§	2817
Ø¯ÙĨ	3464
ĠØ¨Ø¹Ø²ÙĬØ²	4981
ĠÙĤÙĪÙħÙĥ	2735
ĠØ£ÙĦÙĤÙĪØ§	3043
ĠÙĪÙĥØªØ¨	4183
ĠÙĪÙĦÙĥÙĨØ§	6262
Ø´ÙĪÙĨ	1448
ĠÙĪØ§ÙĦØ£ÙĤØ±Ø¨ÙĬÙĨ	6933
ĠØ¨ÙħØ«ÙĦÙĩ	8913
ĠÙĪØ®ØªÙħ	9067
Ø¨Ø§Ø¯	472
¨	10
ĠØ§Ø´	1595
ĠØ¯Ø§Ø¦Ø±Ø©	6932
ĠÙĬØ±Ø¬Ø¹	4225
Ø¹ÙħÙĩÙħ	5993
ĠØ£ÙħÙĪØ§Øª	4914
ĠÙĦÙĪØ·Ø§	5116
ĠØ²ÙĬÙĨØªÙĩÙĨ	6660
ĠÙģÙĦÙĬ	822
ÙĤØ§ÙħÙĪØ§	1996
ĠØ¥Ø«Ùħ	3122
ĠØ§ÙĦÙħÙĪØª	1007
ĠØ¯Ø±Ø¬	1803
Ø¹ÙĬÙĦ	2183
ĠØ¹ÙĨØ¯	311
ĠÙĪØ£Ø®	1795
Ø³ÙħØ§Ø¹ÙĬÙĦ	2278
ĠØ³Ø§Ø¹Ø©	2898
ĠÙĨØ²ÙĦÙĨØ§	3157
ĠÙĬÙĪØ³Ùģ	1484
ÙģØ¦Ø¯Ø©	3887
Ø³Ø¯Ø§	4649
ĠØ§Ø³ØªØ³	8556
ĠÙģØ³ÙĬÙĨ	8665
ĠØµØ¯ÙĤÙĩÙħ	8719
ĠØ³Ø±ÙĩÙħ	9365
ĠÙĪØ¬Ø¹ÙĦ	891
ĠÙĪØ§ÙĦØ£Ø¹ÙĨØ§Ø¨	8164
ĠÙħØ¨Ø´Ø±ÙĬÙĨ	5265
ĠØ´Ø±ÙĥØ§Ø¡	2149
Ø¹ÙħÙĪÙĨ	2925
Ø¨ØªÙĪØ§	3927
ĠÙĬÙĪÙĤ	2015
ĠÙħÙĨØ³	4722
Ĥ	33
ĠØ§ÙĦÙĤÙĬÙħ	4936
ĠØ¹ÙĬÙĨØ§ÙĨ	9312
ĠØ£Ø¨Øª	2638
Ø¯ÙĬØ¯	646
ĠÙģØ§ØŃØ°Ø±	9880
ĠÙĪØ£Ø²ÙĦÙģØª	10079
ØŃÙĦ	4712
ĠØ³ÙĦØ³	9079
ĠÙģØªÙĬÙħÙħÙĪØ§	8328
ĠÙħØ§Ø¡	986
ÙĨÙĬØ§Ø¡	4965
ØµØ±ÙĬÙĨ	4268
ĠØ£Ø¥ÙĦÙĩ	4419
ĠÙĬØ³ØªØ¬ÙĬØ¨ÙĪØ§	4286
ĠØ±Ø¡ÙĪØ³ÙĥÙħ	9587
ĠØ¨ÙĨØ§ØªÙĬ	9596
ĠÙĪØº	2840
ĠÙģÙĪØ§ÙĥÙĩ	9927
ĠØ£ÙĤÙĦØ§Ùħ	8877
ĠØ£Ø²ÙĪØ§Ø¬Ø§	2026
ĩ	38
ĠØµØ¯ÙĪØ±	5177
ĠØ³ÙĦØ·Ø§ÙĨØ§	2415
ĠÙĪØ£Ø¹Ø±Ø¶	4840
ĠØ§ÙħØ±Ø£	1520
ĠØªØ¶	2315
ĠÙĪÙĦØ³ÙĦÙĬÙħØ§ÙĨ	9856
ĠÙĬÙĦÙĤ	1767
ĠÙĪØ¢ØªÙĬÙĨØ§	1482
ĠÙĬÙĨÙģØ¹ÙĥÙħ	5327
ĠÙĨØ®ÙĬÙĦ	5411
ĠÙĬÙĨØ§ÙĦ	6126
ĠØ¹Ø§ÙħØ§	6919
ĠØ§ÙĦØ£Ùħ	1142
ĠÙģØ¢ÙħÙĨ	6631
ĠØ£ÙĤØ±	7240
ĠÙĬÙĨØªØµØ±ÙĪÙĨ	9983
ĠØ§ÙĦØ¯Ø¹Ø§Ø¡	4233
ĠÙĪØ¨Ø¦Ø³	1898
ĠÙħØ¶	3929
ĠÙĨØ¹Ø§	7618
Ø¯Ø¯	3465
ĠØ£Ø±Ø³ÙĦ	2563
ĠÙĨØµØ§Ø±Ùī	4066
ĠÙĪÙĬØ¨	2506
ĠØ¨Ø§Ø±Ø¦ÙĥÙħ	9753
ĠÙħØ®ÙħØµØ©	9198
ĠØ´Ø±ØŃ	7802
ĠØ£ÙĪØŃÙĬÙĨØ§	2037
ĠÙĦÙĤÙĪØ§	7303
ÙĨØ¹ÙĪÙĨ	3420
ĠÙĬØ¤Ø®Ø±ÙĩÙħ	6981
ĠØ³ÙĪØ¢	4526
ĠÙģØ£Ø±Ø³ÙĦÙĨØ§	3208
ĠÙĪÙĦØ¢	7835
Ø³ÙħÙĬÙĨ	8076
ĠÙģÙĦØ§	354
ÙĦØ§Ùģ	1855
ØªÙĪÙĨÙĬ	2133
ĠÙĪÙĬØ¬Ø¹ÙĦ	2216
ĠØ£ÙħÙĦÙĥ	4153
ĠØ®Ø·ÙĪØ§Øª	4484
ĠØ§ÙĦØ¯Ø±Ø¬	8209
ĠÙģÙģØ³	7275
ØªÙħÙĪÙĨÙĬ	9299
ĠØ¨Ø¨Ø§ÙĦ	7368
ĠØ§ÙĦÙħØ´Ø±ÙĤ	3889
ĠØªØ¨ØªØ¦Ø³	9529
ĠØ§ÙĦØ°ÙĬ	243
ĠØ®Ø·ÙĬ	4103
ØªÙħÙĪÙĩØ§	3187
ĠØ§ÙĦÙĤÙħØ±	4170
ĠØŃÙĤØ§	1706
ĠØ£Ø±ÙĨØ§	8773
ĠÙĪØ¬Ø¹ÙĦÙĨØ§ÙĩØ§	6515
ĠÙģÙģÙĬ	5668
ĠÙĪÙħÙĦÙĥ	8432
Ø§ÙĨØªÙĬÙĨ	5823
ĠØªÙĪØ¨Ø©	9642
ØµØ±Ùĥ	8404
ĠÙĪØ£ÙĨØ°Ø±	6201
ĠÙĦÙĤÙĬØªÙħ	6323
ĠØ´Ø§Ø¹Ø±	6894
ÙĩØ§ÙĩÙħ	7567
Ø·ÙĦÙĤØ§Øª	9489
ĠÙĪÙĦØ£ÙĨØ¹Ø§ÙħÙĥÙħ	10262
ĠÙĬØ¹ØªØ¯ÙĪÙĨ	6975
ĠØ£Ø¬Ø±Ø§	1413
ĠÙĨØ¨Ø§ØªØ§	8925
ĠÙĤØ§Ø±ÙĪÙĨ	9827
ĠØ§ÙĦØ¨ØµØ±	3715
ĠÙģÙĦÙĩÙħ	3668
ĠÙĪØ§ÙĦØ´ÙĩØ§Ø¯Ø©	2595
ĠÙĪØ§Ø³ØªÙĥØ¨Ø±	4392
ĠØ£ÙĬÙĥÙħ	4984
ĠØ£ÙĨÙģÙĤØªÙħ	5506
Ø¨Ø¹ÙĪ	2729
Ø§ÙĤØ§	5557
ĠÙĪØ¨Ø±Ø²ÙĪØ§	9625
ĠØ§ÙĨØ´ÙĤØª	8825
ĠØ¬Ø¨Ø§ÙĦ	7772
ĠÙĬÙĨØ²	4206
Ø°ÙĩØ¨	1261
ĠØ£ÙĩÙĦÙĥÙĨØ§	1838
ĠØ¶ÙĦÙĪØ§	2748
ÙģØ³Ùĩ	4937
ĠÙĪØ¢Ø®Ø±ÙĬÙĨ	6881
ĠÙģÙĤØ¯	699
ĠØ§ÙĦØ¥Ø¨ÙĦ	8623
ĠØ¨ÙĬÙĪØª	1536
Ø¬Ø±ÙħÙĪÙĨ	1816
ĠØ¥Ø¨ÙĦÙĬØ³	2435
ĠØ§ØªØ¨Ø¹ÙĪÙĩ	6551
ĠÙĬÙĦÙĤÙĬ	6731
ĠØ³Ø¨Ø¹	1451
ĠØ§ÙĦÙĦØºÙĪ	7134
ĠØªØ¶ÙĦÙĪØ§	9527
ĠØºØ¶Ø¨	2527
ĠØ³Ø¬	1703
ĠÙĪÙĬØ¯Ø®ÙĦÙĥÙħ	7907
ĠØ£Ø¯ÙĨÙī	2784
ĠÙĬØ®	424
ĠÙģØ§Ø³Ø£ÙĦÙĪØ§	8988
Ø¨Ø¯Ø§	909
ĠÙĪØ³Ø¨ØŃ	2287
ÙģØµ	3503
Ø³Ø±Ø§ÙĨ	8214
ĠØ¹Ø´ÙĬØ±	7446
ĠÙĦØ£ØµØŃØ§Ø¨	8500
ĠÙĪØ§ØªÙĤÙĪÙĩ	5149
ĠØ±Ø¶ÙĬ	3542
Ø³ÙħÙĪÙĨ	8077
Ø±ÙĬÙĨØ§	7121
ĠÙĪØ§Ø	770
Ø¨Ø±ÙĬÙĨ	2530
ĠØµØ¨Ø§Ø±	4935
ØªÙħØ¹ÙĪØ§	5912
ĠØ§ÙĦØ¹Ø¸Ø§Ùħ	6022
ÙĬØ¬	7102
ĠÙĬØ²ÙĬØ¯ÙĩÙħ	9796
ĠØ§Ø´ØªÙħÙĦØª	9305
ĠÙĪØ²Ø±ÙĪØ¹	9585
ĠÙĪØ±ÙĩØ¨Ø§	8476
ĠØ«ÙĪØ§Ø¨	3206
ĠØ§ÙĦØ£ÙħØ«Ø§ÙĦ	2593
ĠØ§ÙĦÙģÙĦÙĥ	1483
ĠÙħØ§	115
ĠÙģØªØ¹Ø§ÙĦÙī	5054
ĠØŃÙħÙĬ	4855
ĠØ«ÙħÙĪØ¯	2090
ĠØ§ÙĦÙħØ±Ø³ÙĦÙĪÙĨ	3360
ĠØªÙĥØ§Ø¯	6293
ĠØ£ÙĪØ¹Ø¬Ø¨ØªÙħ	10264
ĠØ¬ÙĩØ²ÙĩÙħ	10254
ĠÙģÙĬØµÙĬØ¨	7539
ØµØ§Ùħ	7554
ĠÙĬØ³ØªØ®ÙģÙĪÙĨ	8456
ĠØ¹ÙĤØ¯Ø©	6952
ĠÙĬØ´Ø¹Ø±ÙĪÙĨ	1472
ĠÙĬØªØ°ÙĥØ±ÙĪÙĨ	3242
ĠÙĦÙĤØ¶ÙĬ	2985
ĠÙĬÙĦÙĤÙĪÙĨÙĩ	9355
ÙĦÙĤÙī	4930
ĠÙĪØ¬Ø¯ØªÙħ	9549
ĠØ¸ÙĦØ§ÙĦ	5023
ĠÙħÙĦØ§ÙĤ	3456
Ø§ÙĩØ§	1747
ÙħÙĨÙĬ	5792
ĠØ¨Ø§ÙĦØ·	5958
ĠÙĬØ¬ÙĬØ±	6367
ĠØ´Ø¹	1709
ĠØ¬Ø¹ÙĦÙĨØ§Ùĩ	3346
ÙĤÙĬØ§	3984
ĠØ£Ø¨ÙĪØ§Ùĩ	8701
Ø¬Ø¹ÙĦÙĩØ§	8857
ĠØ¶Ø¹ÙĬÙģØ§	5553
ĠØ§ÙĦØ£ØºÙĦØ§ÙĦ	5942
ĠÙĥØ§Ø±	3532
ĠØ¨Ø§ÙĦÙĦÙĬÙĦ	3602
ÙĬÙĤÙĬÙĨ	4587
Ø³ÙħÙĬØ¹	6093
ĠÙĨÙģØ¹ÙĦ	6561
ĠÙĪØ£Ø¨ØµØ±	6752
ÙĬØ§Ùħ	1028
ĠØªÙĥÙĪÙĨØ§	8823
ĠØªØŃØ±	5079
ĠÙĪØ¨Ø±Ø§	8481
ĠØ£Ø´ÙĩØ¯	6459
ĠÙĬØ¯Ø¹ÙĪÙĨ	1168
ĠØ§ÙĦÙĪØ«ÙĤÙī	9244
ÙģØ³Ø¯ÙĪÙĨ	4938
ĠØªØ±Ø§ÙĨÙĬ	8227
Ø±	53
ĠÙĪÙĥÙģÙī	1466
ĠØ¢Ø¨Ø§Ø¤ÙĥÙħ	4373
ĠØ¨Ø£ÙĦØ³ÙĨØªÙĩÙħ	9998
ÙĥØ¨Ø±	1495
ĠÙĬÙĤÙĪÙĦ	810
ĠØ£Ø£ÙĨØªÙħ	3379
ĠØ£Ø¹ÙĪØ°	3723
ĠØ§ÙĦØ£ÙĨØ«ÙĬ	3736
ĠØ§ÙĦØªÙĬ	741
ĠÙĪØºØ±ØªÙĩÙħ	6861
ĠØ¨ÙĥØ±Ø©	3121
Ø§Ø¯ÙĤÙĬÙĨ	816
ĠÙĪÙĦÙĪØ·Ø§	3703
ĠØ§ÙĦÙħØ§	4600
ĠØ±ÙĬØŃØ§	5449
ĠØ§ÙĦØªØ±	8911
Ø³Ø®ÙĪÙĨ	9926
ĠØ£ÙĪØ²Ø¹	7871
ĠÙĪØ§ÙĦØ£ÙĨØµØ§Ø±	9402
ÙĦÙħØ§	679
ĠØ²ÙĦÙģ	6260
ĠÙĤØ±ÙĬØ¨Ø§	2787
Ø·ÙĪØ§	2486
ĠØ£ÙħÙĪØ§ÙĦÙĩÙħ	1540
ĠØªÙĤØ¨ÙĦ	5168
ĠØµÙĦØ§ØªÙĩÙħ	3885
ĠØ§ÙĦØ¨Ø´Ø±Ùī	6336
Ø°Ø¨ÙĪÙĨ	1467
ĠÙĪØµÙĬÙĨØ§	9027
ĠÙĪÙĪØ¬Ø¯Ùĥ	9906
Ø§Ø¬Ùĩ	8945
ĠÙĪÙħØªØ§Ø¹	6938
ÙĬÙĨØ§	193
ĠØºÙĨÙħØªÙħ	9981
ĠÙĪØ¶Ø§ÙĤ	9444
ĠØ£ÙĬØ§ÙħØ§	5646
ĠÙģØ£Ø¨Ùī	6016
ĠØ£ÙĨÙĩÙħ	926
ĠØµÙĬØŃØ©	3623
ĠÙħÙĤØ·	7208
ØŃØµÙĨØ§Øª	3396
ÙħØ§Ø±	5748
ĠÙĨØ¨Ø§ØªÙĩ	9794
ĠØ®Ø²	2342
ĠÙĪØ²ÙĦØ²ÙĦÙĪØ§	10039
ĠØ£ÙĪØŃÙĬ	2711
ĠÙĪØ£Ø¹	4834
ĠØ£ÙĬÙĩ	6125
ĠØ´ÙĤØ§	3195
ĠØ§ÙĦØ£ÙĨØ«ÙĬÙĬÙĨ	3904
ĠÙĬÙĪÙĤÙĨÙĪÙĨ	2433
Ø·ÙĪÙĨ	2487
ĠÙĨØ¬ÙĪØ§ÙĥÙħ	8891
ĠÙģØ¬Ø¹ÙĦ	3964
ĠÙĬØ³Ø¨ØŃÙĪÙĨ	3395
ĠÙĬØªÙĦÙĪÙĨ	3649
ĠØ³ÙĬÙĤÙĪÙĦÙĪÙĨ	5176
ÙĪÙĦ	125
ĠØªØ¤ÙħÙĨ	5755
ĠÙģØ£Ø®Ø±Ø¬ÙĨØ§	3868
Ø²ÙĦÙĨØ§	660
ĠÙĬØ¹Ø±Ø¶	6242
ĠØ°Ø±Ø©	3603
ĠØ§ÙĦÙĦÙĬÙĦ	725
Ø§Ø±Ùĩ	5997
ĠØªØ´Ø§Ø¡	2401
ĠØ§ÙĦØ¶Ø§ÙĦÙĪÙĨ	6821
ĠÙĪØ¹Ø¯Ùĩ	3319
ĠÙĦØ¦ÙĦØ§	5686
ĠÙĪØ£Ø®Ø°ÙĨØ§	6828
ĠÙĪØŃØ±Ùħ	6882
ĠÙģØµØ¯ÙĪØ§	6912
Ø¹ÙĪÙĥÙħ	7229
ØŃÙĬ	673
Ø¨Ø§Ø¦Ø±	5623
ĠØ´Ùĥ	1196
ĠÙģØ±ØŃ	8439
ĠØ³ÙħÙĬØ§	9771
ĠÙģÙĪØ¬Ø¯	9808
Ø²Ø¹ÙĨØ§	4785
ĠÙĪØ£ÙĥÙĦÙĩÙħ	6740
ĠØ¨Ø§ÙĦØ¹Ø¯ÙĦ	3890
ĠØ¶ÙĬÙĤ	8335
ĠÙģÙĨØªØ¨Ø¹	10050
ĠÙĪØªÙĪÙĦÙĪØ§	8154
Ø¸Ø±	534
ĠØ§ÙĦØŃÙĬØ§Ø©	693
ĠÙĪØ£Ø®Ø±	2902
ĠØ¨Ø¢ÙĬØ§ØªÙĩ	5143
ĠØ¨ÙĪØ¬ÙĪÙĩ	7378
ĠØ¸Ø§ÙĦÙħÙĬÙĨ	2739
Ø¨Ø¹ÙĪØ«ÙĪÙĨ	3414
ĠØ¸ÙĨØ§	6189
ĠØ³ÙĬØ¦Ø©	2245
ĠÙģØ¥ÙĨØ§	2519
ĠØ¢ØªÙĬØªÙħ	6624
ĠØ§ÙĦØ¢Ø²ÙģØ©	9405
ĠÙĦØºØ§ÙģÙĦÙĬÙĨ	9131
ĠØ¨ÙĩÙħ	923
ĠÙĪÙĩØ°Ø§	1909
ĠÙĪØ§Ø¬Ø¹ÙĦ	3238
ĠØ¹Ø§ÙĦÙĬÙĩØ§	9250
ĠÙģØ¨ÙħØ§	3739
ĠØ®Ø±Ø¬Øª	9537
ĠÙĪØ¢ØªÙĪÙĩÙħ	9728
ĠØªØŃÙħÙĦÙĪÙĨ	9822
ĠØ±Ø¨Ùĩ	615
ÙģØ³ÙĥÙħ	2355
ĠÙĬÙĦØ§	5687
ĠØ±Ø¦Ø§Ø¡	7564
ĠØªÙĪØ§Ø¨	7481
ĠØ£ØªÙĪØ§	4639
ĠÙĨØ¤ØªÙĩ	6850
ĠØ³Ø¨ÙĬÙĦÙĬ	6258
ĠÙĪØ§ÙĦØ³	1113
Ø´ÙĩØ¯	4788
ĠØŃØ³Ø±Ø§Øª	9964
ĠØ§ÙĦØºØ§Ø¦Ø·	8527
ĠØ£Ø¬ÙħØ¹ÙĪÙĨ	6257
ĠÙĬØ¬Ø²ÙĬ	6368
ĠÙĤØ±ÙĬÙĨØ§	9222
Ø¹ÙĦÙĪØ§	1579
Ø¯ÙĬÙĨ	401
ĠÙĨØ³Ø§Ø¡ÙĥÙħ	6455
ĠÙĪØ¨Ø§ÙĦÙĪØ§ÙĦØ¯ÙĬÙĨ	5355
Ø®Ø³ÙĪØ§	5799
ĠÙĬØ¤ÙħØ±ÙĪÙĨ	8724
ĠÙĥÙĬØ¯Ùĩ	9256
ĠÙĬØªÙĪÙĦÙĪÙĨ	9579
ĠØµÙģØ±	7983
ØªÙĦÙģ	864
ĠÙĪÙĨØ¨	8242
ÙĬØ§ÙĨ	7103
ĠØ§ÙĦÙħØ¹Øª	3576
ĠØªÙģÙĬØ¶ÙĪÙĨ	9824
ĠØªÙĨØ§	4019
Ø§Øµ	579
ĠÙĥØ§	3141
ĠØ£Ø¹ÙĦ	7232
ĠØ¨ÙĨØ§Øª	7363
ĠÙħØ¨Ø§Ø±	4623
ÙĦØªÙħ	1844
ĠÙĪØ§Ø´Ø±Ø¨ÙĪØ§	3838
ÙĦÙĦ	2436
ĠÙĨØµØ±Ùģ	5315
ĠØ¢ØªÙĬÙĨØ§Ùĩ	4374
ĠØ§Ø¨ØªØºÙī	9440
ĠØ§Ø¬ØªØ¨Ø§Ùĩ	9798
ĠØ¢ÙĬØ§ØªÙĬ	2554
ĠÙĬÙĥÙĪÙĨ	811
ØªØ©	1496
ĠØ¨Ø§ÙĦØ³ÙĬØ¦Ø©	4569
ĠØ®Ø§ÙĦØ¯Ø§	6384
ĠØ±ÙĩÙĤØ§	9833
ĠÙĬØ§Ø¨Ø³Ø§Øª	10058
ĠØ§ÙĦØ¥ÙĨØ³Ø§ÙĨ	738
ĠÙĦØ³Ø§ÙĨ	3480
ĠÙĬÙĨØ§	2185
ĠØ§ÙĦØªÙĪØ§Ø¨	3897
ĠÙĤØ¯ÙĬØ±	997
ĠØ§ÙĦÙħÙĩØ§Ø¬Ø±ÙĬÙĨ	7746
ī	40
ĠØ±Ø§Øº	7560
ĠÙĪÙĩØ¯	4609
ĠØ¢ØªÙĬÙĨØ§ÙĥÙħ	6523
ĠØ£ÙģÙĬ	5046
ĠØ§ÙĦÙĥØ§Ø°Ø¨ÙĬÙĨ	2525
ĠØ§ÙĦÙĩÙĪÙĨ	5588
ĠØ§ÙĦÙħØ¬ÙĬØ¯	9776
ĠÙĨØµÙĬØ±	2690
ÙĦÙĥØ§ÙģØ±ÙĬÙĨ	1190
ĠØ§ÙĦØ£Ø³Ø¨Ø§Ø¨	5943
ÙģÙĩÙħ	7387
ÙĪÙī	655
Ø§ÙĦØ§	1214
ĠÙĦÙĤÙĪÙħÙĩ	2132
ĠØ¸ÙĨÙĨØ§	9380
ĠÙĦÙĦÙĨØ§	774
ĠÙĪÙĪÙĦ	5596
ĠØ¸ÙĦÙħÙĩ	8762
Ø±Ø¶ÙĪÙĨ	1458
ĠØ®Ø³Ø±Ø§	7794
ÙħÙĨØ§	654
ĠØ´ÙĩØ±	3590
ĠÙģØ§Ø¹ÙĦÙħÙĪØ§	3666
ĠÙĬØŃØ´Ø±ÙĩÙħ	4221
ØŃØ´Ø±	4003
Ø®ÙģÙĪÙĨ	5798
ĠÙĦØ§ÙģØª	5914
ĠØ³Ø£ÙĦØª	6751
ĠÙĪØ£Ø¹Ø¯	3173
Ø³Ùģ	918
ĠØ£Ø¹ÙĨØ§Ø¨	6875
ĠØ§ÙĦØ¯ÙĩØ±	8208
ĠØ¨Ø°ÙĨØ¨ÙĩÙħ	9413
ĠÙģØ¹Ø¯Ø©	9928
ĠÙĬØ¬	532
ĠØ¬ØŃÙĬÙħ	7775
Ø°Ø¨ÙĩÙħ	1809
ĠØ§ÙĦÙĦØ·ÙĬÙģ	10032
ĠÙĤØ·	4757
ĠÙĤØªØ§ÙĦ	9259
ĠØ°ÙĨÙĪØ¨	2274
Ø²Ø±	3545
ĠÙĪØ§ÙĦÙĨÙĩØ§Ø±	1265
ØµÙĪÙĨ	2324
ĠÙĦÙĦÙĥØ§ÙģØ±ÙĬÙĨ	1348
ĠÙħÙĥØ±ÙĪØ§	6663
ÙĬÙĨØ§ÙĩÙħ	2520
ØµÙĦØ§	2676
ĠØ£Ø¨ÙĪÙĬÙĩ	8703
ĠÙħØ«ÙĤÙĦÙĪÙĨ	8419
ĠØªÙĨØ³Ùī	8608
ĠÙħØ¹Ø±ÙĪÙģ	2228
ĠØŃØ±Ø¬	1874
ĠØ¨Ø§ÙĦØ£ÙħØ³	5401
ĠÙĪÙĤØ±	6024
ÙĥØ«Ø±	3435
ĠÙģØµØ¯ÙĩÙħ	9748
ĠØ§ÙĦØºØ±	2765
ĠÙĪÙĦÙĬ	466
ĠÙĬØ¨Ø¹Ø«ÙĪÙĨ	3046
ÙĪØ²Ø§	3352
ĠØ®ÙĦÙĤÙĨØ§Ùĩ	5042
ĠÙĪØ£Ø¹ÙĨØ§Ø¨	5884
ÙĨØ·	7081
ÙĩÙĬØ©	7116
Ø²Ø§Ø¡	5819
ĠÙĥØ±Ø³	7511
ÙģØ±ÙĤ	7798
ĠÙĪØ°Ø±ÙĪØ§	4615
ĠÙģÙĦØ£ÙħÙĩ	10130
ĠÙĦÙĨØ®Ø±Ø¬	5072
ĠÙĬØ¹Ø±Ø¬	5074
ĠØ±Ø§ØºØ¨ÙĪÙĨ	10230
ĠØŃÙĦ	4086
ĠÙĤÙĪØ§Ø±	5789
ÙħÙĬ	329
ĠØºÙĬØ±ÙĥÙħ	5154
ĠÙĪØ§ÙĦØ¯Ø§Ø±	7605
ĠØ¹ÙĤ	3130
ĠÙĦÙĬØ«Ø¨Øª	8003
ĠÙĪØ§ÙĦØ¨ØŃØ±	2808
±	18
ĠÙĪØ£Ø±Ø¬	3176
ĠØ·ÙĪØ¹Ø§	5038
ĠÙĪØ¨ÙĨØ§Øª	2758
ĠØ§ÙĦØµØ§ØºØ±ÙĬÙĨ	10281
ĠØºØ§ÙģÙĦÙĬÙĨ	5431
Ø«ÙĬ	2899
ĠØ´Ø¯Ø§Ø¯	7804
ĠÙħØ¶ØºØ©	9803
ĠÙĪÙĬØ³Øª	1363
ĠØªÙĤØ§ØªÙĦÙĪÙĨ	6399
Ø§ÙĥØ±ÙĬÙĨ	2614
ĠØ§ÙĦÙĤØ§Ø¹Ø¯ÙĬÙĨ	5453
ĠÙĬØŃØ±ÙģÙĪÙĨ	6148
ÙĪØ§ØªØ§	8176
ĠÙĬØºØ±ÙĨÙĥÙħ	10014
ĠØ§ÙĦØ£ÙĨØ¨ÙĬØ§Ø¡	6408
ĠÙħØŃØ¯Ø«	9072
ĠØ§ÙĦÙĪÙĩØ§	5587
ĠØ£Ø«Ø§Ø«Ø§	9283
ĠØ§ÙĤØªØ±Ø¨	6854
ÙħÙĪÙĨ	544
ĠØ§ÙĦÙĪØ§Ø±Ø«	5369
Ø¡Ø§	5955
Ø±ÙĬØ¹	2358
ĠÙĬØ³ØªÙĤØ¯ÙħÙĪÙĨ	6282
ĠÙģØ£ÙĨØª	7946
ĠØ§ÙĦØ±Ø§ÙĥØ¹ÙĬÙĨ	10037
Ø°ÙĬ	782
ÙĤÙĨ	3485
ÙĦÙĥÙĨØ§	5864
ĠÙĪÙĨÙĪØŃØ§	6199
ĠØªØ¯	674
ĠØ±Ø¶ÙĪØ§	2680
ÙĤØ·Ø¹ÙĨ	5700
ĠÙĪØ§ÙĦØª	4792
Ø®ÙĦØµ	1376
ÙĪØªÙĩ	7110
ĠÙĪØ§ÙĦÙĬØªØ§	3153
ĠÙĪØ§ÙĦØµÙĦØ§Ø©	6639
ĠØ¨ØªØ§Ø¨	7358
ÙĪÙĦØ¯Ø§ÙĨ	4829
ĠÙģØ§Ø¨Ø¹Ø«ÙĪØ§	10047
ĠÙĬØ³Ø¨ØŃ	2061
ĠÙĬØ®Ø´ÙĪÙĨ	3700
ĠÙģØªÙĬØ§ØªÙĥÙħ	8329
ĠÙģØ±Ø¹ÙĪÙĨ	661
Ø¬Ùħ	7500
ÙĥØ§Ø±Ø§	8765
ĠÙħØ¹Ø§	4199
ĠÙĪØ±Ø§	5598
ĠØ§ÙĦÙħØ³Ø¨ØŃ	7739
ĠØ§ÙĦØºÙħ	6319
ĠØ¨Ø§ÙĦØ£	1970
ĠØ§ÙĦÙħØŃØ±Ø§Ø¨	5520
ĠØ£Ø¹ÙĦÙħ	763
ĠØºÙģÙĦØ©	4188
ĠØ±Ø£Ùī	2256
Ø°ÙĤØ§ÙĨ	5703
ÙĬØ¯ÙĪÙĨ	1801
ĠÙĪØ§ÙĤØª	8106
ĠØ¨Ø¥	812
ĠØ§Ø¬Øª	3869
ÙĬ	49
ĠØ§ÙĦÙħÙĨØ¸Ø±ÙĬÙĨ	6546
ĠÙĥØ£	1696
ĠØ¨ÙħØ¹Ø±ÙĪÙģ	3494
ÙĥÙĨØ©	7172
ĠØ§Ø³ØªÙħØ³Ùĥ	9270
ĠØ¨Ø¹Ø¶ÙĥÙħ	1530
ÙĪØ¯	326
ÙģØŃØ´Ø§Ø¡	5729
ĠØ¹Ø§ØµÙħ	6922
ĠÙĥØ±Ø§ÙħØ§	7521
ĠØ®Ø¨ÙĬØ«	7790
ĠÙĪÙĬÙĤØ°	7899
Ø¨Ø¶	7186
ĠØµØ¨Ø±Ø§	2933
ĠÙĦÙĦØ±Ø¬Ø§ÙĦ	8145
ĠÙĬØ²Ø¬ÙĬ	9052
ĠØ¬Ø²Ø§Ø¡	1171
ĠØ¹Ø§Ùħ	2068
ĠÙĦÙĦÙĤÙĪÙħ	6916
ĠÙģØ§ÙĨØªØ´Ø±ÙĪØ§	9793
ÙĪØ³Ùģ	3909
ĠØ§Ø±Ùĥ	3905
ĠØ§ÙĦÙħÙħØª	4845
ĠØ§ÙĦÙĨÙĩØ§Ø±	1297
ĠÙħÙĨÙģ	7424
ĠØ±ÙĪØ§Ø³ÙĬ	2830
ĠØ¨Ø¬Ø§ÙĨØ¨	10026
Ø´Ø£	1317
Ø¨Ø§Ø¹	8370
ÙĪÙģØ§ÙĨ	8196
ĠØ£Ø´ÙĤ	8790
ĠØ§ÙĦØ¯ÙĬÙĨ	844
ĠØ¨Ø§ÙĦØ£ÙģÙĤ	9428
ĠÙĪÙĤØ±Ø¢ÙĨ	4931
ĠÙħØ®Ø±Ø¬	3930
ĠÙĤØ¯Ùħ	4216
ĠÙĬØ±Ùī	3251
ĠØªØ³Ø£ÙĦÙĪØ§	6481
ĠÙĪØ§ÙĦØµ	1319
ĠÙĪÙĦÙĨ	943
ĠÙħØ¹ÙĬÙĨ	6106
ĠØ§ÙĦØ²ÙĪØ¬ÙĬÙĨ	8898
Ø¨Ø«Ø§	7194
ĠØ±Ø¹	7556
Ø²ÙĬÙĦØ§	5040
ĠØ³Ø®Ø±ÙĪØ§	6738
Ø¹ÙĦÙĨÙĪÙĨ	2710
ĠÙĬØ¤ØªÙĬÙĩ	3742
ÙĪØ¬Ø³	6406
ĠÙĦØªÙĥÙĪÙĨÙĪØ§	8570
ÙĤØ¶	7335
ĠØªÙĩÙĨÙĪØ§	5767
Ø¯ÙĪØ³	7255
ĠÙĬØµ	689
Ø¹Ùģ	750
ĠØ±Ø§Ø¹ÙĪÙĨ	9484
ĠÙĪØ£Ø³Ø±	5878
ĠÙĤØªÙĦÙĩÙħ	9261
ĠÙĪØ³ÙĬØŃ	8660
ĠÙĦØ±Ø¨ÙĩØ§	9352
ĠØªØ³ØªØ·ÙĬØ¹	5252
ĠØ®ÙģÙĬ	7783
Ùħ	48
ĠØ§Ø¦	1843
ĠÙĪÙĦØªØ¨ØªØºÙĪØ§	5272
ĠÙĪØµÙħÙĪØ§	9028
ĠÙĦØ®Ø¨ÙĬØ±	9561
ĠÙĦØ¯ÙĨÙĥ	3358
ĠØ±Ø³ÙĪÙĦÙĨØ§	5199
ÙĩØ¯	191
ĠØ°Ø±ÙĬØªÙĬ	5384
ĠØµØ¨Ø±ØªÙħ	9718
ĠØ·Ø³Ùħ	8267
Ø±Ø«	2046
Ø§Ø¸ÙħÙĬÙĨ	9831
ĠÙħÙĨÙĥÙĨ	4724
Ø±Ø¡	1927
ĠÙĪØ£Ø®ÙĪØ§ØªÙĥÙħ	9370
ĠÙĪØ¥ÙĦÙĩÙĥÙħ	9854
ĠØ²Ø¹ÙĬÙħ	8414
ĠÙĥØ³Ø§ÙĦÙī	9601
ĠÙĪØ£ÙĪØ°ÙĪØ§	10248
ĠÙĬØµÙĬØ¨ÙĩÙħ	6904
ĠØ¥ÙĬØ§ÙĥÙħ	9454
ĠØ±ÙĤÙĬØ¨Ø§	9486
ĠÙħÙĨØ¹	3128
Ø¨Ø¹Ø¶	1294
ĠÙħÙĨÙĬØ±Ø§	7428
ØŃØ³ÙĨÙĬÙĨ	1078
ĠÙĦÙģØªØ§Ùĩ	9812
ĠÙĪÙĬØªØ¨Ø¹	7897
Ø¬ÙħØ¹	4029
ÙĨÙĬ	219
ĠÙĥÙĨ	1695
Ø±Ø¨Ùī	1810
ĠØ§ÙĦÙĤØ±ÙĨÙĬÙĨ	6049
ĠØ®ÙĦÙĤØªÙĨÙĬ	8280
ĠÙģØ³ÙĪØ§ÙĩØ§	8672
ĠØ³Ø£Ø±ÙĬÙĥÙħ	9390
ĠØ£ØºÙĨÙĬØ§Ø¡	6613
ĠØŃØ¨Ø§ÙĦÙĩÙħ	10251
ĠÙĬØ±ØŃÙħÙĥÙħ	10292
ĠÙģØ§Ø³Øª	910
ĠÙĪÙĥØªØ¨Ùĩ	6972
ĠØ¯ÙĬØ§Ø±ÙĩÙħ	2822
ĠÙĪØ±Ø³ÙĪÙĦÙĩ	670
ĠÙħØ³Ùĩ	3711
ĠØªØ¹Ø§ÙĦÙī	6331
ĠÙĨØŃØ´Ø±ÙĩÙħ	9653
ĠÙģØ¨ÙĦØºÙĨ	10194
ĠÙĪØ¨Ø§Ø·ÙĦ	8483
Ø¦Ø°	631
ØªÙĤÙĪØ§	2290
ĠÙĩØ§Ø±	7648
ĠÙĪÙħÙĨÙĥÙħ	3619
ĠØ§ÙĦØ£ÙħØ§	5934
ĠÙĪØ§Ø¨ØªØºØ§Ø¡	9904
ĠØ®ÙĦÙĪØ§	3192
ĠØ£ÙħØ§ÙĨÙĬ	6726
ĠØ§ÙĦÙģØŃØ´Ø§Ø¡	8639
ĠØ£Ø°ÙĥØ±	7235
ĠÙĬØ²ÙĬØ¯	3799
ĠÙĪØ§Ø¶Ø±Ø¨	5500
ĠÙĪØ¬Ø¯ØªÙħÙĪÙĩÙħ	9550
ĠØªÙĨÙĤØµ	8612
ĠØ¨ÙħÙĬ	7361
Ø§Ø²ÙĤÙĬÙĨ	3813
ØºÙĬØ§ÙĨØ§	4862
ĠÙĬÙĤÙĬÙħÙĪÙĨ	4688
ĠØ¹Ø°Ø§Ø¨ÙĩØ§	8190
ĠÙĪÙĥÙĨØ§	1807
ØªÙĨÙĨÙĬ	9383
ĠØµØ§ÙģØ§Øª	7990
ĠØ¨Ø§ÙĦØ³ÙĬ	4131
ĠÙħØµ	1103
ÙĨØ§ÙĩØ§	1394
Ø±Ø¶ÙĬÙĨ	4126
ĠØ§ÙĦØ¨ÙĨØ§Øª	5122
ĠØªØ²Ø¯	9138
ĠÙĪÙħØªØ§	3697
ĠØ¸ÙĦÙħÙĨØ§ÙĩÙħ	6445
ĠÙģØ§Ø³ØªØº	8932
ØŃÙħÙĨØ§	4228
ĠØ¹Ø²ÙĬØ²Ø§	3359
ĠÙħØ³ØªÙĤÙĬÙħØ§	3873
ĠØ´Ø±ÙĥØ§Ø¦ÙĬ	4401
ØµÙĬØ¨	3148
Ø¶Ø§Ø¹Ùģ	6684
ĠØ¯ÙħØ§	7934
ĠÙĥÙĦÙħ	1154
ĠÙĬØ¨ØºÙĪÙĨ	4369
Ø¯ÙĪÙĩÙħ	7252
ĠÙĪØ¹Ø°Ø§Ø¨	4258
ĠØ¹Ø¯Ø©	4728
ĠÙĪØ£	127
ĠØ§ÙĦÙĨØµØ§Ø±Ùī	5026
ĠØ·ÙĬÙĨ	2960
ĠØ±ÙĩÙĬÙĨ	7561
ĠÙĪØ¨Ùĩ	8480
ĠØ§ÙĦØ£Ø®Ø³Ø±ÙĪÙĨ	9539
ĠØ¨Ø¹ÙĦÙħÙĩ	5485
ĠÙĬØ¹ÙĬØ¯ÙĥÙħ	9882
ĠØ§ÙĦØŃØ±Ø§Ùħ	1365
ĠØ¨Ø¬Ùĩ	3841
Ø³ØªØ¯Ø±Ø¬	7886
ĠÙĪØ¢Ø®Ø±ÙĪÙĨ	5146
ĠØ¯Ø§ÙĪ	1978
ĠØ¯Ø¨Ø±	4922
ĠÙĪØ¨Ø±ÙĥØ§Øª	9627
ĠÙħØ¹Ø°Ø±ØªÙĩÙħ	8104
ĠÙĦØ±Ø¬ÙĦ	10057
ĠØ¨Ø§ÙĦØ°ÙĬ	2349
ĠØ£ØªØ§Ùĥ	3836
ĠÙģÙĪØ±Ø¨Ùĥ	10049
ĠÙĪÙĬØ£	1881
ĠØ£ÙħÙĪØ§ÙĦ	944
ĠØ¬Ø§Ø¡ÙĥÙħ	1296
ĠÙĦØ±Ø¨	1765
ÙĦÙĬØª	4044
ĠÙĪØ±Ø¶ÙĪØ§ÙĨØ§	6775
ĠØ£ØŃØ¨	3671
ĠØ¨Ø£Ø³ÙħØ§Ø¦	9175
Ø§Ø¨Ø§	1137
ĠÙģØ§Ø¹ÙĦÙħ	6171
ĠÙĪØ£ÙĪÙĦØ¦Ùĥ	1288
ĠØºØ§Ùģ	2361
ĠØ¹ÙħÙĦÙĩ	5174
ĠØ§ÙĦØ¹ÙĬØ±	7959
ĠØ£Ø´ÙĬ	5194
ĠÙĦØ°	3966
ĠØ¨Ø£ÙħØ±Ùĩ	2275
ØµÙī	3147
ĠÙĪØ¹ØµÙĬÙĩÙħ	10133
ĠØ£Ø«ÙĬÙħ	4459
ĠÙĦÙĦØ¨Ø´Ø±	6135
ĠØ³Ø¬Ø¯Ø§	2427
ĠÙĬÙĪØ§Ø±ÙĬ	7326
ĠØ§ÙĦØ¨	465
Ø§Ø°Ø¨ÙĬÙĨ	2041
ĠØ§ÙĦÙĥÙĪØ§Ùĥ	8030
ĠÙĬØªØ¶Ø±	8120
ĠØªØ±ÙĪÙĨ	3521
ĠÙĪØ±ÙģØ§ØªØ§	8477
ĠÙģØ¦ØªÙĬÙĨ	10048
ĠØ§ÙĦØ¨Ø±ÙĤ	6641
ĠÙĬØªÙĪÙģÙĪÙĨ	6801
Ø¹Ø©	452
ĠØ´ÙĩÙĬØ¯	2148
ĠØ£ÙĪØª	5973
ĠØ§ÙĦØ±Ø¤ÙĬØ§	5991
ĠØ¬Ø¯ÙĬØ¯Ø§	9663
ÙĪÙĨ	74
ĠÙģØ§ÙĦÙĦÙĩ	3774
Ø·ÙħØ¹	5860
ÙĤØ§Ø¨	1066
ĠÙħØ´ÙģÙĤÙĬÙĨ	7041
ĠÙĪÙĦØ¹Ø¨Ø§	6766
ĠÙĪÙĦÙħ	830
ĠÙĬØ¯Ø±Ùĥ	8448
ĠØ§ÙĦØ¸ÙĦÙħØ§Øª	2007
ĠØ§ÙĦÙĪØ§Ø±Ø«ÙĬÙĨ	7033
ÙĦ	44
ĠØ£Ø¬Ø¦ØªÙĨØ§	4270
ĠÙĦØªØ¨ØªØºÙĪØ§	5130
ĠÙĬÙĨÙĤØ°	8137
Ø¹ÙĦÙĩØ§	7225
ĠÙĦÙĦÙĬØ³Ø±Ùī	10054
ĠÙĪØ£Ø¹ØªØ¯ÙĨØ§	3412
ĠÙĬØªÙĨØ§	6116
ĠØ¨Ø³	1067
ĠÙĬÙĪÙħÙĬÙĨ	6082
Ø°ÙĦÙĥÙħ	7348
ÙģÙĬÙĨ	1187
ĠÙħØªØ´	3332
Ø±Ø¶ÙĪØ§	1198
ĠØªØ£ØªÙĬÙĥÙħ	8597
ĠÙĪØ§ØµØ¨Ø±ÙĪØ§	6679
ĠØŃÙħÙĦÙĩÙĨ	8843
ĠØ§ÙĦØºÙĨÙĬ	2983
ĠÙģØ£ÙĨØ°Ø±	8905
ĠØ³ÙĦÙĬÙħ	7664
ĠÙĬÙģØ¹ÙĦÙĪÙĨ	2153
Ø§Ø¦ÙĩÙĨ	8064
ĠÙĬØªØ®Ø°	1814
ĠÙĪØ§Ø¶ÙħÙħ	9734
ĠØ¨ÙĩÙĨ	6060
ĠÙĥØ§ÙĨØ§	7517
ĠÙĪØªÙĨØŃØªÙĪÙĨ	9877
ÙĦÙĬÙĥÙħ	3537
ĠÙĦØªÙĥÙĪÙĨÙĨ	8569
ÙĦÙĪÙĨ	177
ĠØ¸	318
ĠØªÙĨÙĥØŃÙĪØ§	5458
ĠÙħØªÙī	2629
ĠØ°Ø±	2213
ÙĬÙĨØ§ÙĥÙħ	3626
ĠØ¨ÙĬ	681
Ø¹ÙħØ©	2511
ÙĨÙĪØ±	7084
ĠØªØ±ÙĬØ¯ÙĪÙĨ	4238
Ø¬ÙĪØ§	3139
ĠÙħØªÙĥØ¦ÙĬÙĨ	3415
ĠÙĥØ§ÙģØ©	4552
ĠØªÙĨØ²ÙĬÙĦØ§	5141
ĠØ¢ÙĦÙĩ	1157
Ø¬Ø§Ø¬	7505
ÙĬÙħØ§ÙĨ	1478
ĠÙħØ¹Ùĥ	2227
ĠØ¯Ø±Ø¬Ø§Øª	2276
ĠÙģØ§ÙĦÙĬÙĪÙħ	3022
ĠÙħØ§ÙĦÙĩ	3831
ĠØ¨Ø¬	1772
ĠØ£Ø´Ø±Ùĥ	1388
ĠÙĪØ¬Ø¯ÙĩØ§	9548
ÙĥÙĪØ§	7167
ĠÙĦÙĦØµ	8143
ĠÙĦÙĬØŃØ²	6057
ĠÙĪØ£ÙĪØª	7718
ĠØ³Ø®Ø±	1791
ĠÙĪÙģØªØŃ	5609
ĠØµØŃÙģ	6039
Ø§Ø¬Ø¯ÙĬÙĨ	2605
ÙħÙĦØ§ÙĤ	7096
ĠØ®Ø·Ø§ÙĬØ§ÙĨØ§	9850
Ø§Ø´	1045
ĠØªØ¤ÙħØ±ÙĪÙĨ	10222
ĠÙĪÙĬÙĥØ£ÙĨ	9715
ĠØ§ÙĦÙħÙĨØª	5246
ĠØ²Ø¹ÙħØªÙħ	3891
ĠÙģØ°Ø§	7271
ĠÙĦÙĥÙħ	205
ĠØ¨Ø§ÙĦÙĦÙĩ	387
ÙĥØ±ÙĪØ§	1981
ÙĪØ±ÙĥÙħ	2097
ĠØªØ¹Ø«ÙĪØ§	4302
Ø°Ø¨	206
ĠØªØ¨Ø®Ø³ÙĪØ§	6544
ĠØ¯Ø±Ø¬Ø©	5379
ĠØ£Ø±Ø¨Ø§Ø¨Ø§	6704
ĠØªØ¬Ø²ÙĬ	8579
ĠØ£Ø£ÙĨØª	9281
ĠØªÙĦÙĤÙĬ	9479
ĠØ±Ø§Ø¨Ø¹ÙĩÙħ	9951
Ø¢Ø®Ø±ÙĬÙĨ	6216
ĠÙĬØ³ÙħØ¹ÙĩØ§	9593
ĠØ§ÙĦØµØ¯	1228
ĠØ¶Ø±Ø§Ø¡	6855
ĠØ£Ø¯Ø±ÙĬ	5213
ĠØ¸Ø§ÙĦÙħÙĬ	9678
ĠØ£ÙĨÙħØ§	1566
ĠÙĪÙĤØ¹Øª	7975
ĠØ£ÙĬØ§Ùħ	1499
ĠØ¬Ø¨Ø§Ø±ÙĬÙĨ	9845
ĠÙĦÙĤØ¯	764
ĠÙĪÙĪÙģÙĬØª	10182
ĠØ³Ø¨ØŃØ§ÙĨ	1020
ĠÙĪØ§ØŃØ¯	1667
ĠØªÙĪØ§Ø¹Ø¯	7497
ÙģØ§ÙĥÙħ	8387
ĠØ¨Ø§ÙĦØ¹Ø±Ø§Ø¡	9973
ĠØ¥ÙĨÙĩØ§	1859
ĠØ±ÙĪØŃ	2474
ĠØ¯Ø®ÙĦ	2513
Ø¸Ø§ÙħØ§	2802
Ø§Ø¯	168
ĠØ¨Ø§ÙĦØªÙĬ	3201
ĠÙħØ¹Ø±Ø¶ÙĪÙĨ	1991
ĠØ¨ÙĪØ§ÙĦØ¯	3994
ĠÙĬØ¯Ø®ÙĦÙĪÙĨ	2823
ÙģØ§Ø¡	3998
ÙĨØ¨Ø¦ÙĥÙħ	7086
ĠÙĬÙĪÙĦ	7320
ĠÙĦÙħÙĩØªØ¯ÙĪÙĨ	8095
ĠØ§Ø³ØªØŃØ¨ÙĪØ§	9890
ĠØ£Ø¯Ø¹ÙĪ	5215
ĠØ§ÙĦØ¬ÙĪØ§Ø±	6210
ĠØ¨Ø§ÙĦØ±ØŃÙħÙĨ	5961
ĠØ¢ØªÙĬ	1287
ĠØ³ÙĬÙĨ	5851
ĠÙĥØ«Ø±	4754
ÙĪÙģÙĬÙĩÙħ	5012
ĠÙĥØ§ÙĨØªØ§	5971
ĠØ§ÙĦØ³ÙħÙĪÙħ	7880
ĠÙĪØ³ÙĦØ§Ùħ	6389
ĠØ§Ø¯Ø®ÙĦÙĪÙĩØ§	8944
ĠØ§ÙĦØ£ÙĬÙĥ	4878
ĠÙħÙĦØ¬	6803
ĠØ£Ø±Ø¯ØªÙħ	6449
ĠØªØŃØµÙĪÙĩØ§	9883
ĠØ§ÙĦØ³Ø¯Ø³	5978
ĠØ£ØŃÙĦØª	8216
ĠØ¥ÙĦÙĩÙĬÙĨ	8588
Ø¦ÙĬ	7700
Ø¨ÙĬÙĦØ§	4953
Ø¹ÙĬØ±	2633
ĠØ§ÙĦØ¹Ø§Ø¯ÙĪÙĨ	7967
ØŃØ³Ø¨	2659
ÙĩØ§	100
ÙĥÙĪØ±Ø§	5613
ĠÙģØ£ÙĨØ¬ÙĬÙĨØ§Ùĩ	3775
ĠÙĬÙģØªÙĨÙĪÙĨ	6577
ĠÙĬØªÙĤÙĪÙĨ	1648
ĠØ¥Ø¹Ø±	7382
ĠÙĦØ§ÙħØ³	7767
ĠÙĬÙĨÙĤÙĦØ¨	4207
ĠØªØ¯Ø¹ÙĪÙĨØ§	9127
ĠÙĥØ§Øª	3531
ĠØ§ÙĦÙĥØ§Ø°Ø¨ÙĪÙĨ	6069
ĠÙĪØ¥Ø°Ø§	396
ÙĩØ¯ÙĬ	565
ĠØ§ÙĦÙħØªÙĤÙĪÙĨ	3849
ØªÙĩÙĪÙĨ	3267
ĠÙĬÙĪØµ	8674
ĠÙĪØ§ÙĦØ¨Ø§ÙĤÙĬØ§Øª	10232
ĠØªØ±Ø§Ø¨Ø§	2738
ĠØ³ÙĪØ±Ø©	3165
ØªØ±ÙĬ	7179
ĠØªØ£ÙħÙĨÙĩ	8598
ĠØ§ÙģØªØ±Ùī	2030
ĠØ£ÙģØ±	1935
ĠØ£ÙģØºÙĬØ±	5050
ĠØ¹ÙĬØ´	7448
ĠØ§ÙĦØ¨Ø¹ÙĬØ¯	5593
ĠÙĪØ§ÙĦØ¬ÙĨ	5838
ĠØ¬ÙħØ¹	3190
ĠØºÙĦ	4187
ĠØ§ÙĦØ¹	182
ĠØ¨Ø§ÙĦØ¹Ø°Ø§Ø¨	3832
ĠØ£ÙĨØ¨ÙĬØ§Ø¡	7585
ĠØ¹ÙĦÙħÙĨØ§	3301
Ø¯ÙĥÙħ	1618
ĠÙģØ¥ÙĨÙĩ	1888
ĠÙģØ§Ø¹Ø¨Ø¯	2105
ĠØ¨ÙĬØ¹	6446
ØŃØ¶ÙĪØ§	7411
ĠØŃØ³Ø¨ÙĨØ§	6699
ĠØ£Ø¬Ø¨ØªÙħ	8409
ĠÙĦÙĦÙĨØ§Ø³	807
ĠØ£ØµÙĨØ§	5110
Ø¯Ø±Ø©	7254
ØªØ±Ùģ	7182
ĠØŃÙĨÙĬ	2339
ĠØªÙĩØªØ¯ÙĪÙĨ	3525
Ø§Ø¦ÙĦ	6087
ĠØ®ÙħØ³ÙĬÙĨ	9846
ĠÙģØ£ØŃÙĬ	7948
ÙħØ³Ø©	6317
ĠÙĪØ§Ø³Øª	996
ĠØ«ÙĤÙģØªÙħÙĪÙĩÙħ	10322
ĠÙĪØªÙģØµ	4995
ĠÙĪØ¬Ø§Ø¡	1293
ĠÙĬÙĤØ±Ø¡ÙĪÙĨ	8738
ĠÙģØ¶ÙĦØ§	2785
ÙĨØ§Øª	426
ĠÙĨØ·	1699
ĠÙģØ¶ÙĦØªÙĥÙħ	9007
ĠÙħØŃÙĬØµ	4496
ĠØ§Ø³ÙĥÙĨ	9267
Ø§Ø¹	2611
ĠÙĬØ¶ÙĬØ¹	4686
ĠÙĪÙĦÙĬØ³Øª	8550
ĠØŃØ¨Ø§	3181
ĠÙĨØ¸Ø±	4802
ĠÙĪØ§ÙĦØ±	4055
ĠÙĤØ¯ÙħØª	1815
ĠÙĬØ³ÙĪÙħÙĪÙĨ	6298
ÙĤÙĪÙĦÙĪÙĨ	488
ĠØ£Ø±Ø§Ø¯	1544
Ø¹ÙħÙĩ	3612
ĠØ§ÙĦØ£Ø®Ø±	4115
ĠØªÙĥÙĪÙĨ	744
ĠÙĦØ±Ø¡ÙĪÙģ	4562
ĠØ³ÙħÙĬØ¹Ø§	5464
ĠØ´Ø§ÙĤÙĪØ§	9714
ĠØªÙģÙĬØ¶	9823
ĠÙĬØµØ¯	2060
ĠØ£ÙĬÙĩÙħ	3652
ĠÙĨØ±Ø²ÙĤ	6849
ĠØ§Ø¯Ø®ÙĦÙĪØ§	2145
ĠÙģØ´Ø±	7276
ĠÙĪØ¹ØµÙĪØ§	8364
ĠØ£ÙĦØ³ÙĨØªÙĥÙħ	9387
ĠÙĦÙĩÙĪØ§	6079
ĠØ¥ÙĨÙĥÙħ	1112
Ø®Ø±	172
ĠÙģØ£ØªØ¨Ø¹	2930
ÙĬØ¹ÙĪÙĨ	5568
ĠØ§ÙĦÙĨØ¨ÙĪØ©	8238
ÙĤÙĬ	2647
ĠØŃØµÙĬØ¯Ø§	9777
ĠÙĦØ¨Ø«	1910
Ø§Ø±Ùī	4911
ÙĤØ¯	209
ĠÙħØ¢Ø¨	3883
ĠØ¨Ø§ÙĦØºØ¯ÙĪ	6640
ÙĤÙĪØª	7339
ĠØ¬Ø§Ø¡ÙĩØ§	8189
ĠØ®Ø§Ø³Ø¦ÙĬÙĨ	10088
ĠØ¨ÙĬÙĪ	2248
ĠØªØŃØµ	4266
ĠØªÙĩØ¯ÙĬ	5758
ĠÙĪØ±	431
ĠØªØ®ÙģÙĬ	6427
ĠÙĪØ¹ÙĨØ¯ÙĩÙħ	6721
ĠÙĬØªÙĤ	4982
ĠØ§ØªØ®Ø°Øª	6608
Ø°ÙĪÙĤÙĪÙĩ	10060
ĠÙģÙĤØ§ÙĦ	858
ĠØ§ÙĦØ«ÙĦØ«	5594
ĠÙĪØªØ±Ø§ÙĩÙħ	8159
ĠØ§ÙĦÙħØ¬Ø±ÙħÙĬÙĨ	1573
ĠÙĪÙĨØ¬Ø¹ÙĦ	5031
ĠÙĬÙĩÙĦÙĥÙĪÙĨ	9697
ĠÙĦØ°ÙĩØ¨	7312
ĠÙĨØ¶Ø±Ø©	7637
ÙĬÙĨ	70
ĠÙĪÙĨ	320
ĠÙĪÙĦÙĪØ§ÙĦØ¯ÙĬ	6288
ĠØ£ØµØ§Ø¨ÙĥÙħ	5288
ĠØ§ÙĦØ®Ø§Ø³Ø±ÙĬÙĨ	2115
ĠØ§Ø°ÙĥØ±ÙĪØ§	2727
ĠÙĬØ¹Ø¯ÙĥÙħ	4498
ĠØ£ÙĤÙĬÙħÙĪØ§	7243
ĠÙħÙĪØ«ÙĤØ§	10124
ĠØªØ£ÙĪÙĬÙĦÙĩ	4310
ĠÙĬÙģØª	1065
ĠØ§ÙĦÙħØ®ÙĦÙģ	5896
ĠÙĪØ´	1549
ĠØ°Ùĩ	7857
ĠÙģØ£ÙĨØ¸Ø±ÙĨÙĬ	8908
ĠÙĬØ¦Ø³	4682
ĠÙĨØ¹Ø¨Ø¯	3158
ĠØ¬Ø§Ø¡ÙĪÙĥÙħ	6163
ĠØ£ÙħØ«Ø§ÙĦÙĥÙħ	5470
ĠØ²ÙħØ±Ø§	8416
Ø´ÙģÙĨØ§	3368
ÙĨØ§Ø¬ÙĪØ§	7457
Ø²ÙĦØª	8178
ĠÙĬØ³Øª	414
Ø¨ÙĬØª	4952
ĠÙĪÙĬØ®	2507
ĠÙĪØ¥Ø³ÙħØ§Ø¹ÙĬÙĦ	2705
ÙĩØ±ÙĪÙĨ	3914
Ø¸ÙĦÙħÙĪØ§	4329
ĠØ±Ø¶ÙĪØ§ÙĨ	6847
ÙĤÙĬÙħ	594
ÙħØ±Ùĩ	8191
ĠØ¹	80
ĠØŃØ³ÙĬØ¨Ø§	5201
ĠÙĬÙħØª	4681
ĠØªÙĤØ·Ø¹	6398
ĠÙĬÙĩØ±	7322
Ø·ÙĤÙĪÙĨ	7687
ĠØ®ÙĦØ§	7781
ĠØµØ¯ÙĤØª	8717
ÙĤØ§ÙĨØ§	8219
ĠØ³ÙĨØ©	1962
ĠØ¥ÙĨÙĬ	403
ĠØ¬ÙħØ§ÙĦ	7776
ĠÙĦØ£ÙĨÙģØ³ÙĥÙħ	3856
Ø§ØŃØ±	2613
ĠØ§ÙĦØªØ§Ø¨ÙĪØª	10034
ĠÙģØ§Ø®Ø±Ø¬	5408
ĠÙħØ¤ÙħÙĨÙĪÙĨ	3451
ĠØªØ¹Ø¬	4301
ĠÙĬØ¬Ø±ÙĬ	5151
ĠÙħÙĪØ§	1931
ĠÙĥØªØ§Ø¨Ø§	2246
ĠÙĪØ£ÙĨÙģØ³ÙĩÙħ	2544
ĠÙħØ¨ÙĦØ³ÙĪÙĨ	7040
ÙĦØ§Ùĩ	7462
ĠØ¥ÙĦÙĬÙĥÙħ	1096
Ø³ØªØ®Ø±Ø¬	7882
ĠÙĪØ´Ø¯Ø¯ÙĨØ§	9279
ĠØ°Ø§Ø¦ÙĤØ©	7059
ĠØ±Ø¬Ø²	6416
ØªØ¨Øª	7180
ĠØªØ²Ø±Ø¹ÙĪÙĨ	9736
ÙĪØ§	69
ĠØ§ÙĦØ³Ø±	5976
ÙĬØ³Ùī	1270
ÙĪØ±Ø©	1885
ĠØ£ÙĦ	1851
ĠÙĦØŃÙĥÙħ	3969
ĠÙĬÙĪØ¹Ø¯ÙĪÙĨ	2565
ĠØ·ÙĦØ¹	5037
ĠØºØ±Ùģ	6077
ĠØ±ØŃ	528
ĠØ¨Ø²ÙĬÙĨ	7371
ĠØ¥Ø³ÙĦØ§Ùħ	7384
Ø±Ø¨	221
Ø§ÙĦØŃÙĤ	8378
ĠÙģØ³ÙĬØ¹ÙĦÙħÙĪÙĨ	9682
ĠØ§ÙĦØ¨ÙĦØ§	1824
ĠÙĪÙĬØ¤Øª	9542
ĠØ§ÙĦØ£Ø¨ØµØ§Ø±	2702
Ø¹ÙĬÙĨ	1061
Ø§	43
Ø¦Ùĥ	232
ĠØ§ÙĦÙħØ¬	3575
Ø£ÙĦÙĪÙĨÙĥ	1918
ĠÙĦÙĬØªÙĨÙĬ	2939
ĠÙĪØŃÙĬÙĨ	4353
Ø¦ÙĦØ§	4824
ĠÙħÙĥÙĨØ§ÙĥÙħ	8851
ĠØ§ÙĦ	54
ĠÙĨØ°ÙĬØ±	1172
ĠØ¹ÙĦÙħÙĥÙħ	5136
Ø¸ÙĥÙħ	3596
ØµØ±Øª	6250
ĠØ¨Ø§Ø²	7373
ĠØ³Ø¨ÙĦØ§	5266
ØŃÙĬÙĨ	2867
ĠØ§ÙĦÙħÙĤØ¯Ø³	5899
ØµØ±ÙģÙĪÙĨ	6252
ĠØªÙĨÙĥ	2774
ĠÙĪØ£ÙĦÙģ	7717
ĠØ§ÙħÙĥ	8016
ĠØªØ°ÙĥØ±	2665
ĠØ¹ØµÙĬØ§	9133
ĠØ£ØªØ±Ø§Ø¨Ø§	9791
ĠÙģÙĨØ¨Ø°ÙĨØ§ÙĩÙħ	9900
ĠÙĬØ¯Ø®ÙĦÙĩ	5404
ĠØ®Ø¨Ø±Ø§	7784
ĠØ¨Ø¸ÙĦÙħÙĩÙħ	9755
ĠØ¥ØµÙĦØ§	3500
ĠØ£Ø³ÙĦÙħÙĪØ§	5405
ĠØ§ÙĦØ¹Ø°Ø§Ø¨	557
ĠØªØ®Ø±Ø¬	1780
ĠÙĥØ³Ø¨ØªÙħ	6559
ĠØªØ³Ø±	4741
ĠØŃØ§	5901
ĠÙĪØ³Ø§Ø¡	6386
ĠØ®Ø´ÙĬØ©	3876
ĠØºÙĪØ±Ø§	8039
ĠØ¨Ø§ÙĦØ£ÙĨØ«Ùī	10094
Ø§ÙģØ§Øª	6219
ĠØ²ÙĥØ±ÙĬØ§	4272
ĠÙģÙĩ	1105
ĠÙħØ³Ø·	6312
ĠØ²ÙĬÙĨØ©	3817
ØŃÙĥÙĪÙĨ	4004
ĠÙĦØ§ÙħØ³ØªÙħ	10252
ĠØ¨ØŃ	2308
ĠØªØ¤	1505
ĠÙĬØªÙģÙĥØ±ÙĪØ§	9376
ĠÙĪÙĨØ²Ø¹	8251
ĠÙĪØ§Ø³ØªØºÙģØ±ÙĪØ§	6790
ØºØ¶Ø§Ø¡	4093
ĠÙĪØ§ÙĦØªÙĤÙĪÙī	7603
ĠØ£ÙĦÙħ	582
ĠÙĪØ§ÙĦØ¶Ø±Ø§Ø¡	4565
ÙĬØ·	5566
ĠØ£ØŃÙĬ	3258
ĠÙĥÙħØ§Ø¡	8804
ĠÙĨÙĥ	1088
ĠÙĪØ§Ø¨Ø¹Ø«	9155
ĠÙĦØŃÙħØ§	5397
ĠØªÙĤÙĦØ¨	3734
Ø«ÙĬÙħ	7695
ĠÙħØ³Ø±ÙģÙĪÙĨ	9744
ĠÙģØ§ØªØ¨Ø¹ÙĪÙĩ	6878
ĠÙĪÙĤ	185
ØªØ¨Ø¹ÙĪÙĨ	5171
ĠØ§ÙĦÙħÙģØª	7735
ĠØªØ£ÙħØ±ÙĪÙĨ	4309
ĠÙĬÙĨØ¨	2535
ĠØ®Ø¨Ø§ÙĦ	7786
ĠØ¢ÙĦØ§Ùģ	7710
ĠØªØ£ÙĦÙħÙĪÙĨ	8595
ĠÙĪØªÙĥ	4992
ĠØ§ÙĦØŃØ±Ø«	4919
ĠÙĬÙĨÙĤØµ	8134
Ø¹ÙĦÙĪÙĨ	2086
ĠÙĪØ§Ø¨ØªØºÙĪØ§	6630
Ø§ÙĤÙĪÙĨ	7074
ĠÙĨØ³Ø§Ø¦ÙĥÙħ	4348
ĠØ£ÙħÙĥ	5998
Ø¨Ø¦	831
ĠØ§ÙĦØ¶ÙĦØ§ÙĦØ©	3882
ĠØ§Ø¹ØªØ²ÙĦ	6814
ĠÙħÙĨØªÙĤÙħÙĪÙĨ	7045
ĠØ¬Ø¦ØªÙĨØ§	9093
ĠÙĥØ§ÙħÙĦØ©	10225
ĠØ§ÙĦØ±ØŃÙħÙĨ	355
ÙĬÙĦ	284
ĠØ¨Ø°ÙĨ	1942
Ø¹ÙħÙĦÙĪÙĨ	385
ĠØªØ±Ø§Ø¶	5022
ĠÙĬØ£ÙħÙĨ	8297
ĠØªØ·ÙĬØ¹ÙĪØ§	4027
ĠÙħÙħÙĨ	1002
Ø¶Ø±	733
ÙĤØ§ÙħØ§	8220
ĠÙĦÙĪÙĦØ§	968
ĠÙģØ¥ÙĨÙĥ	2730
ĠÙĪÙĪÙĬÙĦ	6642
ĠÙģØ£ØºØ±ÙĤÙĨØ§ÙĩÙħ	7015
ĠÙĥØ±ÙĩÙĪØ§	8903
ĠÙħÙĨÙĩÙħØ§	2546
ĠØ§ÙĦÙĤØ¯Ø±	6798
ĠÙĨØ¹ÙĬÙħ	4064
ÙĦØ§ØªÙĬ	7463
ĠÙĪÙĩÙĬ	2410
ĠØ§ÙĦØ³ØŃØª	7878
ĠÙĪØ£ÙĨÙī	8260
ĠØ¶ÙĬÙģÙĬ	10003
ĠØªØ¸Ø§ÙĩØ±ÙĪÙĨ	9766
ĠÙĬØªÙģØ·Ø±ÙĨ	9377
ĠÙģØ§Ø¨	5660
ĠÙĨÙħÙĦÙĬ	9603
ĠÙģØ³Ø¬Ø¯ÙĪØ§	4321
ĠÙģØ§ÙĤØ±	6174
ĠÙĪØ¹ÙħÙĦÙĪØ§	787
ĠØ±Ø²ÙĤØ§	1921
ÙĬØ¨Ø©	1468
ĠØ±Ùħ	5806
ĠÙĦÙĤØ§ÙĦÙĪØ§	6324
¬	14
ĠØ´ÙĩØ§Ø¯	4875
ĠØ§ÙĦØ¨ØµÙĬØ±	5123
ĠÙħÙĨÙĨØ§	7425
ĠÙĪØ¬ÙħØ¹	8067
ĠÙĬØªÙĬÙħØ§	10059
ĠØ£ÙĩÙĪØ§Ø¡ÙĩÙħ	2277
Ø¬ÙĪØ±Ø§	5773
ÙĥÙħØ§	1846
ĠØ£Ø¬Ø±ÙħÙĪØ§	6503
ĠØ£ÙĤØ§ÙħÙĪØ§	7245
ĠÙĪØ¬Ø§Ø¡ØªÙĩÙħ	9150
ĠØ£ÙĨØµØ§Ø±	2886
ĠÙĪÙĨÙĥÙĪÙĨ	6196
ĠÙģÙĬØ¹Ø°Ø¨Ùĩ	7543
ĠÙĬÙħØ³Ø³ÙĨÙĬ	9248
ĠÙĪØµØ§ÙĥÙħ	5264
ĠØ§ÙĦÙĨØ§ØµØŃÙĬÙĨ	6084
ĠØ§ÙĦØ³ÙĨÙĬÙĨ	7876
Ø§ØªÙĪØ§	3161
ĠÙģØ§Ø³ØªØ¹	4380
ĠØ§ÙħÙĥØ«ÙĪØ§	10276
ĠØ£ØºØ±ÙĤÙĨØ§	4641
ĠÙħÙĤØ§Ùħ	2632
Ø¹ØªÙħ	3458
ĠÙĪØ£Ø¨ÙĤÙī	3386
ĠÙħØ¹ÙĬØ´	6769
ĠÙĪØ£ØªÙĪÙĨÙĬ	7726
ØµØ§Ùĥ	5804
Ø¨ÙĬÙĨÙĪØ§	6092
ĠØ¹Ø§Ø¯Ø§	9219
ĠØ¨ÙĬÙĨÙĩÙħ	736
ĠØ§ÙĦØ£Ø¬Ø¯Ø§Ø«	7057
ĠØ·Ø¨Ø§ÙĤØ§	10295
ĠÙĦÙĦÙħÙĦØ§Ø¦ÙĥØ©	2777
ĠÙģÙĦÙħØ§	498
ĠØ¢Ø®Ø±	1511
ĠÙģØ±ÙĤÙĪØ§	8442
ĠØ¯ÙĪÙĨÙĩ	982
ĠØ³Ø¹ÙĬÙĩÙħ	9293
ĠÙĪØ¬Ø§	4974
ĠÙĤÙĪÙħ	309
ĠÙĪØ£ÙĨ	321
Ø´Ø£ÙĨØ§	6638
ĠÙĬØ³	440
ĠÙħØ±Ø³ÙĦÙĬÙĨ	9687
Ø¶Ø¹Ùģ	1447
ĠÙĦØ¯ÙĬÙĩÙħ	3357
ÙĨÙĪÙĨ	580
ĠØªÙħÙĨÙĪÙĨ	9640
ĠØ³Ø£ÙĨ	7670
ĠØ£ØµØ¨ØŃ	8492
ĠØªØ·Ø¹	2319
ĠØ£ÙĨØ´Ø£	1957
ĠÙģØ£Ùħ	4925
ĠØ£Ø®ÙĦ	7238
ĠÙĬÙħØ³Ø³Ùĥ	6681
ĠØ§ÙĦØ³ÙħÙĬØ¹	1580
ĠÙĦØ¨Ø«Øª	5393
ĠØ¨Ø§ÙĦØ¨Ø®ÙĦ	9316
ĠØ§Ø³Ùħ	1583
ĠÙĤØ§ØªÙĦÙĪÙĥÙħ	7535
Ø®ÙĦÙĬ	5795
ĠØªÙĨ	502
Ø°Ø±ÙĬÙĨ	1896
ØªØ§ØªØ§	7184
ĠÙĨØ§ÙģÙĤÙĪØ§	9955
ĠÙģØŃÙĤ	4656
ĠØ£ÙĪÙĦÙħ	1029
ĠÙĪØ§ÙĦÙĥØ§ÙģØ±ÙĪÙĨ	6750
ĠÙĬØ®Ø±Ø¬ÙĥÙħ	6556
ĠØµØ±ØŃØ§	8868
ĠØªØºÙĦÙĪØ§	9314
ĠÙħØ¨ÙĬÙĨØ§	2151
ĠØ·Ø±ÙĬ	6204
ĠÙĬØ¸ÙĩØ±	6729
ĠÙģØ§Ø¯Ø¹ÙĪØ§	9411
ĠØ§ÙĦØ¹ÙĦÙī	7958
ĠØ£Ø¹ÙĤØ§Ø¨ÙĥÙħ	7026
Ø´ÙĤ	7577
ĠÙĪÙħÙħØ§	2116
ÙĪØªÙĬÙĨ	8430
ĠØ¸ÙĦÙħÙĪÙĨØ§	8764
ÙĬØ§ÙĬ	7864
ĠØŃØ¨Ø·	3182
ĠÙħØŃØµÙĨÙĬÙĨ	10017
ĠØ§ÙĦÙĬ	1491
ĠØ§ÙĦØ¹ÙħÙĬ	5460
ĠØ§ÙĦØ³Ø¨ÙĬ	1163
ĠÙħØ¶ÙĦ	7204
Ø¨ØªÙħ	2626
ĠÙĬÙĨÙģØ¹ÙĨØ§	6673
ÙĦÙĩØ§	619
ĠØ§ÙĦÙħØº	7733
ĠÙĪÙĬ	165
ĠÙĤÙĦØ¨Ùĩ	4150
Ø¨Ø§Ø±	771
Ø³ÙĨØ§	7259
ĠØ¹Ø¯ÙĨ	2399
ĠØ¬ÙĨØªØ§ÙĨ	6966
ĠÙħÙĦØ§Ø¦ÙĥØ©	3454
ÙĪØ´ÙĩØ§	6880
ĠØ³ÙĬØ¦Ø§ØªÙĩ	9240
ĠÙĩØ§Ø¬Ø±ÙĪØ§	4433
ĠØ¢ÙĨ	4073
ĠØ³Ø±ÙħØ¯Ø§	9367
ĠÙĥØ«	649
ĠÙĬØªÙĪÙĦ	2534
ĠÙĦÙĦ	272
ĠØªÙĤØ§	7474
ĠØªØ¨ÙĪ	8947
ĠÙģÙĨØ¬ÙĬÙĨØ§Ùĩ	6576
ĠÙĪØ§ÙĦÙĬØªØ§ÙħÙī	3417
ĠÙĬØ®ØµÙģ	8467
ĠÙĬØªÙĪÙĥÙĦÙĪÙĨ	4202
ĠØµØ¯ÙĤØ§Øª	6424
ĠÙĪÙĦÙĬÙĬ	8545
ĠÙĪØ¹ÙĦÙħØ§	4550
ĠÙĤØ±Ø§Ø±Ø§	7533
ĠÙĦØªØ¤ÙħÙĨÙĪØ§	6345
Ø¶Ø±ÙĪÙĨ	2885
ĠØ£Ø¹ÙĤØ§Ø¨	5140
ĠÙĦÙĦØ£	6130
ĠØ¨Ø§ÙĦØ¹Ø±	4890
ĠÙĪÙĬØ¤ØªÙĪÙĨ	4519
Ø·ÙĪ	7682
ĠØ´Ø¯ÙĬØ¯Ø§	2406
ĠØ¹ÙĪØ±Ø§Øª	7451
ĠÙĪØ§ÙĦØ³ÙħØ§ÙĪØ§Øª	6589
ĠØ²ÙĪØ¬ÙĬÙĨ	5338
ĠÙĦÙĦÙĨØ¨ÙĬ	8146
ÙĦÙĤÙĪÙĨ	4929
ÙĤÙĬØ©	7337
ÙĦØºÙĪ	3906
ĠØªÙĤØ¯Ø±ÙĪØ§	9481
Ø¹ÙĦÙħ	171
ĠØ£ÙħØ±ÙĬ	2927
ĠÙĪÙĬØŃØ±	7892
Ø±ÙĬÙĥÙħ	3222
ĠØ£Ø¹ÙĬØ¯ÙĪØ§	8606
ĠØ¨Ø±ÙĪØ¬Ø§	8856
ĠØªØ¨Ø¯ÙĪÙĨ	4743
ĠØ³Ø±Ø§Ø¹Ø§	9422
ĠÙħØ¯ÙĥØ±	3794
ĠØªÙģØ¹ÙĦÙĪØ§	2790
Ø±Ø§ÙģÙĩØ§	7834
ÙĨÙĥÙħ	706
ĠÙģØ§ØªØ¨Ø¹ÙĪØ§	9684
ĠÙħÙĦÙĥÙĩ	6458
ĠÙħØ±	449
Ø¦ÙĩÙĨ	7703
ĠÙģÙĥÙĦÙĪØ§	3312
ÙĬÙħØ©	4107
ĠØ¹ÙĨØ§	2313
ĠØ¨Ø¸ÙĦÙħ	3492
ĠÙĪØ£Ø¹ÙĦÙħ	5875
ĠÙĪØ¬ÙĦØª	8069
ĠÙĨØ¨Ø§Øª	3779
ØªÙĦ	916
ÙħÙĩ	2166
ĠÙģØ¥	192
ĠØ¨ÙĬÙħÙĬÙĨ	3495
ÙĦÙħÙĩÙħ	4068
ĠÙĪÙĬØ¯Ø®ÙĦÙĩÙħ	7900
ĠØ§ÙĦØ·Ø±Ùģ	6457
Ø°ÙĩØ¨ÙĨ	9126
ĠÙģØ¹ÙĦÙĨ	9086
ĠÙĬØ±Ø«ÙĩØ§	10125
ĠÙĨØ¬Ø§ÙĨØ§	8890
ĠØ£ÙĦÙĤ	1346
ĠÙħÙĦØ§ÙĤÙĪ	6910
ĠÙĪØ±Ø§Ø¦ÙĩÙħ	6292
ĠÙĬÙĥÙģØ±ÙĪØ§	6594
Ø¢Ø®Ø±	333
ĠØ§ÙĦØ£Ø±ØŃØ§Ùħ	3595
ĠÙĬÙĥÙģØ±	1123
ĠØ¨Ø¥Ø°ÙĨÙĬ	5228
ĠØ§ÙĦÙħÙĬØª	2209
ÙĤØ·Ø¹ÙĪØ§	5374
ĠÙĪÙħØ³Ø§	5093
ĠØ±Ø²	1784
ÙģÙĥ	2064
ĠØ¢ÙħÙĨÙĬÙĨ	3226
ØŃØ±ÙĪÙħ	8459
ĠØ£Ø¹Ø¬Ø¨Ùĥ	9499
ĠÙĪØ§Ø¯Ø¹	5370
ĠÙĬØ§	198
ĠØªØªÙĦÙī	1822
ĠØ¹ÙĨÙĩÙħØ§	4894
Ø§ÙģÙĪÙĨ	1654
ĠÙģØ§Ø²	7285
ĠÙĪØ¬ÙĩÙĬ	9014
ĠÙģØµÙĦÙĨØ§Ùĩ	9216
ĠØ¨Ø§ÙĦÙĤÙĪÙĦ	4130
ĠØ§ÙĦØºÙĬØ¨	1209
ĠØªÙħ	1281
ĠØ¨Ø°Ø§Øª	2190
ĠÙģØ§ÙĨØª	3769
ĠÙģØ¥ÙĨÙħØ§	1144
ĠÙĩØ§Ø±ÙĪÙĨ	2265
ĠÙĦØ£Ø®	6301
ĠÙħØ³ÙĨÙĬ	5114
ĠÙĪÙĨØµØ±	6197
ĠØ¹ÙħÙĦÙĪØ§	1535
ĠÙĪØ£ÙĤÙħ	6671
ĠØ§ÙĦÙħØªÙĪÙĥÙĦÙĪÙĨ	6754
ĠØ£ÙĪØªÙĬØªÙĩ	9209
ĠØªÙĤØ±	6396
Ø³ÙĦØ®	9447
ĠØ¬ÙħÙĬ	757
ĠØ£ÙĨØ²ÙĦÙĨØ§Ùĩ	2025
ĠÙĥÙĩ	7509
ĠÙģØ¶	781
ĠÙħØ´Ø±ÙĤÙĬÙĨ	9921
ĠÙģÙħØ§ÙĦ	4659
ĠØ£ÙĪÙģÙī	5974
Ø±ÙģÙĪÙĨ	2247
ĠÙĤÙĪØ©	1598
ĠÙĬØ¯Ø¹	2555
ĠÙĬÙĨØµØ±ÙĥÙħ	5432
ĠÙĪÙĨØŃ	6195
ĠÙĬØ´Ø§ÙĤÙĤ	10126
ĠÙĦØ£ÙħØ§ÙĨØ§ØªÙĩÙħ	10138
ĠØ¨Ø£ÙħØ±ÙĨØ§	9336
ĠÙĪØ£ÙĨØ¹Ø§Ùħ	8262
ĠÙĪØ¢ÙĬØ§ØªÙĩ	10183
ĠÙĥØ±Ø³ÙĬÙĩ	10224
ĠÙħÙĦÙĥÙĪØª	5193
Ø§ÙĦØ§Øª	2834
ĠØªØ¨ØµØ±ÙĪÙĨ	2794
ĠØ£ÙħÙĪØ§ØªØ§	9976
ĠØ§ÙĦÙħØ´Ø±ÙĥÙĪÙĨ	5894
ĠØ§Ø³ØªØ·Ø¹ØªÙħ	4538
ĠÙģÙĩÙĬ	4407
ĠÙĤÙĪÙĦÙĥÙħ	9182
ØŃØ§Ø±	5733
ĠÙģÙĬØªØ¨Ø¹ÙĪÙĨ	7541
Ø·ÙĦÙĤ	2205
ĠÙħØ¸	7198
ĠØ¯ÙĪÙĨÙĬ	6246
ĠÙĨØ§ÙĤØ©	4807
ĠÙĪØ¥ÙĤØ§Ùħ	7825
ĠØŃØ³Ø§Ø¨ÙĩÙħ	4475
Ø¹Ø¨Ø¯ÙĪØ§	1340
ĠØ£ÙĥØ±	5641
Ø¯Ø¨Ø§Ø±	2640
ĠÙĬØ¶Ø±ÙĪØ§	6747
ĠÙħØªØ¹	8797
ÙģÙĪÙĨØ§	8902
ĠØµÙħ	6033
Ø¬Ø²Ùī	7506
ĠÙĤÙĪÙĦÙĬ	8741
ĠØ§ÙĦÙħØµÙĦØŃÙĬÙĨ	9574
ĠØªÙĩÙĪÙĬ	10219
ĠØ§ÙĦÙĨØ´Ø£	6193
Ø¤ÙħÙĨÙĪØ§	1645
Ø¯Ø«	3953
ĠØŃÙĥÙħ	3179
ĠØ£ÙĩÙĦÙĩÙħ	6234
ĠÙĪÙĦÙĨØ¨ÙĦÙĪÙĨÙĥÙħ	8951
ĠÙĥØ£ÙĨÙĩ	4438
ĠÙĬØªØ±Ùĥ	8119
ĠÙĪØ¬ÙĩÙĩ	2413
ĠØ§ÙĦÙģØ±ÙĬÙĤÙĬÙĨ	6774
ĠÙĪØµÙĦÙĪØ§Øª	9030
ĠØ¹Ø±	3513
ĠØ§ÙĦØŃØ¯ÙĬØ«	3616
ĠÙĪØ£ÙĪÙĦØ§Ø¯ÙĥÙħ	6892
Ø§Ø±Ùĥ	1406
ĠÙģØªØ±Ø§Ùĩ	8322
ÙĥØªØ¨	3083
ĠÙĬØªØ°ÙĥØ±	3240
ĠÙĤØªÙĦÙĪØ§	3825
ĠÙĪÙĬØ¹ÙĦÙħ	1405
ĠØ¨ØªØ£	4547
ĠØ¨ÙĦØ¯Ø©	5056
ĠØ¹ÙĨØ¯ÙĩØ§	6182
ĠÙĬÙĥØªÙħ	8349
ĠÙĬØŃÙĬØ·ÙĪÙĨ	9003
ĠØ¹ÙĨÙĥ	2919
ĠÙĬØ¨ÙĬÙĨ	1621
Ø§Ø¬ÙĪÙĨ	4384
ĠØ¨Ø¹Ø¯Ùĩ	1471
ĠÙĪÙĬÙĤØ¯Ø±	2712
ĠØ¨Ø¯Ø£	9202
ĠÙĥÙĬØ¯ÙĩÙĨ	9257
ĠØªÙĤÙĪÙĦ	1219
ĠØ¨Ø£ÙĬØ¯	2964
ĠÙĪÙĬÙĦÙĨØ§	3609
ĠØ³ÙĪØ¡Ø§	3788
ĠÙĪØ§Ø¯Ø®ÙĦÙĪØ§	6725
ĠÙģØ¶Ø±Ø¨	6495
ĠØªÙħØ³	2069
ĠÙĪØ¢ÙħÙĨ	3306
ĠØ¢ÙħÙĨØ§	992
ĠÙĪÙĥÙĦÙĪØ§	4180
ĠÙĤØµØµÙĨØ§	9910
ĠÙĬÙĦÙĩØ«	10199
ĠÙħÙĪÙĦØ§Ùĩ	9553
Ø±Ø§Ø¬	3198
Ø§Ø¤ÙĨØ§	1905
ĠØ£Ø¨ÙĬ	2635
ĠØ¨ÙĪÙĥÙĬÙĦ	3995
ÙĪØ±ÙĩÙħ	1227
ĠÙĪØ¬Ø¯	2364
ĠØ£Ø±Ø³ÙĦÙĩ	8642
ĠÙĬÙĩØ¯	1689
ĠØ¬Ø¦ØªÙĩÙħ	9092
ĠØ§ÙĨÙģØ±ÙĪØ§	6475
ĠÙĬØ¨Ø¯Ø¦	6667
ĠØ§Ø¨ØªØº	2022
ĠÙĨØ¨Øª	7622
ĠØ§ÙĦØ·ÙĬØ±	2571
ØªØºÙĪØ§	3440
ĠÙĪÙĪØ¶Ø¹	5307
ĠÙģØ¹Ø¯	4652
ØŃÙĩØ§	4002
ĠÙĨÙĥÙĦÙģ	6583
ÙĬÙģ	500
ĠØŃØ§Ø¬Ø©	6851
ÙĬØ§Øª	214
Ø¶ÙĬØ¹	2786
ĠÙħØ®ÙĦØµÙĬÙĨ	3095
Ø®ÙĦÙĩØ§	7548
ÙĦØªÙĨØ§	6365
ĠØ¹Ø§Ø¨Ø¯	9562
ĠØ§ÙĦØ£ÙĪÙĦÙĪÙĨ	3784
ĠÙĤØ§Ùħ	4041
ĠØªØŃÙĦ	8393
Ø¢ÙĬØ§Øª	341
Ø§Ø¦ÙĬÙĦ	890
ĠØ¨ÙĪØ§ÙĦØ¯ÙĬÙĩ	5515
ĠÙĦØ¸	4661
ĠÙĪÙĥÙĦÙħ	4950
ĠØ§ÙħØ±Ø£Øª	3829
ĠØ§ÙĦÙĨÙĪØ±	2542
ĠÙĪÙĬØ±ÙĬØ¯	6661
ĠØ¨Ø§ÙĦØ¨Ø±	7847
ĠÙģØ£ÙĨØ²ÙĦÙĨØ§	6527
ĠÙĤÙĬÙħØ§	7527
ĠØ§ÙĦØªØ§Ø¨	5584
Ø¬	86
ĠØ§ÙĦØ£ÙĦÙĪØ§ØŃ	7056
ĠÙĥÙĬØ¯Ø§	3535
ÙĩØ¨	1423
ĠØ³Ø§ØŃØ±	3167
ØºÙĬØ±	1875
ĠØ¨Ø¯ÙĦÙĩ	9203
ĠÙĤØ±Ùī	7528
ĠÙģØ£ØŃØ³ÙĨ	7947
ĠØ¨Ø§ÙĦØ¢Ø®Ø±Ø©	1460
ĠÙĪÙĬØ¹ÙĦÙħÙĪÙĨ	9210
ĠØªØ³ØªØ¹Ø¬ÙĦ	8976
ĠØ¨ÙĩØ§	569
ĠØ§Ø¨ØªØºØ§Ø¡	2434
ĠÙĨÙĥÙĨ	4803
ĠØ§ÙĦØ£Ø¹ÙĦÙĪÙĨ	7815
ĠÙĪØªØ¸ÙĨÙĪÙĨ	8161
Ø¨ØªØºÙĪØ§	2997
ĠÙĦØ£ÙħØ§	6300
ĠØ£Ø¬	391
Ø£Ø³	2463
ĠÙĪÙĥÙĬÙĦ	4181
Ø¯ÙĨØ§ÙĩØ§	8839
ĠØ¨Ø£ÙĨÙģØ³ÙĩÙĨ	9107
ĠØ¨Ø±Ø¨Ùĥ	4409
ĠÙĪØ¬Ø§ÙĪØ²ÙĨØ§	9982
ÙģØ¶ÙĪØ§	5728
ĠÙĨØª	3154
ĠÙģØ¨Ø£ÙĬ	1036
ĠØ¹ÙĨÙĩØ§	1327
ĠÙģÙĬÙĨ	1501
ĠØ¨ÙħØ«ÙĦ	3777
ĠÙĪÙĦØ¨Ø§	5954
ĠØ§ÙĦØ¬Ø§ÙĩÙĦÙĪÙĨ	9464
ĠÙĬØ´Ø±	4676
Ø§ÙĨØ¹	7576
Ø³ÙĬ	1347
ĠÙģØ¹ÙħÙĬØª	10192
Ø±Ø¯	2170
Ø¯Ø§ÙħØ©	8199
ĠØªØ¬Ø¹ÙĦ	2988
ĠÙĪØ£ÙĪÙĦÙĪ	5518
ØºÙĪÙĨÙĩØ§	4466
ÙĩØ§Ø¨	4780
ĠÙħØ³ØŃÙĪØ±Ø§	6315
ÙģØ¸ÙĪØ§	6845
ĠÙħÙĬØ«Ø§ÙĤØ§	6653
ĠØŃÙħÙĦØªÙĩ	6876
ĠÙħÙĪØ³Ùī	410
ĠØ§ÙĦØ´ÙĬØ§Ø·ÙĬÙĨ	2128
ĠØ¨ØŃÙħØ¯Ùĩ	5539
ĠØŃØ¨ÙĦ	7752
ÙĪÙĩØ§	600
ĠØ¹Ø±Ø´	4016
ĠØªØŃ	381
ÙĪ	50
Ø¨ÙĤ	5619
ĠÙĪØ¨ÙĬÙĨÙĩ	6562
ĠØªÙĤØªÙĦÙĪÙĨ	4744
ĠØ³Ø¹Ø©	7665
ÙģØ§ÙĦ	5724
Ø¨Ø¹Ø«ÙĨØ§	8983
ĠØ¨ÙĥÙĦÙħØ§ØªÙĩ	6431
ĠÙĪØ§Ø®	2137
ĠÙĬÙĤØ§ØªÙĦÙĪÙĥÙħ	4338
ĠÙĨØºÙģØ±	7620
ĠØ§ÙĦÙĨØ§Ø±	495
ĠÙĪØ±Ø²ÙĤÙĥÙħ	6785
ĠØ±Ø¨	123
ĠØªØ±Ùī	1588
Ø§ÙĨÙĬÙĪÙĨ	9164
ĠØªØµØ¯	4024
Ø¯Ø§Ø©	8198
Ø³Ø·Ø§Ø³	7267
ĠÙĦÙĦØ®	6131
ĠØ§ÙĨØªÙĩÙĪØ§	5204
ĠØªØ£ØªÙĬÙĩÙħ	1826
ĠØ£ØªØ§ÙĩÙħ	4464
ØºÙĬØ«	5910
ĠÙħÙħØ¯	6862
ĠØ£ÙĨØ°Ø±ÙĪØ§	5833
ĠÙĬØ¤	639
ĠØ±Ø²ÙĤÙĨØ§ÙĩÙħ	2580
ĠÙĦØªØ£	8565
ĠÙģØ§Ø¹Øª	3254
ĠÙĪÙĬØ¹ÙĤÙĪØ¨	2420
ĠØªØ¹ØªØ¯ÙĪØ§	6901
ĠØ£Ø±Ø§ÙĨÙĬ	8775
ĠÙĨÙĪØŃÙĬ	5234
ÙĬØ¨Ø§Øª	1408
Ø³Ùĩ	3101
ĠÙĪÙĤÙĦÙĨ	9106
ĠØ¹ÙĨØªÙħ	7861
ĠØ£ØªØ±	3749
ĠÙĨÙĪØ±Ø§	2689
Ø±ÙĬØªÙĩ	6067
ĠØ£Ø²ÙĪØ§Ø¬Ùĥ	8960
ÙĨÙĩ	947
ĠÙĪØ£ÙĨÙĩÙħ	4239
ĠØµÙĬØ¯	7984
ĠØ£ÙĪØ¹Ø¬	7870
Ø¹Ø¨Ø©	7228
ĠØ¨Ø¯ÙĬØ¹	9205
ĠØ¶ÙĬ	5058
ĠÙħØ¹ÙĬ	1989
ĠÙĪØ±Ø§Ø¡	2118
ĠØµÙĦØ§	2723
Ø§ÙĩØ¯ÙĬÙĨ	2250
ĠØªØ¬Ø¯ÙĪØ§	3137
ĠØ¯Ø®ÙĦÙĪØ§	2721
ĠØªÙħÙĬØ¯	6622
ÙĦÙĬØªÙħ	2880
ÙħØ¹ÙĪØ§	8301
Ø¹ÙĪØ¯	4632
Ø°Ø§Ø¨ÙĨØ§	8033
ĠØ¬ÙĨÙĪØ¨ÙĩÙħ	9125
ĠØ±Ø¯	2472
ĠÙĤÙĬÙĦ	1044
ĠØ§ÙĦØµÙĬØ¯	6097
ĠØµØ¨ÙĬØ§	9866
ĠØ³ÙħØ¹ÙĨØ§	1836
ĠÙĬØ¤ØªÙĪÙĨ	5185
ĠØ§ÙĦØºØ±Ùģ	8523
ĠØ§ÙĦÙħØ¶	7732
ÙĦØ¹ÙĬ	9004
ĠÙĪØ£Ø®Ø°	2492
ĠÙĪØ§ÙĦØ¬	2074
ĠÙĪØ§ÙĦÙħÙĨÙĥØ±	6958
ĠØ£Ø²ÙĪØ§Ø¬ÙĨØ§	8961
Ø±ÙĨÙĬÙĨ	4599
ĠÙĦØ¶	7297
ĠÙħØ§ØªÙĪØ§	5635
Ø®Ø·	5796
ĠÙĪØ«ÙĦØ§Ø«	9739
ØµØ¯ÙĤÙĬÙĨ	5164
ĠÙģÙĨØ§Ø¯Ùī	9695
ĠØ§Ø±ÙĥØ¹ÙĪØ§	9801
ĠÙħØ¬Ø±	7202
ĠÙĦØªØ±Ùĥ	6343
Ø©	89
ĠÙĪØ¯Ø®ÙĦ	5606
ĠÙĬØ¤Ø§Ø®Ø°ÙĥÙħ	5497
ĠØ·Ø§Ø¦ÙģØªØ§ÙĨ	9099
ĠØ³ÙĬØ¦Ø§ØªÙĥÙħ	4452
ĠÙĤØ±ÙĬØªÙĥÙħ	8860
ĠØ§ÙĦØ£Ø¹Ø±Ø¬	9425
ĠØ§Øº	8600
ĠØ¨ÙħÙĨ	2309
ĠÙĬØ¹ÙĦÙħ	335
ĠÙĬØ¨ÙĦØº	2861
ĠØ¬Ø¦	1194
ĠØ°ÙĨÙĪØ¨ÙĥÙħ	3866
ĠÙģØ¢ÙħÙĨÙĪØ§	3809
Ø¨ÙĥØ§Ø±	9100
ĠØ¨Ø£Ø³ÙħØ§Ø¦ÙĩÙħ	10318
ĠÙĬØªØ®Ø°ÙĪÙĩ	9378
ĠÙĪØ´Ø§	9277
ĠØªÙĨÙĥØŃÙĪÙĩÙĨ	9621
ĠÙĪÙĩÙħÙĪØ§	8399
ĠØŃØ§Ø¬	2697
ĠØ¨ÙĬÙĨÙĨØ§	1719
ÙĦØ¨ÙĪØ§	2989
ĠØ±Ø¨ÙĥÙħ	494
ĠØ§ÙĦÙĥØ¨ÙĬØ±	2941
ĠÙģØ¨Ø¹Ø¯Ø§	8713
Ø§Ø¦Ùĩ	4193
ĠØ¨ÙĬÙĪØªÙĥÙĨ	9273
Ø´Ø±Ø§	2327
ĠÙĪØ§ØªÙĤÙĪØ§	912
ÙĪÙĩÙħØ§	4591
ĠØ³ÙĦØ§Ùħ	1570
Ø¶ÙĪØ¯	5815
ĠÙĬ	66
ĠÙħØ³ØªÙĩ	8745
ĠØ´ÙĬØ¡	305
ĠØ§ÙĦØ£ÙħÙĬ	4876
ĠØ¥Ø¨ÙĦÙĬ	2312
ĠØ´Øº	5930
ĠÙģÙĬØ£Ø®Ø°ÙĥÙħ	7046
ÙĩØª	662
ĠÙĪØ§ÙĦØ¹Ø§ÙĤØ¨Ø©	6959
ĠÙĥØ§ÙĦØ¬	8928
ĠÙĨÙĪØŃ	841
ĠÙĦØ¹ÙĦÙĬ	3324
ĠØ¨Ø³ÙĦØ§Ùħ	6578
ĠÙħØªÙĤØ§Ø¨ÙĦÙĬÙĨ	5556
Ø²ÙĬÙĨ	1136
ĠÙĨØ®Ø±Ø¬	4799
ØªØ¨ÙĩØ§	6412
ÙĪØ¬ÙĬÙĨ	8684
ĠØ¨Ø±Ø²	6505
Ø¹Ø±ÙĪÙĨ	1273
Ø³Ø§Ø¡	900
ĠØ£ØªÙĬÙĨØ§	4640
ĠÙĪÙĤØ§Ø±ÙĪÙĨ	10102
ØªÙĬÙĩ	2528
ĠÙĪØ£ØµÙĦØŃ	1837
ĠÙħØµØ¯ÙĤØ§	2296
ĠÙĬØªÙĬ	5691
ĠÙĦÙĬØ£Ø®Ø°	8004
ĠÙĦÙĨ	369
ĠØºÙģÙĪØ±	799
ĠÙģÙĦÙĩ	2448
ĠÙģØªÙĨØ©	1411
Ø«ÙĦÙĩ	2694
ĠÙĩÙĦ	651
ĠØ®ÙĦÙĤÙĩÙħ	5041
ĠÙĪØ£ÙĪØ±Ø«	3573
ĠÙģØ£ÙĬ	7940
ĠÙĬÙģØ¹ÙĦÙĪØ§	9040
ĠÙģØ¢ØªÙĪÙĩÙĨ	9905
ĠØ§ÙĦØ±Ø§Ùĥ	5592
ĠÙĦÙħØ¬ÙĨÙĪÙĨ	6103
ĠÙĪØ£ÙĪÙģÙĪØ§	4079
ĠØ¬ÙħØ¹Ø§	5917
ĠÙĪØ§ÙĦØ£Ø¨ØµØ§Ø±	3250
Ø§Ø¦Ø¨ÙĬÙĨ	6088
Ø«ÙĬØ§	7696
Ø±ÙĨØ§	4596
ĠÙĦÙģØ³	4663
ĠÙĬØ³ÙħØ¹ÙĪØ§	7327
Ø¶ØªÙħ	5812
ÙĥÙģØ±	1272
ĠØ£Ø¬ÙĪØ±ÙĥÙħ	8408
ĠÙĦØ³Ø§ØŃØ±	5538
ĠÙĬØ£ØªÙĬÙĨÙĬ	9556
ĠÙĦÙĦØ¹Ø§ÙĦÙħÙĬÙĨ	2160
Ø·ÙģÙī	7688
ĠØ£ÙĨØ¹Ùħ	1786
Ø¹ÙĬÙĩØ§	9385
ĠØ§ÙĦÙĨÙĥØ§	6192
Ø´Ø±ÙĥØ§Øª	6355
ĠÙĬØ²	1107
ĠØªÙĨØ³	7477
ĠØªØ®ÙĦÙĤ	8726
ĠÙĪÙĦØ¯Ø§ÙĨ	9147
ĠØ¥Ø³Ø±Ø§Ø¦ÙĬÙĦ	902
ĠØ§ÙĦØ£Ø¹Ø±Ø§Ùģ	9426
ĠÙĦØ£Ø¨ÙĬÙĩ	2763
ĠØ§ÙĦØ³	162
ĠÙĨØ¹ÙħØ©	1832
Ø¤ÙħÙĨ	187
ÙĩÙĤ	3076
ĠØ§Ø³ØªØ¹ÙĬÙĨÙĪØ§	8564
ĠÙĩØ§	1286
ĠÙģØ·Ø±	2642
ĠØ§ÙĦØ°ÙĦØ©	7651
ĠØ¹ØªÙĪØ§	7439
ĠØªÙĨØ·ÙĤÙĪÙĨ	8616
ĠÙĪØ²Ø±	2576
ĠÙĦÙĦÙĤ	3478
ÙĪØ±Ø§Øª	4956
ĠÙĪØ§Ø¯Ø¹ÙĪÙĩ	10024
ÙħØ¹Ø§	2618
ĠÙģØ³ÙĬ	3000
ĠÙĪØ£ÙħÙĪØ§ÙĦ	4441
ĠØ¨ÙĨÙĬÙĨØ§ÙĩØ§	9178
ĠØ¢ÙħÙĨØª	3225
ÙĥØ¨Ø±ÙĪØ§	1427
ĠÙģØ£ÙĨÙī	2407
ĠØ£ÙĦÙĬØ³	2155
ĠØ£ÙĨØ«Ùī	2887
ÙĨÙĬØ©	2362
Ø®Ø±Ø§Øª	5995
ĠØªØ³ÙĤØ·	8829
ÙĨÙĬØ§	417
ÙĪÙĦØ§	359
ĠØªØ¯Ø±ÙĬ	5191
ĠØ·Ø§Ø¦Ø±ÙĥÙħ	9098
ĠØ²ÙĦØ²	9884
ĠØ¨ÙħØµØ§Ø¨ÙĬØŃ	10310
ĠÙģØ£ÙĤ	7942
ĠØ£ÙĩÙĦÙĬ	8346
ÙĦÙĪÙĨØ§	4916
ÙĪØ¶	3424
ĠØ³ÙħØ¹	1026
ĠÙĪÙħÙĨØ°Ø±ÙĬÙĨ	4928
ĠØ¨ÙĥÙĦ	1059
ĠÙĨØ³Ø§Ø¦ÙĩÙħ	6453
ĠØ¥Ø®ÙĪØ©	5435
ĠÙĪØ£Ø°ÙĨØª	7731
ĠØªÙĤÙĪÙī	8676
ĠÙĨØµ	784
ĠØ®ÙĪØ¶	7793
ĠØ¬ÙĩØ¯	3582
ĠÙĪØµØ§ØŃØ¨	6579
ĠÙĦØ¯ÙĬ	5270
ÙħÙĨÙĪØ§	1445
ØªØµ	2289
ÙĨØ³	455
ĠÙĬØ¤Ø§Ø®Ø°	3321
ĠÙĬØ¹ÙĦÙĨÙĪÙĨ	3484
ĠÙħÙĨØ°Ø±	4011
ĠØ§ÙĤØ±Ø£	7017
ĠÙĪØª	276
ĠØ¢ÙĬØ§Øª	404
ĠØ¯Ø§Ø®	4156
Ø·Øª	5859
Ø§ÙĦÙĬÙĨ	2283
ĠÙĤÙĪÙĦÙĪØ§	7529
Ø³ØªØŃÙĬÙĬ	7884
ĠÙĬØªØ¹Ø¯	8118
ÙĪÙĦÙĩØ§	8599
ĠØ¨Ø®ÙĦÙĪØ§	7369
ĠØ§ÙĦØ·ÙĪÙģØ§ÙĨ	8789
ĠÙĪÙģÙĬÙĥÙħ	8958
ØªØ±ÙĪØ§	2291
ĠØ³ÙħØ¹ÙĥÙħ	8998
ĠÙĪØ§Ø±	1680
Ø°Ø±ØªÙĩÙħ	5080
Ø´ÙĬØ±	3151
ĠÙģØ§ØµÙģØŃ	9328
ĠØŃØ³Ø¨	1574
ĠÙĩÙĨ	1789
ĠÙĪØªÙĦÙĥ	2371
ÙģØªÙĬÙĨ	6249
ĠØ£ÙĨØ§	606
ĠØ®Ø°	2210
ĠØ¯ÙĬÙĨÙĥÙħ	2591
ĠÙħØ¤ÙħÙĨØ§	3399
Ø¯Ø§Ø±	4644
Ø´Ø±Ø§Øª	8049
ĠÙħÙĤØ¯	5628
ĠØ¥ØŃØ¯Ø§ÙĩÙħØ§	4480
ĠØ£ÙħÙħ	2717
ĠØ§ÙĦØ´Ø§ÙĩØ¯ÙĬÙĨ	3685
ĠÙĪØ®Ø°	7142
ĠØ§ÙĦØºØ±ÙĪØ±	4537
ĠØ§ÙĦÙħØ¬Ø§ÙĩØ¯ÙĬÙĨ	6928
Ø®ÙĦÙĩÙħ	8584
ĠØ£Ø³Ø§Ø¡ÙĪØ§	8683
ĠÙĪÙĦØ¹Ø°Ø§Ø¨	4502
ĠØ¸ÙĩÙĬØ±	9381
ĠÙĬØ³Ø¨ØŃÙĨ	9814
ĠÙĪØ§ÙĦØ¶	7590
ĠÙģØ±Ø§	7272
Ø§Ø¯ÙĦÙĪØ§	7914
ĠØ¢ÙĦÙĩØªÙĨØ§	4416
ĠØ¸Ø§ÙĦÙħ	9677
ĠÙģØ§Ø¹ÙĦ	3253
ĠÙħØ¤Ø°ÙĨ	9467
ĠÙĨØ§ÙģÙĦØ©	9956
Ø°Ø±ÙĥÙħ	2970
Ø³ÙĦÙħ	3469
ĠÙĪØµØ¯	2172
ĠØ§ÙĦØµÙĬØ§Ùħ	6098
ĠØ§ÙĦØ®ÙĨØ²ÙĬØ±	6268
ÙĤØ³ÙħØ§ÙĨ	7345
ĠØ§ÙĦØ¨Ø£Ø³Ø§Ø¡	8543
ĠØŃØ±Ø¬Ø§	9392
Ø³Ø±ÙĪÙĨ	4648
ĠØ¨Ø§ÙĦØµØ¨Ø±	5452
Ø±Ø¨ÙĬ	7122
ĠØ®Ø·ÙĬØ¦Ø§Øª	9849
ĠØ¨Ø¹ÙĦÙħ	3119
ĠØ¨Ø¯ÙĦÙĨØ§	6654
ØªÙĤÙĬÙĨ	917
ĠØ¬Ø²ÙĬÙĨØ§ÙĩÙħ	8909
ĠØ§ÙĦÙħÙĪÙĦÙī	5893
ĠÙĦÙĤÙĪÙħ	669
ĠØ¹Ø³	5744
ĠØ®ÙģØª	3587
Ø§ÙĦÙĥ	2438
ĠØ¯ÙĪÙĨÙĥ	8389
ĠÙĬØ¬Ø§ÙĩØ¯ÙĪØ§	8630
ĠÙħÙĪÙĦØ§ÙĨØ§	9555
Ø¤ÙĦØ¤	4889
ĠØ£Ø±Ùĥ	7239
ÙģØªØŃÙĪØ§	8402
ĠØªØ¨Øª	2318
ĠÙħØ«ÙĦÙĩ	2384
ĠØ£Ø®ÙĬÙĩ	2564
ĠØ¹Ø±Ùģ	5746
ĠÙĥØ§ÙĦÙħÙĩÙĦ	6535
ĠÙĬÙģÙĦØŃÙĪÙĨ	8739
ØªØªÙĨØ§	7181
ĠØªÙĤØ¯ÙĬØ±	6795
ĠØ§ÙĦÙħØ¶Ø§Ø¬Ø¹	7750
Ùī	84
ĠÙĬØ£Ø®Ø°ÙĩÙħ	9727
ÙĪÙĦÙĬ	1925
ĠØ¹Ø§ÙħÙĦ	5409
ĠØ£Ø±ØŃÙħ	5192
ĠØ£ÙĨÙĥ	3552
ĠØ§ÙĦØ®ÙĬØ±Ø§Øª	3051
ĠØ£ÙĨ	105
ĠØ¨ØºÙĬØ§	2998
ØµÙħ	4769
ĠØ¨Ùĥ	658
ĠÙĨÙĪØ±	1959
Ø£Ø³Ø§Ø¡	4721
Ø¶ÙĬÙĨ	4782
ĠØ£Ø®Ø§ÙĨØ§	8652
ĠÙģØ§ØŃÙĥÙħ	4232
ĠÙģØªÙĪÙĦ	6225
ĠÙħØµÙģÙĪÙģØ©	10314
ĠÙĬØ¨Ø¯ÙĬÙĨ	9217
ĠÙĬØ´Ø§ÙĤ	6167
ĠÙĪØ§ÙĦÙħØŃØµÙĨØ§Øª	6376
ĠØ§ÙĨÙĤÙĦØ¨ÙĪØ§	6477
ĠØ²Ø¯	5085
ĠØ³Ø¯Ø±	7678
ĠØ§ÙĦÙħÙĪØªÙī	1796
ĠØ§ÙĦÙħÙĥÙĬØ§ÙĦ	9840
ĠØ§ÙĦØ³Ø¬ÙĨ	3606
ĠØ§ÙĦØºØ§ÙģÙĦÙĪÙĨ	8526
ĠØ£ÙĤØ±ÙĬØ¨	8880
¦	8
Ø±ÙĬÙĤ	3221
ĠØ¨Ø§ÙĦØ³ÙĪØ¡	5468
ÙħÙĬØ©	6213
Ø£Ø®Ø°	2869
ĠØ£Ø³Ø±	2298
ĠÙģØ¹ÙĦØªÙħ	9087
ĠÙĪÙĬØ¤Ø®Ø±ÙĥÙħ	9543
ĠØªÙģØªØ±ÙĪÙĨ	9768
ĠÙĥØ®	5776
ĠØ£Ø·Ø±Ø§ÙģÙĩØ§	9632
ĠÙĬØ¹Ø±ÙģÙĪÙĨÙĩ	10006
ĠÙĬØ£ÙĥÙĦÙĪÙĨ	3381
ĠÙģØ¬Ø¹ÙĦÙĩÙħ	9810
ĠÙĤÙĪØ§Ø±ÙĬØ±	10072
ĠØ·ÙĦØ¹ÙĩØ§	7021
ĠÙĪØ§Ø¯	1755
ĠØ¹Ø§Ø¨Ø¯ÙĬÙĨ	6825
ĠÙĦÙĬÙĪÙħ	2937
ĠØ¹Ø¯Ø§	4726
ĠÙĪØ§ÙĦØ·ÙĬØ¨Ø§Øª	9488
ĠÙĨØ³Ø§Ø¦ÙĩÙĨ	8786
ĠÙģØ£Ø®ÙĦÙģ	7949
ĠØ³ÙĨØ³ØªØ¯Ø±Ø¬ÙĩÙħ	10315
ĠÙĪØ¨Ø´Ø±Ùī	4467
ĠØ¨Ø§ÙĦØ¨	1640
ĠÙĪÙĬØ¨ÙĬÙĨ	7891
ĠÙĪØ£ØŃØ³ÙĨ	2903
ĠÙĪØ¨ÙĨ	6295
ÙģØ¬Ø±	7394
ĠÙĪØ¬ÙĪÙĩÙĥÙħ	3800
ĠØ¬ÙĩØ²	7774
ĠØ¨Ø§ÙĦÙħØ¤ÙħÙĨÙĬÙĨ	3826
ĠØ£Ø´ØªØ§ØªØ§	8793
ĠÙĬØªØ¨ÙĬÙĨ	6117
ĠØ£Ø¹Ø¬Ø¨ØªÙĥÙħ	9501
´	21
ĠØ£ÙĨØ´Ø£ÙĥÙħ	4500
ĠÙĬØ·Ø¹	3113
ĠØ±Ø²ÙĤÙĩ	5232
ĠÙĦÙĬØ²	6052
ĠÙĪØ£ÙĦÙĤ	1870
ĠØ§ÙĦØ³ÙĦØ§Ùħ	4135
ĠØ§Ø«ÙĨØªØ§	10161
ĠØ°Ø±ÙĩÙħ	9493
ÙĬÙħÙħÙĪØ§	5927
ĠÙĪØ·Ø¨Ø¹	9192
ĠÙĥÙĬØ¯ÙĬ	9255
ĠØ§ÙĦÙħØ¤ÙħÙĨÙĪÙĨ	1400
ĠÙĬØ³Ø±	2188
ÙĪØ§Ø±	2456
ĠÙĪØ§ÙĦØ²	4057
ĠÙĪÙĤØªÙĦÙĩÙħ	10103
ĠØ£ÙĬÙħØ§ÙĨÙĥÙħ	1914
ĠØ°ÙĦÙĥ	233
ĠØ£Ùĩ	361
Ø³ÙħØ§	2058
ØŃ	76
µ	22
ØªÙĤÙī	7183
ĠØªØ°Ùĩ	7478
ĠØŃÙĬÙĨ	1139
Ø¶Ø¹ÙģÙĬÙĨ	5323
ĠÙĪÙĬØ£ÙħØ±ÙĪÙĨ	5388
ĠØ§ÙĦÙħØ§ÙĦ	4842
ĠØ§Ø®ØªÙĦÙģÙĪØ§	2828
ĠØ§ÙĦÙĬØªØ§ÙħÙī	4453
Ø²ÙĪÙĨ	1189
ÙĩÙĪ	261
ĠÙĪØ§ÙĦÙħÙĨØ§ÙģÙĤØ§Øª	4574
ĠÙĥØªØ¨ÙĨØ§	6609
ĠØ§ÙĦØ°ÙĨ	5848
ĠØ§ÙĦØ£ÙĥÙħÙĩ	7819
ĠÙĤØ¶ÙĬ	2878
ĠÙģØ§ÙħØ³ØŃÙĪØ§	8206
ĠØ¥ØŃ	1774
ĠØªÙĩØªØ¯ÙĪØ§	9945
ĠÙĦÙĨØ§	556
ĠØ°Ø±Ø£ÙĥÙħ	10030
ØªÙħÙĪÙĩ	2699
ĠØ§ÙĦØ®Ø³Ø±Ø§ÙĨ	8426
ĠÙĪØŃØ¯Ùĩ	3758
ĠØªÙĤ	578
ĠÙĪÙģØ§	4613
ĠØ¢ÙĦÙĩØªÙĥÙħ	5276
Ø§ÙĦ	51
ĠØ¹ÙĤØ¨ÙĬÙĩ	6889
ĠØ§ÙĦÙĨØ¨ÙĬÙĪÙĨ	8941
ĠÙĬØ³ÙħØ¹	2646
ĠØªØ®Ø§Ùģ	3322
ÙĨØ²ÙĬØ±	4578
ĠÙĪØ¥ÙĨ	210
ĠØ²Ø§Øº	5087
ĠØ£Ø¹ÙĬÙĨÙĩÙħ	3853
ØŃØ³Ø§ÙĨ	3507
Ø¬ÙĬÙĥÙħ	5774
ÙĩØ§ÙĥÙħ	5810
ĠÙĪØ²ÙĬÙĨØªÙĩØ§	6840
Ø²ÙĤÙĪÙĨ	7571
ĠÙĤØ±ÙĪÙĨØ§	7536
ĠÙģÙĩÙĦ	1382
ĠØ¹ÙĦØ§Ùħ	4729
ĠØ®Ø²ÙĬ	3586
ĠÙħÙģØµÙĦØ§	9741
ĠÙĪÙĬÙĪÙħ	869
ĠÙĪØ¹	366
ĠÙĪØ§ÙĦÙħØ¤	4314
ĠÙħÙħÙĨÙĪÙĨ	5256
ĠÙĦØ¹ÙĦÙī	6438
ĠØ§ÙĦØ£Ø¹Ø±	2500
ĠÙĪÙħØ£Ø¬ÙĪØ¬	8436
ĠÙħØ³	454
ĠØ¨Ø¢ÙĬØ§ØªÙĨØ§	747
ĠÙĪØ£Ø±Ø¬ÙĦÙĥÙħ	5489
ĠÙĥØ£ÙĨÙĩØ§	6637
ĠÙĤØ±Ø§Ø±	4765
ĠÙĪØµØ¯ÙĪØ§	3862
Ø®	96
ĠØ´ÙģØ§	4873
ĠÙĥÙĦØ§Ùħ	5780
ĠØŃÙĤÙĩ	6549
ÙĪØ¶Ø©	5576
ĠØ£ÙģØ¦Ø¯Ø©	10000
ĠÙĪØ£ÙĤÙĬÙħÙĪØ§	2338
Ø§Ø¡ÙĨØ§	1792
ĠÙĬØ³ØªØ¬ÙĬØ¨	6281
ĠÙĪØ§Øª	517
ØŃØ¯Ø§	7404
ĠØ±Ø¶ÙĪØ§ÙĨÙĩ	9602
ĠÙĪØ£Ø·Ø¹ÙĨØ§	3572
ĠÙħØªØ±Ø¨Øµ	8801
ĠØ§Ø®	1299
ĠØ¨ÙĬÙĨØ©	1988
Ø§ØŃØ¨Ùĩ	9190
ĠØ£ÙĦÙĬ	1216
ĠÙĬÙĨØ§Ø¯	4507
ĠØ¥ÙĦÙĬÙĩÙħ	945
ØŃØªÙĪÙĨ	4716
ĠØªØ¨Ø¯ÙĦ	9357
ĠØ¨Ø§ÙĦÙħØª	7851
ĠÙģÙĥØ°Ø¨Øª	9337
Ø¯ÙĩÙĨ	3956
ĠØ£ÙħØ«Ø§ÙĦ	2928
Ø§Ø®	1004
ĠØ¨ÙĥÙħ	988
ĠÙĬÙĪÙħÙĩÙħ	4191
ĠØ¶ÙĬÙģ	6229
ĠØ£ÙģÙĨ	8303
ĠØ±Ø´	2678
ĠÙĥ	87
ÙĬÙĨÙĩ	5706
ĠØ£ÙĥÙĨ	4290
ĠØ«ÙĤ	2352
ĠÙħØ¤ÙħÙĨØ§Øª	5632
ĠÙħØªØ§Ø¹Ø§	3364
ĠÙĦÙĦÙħØªÙĤÙĬÙĨ	1664
ĠÙĪØ£Ø¹Øª	2695
ĠØ§ÙĦÙĥØ¨Ø±Ùī	3859
ĠØ¥ÙĨÙĨØ§	4051
ĠÙĥØ§Ø°Ø¨Ø©	9800
ÙĩÙĬØ¯	5580
ĠØ³Ø±Ø§	1961
Ø²Ø¹	1632
ĠÙĬØ¸ÙĦÙħ	3979
ØµÙĬ	3539
ĠÙĦÙħØ³ÙĥÙħ	8097
ĠÙĨÙģØ³ÙĩØ§	8574
ĠØ¹Ø±ÙģÙĪØ§	7447
Ø´ÙĬØ¡	2257
ĠÙĪØ¢ØªØ§ÙĥÙħ	8622
ÙħØ±Ø§	3422
ĠØ¨Ø±ØŃÙħØªÙĥ	10154
Ø¹Ø¬	1242
ĠÙĪÙĩØ§ÙħØ§ÙĨ	5356
ĠÙĪØ§ÙĦØ£ÙĪÙĦÙī	6143
ĠÙħØ¹ÙĨØ§	3646
ĠØºØ¯	4959
ĠÙĪÙĦØ£Ø¬Ø±	9334
ĠØ¢Ø«Ø§Ø±	9656
ĠØµØ§Øº	6037
ĠØ£ØŃØ¯ÙĩÙħØ§	5229
ÙĬØªÙĨØ§	6309
ĠØ§ÙĦØ°ÙĦ	5847
ÙģÙĩØ§	3504
ĠØ¨Ø§Ø¡	7353
ĠØ·ØºÙĬØ§ÙĨÙĩÙħ	4572
ĠØ¯ÙĪÙĨÙĩÙħ	5078
ĠØ£ÙħØ«Ø§ÙĦÙĩÙħ	9668
ĠÙĪØªØ±Ùĥ	2536
ĠØ§ÙĦØ±ØŃÙĬÙħ	374
ĠØªØ´ÙĩØ¯ÙĪÙĨ	6484
ĠÙĪØ·Ø§Ø¦ÙģØ©	6652
ĠÙĪØ£ÙĦÙĤÙī	6753
ĠÙĪØ¹Ø´ÙĬØ§	5067
ĠÙĬØ¶Ø±Ø¨ÙĪÙĨ	6879
ĠÙĬØªØ±Ø¨ØµÙĨ	10118
ĠØ§ÙĦØ²ÙĤ	7130
ĠØ§Ø¦ØªÙĪØ§	9382
ĠØªØ¨ØªØºÙĬ	9531
ĠØ¨ÙĪØ£	7377
ĠØ§ÙĦÙĤ	194
ĠÙħÙĥÙĨÙĪÙĨ	6501
©	11
ØªÙĬØªÙħ	8061
ĠØ§ÙĦÙĤÙĪØ§Ø¹Ø¯	7997
Ø§Ø¨ÙĩÙħ	4810
ĠÙĤÙħÙĬØµÙĩ	4564
ĠÙħÙĬØ«Ø§ÙĤ	1604
ĠØ¹ÙĦÙĬÙĩÙĨ	2341
Ø¤Ùħ	1323
ĠÙĦÙĨÙģØªÙĨÙĩÙħ	10298
Ø¨Ø¯ÙĬ	8085
ÙĬØ±ÙĪØ§	1634
ÙĪÙĩÙĨ	861
ĠØ«ÙħØ§ÙĨÙĬØ©	6970
ĠØ´ÙĩØ§Ø¨	7806
ĠÙĤÙĪ	650
ÙĩÙĨÙħ	590
ĠÙĩØ¯Ùī	973
ĠØ±Ø¬ÙĬÙħ	5173
ØµÙĪØ±Ø§	7552
ĠÙĦØ¹ÙĨØ§	8754
ĠÙħØªÙĥØ¨Ø±	8800
ĠØ¬Ø§Ø¹ÙĦ	9710
ĠØ¹ØµÙĪØ§	6618
ØªØ¨ÙĪÙĨ	3001
ĠÙģØ®Ø°	2855
ĠÙĪØ§ÙĦØ¹Ø§	4058
ĠÙĪÙĤØ§ØªÙĦÙĪØ§	4164
ĠØ¨ÙĦØºÙĨ	9302
ĠÙħØ±Ø¶	1239
ĠØ³Ø£ÙĦØªÙĥÙħ	10165
ĠÙģØ³ÙĪÙī	8668
ĠÙĪØ§ÙĦÙĬØ³	7604
ØªØ¯	2442
ĠØ¨ÙĤÙĪØ©	3807
ĠØ§ÙĦØ£Øµ	5935
ĠÙģØ£ÙĨØ¬ÙĬÙĨØ§	8907
ĠØ´Ø¦	1878
ÙħØ©	471
ĠÙĦØ´	2644
ĠÙħÙĨØ«	7427
ĠØªØ¹ÙħÙī	7495
ĠÙĬØ±ÙĬÙĥÙħ	4687
ØªÙħÙĪÙĩÙħ	2911
ĠÙĪÙĨØ¹Ùħ	5029
ĠÙĪÙĤÙĪÙħ	1465
ĠÙĪÙĨØ³Ø§Ø¡	3674
Ø¹ÙĩØ§	5636
ĠØ¨Ø§ÙĦØŃÙĬØ§Ø©	6930
«	13
ĠÙĨØ³	692
ĠØ®Ø²Ø§Ø¦ÙĨ	3407
ĠÙģÙĦÙĬÙħ	5670
ĠÙħÙĨØ§Ø²	7429
ĠØŃØ³Ø¨Ùĥ	9296
ĠØ§ÙĦØ´Ø¬Ø±Ø©	3276
ÙĩØ¯ÙĬÙĩÙħ	6391
ĠÙĦÙĦØ®ÙĬØ±	8144
ÙĦÙĬØ©	2672
ĠØ£Ø®Øª	6382
ĠØ±Ø²ÙĤÙĥÙħ	3021
ÙĬÙĦØ©	3658
ÙĦÙĤÙĬ	4160
ĠÙĪØ§Ø¨ØªØº	4435
Ø±Ø§Ø¬Ø§	7833
ÙģÙĬØ§	7392
ĠÙĪÙĬØ¹ÙħÙĦ	7898
ĠØ£ÙħØ§	1759
ØŃÙĤÙĨÙĬ	8583
ĠÙĪØ§Ø³ØªØºÙĨÙī	8984
ĠØªÙĤØ¯	2195
ĠÙĦÙĦØºÙĬØ¨	10122
ĠÙĦØ¨Ø«ÙĨØ§	9404
Ø«ÙħÙĪØ¯	2146
ĠÙĪØ§	263
ĠÙĥØ§Ø°Ø¨	3900
ĠØªØ±ÙĥØªÙħ	9189
ĠØ°Ø§ÙĤÙĪØ§	9234
ÙĪØ§ØµÙĪØ§	4699
ĠÙĩÙĨÙĬ	4814
ĠØ®ÙĦØ§ÙĦÙĩ	9664
ĠÙĪØªÙĪÙĦÙī	3247
ĠØ§ÙĦÙĤØµØµ	5493
ĠÙģÙĩÙĪ	1183
ĠÙĬØ¨Ø³Ø·	2575
ĠÙĦØ±	3965
ÙħÙĪÙħØ§	7098
ĠØ£Ø¬Ø¹ÙĦ	6254
ĠØ£Ø¹Ø¬Ø§Ø²	9500
ÙĬØ¯Ø§	855
ÙĦÙĪÙħ	5558
ĠÙħÙĤØ§ÙĦÙĬØ¯	10190
ĠÙĪØ§ÙĦØŃØ±	7595
ĠØ¹ÙĦÙĬÙĥ	735
ĠÙĬØŃØ¨	892
ĠÙĦØ¦ÙĨ	1184
ĠØŃØ±ÙħÙĨØ§	3770
ĠØ¨Ø¯ÙĬÙĨ	5713
Ø±Ø´	1177
Ø£ÙĬ	665
ĠØ³ÙĬØ¯	7659
ĠÙĥØ°ÙĦÙĥ	554
ÙħØ§	82
ĠÙģÙĥØ°Ø¨ÙĪÙĩ	3055
ĠÙĥÙģÙī	4033
ĠØ¨ÙĨØ¨Ø¥	9180
ĠØ°ÙĪÙĬ	7860
ĠØ£ÙĨÙģØ³ÙĩÙħ	624
ÙĤØªÙĩØ§	8463
ĠØªØ¯Ø¹ÙĪÙĩÙħ	5477
ÙĤÙģØ§	7338
ĠØ·ÙĪÙī	8270
ÙĦØ§Øª	3519
ĠÙĪØ£ÙĨØ¨ØªÙĨØ§	6203
ĠØ¢ÙĦÙĦÙĩ	9088
ĠÙħÙĪ	286
ĠÙħÙĦÙĤÙĪÙĨ	7216
ĠÙĪØ§ÙĦÙģØ¶Ø©	9648
Ø§Ø¡ÙĥÙħ	1704
ĠÙĦØªØ¨ÙĦØºÙĪØ§	8571
ĠÙĨÙĥÙĬØ±	4405
ĠØ¨Ø§Ø·ÙĦØ§	10062
ĠØ£Ø¸ÙĨ	6995
ĠØ³ÙĤÙĬÙħ	7666
ĠØ£ÙĨØ¤ÙħÙĨ	5830
ĠØªØ£ÙħØ±	5138
Ø§Ø¹ÙĤØ©	3880
Ø±Ø¬	520
ĠÙĪÙĬØ®Ø§ÙģÙĪÙĨ	6833
ÙĬØ¯ÙĥÙħ	7915
ĠØ¸ÙĨ	1817
Ø¶ÙĨ	5811
ĠÙĨØªÙĪÙģÙĬÙĨÙĥ	6890
ĠÙĥØ±Ùĩ	2583
Ø§ØªÙĦÙĪÙĥÙħ	3054
ĠØ§ÙĦØ¹Ø¨Ø§Ø¯	7963
ĠØ±Ø¬	621
ĠÙģØ§Ø¯Ø¹	4497
ĠÙĬØ¶Ø¹ÙĨ	6565
ĠØ§ÙĦÙĪØ§Ø±Ø«ÙĪÙĨ	9345
ĠØ§ÙĨØªÙĤØ§Ùħ	5499
ĠÙģØ®Ø°ÙĪÙĩÙħ	9635
ĠÙĩÙĪÙī	8075
ĠØ¶Ø¹ÙĬ	5059
ĠØ®ÙĦÙĤÙĨØ§ÙĥÙħ	3034
ĠÙħÙĥØ§ÙĨØ§	2831
ĠÙĤØ§Ø¦ÙĦ	6707
ĠÙģÙĬÙĩØ§	257
ĠØªØ´ÙĤÙĤ	8834
ĠÙģØ²Ø§Ø¯ÙĩÙħ	9912
ĠÙĪØ§ÙĦØ°Ø§	5835
ĠÙĬÙĦØ¨	2860
ÙģØ¶ÙĦ	7398
Ø²Ø§	1954
ÙĩØ¯ÙĨØ§	6042
ĠØ£ÙĦÙĬÙħØ§	2031
ØŃØ´Ø§Ø¡	3365
ĠØŃØ°Ø±ÙĥÙħ	7761
ĠÙħÙģØªØ±Ùī	9804
ĠØ£Ø²ÙĪØ§Ø¬Ùĩ	8959
ĠÙĨØµØ±ÙĨØ§	9206
ĠÙĬØ¬ØŃØ¯ÙĪÙĨ	3309
ĠØ±Ø£	906
Ø¶ÙĬØ§	5814
ÙĦÙĪØ§	216
ĠÙĦØŃ	1940
ĠÙĬØ®ÙģÙģ	3290
ĠÙĪØ£ÙĨØ´Ø£ÙĨØ§	8266
ĠØ§ÙĦØ®ÙĪÙģ	5090
Ø´Ø±Ùĥ	507
Ø¦ÙĨØ©	7704
Ø³Ø±Ø§	3470
ĠØ´ÙĥØ±ØªÙħ	9967
ĠØ®Ø±Ø¬ÙĪØ§	4516
ĠØ§ÙĦØ£ØµÙģØ§Ø¯	10260
ĠØªØ¨Ø¯ÙĬÙĦØ§	4481
ĠØ³ÙĬØ±	4069
ĠÙĪØŃÙĬØ«	8820
ĠØ£Ø¨ÙĦØº	2851
ĠØ£ÙħØ±	506
ĠØ§ÙĦØ±Ø¨Ø¹	7909
ĠØ£Ø´Ø±ÙĥØªÙħ	9199
ĠÙģØ£ØµØ¨ØŃÙĪØ§	2818
Ø¯ÙĬØ«	3467
º	27
ØºÙģØ±	442
ĠØ¢Ø¨	842
ĠÙĨØ±Ø§Ùĥ	4805
ĠØ¶Ø±Ø§	2747
ĠÙħØ±Ø³ÙĦ	5630
ĠÙĪÙĦØ¯Ø§Ø±	9148
ĠØ¨ÙĪÙĦ	7354
ĠØªØ¬ÙĩØ±	8580
ĠØ¹Ø§ÙĦ	1504
ĠÙĬØ±ÙĪÙĨÙĩØ§	9477
ĠØ³Ø¨	1089
ĠØ£ØŃØ§Ø·	5020
ĠØ¬ÙĨ	1252
ØŃØ³Ø¨ÙĪÙĨ	7412
ĠÙħÙĤØ¶ÙĬØ§	9511
ĠØªØ¬Ø²ÙĪÙĨ	2771
ĠØ§ÙĦØ¨Ø´Ø±	8539
ĠØ§ÙĦØ³ÙģÙĩ	4137
ĠØ£Ø°ÙĤÙĨØ§	5342
ĠØ£Ø³ÙĪØ£	8682
ĠÙĪØ¬ÙĪÙĩ	1120
ĠØ¨Ø¦Ø³ÙħØ§	6865
ĠØªØŃØ²ÙĨÙĬ	9432
ĠØµØ§ØºØ±ÙĪÙĨ	10107
Ø¬Ø¹	795
ĠØªØ³Ø¨ÙĤ	10220
ĠÙĪÙħØ³ØªÙĪØ¯	8437
ĠÙĤÙĬØ§Ùħ	7531
ÙĬÙĤØ§Øª	3072
ĠÙģØ¥Ø°	7993
ĠØ¹Ùħ	628
ĠÙģÙĪÙĦÙĪØ§	7281
ĠØŃØ±ÙħØª	6513
ĠØ§ÙĦØ³Ø¨ÙĬÙĦ	1213
ĠØ·ØºÙĬ	4240
ĠÙĨÙģØ±ÙĤ	6891
ÙĤØ¨Ø©	3985
ĠØ¨Ø¸ÙĦØ§Ùħ	4563
ĠÙĨØ³Ø§Ø¡ÙĩÙħ	6454
ÙĦÙĪØ§Øª	4964
ĠØ£ÙģÙĩÙħ	8304
ĠØŃØ¬ØªÙĩÙħ	9207
ĠÙĬÙħÙĬØªÙĥÙħ	5502
ĠÙģØªÙħÙĨÙĪØ§	8320
ĠÙĪØ£Ø¨ÙĨØ§Ø¤ÙĥÙħ	10081
ĠÙĪØ¶Ø§ÙĤØª	10186
ĠÙĦØªØ£ÙĥÙĦÙĪØ§	10305
ĠØ§ÙĦÙħØ³Ø±ÙģÙĬÙĨ	3178
ĠØ¨ÙĨÙĬØ§ÙĨÙĩÙħ	8821
ĠØ§Ø«ÙĨÙĬÙĨ	2602
ĠØªØªÙĦÙĪ	5120
ĠØŃÙĨÙĬÙģØ§	2609
ĠØ¨ÙĨØ§	2653
ĠØ¹Ø±Ø¨ÙĬØ§	3065
ĠÙĬØªÙĪÙĦÙī	6119
ĠØŃØ¯	1090
ÙģÙĤÙĪØ§	1134
ĠÙĪØ§Ø³ØªØºÙģØ±	2147
ĠØ¬Ø§Ø¡ÙĨÙĬ	6161
ĠØ¢ÙĬØ§ØªÙĥ	6269
ĠØ¨ÙĬØ§Øª	5709
ÙĨØ¨Ø¦	7085
ĠÙħÙĨØªÙĤ	5741
Ø¶Ø¹	1510
ĠØ¹Ø§Øµ	3517
ÙħÙĨÙĥÙħ	4045
ĠØ±Ø£ÙĬØªÙĩÙħ	4553
Ø¹Ø°Ø¨Ùĩ	7231
ĠØ£Ø¨ÙĨØ§Ø¡ÙĥÙħ	5392
ĠÙĪØ§Ø³Ø¬Ø¯ÙĪØ§	9172
ĠÙħØ®ÙĦØµ	3938
ĠØ²ÙĬÙĨØ§	5086
ÙĦØ§Ø©	659
Ø¶Ø±Ø©	6469
ĠÙĨØªØ®Ø°	4806
Ø£Ø®Ø±ÙĪÙĨ	3509
ĠÙĬØ£ØªÙĬÙĩ	5212
ÙħØ£ÙĨ	5565
ĠØ§ÙĦØ²	863
Ø´ÙĪØ±	5825
ĠØ¨Ø³ØŃØ±	3796
ĠÙħÙĪØ«	6153
ĠÙģØ·Ø±ÙĨÙĬ	6844
Ø£Ø±ÙĪÙĨ	7417
ĠÙĥÙģØ§Ø±Ø§	7522
ĠØªØ´ÙĥØ±ÙĪÙĨ	1599
ĠØ£ÙĩØ¯	7233
ĠØ¨Ø¹Ø¨Ø§Ø¯ÙĬ	6800
ĠÙĪØ§Ø¹ÙĦÙħÙĪØ§	1647
ĠÙĪØ¨Ø§Ø·	8482
ĠÙģØ§Ø³ØªÙĥØ¨Ø±ÙĪØ§	4382
ĠÙĦØ´Ø±Ùĥ	7306
ĠØ¥ÙĨÙĩ	372
ĠØ§ÙĦØµØ§Ø¯ÙĤÙĪÙĨ	8088
ĠÙħØ±Ø©	2009
ĠÙģØ®ÙĦÙĤÙĨØ§	10169
ĠØ¨Ø£Ø¹ÙĦÙħ	8289
ĠØ£Ø«ÙĤØ§ÙĦ	5343
ĠØ²Ø¹Ùħ	2972
ĠÙģÙĥØ§ÙĨÙĪØ§	4469
ĠØ°ÙĪÙĤÙĪØ§	3033
ØªÙĩÙĨ	2443
ĠÙĪØ¹Ø¯ÙĨØ§	4326
ĠÙħÙĥØ§ÙĨÙĩ	6650
ÙĪÙħØ§	2833
Ø§Ø±ÙĩØ§	4912
ĠØ§ÙĦØ£ÙħÙĨ	7808
ĠÙĦÙħØ¤ÙħÙĨ	8092
ĠØ§ÙĦØ¢Ø®Ø±	897
ÙĥØ±ÙĬØ§	3211
ĠØ³Ø¯Ø§	5855
ÙĦÙĪÙĨÙĩ	7928
ĠØ§ÙĦØŃÙĦÙħ	7930
ĠØªØµØ·ÙĦÙĪÙĨ	8967
ĠØªÙħØª	2468
ĠØ¹Ø¨Ø§Ø¯Ùĥ	3317
Ø²ÙĨÙĬ	5821
ĠÙħØºØ±Ùħ	9747
ĠÙĥÙĬÙģ	701
ĠØ§ÙĦÙħØºØ±Ø¨	7745
ĠØ¸ÙĩØ±Ùĩ	9618
ĠØ§ÙĦØ´ÙģØ§Ø¹Ø©	4257
ĠÙĪØ£Ùĥ	1794
ĠÙĥØ¨ÙĬØ±Ø©	9420
ĠØ¨ÙĬØ¯Ùĥ	9818
ĠØ§ÙĦØ±ÙĪØŃ	4142
ÙħØª	707
ĠØªØ®Ùģ	2131
Ø¡ÙĪØ§	4887
ĠØ§ÙĦØ¬ÙĨØªÙĬÙĨ	8284
ĠÙĦÙħÙĬÙĤØ§Øª	6102
Ø£ÙĥÙĦ	6792
ĠÙħÙĬÙĤØ§Øª	4628
ÙģÙĬØ±	7390
ĠØ§ÙĦØ¨ÙĬÙĨØ©	7136
ÙĤÙĦØ¨ÙĪØ§	3035
Ø¸ÙĨÙĥ	4880
ĠÙĨØ¬Ø¹ÙĦ	2331
ĠÙģÙĥÙģØ±ÙĪØ§	6381
ĠÙĦØ¶Ø§ÙĦÙĪÙĨ	10196
ÙģØ±Ø©	5926
Ø§ÙĩØ¯ÙĪÙĨ	6465
ĠÙĪÙģØ±	1754
ĠÙĪØ§Ø¬ØªØ¨	9722
ĠØªØŃØ²ÙĨÙĪØ§	6771
ĠÙħÙĪØ§Ø²ÙĬÙĨÙĩ	3854
ĠØ¹Ø§ÙĩØ¯ÙĪØ§	4732
ÙĦØ¨ÙĪÙĨ	5134
ĠÙĤØ¯Ø±	2232
ĠØ§ØºÙģØ±	3302
Ø¸ÙĦÙĦ	7830
ĠÙĦØ³ÙĨØª	10055
ĠÙģØ§ØªÙĤÙĪØ§	1738
ĠØ£ØŃØ³ÙĨÙĪØ§	4390
ĠÙĪØ·Ø¹Ø§Ùħ	6651
ĠÙĨÙĥØ°Ø¨	9033
ØŃÙĬÙī	6441
ÙĪØ§Ø¯	4697
ĠÙĬØ³ØªØ¨Ø´Ø±ÙĪÙĨ	4287
ĠÙģØ¹ÙĦÙĬÙĩ	5257
ĠØºÙĦÙĬØ¸Ø§	6873
ĠÙĬØ®Ø§Ø¯Ø¹ÙĪÙĨ	8468
ĠÙĪØ§ÙĦÙģØŃØ´Ø§Ø¡	9649
ĠØ§ÙĦØŃØ¬Ø±	4918
Ø³Ø¨	296
ØºØ±ÙĤ	3349
ĠØ±Ø§Ø¨	4776
Ø¤ÙĩÙħ	7842
ĠØ§Ø°ÙĩØ¨ÙĪØ§	8015
Ø°ÙĬÙĨ	236
ĠÙĪØ£ÙĪØŃ	2208
ĠÙħØ·	3088
ĠØ£ÙģØ£ÙĨØª	3861
Ø§Ùĩ	762
ĠÙħØ§Ùĥ	7655
ĠØ¬Ø¹ÙĦ	756
Ø³ÙħØ§ÙĨ	7263
ĠÙĪØ§Ø¯Ø¹ÙĪØ§	5371
ĠØ§ÙĦØ£Ø³ÙĪØ§	7814
ØªÙĬÙĩÙħ	1368
ĠÙħØ²Ø§Ø¬ÙĩØ§	9920
ØªÙħ	131
Ø¨ÙĬ	203
ĠØ¢Ø«Ø§Ø±ÙĩÙħ	3888
ĠÙĪØªØ¹Ø§ÙĦÙī	3249
ĠÙĦÙĨÙģØª	8373
ĠÙĦØ±Ø¡	3970
ĠØ§Ø¦ØªÙĨØ§	5382
ØµØ±ÙĪÙĨ	813
ĠÙĬÙģØ³	2450
ÙĦÙĪÙĩØ§	5559
ĠÙģØ¦Ø©	3108
ĠØ±Ø¨ÙĨØ§	477
ĠØªØŃÙĥÙħ	3689
ĠØ°Ø§	1461
ĠØ±Ø²ÙĤ	839
ĠÙĪØ±Ø¨Ø§Ø¹	8969
ĠÙĪÙĥØªØ¨ÙĨØ§	9868
Ø·Ø§Ø³	6472
ĠÙĪØ´ÙģØ§Ø¡	10185
Ø¦ÙĪØ§	5866
ĠØ¸Ø§ÙĦ	2955
ÙĨØ§Ùĩ	924
ĠÙĪÙĬØ²ÙĬØ¯ÙĩÙħ	4556
ĠØ¹ÙĩØ¯Ø§	5360
ĠÙĤØ¨ÙĦÙĬ	6448
ÙĩÙĬÙĨ	1424
ĠØ§ÙĦØ´ÙĩØ¯Ø§Ø¡	8355
ĠØ§ÙĦØ¨ÙĨÙĪÙĨ	8540
ĠÙĪØ£ØŃØ³ÙĨÙĪØ§	9659
Ø³Ø¨ÙĪÙĨ	1205
ĠÙĪØ§ÙĦØ¢Ø®Ø±Ø©	1567
ĠØ¢Ø°ÙĨ	5870
ĠØ¥ÙħÙĦØ§ÙĤ	7386
ĠØ±ÙĩØ·	9832
ĠÙĪÙĬØ«Ø¨Øª	5987
ĠØ·Ø§Ø¹Ø©	6208
ĠØ§ÙĦØµØ§Ø¨Ø±ÙĪÙĨ	8090
ĠÙĬÙĨØ§Ø¯ÙĬÙĩÙħ	5532
ØŃÙĩ	4713
ĠÙģØ¶ÙĦÙĪØ§	6494
ĠÙģØ§Ø³ØªØºÙģØ±	6537
ĠÙĦÙĬÙĤØ·Ø¹	9674
ÙĪÙĨÙĥ	2460
ĠÙĬØµÙĬØ¨	3327
ĠØ§ÙĦØ£ÙĬÙħØ§ÙĨ	7813
ĠØ§Ø³Ø¬Ø¯ÙĪØ§	3828
ĠØ§ÙĦØª	881
ØµÙĦØ¨ÙĨÙĥÙħ	7003
Ø¨Ø±	245
ĠØ§Ø¯Ø§Ø±Ùĥ	8943
ĠØ¢ØªÙĬØ©	9144
ĠØ´Ø¹ÙĬØ¨Ø§	3384
ÙĨØ§ÙĩÙħ	577
Ø«Ø§ÙĨØ§	7699
ØŃØ±	415
ĠÙĨØ¹ÙħØªÙĥ	8848
ĠÙħØŃÙĦÙĩ	9070
ĠØ¨Ø§ÙĦØ³ÙĨ	7848
Ø³Ø±ÙĬÙĨ	1473
ĠØ¹ÙħÙĬ	4727
ĠÙĥØ±ÙĩØ§	4376
ĠÙģØ±Ø¬Ø¹	8444
ĠØ£ÙģÙĪØ§Ø¬Ø§	8310
ÙĩØ¨Ø§	4594
ĠÙĦØ¹	672
ĠÙĦØ£	444
Ø§Ø¦ÙģØ©	6090
ØµÙģ	2199
Ø·Ùī	4820
ĠØ£Ø¶	1934
ÙĤ	67
ĠÙĪØ§ÙĦÙĦÙĩ	258
ĠØ¨Ø¶Ø¹	7375
ĠØ³ÙĦÙħØ§	7668
ĠØ³Ø¨ÙĤÙĥÙħ	9795
Ø§ÙĨØ§	1923
ĠÙĪØ£Ø´Ø±	7716
ĠØ£ÙĩØ¯Ùī	3463
ĠØ£Ø¨ÙĨØ§Ø¡ÙĩÙħ	4493
ĠØŃÙħÙĦØª	8841
ĠÙģÙħØ§	531
ĠÙĪØ°Ø§	5597
Ø§Ø¡	120
ĠÙĨÙĤØ±	7624
Ø£ÙĦÙĪÙĨ	1279
ĠØ§ÙĦØ´ÙĩØ±	5066
ĠÙĩØ¯ÙĬÙĨØ§	6867
ÙĪØ§ØªÙĩÙĨ	8177
ĠÙħØ±Øµ	8504
ÙĪÙĥÙĬÙĦ	3718
ĠØ§ÙĦÙħØ¤ÙħÙĨØ§Øª	3177
ĠØ³ÙĦÙħ	5852
ĠÙĪÙĦÙĩÙħ	888
ĠÙĥØ§ÙĦØ¹	6533
ĠÙĬØ£Ø®Ø°	3269
ĠØ£ÙĦÙĨ	6744
ĠÙģØ§ÙĦÙĤ	8899
ĠØ¥ÙĨÙħØ§	453
ĠÙħØ±ÙĬØ©	3936
ĠÙģØ®ÙĪØ±	6807
ĠØªØ±Ø¬Ø¹	3260
ĠØ§ÙĦÙģØ§ØŃØ´Ø©	4427
ĠÙħÙĨÙĩÙĨ	3129
ĠÙĬØ®Ø²ÙĬÙĩ	6978
ĠØ±Ø¢ÙĩØ§	9703
ĠØ¥ÙĦÙĩÙĩ	8586
ĠÙĪÙĩØ§Ø¬Ø±ÙĪØ§	5357
ÙĦØ§ÙĩØ§	4739
ĠØ§Ø¨Øª	4351
ĠØŃØ§Ø¶	4858
ĠØ¨Ø¶Ø§	5721
ĠÙħØ¨ÙĬÙĨØ©	6363
ĠØªÙĨØ²ÙĦ	2993
ĠØ³ÙħØ§Ø¹ÙĪÙĨ	5440
ĠØŃØ³	734
ĠÙģØ£Ø±Ø³	6008
ĠÙĬÙĦÙĤØ§ÙĩØ§	6734
ØµØªÙĪØ§	7553
ĠØ§ÙĦØŃØ³ÙĨÙī	2164
ĠÙĪØ§Ø¨ÙĨ	3041
ĠØµÙĪØ±ÙĥÙħ	7988
ĠØ±ØŃØ¨Øª	8628
ĠØ£ÙģØ¨Ø§ÙĦØ¨Ø§Ø·ÙĦ	10297
ĠÙĪÙħØ¹ØµÙĬØª	10040
ĠÙĬØ¬Ø¹ÙĦ	1596
ĠÙĨØ´Ø§Ø¡	1602
ĠØ£Ø¦ÙĨÙĥÙħ	5501
ĠØ£Ø¨ØµØ§Ø±ÙĩÙħ	2824
ĠØ§ÙĦØ²Ø¨Ø±	8897
ĠØŃØªÙī	382
Ø²ÙĬÙĦ	2326
ĠØ§Ø³ØªØŃ	4303
ĠÙħØ³Ø¬Ø¯Ø§	8520
ĠÙĪØ¨Ø«	6296
ĠÙĪØºØ¶Ø¨	5462
Ø³ØŃØ§Ø±	9214
Ùĥ	56
ÙĬØ©	336
ĠÙĪÙĬØ·	4898
Ø«Ø§	2336
ĠØ£ØŃØ¯ÙĥÙħ	3341
ĠØ§ÙĦÙħØ´Ø£	5895
ĠØ£Ø²ÙĪØ§Ø¬ÙĩÙħ	4385
ĠØŃÙĬ	4850
ØŃØ¯Ø©	7407
ĠÙħÙĨ	79
ĠØªØ¹Ø¯ÙĪÙĨ	7484
ĠØ£ÙĤØ³ÙħÙĪØ§	9503
ÙħØ¯Ø§	7093
ĠØªØ´Ø±Ø¨ÙĪÙĨ	10218
ĠØªØ³Ø£ÙĦÙĩÙħ	5207
ĠØ£ÙĬØ¯ÙĬÙĩÙĨ	6942
ĠØ§ÙĦØ¶	2441
ÙĨØ³Ø§Ø¡	5115
ĠØµØ¯ÙĤ	2130
ĠØ£Ø¬Ø±Ùĩ	6502
ĠØ§ÙĦÙĥØ¨Ø±ÙĬØ§Ø¡	10277
ĠÙĦØ¨ÙĨÙĬ	3785
ÙĩÙĦØ§	7115
ĠÙĦÙĬØ®Ø±Ø¬	3630
ĠØ¥Ø°Ø§	275
ĠÙĪÙĦÙĬØ§	2121
ĠÙģØ§ÙĨØªÙĤÙħÙĨØ§	5226
ĠØ§ÙĦØ¬ÙĦØ§ÙĦ	8283
ĠÙĪØªÙĪÙģ	4994
ĠØ²Ø§ØºØª	10008
ĠØ£Ø¹Ø±Ø¶ÙĪØ§	6349
ĠØ£ÙħÙħØ§	7925
ĠØ¨ÙĬÙĨÙĥ	8083
ĠØŃÙħ	777
ĠØ£ÙģØ§Ùĥ	8305
ĠØ§ÙĦØ£ÙĨ	588
ĠØ£Ø®Ø±Ø¬ÙĨØ§	3801
ĠØ£ÙĨØ¬ÙĬÙĨØ§	4791
ĠÙĪØ±Ø¨	965
ĠÙħØŃØ±	3452
ĠÙģØ£Ø°Ø§	7945
Ø²ÙĬØ¯	1955
ÙĪØ±Ø§	434
ĠÙĬØ´ÙĩØ¯ÙĪÙĨ	5014
Ø§Ø¤ÙĩÙħ	2138
ĠÙĦÙĦØ¥Ø³ÙĦØ§Ùħ	9552
ĠÙĦÙĩÙħ	186
ĠØ§ÙĦÙħØŃØ³ÙĨÙĬÙĨ	1138
ĠÙĩØ§Ø¯ÙĪØ§	2482
ĠÙĪØ§Ø³ÙħØ¹ÙĪØ§	4980
ÙĪÙħÙĪÙĨ	3172
ĠÙĬØªÙĪØ¨ÙĪÙĨ	6770
Ø¦ÙĨ	587
ĠÙĬÙĤÙĪÙĦÙĪØ§	2404
ĠØªØ´ØªØ±ÙĪØ§	6483
Ø¹Ø¸Ø©	5639
ĠÙĪÙĦØ§	149
ĠØ§ÙĦÙĥØªØ§Ø¨	342
ĠØªÙĨÙģÙĤÙĪØ§	2994
ĠØ¹ÙĤØ¯	4014
ĠØ§ÙĦØ£ÙĬÙĥØ©	5547
ĠÙĬÙĪØ²Ø¹ÙĪÙĨ	6395
ĠØ´ÙģØ§Ø¡	7805
ĠØ³ÙĪØ¡Ø©	8977
ĠÙĦØ°ÙĥØ±Ùī	9813
ĠØªØ³Ø¨	7473
ĠÙģØªÙĨØ§	3272
ĠØ§ÙĦØ£ÙħÙĬÙĬÙĨ	9972
ĠØ¨ÙĨÙĬØ§ÙĨÙĩ	8822
ÙĦÙĤ	184
ĠØ§ÙĦØ¹ÙĦÙħ	1178
Ø±Ø§Ø¯	3597
ĠÙĬØ¬ÙħØ¹	4313
ĠØ¯Ø¹ÙĪØ§ÙĩÙħ	5402
ĠØ¨ÙĬÙħÙĬÙĨÙĩ	5505
ĠÙĬØ°ÙĪ	7324
ĠØ¨ÙĥÙĦÙħØ§Øª	8743
Ø¤ÙĦØ§Ø¡	854
ĠØ±Ø¡ÙĪÙģ	3843
ĠÙĪØªØ®	4214
ĠÙĪØ£ÙĪØ±Ø«ÙĨØ§	6927
ĠØ¸ÙĦÙħÙĪØ§	913
ÙĪØ¹	1175
ĠØ§ÙĦØ¨ÙĦØ§Ø¯	4488
ĠØ±ÙĥØ¨Ø§	9644
ĠØ¨Ø§ÙĦØŃÙĤ	609
ĠÙĪÙĦØ¯	1291
ĠØ³ÙĦÙĬÙħØ§ÙĨ	2485
ĠØ§ÙĩØªØ¯ÙĪØ§	5389
ĠØ¹ÙħØ±Ø§ÙĨ	6921
Ø¨ØªÙĥÙħ	6361
ĠØ§ÙĦÙħØ¹ÙĦÙĪÙħ	10249
ĠØŃØ±Ø«	3339
ĠØ§ÙĦØ®Ø§Ø³Ø±ÙĪÙĨ	2385
ĠØ£Ø´ÙĬØ§Ø¡ÙĩÙħ	7027
ĠØ¯Ø§Ø¨Ø©	2038
ĠÙħØªÙĨØ§	3935
Ø§ÙĪÙĬÙĨ	5277
ØºØ±ÙĤÙĨØ§	3030
ĠØ§ÙĦØŃÙħÙĬØ¯	2585
ĠØ³Ø§Ø¦	3563
ĠØ¹ÙĦÙĬÙħ	478
ĠÙĬØªØ¨Ø¹ÙĪÙĨ	2731
ĠÙħÙĪØ¹Ø¯	3660
ĠÙĪÙĥØªØ§Ø¨	6068
ÙĬØ±Ùī	7690
ĠÙģØ£Ø±	7941
ĠØªØ¹ÙħÙĦÙĪÙĨ	564
ĠØªØµØ¯ÙĪÙĨ	8965
ĠÙĪØ§ÙĦØµØ§Ø¨Ø±ÙĬÙĨ	5305
ĠØµØºÙĬØ±Ø§	10106
ĠÙģØ£Øª	2929
ĠÙĨÙģØ³	475
ĠØ§ÙħØ±Ø£ØªÙĥ	9272
ĠØ£ÙĨØ·	5829
ĠÙģØªØ¹	5051
ĠÙħØ´Ùģ	5631
ĠØ§ÙĦØµÙĪØ±	2531
ĠØ±ÙĬØŃ	2679
ĠÙģØªÙĪÙĦÙī	5052
ĠØ£ØŃØ§Ø¯ÙĬØ«	8217
ĠØ§ÙĦØ®ÙĬØ·	8423
Ø²ÙĪØ§Ø¬	801
ĠØ³ÙĦÙģ	3564
ĠÙĥÙħÙĨ	2669
Ø¤ÙħÙĨØ§Øª	1419
ĠÙħÙĦÙĥØª	1904
ĠØ¬Ø§Ø±	7770
ĠÙĪØ¹Ø¬	8357
ĠÙĬØ®ÙĦÙĤÙĪÙĨ	4451
ĠØ¯ÙħØ±	4923
ĠØ¨Ø§Øº	5717
ĠÙĦØ¥	2306
ĠØ¨ÙħØ¨Ø¹ÙĪ	8914
Ø§ØªÙĦÙĪÙĨ	2078
ÙĥØ©	7169
ØµÙĦ	1223
ĠØ¨Ø§ÙĦÙħÙĨ	7845
ĠÙĪØªØ³	4213
ĠÙĥÙħØ§	710
Ø±Ø§Ø¦	2836
ĠØ§ÙĦØºÙĬØ¸	6839
Ø¬Ø¯	358
ĠÙĪØ³Ø¹Ùī	8663
ĠÙĬØ¹ÙĦÙħÙĪÙĨ	567
Ø®ÙĦÙĪØ§	925
Ø¶ÙĦÙĩ	7568
ØªÙĬÙĥÙħ	3642
ĠÙģØ¹ÙĦÙĬÙĩØ§	6564
ĠØ£Ø¨	601
ĠØ£Ø¥ÙĨØ§	2804
ØªØ§ÙħÙī	3688
ĠÙħØª	709
ÙĨØªÙĩØ§	5107
Ø±Øª	7119
ĠØ´ÙĩÙĪØ©	9968
ĠÙĪØ£ÙĤØ³ÙħÙĪØ§	5324
ØªØ§Ø±	5615
ĠØªØ´Ø§Ø¡ÙĪÙĨ	9558
ĠÙĬÙĨØ·ÙĤ	6899
ÙĤØ¯ÙħÙĪÙĨ	4186
Ø³ØªØºÙģØ±	5980
ĠØ§ÙĦØŃØ§ÙĤØ©	6003
ĠØ¨ÙħÙģØ§Ø²	8918
ĠÙĦÙĦÙĥØ°Ø¨	9932
ĠÙĬØ²Ø§ÙĦ	6586
ĠÙĪØ§ÙĦÙĤÙħØ±	1543
ĠÙĪÙĦÙĬØ£Ø®Ø°ÙĪØ§	8555
ĠØµÙĨ	3212
ĠØ£ÙĨØ¬	4790
ĠÙĪÙĤØªÙĦÙĪØ§	7977
ĠØµØ§Ø¨	4934
Ø®ÙĬØ±	3538
Ø«ÙĬÙĨ	4823
ĠÙĪÙĬØ·ÙĪÙģ	9975
Ø·Ø¹ÙĬÙĨ	6414
ĠØ§Ø°ÙĥØ±	8012
ĠÙĪØ¸ÙĨ	5320
ĠÙĪÙĦÙħÙĨ	4122
ĠÙĪÙĬØª	2505
ĠØªØ´Ø¹Ø±ÙĪÙĨ	5208
ĠØ¹ÙĬÙĨÙĬÙĥ	9313
ĠØ£ØªØ§ÙĩØ§	6706
ĠÙħØ§Ø¦Ø©	3063
ĠØªÙħÙĦÙĥÙĪÙĨ	9902
ĠÙĪØ¨ÙĬÙĨÙĩÙħ	3790
Ø®Ø±Ø§Ø¬	7549
ĠØªØ´ÙĩØ¯	6482
ĠØªØªØ°ÙĥØ±ÙĪÙĨ	6326
ĠÙĥØ¨ÙĬØ±Ø§	1697
ĠÙĦÙĤ	460
ĠÙħØ¢	2628
ĠÙħØ³ØªÙĤØ±	3747
ÙĥÙĦØ§	7168
ĠØ®Ø¨ÙĬØ«Ø©	10257
ÙģÙĬØ¹	3699
ÙĦÙĨØ§	218
ĠÙĥØ³Ø¨Øª	1835
Ø±ÙĥÙħ	3426
ĠØªÙħØ³ÙĪÙĩØ§	6779
ĠÙĨØ¸	7611
ĠÙĪÙĬØ®Ø´	9576
Ø¨Ø¹Ø«	995
ÙģØ¸	2657
ĠÙĨØ§Ø±	1450
ĠÙĪØ¥ÙĨÙĥÙħ	6073
ĠØªØªØ¨Ø¹ÙĪÙĨ	5121
ĠØªÙĥÙĪÙĨÙĪØ§	1489
ĠÙģÙĪØ³ÙĪØ³	7295
ĠØ¹Ø¬Ø§Ùģ	9288
Ø£Øª	3508
ĠÙģÙĤØ¹ÙĪØ§	8619
ĠÙĪØ§Ø¶	3337
ĠØ¢Ø¨Ø§Ø¦ÙĥÙħ	5236
Ø¬ÙĨØ¨ÙĩØ§	9161
ĠØ¨Ø§Ø±	3490
ĠÙĬØ³ØªØ¹	5096
ĠÙĤÙĦÙĪØ¨ÙĥÙħ	2011
Ø§Ø´ÙĬØ©	9009
Ø³ÙħØ¹ÙĪÙĨ	1329
ĠÙħÙĤØ§ÙĦ	7210
ĠÙĬÙģØ±ØŃÙĪÙĨ	9476
ĠØ§Ø¨ØªÙĦØ§Ùĩ	9894
ĠÙĤØ¯Ø±Ø§	8167
ĠÙĦÙĬØ£ÙĥÙĦÙĪÙĨ	10111
ĠØ§ÙĦØ±	166
ĠØ£ÙĥÙĨØ©	5100
ÙĪØªÙī	1675
ĠØ±Ø£ÙĬØª	3780
ĠÙĪØ£Ø³Ø±ÙĪØ§	4077
ĠÙģØ±ÙĪØ¬ÙĩÙħ	8446
ĠØºÙĬØ±	535
ĠÙĪØ²ÙĬØ±Ø§	8871
ĠØŃØ³Ø§Ø¨Ùĩ	9340
ĠØ§ÙĤØª	2725
ĠØ¹Ø¯	732
ĠÙĨØ§Ø¯	1700
ĠÙĪØ¢Ø¨Ø§Ø¤ÙĥÙħ	4522
ĠØ²Ø¯ÙĨØ§ÙĩÙħ	10007
Ø±ÙĬ	200
ĠØ§ÙĦØ£Ø¹ÙĦÙī	2821
ĠÙħØ«ÙĦÙĩØ§	4273
ĠÙĪØ¨Ø±	2842
ĠØ£Ø¸ÙĦÙħ	1685
ĠÙħØ¹Ø§Ø¬Ø²ÙĬÙĨ	7063
ĠØ£ÙģÙĪØ§Ùĩ	5049
ĠÙĪØ§ÙĦØ£ÙĨ	1890
ĠØªØ³ØªÙĪÙĬ	8975
ĠÙĪØ§ÙĦÙĦØ§Ø¦ÙĬ	10235
ĠÙģØ£ÙĦÙĤ	1980
ĠÙħØ´Ø±ÙĥÙĬÙĨ	4626
Ø¬Ø±Ø§	2320
ĠÙĤÙĪÙĬ	5189
ÙĩÙĬÙħ	617
ĠØ§ÙĦÙħØ¤ÙħÙĨÙĬÙĨ	583
ĠÙħØ¹Ø±ÙĪÙģØ§	3864
ĠÙĪÙĬÙĨÙĩÙĪÙĨ	5302
ĠØ®ÙĦÙģØ§Ø¡	6604
ĠØ§ÙĦØ¨ÙĬÙĨØ§Øª	2284
ĠÙħÙĩØ§	5626
ØŃØ§Ø¬ÙĪÙĨ	7414
ĠÙĪÙĦÙĬÙĨØ°Ø±ÙĪØ§	10092
ĠØ¨ÙĪØ¬ÙĪÙĩÙĥÙħ	10210
ĠØ§ÙĦØ·ÙĬØ¨Ø§Øª	2572
ĠÙĬØ®Ø±	3974
ĠØ§Ø«	1481
Ø´Ø§Ø¡	5824
ĠØªÙħØªØ±ÙĪÙĨ	9564
Ø°ÙĩØ¨Ø§	5163
ĠÙĦÙĦØ³Ø§Ø¦ÙĦ	9874
ĠÙĬÙħÙĦÙĥÙĪÙĨ	2604
ĠÙĪÙĦÙĥÙĦ	2974
ĠÙĪØ¯Ø¹	7158
ĠØªØªØ¨ÙĬØ±Ø§	8532
ĠØ£ØŃØ¯Ø§	1525
ĠÙĪØ£Ø²ÙĦ	5877
ĠØ£ÙĤÙħ	6517
ĠÙģØ¶Ø©	5216
ĠÙĪØ²ÙĥØ±ÙĬØ§	8874
ĠØªØ£Ø®Ø°	3721
ĠÙħØ¯Ø¨Ø±ÙĬÙĨ	3795
ĠØ§ÙĦØ£ÙĨÙģØ³	4325
Ø±ÙĬØ§Øª	3223
ĠÙĦØªØ³Ø£ÙĦÙĨ	9680
ĠØ³Ùĥ	3560
ĠØ£ØµØºØ±	8493
ĠÙĪØ§ÙĦØ¬Ø§Ø±	9458
Ø¶Ø¹ÙģÙĪÙĨ	6669
ĠØ¨Ø£Ø±Ø¨Ø¹Ø©	8293
ĠÙĥÙĪÙĥ	5778
ÙĦØ¥	4576
Ø¬Ø±	283
ĠØ£Ø®Ø±Ø¬	1130
ĠØ§ÙĦØ¯Ø§	4601
ĠØªØ±ÙĥÙĨ	8226
ĠÙģØ´Ø§Ø±Ø¨ÙĪÙĨ	10195
ĠØ¹ÙħØ§	824
ĠÙĪØ¥ÙĨÙħØ§	6072
ĠØºØ¶	6074
Ø°Ø±ÙĩÙħ	1728
Ø³Ø¯ÙĪÙĨ	7261
ĠÙħØ³ÙĦÙħÙĪÙĨ	2032
Ø¨ÙĦÙĪÙĥÙħ	3640
Ø§Ø³Ø±ÙĪÙĨ	2028
ĠÙĩØ¯Ø§ÙĥÙħ	5363
ĠØ£ÙĨØ¹Ø§ÙħØ§	7586
ĠÙĪØ§ÙĦØ¨Ø§	7594
Ø¶Ø±Ø¨	3544
ĠÙħØ§ÙĦ	1551
Ø³ÙĦÙħÙĬÙĨ	7266
ĠØ¨ÙĬÙĨÙĩØ§	8084
ĠØªØ¤ØªÙĪÙĨ	9253
ĠÙĦÙĦÙģÙĤØ±Ø§Ø¡	6136
ĠØ¬ÙħÙĬÙĦØ§	5209
ĠÙĪØ§Ø²Ø±Ø©	4544
ĠØ£ØŃØ¯	819
ĠÙģØ£ØµÙĦØŃÙĪØ§	6606
ĠØ¥ÙĦÙĬ	251
ĠØ¨ÙĬØ§ØªØ§	7044
ĠØªØ¹Ø±Ùģ	6328
ĠØªØ¨Ø¯ÙĬÙĦ	9358
ĠØ§ÙĦØ£Ø¬Ø¯	5938
ĠØªØ°	7466
ĠØ¹Ø¯ÙĪÙĥÙħ	8815
ĠÙħØ±Ø³Ø§ÙĩØ§	9688
ĠØ¢ÙħÙĨÙĪØ§	247
ĠÙĪÙĦÙĬØ¹ÙĦÙħÙĨ	6337
Ø§Ø¡ÙĪÙĨ	7692
ĠØªØ±Ø¶Ùī	7496
ÙĬØ§Ø¨	2437
ĠÙĦÙĦØ±ØŃÙħÙĨ	2732
ĠØ¬Ø«ÙĬØ§	7779
ĠÙĪØ¹Ø¸Ø§ÙħØ§	4259
ĠØ§ÙĦÙħÙĤØ±Ø¨	2907
ĠÙħØ«ÙĦÙĥÙħ	3286
ĠØ¬Ø§Ø¡Ùĥ	2375
ĠØ§ÙĦØ²ÙĥØ§Ø©	1266
ĠØ§ÙĦØ«ÙħØ±Ø§Øª	2422
ĠÙĩØ§Ùĩ	4815
ĠÙĪÙĥÙģØ±ÙĪØ§	8021
ĠÙĪØ§ØŃØ¯Ø©	1170
ĠÙĪØ§Ø¬Ø¹ÙĦÙĨØ§	9721
ĠÙĪÙħØ§	150
ĠØ§ÙĦØ¬ÙħØ¹Ø§ÙĨ	5472
ĠÙĦØ¢Øª	6555
ĠÙĬÙĨØµØ±	2368
ĠÙĪØ§ÙĦÙħÙĬØ³Ø±	6848
ĠÙĦÙĬØ¯ØŃØ¶ÙĪØ§	9751
ÙħØ±ÙĥÙħ	8192
ĠØªØº	1627
Ø¯Ø®ÙĦÙĪØ§	7253
ĠÙĪØ£Ø·ÙĩØ±	7724
ÙĥØ±Ùĩ	3622
ÙħØ¹ÙĬÙĨ	1334
ĠÙĤØ±Ø¢ÙĨØ§	2671
ĠØ§ÙĦØ¹Ùħ	2838
ĠÙĬØ«	4672
ĠÙĪÙĪ	1343
ĠÙĪØ§ÙĦØŃÙħØ¯	7600
ĠÙĥÙĩÙģ	7518
ĠØ£ÙĪØŃÙī	6711
ĠÙĨÙĤÙĬØ±Ø§	9459
ĠØ®Ø³Ø§	5923
Ø¯Ø¯ÙĨØ§	4645
ĠÙģØ´Ø§Ø±	7289
ĠÙĪØ§ÙĦÙĨÙĪØ±	6487
Ø±ÙĪÙĨÙĬ	4138
ĠØ¨Ø¹Ø¬ÙĦ	8113
ĠÙĬØ£ØªÙĪÙĨ	3681
ĠÙĪØ§ÙĦÙħÙĨ	4056
ĠØ±Øº	4777
ĠØ§ÙĦÙĨØ°Ø±	5024
ÙģÙĪØ±Ø§	1188
ĠÙĬØ³ØªØ·ÙĬØ¹ÙĪÙĨ	1897
ÙĬØ§ÙħØ§	2504
ĠØ¢ØªØ§ÙĥÙħ	3821
ĠØŃØ³ÙĨ	4088
ĠÙĬØ£ØªÙĬÙĥÙħØ§	8844
ĠØ§Ø¨ÙĨÙĪØ§	9041
ĠÙĬØŃØ³Ø¨ÙĪÙĨ	4999
ĠÙĬØ¨Ø§ÙĬØ¹ÙĪÙĨÙĥ	10175
Ø¹ÙħÙĪØ§	4907
ĠØ¨Ø£ÙħÙĪØ§ÙĦ	2111
ĠÙĪÙĨØ¬ÙĬÙĨØ§Ùĩ	5032
ĠØ§ÙĦØ³ÙĬØ¦Ø§Øª	2035
ĠØ¨Ø§ÙĤÙĬØ©	10063
ĠÙĦØ±Ø¨Ùĥ	9351
ĠÙĦÙĦØ°ÙĬÙĨ	576
Ø¬Ø²ÙĬÙĨ	2072
Ø¤ÙĥÙħ	4888
ĠÙĪÙħÙĦØ§Ø¦Ùĥ	4279
Ø¹ÙĦÙħÙĪØ§	1051
ĠÙĪÙĥÙĦØ§	2524
ĠÙĬØ¸ÙĨÙĪÙĨ	4479
ĠÙĪØ³ÙħØ¹	7152
ÙĦØ§Ø³ÙĦ	7465
ĠØ£Ø³ÙħØ¹	5645
ĠØ´Ø±Ø¨	4108
ĠÙĨØ¨Ø±	7616
ÙħÙĥ	4579
ĠÙħÙĦÙĬÙħ	7205
Ø³ÙĦ	2057
ĠØ®ÙĦØª	1877
ĠÙĦÙĬØ£Ùĥ	6058
ĠØ£ÙģØŃØ³Ø¨	8308
ĠØ£ÙĪÙĦÙĬØ§Ø¡Ùĩ	8990
ÙĥØ±ÙĪÙĨ	503
ĠÙģØ§ÙĦ	865
ĠÙħØ®ÙĦÙĤØ©	9197
ĠÙģØ¬Ø¹ÙĦÙĨØ§ÙĩØ§	9505
ĠÙģÙĦÙĨ	1055
ĠØ§ÙĦÙĬØªÙĬÙħ	4560
ĠÙĬÙĨØ§ÙĦÙĪØ§	8136
ĠØ¨Ø§ÙĦÙĬÙħÙĬÙĨ	7854
ĠØªØŃÙĬØªÙĩÙħ	8398
ĠØ¹Ø¬ÙĪØ²Ø§	9290
ĠÙĪØ§ÙĦÙģÙĪØ§	7598
ĠØ§ÙĩØªØ²Øª	9400
ĠØ«ÙĬØ§Ø¨ÙĩÙħ	9781
ĠØ§ÙĦØŃÙĪØ§Ø±ÙĬ	4920
ĠÙĬØ¶Ø±Ø¨	3031
ÙĪÙģÙĩØ§	8195
ĠØ§ÙĦÙĨ	319
ĠØ¨Ø§ÙĦØºØ©	9168
ĠØ£ÙĥÙĪÙĨ	2637
ĠÙĪØ¢Ø¨Ø§Ø¤ÙĨØ§	6819
ĠØ¨Ø¨Ø¯	7359
ÙĪØ´	3073
Ø´Ø§ÙĩØ§	4789
ĠÙĤØ±ÙĬ	805
ĠÙĥØ±ÙĬ	4752
ĠÙĪÙħØ¨Ø´Ø±Ø§	6273
ĠØµØ§ØŃ	2934
ĠÙĪØ·ÙģÙĤØ§	9194
ĠÙĦØ±Ø³ÙĪÙĦ	4669
ĠÙģÙĥØ°Ø¨ÙĪØ§	9338
ĠÙĨÙĨØ¬ÙĬ	6961
Ø°ÙĨØª	5701
ÙĬØ±Ø§	273
ĠØ§ÙĦÙħÙĩØ¯	5890
Ø³ØªÙĪØ¯	7881
ĠØ§Ø¨	715
ĠØ§ÙĦÙħÙĦÙĥ	1159
ĠÙħØ´ÙģÙĤÙĪÙĨ	4463
ĠÙģÙĥØ°Ø¨ÙĪÙĩÙħØ§	9339
ĠØ£Ø¬ÙĦÙĩÙħ	3690
ĠØªØ³Ø±ÙĪÙĨ	6479
ĠØ¨ÙĬØªÙĬ	6447
ĠØ¢ØªÙĬÙĨØ§Ùĥ	8893
ĠÙĦØ°ÙĥØ±	3968
Ø¬Ø±Ø©	1524
ĠÙĬÙĩØ¯ÙĪÙĨ	4471
ĠØªØ¶Ø§Ø±	9526
ĠÙĪØªØµØ±ÙĬÙģ	9878
ĠØµÙĦÙĪØ§	7985
ØµØ§Ø±Ø§	7555
ĠØ³ÙĪØ§Ø¡	1249
ĠØ¥ÙģÙĥÙĩÙħ	9758
ĠÙĪØ£ÙħØ±Øª	3848
ĠØ§ÙĦØ£ÙĦØ¨Ø§Ø¨	1842
ÙģÙĬÙĨØ§	3999
ĠØªØ¹Ø¬ÙĦ	6330
ĠØ¹Ø§Ø¦	7436
ĠÙĦØ¨Ø§Ø³Ø§	6887
ØªÙĩÙħØ§	2744
ĠÙĥØ£ÙĨÙĩÙĨ	9162
ĠØ¨Ø²Ø¹ÙħÙĩÙħ	10204
ÙĪÙĦØ©	4828
ĠØ§ØªØ®Ø°	1207
ÙĬÙĩØ§	3071
ĠØ£Ø¹ÙĬÙĨ	1900
Ø°ÙĬØ±Ø§	2651
ĠØ§ÙĦÙĥ	204
ÙĬØ¨Ø§	1145
ĠØ¨Ø¹	264
ĠØ£ÙĪØ²	4133
ĠÙĬØ³Ø£ÙĦ	4297
ĠÙĪÙĨØ¬ÙĪØ§	8256
ĠØ§ÙĦØ±Ø¬Ø²	6687
ĠØ¹Ø§Ø¯	1440
ĠÙĥÙģÙĬÙĩ	7520
ĠÙģØ£ÙĨØ¨ØªÙĨØ§	5240
ØªÙħØ±ÙĪÙĨ	7765
Ø«Ø±Ùĥ	8576
ÙħØ£	7090
ĠØ³Ø¨ØŃØ§	8926
ĠÙħØ°ÙħÙĪÙħØ§	9740
Ø¹Ø¸	3946
ĠÙĨØŃ	2892
ĠÙĪØ²ÙĦ	5600
ĠØ£ØŃØµ	2737
ĠÙĪØ¬Ø¹ÙĦÙĨØ§ÙĩÙħ	4370
ĠÙħÙĬØªØ©	9746
ĠÙģØ¨	634
ØŃÙĥÙħ	903
ĠÙģØ¹	1024
ĠØ§ÙĦÙħÙĤØ³Ø·	5898
ÙĥÙĬØ§	7171
ĠØªÙħØ¯ÙĨ	9137
Ø±Ùī	610
ĠÙģØ°ÙĪÙĤÙĪØ§	2303
ĠØ³ÙħØ¹ÙĩÙħ	6567
ĠÙĥØ§Ø¯	4751
ĠÙĬØ¬Ø¯	1436
ĠØ£Ø´ÙĩØ±	4350
ĠØ£Ø³ÙĦÙħ	2016
ĠØ§ÙĦØ´Ø§ÙĥØ±ÙĬÙĨ	3277
ĠÙĦÙĬÙĪØ³Ùģ	4945
ĠØªÙħÙĪØªÙĨ	9903
ÙħØ§Ùħ	2870
ĠÙĪÙĦÙĦÙĩ	1225
ĠØ¨Ø²	7352
ĠØ§ÙĨÙĤÙĦØ¨ØªÙħ	10149
Ø²Ùī	2202
ĠÙĥØ´ÙģÙĨØ§	4756
Ø¹Ø¬ÙĦ	3460
ĠÙģØ±Ø¢Ùĩ	8447
ĠÙĪØ¥ÙĬØ§ÙĥÙħ	5451
ĠØªØ±Ø¯ÙĪÙĨ	8225
ĠÙĪØ§ÙĦØ²Ø¨Ø±	9836
ĠØªØ¹Ø¨Ø¯ÙĪØ§	3409
ĠØªØ¹Ø§	7471
ÙĬÙĩÙħ	616
ĠÙĪØ¹ÙĨØ¯	6719
ĠØ§ÙĦÙĥÙģØ§Ø±	2096
ĠØ§Ø³ØªØ·Ø¹	2766
ÙĤØ±Ø§Ø¡	3762
ĠÙĪØ¨Ø£ÙĬÙħØ§ÙĨÙĩÙħ	8486
ĠÙĤÙĦÙĪØ¨	497
ĠÙĬØ¨ÙĬØªÙĪÙĨ	7043
Ø¹ÙħÙĦÙĪØ§	2715
ĠÙĦÙħØŃÙĬÙĬ	8096
ĠÙģØ§ÙĤØªÙĦÙĪØ§	8205
ĠÙĥÙĦÙħØ©	1673
ĠØªØ³Ø£ÙĦ	8828
Ø¹ÙĬÙħ	1614
ĠÙģØ¹ÙĦ	1182
ĠÙĦÙĦÙĬ	5679
ĠÙĬÙĤØµ	8733
ĠÙĪÙĬØ¹Ø°Ø¨	3827
ĠÙģØ°Ø±ÙĪÙĩØ§	9929
ĠÙĪÙģÙĬ	950
Ø¨Ø°	3084
ĠØªØ®ÙģÙĪÙĨ	8728
Ø³Ùħ	239
ĠØ§ÙĦÙħØ³Ø§Ø¬Ø¯	8849
ĠÙħØ³ÙĪÙħØ©	8519
ĠÙĬÙĨØ³ÙĦÙĪÙĨ	10119
ĠÙĪØ§ØªØ¨Ø¹ÙĪØ§	2418
ĠÙħØ¹Ø¯ÙĪØ¯Ø©	6884
ĠÙĪØ¥ÙĦÙĬÙĩ	1403
ØµØ¯Ø©	5802
ĠÙĦØ¨Ø§	3111
Ø³ÙĨØªÙĥÙħ	6185
ĠÙħÙģ	3449
Ø¨ÙĪØª	5622
ĠÙĪØ£ØµØŃØ§Ø¨	2412
ØªÙħØª	1876
ĠØ§ÙĦØ¨Ø±	1342
ĠØªØ±Ø§Ø¨	3259
ĠÙĪØ¹ÙĦØ§ÙĨÙĬØ©	5068
ĠÙĬÙĤÙĬÙħØ§	6430
ÙĪØ¹ÙĬØ¯	6600
Ø«Ø§Ø¡	7694
ĠØ§ÙĦØ®ÙĪØ§ÙĦ	8420
ĠØ¹ÙĨØ¯ÙĬ	3670
ĠØ§Ø³ØªÙħØªØ¹	10162
ĠÙĬØ¶ÙĦÙĪÙĨ	5258
ĠÙģØ£ÙĨØ³Ø§ÙĩÙħ	10101
ĠØ¹Ø°Ø§Ø¨Ùĩ	6164
ĠØ§Ø³ØªØ£	8557
ĠØªÙĨØ°Ø±ÙĩÙħ	8614
ĠØ§ÙĦØ¹ØªÙĬ	7961
ĠØ¶Ø±	2746
ĠØ§ÙĦÙģØ§Ø³ÙĤÙĪÙĨ	2813
ĠÙĬØ³ØªØ·Ø¹	8451
Ø¨ÙĬØªØ§	8025
ĠØ§ÙĦÙħÙĨØ§ÙģÙĤÙĬÙĨ	1873
ĠÙĬÙĪÙĦØ¬	4684
Ø³Ø§ÙĨØ§	2789
ĠØ£ÙĪÙĦØ§	1462
ĠØ¹Ø§Ø¨Ø¯ÙĪÙĨ	5436
Ø¹Ø§ÙģØ§	6150
ĠÙģØ³Ø¨ØŃ	2302
ĠÙħÙĥØ§	2630
ĠÙĬØ²Ø±ÙĪÙĨ	9048
Ø§ÙĨÙĬ	1316
ĠØ¨Ø§Ø®Ø¹	10207
ĠÙĪØ§ÙĦØ´	1155
ÙĬÙĨØ§ÙĩØ§	4169
ĠÙĨØ®ÙĦ	7621
Ø§ÙħØ¯Ø©	8697
ØªÙĩÙī	6212
ĠÙħÙģØ±	5627
ĠÙģØ³ÙĬØŃ	8670
ĠØ¢Ø¨Ø§Ø¡ÙĨØ§	2581
ĠØ¢ÙĬØªÙĥ	10078
ĠÙĪÙģØµØ§ÙĦÙĩ	10319
ĠÙĬÙĨÙģÙĤ	4208
ĠÙĪØ£ÙĦ	4833
ĠÙĤØ§Ø¯	7526
Ø§ÙģØ±ÙĬÙĨ	519
Ø¬Ø²ÙĪÙĨ	5775
ĠØ§Øª	406
ĠØ£Ø®Ø§ÙĩÙħ	2999
ÙĩØ¯Ø§Ø¡	3624
ĠÙĪØ¬Ø§Ø¡ÙĪØ§	6626
ĠÙĪÙĬØµ	2923
ĠØ¨Ø·ÙĪÙĨÙĩØ§	9623
ĠØ£Ø·ÙĬØ¹ÙĪØ§	3952
ĠØ£Ø®ÙĪÙĩÙħ	5160
ĠÙĪÙĬÙĨ	1304
Ø¨Ø³	4617
ĠØªØ¶ÙĦ	7475
ĠÙģØ§ØªØ¨Ø¹ÙĪÙĨ	8939
ÙĦÙħØ©	7654
ÙĪØ¯Ø§	3074
ĠØªØºÙĨÙĬ	3837
Ø¨Ø§Ø·ÙĦ	7192
ĠÙĪØ¬Ø¦	4195
ĠØ¨ÙĦØ³Ø§ÙĨ	5057
ĠÙĬØ¶	1025
Ø¬ÙĬÙĨØ§Ùĩ	2073
ĠØ¨Ø§ÙĦØŃØ³ÙĨØ©	4542
ĠØ®ÙĦÙĤÙĪØ§	4242
ĠÙĩÙĪØ§Ùĩ	3558
ĠØ£Ø¬ÙĦÙĩØ§	6256
ĠÙĬØ¹Ø¸ÙĥÙħ	5076
Ø¦ÙĬÙĨ	1793
ĠØ²Ø¬Ø±Ø©	8413
ÙĤÙģ	4689
ĠÙħØ«ÙĦ	845
ĠØ±Ø³ÙĦ	2381
ØµÙĬØª	4772
ĠØµØ§ÙĦØŃØ§	1019
ĠÙħÙģØª	3931
ÙĬÙĩ	599
ĠØ¬ÙĨØª	4095
Ø·Ø±Øª	6519
Ø¯Ø¯ÙĥÙħ	7258
ĠÙĨØ®ÙĪØ¶	9462
ĠØ¨ÙĦØ§Øº	10061
ĠÙĪØ§ÙĦÙģØ±ÙĤØ§ÙĨ	10231
ĠÙĪØ£ÙĨØ§	1158
ĠØ¥ÙĬÙħØ§ÙĨÙĥÙħ	3812
Ø§Ø¡ÙĪØ§	3568
ĠØ´ÙģØ¹Ø§Ø¡	6968
Ø¨Ø¯ÙĪÙĨ	1033
ĠÙĨÙħÙĪØª	9604
ĠÙģÙĦÙĬÙħØ¯Ø¯	10051
ĠÙģØ¯Ø¹Ø§	9515
Ø¨ÙĬÙĨØ§Øª	1032
Ø¨Ø±ÙĬ	3926
ĠÙĬØ³Ø¨	3975
ĠÙģØ§Ø³ØªØ¬	4381
Ø¯ÙĦÙī	7249
ĠÙĨÙĥØ§	7623
ĠÙĬØ¬Ø²	8629
ĠØ£Ø®Ø°ÙĨØ§ÙĩÙħ	8980
ÙħØŃÙĪÙĨ	7095
ĠØ¯Ø®ÙĦØ§	7936
ĠÙģØ§ÙĨ	802
Ø¬Ø±Ùĩ	6151
ÙĦØ§ÙĨ	5750
ĠØ¨Ø·ÙĪÙĨÙĩÙħ	6859
ÙĦÙĩ	78
Ø±Ø¨Øµ	1718
ĠÙĪÙĦÙĩØ§	7150
ÙĪØ§ÙĦ	558
ĠØ²Ø±	3692
ĠÙģØ±ÙĬÙĤ	2029
ĠØ§Ø³ØªÙĥ	5124
ĠÙħØ¬ÙĨÙĪÙĨ	3855
ĠÙĪÙĦÙĦÙħ	4123
ĠØ¨Ø§ÙĦÙĬÙĪÙħ	7850
ĠÙĬØ£ØªÙĬ	778
ĠØ¹ÙĦÙĤØ©	4736
ÙĬØ±	119
ĠØ£Ø®ÙĬ	5159
Ø´ÙĬØ§Ø·ÙĬÙĨ	6545
ĠÙĦÙĨÙĨØµØ±	8374
Ø±Ø©	1023
ĠØ£Ø¦ÙĨ	3462
ĠØ§ÙĦÙģØ±ÙĤØ§ÙĨ	5406
ÙģØ±ÙĪÙĨ	2082
ĠÙģØ§ÙĥÙĩØ©	3667
ĠØ£Ø¨ÙĪØ§Ø¨Ø§	8702
ĠØ§ÙĤØ±	4947
ĠØ®Ø·Ø§ÙĬØ§ÙĥÙħ	10172
ĠØªÙĪØ¬	7479
ĠÙģÙħØ§Ø°Ø§	6366
ÙĦØ¸	4577
Ø¬Ø§	2071
Ø°ÙĪØ§	4693
ĠØ¢ÙĬØ©	843
ĠØ£Ø®ÙĪØ§ØªÙĩÙĨ	8654
ÙĪÙĩ	298
ÙĦØŃ	522
ĠØ¬ÙĩÙĨÙħ	622
ĠÙĪØ¨Ø´ÙĬØ±	8484
ÙĩØ§Ø¯	1860
ĠÙħØ³Ø§ÙģØŃÙĬÙĨ	10142
ĠÙĪØ§Ø³Ø¹	3042
ĠØ®Øµ	3191
ĠØ±Ø¨Ùĥ	252
ĠØ§ÙĦØ¶Ø§ÙĦÙĬÙĨ	3874
ĠØ§ÙĩØ¨Ø·ÙĪØ§	5524
ÙĨØ«	7082
ĠÙĪÙħÙĨØ§	3696
ĠÙĪØ£Ø´ÙĩØ¯ÙĪØ§	7730
ĠØ®Ø¶Ø±Ø§	7795
ÙĨØ¬ÙĬÙĦ	2271
ĠÙĦØ³	2304
ĠÙĪÙĤØª	6025
Ø¤ÙħÙĨÙĪÙĨ	405
ĠÙħØ®ØªØ§ÙĦ	9196
ĠØªÙħÙĬÙĦÙĪØ§	10069
ĠØ£ØªØ¨Ø¹	2780
ĠÙĪÙĬØ²ÙĬØ¯	3610
Ø®ÙĦÙĪÙĩØ§	5132
ĠØ§ÙĦÙĨØ§	224
ÙĤÙĪÙĦ	242
ĠÙĪØ°ÙĪÙĤÙĪØ§	5607
ÙĪÙĦÙī	847
ĠØ¨Ø§ÙĦØº	1324
ĠØ´ÙģØ§Ø¹Ø©	3592
ĠÙĦØ£Ø²ÙĪØ§Ø¬Ùĥ	10139
Ø£Ø®Ø±	7418
ĠØ£ÙĨÙī	1863
ĠØªØ¨Ø¹	2317
ĠÙĬØ¹ÙĪØ¯ÙĪÙĨ	8385
Ø³Ø·	792
ĠØ«ÙħØ±Ø§Øª	4933
ĠÙĪØ§ÙĦÙĨØ§Ø³	4525
ĠØ¯Ø§Ø®Ø±ÙĬÙĨ	9864
ĠØ¹ØµÙĬØª	5296
ĠØ£Ø¹ÙħØ§ÙĦÙĥÙħ	2793
ĠÙĪØ§Ø°ÙĥØ±ÙĪØ§	2101
ĠØ£ÙĦØ³ÙĨØªÙĩÙħ	6745
ĠØ¨Ø±Ø³	7357
ĠÙĨØ¨	886
ĠÙĨØµØ±	1396
Ø¹	60
ĠÙģØªÙĥÙĪÙĨØ§	9581
ĠØ¨Ø§ÙĦØ³Ø§	7852
ĠÙħÙĩØ¯Ø§	10189
ĠØ¹ÙĨØ¯ÙĥÙħ	6181
ĠÙĪÙĦÙĬØ³	3298
ĠÙģØ£ØªÙĨØ§	6011
ĠØ®Ø±	4101
ĠÙĪØ±Ø¶ÙĪØ§	2052
ÙĥØ§	680
ĠØªÙĥÙģØ±ÙĪÙĨ	2236
ĠÙĥØ§Ùģ	3534
ĠØ£ÙĨØ¯Ø§Ø¯Ø§	3555
ĠØªÙĪÙĦÙĪÙĩÙħ	10067
ĠØ§ÙĦÙĤÙĬØ§ÙħØ©	638
Ø²ÙĦÙĩ	4783
ĠÙģØ§Ø±	1763
ĠØ§Ø¦Øª	6743
ĠØŃØ³Ø¨ÙĬ	8818
ĠØ´ÙĩØ¯Ø§Ø¡ÙĥÙħ	9146
ĠÙħÙĨØ§ÙģØ¹	4013
ĠØ§ÙĦØµØ§Ø¯ÙĤÙĬÙĨ	1720
ÙĤØ¹Ø¯ÙĪØ§	7344
ĠØªØ¯ÙħÙĬØ±Ø§	8760
ĠØ£Ø±Ø°ÙĦ	8776
ĠÙģØ§Ø±ØªÙĤØ¨	10164
ĠÙħÙĤ	2294
ĠØŃÙħÙĦÙĨØ§	4361
ÙĬÙĨÙĥ	3489
ĠÙĦÙĤØ§Ø¡ÙĨØ§	5117
ĠØºÙħØ±	6075
ĠØ·ÙĬØ¨Ø©	2742
ĠÙĤØ¨ÙĦØªÙĩÙħ	8211
ĠØ¨Ø§ÙĦØµØ¯ÙĤ	7855
ĠØ³Ø§Ø¬Ø¯ÙĬÙĨ	4071
ÙĪÙĤÙĨÙĬÙĨ	8772
ØºØ§	3581
ĠØ¯Ø§Ø¨Ø±	5353
ĠÙĬÙĥØ°Ø¨ÙĪÙĥ	6857
Ø³ÙĪØ§	1619
ĠØ£Ø¬ÙĦØ§	6253
Ø§ÙĩÙħ	1268
ØŃØ§	1276
ÙĦØ§Ø¦ÙĥØ©	652
ĠØ³ÙĬØ¡	8708
ĠÙĬØ¶ÙĦÙĦ	2261
ĠÙĪØ¥ÙĬØ§	2703
ĠÙĪÙħØªØ§Ø¹Ø§	6939
ĠØ£Ø¦	2634
ĠØ´ÙĩØ§Ø¯Ø§Øª	9971
ĠØ³ÙĨØ¨ÙĦØ§Øª	10158
ÙĪØ§ÙĦØ¯	3314
ĠØ¸Ø§ÙĦÙħÙĪÙĨ	3262
ÙĬÙħØ§ÙĩÙħ	3693
ĠØ¸ÙĨÙĥÙħ	8232
ĠØ£ØµØ¯ÙĤ	8494
ØºØ§Ø±	4860
ĠÙĪØ£Ø¬ÙĦ	4837
ĠÙħØªÙĤØ§Ø¨	5195
Ø¯Ø®ÙĦÙĨÙĩÙħ	9213
ĠÙĪØ°Ø±	7147
ÙħÙĬØ¹	930
ĠØ§ÙĦØ£Ø¹Ø±Ø§Ø¨	2610
ĠØ³ÙĪØ¡	974
ĠØ§ÙĦØ¹Ø³Ø±	6019
ĠÙĪØ£ÙĪØŃÙĬ	9490
ĠÙģØ§ÙĨÙģ	6509
ÙĬØ¨ÙĩØ§	8127
ĠÙĪØ£ØªÙħ	4836
Ø§Ø¶ÙĬØ©	4420
Ø±ÙĪØ´	7125
ĠÙĬØ¬Ø§Ø¯ÙĦÙĪÙĨÙĥ	9738
ĠØ§ÙĦØ´ÙħØ§ÙĦ	3684
ĠØ£Ø®Ø±	1345
Ø³Ø¨ØŃ	878
ĠÙĬØŃÙĦ	4218
ĠØ®Ø¨ÙĬØ±Ø§	2211
ĠØªØ´	754
ĠÙħÙĨØ«ÙĪØ±Ø§	10213
ĠÙĤØ·Ø¹	4759
ĠÙģÙĪØ¬Ø¯Ø§	9930
ĠØ£Ø®ØªÙĩØ§	8651
Ø±ÙĬØŃ	6065
ĠÙĦØ£ÙĥÙģØ±	6303
ĠÙħØ³ÙĥÙĬÙĨ	8516
ĠØ§ÙĦØ¨ÙĬ	1493
ĠØ§ÙĦÙĤØ±Ùī	1715
ĠØŃÙħÙĬÙħØ§	7009
ĠØ´Ø±Ø§Ø¨Ø§	9074
ĠÙĪØ£ØªØ¨Ø¹	5880
Ø·Ø¹	614
ĠØ§ÙĦØ±Ø²ÙĤ	2087
ĠÙģØ³Øª	3471
ĠÙģØ§ÙĥØªØ¨	6175
ĠÙĥÙĨØ§	690
Ø²ÙĦØ§Ùħ	7573
Ø§Ø¨ÙĦ	7640
Ø·ÙĬØ¹ÙĥÙħ	9584
ĠÙĪØ§ÙĦÙħØ³Ø§ÙĥÙĬÙĨ	2819
ĠÙĨØ³ÙĬØ§	6451
ĠÙĪÙĦÙĬÙĥÙĪÙĨ	8551
ÙģÙī	848
ĠØ³Ø¯ÙĬØ¯	7667
ĠÙģØ®ÙĦÙĤ	6806
Ø¨ÙĪÙĨ	731
ĠØ¥Ø³ØŃØ§ÙĤ	3498
Ø§ÙħØ³Ø©	7076
ĠØŃØ·Ø©	7762
ĠÙĦØ°ÙĨØ¨Ùĥ	6997
ĠØ§ÙĦØ¨Ø£Ø³	8542
ĠÙĪÙģØµØ§ÙĦ	9276
ĠØªØ¯Ø¹ÙĪÙĨÙĨÙĬ	9128
ÙģØªØŃÙĨØ§	9434
ĠÙĪØ¥Ø®ÙĪØ§ÙĨÙĥÙħ	7827
ĠÙĪØ¹Ø§Ø¯Ø§	8363
ÙĥÙĪÙĨÙĪØ§	3236
ĠØ§ÙĦØ£Ø¯Ø¨Ø§Ø±	4116
ĠÙĦØª	473
ÙĦØ·Ø§ÙĨ	2281
ĠØªØ¬Ø¹ÙĦÙĪØ§	4306
ĠÙĪÙĦÙĪÙĦØ§	1322
Ø§Ø¸	4042
ĠØ®ÙĦØ§ÙĦÙĩØ§	9665
ĠØ£ÙĩØ°Ø§	8347
ĠÙĦØ³Ø§ÙĨØ§	7315
ĠÙħØ±Ø¬	8503
ÙĨÙĩÙħ	439
ĠØ£Ø±ØŃØ§Ùħ	4346
ĠØ®ÙĦÙģÙĩÙħ	2264
Ø£ÙĨØ³	7419
ØªØ§ÙĥÙħ	8392
ĠÙĤØ¶ÙĬÙĨØ§	9829
ĠØ·ÙĦ	5034
ĠØªÙģ	884
ĠØ§ÙĦÙħØ£ÙĪÙī	4849
ĠØ³ÙħØ§Ø¡	7675
ĠÙĬÙħ	793
ĠÙĬØŃÙĬÙĬ	1601
ĠÙĦÙĩØ§	901
ÙģÙģ	2656
ĠÙĦÙĬØ¹Ø¨Ø¯ÙĪØ§	8002
ĠØ´	140
ĠØ¨Ø¥Ø°ÙĨ	1100
ĠÙĨÙģØ³Ùĩ	1260
ĠÙĦØ£Ø¬ÙĦ	5111
Ø¨ÙĬØ¯	3925
ĠØ¶ÙĬÙĤØ§	8336
ĠÙĪØ¹Øµ	6237
ĠØ£Ø°	1552
ÙĥØ±Ø©	2517
ØªÙĬÙĨØ§	563
Ø®Ø·Ùģ	4768
ĠÙĪÙĦÙĪØ§	4884
ĠØ¨Ø±ÙĪØŃ	5224
ĠØ§Ø´ÙĥØ±	9304
ĠØ«Ø¹Ø¨	7922
ĠÙĬØ£ÙħØ±ÙĪÙĨ	6223
ĠÙĬØ£ÙģÙĥÙĪÙĨ	8299
Ø§Ø¨Ø±ÙĪÙĨ	7642
ÙĦÙĩÙĨ	1777
ĠØ·Ø§ÙĤØ©	8271
ĠÙĪØ£Ø²ÙĪØ§Ø¬ÙĩÙħ	5465
ĠÙĪÙĤÙĦ	1226
ĠØªØ±ÙĬØ¯	6186
ĠÙĪØ³ÙĦØ§ÙħØ§	8664
ĠÙĬØµÙĦ	8777
ĠÙĬÙĨØª	4986
ĠÙĪØ§ØªÙĦ	4311
ÙĦØ¤	2615
ĠÙĬÙħØ³ÙĨØ§	9247
ĠØ£ÙģÙĦ	8302
ÙĬØ¶Øª	9917
ÙģØ³Ø¯	6050
ĠÙģØ«	7269
ĠØ¨Ø§ÙĦØŃ	3600
ĠØªØªØ¨Ø¹ÙĪØ§	3052
ÙĬÙĨØ§Ùĥ	7996
ĠØ§ÙĦØºÙģÙĪØ±	2388
ĠØ£Ø¹ÙĨØ§	2992
ĠÙħØ®ØªÙĦÙģØ§	5459
ĠÙĬÙĨØ¨Ø¦ÙĥÙħ	8135
ĠÙĬØ¤ØªÙĥÙħ	5184
ĠØ§ÙĦØ®Ø§ÙĦÙĤÙĬÙĨ	9582
ÙĩÙĪØ¯	2226
ĠÙĥÙģØ±ÙĪØ§	307
ĠÙĪØ§ÙĦØ£Ø¨Ø±Øµ	8166
ÙĨØªÙħ	237
ĠØ¨Ø±ØŃÙħØªÙĩ	8855
ĠØŃÙĤØª	4089
ĠÙĪÙĨØŃØ´Ø±	8258
ØŃØ²	1776
ØŃÙĬÙĪÙĨ	6440
ĠØ§ÙĦØ´Ø¬Ø±	8352
ĠØ°ÙħØ©	7859
ĠØŃÙĥÙĬÙħØ§	1841
Ø§ÙĦØ©	2045
ĠØ¸ÙĦÙĦ	6190
ĠÙĪØ§Ø¹Øª	4979
ĠÙĬØµÙĦÙĬ	8778
ĠØ·Ø§Øº	5036
ĠØ¹ÙģØ§	3516
ÙħÙĨ	95
ĠØ¢Ø¨Ø§Ø¡ÙĥÙħ	6522
ĠÙĪØ§ÙĦØ£ÙĤØ±Ø¨ÙĪÙĨ	6934
ĠØ§ÙĦÙħØµÙĦÙĬÙĨ	9573
Ø¹ÙĬÙĩ	5638
ĠÙĬØ´Ø§Ø¡	427
ÙĪØ³ÙĪØ³	6574
ĠØ´Ø·Ø±	4110
ĠØ¹Ø²	5745
ĠÙģØ§Ø¬	6170
ĠØ¬Ø¹ÙĦÙĨØ§ÙĩÙħ	8894
ĠÙĪÙĨØŃÙĬØ§	8255
ĠÙĪØ§ÙĦÙĨØ§	2478
ÙĪØ¯Ùĩ	2545
ĠÙĬØ³ØªØ¹ØªØ¨ÙĪÙĨ	7024
ĠÙħØ±ÙĬ	2178
ĠÙĪØ¢ØªÙĬÙĨØ§Ùĩ	2811
ĠÙĪØ§ÙĦØ¥ÙĨØ¬ÙĬÙĦ	3038
ĠÙĪØ§ÙĦØ¯ÙĬ	7599
ĠØ¹Ø±Ø¶ÙĩØ§	9415
ĠØªØ³ÙħØ¹ÙĪÙĨ	7487
ĠÙĬØ¤ØªÙī	8721
ĠÙĪØ§Ø¹ÙħÙĦÙĪØ§	8109
ĠÙģØ§Ø¶Ø±Ø¨	10052
ĠØ§ÙĦÙħØŃØ¶Ø±ÙĬÙĨ	10083
ĠØ§ÙĦØ³Ø¨Øª	4134
ÙĪØ§ÙĨ	5704
Ø¯ÙĤ	5649
ĠÙĬØŃÙĬÙĬÙĥÙħ	4398
Ø²Ùĩ	5817
ĠØ°ÙĥØ±ÙĨØ§	8749
ĠÙĬÙĩÙĬØ¬	10203
ĠØ§ÙĦØµÙĬØŃØ©	3235
ĠÙģØ§ÙĦØŃ	5667
ĠÙģØ£Ø¹Ø±Ø¶	3209
ĠØ¢Ø¨Ø§Ø¦ÙĩÙħ	6521
Ø¹ÙĦÙĨ	7862
ĠÙĪÙĬØ³Ø®Ø±ÙĪÙĨ	9375
ĠÙĪØ§ÙĦÙĨØ¬	4358
ÙĤÙĩ	2862
ĠÙĪÙĨÙģØ®	3264
ĠØ£ØªØ§	1616
ĠÙĦØ³ÙĨ	5682
Ø°ÙĪÙĨ	3487
Ø¹ÙĪØ¯Ø§	6612
ĠÙĬØ±Ø²ÙĤ	2537
ĠÙģØ§ØºÙģØ±	3898
ĠÙģØ£Ø¬ÙħØ¹ÙĪØ§	7957
ĠØ¨ØºÙĦØ§Ùħ	5157
ĠÙĬØŃØ§ÙĪØ±	8172
Ø¹ÙĥÙħ	3945
ĠØ§ÙĦØ¹Ø²Ø©	2931
ĠØ§ÙĦØŃÙĥÙħ	2219
ĠÙĪÙĬØ£Øª	5387
ĠÙĦØ´Ø¯ÙĬØ¯	5447
ĠÙĦØ®Ø§Ø³Ø±ÙĪÙĨ	6822
ĠØ§ÙĦØ¢	1928
Ø³Ø±ÙĪØ§	1891
ĠØ±Ø¨ÙĩØ§	3171
ĠÙĬØ¹ÙģÙĪ	8381
ĠØªÙģØ³	3134
ĠÙĪØ£Ø¯Ø¨Ø§Ø±	5882
Ø¹Ø°Ø¨ÙĩÙħ	3947
ĠÙĦØ£Ø²ÙĪØ§Ø¬	6302
ĠÙĦØ±Ø¨ÙĩÙħ	4478
ĠØ¬ÙĨØ§ØŃÙĥ	5274
ÙĥØ±ÙĩÙĪØ§	4165
ĠØ³ÙĨØ¯Ø³	6593
ĠÙĪÙĪØµÙĬÙĨØ§	6643
ĠØ§ÙĦØ³Ø§ØŃØ±	7879
Ø³ØªØ¶Ø¹ÙģÙĬÙĨ	7885
ĠÙħÙĩÙĦÙĥ	3092
ĠÙģÙĬÙĩÙĨ	2674
ÙĪØ¯ÙĪÙĨ	4244
ĠÙĦØ²Ø§	7314
ĠÙĩØ¯Ø§ÙĨÙĬ	9655
ĠÙĪØªÙĨ	4212
ÙĦØŃÙĪÙĨ	1169
ĠØ³Ø§Ø¨ÙĤ	9774
ĠØµØ§Ø¨Ø±Ø§	9979
ĠØ³Ø§ÙģÙĦÙĩØ§	10241
ĠØ£Ø¹Ø¯	1760
ĠÙĥØ§ÙģØ±	4753
ĠØ¬Ø§	3188
ĠÙĪØ£ÙĨØ°Ø±ÙĩÙħ	8263
ĠÙĦÙĬØ±	3110
ĠÙĨØµØ¨	5218
ĠØ¨ÙĥØªØ§Ø¨	4341
ĠÙĬØ³Ø±ÙĨØ§Ùĩ	9478
ĠØ§ÙĦØ£ÙĦÙĬÙħ	3594
ĠØ³Ø¨ÙĬÙĦØ§	1166
ĠØ§ÙĦØ±Ø¬Ø§ÙĦ	3377
ĠØ§ÙĦÙĥØ¨Ø±ÙĬ	8029
Ø§ÙĥÙĬÙĨ	2255
ÙĩØ§Ø±Ø§	2883
ĠØµÙĦ	4166
Ø±Ø³ÙĪÙĨ	8054
ĠØªØ¸ÙĦÙħ	5759
ÙģØ¶	5725
ĠÙĬÙĪØŃÙĬ	5344
ĠØ¹Ø§ÙĦÙĬØ©	9249
ĠØ¨Ø£Ø³Ø§	8290
ĠÙĪØ¬ÙĩÙĥ	3354
ĠÙħÙĨÙĬØ¨	4723
ĠÙģÙĩÙħ	919
ĠØ¬ÙĪØ¹	7773
ÙĪÙģØ§ÙĩÙħ	8197
ĠØ³ÙĪÙĬØªÙĩ	10243
ÙħØªØ¹	6460
ĠÙĪØ¬Ø§ÙĩØ¯	8070
ÙģØ§Ø±	989
Ø·ÙĩØ±	1571
ĠÙĦÙħØ¯ÙĬÙĨ	8093
ĠÙĪØ§ÙĦØ³ÙĦÙĪÙī	6588
ØµØŃØ§Ø¨	5803
ĠØ£ÙĥØ±Ùĩ	7247
Ø£ÙĨØ¹Ø§Ùħ	5206
ĠØ±Ø§Ø¬Ø¹ÙĪÙĨ	5418
ĠÙĬÙĥÙĦÙħÙĩÙħ	6236
ĠÙĪÙĥÙģØ±	2359
ĠØªØ´Ø±Ùĥ	3524
ĠÙħØªØ±ÙģÙĪÙĩØ§	10147
ĠØ¨ÙĤÙĬ	9117
ĠÙĪØ®	1128
ĠØ±ØŃÙĬÙħ	713
ĠÙĬØ¬ØªÙĨØ¨ÙĪÙĨ	10307
ĠÙĪÙĤØ±Ø§	4162
ĠØ¨Ø®ÙĦÙĤ	6632
ĠØ£ØµØ§Ø¨ØªÙĥÙħ	9109
ĠØµØ§ØŃØ¨ÙĥÙħ	9673
ĠØ®ÙĦÙĤ	324
ĠÙĤÙĦÙĪØ¨ÙĨØ§	3722
ĠØ£ÙĤØµÙī	8879
ĠÙħØ¹ØªØ¯	6109
ĠØ£Ø¥Ø°Ø§	2416
Ø¦	122
Ø³Ø¨Ø§Ø·	4229
ĠÙĬØ¹ÙĤÙĪØ¨	4264
ØªÙĦÙĪØ§	3923
ĠÙĪÙĬØªÙĪØ¨	6831
ĠÙģÙĪØ²Ø§	5677
ĠÙħØ¨ØµØ±Ø©	6581
Ø¨ÙĬØ±	717
ĠÙĪØ£ÙĨØª	1997
ĠÙħØ³Ø±ÙĪØ±Ø§	9743
ĠÙĩÙĦÙħ	7647
ĠØªØŃØª	3283
ĠÙĪÙĥØ±ÙĩØ§	10181
ĠØŃØ¯ÙĬØ«	1912
ĠÙħØ¬Ø±ÙħÙĬÙĨ	2446
ĠÙĪØ§ÙĦÙħØŃØ±ÙĪÙħ	8636
ĠØŃÙĨÙģØ§Ø¡	7763
ĠØ£Ø³Ø§Ø·ÙĬØ±	2776
ĠØ§ÙĦØ±Ø¬ÙĬÙħ	9266
ĠÙģØ¨Ø´Ø±Ùĩ	6941
ÙĦÙĬ	93
ĠØ¹Ø°Ø±Ø§	7452
ĠØ·ÙĦÙĤØªÙħ	5454
Ø®ÙĪØ§	1357
ĠØªØµ	954
ÙĬØ§ÙĦ	7100
ØŃÙģØ§	5734
ØªÙĪÙĨ	708
ĠØ·Ø±	5035
ĠÙĦÙĤØ§Ø¯Ø±ÙĪÙĨ	6325
ĠÙĥÙĨØ²	4472
ĠÙĪØ§Ø±Ùĥ	7155
ĠÙĪÙĦÙĤØ§Ø¦Ùĩ	9858
ĠÙĪØ²ÙĪØ¬	4371
ĠØ¥ØµÙĦØ§ØŃØ§	9760
ĠØ·ØºÙī	3676
ĠØ§ÙĦØ®ÙĪØ§ÙĦÙģ	10301
ÙĦÙĬÙĦØ§	702
ÙĩÙĬ	3912
ĠØ¨Ø·ÙĨ	9102
ĠØªÙħØ´ÙĬ	9136
ĠØ¨Ø®ÙĬØ±	3810
ĠØ¯Ø¹ÙĪØ©	5310
Ø¨ÙĥÙħ	2292
Ø¯Ø§Ø¯	3954
ĠÙĦØ¨Ø«ÙĪØ§	5251
ĠØ£Ø±Ø¨Ø¹	6703
ĠØ¨Ø´Ø±	1186
ĠØªØŃÙĬ	8394
ĠØ¨Ø§ÙĦØ¨ÙĬÙĨØ§Øª	1325
ĠØ§ØªÙĤÙĪØ§	1167
ĠÙĪØ§ØµØ·Ø¨Ø±	6988
ĠØ¨ØºÙĬ	8647
ĠÙĨØ·Ø¹Ùħ	9331
ĠØ£ÙĪ	161
Ø³ÙĪÙĨ	1938
ĠÙĥØ³ÙģØ§	4534
Ø°ÙĦ	4691
ĠÙģØ¢ÙħÙĨØ§	9157
ĠÙĪØ§ÙĦÙĨØµØ§Ø±Ùī	4360
Ø°Øª	4692
ĠÙĬØªÙĨØ§Ø²Ø¹ÙĪÙĨ	10117
ĠÙģØ§Ø³ÙĤÙĬÙĨ	3791
ĠØ§ÙĦÙħÙĩØªØ¯ÙĬÙĨ	7744
ĠÙĪØ£Ùħ	1360
Ø¬Ø²ÙĬÙĩÙħ	6696
ĠØ¥ÙĬØ§	2063
ĠÙĪØ§Ø¹Ø¨Ø¯	8107
ĠÙĦØ¹Ø¨Ø§Ø¯ÙĬ	9731
ĠÙĪØ§ÙĦØ´ÙĩØ¯Ø§Ø¡	6598
Ø³ÙĨÙĬ	5656
ĠÙĦØªÙĨØ°Ø±	4305
ĠØ£ÙĨØ¨Ø¦ÙĥÙħ	5832
ĠØ§ÙĦØ±Ø´Ø¯	5990
ĠÙĪÙĨØ£Ùī	8259
ĠÙĪØ£ÙĨØ²ÙĦ	2233
<BOS>	1
ĠØ§ÙĦØŃÙħ	907
ØŃÙĥ	4714
ĠÙĪÙĦÙĦØ±Ø³ÙĪÙĦ	6813
ĠÙĪØ¹ÙĩØ¯ÙĩÙħ	8368
ĠÙĦÙĥ	357
Ø¹ÙĦÙħÙĪÙĨ	1974
ĠÙĬØ®ØªÙĦÙģÙĪÙĨ	2557
ØµØ¯	555
ĠØªÙĨÙģØ±ÙĪØ§	8613
ĠÙĦØ¯ÙĨÙĩ	9047
ĠØ§ÙĦØµØ±Ø§Ø·	3645
ĠÙĪØŃÙģØ¸Ø§	10148
ĠØ¨Ø£	332
Ø³ÙĨØ©	1257
ĠØ£Ø¹Ø·Ùī	8605
ĠØªØ®ÙĦÙģ	8727
ĠØ§ÙĦÙĤØ§ÙĩØ±	9612
Ø±Ø³ÙĪÙĦ	1585
ĠØªÙĦØ¨Ø³ÙĪÙĨÙĩØ§	10171
Ø¨Ø§Ø¦ÙĩÙħ	7193
Ø§ØºÙĬØ©	8923
ØŃÙĥÙħØ©	6531
ĠÙĦÙĤÙħØ§ÙĨ	8530
Ø§ÙĨÙĩ	3548
ĠÙĦØºÙĬØ±	5295
ÙĬÙħØ§ÙĨÙĥÙħ	8418
ĠØ§ØªÙĤ	8429
ĠØªÙĤÙĬÙĥÙħ	8677
ĠÙĪØ£Ø·ÙĬØ¹ÙĪÙĨ	2337
ĠÙĬØ¹Ø¯ÙĦÙĪÙĨ	4499
ĠÙĬØ¯Ø§Ùĩ	6917
ĠÙģØ§Ø³ØªØºÙģØ±ÙĪØ§	8935
ĠØ£ÙĨØµØ§Ø±ÙĬ	9645
ØµØ±	390
ĠÙĨØ¹	2480
ĠØªØª	461
ĠÙħØ§ÙĦØ§	3093
ĠÙģÙĨØ¹Ùħ	4402
ÙĤØ¹Ø¯	5696
ĠÙħØ³Ø§Ùģ	6313
ĠÙĤÙĪÙĦÙĩ	5787
ĠÙĬØ¨Ø¯	1435
ĠÙĪÙĦÙĬØªÙħ	8549
ĠØ¨Ø§ÙĦØ¨Ø´Ø±Ùī	9318
ĠØ¹Ø¯ÙĪ	1377
ÙĩØ¬Ø±	4593
ĠØ´ÙĩØ±ÙĬÙĨ	9780
ĠØªØ±Ø¨Øµ	7494
ĠÙħØ¹Ø±ÙĪØ´Ø§Øª	10283
ĠØ¨Ø°ÙĨÙĪØ¨	5398
ĠÙģØ§Ø³ØªØ¨ÙĤÙĪØ§	6539
ĠÙĪØ£ØµÙĦØŃÙĪØ§	3846
ĠØ³Ø¨ØŃ	887
ĠÙħØ¤ÙħÙĨ	1682
ĠÙħÙĤØ±ÙĨÙĬÙĨ	5537
ĠÙģÙĬÙĪÙħØ¦Ø°	5541
ĠÙĪØªÙĥÙĪÙĨ	6139
ĠÙģØµÙĦÙĨØ§	6666
ĠÙħØ¨Ø±	7201
ĠÙĪÙħÙĬ	7145
ĠÙĪØ±ÙĩØ¨	8472
ĠØ¨ÙĪØ±Ø§	7364
ĠÙĪÙĦØ¢ÙħØ±ÙĨÙĩÙħ	10261
ĠØ§Ø¬ØªÙĨØ¨ÙĪØ§	9547
ĠÙĪØ§ÙĤØªÙĦÙĪÙĩÙħ	6112
ÙģØ§Ø¹Ø©	2383
ĠØªØŃÙħÙĦÙĩ	9821
ÙĪØ²	1021
ĠÙĪÙħØ«	4278
ĠÙģÙĬÙĥÙħ	2323
ĠØ®ÙħØ³Ø©	9847
ĠØ®ÙĦÙĤÙĩÙĨ	8279
ĠØ±Ø¨ÙĩÙħ	462
ÙĦØ£	1422
Ø§ÙĤØ¨	8488
ĠØ£Ø´Ø±	5642
ĠØ£Ø³Ø³	6400
ĠÙģØªÙĤØ¨ÙĦ	8325
ĠØªØ¤ÙħÙĨÙĪØ§	2667
ĠÙħØ¯Ø§	7203
ĠØ¨Ø±ØŃÙħØ©	3338
ĠÙħØ³ÙĦÙħØ§	8515
ĠÙħØ±Ø¶Ø§Øª	4424
ĠØ±Ø²ÙĤÙĨØ§ÙĥÙħ	3343
ĠØªÙĥÙģØ±ÙĪØ§	5106
Ø¥	106
ĠØ§ÙĦÙħØ±Ø³ÙĦÙĬÙĨ	1341
ĠÙĪÙĤØ§ÙĦØª	2113
ĠØ§ÙĦÙĬÙħ	2837
ĠØªØªÙģÙĥØ±ÙĪÙĨ	6327
ĠØ§Ø´Øª	5347
ĠØ§ÙĦØºØ§ÙģÙĦÙĬÙĨ	8524
ĠØ£Ø¬ÙĪØ±ÙĩÙĨ	3691
ĠÙĬØªÙħ	4673
ĠÙĬØµØ¯ÙĪÙĨ	3753
ĠØ¨Ø¨ÙĬÙĨØ©	7380
ĠØ³ÙĪÙĬ	7669
ÙĤØ°ÙģÙĬÙĩ	9594
ÙĤÙī	1043
ĠØ¹Ø¨Ø§Ø¯Ùĩ	1301
ØªÙĬÙĦØ§	3230
ĠÙħØ³Ùĥ	3712
ĠØ§ÙĦØ¥ÙĨØ³	3727
ĠÙĨÙĩÙĦÙĥ	7627
ØªÙħÙĪÙĨ	1575
ĠÙĪØ¬ÙĬØ¡	8072
ĠØ£Ø®Ø°ØªÙĩ	8979
ĠØ§ÙĨØµØ±ÙĨÙĬ	7028
ĠÙĪØªØ¤	8150
ĠØ¹ÙĬÙĨ	1625
ĠÙĪØ£ÙĨÙģØ³ÙĥÙħ	5033
Ø§Ø¦Ø²ÙĪÙĨ	4973
ĠØµØ§Ø¹ÙĤØ©	6040
ĠÙĬÙģØ±ÙĤÙĪÙĨ	9475
ĠØªØ£ÙĥÙĦÙĪÙĨ	2417
Ø±Ø¨Ùĥ	6081
ĠÙģØ£ØµØ¨ØŃ	1742
Ø°Ø¨ØŃÙĪÙĨ	8032
ĠØ£Ø´	698
ĠÙĪØ£Ø¯Ø®ÙĦ	4839
ĠØ§ÙĦØ®Ø²ÙĬ	4275
ĠØ±Ø³ÙĦÙĩÙħ	2382
ĠØ§ÙĦÙĤØ±Ø¢ÙĨ	889
ÙħØ³	456
ĠØ§ÙĦØºÙħØ§Ùħ	6321
Ø±ÙģÙĪØ§	3323
ĠØ§ÙĦØ£Ø´ÙĩØ§Ø¯	9853
ĠÙĬØº	718
ĠØ§ÙĦØ°ÙĨÙĪØ¨	10076
ØªÙĨØ¨ÙĪØ§	3847
Ø¨ÙĦÙĬ	2175
ĠØ¨Ø§ÙĦØ¨Ø§Ø·ÙĦ	2815
ĠÙħØªØ¹ÙħØ¯Ø§	8802
Ø§Ø¦ÙģÙĬÙĨ	8066
ÙĥÙĪÙĨÙĨ	2367
ĠØ¬ÙĨØ©	1638
ĠÙĪÙĬØ³Ø£ÙĦÙĪÙĨÙĥ	3845
Ø£ØªÙĬÙĨ	4010
ĠØ§ÙĦØ£ÙĥØ¨Ø±	4877
ĠØ§ÙĦÙħØ¯Ø§Ø¦ÙĨ	6963
ĠØ§ÙĦÙĥØ°Ø¨	1984
ĠØ²Ø§Ø¯	3285
Ø¨Øª	515
ĠØ§ÙĦØ£ÙĨØ¹Ø§Ùħ	2017
ĠØ±Ø¬Ø²Ø§	6417
ĠØ¨Ø§ÙĦØ¬	7844
ÙĥØ±Ø§	1609
ĠØ£Ø®Ø°	987
ĠØ§ÙĦØ²ÙĪØ±	8896
Ø§Ùĥ	846
ĠÙģØ§ÙĦÙĨØ§Ø±	8901
ĠØ®Ø·Ø£	9371
ĠÙĪØ£ÙĪØ±Ø«ÙĨØ§ÙĩØ§	9775
ĠØªØ±ÙĪØ§	8222
Ø·ÙĬ	603
ĠØ´Ø±ÙĥØ§Ø¡ÙĥÙħ	6572
ĠØµØ¨ØºØ©	9867
ĠØ¨ØŃÙħ	4704
Ø§Ø¨ÙĤÙĪÙĨ	5846
ÙĬØ¹	1606
ĠÙĬØºÙĦØ¨ÙĪØ§	5198
ĠÙĤØ±Ø¯Ø©	9223
ĠÙĥØ¯Øª	7516
ĠØ§Ø¶Ø·Ø±	4539
ĠÙĦÙĨÙģØ³Ùĩ	2603
ĠÙĥÙģÙĪØ±Ø§	3143
ĠÙĩÙĨÙĬØ¦Ø§	5542
ĠØ§ÙĦØ¥ÙĬÙħØ§ÙĨ	3308
ĠÙĦÙĦØ¹Ø¨ÙĬØ¯	4446
ĠØ§ÙĦÙĤØ§	2724
ĠØ±Ø³ÙĪÙĦØ§	1373
ĠÙģØªØŃ	3271
ĠØ§ÙĦØ¹Ø¯	5583
ĠÙĪÙĦÙĬØ¹ÙĦÙħ	3716
ĠØ¨Ø¯Øª	9201
ØªØ§Ø¨ÙĪØ§	6091
ĠÙĪØ¹ÙĬÙĪÙĨ	2967
Ø²ÙĦÙĬÙĨ	5001
ĠØªØ¯Ø¹ÙĪÙĨ	1264
ĠØ¥ÙĬÙħØ§	1310
ĠÙħØ«ÙĪÙī	2755
ĠØ·	322
ĠØ§ÙĦÙħÙĨÙĥØ±	2587
ØŃØ´Ø©	2157
ĠØ§ÙĦØªÙĪØ¨Ø©	5241
Ø°ÙĬÙĤÙĩÙħ	6496
ĠØ±ØŃÙħØ©	1058
ÙģÙĬØ©	7397
ÙħØ³Ùĥ	3294
ĠÙĥØ§ÙĦØ£	6534
Ø£ÙĨ	752
ĠÙĪØ²ÙĨÙĪØ§	8873
ĠÙĪØ§Ø³Ø¹Ø©	5306
ĠÙĬØ¤Ø°ÙĪÙĨ	5186
ĠÙģØ±Ø§Øº	6275
ÙĦØŃÙĪØ§	3729
ĠØŃØ·Ø§	5904
ĠÙĬØ¬ØªØ¨ÙĬ	6374
ĠØ´Ø§ÙĩØ¯Ø§	6895
ĠØ£ÙĪÙĦÙĬ	719
ĠØ£ØµØ§Ø¨	1233
ĠØ³ÙĬØ¦Ø§ØªÙĩÙħ	3374
ÙĪØªÙĩÙħ	5573
ĠÙĪØ°ÙĥØ±	1929
ĠÙĪØ§ÙĦØ±Ùĥ	5837
Ø°Ø±ÙĪØ§	2001
ÙĦÙĪÙī	5560
ĠÙĪØ£Øº	7715
ĠØ§ÙĦØµ	250
ĠØ¶Ø§ØŃ	8334
ĠØ¨ÙĦØ³Ø§ÙĨÙĥ	10002
ĠØ¹ÙĨØ¯Ùĩ	1370
ĠØ¹Ø§ÙĥÙģÙĪÙĨ	9819
ĠÙĬØ³Ø£ÙĦÙĥ	9889
ĠØ¢ÙħÙĨØªÙħ	2942
ĠÙħÙĦÙĪÙħØ§	7218
ĠÙĬØ¨Ø´Ø±Ùĥ	8862
ĠØ£Ø³Ø§ÙĪØ±	5169
ĠØ§ÙĦØ£Ø®Ø±Ùī	4567
ØºÙī	2340
ĠÙģÙĦÙĬØ£	5230
ĠØ§Ø¶Ø±Ø¨	5457
ĠØ°ÙĪØ§	5968
ĠÙĬÙĦØ§ÙĤÙĪØ§	7042
ĠØªÙħÙĨÙĪØ§	7488
ĠØªØ·ÙĪØ¹	9418
ĠØ§ÙĦØ¢ÙĬØ§Øª	1102
ĠÙĦØ¯Ø§	7305
ĠØ¥Ø·Ø¹Ø§Ùħ	7385
Ø¨Ø§ÙĦ	898
Ø·Ø¹ÙĨ	3738
ĠØŃÙħÙĦØ§	8840
Ø·Ùĩ	7683
ĠØ³ÙĪÙĦ	4817
ĠØ£ØµØ§Ø¨ØªÙĩÙħ	9108
ĠÙĬØ¹ÙĦÙħÙĪØ§	4247
ĠÙĦØ£ÙĨØ²ÙĦ	9436
ĠØ¨Ø¶	4701
ĠØ£ØªØ±ÙĬØ¯ÙĪÙĨ	9792
ÙģÙĪ	1945
ĠÙĬØ¦Ø³ÙĪØ§	9938
ĠØ§ÙĦØ¹ØªÙĬÙĤ	10272
ĠÙĪØ§ØªØ®Ø°ÙĪØ§	3728
ĠØ§Ø±Øª	5367
ĠÙĬØŃÙħ	6145
ĠÙħÙĬØ±	7197
Ø§Ø¦ÙĦÙĬÙĨ	4972
ĠÙĦØºÙĨÙĬ	9129
ĠÙĬØ£ØªÙĥÙħ	3680
ĠÙĬÙħÙĬ	3482
ĠØ´Ø·Ø±Ùĩ	9851
ÙĪÙĨØ³	4709
Ø²ÙĥÙī	7575
ĠØ§ÙĦØ¸Ø§ÙĦÙħÙĬÙĨ	684
ĠÙĥÙĦÙĩØ§	4032
ĠØ´ÙĬØ¦Ø§	589
ĠØªÙĪÙĥÙĦÙĨØ§	5410
ĠÙģÙĥØ§ÙĨ	1662
ĠØ¨ÙĤØ¯Ø±	3496
ĠØ¹Ø³Ø±	7437
ĠÙĬÙĤØ±Ø¶	8734
ØªÙĪØ§	483
ĠØ£Ø±ÙĪÙĨÙĬ	5647
ĠÙģÙĤØ¯Ø±Ùĩ	8794
ĠØ®Ø·Ø¨ÙĥÙħ	9373
ĠØ§ÙĦØ´ÙħØ³	1527
ÙĤØ¨ÙĪØ§	5699
ÙħØ´ÙĪØ§	7099
ĠØ§ÙĦØ¢Ø®Ø±Ø©	626
Ø§ÙĩÙĨ	7072
ÙģØ§Ùĩ	6244
ĠÙĬÙħØ³ÙĩÙħ	5332
ĠÙĨÙĪØŃÙĬÙĩ	8892
ĠÙĬØ¹ÙħÙĩÙĪÙĨ	3369
ĠÙĪÙĨØ¬ÙĪØ§ÙĩÙħ	10294
ĠÙĬØ±	287
ĠÙĪØ£Ø³ÙĦÙħ	7729
ĠØ·ÙģÙĦØ§	8276
Ùĩ	52
ĠØªØ®	641
ĠØ¨ÙĬØªÙĥ	9639
Ø¹ÙĩÙħ	2056
ĠÙĪØ§ÙĦÙħÙĬ	2683
Ø§Ø¯ÙĦ	4144
ĠÙĬÙĨØ¸Ø±	4987
ĠØª	85
ĠØ§ÙĦØ«	1547
ĠØ£ÙĪÙģÙĪØ§	4895
ØªØ¨ØªÙħ	6413
ĠØ§ÙĦØ´Ùĩ	5065
ĠØ¢ÙĪÙī	7709
ÙģÙĪØ§	938
ĠØ£ÙĪÙĦÙĬØ§Ø¡	1018
ĠØ£ÙħØ±ÙĪØ§	6353
ĠØ¢Ø¨Ø§Ø¤ÙĨØ§	3345
Ø¨Ø±Ø§ÙĩÙĬÙħ	643
ÙĥÙģØ±ÙĪÙĨ	4428
ĠÙĪÙĦØ¹	1969
ĠÙĬÙĥÙĨ	1075
ĠØ°Ø±Ø£	5420
ĠÙĬÙĤØ¯Ø±	4683
ĠØ£ÙĩÙħ	4635
ÙĪØ¯ÙĬ	4243
ĠÙĬØ¹Ø¨Ø¯ÙĪÙĨ	2550
ĠÙħØ§ÙĦÙĥ	6693
ĠØ®Ø§ÙĦØ§Øª	8655
Ø·ÙħØ¦ÙĨØ©	9535
ĠÙģØ£Ø®Ø°ÙĨØ§ÙĩÙħ	5284
Ø§Ø¡ÙĩÙħ	1635
ÙģØŃ	4710
ĠÙĪØ§ÙĦØ¹Ø¯ÙĪØ§ÙĨ	4566
ĠÙĬØ®ØªØµÙħÙĪÙĨ	5512
ĠÙĬØ³ØªÙĨÙĥ	6280
ĠØºØ¯Ø§	4960
ĠØ¨ÙĩØªØ§ÙĨØ§	5549
ĠÙģÙĤÙĪÙĦØ§	6356
Ø·ÙħØ¦ÙĨ	3406
ĠÙĪÙĪØ±Ø«	7160
ÙĨÙĬØ³Ø±	6080
ĠÙĤÙĦØ¨	7923
ĠØ¨Ø«	4703
ÙĦÙĪÙĨØ§ÙĩÙħ	7929
ĠØ£Ø³ÙĦØŃØªÙĥÙħ	10145
Ø¹Ø¯ÙĬÙĨ	4904
ĠÙĤØ§Ø¦ÙħØ©	4465
ĠÙĤØ±Ø¨Ùī	4762
ģ	32
ĠÙĬØ¶Ø±	1853
Ø±ØªÙħ	4598
ĠØ±ØŃÙħØªÙĨØ§	5187
ĠØªÙĦÙĥ	1153
ÙĩÙĤÙĩÙħ	7118
ĠØ±ÙħÙĬØª	7563
ĠÙĬÙĨÙĤØ°ÙĪÙĨ	10287
ĠÙĪØ§ÙĦØ¢	5836
Ø¯Ø§ÙĩÙħØ§	3663
ĠØ´ÙģØ§Ø¹ØªÙĩÙħ	9970
ĠÙĪØ¥ÙĨÙĩØ§	8034
ĠØ¹Ø¬Ø¨Ø§	5345
ØªØ¨Ø°Øª	8704
ĠÙĬÙĤØ¶ÙĬ	5188
ĠÙĪÙĬØ¹Ùģ	4900
ĠÙģØ§ÙĨØ·ÙĦÙĤ	5225
ĠÙħØ«ÙĨÙī	6261
ĠØ¨Ø§ÙĦÙĤØ³Ø·Ø§Ø³	9233
ĠØ¨Ø§ÙĦÙħØ¹Ø±ÙĪÙģ	1515
Ø§ÙĦØ¯ÙĬ	5578
ÙĪØ¨Ø©	3651
ĠÙĨÙĤØµ	2894
ÙģØ³ÙĩÙħ	1582
Ø¯Ø±Ø¬	7251
ĠØªÙĥÙĪÙĨÙĨ	2783
ĠÙĬØ¹Ø±Ø¶ÙĪÙĨ	6243
Ø²ÙĨ	5816
ĠØ§ÙĦØ¨ØŃØ§Ø±	8544
ĠØ§ØµØ·ÙģÙī	6945
ĠØ§ÙĦÙĤÙĪÙħ	705
ĠÙģØ§Ø³ØªÙĤÙĬÙħÙĪØ§	8934
ĠÙĪØ§ÙĦØ£ÙħØ±	6142
ĠÙħØ±ÙĬØ¶Ø§	6791
ĠØªØ£Ø®Ø°ÙĪØ§	8594
ĠØ§Ø®ØªÙĦØ§Ùģ	9153
ĠØªØ¹ÙģÙĪØ§	6329
ØºØ±Ø¨	3185
Ø¨Ø·	1038
ĥ	34
ĠÙĬØ®Ø²ÙĬ	4293
ĠØ£ØªØ®Ø°	5190
ĠÙģØªÙĤØ¹Ø¯	8327
ĠØ§ÙĦØ£Ø¹	1966
ĠÙĦØ¢ÙĬØ§Øª	1131
ØŃØª	2462
ĠØ§ÙĦÙĨØ¬	2377
ĠÙĦÙĬÙĤÙĪÙĦ	1806
ĠØªØ¹Ø¨Ø¯	2559
ĠÙĬÙĨÙĤ	4205
ĠØ¨ÙĥÙģØ±	4340
ĠÙģØª	349
ĠÙħØ¨ÙĬÙĨ	525
ĠØ§ÙĦÙħØŃØ±	4082
ÙħØ±ÙĪÙĨ	1750
Ø²Ùħ	2681
Ø¬Ø¹ÙĦÙĩ	3020
ĠÙĪÙĦØ¹ÙĦÙĥÙħ	2826
ĠØ·Ø§Ø¦Ø±	9096
Ø¸Ø§ÙĦÙħÙĬÙĨ	1639
ĠØªØ³Ø¹Ø©	8827
ĠØªØ¹ÙĦÙħÙĪØ§	4328
ĠÙĨÙģØ®	5253
ĠÙĬØ¹ÙħÙĦÙĪÙĨ	751
ĠØ³ÙĬØ¬Ø²ÙĪÙĨ	8710
ĠØ¯ÙħØª	6007
ĠÙĬØ£ØªÙĬÙĨ	2379
ĠØ¹Ø¬ÙĬØ¨	9287
ĠØ§ÙĦÙħÙĤØª	7736
Ø¨Ùī	3442
ĠØ´ÙģØ¹	4109
ĠÙĪØ§ÙĦÙĤØ§ÙĨØªÙĬÙĨ	9011
ĠÙħØ±Ø³	3090
Ø§ÙģØ§	6218
ĠÙĦØºÙĪØ§	5685
ĠÙĬÙĦØ¨Ø³ÙĪÙĨ	9638
ĠÙĪØ§ÙĦØ¥Ø¨ÙĥØ§Ø±	9122
ĠÙĬØ³ØªÙħØ¹ÙĪÙĨ	3708
ĠØ¨ØµÙĬØ±	1151
ĠØ¢ÙĦÙĩØ©	1741
ĠÙĪÙĬØ¨ØºÙĪÙĨÙĩØ§	6832
ØŃÙĬØ§Ø¡	8759
ĠØºÙĨÙĬ	3227
ÙĪØ§Ø¡	875
ĠØ®ÙĦÙĤÙĨØ§ÙĩÙħ	6209
ĠÙĬØ£ØªÙĬÙĨØ§	8298
ĠÙĪØ§Ø¬	3237
ĠØ¬Ø¹ÙĦÙĥÙħ	3760
ĠÙĪÙĦÙĨØ°ÙĬÙĤ	8950
ĠÙħØ¤ÙħÙĨÙĬÙĨ	1040
Ø³Ø±	310
ĠÙĬÙĨØ²Øº	6974
ĠØ£ÙĤØ±Ø¨	2578
ĠÙĪØ¥	143
ĠØ¬Ø§Ø«ÙħÙĬÙĨ	4554
ĠØ¨Ø§ÙĦÙĥØ§ÙģØ±ÙĬÙĨ	6896
ĠØ£Ø¬ÙĦÙĩ	8405
ĠÙĪØ¥Ø®ÙĪØ§ÙĨÙĩÙħ	7826
ĠØ¢ÙĨØ³	7708
ĠØªÙĥÙĨ	1415
ĠØ¢ØªØ§ÙĨÙĬ	9960
Ø§ÙĦØªÙĩ	7114
ØºÙģØ±ÙĪÙĨ	4298
ĠÙĬØ¨Ø¹Ø«ÙĩÙħ	6668
ĠÙĬØªØ±Ø¨Øµ	6121
ĠØ¨Ø§ÙĦÙĦØºÙĪ	5963
ĠØ£ÙĤØª	7236
ÙĦØ§ÙĦØ©	6428
ĠØ§ÙĦØ°	112
ĠØ¯Ø§Ø±	2719
ĠØ¨Ø§ÙĦØ°ÙĬÙĨ	3601
ĠØªØ¨Ø¯	1779
ĠØªÙĪÙĥ	2070
ĠÙĬÙĪØŃÙī	2036
ĠÙĥØ³	2668
ØºÙĪØ§	1008
ĠØ³Øª	3561
ĠØ§Ø¶	2772
ĠØŃØ¶Ø±	3579
ĠØ§ÙĦØ·ÙĬØ¨	4349
ĠØ¨Ø§ÙĦØ¹Ø¨Ø§Ø¯	4460
ĠØ¨Ø§ÙĦØºØ¯Ø§Ø©	9169
ĠÙĪØ£ÙĪÙĦØ§	3174
ĠØ§ÙĦÙĥØ¹Ø¨Ø©	8031
ĠÙħØ¹ÙĦÙĪÙħØ§	9512
ĠÙĪØ§ÙĦØ¬Ø¨Ø§ÙĦ	3858
ĠÙĤØ§Ø¯Ø±ÙĬÙĨ	10228
Ø³Ø¨ÙĪÙĤÙĬÙĨ	8200
ĠØ¥ÙĨ	99
ĠØªØ¶Ø±	4025
ĠÙĬØ±ÙĪÙĨ	2187
ĠÙģØ±Ø·ÙĨØ§	8445
ĠÙĪØ°ÙĦÙĥ	2051
ĠÙĬÙĩØ¯ÙĬÙĩ	8883
ĠÙĪØ§Ø³Ø£ÙĦ	9171
ĠØµÙĦØŃ	6036
ĠÙĬØ¶ÙĦÙĩ	8996
ĠÙĨØ¹ÙħÙĦ	4364
ĠÙħØ¨ÙĬÙĨØ§Øª	6364
ĠÙĤØ·ÙĪÙģÙĩØ§	9947
ĠØ§ÙĦØ£ÙħÙĪØ§ÙĦ	6597
ĠØ£ÙĬÙħØ§ÙĨÙĩÙħ	1913
