{"ÙģØ¶ÙĦ": 7399, "ÙħØªÙħ": 3422, "ĠØ£ØŃÙĥÙħ": 8216, "ĠØŃØ²Ø¨": 3184, "ĠØªØ·Ø¹ÙĩÙħØ§": 9533, "ĠØªØ¨ØªØºÙĪØ§": 9531, "Ø§Ø±": 176, "Ø·ÙħØ¦ÙĨØ©": 9536, "ĠØ§ÙĨÙģØ±ÙĪØ§": 6476, "ĠÙģØ¬": 1182, "ĠØ´ÙĩØ§Ø¯Ø©": 4112, "ĠØ±ÙĪØ§": 2474, "ĠÙģØ¦": 5663, "Ø°Ø¹": 7347, "ĠØ¹Ø´ÙĬØ±": 7447, "ÙĬØ¶Øª": 9918, "ĠÙĪØ¬ÙĬØ¡": 8073, "ĠØ£ÙĨØ¯Ø§Ø¯Ø§": 3556, "ĠÙģÙĦØ§": 355, "ÙģØ³ÙĩÙħ": 1583, "ĠÙģÙĥÙĦØ§": 8644, "ĠÙģØ±Ø§Øº": 6276, "ĠÙħØ§Ø¡": 987, "ĠÙĥØ¨ÙĬØ±Ø§": 1698, "ĠØ¬ÙħÙĬÙĦØ§": 5210, "ĠÙģØ£Ø®Ø°ÙĨØ§Ùĩ": 6608, "ĠØ§ÙĦÙħØ¯ÙĬÙĨ": 1966, "ĠØ¨Ø£ÙĩÙĦÙĩ": 8293, "ĠØ¥ÙĬÙħØ§": 1311, "ĠÙĬÙĤØ¶Ùī": 8737, "ĠØ³ÙĬÙĤÙĪÙĦÙĪÙĨ": 5177, "ĠØªØ±ÙĥØªÙħ": 9190, "Ø¶ÙĪÙĨ": 1953, "ĠÙĪØ£ÙĪØŃ": 2209, "ĠØ¨Ø£Ø¹ÙĬÙĨ": 5046, "ĠØ¨Ø§ÙĦØ°ÙĬ": 2350, "ĠØ¨Ø¹Ø¶ÙĩØ§": 6266, "ĠØ¹Ø§ÙĤØ¨Ø©": 1238, "Ø¯Ø§Ø¯Ø§": 3101, "ĠØ§ÙĦÙĥÙĬÙĦ": 3225, "ĠÙĬÙĪÙħÙĬÙĨ": 6083, "ĠÙĩØ¤ÙĦØ§Ø¡": 928, "ĠØ§ÙĦØ¬ÙħØ¹Ø§ÙĨ": 5473, "ĠÙĦÙĦØ¨Ø´Ø±": 6136, "ÙĨÙĬÙĩ": 8051, "ĠÙĪÙĬØ¤ØªÙĪÙĨ": 4520, "ĠØ¨Ùħ": 883, "ĠÙĪØ§ÙĦØµØ§Ø¨Ø±ÙĬÙĨ": 5306, "ĠÙģØ£Ø³Ø±": 4927, "ØªØ§ÙĩÙħ": 4266, "ĠØ§ÙĦØ¹Ø²ÙĬØ²": 684, "ÙĦÙĪÙĩ": 3420, "ĠÙĬÙĦ": 3974, "ØŃÙĦ": 4713, "ØºÙĩ": 5910, "ĠÙĬØ³Ø£ÙĦÙĥ": 9890, "ĠÙĨØ³Ø¨Ø§": 10239, "ĠØ§ÙĦÙģØ§": 1272, "Ø¹Ø©": 453, "ĠÙĪÙĨØ¬ÙĨÙĬ": 7021, "ĠÙĬØµØ¯Ø¹ÙĪÙĨ": 9451, "ĠÙĦØ£ÙĥÙģØ±": 6304, "ĠØ§ÙĦØ®Ø§Ø¦ÙĨÙĬÙĨ": 8425, "ĠÙĪØ¥ÙĨØ§": 1051, "ĠØ¨Ø§ÙĦÙĤØ³Ø·": 2035, "ĠØ§ÙĦØ¨Ø´Ø±Ùī": 6337, "ĠÙĪÙĬÙĤÙĪÙĦÙĪÙĨ": 1201, "ĠÙĪØ§Ø³ÙħØ¹": 8109, "ĠØ³ÙĬØ¬Ø¹ÙĦ": 8710, "ĠØ¬Ø¯ÙĬØ¯": 2913, "ĠÙĪØ§ÙĦÙħØ±": 4794, "ĠØ£ÙĪÙģÙī": 5975, "ĠØ§Ø¦ØªÙĪØ§": 9383, "ĠØ³Ø£Ø±ÙĬÙĥÙħ": 9391, "ĠÙģØ£ØµØ§Ø¨ÙĩÙħ": 9096, "ĠÙģØ£Øµ": 1202, "ĠØ¨ØºÙĬØ§": 2999, "ĠÙĪÙĨØ¬ÙĪØ§ÙĩÙħ": 10295, "ĠØ¶ÙĬÙģÙĬ": 10004, "ĠÙĥØ§ÙĦ": 906, "ĠØ¨Ø¹Ø«ÙĨØ§": 3852, "ĠØ¨ÙħØµØ§Ø¨ÙĬØŃ": 10311, "ĠØ¨Ø§ÙĦØ±ØŃÙħÙĨ": 5962, "Ø³ÙĪÙĩ": 7261, "ĠÙĤØªÙĦÙĪØ§": 3826, "ĠÙĬØ¤ØªÙĬÙĩ": 3743, "ĠØ£Ø±Ø§ÙĨÙĬ": 8776, "ĠØ³ÙĪØ¡Ø©": 8978, "ÙĤÙĤ": 5695, "ĠØ¯ÙħØ±ÙĨØ§": 9978, "ĠÙĥØªØ¨": 1222, "ĠÙĪØ¥Ø³ÙħØ§Ø¹ÙĬÙĦ": 2706, "ĠÙĬØ´Ø§Ø¡ÙĪÙĨ": 4295, "ĠØµØ±ÙģÙĨØ§": 5493, "ĠÙĩØ¯Ø§ÙĬ": 9333, "ĠÙĪØ§ÙĦÙħÙĨØ§ÙģÙĤØ§Øª": 4575, "ĠØªØ³Ø¨ØŃ": 7481, "ĠØ¥Ø°": 338, "ĠÙĪØµÙĬØ©": 3798, "ĠÙĪÙģØ±ÙĬÙĤØ§": 6725, "ĠÙħØ¢Ø¨Ø§": 9589, "ĠÙĪÙħÙĨØ°Ø±ÙĬÙĨ": 4929, "ĠÙħØ§Ø¦Ø¯Ø©": 9470, "ĠÙħØªØ±": 8797, "ĠÙĬØ³ØªØ¹ØªØ¨ÙĪÙĨ": 7025, "ĠÙĦÙģÙĬ": 1133, "ĠØ´Ø§Ø¡": 759, "ĠØ§ÙĦØ¬Ø§ÙĩÙĦÙĬÙĨ": 3861, "ĠÙħØ³ØªÙĤØ±Ø§": 5435, "ĠØ§ÙĦØ°Ø¦": 5850, "ĠØ£ÙĪÙĦÙĬØ§Ø¡": 1019, "ÙĪÙĥØ§": 8578, "Ø±ÙĪØ§": 1177, "ĠØ¬Ø¹ÙĦÙĨØ§ÙĥÙħ": 8896, "ĠØ¬Ø²Ø§Ø¤Ùĩ": 6529, "ØŃØªÙĪÙĨ": 4717, "ĠÙĪØ§ÙĦÙħØ¤ÙħÙĨÙĪÙĨ": 3311, "ĠÙĪØ§ÙĦØ´ÙĬØ§Ø·ÙĬÙĨ": 7609, "Ø§ÙĨÙĩ": 3549, "ĠÙģØ§ØªØ¨Ø¹ÙĪÙĨ": 8940, "ĠØ£ÙĩØ¤ÙĦØ§Ø¡": 5065, "ĠÙĬØ±Ø¯ÙĪÙĨ": 6159, "Ø´Ø±ÙĥÙĪÙĨ": 1072, "Ø³ÙħÙĬÙĨ": 8077, "ĠÙĬÙģØªÙĨ": 9022, "ĠÙĦÙĤ": 461, "ĠØ³Ø®Ø±": 1792, "ĠÙĦØ³": 2305, "ĠÙĬØ¬Ø§Ø¯": 2124, "Ø¨Ø§Ø±Ùĥ": 1737, "ØŃÙĬØ§": 2659, "ĠÙĤØ±Ø¨Ùī": 4763, "ĠÙģØ£ÙĥØ«Ø±": 7951, "ĠØ³Ø¨ØŃ": 888, "ĠÙħÙĬØ«Ø§ÙĤÙĩ": 9308, "ĠÙģØ¶": 782, "ĠÙĪØ¨Ø¦Ø³": 1899, "ĠÙĪØ§Ø¯": 1756, "Ø·Ø±ÙĨØ§": 3773, "ĠØ£ÙģÙĬ": 5047, "ØŃÙĪØ±Ø§": 3127, "ĠÙħÙĦÙĤÙĪÙĨ": 7217, "ÙĪØ³ÙĥÙħ": 9018, "ÙģÙī": 849, "ĠÙĩÙĨÙĬØ¦Ø§": 5543, "ĠØ³ÙĬØ¦Ø©": 2246, "ĠÙĬÙģØª": 1066, "ÙĦØ§Ø¡": 527, "ĠÙĪØ´Ùģ": 7155, "Ø®": 97, "ĠÙħØºØ§ÙĨÙħ": 6777, "ĠÙĨØ´Ø§Ø¡": 1603, "ĠØ³Ø§Ø¨ÙĤ": 9775, "ĠØ£ÙĪÙħÙĨ": 7868, "ĠÙĬØ°ÙĥØ±ÙĪÙĨ": 2308, "ĠØ£Ø±Ø§ÙĥÙħ": 5262, "ĠØ£Ø¹Ø·Ùī": 8606, "ĠØ£Ø¹ÙĦÙħ": 764, "ĠØ´Ø±ÙĥØ§Ø¡": 2150, "ĠØ£ÙĥØ¨Ø±": 1593, "ĠÙĨÙĪØ±Ø§": 2690, "ĠØ¢Ø®Ø±ÙĬÙĨ": 3050, "ĠÙģØ°Ø§": 7272, "ĠÙĬÙĨÙĬ": 7322, "ĠØªØ¬ÙĦÙī": 8579, "ĠÙħØ¯Ø¨Ø±Ø§": 9006, "ĠÙħØ°ÙħÙĪÙħØ§": 9741, "ĠÙħØ±ÙĬÙħ": 1078, "Ø°ÙĪÙĤÙĪÙĩ": 10061, "ĠÙĪØ§ÙĦÙħØ³ÙĥÙĬÙĨ": 9362, "ĠØ§ÙĦØŃØ±": 4918, "ĠØ§ÙĦØ®Ø§ÙĦÙĤÙĪÙĨ": 9584, "Ø·Ø©": 4822, "ĠÙĦØ£Ø¬ÙĦ": 5112, "ĠÙĦÙĥÙħ": 206, "ĠÙĪØ¹ØµÙĪØ§": 8365, "ĠÙĬÙĨÙĥØŃ": 9725, "ĠÙĨØ°": 957, "Ø¢": 153, "ĠØ®Ø²ÙĬ": 3587, "ĠÙĪØ§ÙĦØ®Ø§ÙħØ³Ø©": 9572, "ĠÙĪÙĨØ¬ÙĪØ§": 8257, "ĠÙĬØ±Ø³ÙĦ": 2454, "ĠØ¨ÙħØµØ±Ø®": 8918, "Ø§ÙģØ±ÙĪÙĨ": 1016, "ĠØµØ§Ø¯ÙĤÙĬÙĨ": 1120, "ĠÙĪØ°Ø±ÙĪØ§": 4616, "ĠØ¹ÙĦÙħÙĥÙħ": 5137, "ĠØªØ¹Ø¶ÙĦÙĪÙĩÙĨ": 8538, "ĠØ¨Ø¸ÙĦÙħ": 3493, "ĠÙĪØ£Ø®Ø§Ùĩ": 6743, "ĠÙĪÙĦÙĬØ³Øª": 8551, "ĠØ¯Ø¹Ø§ÙĥÙħ": 9612, "ĠÙħØ·ÙĩØ±Ø©": 4562, "ÙĤØ·": 1770, "ĠÙĦÙĬØ¸ÙĩØ±Ùĩ": 6060, "ĠØ³Ø§Ùħ": 5859, "ĠØ§ÙĦÙħØ³Ø¨ØŃ": 7740, "Ø¨ÙĬÙĪØªÙĩÙħ": 8027, "ĠØ¨ÙĦØ§Øº": 10062, "ĠØ§ØªÙĤ": 8430, "ĠØ§ÙĦØŃØ¯ÙĬØ¯": 6003, "Ø£Ø³Ø§Ø¡": 4722, "ĠÙĪØ¥": 144, "ĠÙĬØºÙĬØ¸": 8810, "ĠÙĪØªÙĪÙĦÙī": 3248, "ĠØ": 47, "ĠÙĥØ´Ø¬Ø±Ø©": 9947, "Ø·Ø§Ø³": 6473, "ĠØ£Ùĥ": 419, "ÙĥØ¨Ø±": 1496, "ĠØ£ØªÙħ": 3949, "ĠØ³Ø®Ø±ÙĩØ§": 9369, "ĠØ§ÙĦÙħØ´": 4844, "ĠÙĪØ§ÙĤØª": 8107, "ĠØ°ÙħØ©": 7860, "ĠØ§ÙĦØ£Ø¬Ø¯Ø§Ø«": 7058, "ĠÙĪÙĨØ¬ÙĬÙĨØ§": 6199, "ĠÙĦÙĬØ¤ÙħÙĨÙĨ": 8009, "ĠÙĪØ³ÙĦØ§Ùħ": 6390, "ĠØ·ÙĦØ¹": 5038, "ĠÙĬØ³Ø£ÙĦÙĪÙĨ": 5110, "ĠØ§ÙĩØª": 1885, "Ø°ÙĬÙĤÙĩÙħ": 6497, "ĠØ£Ø¹Ø°Ø¨Ùĩ": 8605, "ĠØ£Ø¹ÙĬØ¯ÙĪØ§": 8607, "ĠÙģØ¬Ø¹ÙĦÙĨØ§ÙĩÙħ": 4515, "ĠØ£ÙĨØ§Ø¨": 6412, "ĠØ®ÙĦÙĤÙĥÙħ": 1654, "ĠÙĪÙĨØ¬Ø¹ÙĦÙĩÙħ": 9994, "ĠØ®Ø²": 2343, "ĠÙĪØ¹ÙĦÙī": 962, "ĠÙħØŃÙĬ": 1934, "ĠÙĦØºÙĪØ¨": 9131, "ĠÙĬØ¨ÙĥÙĪÙĨ": 8862, "ĠØ§ÙĦØ£Ø¹ÙħÙī": 3198, "Ø¬Ø±Øª": 5004, "ĠØ§ÙĦÙħØ³ÙĬØŃ": 2575, "ĠØ¥ÙĦØ§": 149, "ÙģØ¬Ø±": 7395, "ĠØ£Ø²ÙĪØ§Ø¬Ùĥ": 8961, "ĠÙĪØ¹ÙĨØ¯Ùĩ": 6721, "ĠÙĦØ±Ø¡": 3971, "ĠÙĬÙĦØ¨Ø³ÙĪÙĨ": 9639, "Ø±Ø³ÙĦ": 1096, "ĠØ§ÙĦÙĨØ¹ÙĬÙħ": 2544, "Ø¯Ø¬Ø±": 7251, "ĠÙĪØ£ÙĬØ¯ÙĬÙĥÙħ": 5442, "ÙĬØ§Ø±Ø©": 5973, "ĠØ¨ÙĬØ¯Ùĩ": 3994, "ĠÙĦÙĬØ£Ùĥ": 6059, "Ø¬ÙĬÙĨØ§Ùĩ": 2074, "ĠÙģØ§Øª": 921, "ÙĦÙĦ": 2437, "ĠØ«ÙħÙĪØ¯": 2091, "ĠÙĬØ¯Ø®ÙĦÙĪÙĨ": 2824, "ĠØªØªØ®Ø°": 5119, "ĠØ§Ø³ØªØ¬Ø§Ø¨ÙĪØ§": 5556, "ĠÙĦÙĤØ§ÙĦÙĪØ§": 6325, "ĠÙĪØ£ÙĨÙī": 8261, "Ø³Ø¨ÙĪÙĤÙĬÙĨ": 8201, "ĠØªÙĥ": 433, "ĠØ£ÙģØªÙĪÙĨÙĬ": 8308, "ĠÙĬØ³ØªØ¨Ø´Ø±ÙĪÙĨ": 4288, "ĠÙģØ¢ÙħÙĨÙĪØ§": 3810, "ĠØ§ÙĦØ¹Ø¸ÙĬÙħ": 1011, "Ø§ÙĨØªÙĬÙĨ": 5824, "ĠÙĬØ¶Ø±ÙĥÙħ": 6750, "ĠÙħÙĨØ¹": 3129, "ĠØªÙĦØ¨Ø³ÙĪÙĨ": 6954, "ĠÙĬØ²": 1108, "Ø³Ø¨ÙĪÙĨ": 1206, "ĠØ£ÙħØ±Ùĩ": 2563, "ĠØŃÙĥÙħ": 3180, "ĠØ§ÙĦÙħØ³Ø±ÙģÙĬÙĨ": 3179, "ĠØ§ÙĦØµÙĬØŃØ©": 3236, "ĠØ¨ÙĬÙĨÙĩÙħØ§": 1122, "ĠØºÙĨÙĬØ§": 6077, "ĠÙĪØ£Ø²ÙĪØ§Ø¬": 2905, "ĠÙĬØ£ÙĥÙĦ": 3834, "ĠÙģØ§ØŃ": 4232, "ĠØªØ´ÙĥØ±ÙĪÙĨ": 1600, "ÙĪÙĨØ³": 4710, "ĠÙĬÙĩØ¯ÙĬÙĨ": 6716, "ĠØ¹ÙĨÙĩ": 995, "ĠØŃØ§Ø¬Ø©": 6852, "ĠÙĬÙĤÙĪÙĦÙĪØ§": 2405, "ĠÙĦØŃÙĥÙħ": 3970, "ĠÙĪØ¥ÙĬØª": 5945, "ĠÙĨÙģØ³ÙĩØ§": 8575, "ĠÙĪÙħÙħÙĨ": 4278, "ĠØªØ¹Ø¯": 2468, "ĠØ§ÙĦØ«ÙĦØ«": 5595, "ĠÙĪÙĬØ±ÙĬØ¯": 6662, "ĠÙģØ¶Ø©": 5217, "ĠØ£Ø¥Ø°Ø§": 2417, "ĠÙĪØ§ÙĦØ³ÙħØ§Ø¡": 2801, "ÙħÙĨÙĬ": 5793, "ĠÙĪØ§": 264, "ĠÙĨØµØ±Ø§": 6499, "ĠÙģØ£ØºØ±ÙĤÙĨØ§ÙĩÙħ": 7016, "ĠÙĤØªÙĦØª": 6684, "ÙĪØªÙĬ": 7109, "ĠÙĨØµØ§Ø±Ùī": 4067, "ÙģØ±ÙĤ": 7799, "ĠØ§ÙĦÙĨØ§Ø±": 496, "ĠÙģÙĬÙĩØ§": 258, "ĠØ¨Ø§ÙĦØ¬": 7845, "¦": 9, "ĠÙħÙģØµÙĦØ§": 9742, "ĠØ§ÙĦÙģ": 537, "ĠÙĩÙĨÙĬ": 4815, "ĠØ§ÙĦØ²ÙĪØ¬ÙĬÙĨ": 8899, "ĠÙħØ®ÙĦØ¯ÙĪÙĨ": 7221, "ĠØ¹Ø°Ø§Ø¨Ø§": 981, "ĠØ¢ØªØ§": 1455, "ĠÙĪØ°Ø±ÙĬØ§ØªÙĩÙħ": 7035, "ĠÙĪÙĦÙĬÙĤÙĪÙĦÙĪØ§": 8555, "ĠÙĪØ¬Ø¹ÙĦÙĨÙĬ": 5243, "ÙĥÙĨØ©": 7173, "ÙĪØ³ÙĪØ³": 6575, "ĠÙĪØ£Ø®Ø±Ø¬": 3176, "ØªÙģÙĤØ§": 7186, "Ø«Ø§ÙĨØ§": 7700, "ĠÙĥÙĩÙģ": 7519, "ĠØ¢ØªØ§ÙĩÙħ": 3048, "ĠÙĤÙĪÙħÙĨØ§": 5019, "ĠØ¨Ø¥Ø°ÙĨÙĬ": 5229, "ĠÙĬÙĪØŃÙī": 2037, "ØªÙĪÙĨÙĬ": 2134, "ĠÙĪÙĬØ³Ø¹ÙĪÙĨ": 9375, "ĠÙħØ±Ø³ÙĦÙĬÙĨ": 9688, "ĠØ´ÙĥÙĪØ±Ø§": 6606, "ĠÙĥØ¯": 4749, "ĠÙħØªØ±Ùģ": 6463, "ĠÙĪØµØ§ØŃØ¨": 6580, "ÙĤØ·Ø¹ÙĪÙĨ": 6736, "ĠØ§ÙĦØ±": 167, "ĠØ§ÙĦØŃÙĬØ§Ø©": 694, "ØªØº": 1429, "ÙĪØ¨ÙĩØ§": 8131, "ĠØ±Ø£ÙĪÙĩ": 8931, "ĠÙģØ¹ÙĤØ±ÙĪÙĩØ§": 6987, "ĠÙĬØ¤ØªÙĬÙĩÙħ": 8724, "ĠÙĬÙĤØ§ØªÙĦÙĪÙĨÙĥÙħ": 5445, "Ø¨ÙĬØ±Ø§": 1086, "ĠÙĬØµÙĦÙĪÙĨ": 3011, "Ø·Ø±Øª": 6520, "ĠØ§ÙĦÙħØ±ÙĬØ¶": 7750, "ĠÙĪØ§ÙĦØ¨ØµÙĬØ±": 4426, "ĠÙĦÙĬØ·ÙĩØ±ÙĥÙħ": 8011, "ĠÙĦØªØ±Ùĥ": 6344, "ĠÙĪØ£Ø¨ØµØ±": 6753, "ĠØ¨ÙĬÙĨØ§": 5709, "ĠØªÙĪØ¨ÙĪØ§": 4541, "ĠÙĤÙĦ": 175, "ĠÙĬÙĪØ³Ùģ": 1485, "ĠØ³ÙĦÙĥ": 7658, "ĠÙĤØ±ÙĬØ©": 1381, "ĠÙħÙĨÙĥÙĨ": 4725, "ĠØªÙħÙĪØªÙĨ": 9904, "Ø¥": 107, "ÙĪØ¹": 1176, "ĠØ¨Ø´ÙĬØ±": 9160, "ĠÙĦØ¶": 7298, "ĠØ£ÙĨØ²ÙĦÙĨØ§Ùĩ": 2026, "ĠØ¨Ø·ÙĪÙĨÙĩØ§": 9624, "ĠÙĤØ§Øª": 5786, "ĠÙĪÙĥÙģØ±": 2360, "ĠÙĦÙĦÙħØ³ÙĦÙħÙĬÙĨ": 8697, "ĠØ§ÙĦØ£Ø±ØŃØ§Ùħ": 3596, "ØºØ¶Ø§Ø¡": 4094, "ĠØ«ÙĦØ§Ø«Ø©": 2424, "ÙĦÙħ": 114, "ĠÙĪØ§Ø": 771, "ĠÙģØ£ÙĪÙĦÙī": 6013, "ĠÙħÙĤØ§Ø¹Ø¯": 9691, "ĠÙĬØ¨Ø§ÙĬØ¹ÙĪÙĨÙĥ": 10176, "ĠÙĪØ£Ø²ÙĦÙģØª": 10080, "ĠÙĪÙĬÙĤÙĪÙĦ": 2216, "ĠÙĥÙĩÙĬØ¦Ø©": 10228, "Ø§ÙĤÙĪÙĨ": 7075, "ĠÙĦÙĤÙħØ§ÙĨ": 8531, "ÙĤÙĪÙĦÙĪØ§": 4198, "ĠÙģÙĥØ´ÙģÙĨØ§": 8647, "ĠÙĬØ·ÙħØ«ÙĩÙĨ": 10317, "ĠØ£Ø³Ø§ÙĪØ±": 5170, "ØªÙĦ": 917, "Ø±Ø§Ùĥ": 1254, "ĠÙħØ¹ÙĬ": 1990, "ĠØ¥Ø³ÙħØ§Ø¹ÙĬÙĦ": 5724, "ĠØ¨Ø§ÙĦØ®ÙĬØ±": 5963, "Ø®Ø·Ùģ": 4769, "ĠØ®ÙĦÙĤÙĨØ§Ùĩ": 5043, "ĠÙĨØµØ±ÙĥÙħ": 6657, "ĠÙģØ°Ø±ÙĪÙĩØ§": 9930, "ĠÙĬØªÙĪÙĥÙĦÙĪÙĨ": 4203, "ØŃÙĬ": 674, "ĠØ³Ø¨ÙĤØª": 3357, "ĠÙģØ±Ø¬": 5095, "ĠØ£ÙĤØ³ÙħÙĪØ§": 9504, "ĠÙĦØ®Ø¨ÙĬØ±": 9562, "ĠÙģØ¢ØªÙĪÙĩÙĨ": 9906, "ĠØŃØ±Ø«ÙĥÙħ": 9736, "ĠØ§ÙĦØ³Ø¨ÙĬ": 1164, "ĠØ¯Ø§Ø¹ÙĬ": 7940, "ĠØªØ¬Ø²ÙĬ": 8580, "ĠÙĪÙĬØ¹Ø°Ø¨": 3828, "ÙĥÙī": 2054, "ĠÙĪØ§ÙĦØ¹": 2890, "Ĩ": 38, "ĠÙħØ´Ø±ÙĥÙĬÙĨ": 4627, "ĠØªØ±Ø¬": 5022, "ĠÙĪØ¹Ø¬": 8358, "ĠØ¨ÙħØµØ§Ø¨": 8917, "ĠÙĪØ§ÙĦØ³ÙĦØ§Ùħ": 9056, "ĠÙĪØ¥ÙħØ§": 1969, "ÙģÙĬÙĨØ©": 5281, "ĠØ§ÙĦÙħÙģ": 2081, "ĠØ£ÙĪØ²Ø¹ÙĨÙĬ": 10266, "Ø§ÙĥÙĬÙĨ": 2256, "Ø±ÙĬÙĨ": 717, "ĠÙĦÙĨ": 370, "ĠÙģØ¤Ø§Ø¯Ùĥ": 10054, "ĠØªÙĨÙĥØŃÙĪÙĩÙĨ": 9622, "ĠÙģØ§ÙĨØªÙĤÙħÙĨØ§": 5227, "ĠÙĪØ§ÙĦØ¬ÙĨ": 5839, "ØºÙĪÙĬÙĨÙĩÙħ": 9663, "Ø±Ùĥ": 572, "Ø¸ÙĪÙĨ": 5950, "ĠØªÙĪÙĦÙĪØ§": 1356, "ĠÙĪØ³ÙĬØ¹ÙĦÙħ": 9893, "ĠØ§ÙĦÙħØ®": 5889, "ÙĩØ§Øª": 5810, "Ø¸ÙĨÙĩ": 7830, "ĠÙĬØ¨Ø¯Ø£": 3819, "ĠØ§ØªØ®Ø°ØªÙħ": 5286, "ĠÙĦØ¥ÙĦÙī": 9522, "ĠÙĪÙħØ¹ØµÙĬØª": 10041, "ĠÙĪÙĦÙĤØ§Ø¦Ùĩ": 9859, "ĠÙĪÙĪÙģÙĬØª": 10183, "ĠÙĪØ§ÙĦÙĦØ§Ø¦ÙĬ": 10236, "ĠØ§ÙĤØªÙĦÙĪØ§": 6064, "ĠÙħØ¹": 263, "ĠØ¯Ø¹ÙĪØ§": 1978, "ĠÙĪØ¬ÙĨ": 2226, "ĠÙĪØ¶": 2051, "Ø§Ø¬Ø¯ÙĬÙĨ": 2606, "ÙĤÙĨØ§": 1623, "ĠÙħÙĦØ©": 2632, "ĠØ§Ø¦ØªÙĪÙĨÙĬ": 4490, "ĠØ³ÙĬ": 631, "ĠØ¨Ø´Ø±Ùī": 5280, "ĠØ£ÙħÙĪØ§ÙĦØ§": 8953, "ĠØ°Ø§Øª": 1712, "ĠÙĨØ¨Ø¹Ø«": 5844, "ĠØªÙĤØ±Ø¨Ø§": 9789, "ÙĪØ§ØªÙĩÙĨ": 8178, "ĠÙĪØªÙģØµÙĬÙĦ": 9988, "ĠÙĪØ§ÙĦØ£ÙĪÙĦÙī": 6144, "ĠÙĪØ§ÙĦÙĨØ¬": 4359, "ĠØ£ÙħØ¯Ø§": 6000, "ĠØ³ÙĥÙĬÙĨØªÙĩ": 7007, "ĠÙĪØ³Ø§Ø¡Øª": 5167, "ÙĪØ§ØªØ§": 8177, "ĠØ§ÙĦØ®ÙĦ": 2976, "ĠÙģØ±Ø¶": 3107, "ĠØ£Ø³ÙĦØŃ": 6403, "Ø¯Ùĩ": 1181, "ĠÙģÙĦÙĬØ³": 3343, "ĠØ±Ø£ÙĪØ§": 2585, "ĠÙģÙĬØ£Ø®Ø°ÙĥÙħ": 7047, "ĠØ¯ÙĪÙĨÙĩ": 983, "ĠÙĦØ³ÙĨ": 5683, "ĠØ£ÙĤØ±": 7241, "ĠÙħÙĤØ§ÙħØ§": 9690, "¨": 11, "ĠØ¨ÙĨÙĬØ§ÙĨØ§": 10207, "ĠØ¢ØªÙĪÙĨÙĬ": 7712, "ĠÙĥ": 88, "ĠÙĪØ§ÙĦØ¯ÙĪØ§": 7598, "ĠØ§ÙĨÙĤÙĦØ¨ØªÙħ": 10150, "ĠÙĪÙģØ§": 4614, "ĠØ¨Ø§ÙĦØŃÙĬØ§Ø©": 6931, "ÙħÙħ": 7090, "ĠÙĦØ¹ÙĦÙĩÙħ": 932, "ĠØ£ÙģØ¶ØªÙħ": 8310, "ĠØ§Ø³ØªØ·Ø¹": 2767, "ĠÙĤØ¨ÙĦÙĥÙħ": 1653, "ĠØ§ÙĦØ£ÙĨØ«ÙĬ": 3737, "ĠØ§Ø´ØªØ±ÙĪØ§": 3835, "Ø§ÙĦØ¯ÙĬ": 5579, "ĠÙĤÙĦÙĪØ¨ÙĩÙħ": 679, "ĠÙĬÙħÙĬÙĨÙĥ": 7000, "ĠÙĥÙĬØ¯Ùĩ": 9257, "ĠÙĥØ§Ø°Ø¨Ø§": 9800, "Ø°Ø§ÙĨ": 1691, "ÙħÙĨÙĩ": 5794, "ĠØ´ÙģØ§Ø¹ØªÙĩÙħ": 9971, "ĠÙģØ£Ø¹Ø±Ø¶": 3210, "ĠØ§ÙĦØºØ±ÙĪØ±": 4538, "ĠØ¨Ø§ÙĦØ³ÙĬ": 4132, "ĠØ¹ÙĬÙĨ": 1626, "ĠÙĪØ§ÙĦÙħÙĩØ§Ø¬Ø±ÙĬÙĨ": 6378, "Ø¶Ø±Øª": 8817, "ĠØ¨Ø´": 1310, "ĠÙĪÙĦØ¨Ø§": 5955, "ĠÙģØ¥Ø°": 7994, "ĠÙĪÙĬØª": 2506, "ĠÙĬÙħÙĥØ±ÙĪÙĨ": 3768, "ĠÙĪØ§ÙĦÙĨØ¨ÙĬÙĬÙĨ": 6984, "ĠÙģØ§Ø¯Ø¹ÙĪÙĩ": 9910, "ĠÙĦÙĦÙĥØ°Ø¨": 9933, "ØµØ¯Ø§": 7552, "Ø±Ø§Ø¯ÙĪØ§": 7833, "ĠØ§ÙĦÙĤØ¯Ø±": 6799, "ĠÙģØ¨ÙĦØº": 7285, "ĠØ§Ø": 500, "ÙĩØ§Ø±Ø§": 2884, "ĠØªØ¹ØªØ°Ø±ÙĪØ§": 6903, "ĠØ¨ØºÙĬ": 8648, "ĠÙĦØ¢ÙĬØ©": 1542, "ĠÙĪØ¹Ø°Ø§Ø¨": 4259, "ĠÙĨØµØ±ÙĨØ§": 9207, "Ø¶Ø§": 1510, "ĠØ¶Ø¹ÙģØ§": 5061, "ĠÙĪÙĬØ³Øª": 1364, "ĠÙĪÙĬØ³Ø£ÙĦÙĪÙĨÙĥ": 3846, "Ø¨ÙĦÙĪ": 6086, "ĠÙĬØ´Ø¥": 8202, "Ø´": 105, "Ø³ÙĥÙħ": 3469, "ĠØ²ÙĬÙĨØ§": 5087, "ĠÙĥÙĦÙħØ§": 1888, "ĠÙĪØ£ÙĦÙĤÙī": 6754, "ĠØ¨Ø¥Ø³ØŃØ§ÙĤ": 8865, "ĠÙĪÙĦØ¯Ø§ÙĨ": 9148, "ĠØ§ÙĦÙĤØ§ÙĩØ±": 9613, "ĠØªØ±Ø¶Ø§Ùĩ": 10069, "ĠØ´ÙĤØ§": 3196, "Ø¹ÙĬÙħ": 1615, "ÙħØ³ÙĨØ§": 8522, "Ø´Ø±Ø§Øª": 8050, "Ø¹Ø¯ÙĬÙĨ": 4905, "ĠÙħÙĪØªÙĩ": 8181, "ĠØ¨ÙĬØ¯": 3991, "ĠÙģØ£ÙĦÙĤ": 1981, "ĠØ§Ø°ÙĥØ±ÙĪØ§": 2728, "ĠØªØ£ØªÙĬ": 6349, "ĠÙħÙĬØªØ©": 9747, "ĠØ§ÙĦØ¢Ø®Ø±Ø©": 627, "ÙĪÙĩÙĨ": 862, "ĠØªØ£ÙĥÙĦ": 3364, "ĠÙĬØ¬Ø²": 8630, "ĠÙħØµØ¯ÙĤ": 3942, "ĠÙĨÙĪÙħ": 7611, "ĠØªØ±ÙĪÙĨÙĩØ§": 6924, "ĠÙħØŃÙħØ¯": 4628, "ĠØ«ÙĤÙģØªÙħ": 9547, "ĠÙĦÙĬØ³": 768, "ĠØ§ÙĦØ³ÙĥÙĬÙĨØ©": 10269, "ĠØ£ÙĨÙĩØ§": 4055, "ĠÙĤØ¨ÙĦÙĩÙħ": 801, "ĠÙģØ£ÙĨØ°Ø±": 8906, "ĠØ§ÙĦØ¯": 301, "ĠÙĦØ£ÙħØ§": 6301, "ĠÙĦÙĦÙħØªÙĤÙĬÙĨ": 1665, "ĠØ¥ÙĨÙĨØ§": 4052, "Ø¸ÙĩØ±Ùĩ": 4882, "ĠÙĨØ®ÙĬÙĦ": 5412, "ĠÙħØ±": 450, "Ø«Ø§ÙĤ": 5866, "ĠÙĬØŃØ¶": 8169, "Ø¶ÙĬØ§Ø¡": 8860, "ĠØ«ÙĬØ§Ø¨ÙĩÙħ": 9782, "ĠØ´ÙĬØ¡": 306, "ĠØ§ÙĦØ£ÙħÙĬÙĬÙĨ": 9973, "ĠÙĩÙĦ": 652, "ĠÙĪØ£Ø°ÙĨØª": 7732, "ĠØ°Ø±": 2214, "ĠØ£ÙħØ«Ø§ÙĦÙĥÙħ": 5471, "ĠØ¨Ø£ÙĨ": 1232, "ĠÙĪÙĤØªÙĦÙĪØ§": 7978, "ØªØªÙĨØ§": 7182, "ĠØ¥Ø®ÙĪØ§ÙĨØ§": 9598, "ĠÙĬÙģØªØ±Ùī": 9024, "ĠØ®Ø·Ø¨ÙĥÙħ": 9374, "ĠÙĦØ°ÙĥØ±Ùī": 9814, "ĠØŃØ¨Ø§": 3182, "ĠØªØ±Ùī": 1589, "ĠØ£ÙĨØ¹ÙħÙĨØ§": 6737, "ĠÙĬØ¹Ùħ": 1390, "ĠÙĬØ¬Ø§ÙĩØ¯ÙĪØ§": 8631, "ĠÙĬØ¬Ø¯ÙĪÙĨ": 2602, "ĠØªÙĨÙģÙĤÙĪØ§": 2995, "ĠØ¸ÙĨÙĥÙħ": 8233, "Ø³ÙĦ": 2058, "ĠØªÙĥØ±ÙĩÙĪØ§": 5767, "ĠÙĪØ°ÙĦ": 9444, "ĠØ¬Ø§Ø¡ÙĪÙĥ": 4227, "ĠÙĪØ§ÙĦØ£ÙĪÙĦØ§": 8164, "ĠÙĨØ¸": 7612, "ĠÙĬÙĤØ±Ø¶": 8735, "ĠØ³ÙĨØª": 5857, "ØŃØ³Ø§ÙĨ": 3508, "ĠØ¨ÙĬÙĨØ©": 1989, "ĠØ§ÙĦØ¹Ø§Ø¬ÙĦØ©": 7062, "ĠØ¨Ø®ÙĦØ§ÙĤÙĩÙħ": 10160, "ĠØ§ÙĦØ±Ø³": 669, "ĠØ¬Ø¯ÙĬØ¯Ø§": 9664, "ĠÙĪÙĤÙĦ": 1227, "ĠØ¨Ø¹Ø¨Ø§Ø¯ÙĬ": 6801, "ĠØªØ¬": 483, "ĠÙĦØ³Ø§ÙĨØ§": 7316, "Ø¯Ø§Ø©": 8199, "ĠÙĬØ±ÙħÙĪÙĨ": 6160, "ÙħØ£ÙĨ": 5566, "ĠØ§Ø³ØªÙħØ¹": 9270, "ĠØ¯ÙħØ±": 4924, "Ø¨Ø¹": 242, "Ø´Ø§": 3551, "ĠÙĨØ§Ø¯Ùī": 3384, "ÙĬØ±ÙĪØ§": 1635, "ĠÙĦØ¸": 4662, "ĠÙģÙĨØª": 5670, "ĠØ£ÙĪØª": 5974, "ĠØ³Ø¢": 7659, "ĠØ³ÙģØ§ÙĩØ©": 10247, "ĠÙĬÙĥ": 363, "ĠØ¨ÙĬØ§ØªØ§": 7045, "ĠÙĪÙĬØµ": 2924, "ĠØªØ¹Ø¬": 4302, "ĠÙĬØ±Ùī": 3252, "ĠÙĪÙĬØ¬Ø¹ÙĦ": 2217, "ĠÙĦØ§ÙģØª": 5915, "ĠÙĪÙĬØ³Ø®Ø±ÙĪÙĨ": 9376, "ĠØ°Ø±ÙĬØ©": 2503, "ĠÙĦÙĪØ§ÙĤØ¹": 6887, "ĠØ£ÙħÙĪØ§Øª": 4915, "ĠØ£Ø«Ø§Ø«Ø§": 9284, "Ø¬Ø²Ùī": 7507, "ĠÙĦÙĬØ¯": 3478, "ĠÙĬØ¨Ø®ÙĦÙĪÙĨ": 6986, "ĠØ®Ø³Ø±Ø§": 7795, "ĠÙĤØªÙĦ": 1630, "ĠØ§ÙĦØ¯Ø§Ø¹": 6991, "ĠØ¨Ø¹ÙĪÙĦØªÙĩÙĨ": 8116, "ĠÙĪØ£Ø³": 5874, "Ø±Øµ": 7121, "Ø¯": 63, "ÙĦØ¨Ùĩ": 5134, "ĠØ£Ø¬ÙĦÙĩØ§": 6257, "ĠÙħØ¬ÙħØ¹": 9409, "ĠØ´Ø±ØŃ": 7803, "ĠÙħÙħÙĨÙĪÙĨ": 5257, "ĠÙĬØ³ØªØºÙģØ±": 8451, "ĠÙĪØ²ÙĬÙĨØ§ÙĩØ§": 8876, "ĠÙģØ¢ÙħÙĨ": 6632, "ĠÙĦÙĬØ¨ÙĬÙĨ": 6054, "ÙĬØ¬": 7103, "ĠØ§Ø¬ØªÙĨØ¨ÙĪØ§": 9548, "ĠÙĥØ±ÙĬÙħØ§": 5541, "ĠØ¨Ø§ÙĦÙħØ¤ÙħÙĨÙĬÙĨ": 3827, "ĠÙĪÙħØ³Ø§ÙĥÙĨ": 7024, "ĠØ§ÙĦÙħÙģÙĦØŃÙĪÙĨ": 2280, "ĠØ®": 137, "ĠØ¨Ø§ÙĦØŃÙĤ": 610, "ĠÙĪØ¬ÙĩÙĩ": 2414, "ĠØŃÙĬÙĨ": 1140, "ĠØ§ÙĦÙģØ§Ø³ÙĤÙĬÙĨ": 2422, "ØŃÙĬÙĨ": 2868, "ĠØ§ÙĦØºÙĨÙĬ": 2984, "Ø¯ÙĩÙĨ": 3957, "ĠØªØŃØª": 3284, "ĠÙĪØ§ÙĦØµØ§Ø¨": 5305, "ĠÙĪÙĦÙĦ": 2348, "ĠØ§ÙĦÙħÙĨØ¸Ø±ÙĬÙĨ": 6547, "ĠÙĬØ·Ø¹Ùħ": 6615, "ĠÙĬÙĨØªÙĩÙĪØ§": 8139, "ĠÙĪÙĨØ²Ø¹": 8252, "ĠØ£ÙĦÙĤÙī": 3815, "ĠØªØ±Ø§Ø¨": 3260, "ĠØ§ÙĦØ¯Ø±Ø¬": 8210, "ĠÙĨÙĥØ«ÙĪØ§": 9036, "ĠÙĦØ±Ø¬ÙĦ": 10058, "ÙĪÙĬÙĦÙĩ": 3013, "ĠØŃØ¯ÙĪØ¯": 2153, "ĠØ³Ø§Ø¦": 3564, "Ø°Ùģ": 3988, "ĠØ´Ø§ÙĩØ¯": 3197, "Ø¹ÙĪÙĥÙħ": 7230, "ĠÙĬÙĨØ¬ÙĬÙĥÙħ": 8141, "ĠÙģØµÙĬØ§Ùħ": 5323, "ĠØ§Ø«ÙĨØªØ§": 10162, "ĠØ§ÙĦÙģØ§ØŃØ´Ø©": 4428, "ĠØ§ÙĦÙħØ§ÙĦ": 4843, "ĠØ³ÙĬØ±": 4070, "Ø³ØŃ": 1434, "ÙģÙĬØ±": 7391, "ĠÙģØ§ÙĦØªÙĤ": 8901, "ĠÙĬØ³ØªØ®ÙģÙĪÙĨ": 8457, "ĠØ¥ÙĬØ§Ùĩ": 3062, "ĠØ£ÙĤØ¯Ø§Ùħ": 4643, "ĠÙĪØµØ¯ÙĤ": 3922, "ĠØ®ØµÙħØ§ÙĨ": 9714, "ĠØ¬ÙĩØ²ÙĩÙħ": 10255, "ĠÙĪÙĨØ²ÙĦÙĨØ§": 5031, "ĠÙģØªÙĤØ¹Ø¯": 8328, "ĠÙĬØ£Ùĥ": 1590, "ĠØ«ÙħØ±Ø§Øª": 4934, "ĠØ§ÙĦØ³ÙģÙĩØ§Ø¡": 4571, "ĠÙĬØŃØ¨ÙĪÙĨ": 3658, "ĠÙĨØªÙĦ": 4062, "ĠØ¥ÙĨÙĬ": 404, "ĠÙĪØ¢Øª": 3306, "ØŃØ¨ÙĪÙĨ": 4007, "ĠØ·Ø±ÙĬÙĤ": 8274, "ĠÙĬØ³ØªØ¹Ø¬ÙĦÙĪÙĨ": 5098, "ĠØ¨Ø£ÙĨÙģØ³ÙĩÙĨ": 9108, "ÙĪØ§": 70, "Ø§Ø«Ø§": 6624, "ĠÙĪØ§ØªØ¨Ø¹": 1301, "ĠØµØ¯ÙĤÙĪØ§": 4335, "Ø£ÙĬØª": 1947, "ĠØªÙĥÙģØ±ÙĪÙĨ": 2237, "ĠØ§ÙĦØ´ÙĩØ§Ø¯Ø©": 8355, "ĠØ¹Ø±Ø´": 4017, "ĠØªØŃØ²ÙĨÙĪØ§": 6772, "ÙĥØ°Ø¨ÙĬÙĨ": 1551, "ÙĦØ§ÙĤ": 1444, "ĠÙĪÙĦ": 148, "ĠØ³ÙĤÙģØ§": 7682, "ĠÙĤÙĪÙħÙĥ": 2736, "Ø¨Ø§Ø±": 772, "ĠÙĪØ§Ø®ÙģØ¶": 6790, "ĠÙħØ«ÙĦÙĥÙħ": 3287, "ĠØ§ÙĦØ£ØŃØ§Ø¯ÙĬØ«": 6970, "ĠØ°Ø§Ø¦": 5970, "ĠÙĪØ±ÙĤ": 8471, "ĠÙĬÙĦÙĤ": 1768, "ĠØºÙĦ": 4188, "ĠØ¨Ø¥": 813, "ĠÙĪØ§ÙĦÙĥ": 1865, "ĠÙĬØ°ÙĩØ¨ÙĥÙħ": 5485, "ĠØªØ¬Ø¯ÙĪÙĩ": 9292, "Ø¶Ø±": 734, "ØªØ¯ÙĨØ§": 3440, "Ø±Ø³ÙĪÙĦ": 1586, "ÙĪØ´": 3074, "ĠÙĪÙĦØ¹ÙĦÙĩÙħ": 6797, "ĠØ§ÙĦÙĨØ³Ø§Ø¡": 1332, "ĠÙĬÙĪÙĤÙĨÙĪÙĨ": 2434, "ĠØ§ÙĦÙħÙģØ³Ø¯ÙĬÙĨ": 2495, "ĠØ£Ø´ÙĤ": 8791, "ĠØ¹ÙĨÙĥ": 2920, "ĠÙĩØ¯Ø§": 1702, "ĠÙĪÙĨØ³Ø§Ø¡": 3675, "ĠØ¬ÙĨØ©": 1639, "ĠØ§ÙĦÙĥØ§Ø°Ø¨ÙĬÙĨ": 2526, "ĠØ®Ø§Ùģ": 2702, "ĠÙĪØ¹ÙĦØ§ÙĨÙĬØ©": 5069, "ĠØ¯Ø§ÙģØ¹": 7938, "ĠØ¨Ø·Ø´Ø§": 9105, "Ø¤": 155, "ĠÙĬÙĤØ¨ÙĦ": 3747, "ĠÙĥÙĦÙħ": 1155, "ĠØ§ÙĦØ¹ÙĦ": 7128, "ØºØ§": 3582, "ĠØªØ£ÙħØ±ÙĪÙĨ": 4310, "ĠÙĬÙģÙĤ": 1734, "ĠØºÙģÙĦØ©": 4189, "ĠÙģØ³ØªØ¹ÙĦÙħÙĪÙĨ": 6912, "ĠØªØ¹Ø¬Ø¨Ùĥ": 6980, "ĠÙĬØ¶ÙĦÙĪÙĥ": 9021, "ØªØ¨ÙĪÙĨ": 3002, "ĠÙĪØ§Ø³Ø¬Ø¯ÙĪØ§": 9173, "ĠØ§Ø®ØªÙĦÙģÙĪØ§": 2829, "ĠÙģØ§ÙĦÙħ": 4376, "ĠØªØ±ÙĪØ§": 8223, "Ø°ÙĩØ¨": 1262, "ĠÙĬÙĦØ§ÙĤÙĪØ§": 7043, "Ø±Ø§": 147, "ĠØ£ÙĦØ³ÙĨØªÙĥÙħ": 9388, "ĠØªØ¤ÙħÙĨ": 5756, "ĠÙĪÙĬÙĪÙĦØ¬": 4902, "ĠØ¨Ø§ÙĦØ¨Ø´Ø±Ùī": 9319, "ĠØªØ¹Ø¬ÙĦ": 6331, "ĠØ±Ø£": 907, "ĠÙĬÙĥØªØ¨ÙĪÙĨ": 4257, "ĠØªÙĪÙģ": 2665, "Ø¬ÙĨØ¨ÙĩØ§": 9162, "ĠØ£Ø¬Ø¦ØªÙĨØ§": 4271, "ÙģØªÙĬÙĨ": 6250, "ĠÙģØ¹Ø§ÙĦ": 8994, "ÙĤØ§": 317, "Ø¨ØµØ§Ø±": 1345, "ÙĬÙĤØ§": 2169, "ĠÙĦÙħØ³ÙĥÙħ": 8098, "ĠØ£ÙĦÙĬØ³": 2156, "ĠÙĪØ¹Ø¯ÙĪÙĥÙħ": 8693, "ÙĬØªÙĩ": 7105, "ØŃØ¨Ø·": 4008, "Ø³Ø±ÙĪÙĨ": 4649, "ĠØŃÙĦÙĬØ©": 5908, "Ø±ÙĬÙĨØ§": 7122, "ĠÙĬØªØ¨Ø¹": 2948, "ĠÙĬØ¹Øª": 4263, "ĠÙĪØ¹ÙĨ": 1728, "ĠÙĪØªØ±Ùĥ": 2537, "ĠØ£ÙĨØ´Ø£ÙĨØ§": 5401, "ĠØ£Ø®Ø°ØªÙĩÙħ": 6561, "ĠÙĪØµØ±Ùģ": 7162, "ĠØŃØ³ÙĬØ¨Ø§": 5202, "ĠØ®ÙĦØ§Ø¦": 4870, "ĠØ¹Ø§ÙĥÙģÙĬÙĨ": 9821, "ĠÙĨØ§ÙĤØ©": 4808, "Ø·Øª": 5860, "ÙĤØ§ÙĬØ©": 8222, "ĠØ±Ø¬ÙĦØ§": 3004, "ĠÙĦØ¹Ø¨": 6437, "ĠØ§ÙĦÙĨÙģØ³": 3264, "ĠÙħØ·ÙĩØ±": 3940, "ÙĪÙĦÙĩØ§": 8600, "ĠÙħØµØ¨ØŃÙĬÙĨ": 4407, "ĠØ¹Ø¯ÙĪØ§ÙĨ": 9417, "ĠØªØ¶Ø§Ø±": 9527, "ĠÙĨØªØ®Ø°": 4807, "ĠØ¸ÙĦÙħÙĨØ§ÙĩÙħ": 6446, "ĠØ¨Ø¹Ø¶Ùĩ": 6264, "ĠÙĦÙĬÙĤÙĪÙĦÙĨ": 1923, "ĠÙĤØ¯ÙĬØ±Ø§": 3656, "ØµÙĦØ¨": 4774, "ĠÙħØ±ÙĬØ¶Ø§": 6792, "ĠØ§ÙĦØ¨ØµØ±": 3716, "ĠÙĪÙĥÙģØ±Ø§": 5431, "ĠØ§ÙĦØ³ØŃØª": 7879, "Ø§ØŃØ¨": 4444, "ĠÙĥÙģØ§Ø±Ø§": 7523, "ĠÙĬØ¹Ø¸Ùħ": 8385, "ÙħØ©": 472, "ĠØ¨Ø£ÙģÙĪØ§ÙĩÙĩÙħ": 3896, "ĠØ§ÙĦÙħØ¤ÙħÙĨØ§Øª": 3178, "ĠØ£ÙĤ": 822, "ĠÙĪÙĩÙĦ": 6553, "ĠÙĬØ¹Ø±ÙģÙĪÙĨÙĩ": 10007, "ĠÙĬØ±Ø«ÙĩØ§": 10126, "ĠØ§ÙĦÙĨÙģ": 8235, "ĠØªØµØ¯ÙĬÙĤ": 9826, "ĠÙĦØ£ÙħØ§ÙĨØ§ØªÙĩÙħ": 10139, "ĠÙĬØ±Ø§Ø¡ÙĪÙĨ": 8189, "Ø¨ÙĪØ±Ø§": 3088, "ÙĪØ¯ÙĪÙĨ": 4245, "ĠØ¢ØªÙĬÙĨØ§Ùĩ": 4375, "ĠØ¨Ø±ÙĩØ§": 3020, "ÙģÙĤØ§": 4001, "ĠØ¨Ø¨ÙĨÙĬ": 5723, "ĠØªØªØ®Ø°ÙĪÙĨ": 7026, "ĠØ§ÙĦÙĥØ¨Ø±ÙĬØ§Ø¡": 10278, "ĠÙĪÙĤ": 186, "ĠÙĥÙģØ±": 269, "ĠÙĦÙĥØ§ÙĨ": 3684, "ĠÙģØ£Ø¹Ø±Ø¶ÙĪØ§": 6019, "Ø¨Ø±Ùĩ": 6097, "ĠÙģØ£ÙĨÙĩ": 8905, "ĠÙĬÙĪØ¹Ø¯ÙĪÙĨ": 2566, "ĠØ§ÙĦØ£Ø³ÙĪØ§": 7815, "ĠÙĪØªØ±": 6138, "ĠÙģØ¥ÙĨØ§": 2520, "ĠÙĬÙĨØµØ±Ùĩ": 6816, "ĠÙĬØªØ²ÙĥÙī": 8127, "ÙĦØ§": 84, "Ø«Ø¨Øª": 2490, "Ø±Ø«": 2047, "ĠÙħØ¶": 3930, "ĠÙģØ£Øª": 2930, "ĠÙģØ§Ø³ØªØ¨ÙĤÙĪØ§": 6540, "ĠÙħØ³ØªÙĩ": 8746, "ĠÙħØ¨Ø§Ø±ÙĥØ©": 6886, "ĠØ¨ÙĦØ³Ø§ÙĨÙĥ": 10003, "ĠØ¢ØªÙĬØª": 9144, "Ø§Ø¨Ø±ÙĬÙĨ": 1398, "ĠØ£ÙĥØ«Ø±ÙĥÙħ": 8713, "ĠØ§ÙĦÙĥØ§ÙģØ±": 8028, "ĠÙĪÙĥÙĦØ§": 2525, "ĠÙĦØ¹Ø¨Ø§Ø¯": 3327, "ĠÙģÙĤÙĦÙĨØ§": 3727, "Ø§ÙĦÙĥ": 2439, "ĠØ¨Ø®ÙĦÙĪØ§": 7370, "ĠÙĪØ¬Ø¹ÙĦÙĨØ§ÙĥÙħ": 8871, "ĠÙĪØ§ÙĦÙģØ¶Ø©": 9649, "ĠÙĪØ§ØŃØ¯Ø©": 1171, "Ø§ÙĤØ©": 2760, "ĠØªØµØ¨ÙĩÙħ": 4388, "ĠØªÙĤØªÙĦÙĪÙĨ": 4745, "ØªÙī": 307, "ĠØ§ÙĦÙħØµØ¯ÙĤÙĬÙĨ": 7749, "ĠÙģØ¥ÙħØ§": 3217, "ĠÙħØŃØµ": 5274, "ĠØªØ£Ø®Ø°ÙĪØ§": 8595, "Ø±Ø§Ø·": 3428, "ĠÙĦÙĦØŃÙĤ": 3247, "ĠØ£Ø°ÙĤÙĨØ§Ùĩ": 9281, "ĠØ±ÙĤÙĬØ¨Ø§": 9487, "ĠÙĩØ°Ø§": 305, "ĠØªØ¬Ø¹ÙĦÙĪØ§": 4307, "ĠÙĪÙĤØ§ÙĦØª": 2114, "ĠÙĪØ¬Ø§Ø¡ØªÙĩÙħ": 9151, "ĠØ§ÙĦØªØ§Ø¨ÙĪØª": 10035, "Ø¹ÙĦÙĨÙĪÙĨ": 2711, "ĠØ£Ø¨ØµØ§Ø±": 2019, "Ø¬Ø¹ÙĪØ§": 3141, "ĠØªÙĪ": 1283, "ĠÙģÙĨØ¨Ø°": 4404, "ĠÙĨØ®Ø±Ø¬": 4800, "ĠÙĬÙĩØ¯ÙĬÙĩ": 8884, "ĠÙĦÙģØ³Ø¯Øª": 9935, "ĠØ£ÙħÙĥ": 5999, "ØµØ§Ø±Ø§": 7556, "ĠÙĪØŃÙĤØª": 8820, "ĠÙĬØªÙĦÙĪÙĨ": 3650, "ĠÙĪØ¸ÙĨÙĪØ§": 3371, "ĠØ£Ø±Ø³ÙĦØª": 3732, "ĠØ£ÙģØ±": 1936, "ĠØ¯Ø§Ø¨": 1645, "ĠØ±ÙħÙĬØª": 7564, "ĠÙĤØ§ÙĦØªØ§": 7822, "ĠÙħÙĦØ¬": 6804, "ĠÙħØ¹Ø°Ø±ØªÙĩÙħ": 8105, "ĠØ£ÙģÙĩÙħ": 8305, "ÙĩØ¯ÙĪÙĨ": 2519, "ØµÙĩ": 4048, "ĠÙĪÙħØ£ÙĪØ§Ùĩ": 6978, "ĠØªÙĨÙģÙĤÙĪÙĨ": 8612, "ĠÙħØŃÙĦÙĩ": 9071, "ĠØªØªÙĦÙĪ": 5121, "ĠØ«ÙĤÙģØªÙħÙĪÙĩÙħ": 10323, "ĠØªÙħÙĬÙĦÙĪØ§": 10070, "ĠØªÙĪÙĦÙĪÙĩÙħ": 10068, "ĠÙĪÙĬÙĦØªÙī": 6719, "ØŃÙĥ": 4715, "ĠØ£ÙĬÙħØ§ÙĨÙĩÙħ": 1914, "ÙĪØ¶Ø©": 5577, "ĠØ¬Ø§Ø¡ÙĨÙĬ": 6162, "ĠØ¨ÙĩØ¯": 7356, "ĠÙĪØªÙĨØ°Ø±": 8156, "ĠØ¹ÙĦÙĬÙĩØ§": 853, "ĠØ´ÙĩØ¯Ø§Ø¡ÙĥÙħ": 9147, "ĠÙĬØ³Ø£ÙĦ": 4298, "ĠÙģØ¸": 3961, "ĠÙĥØ§ÙĨØ§": 7518, "ĠÙĬØ¶ÙĦÙĦ": 2262, "ĠØ¹Ø§": 3513, "ĠØ¨Ø¢ÙĬØ§ØªÙĩ": 5144, "ØºÙĬ": 1194, "Ø±ÙĬØ¶": 6067, "ĠÙĬØ¹Ø±Ø¶ÙĪÙĨ": 6244, "ĠÙģØ±Ø¯Ø§": 6275, "ĠØ¨Ø®Ø¨Ø±": 9159, "ĠØªØ¶ÙĦÙĪØ§": 9528, "Ø´Ø£": 1318, "ÙĦØ¸": 4578, "ĠØ§ÙĦÙħÙĨÙĬØ±": 8956, "ĠØ³Ø¨ÙĬÙĦÙĩ": 2115, "ĠÙħØ¤ÙħÙĨÙĬÙĨ": 1041, "ĠØ²Ø§ØºØª": 10009, "ĠÙĬØ¹Ø±Ø¶": 6243, "ÙĬØ¸": 4584, "ĠØ§ÙĦÙĨØ¯Ø§ÙħØ©": 8242, "ĠØªÙĩÙĪ": 7471, "ĠØªÙĥØ§Ø¯": 6294, "ĠØ¥ØŃØ¯Ø§ÙĩÙħØ§": 4481, "ĠØŃØ¯ÙĬØ¯": 5904, "ĠØ±Ø¬ÙĦ": 2130, "ĠØµØ¹": 4169, "ĠÙĬØ±Ùĥ": 6157, "ĠØ¥Ø³ÙĦØ§Ùħ": 7385, "ĠÙĬØ·": 1245, "ĠØªØ·": 1951, "ĠÙģØªØŃ": 3272, "ØŃØ±ÙĪÙħ": 8460, "ĠØ£Ø¶Ø¹Ø§ÙģØ§": 9411, "ĠØªÙģØ±": 2664, "Ø°Ø¨ÙĬÙĨ": 961, "ĠÙĦØµØ§ØŃØ¨Ùĩ": 9637, "ĠØ²Ø®Ø±": 6260, "ĠÙģÙĦÙĬ": 823, "ĠØ·ÙĪÙĬÙĦØ§": 8275, "ĠØ®ÙĦÙĤØªÙĨÙĬ": 8281, "ĩ": 39, "ĠÙĪØ¥Ø°Ø§": 397, "ĠØªØ¬Ø¹ÙĦÙĨÙĬ": 9682, "ĠÙĪØ±Ø¨ÙĥÙħ": 2589, "ĠØ§ÙĦÙĬÙĩÙĪØ¯": 3049, "ĠØ£ÙģØ¥ÙĨ": 8312, "Ø¨Ø¹Ø«ÙĨØ§": 8984, "ĠØ§ÙĤØªØ±Ø¨": 6855, "ĠØ³Ø¨ÙĬÙĦ": 544, "ĠÙħØ¬": 1933, "ĠÙĪØ§ÙĦØ±": 4056, "ĠØ§Øº": 8601, "Ø«Ø©": 7694, "ĠÙĬÙĨÙģÙĤÙĪÙĨ": 1471, "ĠÙģØªØŃØ§": 5054, "ĠÙģØ£ÙĩÙĦÙĥÙĪØ§": 9717, "ĠÙĬØ´Ø±Ø¨": 9937, "ÙĩÙĪØ§": 1677, "ĠÙĥÙĨØªÙħ": 309, "ØªØ§Øª": 5615, "ĠÙĦÙħØ¬ÙĨÙĪÙĨ": 6104, "ĠÙģØ§ÙĦÙĨØ§Ø±": 8902, "Ø¯Ø±Ø©": 7255, "Ø£Øª": 3509, "ĠØ³Ø¹ÙĬÙĥÙħ": 9295, "ĠØ£Ø±Ø³ÙĦÙĩ": 8643, "Ø±Ø§Ùĩ": 2084, "ĠÙħÙĦÙĪÙħØ§": 7219, "ĠÙĪØ§ÙħØ±Ø£ØªÙĩ": 9785, "ĠØªØ´Ø±Ùĥ": 3525, "ØŃÙĤÙĨÙĬ": 8584, "ĠØ±Ø³ÙĦØ§": 2967, "ĠÙħØ®ØªØ§ÙĦ": 9197, "ĠØ§ÙĦÙħØ¤ÙħÙĨÙĬÙĨ": 584, "ĠÙħØ²Ø§Ø¬ÙĩØ§": 9921, "Ø²Ø§": 1955, "ĠØ±Ø§ÙĪØ¯ØªÙĩ": 9912, "ĠÙħÙĥØ§ÙĨØ§": 2832, "Ø¬ÙĪØ§": 3140, "ĠØ§ÙĦØ¹Ø¬ÙĦ": 3619, "ĠØŃØ±Ø«": 3340, "ĠÙģØ±Ø§": 7273, "ĠÙģØ§Ø¹ÙĦÙĬÙĨ": 3903, "ØªÙħØ³Ùĥ": 5914, "ĠØµØ§Ø¨Ø±Ø§": 9980, "ĠÙĪØ¸": 1427, "ĠÙĪØ£ÙĨØªÙħ": 869, "Ø§ÙĦÙĦÙĩ": 2440, "Ø¨ÙĦØ©": 6087, "ÙħØ«": 7092, "ĠÙĬÙħÙĦÙĥÙĪÙĨ": 2605, "ĠØ¥Ø¨ÙĦÙĬØ³": 2436, "ĠØ¥ÙĬÙħØ§ÙĨÙĩÙħ": 3812, "ĠØ£ØµØ§Ø¨ÙĩÙħ": 4423, "Ø³ØªØ¨Ø±ÙĤ": 5549, "ĠÙģØ¬Ø¹ÙĦÙĩ": 5676, "ĠØ³ÙĦÙĬÙħ": 7665, "ĠØ£ÙĨØ·": 5830, "ĠÙĪØ£ÙĤØ¨ÙĦ": 9231, "ĠØ³Ø±": 1791, "ĠÙĤØ¯Ø±Ùĩ": 4218, "Ø§Ø±Ø¬": 4152, "Ø·ÙĬØ¹ÙĪØ§": 1303, "ĠÙĥÙħØ§Ø¡": 8805, "ÙĬØ¨Ø§Øª": 1409, "ĠÙĦÙĦÙĥ": 4661, "ĠÙģØ§ÙĦÙĦÙĩ": 3775, "ĠØ¹Ø°Ø§Ø¨ÙĬ": 2734, "ĠØ£Ø³ÙĦÙħÙĪØ§": 5406, "ĠØªÙĦÙĪ": 5761, "ĠÙĪØ¹ØµÙĬÙĨØ§": 8368, "ĠÙĦÙĥÙĦ": 1233, "ØªÙĩÙī": 6213, "Ø¬Ø¹ÙĦÙĩØ§": 8858, "ĠØŃØ³Ø§Ø¨ÙĩÙħ": 4476, "ĠØ¨Ø§ÙĦÙħØ¹Ø±ÙĪÙģ": 1516, "ĠØ§ØŃÙĥÙħ": 8015, "ĠÙĪØ£ÙĨØ°Ø±ÙĩÙħ": 8264, "ĠØ±Ø³ÙĪÙĦÙĥÙħ": 8814, "ĠÙĦÙħØŃÙĬÙĬ": 8097, "ĠÙĪØ¥Ø®ÙĪØ§ÙĨÙĥÙħ": 7828, "ÙħØ§ÙĨ": 884, "ĠØ«ÙĦ": 7920, "ĠÙģØ®Ø±Ø¬": 5667, "ĠÙĥØ±Ø³ÙĬÙĩ": 10225, "ĠØ«ÙĬØ§Ø¨": 3614, "ĠÙĦØ£Ø¸ÙĨÙĩ": 8502, "ĠÙĤØ±Ø¶Ø§": 3537, "ĠÙĬØ¹Ø²Ø¨": 8384, "ĠØ±ØŃÙħØ©": 1059, "ĠÙĪØ¨ÙĨÙĬÙĨ": 3706, "ĠÙģØ±Ø§Ø±Ø§": 5675, "¯": 17, "ØªÙħØ¹ÙĪØ§": 5913, "Ø´Ø±ÙĥØ§Øª": 6356, "ĠÙģØ¥ÙĬØ§ÙĬ": 7996, "ĠÙĨÙģÙĤØ©": 8982, "ĠÙĦÙĬØ¶ÙĦÙĪØ§": 9981, "ĠÙģÙĪÙĦ": 5664, "ĠÙĪÙħÙĨÙĥÙħ": 3620, "ÙĨÙĩÙħ": 440, "ĠØ³Ø¯Ø±": 7679, "ĠØ°Ø§ÙĤÙĪØ§": 9235, "ĠÙĦØªØ¹ÙĦÙħÙĪØ§": 6345, "ĠÙĬØ®Ø´ÙĪÙĨ": 3701, "Ø«ÙĬØ±": 2489, "ĠØ¶Ø±Ø¨": 1478, "ĠÙĦÙĪØ·Ø§": 5117, "ĠØ£Ø°ÙĥØ±": 7236, "ĠØ§ÙĦØªÙĤ": 3024, "ĠØ§ÙĦØ®ÙĬØ·": 8424, "ĠØ£Ø¹Ø¬Ø¨ØªÙĥÙħ": 9502, "Ø´Ø§Ø±": 2329, "ĠØºØ§ÙģÙĦÙĪÙĨ": 3871, "ĠÙģØ²Ø§Ø¯": 4546, "Ø±Ø¶": 154, "Ø°ÙĩØ¨ÙĨ": 9127, "ÙĤÙĦ": 5694, "ĠØ§Ø¹ØªØ²ÙĦ": 6815, "ĠØ§ÙĦÙħØ¬ÙĬØ¯": 9777, "ĠØ§ÙĩØªØ¯Ùī": 3388, "ĠØ¹Ø´Ø±Ø©": 4516, "ÙĤØ¹Ø©": 5699, "ĠØ¹Ø³Ùī": 1443, "ĠÙĪØ£Ø²ÙĪØ§Ø¬ÙĩÙħ": 5466, "ĠØ§ÙĦØ£ÙħÙĨ": 7809, "ĠØŃØ³ÙĨØ§": 1379, "ĠØ§ÙĦØ³Ø¨Øª": 4135, "ĠØ£ÙĨØ¬ÙĬÙĨØ§ÙĥÙħ": 9953, "ĠØ®Ø¨ÙĬØ«Ø©": 10258, "ĠØ§ÙĦØ³ÙĦØ§Ùħ": 4136, "ĠÙĬÙĪÙħ": 224, "Ø¬ÙĦ": 972, "ĠÙĪÙĦÙĨØ¬Ø²ÙĬÙĨÙĩÙħ": 7031, "ĠØ®Ø°ÙĪØ§": 4512, "ØµØ¯ÙĤØ§Øª": 8659, "ĠÙĨÙħÙĪØª": 9605, "Ø²ÙģØ©": 7575, "ĠØ³Ø¯ÙĬØ¯": 7668, "ĠØ¨Ø±ØŃÙħØ©": 3339, "ĠÙģØ§ÙĥÙĩØ©": 3668, "Ø±Ø§Ùģ": 5952, "ĠÙĪØ§ÙĦØ³ÙħØ§ÙĪØ§Øª": 6590, "ĠÙĪØ´Ø±Ø§Ø¨": 6993, "ĠÙģØ£ÙĨØ¬ÙĬÙĨØ§": 8908, "ĠØ¹Ø§ÙĤØ±Ø§": 9027, "ĠØ´Ø±": 1142, "ØªØ¨Ø¹": 1430, "ĠØ®ÙĦÙĤ": 325, "ĠÙĬØ¤ØªÙī": 8722, "ĠÙĦØºÙĪØ§": 5686, "ĠØ§ÙĦØ¢ÙĨ": 4496, "ĠÙģÙĥÙĬØ¯ÙĪÙĨ": 8646, "ĠØªØªØ¨Ø¹ÙĪØ§": 3053, "ĠØªÙģØ±ØŃÙĪÙĨ": 9600, "ĠÙħØ´Ùģ": 5632, "ÙĪØ©": 861, "ĠØ§ÙĦÙħØ³Øª": 1965, "ØµÙĬØ¨": 3149, "ĠØ£Ø«ÙĬÙħ": 4460, "ĠØ´Ø£ÙĨ": 5932, "ĠÙĬØ³ÙħØ¹ÙĪØ§": 7328, "ĠØ§ÙĦØ£Ø´ÙĤÙī": 9853, "ĠØªÙĨØ°Ø±ÙĩÙħ": 8615, "ĠØ³ÙĬØ¬Ø²ÙĪÙĨ": 8711, "ĠØ§ÙĨÙĤÙĦØ¨": 6474, "ĠÙĦØ¢Ø¨Ø§Ø¦ÙĩÙħ": 8975, "ÙĬÙĦ": 285, "ĠÙĦØµ": 2858, "ÙħÙĦ": 1750, "ĠÙĬØ£Øª": 1894, "ĠØªØ¨Øª": 2319, "ĠÙģØ£Ø¬ÙħØ¹ÙĪØ§": 7958, "ĠØ£ÙĪØªÙĬØªÙħ": 4446, "ĠØ§ÙĦØŃØ±Ø¨": 7932, "ØºÙĬØ«": 5911, "ĠØ§ÙĦÙĪØ³ÙĬÙĦØ©": 10037, "Ø²ÙĦÙĪÙĨ": 7571, "ĠÙĨØ³Ø§Ø¦ÙĩÙĨ": 8787, "ĠØ¬Ø¨Ø§ÙĦ": 7773, "ĠÙĦÙĬÙĥÙģØ±": 4943, "ĠÙĪØ±Ø¨Ùĥ": 2412, "ĠØ§ÙĦÙĬØªØ§ÙħÙī": 4454, "ĠÙĬØ®ØµÙģ": 8468, "ĠÙĬØ¨Ø¯ÙĬÙĨ": 9218, "ĠØ£Ø³ÙĦÙħ": 2017, "ĠÙħØ«ÙĦØ§": 1530, "ĠÙĩÙĨ": 1790, "Ø³ÙĨØªÙĥÙħ": 6186, "ĠÙĦÙĨØ¨ÙĪ": 8376, "ĠØ¹Ø¯ÙĦ": 3334, "ĠÙģØŃ": 7269, "ĠØ¹ÙħÙĦ": 1666, "ĠØŃØ§ÙħÙĬØ©": 10086, "ĠØ²": 394, "ĠÙĩØ¯Ø§ÙĩÙħ": 5363, "ĠØ§ÙĦÙĩÙĪÙī": 4607, "ĠØµÙĨØ¹ÙĪØ§": 5492, "ĠØ§ÙħØª": 8014, "Ø¨Ø¹Ø¶": 1295, "Ùĥ": 57, "ÙĪØ¨Ø©": 3652, "ĠØ§ÙĦØ¶Ø§ÙĦÙĬÙĨ": 3875, "ĠÙĪØ¹ÙĦÙħ": 2842, "ĠØ§ÙĦØ³ÙģÙĩ": 4138, "ĠÙģØµØ¯ÙĪØ§": 6913, "Ø¦ÙĪØ³": 7707, "ĠØ£Ø²ÙĪØ§Ø¬Ø§": 2027, "ĠØ¥ÙĦÙĩÙĩ": 8587, "ĠÙĬÙĪÙĦ": 7321, "ĠØ£ÙĨ": 106, "ĠÙĬØºØ´": 6465, "ĠØ£ÙģÙĪØ§Ø¬Ø§": 8311, "ĠÙħØ¯": 1040, "ĠØ³ÙĬÙĩØ¯ÙĬÙĨ": 6423, "ÙĪÙĤÙĬÙĨ": 7112, "ĠÙĪÙĬØ¹ÙħÙĦ": 7899, "Ø®ÙĬØ±": 3539, "ĠÙĦØªØ£": 8566, "ĠØ¨ÙĬØ¶": 8767, "ĠÙĬÙħØ´ÙĬ": 3769, "ĠØªÙģ": 885, "ĠØ£Ø¶": 1935, "ĠØŃÙĦ": 4087, "±": 19, "Ø§Ø³ÙĬØ©": 9043, "ĠØ³ÙĨØ©": 1963, "ĠØ§ØŃØªÙħ": 8019, "ĠØµØ§ÙĦ": 7982, "Ø": 29, "Ø¶Ø§Ø¹Ùģ": 6685, "ĠØ¨Ø±Ø¯Ø§": 8854, "ĠØŃØ³Ø¨ØªÙħ": 6701, "ÙĩØ¯Ø§Ø¡": 3625, "ĠØ£Ø²ÙĥÙī": 5482, "Ø²ÙĤÙĪÙĨ": 7572, "ĠØªØºØ±ÙĨÙĥÙħ": 10222, "ĠØ²Ø¨Ø±": 8412, "ĠÙĤØ¶ÙĬØª": 6957, "ĠÙĦØ£ØµØŃØ§Ø¨": 8501, "ĠÙĬÙĤÙĪÙĦ": 811, "ÙĩØªØ¯ÙĬÙĨ": 2780, "ĠÙĦÙĪÙĦÙĬÙĩ": 8529, "Ø§ÙĪÙĬÙĨ": 5278, "ĠÙĪØ§Ø®": 2138, "Ø£": 78, "ĠØ¨Ø§Ø¨": 4703, "ÙħØ³ØŃÙĪØ§": 6319, "Ø¸Ø§ÙħØ§": 2803, "ĠÙģØ§Ùĥ": 6170, "ĠÙģØ´Ø±": 7277, "Ø¨Ø¥": 5621, "ĠØªØ´ÙĤÙĤ": 8835, "ĠÙģØªØŃØª": 8324, "ĠÙĨÙĩÙĬØª": 7640, "ĠÙĪØ°ÙĥØ±Ùī": 3389, "ĠÙĪÙĬÙĪÙħ": 870, "ĠØ§ÙĦØ¸ÙĦÙħØ§Øª": 2008, "ĠÙĤØ¯Ø±": 2233, "ĠÙĪÙĩØ§Ø±ÙĪÙĨ": 3054, "ĠØ£ØªØ§ÙĥÙħ": 6706, "ĠØ¨Ø¯ÙĦÙĨØ§": 6655, "ĠØ®Ø°ÙĪÙĩ": 9493, "ĠØ´ÙģØ¹": 4110, "ĠÙģÙĨÙģØ®": 9020, "ĠØ£Ø¹Ø¬Ø§Ø²": 9501, "ĠÙĪÙĥØ±ÙĩØ§": 10182, "ĠÙĬÙħÙĦÙĥ": 1671, "ÙĩØ¯ÙĬÙĨ": 6042, "ĠÙģØ¹Ø¯Ø©": 9929, "ĠÙĬØ¹Ø±Ø´ÙĪÙĨ": 10301, "ĠØ±Ø¬Ø³": 5173, "ÙĩÙħ": 73, "ĠØªÙĤÙĪÙĦÙĪÙĨ": 3524, "ĠØ¹Ø¯Ø¯Ø§": 6469, "ĠØ¢ÙĬØ§ØªÙĩ": 1125, "ĠØ¨Ø«": 4704, "ĠØ¥Ø°Ø§": 276, "Ø¥ÙĨ": 7588, "ĠØ§ÙĦØ®ÙĬØ±Ø§Øª": 3052, "ĠÙĬØ¤Ø®Ø±": 4336, "ĠÙħØµÙĬØ¨Ø©": 2593, "ĠØ¸ÙĦÙħ": 678, "ĠØ¹Ø¨Ø¯Ùĩ": 3820, "Ø§Ø´": 1046, "ØªÙĩÙĪØ§": 2744, "ĠØªÙħÙĨ": 2872, "ĠÙĬØ´ÙĩØ¯ÙĪÙĨ": 5015, "ÙħÙĨØ§": 655, "Ø¦ÙĦØ§": 4825, "ĠØ§ÙĩØ¨Ø·ÙĪØ§": 5525, "ÙħØ±ÙĥÙħ": 8193, "ĠØªØŃØ±": 5080, "ĠÙĪÙĬØ¹ÙĦÙħÙĩÙħ": 6659, "Ø£ØªÙĬÙĨ": 4011, "ĠÙĦÙĥÙĨØª": 8343, "ØŃØ¶ÙĪØ§": 7412, "Ø³ØªÙĤØ±": 7884, "ĠØ¹ÙĬØ³Ùī": 1779, "ÙĦØªÙħ": 1845, "ÙĪÙī": 656, "ĠÙĦÙĥÙĨ": 3274, "ÙĦÙħÙĩÙħ": 4069, "ĠÙĥÙģØ§Ø±Ø©": 6812, "ĠÙĪØ¸ÙĦ": 5320, "ĠÙĬØªÙĦÙī": 3240, "ĠÙĬØ¶Ø±Ø¨ÙĪÙĨ": 6880, "ÙĨØ·": 7082, "ØµÙĪÙĨ": 2325, "ÙĤÙĨØ§Ùĩ": 3987, "ĠÙĦØªØ£ØªÙĪÙĨ": 5130, "ĠØ§ÙĦØ¨Ø§": 7130, "ĠØ¨Ø§Ø²": 7374, "ĠØ³Ø§Ùĩ": 7672, "ĠÙĪØªÙĨØ³": 8153, "ĠÙĬØ³ØªÙħØ¹ÙĪÙĨ": 3709, "ĠØ§ÙĦØ¬ÙĩØ±": 5044, "ĠØºØ¶Ø¨ÙĬ": 10114, "ĠÙĪØªØ³ØªØ®Ø±Ø¬": 8163, "ĠØ±Ø§Ø¬Ø¹ÙĪÙĨ": 5419, "ĠÙĪÙĦÙĩÙĨ": 9067, "ĠØ£ÙħØ«Ø§ÙĦ": 2929, "ĠØ®Ø±Ø¬ÙĪØ§": 4517, "ĠØªØ³Ø£ÙĦÙĪØ§": 6482, "ĠØ£Ø¦ÙĨØ§": 9590, "ĠØ¹ÙĪØ±Ø§Øª": 7452, "ĠØ³ÙĨØ¨": 6593, "ĠÙĤÙĦØ¨Ùĥ": 5997, "ĠÙĦÙĦÙħØ³Ø±ÙģÙĬÙĨ": 8696, "ĠØ¨ÙĦØºÙĨ": 9303, "ĠØªØµØ±ÙģÙĪÙĨ": 7500, "ĠÙĥÙĩÙĬ": 7520, "ĠÙħÙĨØ¸Ø±ÙĬÙĨ": 7431, "ĠØŃØ´Ø±": 4854, "ĠØ§ÙĦÙĨØµØ±": 6192, "Ø¬Ùħ": 7501, "ĠÙĬØªØ¶Ø±": 8121, "ĠØ¯ÙĪÙĨÙĥ": 8390, "ÙĤØ·Ø¹ÙĪØ§": 5375, "ĠÙĦÙĤØ§Ø¯Ø±ÙĪÙĨ": 6326, "ĠÙĨØ²": 1789, "ĠØ§ÙĦÙĨØ´ÙĪØ±": 8241, "ĠØŃØ§Ø´Ø±ÙĬÙĨ": 6966, "ĠØ§ÙĦØ·ÙĪØ±": 3331, "ĠÙĦÙĬÙĨØ°Ø±": 5426, "ÙħØ§Ø¯": 7459, "ĠÙĦÙĦÙĥØ§ÙģØ±ÙĬÙĨ": 1349, "Ø§ØŃ": 1384, "ĠØ£ÙĨØµØ§Ø±": 2887, "ĠØ«Ø¹Ø¨": 7923, "ĠØ£Ø¬Ø¨ØªÙħ": 8410, "ĠÙĪÙĬØŃØ°Ø±ÙĥÙħ": 9398, "ĠØ§ÙĦØ¥ÙĨØ³Ø§ÙĨ": 739, "ĠØ£ÙĨØ¨Ø§Ø¡": 2889, "ÙħØ§Ø«ÙĬÙĦ": 10218, "ĠÙĬØ§": 199, "ĠÙģØ¹Ùħ": 7274, "ĠØ¨Ø§ÙĦØ¹Ø±": 4891, "ĠÙĦÙĪ": 460, "ĠØºØ±": 2225, "ĠÙĦÙĬÙĩÙĦÙĥ": 8002, "ĠÙĬØ³ØªØ£Ø°ÙĨ": 4286, "ĠÙħØª": 710, "ĠØ¯Ø±Ø¬": 1804, "ĠÙģØ§Ø·": 2857, "ĠÙĨÙĥÙĪÙĨ": 7618, "ĠØ¬Ø¨Ø§Ø±ÙĬÙĨ": 9846, "ĠØ®Ø·Ø§ÙĬØ§ÙĥÙħ": 10173, "ĠÙģØ£ØŃÙĬ": 7949, "ĠÙĪÙĬØ·": 4899, "ĠÙĤØ±ØŃ": 7533, "ĠØ§ÙĦØ¨Ø£Ø³Ø§Ø¡": 8544, "ĠÙĩÙĪØ§Ùĩ": 3559, "ĠÙĦØ±Ø¨": 1766, "ĠÙħØ³Ø·ÙĪØ±Ø§": 10142, "ĠÙħÙĥØ±ÙĩÙħ": 4448, "ÙĪÙĦÙĩÙħ": 4828, "ĠÙĬØŃØ§Ø³Ø¨": 8176, "ĠÙħØ¹ÙĦÙĪÙħØ§": 9513, "Ø°ÙĪÙĨ": 3488, "ĠØ£ÙģØ±Ø£ÙĬØªÙħ": 3391, "ØªØ®Ø°": 1849, "ĠÙħØ¤ÙħÙĨ": 1683, "Ø§ØªØ§": 2334, "ĠØ§ÙĦÙħØ±Ø¡": 4847, "Ø¹ÙĦÙĩØ§": 7226, "ĠÙĪÙĤÙĪÙħÙĩ": 3374, "ĠØ§ÙĦØ´ÙĬØ·Ø§ÙĨ": 696, "Ø·Ø§": 746, "Ø¢Ø¨": 5957, "ĠÙĪÙĥÙģ": 8021, "ĠÙĪÙģØ±ØŃÙĪØ§": 9347, "ĠÙĪØ®ÙĦÙĤØªÙĩ": 9560, "ÙĬÙĨØ§Ùĥ": 7997, "£": 6, "ĠØ§Ø³ØªÙĨØµØ±": 8562, "ÙĤÙī": 1044, "ĠØ§ÙĦÙħØ±Ùģ": 7739, "ĠØ£ÙĤØª": 7237, "ĠÙĬØµÙģÙĪÙĨ": 3329, "ĠØ·Ø§ÙĦÙĪØª": 8276, "ĠÙĥÙĨ": 1696, "ĠÙĬØ¹Ø°Ø¨ÙĩÙħ": 3687, "ĠØ§Ø¬Øª": 3870, "ĠØ°ÙĦ": 5968, "ĠÙĪÙĬÙĥÙģØ±": 5985, "ĠÙĪÙĥÙĬÙĦ": 4182, "ĠÙĪÙĨØ²Ø¹ÙĨØ§": 6201, "ĠÙĥØ¨Ø±": 2877, "ĠÙĩØ¯Ø§ÙĨØ§": 4474, "ĠØ£Ø¨Ø§": 2185, "ĠÙĬØ³ÙħØ¹ÙĩØ§": 9594, "Ø±Ø¶Ùī": 2709, "ĠÙħÙĤØ¯": 5629, "ĠÙĨÙĥØ±Ø§": 6583, "ĠÙħØ¯Ø®ÙĦØ§": 6571, "ĠÙģÙĤØª": 7280, "ĠØ£Ø«": 1555, "ĠØ§ÙĦÙħÙĩØª": 5892, "ĠØ§ÙĦÙħØ´Ø§Ø±ÙĤ": 10251, "Ø³ÙĦÙħÙĬÙĨ": 7267, "ĠÙĬØŃÙħ": 6146, "ĠØ£Ø¯Ø¹ÙĪÙĥÙħ": 8847, "Ø§Ø¦ÙĩÙĨ": 8065, "ĠØ´ØŃ": 5929, "ØºÙĬØ±": 1876, "ĠØ¯ÙĪÙĨÙĩÙħØ§": 8391, "Ø¶Ø¹ÙģÙĪÙĨ": 6670, "ĠÙĪØ·ÙĩØ±": 9194, "ĠØ£ÙĩÙĦÙĥ": 1098, "ĠØ§ÙĦÙĦØ¤": 7133, "ĠÙĪØ§Ø¹Ø¨Ø¯": 8108, "ÙĬ": 50, "ĠØ¯ÙģØ¹": 6005, "ĠÙĥØ°Ø¨": 465, "Ø£ØªÙĪÙĨ": 2465, "ĠÙĬØ¤Ø®Ø°": 5183, "ĠØªÙĤØ±": 6397, "ĠÙģÙĪØ±Ø¨Ùĥ": 10050, "ĠØ£ØªØ£ØªÙĪÙĨ": 6435, "ĠÙĬØŃÙĬÙĬÙĥÙħ": 4399, "ĠØ£ØªØªØ®Ø°": 8752, "ĠØ§ÙĦÙħØ±Ø³ÙĦÙĬÙĨ": 1342, "Ø¨Øª": 516, "ĠÙĪØªÙħØª": 5609, "ĠØ®ÙĦØ§ÙĦÙĩØ§": 9666, "ĠÙģØ§Ø³ØªØ¬Ø§Ø¨": 6539, "ĠØ§ÙĦØ¨ØŃØ§Ø±": 8545, "ĠØ¨ÙĦÙī": 1393, "ĠØ±Ø¯ÙĪÙĩØ§": 9566, "ĠÙĬØ³ØªÙĪÙĬ": 2006, "ĠØ²ÙħØ±Ø§": 8417, "ĠØ·Ø¹Ø§Ùħ": 2110, "ĠØ·ÙĦØ¹ÙĩØ§": 7022, "ĠØ£Ø¬ÙĦ": 1375, "ĠØ¹ÙĨØ§": 2314, "ĠÙĨÙĪØŃ": 842, "ÙĪØ§Ùĥ": 4697, "ĠØ§ÙĦÙĥØ¨Ø±ÙĬ": 8030, "ĠØŃØ§ÙģØ¸": 3581, "ÙĤØ§Ùĩ": 8219, "Ø¹ÙħÙĪÙĨ": 2926, "ĠØµØ§Ø¨": 4935, "ĠÙĪØ¬ÙĩÙĬ": 9015, "ĠØ§ÙĦØ´ÙħØ§ÙĦ": 3685, "ĠÙĬÙħØ³ÙĥÙĩÙĨ": 9908, "ĠØªÙħÙĦÙĥÙĪÙĨ": 9903, "ĠØ¨Ø±Ø§Ø¡Ø©": 10154, "Ø´ÙĬÙĩÙħ": 5828, "ĠØ§ÙĦÙĨØ§": 225, "ĠØ±Ø£Ùī": 2257, "ĠÙģØ§Ø®ØªÙĦÙģ": 4505, "ĠØ³ÙĪÙĬ": 7670, "ĠÙħØ´Ø±": 4621, "Ø³ØªØ®Ø±Ø¬": 7883, "ĠÙĬØ£Ø®Ø°": 3270, "ĠØªÙģÙĬ": 4023, "Ø«Ø±": 481, "ĠØ³Ø®Ø±ÙĬØ§": 6740, "ĠÙĪØ£Ø®Ø°ÙĨØ§": 6829, "ÙĥÙĪÙĨÙĪØ§": 3237, "ÙĦØ¨ÙĩÙħ": 8586, "ĠØªØ¤Ø§Ø®Ø°": 9255, "ĠØ±ÙĥØ¨Ø§": 9645, "ĠÙĨÙĥØ§ÙĦØ§": 9035, "ĠÙĪØ£Ø¯Ø¨Ø§Ø±ÙĩÙħ": 10083, "ĠØ§ÙĦØ¬ÙĨØªÙĬÙĨ": 8285, "ĠØ±Ø³ÙĪÙĦÙĩÙħ": 8813, "Ø§Ùģ": 344, "ĠÙĥÙģØ±ÙĪØ§": 308, "ĠÙĪÙĦØªØ¨ØªØºÙĪØ§": 5273, "ĠØ£Ø¹ÙħÙĦ": 5228, "ĠØªÙħÙĨÙĪØ§": 7489, "ĠØªØ´ØªÙĩ": 8833, "ĠÙĪØ±Ø¨ÙĨØ§": 6555, "ĠÙĪØ¬Ø¯ÙĩØ§": 9549, "ĠÙĦØ§ÙħØ³ØªÙħ": 10253, "Ø±Ø§Ø¦": 2837, "ĠØ±ÙĬØŃØ§": 5450, "ĠØ£ÙĬØ¯ÙĬÙĩÙħ": 1082, "ĠØ§ÙĦØ¨Ø§Ø¨": 3715, "ĠØ°Ø±Ø§": 7859, "ĠØ¶ÙĦ": 1477, "ĠØ£ÙĪ": 162, "ÙĩÙĬÙħ": 618, "ĠÙĬØ³ØªÙĪÙĪÙĨ": 6284, "ĠÙĪÙĤØ±": 6025, "Ø¦ÙĬ": 7701, "ÙģØ±ÙĪØ§": 1709, "ĠØ¨Ø§ÙĦØŃ": 3601, "ĠØ§ÙĦÙĪØ¯ÙĤ": 10036, "ĠØªØ³ØªØºÙģØ±": 6558, "ĠÙĦÙĨØŃÙĨ": 4261, "ĠØ±Ø§Ø¹ÙĪÙĨ": 9485, "ĠØ¨Ø§ÙĦØ¯ÙĬÙĨ": 5960, "ÙĤÙĪÙĦÙĪÙĨ": 489, "ĠÙĦÙĩÙĪØ§": 6080, "ĠÙģØ³Ø§Ø¡": 5168, "ÙĪØªÙĩÙħ": 5574, "Ø¹Ø¨Ø©": 7229, "ĠÙģØ£ØªØ§ÙĩÙħ": 7954, "Ø±ÙĪÙĩÙĨ": 5582, "ĠÙģØ¥ÙĨÙĥ": 2731, "ÙĦÙĪÙĨÙĥÙħ": 3615, "ĠÙħØµØ¯ÙĤØ§": 2297, "ĠØ®ÙĪØ¶": 7794, "ĠÙĪÙĬØ¶Ø±Ø¨": 7902, "ĠÙĪØ¬Ø¹ÙĦÙĨØ§ÙĩÙħ": 4371, "ĠÙĥØ§ÙĦØ£ÙĨØ¹Ø§Ùħ": 8930, "ĠÙģÙĥØ°Ø¨Øª": 9338, "ĠÙĦØºÙĬØ±": 5296, "ØªØ¨ØªÙħ": 6414, "ĠÙĬØ¸ÙĦÙħ": 3980, "ĠÙĬØ¤": 640, "ĠØ¨Ø®ÙĦØ§ÙĤ": 6634, "ĠÙħØªØ´Ø§Ø¨ÙĩØ§": 5499, "ĠØªÙĤØ§ØªÙĦÙĪØ§": 8680, "ĠÙĪÙĦÙĦÙĩ": 1226, "ĠÙħÙĬÙĤØ§Øª": 4629, "ÙħØ§ÙĪØ§Øª": 5750, "Ĥ": 34, "ĠÙħÙĨØ¹Ùĥ": 6889, "ÙĦØŃÙĪØ§": 3730, "ĠØŃÙĨÙģØ§Ø¡": 7764, "ĠÙĤÙĪÙħØ§": 947, "ĠÙĪØ£Ø¹ÙĦÙħ": 5876, "ØªÙħØªØ¹ØªÙħ": 9394, "ĠØ¹Ø±Ø¶Ø§": 9415, "ĠÙĦØªØ³Ø£ÙĦÙĨ": 9681, "ĠØ²ÙĦÙģÙī": 10136, "ĠÙĦØ°ÙĪ": 2859, "ĠØ®ÙĬÙģØ©": 7011, "ĠÙģØ¥Ø®ÙĪØ§ÙĨÙĥÙħ": 6044, "ÙĪÙĥÙĦ": 1417, "ÙħØ¹Ø±ÙĪÙģ": 1260, "ĠÙĪØ³Ø¹ÙĩØ§": 4524, "ĠÙģÙĪÙĦÙĪØ§": 7282, "ĠØ£ØŃØ¯ÙĥÙħ": 3342, "ĠØªØ³Ø¤ÙĩÙħ": 8832, "ĠÙĥØ°Ø¨Øª": 1824, "ÙĩÙĤ": 3077, "ĠÙĪØ±Ø¨Øª": 8969, "ĠÙĬÙģØªØ±ÙĪÙĨ": 1673, "Ø¹Ø¨Ø¯ÙĪØ§": 1341, "ĠÙħØ±Ø¬Ø¹": 1822, "ĠØ´Ø§ÙĩØ¯Ø§": 6896, "ĠÙĪÙĩØ§": 1679, "ĠÙĪÙĦØ¯": 1292, "ĠÙģØ¢Øª": 4438, "ĠØªÙħÙĬØ¯": 6623, "ĠÙĪØ±Ø§Ø¡ÙĥÙħ": 8475, "ĠÙĪØ§ÙĦØ£ÙĨØµØ§Ø±": 9403, "ĠÙĪÙħØ£Ø¬ÙĪØ¬": 8437, "ĠØ£Ø°ÙĤÙĨØ§": 5343, "ĠØ§ÙĦÙĨØ°ÙĬØ±": 8240, "ÙĤØ¯ÙĪÙĨ": 6072, "ĠØ§ÙĦØ¹ÙħÙĬ": 5461, "ĠÙĥÙĨØªÙĨ": 8848, "ĠØ¸Ø§ÙĦÙħ": 9678, "Ø±ÙĪØ´": 7126, "ÙĦÙħØ§": 680, "ĠØ£ÙĪÙĦØ§Ø¡": 7869, "ĠÙĨØ¬ÙĨÙĬ": 8888, "ØŃÙĪØ§": 1153, "ĠÙĬÙĪÙħØ¦Ø°": 677, "ĠÙĪÙģØªØŃ": 5610, "ĠÙĥØ°Ø§Ø¨": 3534, "ÙģØªÙĨØ©": 2972, "ĠØ§ÙĦØ£ÙĨØ«ÙĬÙĬÙĨ": 3905, "ĠØ¨Ø£ÙĦØ³ÙĨØªÙĩÙħ": 9999, "ĠØ³ÙĨØ³ØªØ¯Ø±Ø¬ÙĩÙħ": 10316, "ĠØ§ÙĦÙĦÙĬÙĦ": 726, "ĠÙĦØ£ÙĨÙģØ³ÙĥÙħ": 3857, "ĠÙĪØŃÙĬÙĨ": 4354, "ĠØ¨Ø§ÙĦØŃÙĥÙħØ©": 7857, "ĠØ¨Ø±ÙĩØ§ÙĨ": 6878, "ĠØ³ØŃØ±": 1869, "ÙĪÙĨÙĩØ§": 3503, "ĠÙĤØ§ÙĦÙĪØ§": 255, "ĠÙĬØ¦Ø³": 4683, "ĠÙĤØ¯": 279, "Ø´ÙģÙĤ": 9185, "Ø¹ÙģÙģ": 5206, "ĠÙħØ¨Ø´Ø±ÙĬÙĨ": 5266, "ĠØ£Ø³ÙĪØ£": 8683, "ĠØŃØ¨Ø§ÙĦÙĩÙħ": 10252, "ĠÙĪÙħØ§": 151, "ĠÙħØ¹Ùĥ": 2228, "ÙĥÙĩØ©": 2432, "Ċ": 31, "Ø³Ø·Ø§Ø³": 7268, "ĠÙĬÙģ": 649, "ĠØ£ÙĥÙĪÙĨ": 2638, "ØªÙĬÙĦØ§": 3231, "ĠÙĬØ³ÙĪÙħÙĪÙĨÙĥÙħ": 7068, "ĠØ§ÙĦØ·ÙĬÙĨ": 6457, "ĠÙĬØŃÙħÙĦ": 4221, "Ø§Ø³Ø¨": 7074, "ÙĪÙģÙĪØ§": 2952, "ĠØµØ±Ùģ": 3216, "°": 18, "ĠØ¯Ø§Ø±": 2720, "ĠÙĪØ§ÙĦÙĨÙĩØ§Ø±": 1266, "ĠÙĪÙĬØ¹ÙĦÙħÙĪÙĨ": 9211, "ĠÙģØªÙĨØªÙħ": 8317, "ĠÙĬÙĨØ²ØºÙĨÙĥ": 10174, "ĠÙħØ®": 1387, "ĠØ¢ÙĦÙĩØªÙĨØ§": 4417, "ĠØ®Ø§ÙĦØµØ©": 5163, "ĠØ£ØŃØ§Ø·": 5021, "ĠÙĪÙĩÙĨ": 7142, "ĠØ§ÙĦÙħÙĬØª": 2210, "ĠØ¢ÙĦØ§Ø¡": 1049, "ØµØ±Øª": 6251, "ĠÙĨØ±ÙĬÙĨÙĥ": 4810, "ĠØ£Ø±Ø¨Ø§Ø¨Ø§": 6705, "ĠØ¨Ø§ÙĦØ³Ø§Ø¹Ø©": 9667, "ĠÙģØ¨Ø¯": 7278, "ĠØ§ÙĦÙĬ": 1492, "ĠØªØ¤ØªÙĬ": 9252, "ĠÙĥÙĦÙħØ©": 1674, "ĠÙĪØ£Ø¨": 1870, "ĠØ¨ÙĤÙĪÙĦ": 5711, "ĠÙĬØ±Ø§ÙĥÙħ": 7332, "Ø³Ø¨ØŃ": 879, "ĠØ£ÙĥØ±Ùĩ": 7248, "ĠÙģÙħØªØ¹": 7295, "Ø´ÙĪØ§": 4788, "Ø¨ÙĬØ¯": 3926, "ĠÙĪÙĤÙĬÙĦ": 1884, "ĠØ¨Ø£ØŃØ³ÙĨ": 4246, "Ø§Ø±Ø¯": 7925, "ĠØ¹ØµØ§Ùĩ": 6621, "ØµØ±ÙģÙĪÙĨ": 6253, "ĠÙĤØ±ÙĬÙĨØ§": 9223, "ĠØ§Ø¯Ø¹": 3029, "ĠÙģØ¨Ø´Ø±Ùĩ": 6942, "ĠØ£ÙĨØ¨ÙĬØ§Ø¡": 7586, "ÙĪØ¶": 3425, "ĠÙĪØ±": 432, "ĠÙĩÙħØª": 8080, "ĠØ£ÙĤØ³Ùħ": 2255, "ÙĥØªØ¨": 3084, "ĠØ¨ÙĨÙĬÙĨ": 7367, "ĠØ¶ÙĦÙĦØª": 9239, "ĠØŃØ³Ø§Ø¨ÙĬÙĩ": 9342, "ĠÙĪÙĤØ¶ÙĬÙĨØ§": 10105, "ĠÙĬØ±ÙģØ¹": 6161, "ÙĪØªÙĩ": 7111, "ĠÙĪØ£Ø²ÙĪØ§Ø¬ÙĥÙħ": 9661, "ĠØ£Ø±Ø³ÙĦÙĨØ§Ùĥ": 2250, "Ø±ØªÙħ": 4599, "ĠØŃÙĬØ§Øª": 4853, "ĠÙģÙĦÙĨØ£ØªÙĬÙĨ": 9017, "ĠØºÙĬØ§Ø¨": 8042, "ÙĬÙĩ": 600, "ĠØ¹Ø±Ø¨ÙĬ": 9763, "ĠØ¨Ø§ÙĦÙĥØ§ÙģØ±ÙĬÙĨ": 6897, "ĠØ´Øº": 5931, "ĠØªØº": 1628, "ĠÙĪØ¹Ø§Ø¡": 8359, "ĠÙĪØ§ÙĦÙĤ": 1048, "Ø§Ø·ÙĬØ±": 2550, "ĠØ¹ÙĦÙħÙĨØ§": 3302, "ĠØ£ØªØ±": 3750, "ĠØ£ØŃØ³": 6184, "ĠØ£ÙħØ§ÙĨÙĬ": 6727, "ĠÙħØ§Ùĥ": 7656, "ØŃØ¯Ø§": 7405, "ĠÙĪØŃ": 743, "ĠÙģØ£": 182, "ĠÙģÙģØ±": 7271, "ĠØ·Ø§Ø¦Ø±ÙĥÙħ": 9099, "Ø«Ø§": 2337, "ĠØ¨Ø·": 1219, "ĠØ¹ÙĨÙĩØ§": 1328, "ĠÙĪØ¬Ø§Ø¡": 1294, "ĠØ§ÙĦØ¨ÙĦØ§Øº": 2431, "ĠÙģØ£ÙĦÙĤÙĪÙĩ": 9431, "ĠÙĨÙĤÙĪÙĦ": 2894, "ĠÙĬÙĨØ§Ø¯": 4508, "ĠÙĥØ£ÙĨÙħØ§": 6637, "ĠÙħÙĦØª": 3934, "ĠØ£ØªØ¹ÙĦÙħÙĪÙĨ": 8753, "ØµØ¯ÙĤ": 1664, "Ø¨ÙĪÙĨ": 732, "ĠØ¹Ø´Ø±Ø§": 7446, "ĠØŃØµ": 3579, "ĠØ³ÙĦØ³": 9080, "ĠØ£Ø¹Ø¬Ø¨Ùĥ": 9500, "ĠØ§Ø±ØªØ¶Ùī": 7033, "ĠØ§ÙĦÙĨ": 320, "ĠØ¨ÙĬØªÙĥ": 9640, "ÙĩØ§ÙĨ": 7567, "ĠÙģØ¬Ø¹ÙĦÙĩÙħ": 9811, "ØµÙĦ": 1224, "Ø¬": 87, "ĠØ£ÙĪÙĦÙĬØ³": 8811, "¹": 27, "ĠØ£ÙĬØ§ÙħØ§": 5647, "ĠØ£ÙĬ": 271, "ĠÙģØ§ØªÙĥÙħ": 6542, "ĠØ£ÙĤÙĬÙħÙĪØ§": 7244, "ĠØ£ÙĥÙĦÙĩØ§": 5102, "ĠÙĨÙģÙĪØ±Ø§": 5255, "ĠÙģØµØ¯ÙĩÙħ": 9749, "ĠØ³ÙĪØ¡Ø§": 3789, "ĠØ¨Ø¹Ø¶ÙĨØ§": 6265, "ĠÙĪØ§Ø¬ØªØ¨": 9723, "ĠÙģØ§ØµÙģØŃ": 9329, "Ø¶": 102, "ĠÙĪØ¬ÙĨÙĪØ¯": 6800, "ÙĪØ¯Ø©": 2964, "¥": 8, "ĠÙĦÙĬÙĥÙĪÙĨ": 4941, "ĠÙģÙĪÙĤÙĥÙħ": 3782, "ĠØ¨Ø§ÙĦØŃØ³ÙĨÙī": 6872, "ĠØ§ÙĦÙĥØ±Ø¨": 6906, "ĠÙĦÙĩØ¨": 8047, "ĠØ¨Ø¹Ø«Ø±": 8113, "ĠØ¨Ø£ÙĦ": 5045, "ĠÙħÙĦØªÙĨØ§": 9806, "ĠØ«ÙħØ±Ùĩ": 6033, "ĠØŃÙĬ": 4851, "Ø§Ø´Ø¹ÙĬÙĨ": 9011, "ÙĦÙĥÙĨØ§": 5865, "ĠÙĥØ§Ø´Ùģ": 9827, "ĠÙĪØ®Ø³Ø±": 9069, "ĠÙħØ¹Ø±ÙĪØ´Ø§Øª": 10284, "ÙģØ§Ùĩ": 6245, "ĠÙģÙĪÙĬÙĦ": 2644, "ĠØ£Ø±Ø³": 538, "ĠØ£Ø¯ÙĦÙĥÙħ": 6494, "Ø§ÙĦØ§Øª": 2835, "ĠØªØ¶Ø±": 4026, "ĠÙĨÙģØ¹Ø§": 2796, "Ø³ÙħØ¹ÙĪØ§": 3233, "Ø§ØªÙĦÙĪÙĩÙħ": 5365, "ĠÙĪØ³": 563, "ĠÙĦÙĬØ«Ø¨Øª": 8004, "ĠØŃÙĬØ§ØªÙĨØ§": 7009, "ĠØ¹Ø§Ø¯Ø§": 9220, "ĠÙħÙģØ³Ø¯ÙĬÙĨ": 3941, "Ø²ÙĬÙĨ": 1137, "ĠØªØ¹Ø¯ÙĨØ§": 5438, "Ø£ÙĨØ§": 4009, "ĠØ²ÙĦÙģ": 6261, "ĠØ«ÙĤÙģÙĪØ§": 9546, "ĠÙĪØºÙĬØ±": 3923, "ĠØ«ÙĤÙĦØª": 5429, "Ø®ÙĪØ§ÙĨÙĩÙħ": 3816, "ĠÙģØ±ÙĬÙĤØ§": 2595, "ĠÙĬØµÙĨØ¹ÙĪÙĨ": 4348, "ĠØ¨Ø¹Ø¨Ø§Ø¯ØªÙĩÙħ": 9498, "ÙĨ": 48, "ĠØ¯ÙĥØ§": 6007, "ĠÙĦØ¯ÙĬÙĨØ§": 4409, "ĠØ§ÙĨ": 749, "ĠØ¥ØµÙĦØ§": 3501, "ĠÙĬØ±Ø¶": 4675, "ĠØ§ÙĦØ¯ÙĪØ§Ø¨": 8211, "ĠØ§ÙĦØ·Ø¹Ø§Ùħ": 3756, "ÙĩÙĨ": 249, "ĠØ¹Ø±Ø¶": 1949, "ĠÙĨØ®": 2077, "Ø®Ø±": 173, "ĠØªØ²ÙĥÙī": 5298, "ĠÙĥÙģÙĪØ§": 7515, "ĠØ§ÙĦØºØ±Ùģ": 8524, "ĠØµÙĦØ§ØªÙĩÙħ": 3886, "ĠÙĪØŃÙģØ¸Ø§": 10149, "ÙģØªØŃÙĪØ§": 8403, "ĠØ§ÙĦØ£Ø±Ø§Ø¦Ùĥ": 4569, "Ø§ÙĨØ¹": 7577, "ĠÙĪÙĨØ¨": 8243, "ĠÙĨÙĤÙħÙĪØ§": 9461, "ĠÙģØ®Ø°": 2856, "ĠØ¶ÙĬÙĤ": 8336, "ĠÙĪØ§ÙĦÙĨ": 767, "ÙĩØ±Ø§": 5580, "Ø¯Ø¯ÙĥÙħ": 7259, "ĠØ§ÙĦØ¹ÙĦÙĬÙħ": 1095, "ĠØ¨Ø¢": 1559, "ĠØªÙĨØµØ±ÙĪÙĨ": 6353, "ĠØ¨Ø¢Ø¨Ø§Ø¦ÙĨØ§": 10321, "ĠØ£ÙĪØŃÙĬÙĨØ§": 2038, "ĠØªØµØ·ÙĦÙĪÙĨ": 8968, "ĠÙĬØ¶": 1026, "ĠÙħØ³ÙĦÙħØ©": 5290, "ĠØ¨Ø§ÙĦØ³ÙĨ": 7849, "ĠØ§ÙĦØª": 882, "ĠØ¨Ø³": 1068, "ĠØªØ¹Ø«ÙĪØ§": 4303, "Ø±ÙĪÙĨØ§": 4898, "ĠØ£Ø³Ø§Ø¡ÙĪØ§": 8684, "ĠØ¸ÙĨÙĨØªÙħ": 4486, "ĠÙĪÙģÙĬÙĥÙħ": 8959, "ĠØ³ÙĨÙĬÙĨ": 2693, "ĠØ§ÙĦÙĤØ§Ø±Ø¹Ø©": 6049, "ĠÙĪÙĨ": 321, "ĠØ£ØŃØ¯ÙĩÙħØ§": 5230, "ĠÙĬÙĪÙĨØ³": 7331, "ĠÙĬØ¨Ø¹Ø«ÙĩÙħ": 6669, "ÙĤØ§Ø¨": 1067, "ĠØ¨Ø±Ø³": 7358, "ĠÙĪÙĦÙĨØ³": 7838, "ĠÙħÙĪÙĦØ§ÙĩÙħ": 9555, "ĠÙĬØ´": 298, "ĠØ·Ø¨Ø¹": 6206, "ÙħÙĩ": 2167, "ĠÙĪØ·ÙģÙĤØ§": 9195, "ĠØ¨Ø§ÙĦØ¨": 1641, "ĠØ±Ø£ÙĬ": 3542, "ÙħØ¹ÙĬÙĨ": 1335, "ĠÙĬÙĥÙĦÙģ": 8351, "ĠÙģÙĦÙĦ": 8213, "ĠØ§ÙĨØ·ÙĦÙĤÙĪØ§": 10151, "ĠØ¨Ø§ÙĦØ¹Ø¨Ø§Ø¯": 4461, "ĠÙĨÙĨÙĤØµÙĩØ§": 9652, "ĠØ´ÙĨØ¢ÙĨ": 7808, "ÙĥØª": 2289, "ĠÙĨØ§ØµØ±ÙĬÙĨ": 3393, "ĠØ·ÙĪØ¹Ø§": 5039, "ĠÙĦÙĬÙģØª": 8000, "ĠØ¹ØµÙĬØ§": 9134, "ĠÙĦÙĬÙĪÙħ": 2938, "ĠÙĬÙĨÙĩÙĪÙĨ": 6129, "ĠØŃØ°Ø±": 7756, "Ø§Ø±Ø¹ÙĪÙĨ": 2927, "ĠØ¬Ø§ÙĩØ¯Ø§Ùĥ": 9845, "ĠÙĨÙĨØ¬": 4064, "ĠØ¨Ø§ÙĦÙħ": 1515, "Ø³ÙħØ§": 2059, "Ø¤ÙħÙĨØ§Øª": 1420, "ÙģØ§Øª": 5727, "ĠÙĪØ¬Ø¨Ø±ÙĬÙĦ": 8074, "Ø¨ÙĦØ¯": 3640, "ĠØ¸Ø§ÙĦÙħÙĬÙĨ": 2740, "ĠØŃÙħÙĦÙĩÙĨ": 8844, "ĠÙĪØ§ÙĦØ´Ø¬Ø±": 9079, "ĠØ£Ø¨ÙĬ": 2636, "ĠÙĬØ¶ÙĦ": 1065, "Ø¶Ø¨": 1566, "ĠÙĤÙĪÙĬ": 5190, "Ø£ÙĥÙĦ": 6793, "ĠÙģØ£ÙħØ³Ùĥ": 6016, "ĠÙģØ¦Ø©": 3109, "ĠØ±Ø£ÙĬØªÙĩÙħ": 4554, "ĠÙĬÙĨØ·ÙĤ": 6900, "ĠÙħÙĨÙĤ": 7424, "ĠØ³ÙħÙĬØ§": 9772, "ĠÙĬØ£ØªÙĬÙĨ": 2380, "ĠÙĦØ¯ÙĬÙĩÙħ": 3358, "ĠÙĪØ§ÙĦØŃØ³Ø§Ø¨": 9569, "ĠÙĬÙĪØŃ": 1557, "ÙĦÙĪÙħ": 5559, "ĠÙĪØ§Ø¨ØªØºØ§Ø¡": 9905, "ĠÙĩØ§Ø¯": 3161, "ĠÙħØ¬ÙĨÙĪÙĨ": 3856, "ĠÙĪØ§ÙĦÙħØŃØµÙĨØ§Øª": 6377, "ĠØ¨Ø§ÙĦØªÙĬ": 3202, "ĠÙħÙĪØ§Ø²ÙĬÙĨÙĩ": 3855, "ĠØŃÙĦÙĬÙħ": 2497, "Ø¯ÙĪ": 5649, "ĠÙĪØ¢ØªÙī": 6361, "ĠØ¥ÙĬØ§": 2064, "ĠØ¨ÙĪØ§ÙĦØ¯": 3995, "ĠØ¨Ø£Ø¹ÙĦÙħ": 8290, "ĠØ§ÙĦØºÙĬØ«": 8523, "ĠÙĬØ²ÙĥÙī": 9050, "Ø¹ÙĨØ§ÙĤ": 9157, "ĠÙħÙĥÙĨÙĪÙĨ": 6502, "ĠØ¨Ø±Ø²Ø®": 10153, "Ø®Ø§": 4047, "ĠØ£Ø®Ø§ÙĩÙħ": 3000, "ÙĩÙħØ§": 426, "ĠØ´Ø§ÙĥØ±Ø§": 7012, "Ø¯Ø§ÙĩÙħØ§": 3664, "ĠÙĦÙĩ": 214, "Ø¬Ø§Ø¨": 2876, "ĠØ§ÙĦØµØ¯ÙĤØ§Øª": 3807, "Ø´ÙĬØ§": 4054, "ĠØ®ÙĦÙĤØª": 3679, "ĠÙĪÙħÙĤØ§ÙħØ§": 8439, "ĠÙģØ³ÙĬØ±ÙĪØ§": 8672, "ĠØ¬Ø¯ÙĦØ§": 9843, "ÙĤØ§ÙĩÙħ": 4238, "ĠØªÙĥÙĨ": 1416, "ĠÙĪØ§Ø¹ÙħÙĦÙĪØ§": 8110, "ĠÙĨØ°ÙĬØ±": 1173, "ÙħØ¹ÙĪÙĨ": 3070, "ĠØ±Ø³ÙĦÙĩ": 4253, "ĠØ±ØŃÙĬÙħØ§": 1534, "ĠØ±Ùħ": 5807, "ĠØµØ§ÙĦØŃØ§": 1020, "ĠÙģØ¹": 1025, "Ø¦": 123, "ĠÙģØ§": 300, "ĠØ°ÙĩØ¨": 2215, "ĠØ¨ØŃÙħØ¯": 2312, "ĠØ¸Ø§ÙĩØ±": 5511, "ĠÙĬØ®Ø±Ø¬ÙĥÙħ": 6557, "ĠØ®Ø§ÙĦØ§Øª": 8656, "ÙĦÙĬØ©": 2673, "ĠØ§ÙĤØªØªÙĦÙĪØ§": 9615, "ĠØ£ÙħÙĩØ§ØªÙĥÙħ": 3878, "ĠÙĬÙģØ¹ÙĦÙĪØ§": 9041, "ĠØ´Ø¹Ø§Ø¦Ø±": 5367, "ĠØ¹ÙĨÙĥÙħ": 1327, "ĠÙĪØ£ÙĤÙĬÙħÙĪØ§": 2339, "ÙĩØ§Ø¬Ø±": 2885, "ĠÙĤØªÙĦØªÙħ": 6710, "Ø¬Ø¹ÙĪÙĨ": 835, "ÙĩØ±Ùĩ": 4308, "ĠÙħÙĨ": 80, "ÙĨÙĥ": 897, "ĠÙĪØ§ÙĦØ¹Ø§": 4059, "ÙĨØ§ÙĩÙħ": 578, "ĠØ®ÙĦØ§ÙĦ": 2914, "ĠÙĬØ¯Ø±ÙĬÙĥ": 6280, "ĠÙģÙĬÙĤÙĪÙĦ": 1859, "ĠØ°ÙĪÙĬ": 7861, "ĠØ´Ø±ÙĥØ§Ø¦ÙĩÙħ": 9013, "ĠÙħØ³ÙĪØ¯Ø§": 8519, "ĠÙĪÙĥØªØ§Ø¨": 6069, "ÙħØ¹ÙĪØ§": 8302, "ĠÙĬØ£ØªÙĬÙĥÙħ": 3016, "Ø¹Ø±Ø¶ÙĪØ§": 4635, "ÙĦØ¨ÙĪÙĨ": 5135, "ĠØªÙĥÙĦÙħ": 5105, "ĠÙĬØ¬Ø±ÙħÙĨÙĥÙħ": 7001, "ĠÙĨØªØ¨Ø¹": 3160, "ĠÙĪÙĪØŃ": 7149, "ĠÙĨØ®Ø§Ùģ": 9462, "ĠØ±Ø§ÙĪØ¯": 4510, "ĠØŃØ§ÙģØ¸ÙĪÙĨ": 7761, "ĠØ´ÙĬØ¹ØªÙĩ": 7020, "Ø¯Ø¨Ø±ÙĪÙĨ": 7258, "ÙĦÙħØ©": 7655, "ĠØŃØ³": 735, "ĠÙħØªÙĤØ§Ø¨ÙĦÙĬÙĨ": 5557, "ĠØ§ÙĦÙĪØ³": 5592, "ĠØ«": 174, "Ø¯Ø®ÙĦÙĩÙħ": 3372, "ĠØ§Ø³ØªÙĤØ§ÙħÙĪØ§": 5126, "ĠØ¹ØµØ§Ùĥ": 6622, "ĠØ£ÙĬÙħØ§ÙĨÙĩÙĨ": 9872, "ĠØºÙĨÙħØªÙħ": 9982, "ĠØ§ÙĦØ£Ø³ÙģÙĦÙĬÙĨ": 10092, "ĠÙĪØ´ÙģØ§Ø¡": 10186, "ÙĦØ§ÙĦ": 645, "ĠØ¸ÙĩÙĬØ±Ø§": 5382, "ĠÙĦØ³Øª": 3477, "ĠÙĦÙĩØ¯": 4663, "ĠÙħØºØ±ÙĤÙĪÙĨ": 6910, "ĠØªÙĥÙĦÙģ": 8479, "ĠÙĬØµÙĬØ¨ÙĥÙħ": 9733, "ĠØ¨ÙĬÙĨØ§Øª": 1813, "ĠØ§ÙģØªØ±Ø§Ùĩ": 3363, "ĠÙģØ£ÙĨØ³Ø§ÙĩÙħ": 10102, "ĠØµØ¨Ø§Ø±": 4936, "ÙģØ«": 7392, "Ø¢ÙĨ": 3600, "ĠÙħØ³ØªÙĩÙħ": 6433, "ĠØ£ØŃÙĦØª": 8217, "Ø¨ÙĬØ¨": 8024, "Ø¬ÙĪØ¬": 4747, "ĠÙħÙĤØ¯Ø§Ø±Ùĩ": 10044, "ĠÙĨÙħÙĥÙĨ": 9606, "ĠØ¨Ø¥Ø°ÙĨÙĩ": 2799, "ĠÙĪØªÙĪÙĦÙĪØ§": 8155, "ĠØªØ®ÙģÙĪÙĨ": 8729, "ÙĬØ§Ùĩ": 7866, "ĠÙģÙĥØ§ÙĨØª": 4469, "Ø«ÙħÙĪØ¯": 2147, "ĠØ¹Ø§Ùĥ": 4016, "ĠØ¬ÙĩÙĨÙħ": 623, "ÙĩÙĪØ±Ø§": 8100, "ÙĬØŃØ©": 2143, "ĠØªÙĤØ¯": 2196, "ĠØ£ÙħØ±Ø§": 1715, "ĠÙĪØ¬ÙĨÙĪØ¯Ùĩ": 3404, "ĠØ¹ÙĪØ¬": 7441, "ĠÙģØ¤Ø§Ø¯": 5679, "ĠØ¯ÙĬÙĨÙĥÙħ": 2592, "ĠØªØ¹Ø¨Ø¯": 2560, "Ø´ÙĬØ¡": 2258, "ĠÙĬØŃØ§Ø¯ÙĪÙĨ": 8175, "ĠØ±Ø¨ÙĬ": 514, "ĠÙģØ¬Ø§Ø¬Ø§": 9086, "ĠØ´Ø±ÙĬÙĥ": 5933, "ĠÙĤØ¨": 683, "ĠØ£Ø´ÙĥØ±": 8792, "ØºØ©": 3185, "ĠØ§ÙĦØ±Ø¨Ø¹": 7910, "ĠÙĪØ§ÙĦØ£ÙĪÙĦØ§Ø¯": 10291, "ÙģÙĪØ±Ø§": 1189, "§": 10, "ĠÙħÙĦ": 2294, "ĠØ¢ÙĦÙĩ": 1158, "ĠÙĪØ£ØªÙħ": 4837, "ĠÙĪØµÙĦÙĪØ§Øª": 9031, "ÙģÙĪØ±": 571, "ĠÙĤØ§Ø¦": 1629, "ĠØªØ¨Ø¯": 1780, "ĠØºÙĦØ§ÙħØ§": 8041, "ĠØ²ÙĥØ§Ø©": 8413, "Ø¸Ø±Ø©": 8638, "ĠØ´": 141, "Ø¨ØªÙħ": 2627, "ĠØ§ÙĨØµØ±": 5204, "ĠÙĤØ§Ø¯Ø±ÙĬÙĨ": 10229, "ĠÙĪØ§Ø²": 3014, "ØµØ¯ÙĤÙĬÙĨ": 5165, "ĠØ§ÙĦÙĨØ¨ÙĪØ©": 8239, "ĠØ³ÙĦ": 1157, "ĠØ§ÙĦØ®Ø±ÙĪØ¬": 6947, "ĠØ³ÙĪÙĦØª": 7006, "ĠØ§ÙĦÙħØºØ±Ø¨": 7746, "ĠÙģØ§ÙħØ³ØŃÙĪØ§": 8207, "Ø³ÙĦÙĪØ§": 5656, "ĠÙģØ¹ÙĦÙĬ": 8995, "ĠØ±Ø¬Ø§ÙĦ": 3003, "ĠÙĬØ±ØŃÙħ": 8185, "ĠØ£ØªÙĤÙĪÙĦÙĪÙĨ": 6434, "ĠØŃÙģÙĬØ¸": 3876, "ĠØªØ´Ø±ÙĥÙĪØ§": 6925, "ĠÙĪÙĥØªØ¨ÙĨØ§": 9869, "ĠØ£Ø¨ÙĨØ§Ø¦ÙĩÙĨ": 10147, "ĠØµ": 191, "ĠØ§": 200, "ĠÙĪÙħØ«ÙĦÙĩÙħ": 6977, "ĠØ®Øµ": 3192, "ĠÙĪÙħÙĤ": 8432, "ÙĬØ¨ÙĩØ§": 8128, "ĠØ¸Ø§ÙĩØ±Ø§": 8234, "Ø°ÙĪ": 1088, "ĠØ¢ÙĦ": 1192, "ĠÙĪÙĥØ£ÙĬÙĨ": 3634, "ĠØ£ÙĨØ§Ø³": 4331, "ĠÙħØ³Øª": 665, "ĠÙĪØ£ÙĨØ¨ØªÙĨØ§": 6204, "ĠÙĪØ¨Ø´ÙĬØ±": 8485, "ĠÙĪØ±Ø¨ÙĬ": 6291, "ĠÙĬÙĥØªØ¨": 8352, "ĠØªØ¨Ø¯ÙĬÙĦØ§": 4482, "Ø¯Ø¯ÙĨØ§": 4646, "ĠÙħÙħØ§": 459, "ĠØ£Ø±Ø¨": 1616, "ĠÙĤØ±Ø¨Ø§ÙĨØ§": 9831, "ĠÙĤØ¶": 4038, "ĠØ§ÙĦÙĨØ®ÙĦØ©": 9992, "ĠØ§ÙĦÙĨØ°Ø±": 5025, "ĠÙĪØ£ÙħØ±": 1872, "ĠØ¹Ø¸ÙĬÙħ": 826, "Ø¬ÙĬÙĨØ§": 2198, "ØŃØªÙħ": 5733, "ØµØŃØ§Ø¨": 5804, "Ø£ÙĬÙħØ§ÙĨÙĩÙħ": 7423, "ĠØ³Ø¨ÙĤÙĥÙħ": 9796, "ĠÙĪÙģ": 1549, "ĠÙĪØ§Øº": 6491, "ĠÙģÙĦÙĬØ¹ÙħÙĦ": 8883, "ÙģØ³ÙĥÙħ": 2356, "ĠÙĬÙĤÙĬÙħÙĪÙĨ": 4689, "ĠÙģØªÙĪÙĦÙī": 5053, "ÙĦÙĪÙĩØ§": 5560, "ĠÙĪØ¶Ø¹": 4615, "Ø¹Ø¸Ø©": 5640, "ĠØªÙĨØ¨Øª": 6352, "ĠÙĥÙĬÙģ": 702, "ĠØ£Ø°Ùī": 3379, "ĠÙħØŃÙĬØ·": 3390, "ĠÙĪØ§ØµØ·": 4455, "ĠÙĪÙĬÙĤØ¯Ø±": 2713, "ĠØºØ·Ø§Ø¡": 8043, "ĠØ¢ØªØ§ÙĨÙĬ": 9961, "ØªØ®Ø°ÙĨ": 9385, "ĠÙħÙĨØ¶ÙĪØ¯": 7433, "Ø¤ÙħÙĨÙĨ": 4933, "ĠÙĪÙħÙĨÙĩØ§": 2723, "ØªÙĬÙĥÙħ": 3643, "ĠÙħØºØ±": 3456, "ĠØªØ±Ø§Ø¶": 5023, "ĠÙĪØ£ÙĪÙĦØ§": 3175, "ĠØ±Ø£ÙĬØª": 3781, "ĠØ·Ø±ÙĬ": 6205, "ĠØ§ÙĦØ¹ÙĨÙĥØ¨ÙĪØª": 10274, "ĠØªØŃÙĥÙħ": 3690, "ĠÙĪØ£Ø¬ÙĦ": 4838, "Ø¸Ø±ÙĨÙĬ": 6379, "ÙĤØ¨ÙĦ": 2651, "Ø·ÙĨØ§": 3567, "ĠÙĥÙĨØª": 784, "ÙĦÙĪÙĨØ§": 4917, "ĠÙĬØ³ØªØ·ÙĬØ¹": 8454, "ĠØŃØ³Ø±Ø§Øª": 9965, "ĠÙĤØ±ÙĬÙĨ": 4761, "Ø«Ùħ": 943, "Ø¨Ø§Ø±Ø§": 3281, "ĠØ´ÙĬØ·Ø§ÙĨ": 4971, "ÙĬØ§Ùħ": 1029, "ĠØ¨Ø´Ø±Ùĥ": 5717, "ĠÙĪÙĦØ¨Ø¦Ø³": 4886, "ĠØ§ÙĦÙĪÙĦÙĬ": 9242, "ĠØ¢ÙĪÙī": 7710, "ĠÙĥØ§ÙĨØªØ§": 5972, "ĠÙħÙĨØ§Ø²ÙĦ": 10215, "ÙĥÙĬÙĩÙħ": 3437, "ĠØ£ÙħØ±ÙĨØ§": 1828, "ĠØµÙĬØ¯": 7985, "Ø®Ø±Ø¬ÙĬÙĨ": 8370, "ĠØ£Ø¬Ø±ÙĩÙħ": 2253, "ĠÙĪØ·Ø¹Ø§Ùħ": 6652, "ĠÙĬØ³Ø¨ØŃ": 2062, "Ø£Ùĥ": 2192, "ĠØ³ÙħÙĬ": 2898, "ĠØ§ÙĦØ¸ÙĨ": 2557, "ĠÙħÙģØ§Øª": 6909, "ĠØ¹ÙĦÙī": 145, "ĠØ¨ÙħØ¨Ø¹ÙĪØ«ÙĬÙĨ": 10310, "ĠØ£Ø±ÙĬØ¯": 3010, "ĠØ§ÙĦÙħÙĨ": 950, "ÙĦÙĪØ§": 217, "ĠÙģØ¯": 2301, "Ø§ÙģÙĦ": 2746, "ĠÙĬØ³ÙĬØ±Ø§": 3293, "ĠÙĪÙĬØ¹ÙĤÙĪØ¨": 2421, "ĠØ¨Ø±ÙĪØŃ": 5225, "ĠØ±Ø¨ÙĩÙħØ§": 5869, "ĠØ³ÙĦÙħ": 5853, "ĠØ§ÙĦÙĦØ¹ÙĨØ©": 7040, "ĠÙĥØ°Ø¨ØªÙħ": 8539, "ĠÙĪØ«ÙĦØ§Ø«": 9740, "ĠØ¨Ø§ÙĤÙĬØ©": 10064, "Ø¦ÙĥÙħ": 3171, "ĠÙĥÙĦØ§": 956, "ĠØ£ÙħØ±": 507, "ĠØ§ÙĦÙĤØ¯": 2221, "ØºØ±ÙĤÙĨØ§": 3031, "Ø®Ø§ÙĨ": 7548, "ĠÙĦÙĦÙĨØ¨ÙĬ": 8147, "ÙĬØª": 452, "ĠØ±Ø¬ÙĦÙĬÙĨ": 4332, "ĠØ§ÙĦÙħØ§ÙĥØ±ÙĬÙĨ": 9919, "ĠÙĪØ£Ø¹": 4835, "ĠÙĦØªØ¤ÙħÙĨÙĪØ§": 6346, "ĠØ§ÙĦÙħØ¬Ø§ÙĩØ¯ÙĬÙĨ": 6929, "ĠØ¨Ø³ØŃØ±": 3797, "ĠÙĪØ«Ø¨Øª": 7160, "ĠÙħØ¤ÙħÙĨØ§Øª": 5633, "ĠÙĦÙĩØ°Ø§": 8048, "ĠØ§Ø¨ÙĨ": 1100, "ĠÙĪÙĤÙĪØ¯ÙĩØ§": 10106, "ĠØ§Ø³Ø¬Ø¯ÙĪØ§": 3829, "ĠØ¹Ø³": 5745, "ĠÙĬÙĦØŃ": 3978, "ĠØ§ÙĦÙĦØ§Ø¦ÙĬ": 9442, "Ø´Ø§ÙĩØ§": 4790, "ĠÙĬØ¹ÙĤØ¨": 8381, "Ø©": 90, "ØŃÙĥÙĪÙĨ": 4005, "ĠÙĬÙĨØ²": 4207, "ĠÙĥØ£ÙĨÙĩ": 4439, "ĠÙĪÙĦÙĤØ¯": 410, "ĠÙĬÙĨÙģÙĤ": 4209, "Ø¨": 59, "ĠØ¨ØµØ§ØŃ": 9133, "ØµØ§Ùĥ": 5805, "ĠØ®ÙģØª": 3588, "ĠÙĤØ§ØµØ±Ø§Øª": 6958, "ĠØ¹Ø§Ø¨Ø¯": 9563, "ĠØ¨Ø²ÙĬÙĨ": 7372, "ØµØ¯": 556, "ĠÙĦØ¨Ø¹Ø¶": 2646, "ĠÙģØ£Ùħ": 4926, "ĠÙģÙĨÙģØ®ÙĨØ§": 10314, "ĠØ¯ÙĪÙĨÙĩÙħ": 5079, "Ø¨ÙĦÙĪÙĩÙħ": 8056, "ÙĪÙĦÙĪØ§": 837, "Ø£ÙĨ": 753, "ĠØ§ÙĦÙħÙĨØ§": 2697, "ÙģÙĥØ§": 7400, "ĠÙĪØ£ÙĩÙĦÙĥ": 4839, "Ø±": 54, "Ø¨ÙĤÙĪØ§": 5622, "ÙģÙĪØ§": 939, "ĠØ¯Ø®ÙĦØªÙħ": 6837, "ÙģØªÙĪÙĨÙĥ": 8404, "ĠØ³ÙĦØ§Ùħ": 1571, "ĠØ§ÙĦØºØ§ÙĪÙĬÙĨ": 8526, "ĠÙĬÙĩØª": 3981, "Ø§ØŃØ±": 2614, "ĠØ§ÙħØ±Ø£ØªÙĬ": 9272, "ĠÙĪÙĦÙĦÙĥØ§ÙģØ±ÙĬÙĨ": 4126, "ĠÙĨØµØ±Ùģ": 5316, "ØŃØ¨": 7404, "ĠØ§ÙĦØŃÙĦÙħ": 7931, "ĠØ¹Ø§ÙĤ": 1069, "Ø¨Ø´Ø±": 3446, "Ø§Ø¨ÙĩÙħ": 4811, "ĠØ§ÙĨÙģ": 8825, "ÙħÙĩÙĦ": 5415, "ĠØ§ÙĨÙĤÙĦØ¨ÙĪØ§": 6478, "ĠÙĬØ¯Ùĥ": 4285, "ĠØºÙĦÙģ": 8039, "ĠÙĦØ¯ÙĨÙĥ": 3359, "ĠØ¯Ø§ÙĨÙĬØ©": 7939, "ĠØŃØ³Ø§Ø¨Ø§": 5201, "Ø§ÙĤ": 439, "ĠØªØ´Ø§Ø¡": 2402, "ĠÙĬØ¹Ø¯": 1942, "ĠØŃØ³Ø±Ø©": 5907, "ÙĪØ³Ùģ": 3910, "ĠÙĨØ¹ÙĬÙħ": 4065, "ĠØ§ÙĦØ°Ø¦Ø¨": 7049, "ĠØ³Ø£ÙĨ": 7671, "ĠÙĪØ£Ø·ÙĬØ¹ÙĪÙĨ": 2338, "ÙĥØ§Øª": 7171, "ĠÙĦØªÙģØª": 8568, "ĠÙĨØ¹ÙĦÙħ": 3157, "ĠÙĦÙĬØ®Ø±Ø¬ÙĨ": 9783, "ĠÙĪÙĨØµØŃØª": 9993, "ĠØªØ±": 318, "ĠØ§ÙĦØ£ÙĨ": 589, "ĠØ¹ÙģØ§": 3517, "Ø±Øª": 7120, "ĠØ§ÙĦÙħØ¶Ø§Ø¬Ø¹": 7751, "ĠÙĪØ¨Ø«": 6297, "ĠØ§ÙĦØµ": 251, "ĠÙģÙĦÙĥ": 5662, "Ø±Ø©": 1024, "ĠØ³Ø§Ø¡": 2205, "ĠÙħØŃØ±": 3453, "ĠØ³Ø¹Ø©": 7666, "ĠØ§ÙħØ±Ø¦": 4558, "ĠØ§ÙĦÙĤØ±ÙĬØ©": 2523, "ĠØ§ÙĦØ¥": 515, "Ø·ÙĬÙĨ": 7685, "Ø¨ÙĦÙĪÙĨÙĥÙħ": 5626, "ĠÙĦÙĨÙģØªÙĨÙĩÙħ": 10299, "ÙĦÙĩ": 79, "ØªÙħÙĦØª": 7767, "ĠÙĤØ¯ÙħØª": 1816, "ĠØ§ÙĦÙħØ¤ÙħÙĨÙĪÙĨ": 1401, "ĠÙĪÙĦØªØ¨ÙĦØºÙĪØ§": 9066, "ĠØ¨ÙĤØ·Ø¹": 9119, "ĠÙħØ¹Ø±ÙĪØ´": 8106, "ĠÙĩØ¨Ø§Ø¡": 7651, "ĠØ£ÙħÙħØ§": 7926, "Ø¨Ø¯ÙĦ": 2367, "ĠÙģØ§Ø³ÙĤÙĬÙĨ": 3792, "Ø¬Ø§Ø¬Ø©": 10224, "Ø¡Ø§": 5956, "ĠØ¨Ø¥Ø°ÙĨ": 1101, "ĠÙĬÙĪÙģ": 2860, "ÙĬÙĦØ©": 3659, "ÙĦÙĤÙĬÙĨ": 7971, "ĠÙĦØ£ÙĨØ²ÙĦ": 9437, "Ø§Ø¦ÙĩÙħ": 1587, "ĠØ¥ÙĨÙħØ§": 454, "ĠØ³ÙģØ±": 3163, "ĠÙģØ£ØŃÙĬØ§": 4160, "ĠÙĪØ§ØŃØ¯": 1668, "ĠÙĦØ¨Ø«Øª": 5394, "ĠØ°ÙĥØ±ÙĨØ§": 8750, "ĠÙĪØ¹Ø´ÙĬØ§": 5068, "ĠÙĦØ§ÙħØ³": 7768, "ĠØ´ÙĩÙĪØ©": 9969, "ĠÙĬÙĨØ²ÙĦ": 1724, "Ø¹Ùģ": 751, "ĠØ§ÙĦÙĨØ®ÙĦ": 5026, "ĠØªÙĨØ²ÙĬÙĦ": 2562, "ĠÙĪØ£Ø¹Ø¯": 3174, "ĠØ§ÙĦØ£Ø¹Ø±Ø¬": 9426, "ĠØ¨Ø£Ø³ÙħØ§Ø¦": 9176, "ĠØ´ÙĬØ¦Ø§": 590, "ĠÙĨÙĥÙĨ": 4804, "ĠÙĩØ§Ùĩ": 4816, "ĠØ£Ø±ÙĪÙĨÙĬ": 5648, "ĠØ¸ÙĦÙħÙĩÙħ": 6445, "ĠÙĦØ£ÙħÙĦ": 5113, "ĠÙĥØ±ÙĩÙĪØ§": 8904, "ĠØ´ÙĥÙĪØ±": 3037, "ĠØ§ÙĦØ±Ø¬Ø¹": 7911, "ĠØµØ±ØŃØ§": 8869, "ÙĪÙĦÙĪÙĨ": 4075, "Ø«": 122, "ĠÙħÙĪ": 287, "ĠØ£Ø±Ø°ÙĦ": 8777, "ĠØºÙĨÙĬ": 3228, "ĠØ§ÙĦØ¬ØŃÙĬÙħ": 1373, "ĠÙĪØ±Ø³ÙĦÙĩ": 2241, "Ø¯ØªÙħ": 4644, "ĠÙģØ£ÙĨØ²ÙĦ": 6527, "ĠØ±Ùĩ": 4050, "ĠØ´ÙģØ§": 4874, "ĠÙĪØ§ÙĦØ·": 2204, "Ø¹ÙĪØ¯": 4633, "ĠØ¨Ø£ÙĬØ¯ÙĬÙĩÙħ": 6875, "ĠØ§ÙĦØ®Ø±": 3917, "ĠÙĥÙĨØ²": 4473, "ĠØ¨Ø±Ø³ÙĦ": 5719, "ĠÙĦØ¹Ø¨Ø§Ø¯Ùĩ": 6904, "ĠØªÙĪØ¬": 7480, "ĠÙĬØ±ÙĬØ¯ÙĪØ§": 8838, "ĠÙĪÙĥÙĬÙĦØ§": 2094, "ĠÙĦÙĬÙĤÙĪÙĦ": 1807, "ĠØ§ÙĦØ£ÙħÙĬ": 4877, "ĠÙħÙĪÙĤÙĨÙĬÙĨ": 9880, "ĠÙĪØ£ÙħØ·Ø±ÙĨØ§": 4443, "Ø³Ø¨": 297, "ÙĤÙĬÙħÙĪØ§": 1486, "ĠÙĤØªÙĦÙĩÙħ": 9262, "ĠØ¨Ø£ÙĬ": 6215, "ØªÙĥ": 839, "ĠÙĨÙĥØ±": 7614, "ĠØ§ÙĦØ¶ÙĦØ§ÙĦ": 6842, "ĠØ¹Ùħ": 629, "ĠÙħÙĤØ±": 4625, "Ø§ÙĨÙĪØ§": 5823, "ĠØ¹Ø°Ø§Ø¨Ùĩ": 6165, "ĠØ¨ØªØ§Ø¨": 7359, "ĠØ§ÙĦØ£Ø¬Ø¯": 5939, "ĠØ£ØªØ±Ø§Ø¨Ø§": 9792, "ĠÙģØ§Ø¹ÙĦ": 3254, "ĠØ§ÙĦØ³ÙĦÙħ": 3606, "ĠØŃØ³Ø¨ÙĬ": 8819, "Ø³ÙģÙĨØ§": 8939, "ĠØ£Ø¹Ø±Ø¶": 2774, "ĠÙĪØ§ÙĦØŃ": 2478, "Ø£ÙĦÙĪÙĨÙĥ": 1919, "ØŃÙģ": 3125, "Ø³Ø¨Ø§Ø·": 4230, "ĠÙģØ£ÙĨ": 871, "ĠØ§ÙĦØ£ÙħÙĬÙĨ": 5938, "ĠÙĪØ§Ø¬ØªÙĨØ¨ÙĪØ§": 9724, "ĠØ¬Ø§Ø¡Ùĥ": 2376, "ØªÙĩÙĨ": 2444, "ĠÙģÙĥÙĦÙĪØ§": 3313, "ĠØ¨Ø°ÙĨÙĪØ¨": 5399, "ĠØŃØ·Ø§ÙħØ§": 7055, "ĠÙĪÙĬÙĩØ¯ÙĬÙĩÙħ": 9399, "ĠØ§ÙĦØ¨ÙĦØ§": 1825, "ĠØªÙĦØ¨Ø³ÙĪÙĨÙĩØ§": 10172, "ĠØªÙħÙĨÙī": 6867, "ĠÙģØ´Ø§Ø±Ø¨ÙĪÙĨ": 10196, "ĠÙĪÙĬØ²": 3609, "ĠÙģØ¨": 635, "ĠØªÙĦÙĥ": 1154, "ĠÙħØ¯Ø§": 7204, "ĠÙģØ£Ø¬Ø±Ùĩ": 7956, "ØŃÙĬÙĪÙĨ": 6441, "ĠØ¨Ø¹": 265, "ĠÙĬÙĨØµØ±": 2369, "ĠØŃØ°Ø±ÙĥÙħ": 7762, "ĠÙģØ§ÙĨØªØ´Ø±ÙĪØ§": 9794, "ĠÙĪØªØ®": 4215, "ĠÙĬØŃÙĥÙħÙĪÙĨ": 5312, "ĠÙħØ³Ø±Ùģ": 9743, "ĠØ¬ÙĩØ²": 7775, "ĠØ£Ø¦ÙħØ©": 4533, "ÙĪÙħÙĪÙĨ": 3173, "ĠØ§Ø³ØªØ£Ø°ÙĨ": 6339, "ÙĦØ§Ø³ÙĦ": 7466, "Ø¬Ø§Ø©": 9458, "ĠØ£ÙģØ¨Ø¹Ø°Ø§Ø¨ÙĨØ§": 8313, "ĠÙĪØ£Ø¹ÙĨØ§Ø¨": 5885, "ĠÙĪØ¹Ø²Ø±": 8367, "ĠÙĬØ¯ÙĬÙĩ": 1730, "ĠÙĪØªÙĪÙģ": 4995, "ĠØ§ÙĦØºÙĬ": 2559, "ÙĪÙĦØ§": 360, "Ø¨ÙĤ": 5620, "ĠÙĪØ¥Ø«ÙħØ§": 5947, "ĠÙĬØ®Ø±Ø¬": 970, "ÙĪØ±Ø§Ø©": 1659, "ĠÙĪÙħÙĤØ§Ùħ": 8434, "ĠÙħØ´Ø±ÙĥÙĪÙĨ": 7208, "ĠÙĪØ±Ø²ÙĤÙĨØ§ÙĩÙħ": 6787, "ĠØªØ´Ø¹Ø±ÙĪÙĨ": 5209, "ĠØ®Ø³Ø±": 3586, "ĠØ±ØŃ": 529, "ĠØ§ÙĦØ¬ÙĨØ©": 761, "ĠØ§ÙĨØµØ±ÙĨÙĬ": 7029, "Ø·": 118, "ĠØ±Ø¡ÙĪØ³": 2607, "ĠØ·ÙĬØ¨Ø§Øª": 2962, "ĠØ¸ÙĦÙħÙĪØ§": 914, "ĠØ§ÙĦØ£ÙĬÙħÙĨ": 5942, "ĠÙĬØ¤ÙģÙĥ": 8726, "ĠØªØ®Ø§Ø·Ø¨ÙĨÙĬ": 8732, "ĠØ±Ø³ÙĪÙĦÙĩ": 1896, "ĠÙħØ¹Ø§Ø°": 9870, "ĠÙħØ£": 7196, "ĠØ£ÙĨØ§": 607, "ĠÙĦ": 66, "ÙĦØ§ÙĦØ©": 6429, "ÙĥØ±ÙĪØ§": 1982, "ĠØ±ÙģØ¹": 4051, "ĠÙĪÙĥÙĨØª": 4952, "ĠÙģÙĤØ¹ÙĪØ§": 8620, "ĠØ¨ÙĨÙĬÙĨØ§ÙĩØ§": 9179, "ĠÙĪØ§ÙĦÙģÙĦÙĥ": 9648, "ĠØ³ÙĥØ§Ø±Ùī": 9774, "ĠØ¶Ø±Ø§Ø¡": 6856, "Ø¹ÙĦÙĪØ§": 1580, "ĠØ¥ÙħÙĦØ§ÙĤ": 7387, "¶": 24, "Ø¨ÙĪØª": 5623, "ØªÙĩØ§": 619, "ĠØ£Ø¹Ø¯Ø§Ø¡": 4478, "ĠØ§Ø³ØªØ·Ø§Ø¹ÙĪØ§": 5128, "ĠÙĬØ¨ØµØ±ÙĪÙĨ": 2254, "ĠØ¨ØŃØ¨ÙĦ": 9525, "ĠØªÙģØ¹ÙĦÙĪØ§": 2791, "Ø§Ø±Ùī": 4912, "ĠØ§ÙĦÙĥØ°Ø¨": 1985, "ÙĦÙĬÙĩØ§": 2674, "ĠÙģØ§ÙĨØ·ÙĦÙĤØ§": 7030, "ĠÙĦÙĪÙĦÙĪØ§": 7310, "ĠØ¨Ø°ÙĨ": 1943, "ĠØ¢ÙĨØ§Ø¡": 5872, "ĠÙģØ§Ø³ÙĤÙĪÙĨ": 3352, "Ø²Ø±": 3546, "Ø£ÙĨØ³": 7420, "ĠØ°Ùĩ": 7858, "ĠØªØ£Ø®Ø±": 8592, "Ø¹ÙĬÙĨ": 1062, "ĠÙģØ³ÙĬÙĨ": 8666, "ÙĦØ·Ø§ÙĨ": 2282, "ĠÙģÙĦÙĬÙħ": 5671, "ĠØ§ÙĦØ±ØŃÙĬÙħ": 375, "ĠØ°Ø§": 1462, "ĠØ¨Ø§Ø·": 5713, "ĠØŃØ·Ø§": 5905, "ĠØ¶Ø¹ÙģÙĬÙĨ": 6839, "ĠÙĥØ¯Ø£Ø¨": 7003, "ĠØ¹Ø§Ø¯": 1441, "ĠÙĪÙĨØ¹ÙĦÙħ": 8245, "ĠÙģØªÙĦÙĥ": 8316, "ĠÙĪØ£ÙĪØ±Ø«ÙĨØ§": 6928, "ĠØ²ÙĪØ¬ÙĬÙĨ": 5339, "Ø¨ÙĬÙĨØ©": 4977, "ÙĪØ±": 209, "ĠÙģØ§Ø³ØªØºÙģØ±": 6538, "ĠØ¹Ø§Ø¦": 7437, "ĠÙĪØ§ÙĦØ£ÙĤØ±Ø¨ÙĪÙĨ": 6935, "ÙĪØ¯ÙĪØ§": 3267, "Ø·ÙĦÙĤ": 2206, "ĠÙĪÙĪÙĩ": 2844, "ÙĦÙĤÙĩ": 7969, "ĠØŃØ§Ø´": 4092, "ĠØ¨Ø§ÙĦÙĦØºÙĪ": 5964, "Ø§ÙĥÙħ": 1547, "ĠÙĪØ²ÙĦ": 5601, "ĠØ£Ø±Ùī": 3951, "ĠÙĪØ§ÙĦØŃÙħØ¯": 7601, "Ø§Ø¦ÙĨÙĬÙĨ": 6090, "ĠØªØ±ÙħÙĬ": 8225, "ĠÙĬÙģØ¹ÙĦ": 1099, "ÙĤØ¨Ø©": 3986, "Ø¨Ø·": 1039, "ĠÙģÙĦÙĩÙħ": 3669, "ØªÙĬØªÙħ": 8062, "ĠØ£Ø²ÙĪØ§Ø¬Ùĩ": 8960, "ĠÙĪØ£ÙĤ": 1456, "ĠØ§ÙĦÙħÙĤØ±Ø¨": 2908, "ĠØªØ´Ø±ÙĥÙĪÙĨ": 3137, "ĠÙĪØ²ÙĪØ¬": 4372, "ĠÙĪÙĦÙĬØª": 8547, "ĠØ§ÙĦÙģÙĦÙĥ": 1484, "Ø§ØªÙĦÙĪÙĥÙħ": 3055, "ØŃØ¯Ø©": 7408, "ĠØ£Ø¨ÙĨØ§Ø¡ÙĩÙħ": 4494, "ĠÙģØ£ÙħØ§": 1368, "ÙĪÙĪØ¯": 7110, "ÙĥÙĩ": 1931, "ĠÙĬÙĥØ°Ø¨ÙĪÙĨ": 3276, "ĠØªØ±ÙĩÙĤ": 8229, "ĠØ£ØŃÙĬØ§": 4237, "ĠØªØªÙĤÙĪÙĨ": 1595, "ĠØ¸ÙĦÙħØ§Øª": 2957, "Ø£ÙĦÙĩÙħ": 4010, "Ø«Ø§Ø¡": 7695, "ÙģØµ": 3504, "ĠÙĪØ²ÙĬÙĨ": 2578, "ĠØ±Ø§Ø¨": 4777, "ĠÙĤØ±Ø¯Ø©": 9224, "ĠØ¯Ø¹Ø§": 2721, "ĠØŃÙħÙĦ": 3015, "ĠÙĪÙĨÙĥÙĪÙĨ": 6197, "ĠØ®ÙĦÙĤÙĩÙĨ": 8280, "Ø§ÙĦØŃÙĤ": 8379, "ĠÙĨØ³ÙĬØª": 6453, "ĠÙģØ£ÙĪØŃÙĬÙĨØ§": 9866, "ĠØ§ØªØ¨Ø¹ÙĪÙĩ": 6552, "Ø´Ø²ÙĪØ§": 7581, "Ń": 43, "ħ": 37, "ĠØ¹ÙĨØ¯": 312, "ĠØ§ÙĦØ¹Ø°Ø§Ø¨": 558, "Ø¹ÙĬÙĦ": 2184, "ĠÙħØ«ÙĤØ§ÙĦ": 2974, "ØªÙħÙĪÙĨ": 1576, "ĠØ§Ø¹ÙħÙĦÙĪØ§": 3221, "ĠØ¥ÙĬÙħØ§ÙĨØ§": 3368, "ĠÙģØ§ÙĨÙģ": 6510, "ĠÙĤØ¯Ø±ÙĨØ§": 9499, "ĠØ§Ø³ØªØ¶Ø¹Ùģ": 3718, "ÙĪØª": 408, "ĠØ§ÙĦØ³Ø¬ÙĪØ¯": 3608, "ĠØ´Ø±Ø§": 7801, "ĠØ£Ø¹ÙĬÙĨ": 1901, "Ø§Ø±ÙĩÙħ": 1977, "ĠÙĩÙĦÙĥ": 4814, "ĠÙĤØ¨ÙĦ": 302, "ĠØºØ¶Ø¨": 2528, "Ø®Ø·": 5797, "ĠØ³ÙĨØ¨ÙĦØ§Øª": 10159, "ĠØ§ÙĦØ£Ø¹Ø±": 2501, "ĠØ¬Ø¹ÙĦÙĩ": 4101, "ĠÙĦÙĦÙħØ´Ø±ÙĥÙĬÙĨ": 5171, "ÙĬØ§Ø±": 1643, "ĠØ§ÙĦØºØ±": 2766, "ĠÙģØ§ØŃØ´Ø©": 5017, "ĠØ§ØªØ®Ø°Øª": 6609, "ĠØ³Ø¨Ø¹Ø©": 6671, "Ø®ÙĦØ§": 3147, "ĠØªØµÙĬØ¨": 3784, "ĠØ®ÙĪØ§Ø±": 7792, "ĠØ£Ø´ÙĩØ±": 4351, "ĠØ¯ÙħØ§": 7935, "ĠÙĬÙħØ³ÙĨØ§": 9248, "ÙħØ£": 7091, "ÙĤØª": 420, "ĠØ¨Ø§ÙĦÙĤ": 1460, "ĠØ§ÙĦØµÙħ": 3235, "ĠØªÙĪÙĦÙī": 2667, "ĠÙĪØ±ÙĩØ¨": 8473, "ĠÙĪØ§ÙĦÙħØ´Ø±ÙĥÙĬÙĨ": 5153, "ĠØ£Ø¹ÙĨØ§ÙĤÙĩÙħ": 5476, "Ø¬ÙĪÙĨ": 1782, "ĠÙĦÙĪÙĨÙĩØ§": 7317, "ĠØ§ÙĦÙĦÙĩÙħ": 3919, "ĠÙĬØ¹Ø¯ÙĥÙħ": 4499, "ĠØ£Ø¯Ø±ÙĬ": 5214, "ĠÙĬØ´Ø±ÙĥÙĪÙĨ": 1558, "ĠÙĬØ¯Ùĩ": 6279, "ĠØ¨Ø¹Ø¶Ø§": 2757, "ĠÙģØªØ«ÙĬØ±": 8325, "ÙĦÙĪ": 1422, "ĠÙĦØªØ¬Ø±ÙĬ": 8574, "ĠØ¨Ø§ÙĦÙĥ": 3201, "ĠÙĨØ¨Ø§Øª": 3780, "ÙĩØ§ÙĩÙħ": 7568, "ÙĪÙģ": 295, "ØŃÙģØ§": 5735, "ĠØ¥ÙĨÙĩ": 373, "ĠÙģØªÙĨØ©": 1412, "ĠØ¨ÙĪÙĥÙĬÙĦ": 3996, "ĠØºÙĦÙĬØ¸Ø§": 6874, "Ø·ÙĬØ¹ÙĪÙĨ": 1212, "ĠØ§ÙĦØ®ÙĪÙģ": 5091, "ĠØ¹Ø§Ùħ": 2069, "ĠÙĪØ§ÙĦØ²ÙĬØªÙĪÙĨ": 4796, "ĠØ§ÙĦØ°ÙĨÙĪØ¨": 10077, "ĠØ§Ø³ØªØŃØ¨ÙĪØ§": 9891, "ÙĥÙħ": 89, "ĠØ¥ÙĦÙĬÙĩÙĨ": 8092, "ĠØ¹": 81, "ĠÙĪØ§ÙĦÙģÙĪØ§": 7599, "ĠÙĦÙĨØ¨ÙĪØ¦ÙĨÙĩÙħ": 10300, "ĠÙĪÙģØ¶": 6691, "ÙĪÙĪØ§": 4589, "ÙģØ±": 138, "Ø°ÙĬÙĨ": 237, "ĠØ·Ø§Ø¹Ø©": 6209, "ĠÙĪØ²ÙĥØ±ÙĬØ§": 8875, "ĠÙĦÙĬØ²Ø¯Ø§Ø¯ÙĪØ§": 10110, "ĠØŃØ±ÙħØª": 6514, "ĠÙĪØ°": 2050, "ĠØªØ®ØªÙĦÙģÙĪÙĨ": 3745, "ÙĬØ´": 4583, "ĠØ§ÙĦØµØ§Øº": 8088, "ÙĨØ§Øª": 427, "ĠÙĦÙĨØ§": 557, "ĠÙĪØ¢ØªÙĬÙĨØ§ÙĩÙħ": 5330, "ĠÙĪØ¶Ø¹ØªÙĩØ§": 9920, "ĠØªØ«": 5753, "ĠØªØ¨Ø¹": 2318, "ĠØ§ÙħØ±Ø£Øª": 3830, "Ø§ÙĦØ¨": 4593, "ÙĤØ§ÙĦ": 1855, "ĠØ³ÙħØ¹Ø§": 7678, "ĠÙģÙĦÙĬØµ": 8882, "Ø¨ÙĥØ§Ø±": 9101, "ĠÙħØ§Øª": 7197, "ĠØ¹Ø¨Ø§Ø¯Ø§": 8686, "®": 16, "ĠÙĬØ³ÙĬØ±ÙĪØ§": 3294, "ĠÙĦÙĦØ¥ÙĨØ³Ø§ÙĨ": 3872, "ĠÙģØ§Ø²": 7286, "ĠÙĦØ£": 445, "ĠØ£ÙĦÙģ": 1937, "ĠØ¶ÙĦÙĪØ§": 2749, "ĠØ¹ÙĨ": 158, "ĠØ³ÙĤØ±": 4819, "ĠÙĨØ³ÙħØ¹": 7629, "ĠÙħØ§": 116, "ÙĪØ³Ùī": 3076, "ĠÙģÙĦÙĩ": 2449, "ØªÙģÙĥ": 5618, "ĠØ§ÙĦØ£ÙĦÙĬÙħ": 3595, "ĠÙĪØºØ¶Ø¨": 5463, "ĠØ¶Ø§ÙĦÙĬÙĨ": 8338, "ĠÙĬØ¹Ø¸ÙĥÙħ": 5077, "ĠØ³ÙĪØ¢ØªÙĩÙħØ§": 5534, "Ø¨ÙĦÙĪÙĥÙħ": 3641, "ĠØ§ÙĦÙħ": 129, "ĠØ£ÙĨÙģØ³ÙĩÙĨ": 8511, "ĠØ¢ÙĦÙĩØªÙĩÙħ": 9081, "ĠØ¹ÙħÙĦÙĩÙħ": 8708, "ĠÙĬØ¹ÙĦÙĨÙĪÙĨ": 3485, "ĠØ§ÙĦØ¬ÙĪØ§Ø±": 6211, "ĠÙģÙĪØ¬Ø¯Ø§": 9931, "ĠØŃØ¬Ø©": 6658, "ĠÙĥØ§Ùģ": 3535, "ĠØ¨Ø°ÙĨÙĪØ¨ÙĩÙħ": 3392, "Ø¹ÙĨØ§": 1307, "ĠØ§ÙĦÙĤØµØ§Øµ": 9720, "ĠØ£ÙħØ§": 1760, "ĠÙħÙĩØ¯Ø§": 10190, "ĠØ±ØµØ¯Ø§": 7566, "ØµØ±Ùĥ": 8405, "ĠØ§ÙĦØ±Ø²ÙĤ": 2088, "ĠÙħØ¹Ø¯": 3090, "ÙĪØ¯ÙĬ": 4244, "ÙĨØ¹": 3908, "Ø¹ÙħÙĩÙħ": 5994, "ĠÙĬØ¯Ø§Ùĩ": 6918, "ĠÙĬØŃØ¯Ø«": 8174, "Ø¬Ø²ÙĬÙĩÙħ": 6697, "ĠÙĤÙĪÙĦÙĩÙħ": 3045, "ĠØ§ÙĦØŃ": 179, "ĠØ¨Ø±ÙĩØ§ÙĨÙĥÙħ": 5480, "ĠÙĥØ¨ÙĬØ±Ø©": 9421, "ĠØ¨ÙĨØ¹ÙħØ©": 5309, "ĠÙĥÙĦÙħØª": 4416, "ĠÙĪØ±Ø²ÙĤÙĥÙħ": 6786, "ĠÙĪØªÙĦÙĥ": 2372, "ĠÙĬØ®ÙĪ": 4293, "ĠØªØŃÙĥÙħÙĪÙĨ": 5512, "ĠÙĨØ®ÙĦ": 7622, "ØªÙĬØ§ÙĨ": 8061, "ĠÙĪØ§ÙĤØªØ±Ø¨": 10285, "ÙģØ¹": 575, "ØªÙĨØ§": 646, "ĠÙħØ§ÙĦ": 1552, "Ø§ÙĩØ¯": 723, "ĠØ±Ø²": 1785, "ĠØ§Ø¹Øª": 2358, "ĠØ²Ø¹Ùħ": 2973, "ĠØ®ÙĦÙĤÙĨØ§ÙĥÙħ": 3035, "ĠØ¹Ø±Ø¨ÙĬØ§": 3066, "ĠØ§Ø³ØªØ·Ø¹ØªÙħ": 4539, "ĠØ·Ø±": 5036, "ĠØ£ÙħÙĪØ§ÙĦ": 945, "ĠØ£Ø°ÙĨ": 2448, "ĠÙģØ°ÙĪÙĤÙĪØ§": 2304, "ĠØ§Ø«ÙĨØªÙĬÙĨ": 5329, "ĠÙĬØªÙĨØ§": 6117, "ĠØªØ¨Ø¹Ùĥ": 6811, "ĠÙĥÙĦÙĩØ§": 4033, "Ø¹ÙĦÙħÙĪØ§": 1052, "ĠÙĪÙĬØ³ØªØ¹Ø¬ÙĦÙĪÙĨÙĥ": 7071, "ĠÙĨØ¹Ø¬": 4063, "ĠØ´ÙĬ": 227, "ĠÙĦÙĦÙĨØ§Ø³": 808, "ĠÙĪØ¨ÙĬÙĨÙĩÙħ": 3791, "ĠÙĥÙĦÙĩ": 3143, "ĠÙĬØ£ÙħØ±": 2379, "ĠØ£Ø±Ø³ÙĦØªÙħ": 5157, "ØŃØ§": 1277, "ĠÙĬÙģÙĤÙĩÙĪÙĨ": 2164, "ĠÙĬØ¤Øª": 5182, "ĠÙĦØŃÙħØ§": 5398, "ĠÙĬØ¯Ø®ÙĦÙĩ": 5405, "ĠÙħÙģØ±": 5628, "ĠØ¬Ø¹ÙĦÙĨØ§ÙĩØ§": 6526, "Ø¦ÙĩÙĨ": 7704, "ĠÙģØ£ÙĬÙĨ": 7944, "ĠØ¥ÙĦÙĩÙĬÙĨ": 8589, "ĠØ¢ØªÙĬØªÙħÙĪÙĩÙĨ": 5301, "ĠØ£Ø´ÙĬØ§Ø¡ÙĩÙħ": 7028, "Ø®ÙĦÙĩÙħ": 8585, "ĠÙģØ£ÙĨØ¸Ø±ÙĨÙĬ": 8909, "ĠØ§ÙĦØªÙĨÙĪØ±": 8913, "ĠØ§ÙĦÙĦØ·ÙĬÙģ": 10033, "ĠØ§ÙĦØ³ØŃØ±Ø©": 3060, "ØªÙħÙĪÙĨØ§": 6702, "ĠÙĪØ¯ÙĬÙĨ": 5604, "ĠØ¬ÙħØ¹": 3191, "ÙĪØ°": 2170, "Ø¬ÙĬØ¨": 1695, "ĠÙģØµÙĦÙĨØ§": 6667, "ÙģÙĩÙħ": 7388, "Ø§ÙĪÙĪÙĨ": 9085, "ÙĩÙī": 3078, "ĠØ£Ø¨ÙĦØºÙĥÙħ": 9634, "ĠØ³ÙĬØ¡": 8709, "ĠØªØ±ØªÙĬÙĦØ§": 8230, "ĠÙģÙĩÙĦ": 1383, "ĠÙħÙĪØ§Ø®Ø±": 9407, "ĠØ£Ø¹Ø¯": 1761, "Ø¹Øª": 780, "ĠØ¥Ø«ÙħØ§": 3124, "Ø¯ÙĩØ§": 5651, "ĠÙĬÙģÙĤÙĩÙĪÙĩ": 6723, "ĠØµØ§ØŃØ¨ÙĥÙħ": 9674, "ĠÙĪÙĬØ¤ÙħÙĨ": 7891, "ĠÙĦÙĬÙĨ": 2306, "ĠØ¢ÙħÙĨØª": 3226, "ĠÙĬÙĩØ¯ÙĪÙĨ": 4472, "ĠÙĬÙħØ³ÙĩÙħ": 5333, "ĠØ£Ø³ÙģØ§": 6402, "ĠÙĪØ¥ÙĬØ§": 2704, "ĠØ¥Ø®ÙĪØ§ÙĨ": 4534, "ĠÙĨØ®ÙĪØ¶": 9463, "ĠÙĤÙĪØ§": 4037, "ĠØ§ÙĦØ¯Ø§": 4602, "Ø²Ø±Ø¹": 9771, "Ø¬Ø¯": 359, "ĠÙģÙĤÙĦ": 1662, "ĠØ¯Ø§Ø®": 4157, "ÙħÙĪØ§ÙĦ": 2044, "Ø³ØªØŃÙĬÙĬ": 7885, "ĠØºØ´Ø§ÙĪØ©": 10281, "ĠÙĦØ¹ÙĦÙĥÙħ": 730, "ĠØ´Ø±Ùĥ": 1050, "ĠØŃØ³Ø¨ÙĨØ§": 6700, "ĠØ±Ø¯ÙĪØ§": 5808, "ØªÙĤÙī": 7184, "ĠÙħØµ": 1104, "ĠØ¹ØªÙĬØ§": 9764, "ÙħÙĪÙħ": 4581, "ĠÙĪØ²ÙĪØ¬ÙĨØ§ÙĩÙħ": 9898, "ÙģÙĬØ¸": 8461, "ĠÙĬØµÙĦØŃ": 6451, "Ø¬Ø±ÙĨØ§": 6153, "ĠÙĪØ£Ø¹Øª": 2696, "ĠØŃØ¨Ø·Øª": 3902, "ÙĩÙĪ": 262, "ĠÙĪÙĤÙĦØ¨Ùĩ": 6032, "ĠÙĥØ¹": 7511, "ĠØ§ÙĦÙħØ´Ø±ÙĤÙĬÙĨ": 9662, "ĠÙħØ¹Ø±Ø¶ÙĬÙĨ": 4201, "ĠÙĪØ®Ø°": 7143, "ĠÙĪØ²ÙĪØ±Ø§": 8873, "ĠÙĤØ¨ÙĦÙĨØ§": 8771, "ĠÙģØ±Ø¹ÙĪÙĨ": 662, "ĠÙĬÙĦÙĩØ«": 10200, "ĠÙĦØ°ÙĨ": 4667, "ĠÙĬØ±ÙĩÙĤ": 8187, "ĠØ§Ø¦Øª": 6744, "Ø¨ÙĬÙĨÙĪØ§": 6093, "ĠÙĪØ£ØŃØ³ÙĨ": 2904, "ĠØ§ÙĦØ´Ø§ÙĥØ±ÙĬÙĨ": 3278, "ĠØ§ÙĦØ¨": 466, "ĠØ¬Ø§Ø¡ÙĪØ§": 3662, "ĠØªØªÙĪÙĦÙĪØ§": 5120, "ĠØ£Ø·ÙĦØ¹": 9632, "ĠØµØ¨Ø±Ø§": 2934, "ĠÙĥØ£ÙĨ": 1314, "ĠÙĪÙĦÙĩÙħ": 889, "ĠÙĪØ£Ø®Ø±": 2903, "ĠØ§ÙĦØ£ÙĨØ¨Ø§Ø¡": 8688, "ĠÙħØ´ØªØ±ÙĥÙĪÙĨ": 9311, "ĠÙģ": 65, "Ø¹ÙĬÙĨÙĪØ§": 6576, "ĠØ£Ø®Ø±ÙĨØ§": 9178, "ĠØ´Ø±ÙĥØ§Ø¡ÙĥÙħ": 6573, "ĠØ±Ø§Øº": 7561, "ĠØ§ÙĦÙĥÙĩÙģ": 4956, "ĠØ§ÙĦÙħÙĬÙħÙĨ": 5898, "ØªÙĬÙĨ": 937, "ÙĪÙģØ§": 8195, "ĠØ¹Ø¬ÙĦØ§": 9287, "ÙĥØ±ÙĪÙĨ": 504, "ĠÙħØ¨ÙĦ": 5630, "ĠÙĪØ¨Ø±Ø²ÙĪØ§": 9626, "Ø°ÙĦÙĥÙħ": 7349, "ĠØ§ÙĦØ®ÙĦÙĤ": 2004, "ĠØ¹ÙĨØ¯ÙĩÙħ": 3258, "ØŃØ¯": 1561, "ĠØ¨Ø¹Ø¯Ø§": 5005, "ĠØ£ØŃØ³ÙĨÙĪØ§": 4391, "ĠÙĬØŃØ´Ø±ÙĩÙħ": 4222, "ĠÙĦØ¨Ø«ÙĪØ§": 5252, "ÙĥÙĬØ§": 7172, "ĠÙĪØ³Ø±": 4613, "ĠØµØ§ÙģØ§Øª": 7991, "ĠØªÙĨØ·ÙĤÙĪÙĨ": 8617, "Ø±ØŃ": 1084, "ĠØ£ÙĦÙĤ": 1347, "Ø¹Ùĩ": 4630, "ĠØ´Ø¯ÙĬØ¯": 854, "ÙĪÙħØ©": 4833, "ĠØ°ÙĥØ±Ø§": 2086, "Ø°ÙĬÙĤ": 5218, "ĠØ§ÙĦÙĦØºÙĪ": 7135, "ĠÙĪØ¥ÙĦÙī": 1225, "ĠÙĬÙĨØ¸Ø±ÙĪÙĨ": 1296, "ĠØµÙĬØŃØ©": 3624, "ĠÙģÙģÙĬ": 5669, "ĠÙĩÙħØ§": 7646, "ĠØ§ÙĦÙħÙĨØªÙĩÙī": 8958, "ĠÙĪØ¹ÙĦÙħØ§": 4551, "ĠØ§ÙĦØ·ÙĬØ±": 2572, "ĠÙĪØ§Ø¬Ø¹ÙĦ": 3239, "ĠØ¬Ø¹ÙĦÙĨØ§": 852, "ĠÙħØ¤ÙħÙĨØ§": 3400, "ĠÙģÙĥØ°Ø¨ÙĪÙĩÙħØ§": 9340, "ĠÙĪØ£ÙĪØªÙĬÙĨØ§": 10248, "Ø¶ÙĬÙĦØ§": 8859, "ĠØ£ÙĨØ´Ø£": 1958, "ĠÙģÙĥØ§ÙĨ": 1663, "ĠØªÙħ": 1282, "<|endoftext|>": 3, "º": 28, "ĠÙĬØ®Ø±": 3975, "ĠØµØ±": 818, "¡": 4, "ĠØµØ¯ÙĤØª": 8718, "ĠÙĬÙĪÙħÙĩÙħ": 4192, "ĠÙģÙĥØ£ÙĨÙħØ§": 7070, "Ø·ÙĬØ¹": 2568, "Ø²ÙĦØ§Ùħ": 7574, "ĠÙĪ": 56, "ĠØ¬Ø§ÙĩØ¯": 4097, "ĠÙĬØ¨": 810, "ĠÙģØ®Ø°ÙĪÙĩÙħ": 9636, "ĠØ®Ø°": 2211, "ĠÙħØ¨ÙĦØ³ÙĪÙĨ": 7041, "ĠØ§ÙĦØ·ÙĪÙģØ§ÙĨ": 8790, "ĠØ¬Ø²Ø§Ø¡": 1172, "Ø§Ø¬ÙĪÙĨ": 4385, "ĠÙħÙĦØ§ÙĤÙĪ": 6911, "ĠØ¨Ø£Ø³": 1334, "ĠÙĦØ¹ÙĨÙĩÙħ": 4344, "ĠØ¬Ø§Ø¡ÙĨØ§": 3663, "ÙģØ³ÙĩÙĨ": 7999, "ĠØ¨Ø®ÙĬØ±": 3811, "ĠØ°ÙĨÙĪØ¨": 2275, "ÙĬÙħØ§ÙĩÙħ": 3694, "ÙĨØ§ØŃ": 1112, "ĠÙĪÙĦÙĦÙħ": 4124, "ĠÙģØ³ÙĪÙģ": 1263, "ĠØ¹Ø¨Ø§Ø¯ÙĨØ§": 2396, "ĠØ¥ÙĨÙĨÙĬ": 3544, "ĠØ¯Ø®ÙĦØ§": 7937, "ÙĬØ±Ø§": 274, "ĠÙĦØ¯": 1107, "ĠØªÙĦÙĤ": 2195, "ĠØ¨Ø£ÙĨÙģØ³ÙĩÙħ": 4422, "ÙĪÙģØ§ÙĩÙħ": 8198, "ĠÙĪØ¥ÙĨ": 211, "ĠØŃÙĨÙĬÙģØ§": 2610, "Ø°Ø¨ÙĩÙħ": 1810, "ÙĤÙħ": 3984, "ĠØŃØ±ÙĤÙĪÙĩ": 8868, "ĠÙĪØ§ÙĦØ¥ÙĬÙħØ§ÙĨ": 9121, "Ø¤ÙĦØ§Ø¡": 855, "ĠÙĪÙĬÙĩØ¯ÙĬÙĥÙħ": 9400, "ĠØ°ÙĦÙĥÙħ": 878, "ĠÙĨØ´Ø±Ùĥ": 5841, "ĠØ£Ø¯ÙĨÙī": 2785, "Ø±ÙĥÙħ": 3427, "ĠØ³Ø¨Ø§ØªØ§": 9038, "ĠØ¬ÙĨØ§ØŃ": 1141, "ĠÙģØ§ØµØ¨Ø±": 2425, "ĠØ³Ø±ÙĬØ¹": 2694, "ĠØªÙĦØ¨": 4024, "ĠØ¢Ø°Ø§ÙĨÙĩÙħ": 3403, "ĠØ¨Ø£Ø±Ø¨Ø¹Ø©": 8294, "ĠØªØ¹ÙĦÙħÙĪÙĨ": 740, "ĠØ£Ø´Ø¯": 1000, "ĠØŃÙĬØ«": 1161, "ĠØ¨Ø¹Ø¯ÙĩØ§": 3660, "ĠÙħØ¨": 1087, "ĠØ¢Ø¨Ø§Ø¦ÙĥÙħ": 5237, "ÙĤØ°": 2649, "ĠØ³Ùĥ": 3561, "ĠØ§ÙĦÙħÙĨØª": 5247, "Ø§Ø¡ÙĥÙħ": 1705, "ĠÙĪØ£ÙĨØª": 1998, "ÙĩÙĪÙĨ": 863, "ĠØ§ÙĦÙħØµ": 2494, "ĠÙĬØ´Ø§ÙĤÙĤ": 10127, "Ø¨Ùī": 3443, "ĠØ§ÙĦÙĤØ±Ø¨Ùī": 2222, "Ø¨ÙĬ": 204, "ĠÙĥØ«ÙĬØ±Ø§": 860, "ĠØ§ÙĦØ¶ÙĦ": 2624, "ĠÙĪÙħØ«": 4279, "ĠÙĬÙģØ±ÙĤÙĪØ§": 9475, "ÙĥØ±": 190, "Ø°Ø¨": 207, "ĠØŃØ·Ø©": 7763, "ĠØ¢Ø¨Ø§Ø¡ÙĩÙħ": 5236, "ĠÙĪØ¹Ø³Ùī": 8361, "ĠÙĬÙģØªØŃ": 9023, "ĠØ¹Ø°Ø¨": 7436, "ĠÙĦÙĦ": 273, "ĠÙģØªØ¨ÙĬÙĨÙĪØ§": 6229, "ĠÙĪÙĥÙĬÙģ": 4183, "ĠØªØŃØ³Ø¨": 2552, "ĠÙĤØ§": 4036, "ĠØ¹Ø¯ÙĨ": 2400, "ĠÙĪØ³Ø¨ØŃ": 2288, "ĠØ§ÙĦÙħØ´Ø§Ø±": 7744, "ĠÙħØ´Ø±ÙĥØ©": 9924, "ĠÙģÙħ": 2642, "ĠØ§Ø³ÙħÙĩ": 4462, "ĠÙĨÙĥÙĦÙģ": 6584, "ĠØ¨Ø§ÙĤ": 5716, "ĠØªÙħØ´ÙĬ": 9137, "ĠØ³ÙĬØ¹ÙĦÙħÙĪÙĨ": 6421, "ĠØ®Ø§Ø³Ø±ÙĬÙĨ": 4106, "Ø§Ø¤": 777, "ĠÙħØŃØ¯Ø«": 9073, "ºÙģØ±": 2281, "ĠØ£Ø¯Ø¨Ø§Ø±": 4363, "ĠÙĦØªØ®Ø±Ø¬": 6343, "ÙģØ±ÙĪÙĨ": 2083, "ĠÙĪÙģÙĬ": 951, "Ø°ÙĦÙĥ": 365, "ĠÙĬØ¶Ø±ÙĩÙħ": 6749, "ĠØ§Ø®ØªØ±": 9153, "ĠØ£Ø¯Ø±Ø§Ùĥ": 2140, "ĠÙĪØ§ÙĦØµÙĦØ§Ø©": 6640, "ĠÙĨÙĪØ±Ùĩ": 6765, "Ø²Ø¨": 2683, "ĠØ¨Ø¹ÙĬØ¯Ø§": 3649, "ĠÙĪØ¥ÙĦÙĬ": 7824, "ĠØ¢Ø®Ø±": 1512, "ĠÙģØ£Ø®Ø°ÙĩÙħ": 2804, "ĠÙĪÙĬØ³ØªØ¹Ø¬ÙĦÙĪÙĨ": 6648, "ĠØªØ³": 754, "ĠÙģØ§ÙĤØ±Ø¡ÙĪØ§": 10129, "ĠÙĤØ§ÙħÙĪØ§": 5518, "ĠÙģØ£ØªÙĨØ§": 6012, "ĠØ·ØºÙĬ": 4241, "ĠØ£Ø¬ÙĦØ§": 6254, "ĠØ£Ø¬ÙĦÙĩÙĨ": 4270, "ÙĩÙĦÙĪÙĨ": 3916, "Ø§Ø·Ø¨ÙĨÙĬ": 8378, "Ø§Ø¯ÙĦÙĪØ§": 7915, "ÙģÙĦØ©": 4002, "ĠÙĬÙħÙĬÙĨ": 4678, "ĠØªØ¨Ø¯ÙĪØ§": 5378, "ĠØ¢ÙĦØ°ÙĥØ±ÙĬÙĨ": 9091, "ĠØ¯Ø§Ø¦Ø±Ø©": 6933, "ĠØ§ÙĦÙģØŃØ´Ø§Ø¡": 8640, "ĠÙħØ¹Ø§ÙĬØ´": 9871, "ÙĬÙĨ": 71, "ĠØ§Ø´": 1596, "ĠØ£ÙĤØ±Ø¨": 2579, "ĠØ£ØŃÙĦ": 2954, "ĠÙĬØªØ®Ø°ÙĪÙĨÙĥ": 9380, "ĠØ§ÙĦÙģØ¶ÙĦ": 2015, "ĠØ¨ÙĦØº": 1591, "ĠÙĩØ¯Ø§ÙĨÙĬ": 9656, "ĠØªØ±ÙĪÙĨ": 3522, "ÙĦ": 45, "Ø¯ÙĨ": 3465, "ĠÙĪØ³ÙĦØ§ÙħØ§": 8665, "ĠØ¨Ø§ÙĦØºØ©": 9169, "ĠÙĦÙĬØ§ÙĦ": 6052, "ĠÙĪØµØ±ÙģÙĨØ§": 10188, "ĠØ¨Ø§ÙĦØ¹Ø¯": 2918, "ĠØ¨Ø§ÙĦÙħÙģØ³Ø¯ÙĬÙĨ": 9265, "ĠØ§ØªØ®Ø°": 1208, "ĠØ¹Ø¯ÙĪÙĥÙħ": 8816, "ĠØ¨Ø¨Ø¹Ø¶": 1774, "ĠØ³ÙĪØ¢": 4527, "ĠÙĬØ¹Ø·ÙĪØ§": 8383, "ĠØªÙĥØ°Ø¨": 912, "Ø¤ÙĥÙħ": 4889, "ĠÙĦØ¹Ø¨Ø±Ø©": 4345, "ĠØ¨Ø·ÙĪÙĨÙĩÙħ": 6860, "ĠØ§ÙĦØ´Ø§ÙĩØ¯ÙĬÙĨ": 3686, "Ø¬Ø±ÙĪÙĨ": 5772, "ÙģØ§ÙĤ": 6246, "ĠÙĪÙĪØ¬Ø¯Ùĥ": 9907, "ĠÙĦÙĦÙĨØ§Ø¸Ø±ÙĬÙĨ": 6492, "ÙĦØ§Ø¦Ùĥ": 614, "ĠÙĤØ±Ø§Ø±": 4766, "ĠÙģØ£Ø«": 7945, "ĠØªØ°ÙĥØ±ÙĪÙĨ": 1694, "ĠØ³ÙĨØ¯Ø®ÙĦÙĩÙħ": 9060, "ÙħÙĬØ±Ø§": 7093, "ĠÙģØ§ÙĥÙĩÙĬÙĨ": 10128, "ĠÙĨØ¶ÙĬØ¹": 5846, "ĠØ£ØºØ±ÙĤÙĨØ§": 4642, "Ø£ØªÙĬÙĩÙħ": 5738, "ĠÙĦÙħÙĬÙĤØ§Øª": 6103, "ĠÙĤØ§ØªÙĦÙĪØ§": 4764, "ĠÙħÙĦØ§Ø¦ÙĥØ©": 3455, "ĠØ§ÙĦÙħØ¨ÙĬÙĨ": 1400, "ĠØ§Ø²Ø¯Ø§Ø¯ÙĪØ§": 8602, "ĠÙĨØµÙĬØ±": 2691, "ĠØ£Ø£": 1554, "ĠÙĪØ¬ÙĪÙĩ": 1121, "ĠÙĪØ§ÙĨØµØ±ÙĨØ§": 9327, "ÙĨØ³": 456, "ĠØ¨ÙĨØ§": 2654, "ĠØ¹Ø·": 7435, "ÙģÙĬØ§": 7393, "ĠÙĥÙģØ§Ø±": 2322, "ĠØ³ÙĨÙĥ": 7675, "ĠØªØ³ÙĤØ·": 8830, "ĠØªÙģÙĬØ¶": 9824, "ĠÙĩØ°Ùĩ": 850, "ĠØ§ÙĦØ¢ÙĬØ§Øª": 1103, "ĠÙĦØ±Ø¨ÙĩÙħ": 4479, "ĠÙĦØ£ÙĤØ·Ø¹ÙĨ": 8500, "ĠØ´ÙĩØ§Ø¯": 4876, "ĠØ§ÙĦÙĨØ¬": 2378, "ÙĩØ¨": 1424, "ĠØ±Ø³ÙĪÙĦØ§": 1374, "Ø£Ùĩ": 4719, "ĠÙģØ¥ÙĨÙĥÙħ": 8099, "ĠØ´Ø¦ØªÙħ": 4493, "Ø³ÙĬ": 1348, "ĠÙĪØ¬Ø¯": 2365, "Ø«ÙħØ§": 2207, "ĠØªØ£ÙĪÙĬÙĦ": 4309, "ĠÙĪÙĨÙĤØµ": 8251, "ĠØªØ±ÙĥÙĨ": 8227, "ĠØ£Ø¦": 2635, "ĠÙģÙĥØ°Ø¨ÙĪÙĩ": 3056, "ÙĪØ¨ÙĪØ§": 6125, "ĠÙĪØ£ÙĬÙĪØ¨": 5886, "ĠÙĥØ§Ùħ": 7514, "ĠØ£ÙĨÙģØ³ÙĨØ§": 8510, "ĠÙĬØ®Ø§Ø¯Ø¹ÙĪÙĨ": 8469, "ĠØ³Ø£ÙĦØªÙĥÙħ": 10166, "ĠÙĪØ§ÙĦÙħÙĨ": 4057, "ĠÙĬØ®ØªØµÙħÙĪÙĨ": 5513, "ĠÙĬØ¬Ø§Ø¯ÙĦ": 4507, "ĠØ´Ø§ÙĩØ¯ÙĬÙĨ": 7804, "ĠØ§ÙĦÙĩØ¯ÙĬ": 4603, "ĠÙħØªØ´Ø§Ø¨Ùĩ": 9734, "ĠØµÙģØ§": 3215, "ĠØ²ÙĬÙĨØ©": 3818, "ĠØ§ÙĦÙĩÙĪÙĨ": 5589, "ÙħØ§Ø³Ø§": 7462, "ĠØ§ÙĦÙĤ": 195, "ĠØ¹ÙħØ±Ø§ÙĨ": 6922, "ĠØ§ÙĦÙĩØ¯Ùī": 1385, "ĠØ¨Ø§ÙĦÙĥØªØ§Ø¨": 5491, "ÙĪÙĨ": 75, "ĠØªØµÙģÙĪÙĨ": 5248, "ĠÙģØ§ØªØ¨Ø¹ÙĪÙĩ": 6879, "ĠØ£ÙħØ±ÙĩÙħ": 2239, "ĠÙĪØ¹ÙħÙĦÙĪØ§": 788, "ØªØ¨Øª": 7181, "ĠÙĬØ°ÙĪ": 7325, "ĠØ³ÙĦØ§ÙĦØ©": 7681, "ĠØ¨Ø²": 7353, "ĠÙĪØ£ÙĨØ²ÙĦ": 2234, "ĠØ§ØªØ®Ø°ÙĪØ§": 1480, "ĠÙģØ¢": 1308, "Ø¹ÙħÙĦ": 2511, "ĠØ¹Ø§ÙĩØ¯ÙĪØ§": 4733, "ÙħØ³Ø©": 6318, "ĠÙĬÙĨØªØµØ±ÙĪÙĨ": 9984, "ĠØªÙĨØ°Ø±": 8610, "ĠØ¨Ø¶Ø§Ø¹ØªÙĩÙħ": 10066, "ĠÙĬØªÙĪÙģ": 2231, "Ø§Ùĩ": 763, "ĠØ§ÙĦÙħØ¹ØªØ¯ÙĬÙĨ": 5510, "ØµÙĬØ¯": 7551, "ĠØªØ±ÙĬÙĨ": 8224, "Ø¨Ø±Ø¦": 8082, "ĠÙģØ£Ø°Ø§": 7946, "ĠÙĬØ³Ø±ÙĪÙĨ": 5109, "ĠØ£ÙģØ§Ø¡": 6225, "ĠØ§ÙĦØ£ÙħØ§": 5935, "ĠØªØ·ØºÙĪØ§": 6763, "ĠØ´ÙĩÙĪØ¯Ø§": 9970, "ĠÙĪØ£ØµÙĦØŃ": 1838, "ĠØ¹Ø³ÙĬØªÙħ": 10216, "ØµØ§ÙĦ": 2472, "ĠØªØ¬Ø¯": 1563, "ĠÙĬØŃØ§ÙģØ¸ÙĪÙĨ": 6150, "ØªÙĤ": 1149, "ĠØ³Ø¹ÙĬØ±Ø§": 3381, "ĠØ¹ÙĦÙħØªÙħ": 3721, "ĠÙĪÙĬ": 166, "ĠØµØ¯ÙĪØ±": 5178, "ĠÙĪÙĬØ£": 1882, "ĠÙĪÙĥÙĦ": 1984, "ÙĤÙĩÙħ": 1769, "ĠÙħØ³ØªÙĤÙĬÙħØ§": 3874, "ĠÙĦØ¯ÙĨ": 9046, "ĠÙĬØ¹ÙĬØ¯": 4264, "ĠÙĪØªØ¬Ø¹ÙĦ": 8154, "ĠØ§ÙĦÙĤØ¨ÙĪØ±": 4173, "ÙģØ¦Ø¯Ø©": 3888, "ĠØ§Ø±ØªØ¨ØªÙħ": 9344, "ĠÙĪØ³ÙĦÙĬÙħØ§ÙĨ": 5166, "ĠÙĨØŃØ´Ø±": 9653, "Ø·Ø¹ÙĨØ§": 2245, "ĠÙĥÙĪÙĨÙĪØ§": 2671, "Ø°ÙĤØ§ÙĨ": 5704, "ĠÙĪØ¥ÙĦÙĬÙĥ": 5948, "ØªÙĪÙĨ": 709, "ĠÙĦØªØ¨ÙĦØºÙĪØ§": 8572, "ĠØªØŃØ²": 2001, "ĠÙĪÙĬÙĨØ°Ø±ÙĪÙĨ": 9155, "ĠÙĨÙĪØŃÙĬ": 5235, "ĠØ³Ø®Ø±ÙĪØ§": 6739, "ĠÙĬØºÙģØ±": 1503, "ĠØ²Ø§Øº": 5088, "ĠØ²Ø¬Ø±Ø©": 8414, "ĠÙĪÙĦÙĥÙĨÙĬ": 5090, "ĠÙĨÙĤØ¶ÙĩÙħ": 10167, "ĠØªØ£": 494, "ĠØªØ±ÙĬØ¯": 6187, "ĠÙĪØ§ÙĦÙħÙĨÙĥØ±": 6959, "ĠÙĬØªØ®Ø°ÙĪÙĩ": 9379, "ĠÙģØ²Ø§Ø¯ØªÙĩÙħ": 9914, "Ø¯Ø®ÙĦ": 1433, "ĠØ§ÙĦÙħÙĨÙĥØ±": 2588, "ĠÙĨØ³ÙĪØ§": 3330, "ĠØ³ÙħÙĬØªÙħÙĪÙĩØ§": 6869, "ÙģØ®": 1776, "ÙĨØ¨ÙĬ": 7084, "ĠÙĪÙĦÙĨØ¨ÙĦÙĪÙĨÙĥÙħ": 8952, "ĠØ§ÙĦÙħÙĤØª": 7737, "ÙģØªÙħ": 2462, "Ø¯ÙĪÙĨ": 431, "ÙĬÙĨÙĩ": 5707, "ĠØ§ÙĦØ¥ÙĨØ¬ÙĬÙĦ": 5148, "ĠÙģÙĨØ¹Ùħ": 4403, "ĠÙĪÙħÙĦØ¦Ùĩ": 3904, "ĠÙģØ±ÙĪØ¬ÙĩÙħ": 8447, "ĠØ¨Ø¹Ø¯ÙĬ": 5006, "ĠØ±Ø²ÙĤÙĨØ§ÙĥÙħ": 3344, "ĠÙĪØ¬ÙĪÙĩÙĥÙħ": 3801, "ØŃØ¨Ø§": 7407, "ĠØ§ÙĦÙĨØ¨ÙĬÙĬÙĨ": 2793, "Ø³Ùħ": 240, "ĠØªØ¹Ø°Ø¨ÙĩÙħ": 8536, "ĠÙĤÙĪÙĦÙĥÙħ": 9183, "ĠØ®ÙĪÙģØ§": 5326, "ĠÙĪØ·": 1386, "ĠÙĪØ£Ø¹ØªØ¯ÙĨØ§": 3413, "ĠÙĬØ¹": 378, "ĠØ¶ÙĦØ§ÙĦØ§": 3790, "ĠÙĪØ°Ø±": 7148, "Ø·ÙĦÙĪØ§": 7687, "ĠÙĤÙĪØª": 5787, "ĠØ£ÙĤØ³ÙħØªÙħ": 9505, "Ø¶ÙĦ": 385, "ĠÙĦØ´": 2645, "ĠØ¸Ø§ÙĦÙħØ©": 5472, "ĠØ®ØµÙĬÙħ": 9713, "ĠØ¢ØªÙĬØªÙħ": 6625, "ĠØ¹ÙĪÙĤ": 7443, "ĠÙģÙĩ": 1106, "ÙĦÙĩØªÙĨØ§": 5739, "ĠÙħØ«ÙĤÙĦÙĪÙĨ": 8420, "ĠØ¨Ø§Ø®Ø¹": 10208, "ĠÙģØ£Ø®Ø°": 1203, "Ø¯ØªÙĩÙħ": 5653, "ÙĪÙĦØ¯Ø§ÙĨ": 4830, "ĠØ¨Ø±Ø³ÙĪÙĦ": 7377, "ĠÙĪÙĬØ¨": 2507, "ÙĤÙĦØ¨": 1151, "Ø±ÙĪÙģ": 949, "ĠØºÙĬØ±": 536, "ĠØ§ÙĦÙĨØ¬ÙĪÙħ": 3873, "ØµØ¨": 4771, "ĠÙĬÙĤ": 648, "ĠØ£Ø¹ÙħØ§ÙĦÙĩÙħ": 1237, "ĠÙĪØ¥ÙĬØªØ§Ø¡": 7059, "ĠÙħÙĪØ¹Ø¯": 3661, "Ø±Ø§Ø¡": 4598, "ĠØ§ÙĦØŃÙĪØ§Ø±ÙĬÙĪÙĨ": 7015, "ĠÙĪØ§ØªØ®Ø°": 4313, "ĠØ£Ø³Ø£ÙĦÙĥÙħ": 2395, "ĠÙĨØ¯Ø±ÙĬ": 9534, "ĠÙĬØºØ§Ø«": 8808, "ĠØ¹Ø¨Ø¯ÙĨØ§": 3821, "ÙħØ§": 83, "Ø¨Ø§Ø¯": 473, "ĠÙħÙĪÙĤ": 4224, "ĠØ¨Ø§ÙĦØ·": 5959, "ĠØªØ®Ø´": 3744, "ĠØ¢ÙĨØ³Øª": 6963, "Ø¯Ø§": 296, "ØªÙĤÙĬÙĨ": 918, "ĠØªØ¤ÙħÙĨÙĪØ§": 2668, "ĠÙĪØŃÙħ": 3434, "Ø¹ÙĬÙĩ": 5639, "Ø§Ø¦Ø·": 8064, "ĠÙģØ¹ÙĦ": 1183, "ĠØ¥ÙħØ§ÙħØ§": 5400, "Ø±Ø¨ÙĪØ§": 1887, "ĠØ¬Ø«ÙĬØ§": 7780, "ĠÙĬÙģØªÙĨÙĪÙĨ": 6578, "ÙħÙĥÙħ": 5564, "ĠØ¨ÙħØ³Ø¨ÙĪÙĤÙĬÙĨ": 8920, "ĠÙĪØ¢Ø¨Ø§Ø¤ÙĨØ§": 6820, "ĠØµØ¯ÙĤØ©": 5180, "ĠÙĨÙģØ³Ùĥ": 2770, "ĠØ³Ø±ÙĤ": 9365, "ĠÙĤÙĪØ§ÙħÙĬÙĨ": 9829, "ĠÙħÙĩØ¯": 7200, "ĠØ£ÙħØ«Ø§ÙĦÙĩÙħ": 9669, "ĠÙĬÙĨÙĤ": 4206, "ĠÙģØ¹ÙĦÙĪØ§": 5279, "ĠÙģØ§Ø³ØªÙĥØ¨Ø±ÙĪØ§": 4383, "ĠÙĬØ³ØªÙĥØ¨Ø±ÙĪÙĨ": 3289, "ĠÙħÙĥÙĬÙĨ": 5222, "ĠØ§ÙĦÙģØ¬Ø±": 4318, "ĠÙĦÙĬÙĥÙĪÙĨÙĪØ§": 8006, "ĠØ§ÙĦÙĬÙħÙĬÙĨ": 2172, "ĠÙħØªÙĤØ§Ø¨": 5196, "ĠØ£ØŃØ¯Ø§": 1526, "ĠØ£ÙĨÙģÙĤÙĪØ§": 2330, "ĠØ§ÙĦØ¹ÙĦÙĬ": 3211, "Ø§Ø¨ÙĬÙĦ": 4812, "ĠÙħØ¨ÙĬÙĨØ©": 6364, "ĠØ¯Ø§ÙĪÙĪØ¯": 2041, "ĠØ¨ÙĥÙģØ±": 4341, "ĠÙģØ¶ÙĦÙĨØ§": 4364, "Ø®ÙĦÙĩØ§": 7549, "ĠØ¹Ø¨Ø¯": 1442, "ĠÙĬØ³Ø±": 2189, "Ø¨Ø±ÙĬÙĨ": 2531, "ĠÙĪÙĬÙħÙĨ": 7889, "ĠØªØ¯Ø®ÙĦÙĪØ§": 3751, "ĠØªÙĤÙĬØ§": 6398, "ĠÙĦÙħØ§": 608, "ĠÙģØ§Ø³ØªØ¹": 4381, "ĠØ§ÙĦÙħÙĤØ±Ø¨ÙĪÙĨ": 5468, "ĠØ®Ø´": 2499, "ĠØ§ÙĦÙħØŃØ±": 4083, "ĠØ³ÙĥÙĨØ§": 9773, "ĠÙħ": 60, "ĠÙĪØ«ÙħÙĪØ¯": 2174, "ĠØ§Ø³ØªÙĥ": 5125, "ĠØ§ÙĦØ¹Ø³Ø±": 6020, "ĠØŃØ§Ø¬": 2698, "ĠÙĪÙĥÙģØ±ÙĪØ§": 8022, "ĠÙĬÙĦØªÙģØª": 9817, "ĠÙĬØ³Ø±ÙĨØ§": 5417, "ĠÙĬÙĨØ·ÙĤÙĪÙĨ": 5495, "Ø¹ÙħØ¯Ø§": 7917, "ØªÙĦÙģÙĪÙĨ": 1738, "ĠÙĨØ§Ùģ": 4799, "Ø¨Ø§Ø³Ø·": 8372, "ĠØ¯Ø§ÙħØª": 10101, "ĠÙĬØºØ´Ùī": 3758, "ĠÙĪÙĦÙĨ": 944, "ĠÙĬØ±Ø²ÙĤ": 2538, "ĠØ§ÙĦØ£Ø¨Ø±Ø§Ø±": 4119, "Ø¬Ø¯Ø§": 7505, "ĠÙĥØ´": 4751, "ĠØ§ÙĦÙħØ´Ø£ÙħØ©": 7051, "ĠÙĪØ´ÙĩØ¯": 9279, "ĠÙĪÙĦØ³ÙĦÙĬÙħØ§ÙĨ": 9857, "ÙĪÙĦØªÙĩÙĨ": 4831, "ØºÙĬØ§ÙĨØ§": 4863, "ĠÙĪØ£ÙħÙĩ": 5310, "ĠÙĬÙĪ": 574, "ĠØ¢ØªÙĬÙĥÙħ": 5300, "Ø¨ØªÙĨØ§": 2997, "Ø£ÙĩØ§": 7416, "ĠØªÙĤØ§": 7475, "ĠØªØ¨Ø¯ÙĬÙĦ": 9359, "ĠÙĬØ³ØªÙĨÙĥÙģ": 10138, "ĠØ¢ØªÙĬÙĨØ§": 851, "Ø¹ÙħÙĦÙĪÙĨ": 386, "ÙħØ§Øª": 4739, "ĠÙĬØ¹ÙĪØ¯ÙĪÙĨ": 8386, "ĠÙĪØ§Ø³ØªØºÙĨÙī": 8985, "ĠÙģÙĨØ³ÙĬ": 9810, "ĠÙħÙĩØªØ¯ÙĪÙĨ": 3938, "ĠÙĦØ¹ÙĨ": 6436, "ĠØ²Ø±Ø¹Ø§": 6937, "ÙĨØ¨Ø¦": 7086, "ĠÙĬØŃÙĦ": 4219, "ĠÙĦØ±Ø¨ÙĩØ§": 9353, "ĠÙħØ«": 396, "ĠØ¹Ø§ÙħÙĦ": 5410, "ĠÙĪØ¢Ø¨Ø§Ø¡ÙĩÙħ": 6819, "ĠØ§Ø¯Ø§Ø±Ùĥ": 8944, "ĠÙħØ¤Ø°ÙĨ": 9468, "ĠØªÙĩÙĪÙĬ": 10220, "Ø¢Ùĩ": 7842, "ĠØ®Ø·": 1798, "Ø°ÙĥØ±": 403, "ÙĦØ©": 724, "ĠÙĦØ³ÙĨØ©": 7312, "ĠØ¸ÙĦÙħØ§": 3262, "ĠÙģÙĦØ£": 6179, "ĠÙħØ®ÙĦØµÙĬÙĨ": 3096, "ĠÙĪØªØ±ÙĥÙĨØ§": 3409, "ĠØ§Ø¨ØªØºØ§Ø¡": 2435, "ĠØ¯Ø§ÙĪ": 1979, "ĠØªØ¨ÙĬ": 7469, "ĠØ·ÙĦÙĤØªÙħ": 5455, "ĠØ´ÙĬØ§Ø·ÙĬÙĨ": 8058, "ÙĪÙĦÙī": 848, "ĠÙĬØ´Ø£": 2953, "ĠØ§ÙĦØ±Ø³ÙĦ": 1667, "Ø³ÙħÙī": 1408, "ØŃÙĪÙĨ": 1352, "ĠØ±Ø¡": 1786, "ÙĪØ§ÙĥÙħ": 4699, "ĠØ£ÙĦØ³ÙĨØªÙĩÙħ": 6746, "Ø£ÙĬÙĨ": 3128, "ĠØ£ÙģÙĨ": 8304, "ĠØ®Ø³Ø±ÙĪØ§": 2915, "Ø³ØŃØ§Ø±": 9215, "ĠÙĪØ§ÙĦÙħÙĬ": 2684, "ĠØ¢ÙħÙĨ": 212, "ĠÙĬÙĦØª": 3979, "ĠØ¨Ø¢ÙĬØ§ØªÙĨØ§": 748, "ĠØ£Ø²ÙĪØ§Ø¬ÙĨØ§": 8962, "ĠØ¨Ø¬ÙĩØ§Ø²ÙĩÙħ": 9798, "ĠØªØ´Ø±Ø¨ÙĪÙĨ": 10219, "ÙĦÙĬØªÙħ": 2881, "ĠØ¨ØºØ¶Ø¨": 5159, "ĠÙģØ³ÙĤÙĪØ§": 8667, "ÙħØ±ÙĪÙĨ": 1751, "ĠØ¹Ø²ÙĬØ²Ø§": 3360, "ĠØº": 213, "ĠØ£Ø¹ØªØ¯ÙĨØ§": 3725, "Ø§ÙģØ¹": 3269, "ĠÙĪÙĦÙĬÙĨØ°Ø±ÙĪØ§": 10093, "ĠØ§ÙĦØ°ÙĦ": 5848, "ĠÙĬØ£ØªÙĬÙĩ": 5213, "ĠØ§ÙĦØµØ§Ø¯ÙĤÙĬÙĨ": 1721, "ĠÙĦØ¬": 1765, "ĠÙģÙĩÙĪ": 1184, "ÙĥÙħÙĩ": 7525, "Ø¹Ø¯Ø§": 2218, "ĠÙĪØ£ÙĨÙģÙĤÙĪØ§": 2960, "ĠØªØ¨Ø¯ÙĪÙĨ": 4744, "ĠØªÙĥØ³Ø¨ÙĪÙĨ": 5106, "ĠØ¨Ø¸": 3990, "Ø´ÙĬØ±": 3152, "Ø·Ø§Ø¹": 3760, "ĠÙĪØ§Ø´ÙĩØ¯": 9326, "ĠÙĬØªØ¨ÙĬÙĨ": 6118, "ØªÙĤÙĪÙī": 3362, "ĠØ£ÙĤÙĪÙĦ": 2637, "ĠÙħØ±Ø³ÙĦ": 5631, "ĠØ§ÙĦÙĤÙĦÙĪØ¨": 3629, "ĠØ£Ø®Ø§Ùĩ": 5162, "ĠØ£ØºÙĪ": 5292, "ĠÙĬØ¤ØªÙĬ": 6427, "ÙģØ³Ø¯ÙĬÙĨ": 1647, "ĠÙĨØ§Ø¸": 7637, "Ø§Ø¦ÙģØ©": 6091, "ĠÙĬØº": 719, "ĠÙĪÙħØ«ÙĦ": 6271, "ĠÙĦÙĬØŃØ²": 6058, "ĠØ¹Øª": 3515, "Ø°Ùĩ": 553, "ĠØ£ØªØ®Ø°": 5191, "ĠÙĪØ£Ø¨ØµØ§Ø±ÙĩÙħ": 5520, "Ø¨Ø§Ø¦ÙĩÙħ": 7194, "Ø¹ÙħÙĩ": 3613, "Ø¸Ø§": 1163, "ĠØªØ±ÙĥÙĪØ§": 9189, "ĠÙĦÙĬØ¬Ø²ÙĬÙĩÙħ": 9578, "ĠÙĬØ¬ÙħØ¹": 4314, "Ø³Ùĩ": 3102, "ÙĪÙģÙĬÙĩÙħ": 5013, "ĠØ£Ø³Ø±": 2299, "ĠÙĪØ§ÙĦØ¬": 2075, "ÙĬØ¯ÙĩØ§": 4906, "ÙĨØªÙĩØ§": 5108, "ĠÙĦÙĥÙĦÙħØ§Øª": 6232, "ĠÙĪØ§Ø¹Øª": 4980, "ĠØ£Ø®ÙĦ": 7239, "ĠÙħÙĥÙĨØ§ÙĥÙħ": 8852, "ØªÙĩÙħØ§": 2745, "ĠØ¯Ø§Ø®Ø±ÙĪÙĨ": 9864, "ĠØ§ÙĦÙĨÙĩØ§Ø±": 1298, "ĠÙĪØ§ÙĦÙħØºØ±Ø¨": 4317, "ØµØ±": 391, "Ø®ÙģÙĪÙĨ": 5799, "ĠÙĪØ£Ø®Ø±Ùī": 6870, "ÙĤØ³Ø·": 4691, "ĠÙĪÙĦØ£Ø¬Ø±": 9335, "ĠØ¨ÙĪØ£ÙĨØ§": 10210, "ĠØªØ¬Ø§Ø¯ÙĦ": 8583, "Ø´Ø£ÙĨØ§": 6639, "ÙĤØ§ÙĦØ§": 7344, "ĠÙĦØ¬Ø¹ÙĦÙĨØ§Ùĩ": 10026, "ĠØ§ÙĦØ£ÙĬÙħØ§ÙĨ": 7814, "ĠØ°Ø±Ø¹Ø§": 9495, "ĠÙħÙĨÙĥÙħ": 475, "ØªÙĦØ·": 6541, "ĠØ§ÙĦØ¯ÙħØ¹": 8208, "Ø®Ø±ÙĥÙħ": 7919, "Ø³ÙĤ": 3103, "ĠÙĪØ¨Ø£ÙĬÙħØ§ÙĨÙĩÙħ": 8487, "ĠÙħØ«ÙĦÙĩØ§": 4274, "ĠØ§ÙĦØ¢Ø®Ø±": 898, "ĠØ¹ÙĦÙĬÙĥÙħ": 341, "ĠØ£Ø·": 2851, "ĠØ§ÙĦØ£ÙĨÙģØ³": 4326, "ĠÙħØ®ÙĦØµØ§": 5515, "ĠØ«ÙĦØ©": 7921, "ĠØªØ£ÙĦÙħÙĪÙĨ": 8596, "ĠØ£ÙĪØ²Ø§Ø±ÙĩÙħ": 9862, "ĠÙĨÙģØ±": 3156, "ĠØ¬Ø§Ø«": 3584, "ĠØ¨Ø§ÙĦØ¨Ø±": 7848, "ĠØ±ØŃÙħØªÙĩ": 1832, "Ø§Ø¦Ø¨ÙĬÙĨ": 6089, "ĠÙĥØ§ÙĦØ¬": 8929, "ÙĬÙĩØ§": 3072, "ĠÙĬØ¹Ø±ÙģÙĪÙĨ": 3688, "ĠØ§ÙĦØ£ÙħÙĪØ§ÙĦ": 6598, "ĠØ£ÙĨØµØ§Ø±ÙĬ": 9646, "ĠÙģØ£ÙħÙĦÙĬØª": 9979, "ĠÙĬØ£ÙħØ±ÙĪÙĨ": 6224, "ÙĦÙĪÙĥ": 7079, "ĠØªØ³Ø¨": 7474, "ÙħÙĬÙĨ": 256, "ĠØªØŃØ²ÙĨÙĪÙĨ": 9434, "ĠÙĦÙħØ¤ÙħÙĨ": 8093, "ÙĬØ¡": 5568, "ĠØ¨ÙĦØ§": 5708, "ÙĪÙĦÙĪØ¯": 5873, "ĠÙĦÙĬØ³Ø¬ÙĨ": 8837, "ĠØ§ÙĦÙħØŃÙĬ": 5893, "Ø§Ùĥ": 847, "ĠÙĪØªØµÙģ": 8157, "ĠÙĨØ³Ø§Ø¡": 3755, "Ø¬Ø§Ø¯ÙĦ": 7508, "ĠÙĪÙĬÙĨØ°Ø±ÙĪÙĨÙĥÙħ": 10318, "ĠÙĪØ¹ÙħØ§": 8357, "ĠØ®Ø¨ÙĬØ±": 1290, "ĠÙģØ§Ø¶": 5674, "ÙĪØ§Ùĩ": 1772, "ĠØ§Ø«ÙĨÙĬÙĨ": 2603, "ĠÙģØ¸ÙĦÙħÙĪØ§": 7294, "ĠÙĦØ§ÙĨ": 7299, "ĠÙĪØ§ÙĦØ¨": 1247, "ĠÙģØ§Ø³Ø£ÙĦÙĪØ§": 8989, "Ø³ÙĤÙĬÙĨØ§ÙĥÙħ": 9694, "ĠØ¹ÙĤØ¨": 4018, "ÙĦÙĬÙĨ": 592, "ĠÙĦØªÙĥÙĪÙĨ": 6342, "ĠØ¬Ø§Ø±": 7771, "ĠØ§ÙĦØ®Ø·Ø§Ø¨": 10137, "ĠÙĬØ¯Ø®ÙĦÙĪÙĨÙĩØ§": 6861, "ØºÙĨÙī": 4093, "ĠÙħØŃÙĬØµ": 4497, "ĠØ¨ØºÙĦØ§Ùħ": 5158, "ĠØ¥ÙĨØ§Ø«Ø§": 4251, "ĠØ¹Ø¯ÙĨØ§": 6468, "ĠÙĪÙĪØŃÙĬÙĨØ§": 10185, "ĠÙĪÙĦÙĪ": 429, "ĠÙĪØ¹Ø¯ÙĥÙħ": 8691, "ĠÙĪØ§ÙĦÙģØ±ÙĤØ§ÙĨ": 10232, "ĠØ¹ÙĨØ¯ÙĬ": 3671, "ĠØ§ÙĦØ³ÙĬØ¦Ø§Øª": 2036, "ĠÙĬØ³ØªÙĩØ²Ø¦ÙĪÙĨ": 2007, "ĠÙĦØ¨Ø§Ø³Ø§": 6888, "ĠØ§ÙĦÙħÙĬÙħÙĨØ©": 7053, "¬": 15, "ĠÙħÙĨØ³": 4723, "ĠØ£Ø°": 1553, "ĠØ¯Ø®ÙĦÙĪØ§": 2722, "Ø§ØºÙĬØ©": 8924, "ĠØ¨Ø¹Ø²ÙĬØ²": 4982, "ĠØ±ÙĤÙĬØ¨": 9486, "ĠØ§ÙĦÙĤØ¯ÙĪØ³": 9497, "ĠÙĪØªÙĪØ§ØµÙĪØ§": 4997, "ĠØ´ÙĩÙĬØ¯": 2149, "ĠØ§ÙĦØ¹ÙĩØ¯": 7961, "ĠÙĪÙĤÙĦÙĪØ¨ÙĩÙħ": 6611, "ĠØ£Ø®Ø¨Ø§Ø±": 6384, "ĠÙģØ®ÙĪØ±": 6808, "Ø§Ø¡": 121, "ĠØ¢ØªØ§ÙĩÙħØ§": 9229, "ĠØªØ¸Ø§ÙĩØ±ÙĪÙĨ": 9767, "ĠØ§Ø¬": 2357, "ĠØ®Ø§Ùħ": 7786, "ĠÙĤÙĦÙĪØ¨ÙĥÙħ": 2012, "Ø£ÙĬØªÙħ": 1419, "ĠÙĪØ§ØµØ¨Ø±ÙĪØ§": 6680, "ĠØ¨ØºØªØ©": 2126, "ØµØ¨ØŃ": 4775, "ĠÙĪØ¬ÙħØ¹": 8068, "ĠÙĬØ³Ø£ÙĦÙĥÙħ": 6298, "ĠÙĦÙĬÙĦØ©": 2939, "ĠÙħÙģ": 3450, "ÙĤØ¹Ø¯ÙĪØ§": 7345, "ĠÙĪÙĨØŃÙĨ": 1893, "ĠÙģØ¬ÙħØ¹": 6602, "ĠØ§Ø±ÙĥØ¹ÙĪØ§": 9802, "Ø¨ÙĬÙĨØ§Øª": 1033, "ĠØ£ÙĨÙĩØ§Ø±Ø§": 7585, "ĠÙĬØ³ØªØºÙģØ±ÙĪÙĨ": 8456, "ĠØ£Ø¨Øª": 2639, "ĠÙģØµÙĦØª": 5322, "ĠØ£ÙģØºÙĬØ±": 5051, "ÙģØ§Ùĥ": 8387, "Ø³Ø±Ø©": 2541, "ĠØ§ÙĦØºÙħ": 6320, "ĠÙĪØ¥Ø°": 624, "ĠÙĪØ¬ÙĨØ§Øª": 3644, "ÙĩÙĬ": 3913, "ĠØ¨Ø¹Ø«ÙĨØ§ÙĩÙħ": 9402, "ĠÙĬÙĨÙĤØ°": 8138, "ĠÙĪØ¥ÙĬØ§ÙĬ": 6853, "ĠØ§Ø¨ØªÙĦØ§Ùĩ": 9895, "ĠØ£ØªÙĪÙĥ": 8751, "ĠØ§ÙĦØ®": 401, "ĠØ£ØŃÙĬØ§Ø¡": 5496, "ĠÙĬØ¯Ø§": 3482, "ĠÙĨØ¨ÙĬ": 2689, "ĠÙĬØ¹ÙĦÙħÙĩ": 4247, "ĠÙģØ£ÙĦÙĤÙĪØ§": 6768, "ĠÙĪÙĤØ§ÙĦÙĪØ§": 713, "Ø§ÙĦÙĩÙħ": 3911, "ĠØ±Ø§Ø¯": 7559, "ĠÙĪØ§ÙĦØ´ÙĩØ§Ø¯Ø©": 2596, "ĠØ´Ø¯Ø§Ø¯": 7805, "Ø¤ÙĩÙħ": 7843, "ĠÙĪØ£ÙĨØ¨Øª": 8262, "ĠØ§Ø³ØªÙĥØ¨Ø±": 8560, "ÙĪÙħ": 127, "ĠÙĪØ¨ÙħØ§": 3705, "ĠÙĪØ§Ø¬": 3238, "ĠÙĪÙħÙĨØ§": 3697, "ĠØ³ÙĪÙĬØ§": 5440, "ĠØªÙĪÙĥÙĦØª": 3398, "ĠÙĪØ¥ÙĬØ§ÙĥÙħ": 5452, "ĠØ£ÙĨÙĩÙħØ§": 7584, "ĠÙĪÙĬØ¬Ø¹ÙĦÙĪÙĨ": 6798, "ĠÙħÙĪØªÙĪØ§": 8182, "ĠØ±Ø¬Ø§ÙĦÙĥÙħ": 9684, "ĠØ³Ø§Ø¯": 5855, "¢": 5, "ĠÙħÙĬØªØ§": 3943, "Ø¬Ø§ÙĨ": 5771, "ĠÙģÙĥØ°Ø¨ÙĪØ§": 9339, "ĠØµØ±Ø§Ø·": 964, "ĠÙĬØ°ÙĥØ±": 2452, "ĠØ¨ÙĪØ¬ÙĪÙĩÙĥÙħ": 10211, "ĠÙģØ¥ÙĨÙĩ": 1889, "ĠØ§ÙħÙĥØ«ÙĪØ§": 10277, "ĠØ¯ÙĬØ§Ø±": 1980, "ÙĥØ§": 681, "ÙĤÙĪÙħ": 5696, "Ø£ÙĦÙĥ": 7417, "ÙĦØ§Ùħ": 621, "ĠØ¨Ø§ÙĦØ°ÙĬÙĨ": 3602, "ĠØ£ÙĩÙĦÙĥÙĨØ§ÙĩÙħ": 5269, "ĠÙĬØ¤ÙģÙĥÙĪÙĨ": 3742, "ĠÙĪØ±ØŃÙħØ©": 1337, "ĠÙĦÙĥØ¨ÙĬØ±": 5063, "ĠØªØ§Ø±Ø©": 7491, "ĠØ£Ø¹Ø²Ø©": 8603, "ĠØ¶ØŃØ§ÙĩØ§": 8340, "ĠÙģÙĤØ§ØªÙĦÙĪØ§": 6358, "ĠØ¹Ø³ÙĬ": 7445, "ĠØ§ÙĦÙĦØ§ØªÙĬ": 3061, "ĠØºÙĦØ¨": 4962, "ĠÙĪØ£Ø´Ø±": 7717, "ĠØ§ÙĦÙħÙĦØ§Ø¦ÙĥØ©": 977, "ÙĬØªØ§": 2045, "ĠØ¹ÙĬÙĨØ§": 3132, "ĠØ¨Ø§ÙĦÙĨ": 4129, "ĠØ§ÙĦÙĤØ¯ÙĬÙħ": 9496, "Ø§Ø¡ÙĪÙĨ": 7693, "ÙĥÙģØ±": 1273, "ĠÙģØ§ÙĦÙĬÙĪÙħ": 3023, "ĠØªØŃØ²ÙĨÙĬ": 9433, "ĠÙĪØ§ÙĦØ£ÙĨØ«Ùī": 5391, "ĠØªØ²": 1284, "Ø¹ÙĪ": 1242, "ĠØ®Ø¨Ø±Ø§": 7785, "ĠÙĦÙĦØ¹Ø§ÙĦÙħÙĬÙĨ": 2161, "ĠÙĦÙģ": 3968, "ĠØµÙĦÙĪØ§": 7986, "Ø®ÙĦØµ": 1377, "Ø¬Ø¯ÙĨ": 6233, "ĠØ£ÙĪÙĦÙĪ": 1540, "Ø§Ø«Ø±": 9140, "Ø®ÙĬÙĦ": 5798, "ĠØ£Ø¹ÙĤØ§Ø¨ÙĥÙħ": 7027, "ĠÙĬØ®Ø²ÙĬÙĩ": 6979, "ĠØ¨Ø§ÙĦØ®": 5958, "ĠÙĬØ°ÙĩØ¨": 3117, "ĠÙĪØ§ÙĦØ£ÙĨ": 1891, "ĠØ£ÙģØŃØ³Ø¨": 8309, "ĠÙģØ¹ÙĦÙĨ": 9087, "ĠØ¨Ø±Ø²ÙĪØ§": 8855, "ĠØ·Ø±ÙĬØ§": 9996, "ĠØªØ´": 755, "Ø§Ø¯Ø±ÙĪÙĨ": 4147, "ĠÙĤØ§ÙĨ": 3145, "ĠÙĩÙĬÙĨ": 7645, "ĠØªØ¬ÙĩØ±": 8581, "ĠÙĪØ¬ÙĪÙĩÙĩÙħ": 1741, "ĠÙĪØ¨Ø§ÙĦ": 1660, "ĠÙħØªØ´": 3333, "ĠØ¨Ø§ÙĦÙĩÙħ": 7844, "ĠØ¬Ø§ÙĨ": 2498, "Ø¨Ø¯ÙĪÙĨ": 1034, "ĠØ§ÙĦØ£Ø®Ø±Ùī": 4568, "Ø·Ø±ÙĨ": 8886, "ĠØ¸ÙĨ": 1818, "ĠÙģØ°ÙĥØ±": 4656, "ĠÙĨØ³Ø§Ø¡ÙĩÙħ": 6455, "ĠØºÙĪØ±Ø§": 8040, "ØªÙĬÙĩ": 2529, "ÙĩØ¯ÙĨØ§": 6043, "ÙģÙĬØ¹": 3700, "ĠØ£ÙģÙħÙĨ": 1727, "ĠØ§ÙĦÙĥØªØ§Ø¨": 343, "ĠÙħÙĪØ¬": 5007, "ĠÙģØ£ÙĪØŃÙī": 6972, "ĠØ¬": 134, "ĠØ§ÙĦÙħØµÙĦÙĬÙĨ": 9574, "ĠÙĪØ§Ø¬Ø¹ÙĦÙĨØ§": 9722, "ĠÙħØµÙģÙĪÙģØ©": 10315, "ĠØ§ÙĦÙħØŃ": 5888, "Ø¦ÙĨØ©": 7705, "ÙĨØ§Ø¬Ø±": 7456, "ĠØ±Ø¨ÙĨØ§": 478, "ĠØ£ØºÙĪÙĬØªÙĨÙĬ": 10020, "ĠÙĪÙĨÙħÙĬØª": 8258, "ĠÙĥØªØ§Ø¨Ø§": 2247, "ĠÙĪÙħÙĥØ±ÙĪØ§": 6272, "ØªØ§Ùĩ": 6248, "ĠØ®ÙĦÙĪØ§": 3193, "ĠÙĥØ±ÙĬÙħ": 1539, "ĠØ¬ÙĨØª": 4096, "ĠØ§ÙĦØºØ§ÙĦØ¨ÙĪÙĨ": 4537, "ĠÙĦØ°ÙĨØ¨Ùĥ": 6998, "ĠØ§ÙĦÙĨÙĥØ§ØŃ": 7066, "ĠÙĬØª": 266, "ĠÙĨØ¬Ø¹ÙĦ": 2332, "ĠÙĥÙģÙĬÙĩ": 7521, "ĠÙĪØ®ØªÙħ": 9068, "ĠÙĪÙĬØ±ÙĬØ¯ÙĪÙĨ": 6663, "ĠØ¨ÙĤÙĬ": 9118, "ĠØ®ÙĪÙĦ": 7783, "ĠØ¨ÙĤÙĪÙħ": 6617, "ĠØ´Ø§Ø¹Ø±": 6895, "ĠØ¥ÙĦÙĩÙĥ": 8588, "ĠØ£ÙĬØ¯ÙĬÙĩÙĨ": 6943, "ĠÙĪØŃÙģ": 6471, "Ø¨ØªØºÙĪØ§": 2998, "Ø°ÙĦ": 4692, "ÙĦØ£": 1423, "ĠÙĪØ¯": 2840, "ØµØ±Ø§": 3541, "ĠØµØ§ØŃØ¨ÙĬ": 9672, "ĠØ§ÙĦØ°ÙĥØ±Ùī": 3809, "Ø³ÙĨØªÙĩÙħ": 3673, "ĠÙĥØ§": 3142, "ĠØ§ÙĦØ´Ø¬Ø±": 8353, "ĠØ¨Ø±Ø¨ÙĨØ§": 9055, "ĠÙĬÙĪØ¹Ø¸": 6395, "ĠÙĪÙĩÙĪ": 331, "ĠØªØ¨Ø·ÙĦÙĪØ§": 8950, "ĠØ§Ø®ØªÙĦÙģ": 2268, "ĠØ£ØŃØµÙĬÙĨØ§Ùĩ": 9618, "ĠØ§Ø·ÙħØ£ÙĨ": 9917, "ĠÙĪØ·Ø±Ø§": 9192, "ĠØ§ÙĦØ³Ø§Ø¹Ø©": 1031, "ĠÙĪØ§Ø³Ø¹": 3043, "ĠØ°": 157, "ĠÙĦØºÙģÙĪØ±": 3040, "ĠÙĪÙħØ£ÙĪØ§ÙĩÙħ": 3699, "ÙĦÙĬÙĩÙħ": 2880, "Ø±ÙĨÙĬÙĨ": 4600, "Ø°Ø±ØªÙĩÙħ": 5081, "Ø´ÙĩØ¯": 4789, "ĠØ§ÙĦÙħÙĨØ²ÙĦÙĬÙĨ": 8957, "ĠØªÙĨØªÙĩÙĪØ§": 8616, "ĠØ³ÙĨÙĨ": 9059, "ĠØ§ÙĦØ¬Ø§Ùĩ": 2111, "ĠÙĨÙģØµÙĦ": 4392, "ĠÙĪÙĬØ³Ø¨ØŃ": 7895, "ĠÙħØ¹Ø§Ø¬Ø²ÙĬÙĨ": 7064, "ÙĨØ©": 371, "Ø§ÙĨÙĩÙħ": 2477, "ĠØ¨Ø§ÙĦÙħÙĨ": 7846, "ĠØµØºÙĬØ±Ø§": 10107, "Ø´Ø±Ø§": 2328, "ÙĬØ²Ø§ÙĨ": 5571, "ĠÙĪØ£ØµØ¨ØŃ": 9001, "ĠÙĬÙĦÙĤÙĪÙĨÙĩ": 9356, "ĠÙĬØŃÙĦÙģÙĪÙĨ": 4223, "ĠÙĦØ¨": 967, "ĠØ§ÙĦØ®ÙĬØ±": 1592, "ĠÙĪØ£Ø¨ØµØ§Ø±": 4077, "ĠÙħØ³Ø¦": 4301, "ĠÙĬÙĥÙĦÙħÙĩÙħ": 6237, "ĠØ£ÙĪÙĦÙĬØ§Ø¡Ùĩ": 8991, "ĠØ§ÙĦÙĤØ±Ùī": 1716, "ÙĨÙĬÙĨ": 725, "ĠÙĪÙĨØµØ±ÙĪØ§": 8255, "ĠÙĥØªØ§Ø¨Ùĩ": 4334, "ĠÙĪØ¬Ø¹ÙĦÙĪØ§": 3027, "ĠÙĬØµÙĦ": 8778, "ÙħØ¹Ø§": 2619, "ĠÙĬØ³Ø±Ø§": 3707, "ĠØ¬Ø§Ø¡": 289, "ĠØ§ÙĦØ£ÙĨØ«Ùī": 8687, "ĠØ£ØŃØ³ÙĨ": 982, "ĠØ§ÙĦØ¹Ø¸Ø§Ùħ": 6023, "Ø³ÙĨ": 316, "ĠÙĬØ¹Ø°Ø¨": 2753, "Ø§Ø¶": 1223, "Ø¸Ø±ÙĪØ§": 1418, "ÙĦÙĨØ§Ùĩ": 4191, "ĠØ´Ø¯ÙĬØ¯Ø§": 2407, "ĠÙĪØ£ØŃØµ": 7726, "ĠØ³ÙĬØ±Øª": 9840, "ĠØ·Ø§ØºÙĬÙĨ": 9997, "ĠØ¨ÙĦØ³Ø§ÙĨ": 5058, "ÙĦÙĪÙĨØ§ÙĩÙħ": 7930, "ÙĪØ§ÙĩØ§": 5706, "ĠØ§ÙĦØ²": 864, "ĠÙĦÙģØ±": 3476, "ĠÙħØ¹ÙĦ": 2296, "ĠÙĬØ¯Ø®": 2005, "ĠÙħÙĨÙĥØ±ÙĪÙĨ": 4013, "ØºØ¨": 7765, "ĠÙģÙĪØ¬Ø¯": 9809, "ĠØ§ÙĦØŃØ§ÙĥÙħ": 4155, "ĠØ®Ø·Ø¨Ùĥ": 9373, "ĠØ£ÙĩÙĦÙĥÙĨØ§": 1839, "ĠØ£ØªØ§ÙĩØ§": 6707, "ĠÙģÙĥØ§ÙĨÙĪØ§": 4470, "ĠØŃØ§": 5902, "ĠØ£ÙĪØ¢Ø¨Ø§Ø¤ÙĨØ§": 10267, "ĠÙĬØ¯Ø¹ÙĪÙĥÙħ": 5443, "ĠÙĪÙģØ§ÙĥÙĩØ©": 6994, "Ø£ÙĦÙĨ": 3351, "ĠÙģÙĦØ£ÙħÙĩ": 10131, "ĠÙģØ£ÙĪÙĦØ¦Ùĥ": 857, "Ø§ÙĩØ§": 1748, "ÙĩØ²Ø¦ÙĪÙĨ": 1841, "Ø±Ø§Ø±": 2916, "ĠØ§ÙħÙĥ": 8017, "ĠÙħØ¯Ø±Ø§Ø±Ø§": 6569, "Ø¶Ø§Ø¬Ø¹": 6686, "ĠØªÙħØª": 2469, "ØŃÙĥÙħ": 904, "ĠÙĦÙĩÙħ": 187, "ÙĦÙĬÙħØ§ÙĨ": 1699, "ĠÙĬÙĤØ¯Ø±": 4684, "ĠØ±Ø²ÙĤ": 840, "ĠØ£Ø«ÙĤØ§ÙĦ": 5344, "ĠÙĪØªØ°Ø±ÙĪÙĨ": 6142, "Ø«ÙĤÙī": 7699, "ĠÙĪØ£ØŃÙĦ": 9658, "ĠØ£Ø²ÙĪØ§Ø¬ÙĩÙħ": 4386, "ĠÙĦÙħ": 260, "ĠÙĨØ¯": 2331, "ĠØ§ÙĦØ¥ØŃØ³Ø§ÙĨ": 8625, "ĠØ³ÙĨØ³ØªØ¯Ø±Ø¬": 9062, "ĠÙĪØ£Ø·Ø¹ÙħÙĪØ§": 9963, "ĠÙĪØ£ØºØ±ÙĤÙĨØ§": 4842, "ĠÙģÙĪÙĤ": 922, "ĠÙģÙĬÙĤØ³ÙħØ§ÙĨ": 7545, "ØªØ¯": 2443, "ĠØ£Ø·ÙĩØ±": 7245, "ĠÙģØ²Ø¹": 7287, "Ø±ÙĬØ¨": 4949, "ØªÙħÙĪÙĩØ§": 3188, "ĠØ£Ø¯Ø¨Ø±": 5215, "ĠØ§ÙĦØ²ÙĪØ±": 8897, "ĠØ¹Ø¬ÙĪØ²Ø§": 9291, "ĠØªØŃÙħÙĦÙĪÙĨ": 9823, "ĠØµØ¹ÙĬØ¯Ø§": 5524, "ĠØ®Ø²Ø§Ø¦ÙĨ": 3408, "Ø³ÙĦÙħ": 3470, "ĠØ£Ø¨ØµØ§Ø±ÙĩÙħ": 2825, "ĠÙģØ§ØºÙģØ±": 3899, "ÙĩÙĬØ©": 7117, "ØµØ§Ø¨": 5802, "ĠØ¨Ø£ÙĨÙĩ": 8292, "ÙĪØ±ÙĥÙħ": 2098, "ĠÙĬØªØ¶Ø±Ø¹ÙĪÙĨ": 10286, "ĠÙħØ¹Ø¯ÙĪØ¯Ø§Øª": 7036, "ĠØ§ÙĦØ±Ø§ØŃÙħÙĬÙĨ": 3882, "ĠÙĬÙĨØ§ÙĦÙĪØ§": 8137, "ĠØ¨Ø¯Ø£": 9203, "ĠÙĩØ§ÙĩÙĨØ§": 5544, "ĠÙĬÙĥØ§Ø¯ÙĪÙĨ": 6857, "ĠØ¨Ø§ÙĦÙĥÙģØ±": 4892, "ÙĨØ§": 82, "Ø¨Ø³": 4618, "ĠÙħÙĨÙĩÙħ": 339, "ĠØ¨Ø·ÙĪÙĨ": 2806, "ĠÙĪØ§Ø¶": 3338, "ĠØ£Ø¯": 781, "ÙģÙĥØ±ÙĪÙĨ": 4712, "ĠÙĦÙĦÙĬØ³Ø±Ùī": 10055, "ĠØ¹Ø¸ÙĬÙħØ§": 1421, "ĠØ®Ø§Ø¶": 7789, "ØºØ±": 978, "ÙĥÙĦØ§": 7169, "ĠÙĨÙĩÙĦÙĥ": 7628, "ĠÙĦØ¨Ø§Ø³": 5484, "ĠØ£ÙĥÙĨ": 4291, "Ø§Ùħ": 598, "ĠÙĬÙĥÙģØ±": 1124, "ĠØ´ÙĩØ¯": 1291, "ĠØ´Ø¹ÙĬØ¨": 5366, "ĠØªØ£Ùĥ": 1236, "ÙĤØ§ÙĨ": 2650, "Ø¯Ø¹ÙĪÙĩÙħ": 6747, "Ø³ØªØ¨Ø±": 4897, "ĠØ£Ø®Ø±Ø¬": 1131, "ĠØ³Ø¦": 5854, "ĠÙĦØ¨Ø«ÙĨØ§": 9405, "ĠØ¨ÙħØ§Ø¡": 4967, "ÙĥØ±ÙĬØ§": 3212, "ĠÙĪØ¥Ø¨Ø±Ø§ÙĩÙĬÙħ": 4880, "ĠÙĪØ§Ø¨Ø¹Ø«": 9156, "ĠØµØ¨Ø±ÙĨØ§": 9718, "ÙĦØ§ØªÙĥ": 7465, "ĠÙĨØ³Ø§Ø¡ÙĥÙħ": 6456, "ĠÙĪÙĬØ±ÙĬÙĥÙħ": 9213, "ĠØ§ÙĦØ®Ø·": 6267, "Ø¨Ø§Ø¡": 2177, "ÙħÙĪÙħØ§": 7099, "ĠÙĪØ£Ø³ÙĦÙħ": 7730, "ĠØªØ·ÙĪØ¹": 9419, "ĠÙģØªÙĬØ§ØªÙĥÙħ": 8330, "ĠØ£Ø±": 689, "ĠØªÙĩØªØ¯ÙĪÙĨ": 3526, "ĠÙĦÙĤØ¯": 765, "ĠÙĪØ§ÙĦÙħØ¤ØªÙģÙĥØ§Øª": 10175, "ĠÙĪØ§ÙĦÙħØ³Ø¬Ø¯": 9361, "ĠÙħØ¨ÙĬÙĨØ§Øª": 6365, "ĠÙĬØ´Ø¹Ø±ÙĪÙĨ": 1473, "ĠØ¨ÙĬÙĨÙĥ": 8084, "ĠØ§ÙĦØ±Ø§ÙĥØ¹ÙĬÙĨ": 10038, "ĠØ£Øº": 1244, "«": 14, "ĠØŃÙĤØ§": 1707, "ĠÙĪØ±Ø²ÙĤ": 2120, "Ø±ÙĪÙĨÙĥ": 7888, "ĠÙĪØ¹Ø¸Ø§ÙħØ§": 4260, "ĠØ£Ø®Ø°ÙĨØ§ÙĩÙħ": 8981, "ĠÙĪØ§ÙĦÙģØŃØ´Ø§Ø¡": 9650, "ĠÙĬØ°ÙĪÙĤÙĪÙĨ": 10203, "ĠØ¨ØŃÙħ": 4705, "ĠØ³Ø¬ÙĬÙĨ": 9334, "ĠÙĪØ£ÙĨØ¹Ø§Ùħ": 8263, "ĠÙĪØ²Ø±ÙĪØ¹": 9586, "ĠÙĪØ§ÙĦØ¢": 5837, "ĠØ£ØªØ¨Ø¹": 2781, "ĠØªØ°Ø±": 3136, "ĠÙĦÙĬØ¬Ø¹ÙĦ": 6056, "ĠÙĪØªØ·ÙħØ¦ÙĨ": 8159, "ĠÙģØ²Ø§Ø¯ÙĩÙħ": 9913, "ĠØ¥ÙĦÙĬÙĩÙħ": 946, "ĠÙħØ¨Ø´Ø±Ø§": 9032, "ÙĨØ²ÙĦ": 5562, "ĠÙģØ®ÙĦÙĤ": 6807, "ĠÙħØ¹Ø±ÙĪÙģØ§": 3865, "ĠÙĬØ¹ÙĦÙħÙĩÙħ": 6218, "Ø±ÙĬØ¹": 2359, "ĠÙĪØ¬Ø§Ø¡Øª": 6626, "ĠØ£Øµ": 444, "ĠÙĬÙģØ±ÙĤÙĪÙĨ": 9476, "ĠÙħÙĨØ§": 954, "ĠØ¨Ùĩ": 198, "ĠØªØºÙģØ±": 5758, "ĠÙĪØ§ÙĦØ·ÙĬØ¨Ø§Øª": 9489, "ĠÙĨØ¹ÙħØªÙĬ": 3766, "ĠØ´Ø¦Øª": 4491, "ĠÙĥØ£ÙĨÙĩÙħ": 2426, "ĠØ¹Ø¨Ø¯Ø§": 3519, "ĠÙĥØ§ÙĦØ°ÙĬÙĨ": 2792, "ĠÙģØªØµØ¨ØŃ": 6227, "ĠÙĨØ¨Ø¯ÙĦ": 7634, "ØºÙĦØ§ÙĦ": 4862, "ĠØ§ÙĦÙĨØ§ÙĤØ©": 6084, "ĠØ¬Ø§Ø¡ÙĥÙħ": 1297, "ĠØºØ¶Ø¨Ø§ÙĨ": 9579, "ĠÙĦÙĦØ´Ø§Ø±": 6135, "ĠØ¢ÙĦÙĩØ©": 1742, "ĠÙĪØ§ÙĦØ¶": 7591, "ĠØ¨ÙħÙĬ": 7362, "Ø·Ùģ": 2080, "ĠÙĪÙĪØµÙĬÙĨØ§": 6644, "ĠÙĪÙĨØ§Ø¯Ùī": 3868, "ÙĬØ§ÙĨ": 7104, "ÙĦÙħØ§Øª": 1148, "ĠÙĬØ´ØªÙĩÙĪÙĨ": 4231, "ĠØ¹ÙĤØ¯": 4015, "ĠØ®ÙĦØ§": 7782, "ĠØ§ÙĦØºÙĬÙĪØ¨": 5444, "ĠÙĬØ¹ÙĬØ¯ÙĥÙħ": 9883, "ĠÙĪÙĪØ¬Ø¯": 4440, "ÙĬÙħÙĨ": 3071, "ĠØªØŃ": 382, "ĠÙħØ®ÙĦÙĤØ©": 9198, "ĠØ§ÙĦØ´ÙĬ": 597, "ĠØ°ÙĨ": 1642, "ĠÙĦØªØ±ÙĪÙĨ": 8567, "ĠØ£ÙĪØ±Ø«ØªÙħÙĪÙĩØ§": 10096, "ĠØ§ÙĦÙħØ³": 787, "ĠÙħØ¢": 2629, "ĠÙĤØ±Ø¨": 4039, "ĠÙĬÙħØ³Ø³Ùĥ": 6682, "ĠØ¨Ø§Øº": 5718, "ĠÙĥØ§ØªØ¨": 6926, "ĠÙĨØ¹Ø§": 7619, "ĠØ£ØŃØµ": 2738, "Ø·ÙĦØ¹": 7690, "ĠÙħØ±ØªÙģÙĤØ§": 8508, "Ø°Ø¨ÙĪÙĨ": 1468, "ĠØ«Ùħ": 189, "ĠÙĪØ£ÙĤØ§ÙħÙĪØ§": 2906, "ĠÙĪØ£Ø±Ø¬ÙĦÙĥÙħ": 5490, "Ø²ÙĨÙĬ": 5822, "ĠØ§ÙĦÙħØªÙĪÙĥÙĦÙĪÙĨ": 6755, "ĠÙĨØ¯Ø®ÙĦÙĩØ§": 9535, "ĠØ£ÙĩØ¯Ùī": 3464, "ĠØ£ÙģØ¨Ø§ÙĦØ¨Ø§Ø·ÙĦ": 10298, "ĠØ¹ÙĦÙĬÙĩ": 374, "ĠÙĬÙĤÙĪÙħ": 4338, "ĠØ±Ø¶ÙĬ": 3543, "ĠØŃØ±ÙħØ§": 6513, "ĠØ³ÙħØ¹ÙĨØ§": 1837, "ĠØ¨Ø±ÙĬØ¡": 2826, "ĠÙĬØ£ØªÙĬÙĨÙĥÙħ": 6818, "ĠÙĪÙĤÙĪØ¯": 6028, "ĠØªØ®Ø§Ùģ": 3323, "ĠØ°ÙĥØ±ÙĪØ§": 3008, "ĠØ£ÙĤØ·": 8877, "ĠØ§ÙĦØ³Ø§ÙħØ±ÙĬ": 10268, "ÙģÙĤÙĪØ§": 1135, "ĠÙĬØ¬ØªÙĨØ¨ÙĪÙĨ": 10308, "ĠÙģØ§ÙĤØªÙĦÙĪØ§": 8206, "Ø¹ÙĦÙĪÙĩ": 7864, "ĠØ£Ø±Ùĥ": 7240, "ĠØ§ÙĦØŃØ·ÙħØ©": 10100, "Ø§ÙģØ¹ÙĬÙĨ": 8296, "Ø§ØªÙĦÙĪÙĨ": 2079, "ĠØªØ¨Ø¹Ø§": 9529, "ĠÙĬØ²ÙĬØ¯ÙĩÙħ": 9797, "ĠÙĬØºØ±ÙĨÙĥÙħ": 10015, "ĠÙĬØ¤Ø®Ø±ÙĩÙħ": 6982, "ĠÙĬØ¨Ø¹Ø«ÙĪÙĨ": 3047, "ÙģØ¯": 3998, "Ø²ÙĦ": 282, "ĠØ§ÙĦØ£ØŃ": 4114, "ĠÙĬÙĩÙĬ": 7330, "Ø±Ø¬ÙĪÙĨ": 8628, "ĠÙĦØ¹ÙĦÙĬ": 3325, "ĠÙĤÙĪÙħÙĩÙħ": 3257, "ĠÙĦØ¯Ø§": 7306, "ĠØ§ÙĦÙħÙĥÙĬØ§ÙĦ": 9841, "ĠØ¨Ø³Ùħ": 442, "ĠØ§ÙĩØªØ¯ÙĪØ§": 5390, "ĠÙĬØ¤ÙħÙĨÙĪØ§": 2259, "ĠÙģØ¬Ø¹ÙĦ": 3965, "ĠØ£Ø¯Ø¹ÙĪ": 5216, "Ø³ØªÙĪØ¯": 7882, "ĠØ£ÙĪØ²Ø¹": 7872, "ĠÙĪØ£Ø¯Ø®": 6927, "ĠÙĬØ²Ø§ÙĦÙĪÙĨ": 9051, "ĠÙĥØ§ÙħÙĦØ©": 10226, "ĠÙħÙĤØªØµØ¯": 9473, "ÙħØ¹": 347, "<EOS>": 2, "ĠØ§ÙĦÙħØ®ÙĦØµÙĬÙĨ": 2909, "ĠØ§ÙĦØ±Ø§Ø²ÙĤÙĬÙĨ": 4144, "ĠØŃØ³ÙĨ": 4089, "ĠÙĥØ¨ÙĬØ±": 1952, "ĠØ¬Ø¦ØªÙħÙĪÙĨØ§": 9095, "ĠØ±Ø²ÙĤØ§": 1922, "ĠØªÙħØ³": 2070, "ĠÙĬØ±Ø²ÙĤÙĥÙħ": 4531, "ĠÙĪØ³ÙĨ": 5602, "ĠØ§Ø±Ùĥ": 3906, "ÙĦÙĩÙĨ": 1778, "ĠÙģØ§Ø³ÙĦÙĥ": 6564, "ĠØ§ÙĦØ£ÙĬÙĥØ©": 5548, "ĠØ®Ø·Ø£": 9372, "ĠÙĥØ£ÙĨÙĩÙĨ": 9163, "ĠØ£Ø±ÙĨÙĬ": 8775, "ĠÙĪÙĬØªÙħ": 7890, "ĠÙĪØ£Ø±Ø³ÙĦÙĨØ§": 4079, "ĠØ§ÙĦØŃØ¬Ø±": 4919, "ÙĦØ§ÙĨ": 5751, "ĠÙģØ§Ø±Ø¬Ø¹ÙĪØ§": 9349, "ĠØ¹ÙĨØ¯ÙĨØ§": 1996, "ĠÙĬÙĤØ¶ÙĬ": 5189, "ĠØªØŃÙĬØ©": 8397, "ĠÙģÙĪÙĤÙĩ": 8941, "ĠÙħØ¹Ø¯ÙĪØ¯Ø©": 6885, "Ø¬Ø§Ø±": 4746, "ĠØ³Ø¨Ø¹Ø§": 9226, "ĠØ§ÙĦØ£ÙĦÙĪØ§ØŃ": 7057, "ĠÙĪÙĬØ®Ø§ÙģÙĪÙĨ": 6834, "ÙĦÙģÙĪÙĨ": 2381, "ĠØ¨Ø¹ØµØ§Ùĥ": 6115, "ĠÙĪØ§ÙĦØ¥Ø¨ÙĥØ§Ø±": 9123, "ØµØ§Ø±Ùī": 2022, "ĠÙģÙĨØ¨Ø°ÙĨØ§ÙĩÙħ": 9901, "ĠØªÙħØ±": 7473, "Ø´Ø±": 216, "ĠØ§ÙĦÙħØ¬Ø±ÙħÙĪÙĨ": 2082, "Ø¨Ø§Ùĩ": 5070, "ĠØ§ÙĦØ¨ÙĨØ§Øª": 5123, "ÙĨØ°Ø±": 2166, "ÙĨÙĬØ§Ø¡": 4966, "ĠÙģÙĬÙĨØ¸Ø±ÙĪØ§": 3825, "ĠØ¥Ø®Ø±Ø§Ø¬": 6825, "ĠØ§ÙĦØºÙĬØ¸": 6840, "ĠØ¨ØªØ£ÙĪÙĬÙĦ": 9915, "ĠÙĪØ£Ø²ÙĦ": 5878, "ĠØ§ÙĦÙħØ¯ÙĬÙĨØ©": 2040, "ĠØ£Ø®ÙĬ": 5160, "ĠØ£Ø³ÙĦØŃØªÙĥÙħ": 10146, "ĠØ¬Ø¹ÙĦÙĪØ§": 6486, "ĠØ§ÙĦØ£ÙĥØ¨Ø±": 4878, "ĠÙĥØ§ÙĦØ°ÙĬ": 4379, "ĠØ¬ÙĪØ§Ø¨": 4864, "ĠÙĥØ§Ø¯": 4752, "ØªÙĤÙħÙĨØ§": 4414, "ÙĤÙĪÙĦ": 243, "ĠÙģØ§ÙĥØªØ¨": 6176, "ĠÙĪØ¬ÙĦØª": 8070, "ĠÙĦØ°Ø©": 9812, "ĠÙĪØ£ÙĪØª": 7719, "ĠÙģØ¹ÙħÙĬØª": 10193, "ĠÙģÙħØ§ÙĦ": 4660, "ØŃØ´Ø©": 2158, "ĠØ§ÙĦÙĬÙĪÙħ": 916, "Ø¬ÙĬØ¨ÙĪØ§": 2818, "ĠØ¢Ø«Ø§Ø±ÙĩÙħ": 3889, "ĠØ§ÙĦØ³Ø¨Ø¹": 5978, "ĠÙģØ£Ø±Ø³": 6009, "ĠØ±Ø§": 2201, "ĠØ§Ø¶Ø±Ø¨": 5458, "ĠÙģØ¹ÙĦØª": 6603, "ĠÙĨØ¹ÙħØªÙĥ": 8849, "ĠÙĤÙĦÙĪØ¨ÙĨØ§": 3723, "ĠÙģÙĪØ±": 5666, "ĠØ£ÙĪØªÙĬØªÙĩ": 9210, "ĠØ¨ØŃÙĪØ±": 9524, "ĠØ§ÙĦÙħØ¹ÙĦÙĪÙħ": 10250, "ĠÙĤØ±Ùī": 7529, "ĠØ§ÙĦØ¸Ø§ÙĦÙħÙĪÙĨ": 1336, "ĠØªØ¬Ø¯ÙĪØ§": 3138, "ĠÙĤÙĦØ¨Ùĩ": 4151, "ĠÙħØ³ÙĨØ§": 8513, "ĠÙĪÙģØ±": 1755, "ĠØ§ÙĦ": 55, "ĠÙĦÙĦÙħÙĥØ°Ø¨ÙĬÙĨ": 2244, "ĠÙĦÙĬØŃÙĥÙħ": 4178, "ĠØ³ÙĬÙĤÙĪÙĦ": 5176, "ĠØ¨Ø¹Ø¯Øª": 8180, "ĠØ®Ø§Ø¨": 5922, "ĠÙĪØ³ÙħØ¹": 7153, "ĠØ§ÙĦØ³ÙħÙĪÙħ": 7881, "ĠÙĦÙĬØŃØ²ÙĨ": 10111, "ÙĨØ§Ùĥ": 2662, "ÙģØŃØ´Ø§Ø¡": 5730, "ĠØ³ÙĨ": 1116, "ĠØŃØ¯ÙĬØ«": 1913, "Ø®ÙĦØµÙĬÙĨ": 1921, "Ø§Ø´Ø±ÙĪÙĩÙĨ": 6572, "ĠÙĪÙĨÙĤÙĦØ¨": 8249, "ØµÙĬØ±": 609, "ÙĬØ§Ø©": 633, "ĠÙĪØ§ÙĦÙĨØ§Ø³": 4526, "ĠÙħÙĥÙĨØ§ÙĩÙħ": 6501, "ĠØ³Ø§ØŃØ±": 3168, "ĠÙģÙĦÙĥÙħ": 6180, "ĠÙĪØ¬ÙĬÙĩØ§": 8072, "ĠÙģØ¥ÙĨ": 261, "ĠÙħØ³ÙĦÙħ": 1235, "ÙĥØ«Ø±": 3436, "ĠØ²ÙĬÙĨØªÙĩÙĨ": 6661, "ĠØ£ÙĤØ§ÙħÙĪØ§": 7246, "ĠÙĦÙĦÙħ": 594, "ĠØ§ÙĦØ£ÙĪÙĦÙī": 1968, "ĠÙĦÙģØ±Ø¹ÙĪÙĨ": 9750, "ØµØ±Ùģ": 3285, "ÙĨØ¬": 1491, "ĠÙĪØ§Øª": 518, "ĠÙĪÙħØ§ØªÙĪØ§": 4887, "ĠÙĪØ°Ø§": 5598, "ÙĬØ§ÙĦ": 7101, "ĠÙĪØ±Ø³ÙĦØ§": 8657, "ĠØ¥Ø¹Ø±Ø§Ø¶": 10212, "ĠÙģØ§ÙĦØŃ": 5668, "ĠØ¨Ø¬Ø§ÙĨØ¨Ùĩ": 10028, "ĠØ³Ø¹ØªÙĩ": 9293, "ĠÙĪØ£ÙĨØ¬ÙĬÙĨØ§": 8265, "ĠØ£ÙĨÙģÙĤØªÙħ": 5507, "Ø§ÙĦÙħ": 5578, "ÙĬØ³Ø±": 4586, "ĠØ§Ø³ØªÙħØª": 6689, "ĠØ£Ø£ÙĨ": 5645, "ĠÙĬØ¬ØŃØ¯": 6371, "ĠÙģØ§Ø³": 1013, "Ø±Ø§Øª": 2836, "Ø§Ø¯ÙĤ": 7913, "ĠÙĪØºØ±ØªÙĥÙħ": 9629, "ĠØµØ¨ØºØ©": 9868, "ĠÙĪØ¹ÙĦÙĬÙĩØ§": 6240, "ĠÙģØ®ÙĦÙĤÙĨØ§": 10170, "ĠØ±ÙĪØ§Ø³ÙĬ": 2831, "ĠØ¹ÙĩØ¯ÙĩÙħ": 6717, "ĠØ°ÙĥØ±Ùī": 3749, "ĠØ¹ÙĨÙĬ": 3605, "ĠØ§ÙĦÙħØªÙĥ": 4084, "ĠÙĤØ±Ø§Ø±Ø§": 7534, "Ø±Ø¶Ø§": 2708, "ĠØºÙģÙĪØ±Ø§": 1523, "Ø¨Ø¹Ø°Ø§Ø¨ÙĨØ§": 8079, "ĠÙĬØ¬Ø±ÙĬ": 5152, "ĠÙĪØ§Ø³Ø£ÙĦ": 9172, "ĠÙĪÙĬØ«Ø¨Øª": 5988, "ÙĦØ¹": 1038, "ĠØ®Ø§ÙĦ": 549, "ĠØ§ÙĦØªÙĪØ±Ø§Ø©": 1909, "ĠÙħØ´Ø±ÙĤÙĬÙĨ": 9922, "ĠØ¨ÙĩØ§": 570, "Ø·Ø¹ÙĨ": 3739, "Ø²ÙĬØ²": 509, "Ø¸Ø±": 535, "ĠÙĪØ³Ø§Ø¡": 6387, "ĠØ¹Ø¯Ø¯": 6467, "ĠØªØ´ØªØ±ÙĪØ§": 6484, "ĠÙĤØ§Ø¦ÙĦ": 6708, "ĠØ§ÙĦØ£Ø¯ÙĨÙī": 7819, "ĠØ£Ø®ÙĦÙģ": 8650, "ĠØ£ÙģÙĬØ¶ÙĪØ§": 10000, "ĠØ¬Ø¦ØªÙĥÙħ": 5283, "ĠØ³ÙĬÙĨ": 5852, "ĠØ§ÙĦÙĪØ«ÙĤÙī": 9245, "ĠØ¯Ø®ÙĦ": 2514, "Ø¹Ø§ÙħØ§": 5003, "ĠÙĬØ£ØªÙĬ": 779, "Ø¨ÙĦÙĬ": 2176, "ĠØ±Ø³ÙĦÙĨØ§": 1895, "ÙĦØ¥": 4577, "ĠÙĪÙĤÙĪÙĦÙĩÙħ": 6031, "ĠØ£Ø±Ø¶": 1556, "ĠÙĦÙĩØ§": 902, "ĠØ±ÙĪØŃ": 2475, "Ø¹Ø¨Ø¯ÙĪÙĨ": 3012, "ĠØ§ÙĦØ¨ØµÙĬØ±": 5124, "ÙĦÙĪÙĨÙĩ": 7929, "Ø°Ø¨ØŃÙĪÙĨ": 8033, "ĠÙĬØªØ·ÙĩØ±ÙĪÙĨ": 8123, "ĠÙĬØ³ÙĪÙħÙĪÙĨ": 6299, "Ø®Ø±Ø©": 5995, "Ø±Ø¢": 626, "ĠØ±Ø¡ÙĪÙģ": 3844, "Ø§ÙĦÙĪÙĨ": 2622, "Ø¬Ø©": 7503, "ĠÙĪÙĦØ§": 150, "ĠØ§Ø¬Ø¹ÙĦ": 2727, "ÙĪØ²Ø§": 3353, "ĠØ¨Ø§ÙĦØ¹Ø¯ÙĦ": 3891, "ĠØ§ÙĦØ³": 163, "ĠÙĪØ§ÙĦØ³": 1114, "ĠÙĥÙħØ§": 711, "ØµÙĬ": 3540, "Ø§ÙģØ¸ÙĪÙĨ": 2817, "ĠÙĬØªØ¨": 8117, "ĠÙĬØ±Ø²ÙĤÙĪÙĨ": 8188, "Ø§Ø¯ÙĤÙĪÙĨ": 3612, "ĠØ§ÙĦØµØ§ØºØ±ÙĬÙĨ": 10282, "ĠØªØµØ¨Ùĥ": 8967, "ĠÙħÙĪØªØªÙĨØ§": 8184, "ĠÙħÙĪØ¹Ø¸Ø©": 6155, "ĠÙģØ¥ÙĨÙħØ§": 1145, "Ø«Ø§ÙĦ": 1454, "ĠØ¨ÙĬÙĪØª": 1537, "ĠÙģØ¥ÙĨÙĩØ§": 6105, "ĠØ§ÙĦØ²ÙĤÙĪÙħ": 10180, "Ø¹Ø§ÙĦÙī": 2298, "ÙĤØ§Øª": 1109, "ĠÙĬÙĥÙģ": 4255, "ĠØ±Ø¨": 124, "ĠØ§ÙĤØª": 2726, "ĠÙĪÙĥ": 203, "ĠÙĬØ±ÙĪØ§": 1230, "ĠØ¨Ø§ÙĦØ¹Ø°Ø§Ø¨": 3833, "Ø®Ø±Ø§Øª": 5996, "ĠØªØŃÙĪÙĬÙĦØ§": 6249, "ĠÙĪÙĬØŃÙĦ": 6756, "ĠØ£ÙĥÙĦÙĩ": 8463, "ĠØ§ÙĦØ¬Ø§ÙĩÙĦÙĪÙĨ": 9465, "ĠØ¨Ø³Ø·Ø©": 9940, "ĠÙĬØ²Ø±ÙĪÙĨ": 9049, "ĠØªØ¶": 2316, "ĠÙĬØ¶Ø±ÙĪØ§": 6748, "ĠØ±ÙĪØŃÙĨØ§": 6828, "ĠØŃØ¨Ø·": 3183, "Ø¨Ø°": 3085, "ĠÙĪØ³Ø®Ø±": 2242, "ĠØ§ÙĦÙĪØ§Ø±Ø«ÙĪÙĨ": 9346, "ĠØ¹ÙĦÙħØª": 2992, "Ø§Ø±Ø§": 1270, "Ø²ÙĬÙĦØ§": 5041, "ĠØ§ÙĦØ±ÙĬØŃ": 2925, "ÙĤØ³ÙħØ§ÙĨ": 7346, "Ø±Ø¡ÙĪÙĨ": 5395, "ĠÙĥØªØ§Ø¨ÙĬÙĩ": 8716, "ĠØ£Ø¶ØºØ§Ø«": 10030, "ÙĤØ¯Ø§Ùħ": 3636, "ĠÙĪØ£Øµ": 1028, "ĠØ¬Ø³Ø¯Ø§": 4865, "ĠØ§ÙĦØ³Ø¯Ø³": 5979, "ĠØ£Ø¨ÙĪØ§Ø¨": 2397, "ĠØ¨ÙĪØ±": 7357, "ĠØ·Ø±Ø§Ø¦ÙĤ": 10297, "ĠÙĬÙĨÙģØ®": 4989, "ĠÙĤØ§Ø¦Ùħ": 6709, "ĠØ§ÙĦØµÙĦØ§Ø©": 738, "ĠÙĬÙĩØªØ¯ÙĬ": 6952, "Ø¯Ø®ÙĦÙĪØ§": 7254, "ĠÙģØ£ÙĦÙĤÙĬ": 9430, "ĠØ¸ÙĩÙĪØ±": 5381, "ĠØ§Ø¯": 935, "ĠØ¹ÙĦÙĬÙĩÙħØ§": 2949, "ĠÙħØ³ÙĨÙĬ": 5115, "ĠØ³Ø¬": 1704, "ĠÙĪØ§ÙĦÙħØ³ØªØ¶Ø¹ÙģÙĬÙĨ": 8636, "ĠÙĪØ¢Ø®Ø±ÙĪÙĨ": 5147, "ĠØ¨Ø¯ÙĬØ¹": 9206, "ĠÙĬÙĤÙĬÙħØ§": 6431, "ĠÙĬØŃØ´Ø±ÙĪÙĨ": 6148, "ĠØ§ÙĦÙħÙĦØ£": 1706, "ĠØ´Ø±Ø§Ø¨Ø§": 9075, "ĠØ°ÙĥØ±": 668, "ĠÙĪØ§ÙĦØªÙĤÙĪÙī": 7604, "ĠØ±Ø¬Ø¹": 6416, "ĠØªØ¹ÙĦÙħ": 603, "ÙħØ±": 293, "ĠÙħÙĤØ§Ùħ": 2633, "ĠØ£ÙģØ£ÙħÙĨÙĪØ§": 9466, "ĠØªÙĤØ¨ÙĦ": 5169, "ÙĬØ§Ø¨": 2438, "ĠØ£ÙĨØ¨Ø¦ÙĥÙħ": 5833, "ĠØ§ÙĦØ£Ø±Ø¶": 230, "ĠÙĩØ¶": 7647, "ĠÙĬÙĥÙĨ": 1076, "ĠØ£Ø±ØŃØ§ÙħÙĥÙħ": 9894, "ĠØ¨ÙĬÙħÙĬÙĨÙĥ": 9758, "ĠØ´ÙĤØ§ÙĤ": 4550, "ĠÙĪØ£Ø´Ø¯": 5884, "ĠÙģØ³ÙĪØ§ÙĩØ§": 8673, "ØªÙĪÙĥÙĦ": 2445, "ĠØ£ÙĥØ«Ø±ÙĩÙħ": 985, "ĠØ±": 99, "ÙĪÙĥÙĦÙĪÙĨ": 2988, "ĠØ§ÙĦØ¨ÙĦØ¯": 4608, "Ø·Ø¹ÙĬÙĨ": 6415, "ĠØ§ÙĦØŃØ¯ÙĬØ«": 3617, "ĠÙĬÙĦÙĤØ§ÙĩØ§": 6735, "ÙĬØªÙħ": 1752, "ĠØªØ°ÙĥØ±ÙĪØ§": 7484, "ĠØ£Ø±ÙĨØ§": 8774, "ĠØ£ÙĩØ°Ø§": 8348, "ĠØªØ¯Ø±Ø³ÙĪÙĨ": 8762, "ĠØ§ÙĦØ¹Ø¯": 5584, "Ø£ØªÙħ": 5737, "ØªÙĥÙħ": 573, "Ø§Ø±Ø©": 1465, "ĠÙĪØµØ§ÙĥÙħ": 5265, "ĠØ§ÙĦÙĨÙħÙĦ": 8237, "Ø¬Ùĩ": 5769, "ĠÙĪØ§ÙĦØ¯ÙĬ": 7600, "Ø§Ø¨Ø¯ÙĬÙĨ": 7644, "ĠØ£Ø£ÙĨØªÙħ": 3380, "ĠØ£Ø¹Ø¬": 2238, "ĠÙĪØ±ÙģØ¹ÙĨØ§": 4536, "ĠÙĪØ³Ø¹Ø±": 8662, "Ø²ÙĦÙĬÙĨ": 5002, "ĠÙĨØ°Ø±Øª": 9959, "ĠØªØ®": 642, "ĠÙĪØ§ÙĦØŃØ¬Ø§Ø±Ø©": 9570, "ĠØªÙĤÙĪÙħ": 2128, "ĠØ®Ø·ÙĬØ¦": 9849, "ĠØ§ÙĦØ£ÙĪØª": 7811, "ĠØ±Ø³ÙĦ": 2382, "ĠØªÙĥÙģØ±ÙĪØ§": 5107, "ĠØ£Ø²ÙĪØ§Ø¬": 952, "ĠØ§ÙĦÙħØ«": 5890, "ĠØ£ÙĬÙĨ": 1685, "ĠØ³ÙĬØ¦Ø§Øª": 1487, "ĠÙĬØ±Ø¬Ø¹": 4226, "ĠÙģØ¬Ø§Ø¡": 4418, "Ø§Øº": 886, "Ø¨Ø§ÙĦ": 899, "ĠØ¨Ø§Ø³Ùħ": 5449, "ĠÙĬÙĤØµÙĪÙĨ": 8738, "ĠÙģØ§Ø³ØªØ¬Ø¨ÙĨØ§": 5532, "ĠÙĨØµÙĬØ¨ÙĩÙħ": 6774, "ĠØ·ÙĪÙī": 8271, "ĠØ´Ø§Ùĥ": 4875, "ĠÙĪÙĨØ¨Ø¦ÙĩÙħ": 8253, "ĠÙģÙħØ§": 532, "Ø±Ø¨ØµÙĪØ§": 4475, "ĠØ£Ø¨ÙĨØ§": 6410, "Ø³Ùī": 303, "ĠÙĬÙĦÙĤÙĪÙĨ": 6733, "ĠÙģØ¨ÙħØ§": 3740, "ĠÙĤØ§Ø¦ÙħØ©": 4466, "Ø²ÙĬØ±": 3548, "ØºØ§Ø±": 4861, "Ø§ÙģØ§": 6219, "ĠÙĦØ³Ø§ÙĨÙĬ": 9520, "Ø±ÙģÙĪØ§": 3324, "ĠØ§ÙĦØ£ÙĦÙĪØ§": 5937, "ĠØ¨Ø§ÙĦØ£": 1971, "ĠØ§ÙĦØªÙĪØ¨Ø©": 5242, "ĠÙģØ§ÙĨØ¸Ø±": 2141, "Ø±Ø§ÙĪØ¯": 7832, "ĠØ¨Ø£ÙĨØ§": 8288, "ĠØ§ÙĦØ£ÙħÙĪØ±": 2155, "ĠØ§ÙĦØªÙĨØ§": 7132, "Ø¬Ø²ÙĪÙĨ": 5776, "Ø³Ø§ÙĨ": 1621, "ĠØ³Ø§Ø¨": 3563, "ÙĦÙĪÙĨ": 178, "ĠØºØ§ÙģÙĦÙĬÙĨ": 5432, "ĠØºØ¯Ø§": 4961, "ĠÙĨØªÙĦÙĪÙĩØ§": 6961, "ØŃØ§Øª": 5732, "ÙĥØ§Ø±Ø§": 8766, "ØŃÙĥÙħÙĩ": 8928, "ĠØ§ÙĦÙĤÙĬÙĪÙħ": 6045, "ĠÙĤØ§ÙĨØªØ§Øª": 9703, "ĠØ®Ø§Ø´Ø¹ÙĬÙĨ": 6831, "ĠÙĪÙĥÙĦÙħ": 4951, "ĠÙģØ¬Ø§Ø¡ÙĪÙĩÙħ": 9902, "ĠÙģÙĪÙĤÙĩØ§": 6543, "ĠÙĪØ§ÙĦØ¥ÙĨØ¬ÙĬÙĦ": 3039, "ĠØ§ÙĦØ£ÙĨØ¹Ø§Ùħ": 2018, "ĠÙĨÙģ": 992, "Ø·ÙĪÙĨ": 2488, "ĠØªØ±Ø¬Ø¹": 3261, "ĠØ«ÙħØ§ÙĨÙĬØ©": 6971, "ÙħÙĦØ§ÙĤ": 7097, "ĠÙĬ": 67, "ĠØ§Ø³ØªØ·Ø¹Øª": 6859, "ĠÙħØ³ØŃÙĪØ±Ø§": 6316, "ÙĥÙĪÙĨ": 257, "ĠØ¥ÙĬÙħØ§ÙĨÙĩØ§": 6636, "ĠØªÙģØ¹ÙĦÙĪÙĨ": 3779, "ĠØªÙĥÙĪÙĨÙĪØ§": 1490, "ĠØŃØ³Ø¨ÙĩÙħ": 9298, "ÙĩÙĨÙĪØ§": 4978, "ĠØ·ÙĦÙĤØªÙħÙĪÙĩÙĨ": 9621, "ĠÙħØ³Ø§Ùģ": 6314, "ĠÙħØµÙĬØ±Ø§": 6585, "ĠØªØ§ÙĦÙĦÙĩ": 2875, "ĠÙħØ³ÙĪÙħØ©": 8520, "ĠØ§ÙĦØ¬": 326, "ĠÙĪÙĦÙħ": 831, "ĠØ³ÙħØ¹": 1027, "ĠØªØ§Ø¨ÙĪØ§": 2601, "ĠÙĨØ³Ø§Ø¦ÙĩÙħ": 6454, "ĠØ£Ø¨ÙĦØº": 2852, "ĠÙĦØªØ¨ÙĬÙĨ": 6341, "ĠÙħØ¯ÙĬÙĨ": 2446, "ĠØ³Ø¨ÙĦ": 7662, "Ø±Ø¨Ø©": 8053, "ĠÙģØªØ®": 8315, "ØªØ§Ø¨": 235, "ÙĨÙĩØ§": 2618, "ØºÙĪØ§": 1009, "ĠÙĬØ±Ø¬ÙĪÙĨ": 2375, "ĠØ¨Ø±Ø¨Ùĥ": 4410, "ĠÙĥØ±Ø©": 5240, "Ø³ÙĨØ§Øª": 5658, "Ø±Ø§ÙĩØ§": 5953, "ĠÙħØ´ÙģÙĤÙĬÙĨ": 7042, "ĠÙĬÙĦÙħ": 7320, "ĠØ§ÙĦØ®ÙĬØ±Ø©": 9304, "ÙħÙĬ": 330, "ĠÙĨØ²ÙĦÙĨØ§": 3158, "ĠÙģØ§Ø¶Ø±Ø¨": 10053, "ĠÙĨØ¤ØªÙĬÙĩ": 9608, "ÙħØ§Ùħ": 2871, "ÙĦÙĪØ§Øª": 4965, "ĠØ£Ø¹": 502, "ĠØ§ÙĦØ¬Ø§ÙĩÙĦÙĬØ©": 5413, "ĠÙĪØ¥Ø³ØŃØ§ÙĤ": 2705, "ĠÙĬÙĦØ¨Ø«ÙĪØ§": 6865, "ĠÙĪØ£ÙħÙĦÙĬ": 9186, "ĠÙħØ³ØªÙħØ±": 10012, "ĠØ§ÙĦØµØ§ÙĦØŃÙĬÙĨ": 1598, "Ø«ÙĬ": 2900, "ĠÙģØ§Ø®Ø±Ø¬": 5409, "ĠÙħÙĥØ±ÙħÙĪÙĨ": 6665, "ĠÙĨÙĤØ±": 7625, "ĠÙĪÙħØ±": 7144, "ĠÙĦÙĬÙĤØ·Ø¹": 9675, "ĠÙ": 46, "ØªØ¨Ø°Øª": 8705, "Ø¹Ø°Ø¨ÙĩÙħ": 3948, "ĠØ¹ÙĦÙĤØ©": 4737, "ĠØ¨Ø§ÙĦÙĨÙĩØ§Ø±": 9861, "ĠÙĬÙĩØ¯": 1690, "ĠÙģØ£Ø®Ø±Ø¬ÙĨØ§": 3869, "ĠÙĥÙĦ": 241, "ĠÙĪØ§ÙĦÙĨØ³Ø§Ø¡": 7608, "ĠÙĪØ¹Ø°Ø¨": 8360, "ĠÙĪÙĪØ¶Ø¹": 5308, "Ø¸ÙĨÙĪÙĨ": 7829, "ÙĪØ¨": 270, "ÙĥØ§Ø©": 1080, "ĠÙĪÙĨØ¬": 5028, "Ø£Ø®Ø°ÙĪØ§": 7421, "ĠÙĪØ°ÙĦÙĥ": 2052, "ÙĦØ§Ø©": 660, "ĠÙĬØ£": 345, "ÙĪÙħØ§": 2834, "ĠÙĤÙħÙĬ": 4040, "ÙĬØ«": 531, "ĠÙĦÙĬØ¨ÙĦÙĪÙĥÙħ": 4945, "ĠÙĪØ§ÙĦØ£ÙĨØ¹Ø§Ùħ": 3853, "ĠÙĥÙĬØ¯ÙĩÙĨ": 9258, "ĠÙĪÙĬÙĪÙĨØ³": 7905, "ĠØ³Ø±Ø§Ø¹Ø§": 9423, "ĠØ£Ø®Ø§Ùģ": 1535, "ĠÙħØ³ØªÙĥØ¨Ø±ÙĪÙĨ": 8747, "ĠØ¸ÙĦÙħÙĩ": 8763, "ĠÙģØ§ØªØ¨Ø¹ÙĪÙĨÙĬ": 10312, "Ø¨ÙĪ": 3925, "ĠÙħÙģØ±ÙĪØ¶Ø§": 10043, "ĠÙģØ§ÙĨØª": 3770, "Ø¯ÙĪØ³": 7256, "ĠØ£Ø¨ÙĨØ§Ø¡ÙĥÙħ": 5393, "ĠØ§ÙĦØ±Ø§Ùĥ": 5593, "ĠØ·Ø±ÙĬÙĤØ§": 10133, "ĠÙĬØªÙĪÙĥÙĦ": 6121, "Ø¶ÙĬØ§": 5815, "ĠØŃØ³Ø±": 4855, "ĠÙģÙĦÙĬÙĨØ¸Ø±": 5527, "ĠÙģØ§Ø³ØªÙģØªÙĩÙħ": 8937, "ĠÙĪÙĬØªØ®Ø°": 5987, "ĠÙĪØ§ÙĦØ¨Ø§ÙĤÙĬØ§Øª": 10233, "ĠØ§ÙĦÙħØªÙĥØ¨Ø±ÙĬÙĨ": 6965, "ĠÙħÙĦÙĥÙĪØª": 5194, "ĠØ§ÙĦØ´Ùĩ": 5066, "ĠÙĪÙĬÙģØ¹ÙĦÙĪÙĨ": 10098, "ĠÙģØ±Ø¬ÙĩØ§": 10010, "ĠÙĨÙĥØ§": 7624, "ĠÙģÙĥÙĬÙģ": 1830, "ĠØ¨Ø±ØŃÙħ": 6508, "Ø¨Ùĩ": 1498, "Ø¸ÙĦÙħÙĪØ§": 4330, "ĠØ¨Ø´ÙĬØ±Ø§": 5304, "Ø´Ø±ÙĩÙħ": 2100, "ĠØ§ÙĦÙĪØ§": 1754, "ÙĦÙĤÙĪÙĨ": 4930, "ĠØ§ÙĦÙĦØ¹": 5591, "ĠÙĪØ£Ø³Ø±": 5879, "Ø³Ùģ": 919, "ĠÙĬÙĪÙħØ§": 1831, "ÙģÙĩØ§": 3505, "ĠÙģÙĬÙĪÙħ": 4767, "ĠØ¹Ø¨Ø³": 7450, "ĠÙĬØ£ÙħØ±ÙĥÙħ": 4522, "ĠÙĦÙĦØ¯ÙĬÙĨ": 6134, "ØªÙĬÙĨØ§": 564, "ĠØªÙĤ": 579, "ĠØ¹Ø¨Ø§Ø¯ØªÙĩ": 6408, "Ø²Ø¹ÙĪÙĨ": 4053, "ĠÙģØ³ÙĨÙĬØ³Ø±": 8674, "ĠÙĪÙĬØŃØ¨ÙĪÙĨ": 9396, "ØªØ§ÙĨ": 2847, "ĠØ´Ø¦ÙĨØ§": 4492, "ĠØ¨Ø§ÙĦØ¥": 2349, "ĠÙĤØ§ØªÙĦÙĩÙħ": 10072, "ĠÙħØ´": 1614, "ĠØ¨Ø¬ÙĨ": 4709, "ÙĬÙħØ§ÙĨÙĩÙħ": 5089, "ĠØ§ÙĦÙħÙĪÙĦÙī": 5894, "ĠØ§ÙĦØ£Ø³Ùģ": 5940, "Ø¤Ø§Ø¯": 4128, "ĠÙĪÙĦÙĬÙĬ": 8546, "ĠÙĪÙĤØª": 6026, "ĠÙģÙĤÙĪÙĦØ§": 6357, "ĠÙĪÙĦØ³": 4121, "ĠÙĪÙħÙĪØ³Ùī": 4283, "ĠÙħØ±Ø¶Ø§Øª": 4425, "ĠÙĪØ²": 821, "ĠÙĨØ¹Ø¨Ø¯": 3159, "Ø®ÙĦÙĬ": 5796, "ĠÙĪÙĦÙĥÙĨØ§": 6263, "ĠÙĦÙĨÙģØª": 8374, "ĠÙĬØ³Ø£": 4297, "Ø´Ø§Ø¡": 5825, "ÙĤÙĬÙĨ": 332, "ĠØ¥Ø®ÙĪØ§": 2655, "ĠØ£ÙĪÙĦØ¦Ùĥ": 398, "ØªÙĨØ§ÙģØ³": 8733, "ĠÙĬØ¹ÙĦÙħÙĪÙĨ": 568, "ĠÙħÙģØ¹ÙĪÙĦØ§": 3458, "ĠÙĬØ¶ÙĬ": 7324, "Øª": 58, "ĠÙħÙĦØ¬Ø£": 10169, "Ø§Ø¯ÙĬØ«": 4148, "ĠÙħÙĬØª": 3454, "ĠÙĪØ§ØªØ®Ø°ÙĪØ§": 3729, "ĠØ§ÙĦÙħØ§Ø¡": 1678, "ĠÙĥÙĦÙħØ§Øª": 6758, "ĠØ¨Ø§ÙĦØ£ÙĨØ«Ùī": 10095, "ÙħÙĬÙĦ": 5565, "ĠÙĨÙģØ³Ø§": 2011, "ĠØ§ÙĦØ´ÙģØ§Ø¹Ø©": 4258, "ĠÙģÙģØ²Ø¹": 10047, "ĠÙĨØ´": 1115, "ĠØ¨Ø§Ø±Ø¦ÙĥÙħ": 9754, "ĠÙĦÙĨØ±Ø§Ùĥ": 6242, "ĠÙĪØ£Ø·ÙĬØ¹ÙĪØ§": 1964, "Ø¹ÙĩØ§": 5637, "Ø¨Ø§Øª": 7188, "ĠØ«Ø§ÙĨÙĬ": 7922, "ĠØŃÙĪÙĦÙĥÙħ": 9710, "ĠØ´Ø¦ØªÙħØ§": 9909, "ĠÙĪØ¨Ø§Ø¡ÙĪØ§": 8486, "ĠÙĬØ¤Ø°ÙĪÙĨ": 5187, "ÙĪØ±ÙĩÙħ": 1228, "ĠÙĪØ§ÙĦØ·ÙĬØ¨": 9488, "ĠÙĪØŃØ±Ùħ": 6883, "ĠØ¨Ø§ÙĦÙĤÙĪÙĦ": 4131, "ĠØ§ÙĦØ¥ÙĬÙħØ§ÙĨ": 3309, "ĠÙģØ¯Ø¹ÙĪÙĩÙħ": 7297, "Ø§Ø±ÙĩØ§": 4913, "ĠÙĪÙĬØ£ÙħØ±ÙĪÙĨ": 5389, "ĠÙĬØ£ØªÙĩÙħ": 6222, "ĠÙħØºØ±Ùħ": 9748, "ĠØ®Ø§Ø¦": 3585, "Ø¬ÙĦØ§": 7502, "ÙĪÙĬÙĨØ§": 7108, "ÙĪØ§ÙĦ": 559, "ÙĩØ±ÙĪÙĨ": 3915, "ĠÙĪØ²Ø§Ø¯": 6517, "ĠÙĦØ¦ÙĨ": 1185, "ĠØ°ÙĨÙĪØ¨ÙĥÙħ": 3867, "ĠÙĥÙĦÙħØŃ": 9078, "ĠÙĦØ´Ø±Ùĥ": 7307, "ĠÙĬØ®ØµÙģØ§ÙĨ": 10304, "ĠØ§ÙĦÙĤØµ": 3218, "ĠØ¢ÙħÙĨÙĪÙĨ": 8036, "ĠÙĬØ¤Ø¯Ùĩ": 8723, "ÙĤØ¨ÙĪØ§": 5700, "ĠÙĦØ¯ÙĬÙĩ": 9047, "ĠØ±Ø³": 353, "ĠÙĬÙĥØ§Ø¯": 2751, "ÙĪØŃØ§": 4292, "ĠÙĨØ¹ÙħØ©": 1833, "ØŃÙħÙĬÙĨ": 3507, "ĠÙħÙĥØ§ÙĨ": 1380, "ĠÙĪØ±Ø¯": 6290, "ÙĪØ±Ø«": 2527, "ĠÙĪØ§ÙĦÙĨØ¨ÙĬ": 4360, "ĠØªØ±ÙĥØª": 9188, "ÙĪØ¬": 586, "ĠÙħØ±ÙĬ": 2179, "ĠØ§ÙĦØ¨ÙĬØª": 2273, "ĠÙĬØªÙĦÙĪ": 3244, "ĠØ£ÙĨÙĬØ¨": 7583, "ĠÙĤÙĪÙĦØ§": 1565, "ĠØ®ÙħØ³": 4103, "ĠØ§ÙĦÙģØ±ÙĬÙĤÙĬÙĨ": 6775, "Ø¨ÙĦØº": 1293, "Ø³Ø±Ø§Ø¦ÙĬÙĦ": 894, "ĠÙĨÙĥÙĬØ±": 4406, "ĠØ¹Ø°Ø§Ø¨ÙĩØ§": 8191, "ĠÙģØªØ±Ùī": 4252, "ĠØ¨ÙĦØºÙĪØ§": 8332, "ĠØ§Ø´ÙĥØ±": 9305, "ĠÙĦØ±Ø¨Ùĥ": 9352, "ĠÙħÙĪÙĦØ§Ùĩ": 9554, "ĠÙĪÙĬØ®Ø±Ø¬": 4140, "ĠÙģØ¥": 193, "ĠÙĪØ£Ø¨ÙĨØ§": 5882, "ĠØ´ÙĥØ±ØªÙħ": 9968, "ĠÙĪØ§ÙĦÙħÙĤÙĬÙħ": 8634, "ĠØ¢ÙĦØ§Ùģ": 7711, "ĠØ°ÙĪÙĤÙĪØ§": 3034, "ĠØ£ÙĩÙĦÙĩØ§": 1820, "ĠÙĤØªÙĦÙĪÙĩ": 9316, "ĠÙĨÙĨØ²ÙĦ": 9651, "ĠÙĬØ³ØªØ¬ÙĬØ¨": 6282, "ĠÙĪÙħØªØ¹": 8436, "ĠÙģØ¯ÙħØ±": 9517, "ĠÙĨØªØ®Ø°Ùĩ": 9960, "ÙħÙĬØ©": 6214, "ĠÙģØ±ÙĤÙĪØ§": 8443, "ĠÙģØ§Ø±ØªÙĤ": 6728, "ĠÙħØº": 2056, "ĠØªØ±ÙĬØ¯ÙĪÙĨ": 4239, "ÙĤØ§ÙħÙĪØ§": 1997, "Ø¶Ø±Ø¨": 3545, "ĠØ§ÙĦÙĬØªÙĬÙħ": 4561, "ĠÙĪÙĬØ³": 1800, "ĠÙĬØªÙĪÙĦÙĩÙħ": 6838, "ĠÙĬØ£Ø¨": 8297, "ĠÙħØ±Øµ": 8505, "ĠÙħØµÙģÙĪÙģ": 9045, "ĠÙĪØ§ÙĦÙĩØ¯ÙĬ": 7597, "ĠÙħÙĥØ§ÙĨØªÙĥÙħ": 5313, "ĠÙħØŃØ¬ÙĪØ±Ø§": 9074, "ĠØ§ÙĦØ«ÙĪØ§Ø¨": 9276, "ĠÙĪØ§ÙĦØµØ§Ø¨Ø¦ÙĬÙĨ": 10021, "ĠØ±Ø·": 7558, "ĠÙĪÙĦÙĨØ¬Ø²ÙĬÙĨ": 5246, "ĠØ¬Ø§Ø«ÙħÙĬÙĨ": 4555, "ĠÙĬÙĤÙĦØ¨": 8736, "ĠØ´ÙĩÙĪ": 4873, "ĠÙĦÙĦØ±Ø¬Ø§ÙĦ": 8146, "ĠØ¨Ø§ÙĦØ¹Ø¯ÙĪØ©": 9668, "ÙĤØ¹Ø¯": 5697, "ĠØ®Ø§Ø³": 5925, "ĠÙħØªÙĬÙĨ": 8799, "ĠÙĨØ¨Ø§ØªÙĩ": 9795, "ĠÙģØµ": 1435, "ĠÙĬØ¨Ø¯": 1436, "ĠÙĪÙĬÙĦÙĨØ§": 3610, "Ø¨ÙĪØ©": 3929, "ĠÙĬÙħØ´ÙĪÙĨ": 4366, "ĠÙģÙĦØ¨Ø«": 6181, "ĠØ§Ø³Øª": 471, "ĠØ¨ØºØ§ÙģÙĦ": 2776, "ĠØ«ÙħØ§": 4149, "ĠÙĬÙĨØ§ÙĦÙĩÙħ": 8140, "ĠØ£Ø¬ÙĦÙĩ": 8406, "ĠØ§ÙĦÙĤØ§Ø¹Ø¯ÙĬÙĨ": 5454, "ĠØ®Ø±Ø¯": 7790, "ĠØ¥ÙĬØ§ÙĨØ§": 9454, "ØŃØ¯ÙĪÙĨ": 3126, "ĠÙĬÙģØ±": 2187, "Ø§Ø´ÙĬØ©": 9010, "ĠØ§ÙĦØ¹ÙĤØ§Ø¨": 1805, "ĠØªØŃØ·": 8396, "ĠØ£Ø¬Ø§Ø¬": 8408, "ĠÙĦÙĤÙĪÙĦ": 4665, "ĠÙĪÙĬØ±Ø³ÙĦ": 5319, "Ø§ØªÙĦ": 1703, "ĠÙĬØ¨ÙĬÙĨ": 1622, "Ø¶ÙĪØ¯": 5816, "Ø¯Ø®ÙĦÙĨÙĩÙħ": 9214, "ĠÙĪØ±Ø¶ÙĪØ§ÙĨØ§": 6776, "ÙĤØ¨": 1391, "ĠÙħÙĪÙĦØ§": 2373, "ÙģØ§ÙĥÙħ": 8388, "ĠØ®ÙģÙĬ": 7784, "ĠØ¨Ø¬Ø§ÙĨ": 5376, "ĠÙĪØ§ÙĦÙħÙĦÙĥ": 8633, "ĠØ¨ÙĬ": 682, "Ø¯ÙĩÙħ": 1762, "ĠÙĪØ£Ø¯Ø¨Ø§Ø±": 5883, "ĠØ·Ø§Ø¦ÙģØªØ§ÙĨ": 9100, "ÙĤØªÙĦ": 1532, "ĠØ¹ÙĦÙĬÙħØ§": 1403, "ĠÙħØ°": 3449, "ĠÙĬØ¨ÙĬØªÙĪÙĨ": 7044, "ĠÙĬØ¬ØŃØ¯ÙĪÙĨ": 3310, "Ø¹Ø«": 5638, "ĠÙħØµÙģØ±Ø§": 6586, "ÙĨØ¢ÙĨ": 7088, "ĠÙĥÙĦÙĩÙħ": 6095, "ĠÙĬØ¹ÙģÙĪ": 8382, "ÙĥØ¨Ø±ÙĪÙĨ": 2055, "ĠÙĬØ¹Ø¨Ø¯": 2754, "ĠÙĩÙĬ": 827, "ĠÙĪÙĬÙĦÙĥÙħ": 7894, "ĠØ§ÙĦØ°ÙĬÙĨ": 135, "ÙĦÙĩØ§": 620, "ĠÙĪÙĩÙħ": 384, "ĠØ¥ÙĦÙĬÙĥÙħ": 1097, "ÙĨØ§Ø¡": 1354, "ĠÙĪØ¹Ø§Ø¯Ø§": 8364, "ĠÙĪØ¢ØªÙĬØªÙħ": 8622, "ĠÙĪÙĦØ¯Ø§": 2085, "ĠØ§ÙĦÙħÙĩØ§Ø¬Ø±ÙĬÙĨ": 7747, "ÙħØ±Ø§": 3423, "ĠÙĪØ¸ÙĦÙĦÙĨØ§": 10022, "ĠÙĩÙĪØ¯": 4976, "ĠØ´ÙĬØ¨Ø§": 8057, "ÙģØŃ": 4711, "ĠÙħÙĥÙĨØ§": 6500, "ĠÙĪØ§ÙĦØ¬Ø¨Ø§ÙĦ": 3859, "ĠØ¹Ø§ØµÙģ": 9766, "ĠØ§ÙĦÙĦØ¤ÙĦØ¤": 10181, "ĠØ§ÙĦØ¸ÙĦ": 6286, "ĠÙĨØ²Øº": 6738, "ĠÙĦÙĦØ¸Ø§ÙĦÙħÙĬÙĨ": 2371, "ĠÙĪØ£Ø±Ø¬": 3177, "ĠÙĪØ¢Ø«": 6360, "ĠØ§ÙĦÙĪÙĩØ§Ø¨": 7039, "ĠÙĦØ¬Ø¹ÙĦÙĥÙħ": 9936, "ĠØ¬ÙĩØ§Ø¯Ø§": 10088, "Ø²ÙĤ": 488, "ĠÙĬØ£ØªÙĪÙĥ": 5392, "ØŃØ²": 1777, "ÙĪØµ": 4590, "ĠÙĤØ¶ÙĬ": 2879, "ÙħÙĨ": 96, "Ø¨ÙĬÙĩ": 2095, "Ø¦Ø³": 1006, "ĠÙĤØ¶Ùī": 2470, "ĠÙĨÙĤØµØµ": 9655, "ĠÙĦØ§": 133, "ĠØªÙĤÙĪÙħÙĪØ§": 9467, "ĠØ¨Ø§Ø¨Ø§": 7373, "ĠØ§ÙĦØ¹Ø¯Ø§ÙĪØ©": 5536, "ĠØ§ÙĦØ´ÙĬØ§Ø·ÙĬÙĨ": 2129, "ĠÙĪØ£ÙĦÙģ": 7718, "ĠÙģØªÙĬÙħÙħÙĪØ§": 8329, "ĠÙĬÙģØªÙĬÙĥÙħ": 8741, "ĠØ§ÙĦØ³ÙħØ§ÙĪØ§Øª": 315, "Ø¸ÙĦÙħ": 605, "ĠØ£Ø¬Ø¯": 4639, "ÙĤØµÙĩØ§": 9219, "ĠØ¨Ø§ÙĦÙĬÙĪÙħ": 7851, "ĠÙĨÙħÙĦÙĬ": 9604, "ĠØ°Ø±ÙĬØªÙĩ": 5386, "Ø¬Ø§": 2072, "ĠØ£ÙĨÙĩ": 1319, "ØŃØ§Ø¬": 7411, "Ø¶ÙĪØ§": 1136, "ĠØ³Ø§ÙĤ": 5858, "ĠØ¬Ø¨ÙĦ": 5917, "ĠÙĪØ§Ø´ÙĥØ±ÙĪØ§": 4471, "ĠÙĪÙĤÙĩÙħ": 7972, "Ø³ÙĨØ©": 1258, "ĠØ§ÙĦØ²Ø¨Ø±": 8898, "ÙĪØ±ÙĪÙĨ": 7107, "ÙĤÙĨ": 3486, "ĠÙĪØ£Ø¨ÙĤÙī": 3387, "ÙĤØ·Ø¹ÙĨ": 5701, "ĠÙĦÙħØŃ": 6102, "ĠÙĪØ¥ÙĦØ§": 7823, "ĠÙĤØ±Ø¢ÙĨØ§": 2672, "ĠØ£Ø°ÙĦÙĥ": 7235, "Ø¨Ø§ÙĬØ¹": 8373, "ĠÙĦØ¹ÙĦÙĩ": 6438, "ĠØ£ØµØŃØ§Ø¨": 695, "ĠÙĪÙĬÙħ": 1609, "ĠØ§ÙĦØ°": 113, "Ø§ÙĦÙĪØ§": 1927, "ĠØ§Ø±Øª": 5368, "ĠØ¹ÙĤÙĬÙħ": 7442, "Ø·Ùħ": 2336, "ĠØºØ§ÙĦØ¨": 6079, "ĠØ§ÙĩØªØ²Øª": 9401, "Ø²ÙĪØ§Ø¬": 802, "ĠØ³Ø¨ØŃØ§": 8927, "ĠØ§ÙĤØ±": 4948, "Ø¬Ø¹": 796, "ĠÙĪÙĥØ°ÙĦÙĥ": 980, "ĠÙĪØ§ÙĦÙĬÙĪÙħ": 1360, "ĠÙĬØ¬Ø¹ÙĦÙĩ": 6373, "ĠÙĬØ¨Ø¯Ø¦": 6668, "ĠÙĬØ·Ø¹": 3114, "ÙĥØ¨Ø±ÙĬÙĨ": 9246, "ĠØ£ÙħÙĩØ§": 2513, "ĠØ§ÙĦÙĤÙĪØ§Ø¹Ø¯": 7998, "ĠØªØ¹Ø¯ÙĦÙĪØ§": 5439, "ĠÙĬØªØ±ÙĤØ¨": 8124, "ĠØ¨Ø¢ÙĦÙĩØªÙĨØ§": 9286, "ĠØªÙĦÙĩ": 5752, "ĠÙĪØ¹Ø¯Ø§": 3319, "ĠØ³ÙĥØ±": 7661, "Ø¨Ø±Ø§": 525, "ĠØ£Ø¨ÙĪÙĩÙħ": 8701, "ĠÙĨØ°ÙĬØ±Ø§": 5249, "Ø§Ø¨": 111, "Ø°ÙĨ": 512, "ĠÙħØºÙĨÙĪÙĨ": 9446, "ĠÙĦØ¨Ø«ØªÙħ": 3059, "ĠØ§ÙĦÙħØ´Ø±ÙĥÙĬÙĨ": 1322, "Ø³Ø±ÙĬÙĨ": 1474, "ĠÙĪØ°Ø±ÙĬØ§Øª": 5408, "ĠÙħÙĦÙĥÙĩ": 6459, "ÙģØ§Ø²": 7401, "ĠÙģØµØ¨Ø±": 9216, "ĠÙĪØ¨Ø¯": 5600, "Ø«ÙĬÙħ": 7696, "ĠØªØ¤ØªÙĪÙĨ": 9254, "ĠÙĪØªÙĪÙģÙĨØ§": 9987, "ĠÙĪÙħ": 409, "ĠØ¬Ø¦ÙĨØ§": 5282, "ĠÙħØ£ÙĪØ§ÙĩÙħ": 3944, "ĠÙĪÙĬÙĥ": 3205, "ĠØ§ÙĦÙħØµÙĬØ±": 1362, "ĠÙĪÙĨØ¬Ø¹ÙĦ": 5032, "ĠØ³ØªØ¬Ø¯": 5508, "ĠØŃØ§ÙģØ¸ÙĬÙĨ": 6930, "Ø¨Ø±ÙĪØ§": 769, "ĠØ±Ø³ÙĦÙĩÙħ": 2383, "ĠØ§ØªØ¨Ø¹ÙĪØ§": 2260, "ĠØªÙģÙĦØŃÙĪÙĨ": 2409, "ÙĩØ§Ø¯Ø©": 1509, "ĠÙĪØ£ÙĦÙĤÙĬÙĨØ§": 5384, "ĠÙĤÙĨ": 5784, "ĠØªÙĪØ§Ø¹Ø¯": 7498, "ĠÙĤÙĬØ§Ùħ": 7532, "ĠÙĤØ¯Ùħ": 4217, "ĠÙħØ±ØŃØ¨Ø§": 8509, "ĠÙĪÙĦÙĤØ§Ø¡": 9858, "ĠØ¨Ø¢ÙĬØ§Øª": 506, "ÙĪØ³": 1061, "ĠÙħØ³ÙĦÙħÙĪÙĨ": 2033, "ĠÙĦØ³Ø§ÙĨ": 3481, "ĠØ£Ø®Ø±Ø¬ÙĪØ§": 4413, "ĠÙģÙĦØ¹": 5018, "ĠÙĨØ¨Ø±": 7617, "ĠØ¨Ø¬Ø§ÙĨØ¨": 10027, "ĠØ¨Ø±ØŃÙħØªÙĥ": 10155, "ÙĬØ¨Ø©": 1469, "Ø¬Ø¹ÙĦÙĩ": 3021, "ĠØ£ÙĥÙĨØ©": 5101, "ĠØ£Ø·Ø¹": 5644, "ĠØ§ÙĦØ¹ÙĤØ¨Ø©": 7967, "ĠÙĬØºØ´ÙĬ": 8807, "ĠØ¸Ø§ÙĦÙħÙĬ": 9679, "Ø²Ø¹ÙĪØ§": 7573, "ĠÙĪÙĦÙĬØ²ÙĬØ¯ÙĨ": 10305, "ĠÙĪÙĦØ¤ÙĦØ¤Ø§": 7841, "ĠÙĦÙĦÙĤ": 3479, "ĠØªÙĪØ§Ø¨": 7482, "ĠÙĪØ£Ø®ÙĬ": 9370, "ÙĪÙĩÙħØ§": 4592, "ĠØŃØ±": 816, "ĠÙħÙĬØ«Ø§ÙĤØ§": 6654, "ĠÙģÙĬÙĨ": 1502, "ĠØ§ÙĦÙģØ³Ø§Ø¯": 3897, "ĠÙħØ¹Ø±ÙĪÙģ": 2229, "ĠÙĪÙĬØªØ¨Ø¹": 7898, "ĠØ®Ø±Ø¬": 2344, "ĠØ§ÙĦØ¯ÙĬÙĨ": 845, "ĠØŃØ¬Ø§Ø¨": 5317, "ĠÙĪÙĤÙģÙĪØ§": 7977, "Ø¨ØŃ": 560, "ĠÙĤØ±ÙĬØ¨": 2025, "ĠØ£ÙĬØŃØ³Ø¨": 4986, "ĠÙģÙĤØ¯": 700, "ĠÙĬØŃØ§ÙĪØ±": 8173, "ĠÙģØ³Ø§Ø¯Ø§": 6393, "Ø§ÙĦ": 52, "ĠØ®Ø§ÙĦØ¯ÙĪÙĨ": 1339, "ĠÙĬØµÙĦÙĪØ§": 8781, "ĠÙħØºÙĦÙĪÙĦØ©": 9447, "Ø¹ÙĦÙĩ": 2850, "Ø§Ø¨ÙĤÙĪÙĨ": 5847, "ĠØªØ¬Ø¹ÙĦÙĨØ§": 6347, "ĠØ§ÙĦØºÙģÙĪØ±": 2389, "ĠÙģÙĪØ§": 4652, "ÙĪØ¬Ø³": 6407, "ĠÙĬØ¶ÙĦÙĩ": 8997, "ĠÙĪØ§ÙĦØ±ÙĥØ¹": 10075, "ĠÙĦÙĪØ·": 1732, "ĠÙĪØ§ÙĦØµØ¨ØŃ": 9166, "Ø§Ø¯ÙĤÙĬÙĨ": 817, "ÙĥÙĬÙĨ": 1758, "ĠÙĬØ¬ÙħØ¹ÙĪÙĨ": 6374, "ĠØ£ØºÙĨÙĬØ§Ø¡": 6614, "ĠÙĩÙĪ": 236, "ĠÙģØ§ØªØ®Ø°": 4384, "ĠÙħÙĦØŃ": 7207, "ĠØ¹ÙĩØ¯": 1693, "Ø°ÙĥØ±ÙĬÙĨ": 8428, "ĠØªÙħØªØ¹": 9564, "ØªÙħÙĪÙĩÙĨ": 2701, "ĠØ®ÙĦÙģ": 1196, "ĠÙĪØ§ÙĦØ¯ÙĪØ§Ø¨": 10234, "ĠØ´ÙĩØ¯ÙĪØ§": 9146, "ĠÙĬØ¬ØªÙĨ": 8632, "ĠØ£ÙģØª": 3271, "ØªØ±ÙĪØ§": 2292, "Ø¨ÙĨØ§": 1612, "Ø¨Ø¹Ø«": 996, "ĠÙħÙĤØ·": 7209, "ĠØ¨Ø§ÙĦÙħØ¬Ø±ÙħÙĬÙĨ": 9264, "ĠÙĦØ£ÙĨØª": 8498, "ĠØ¨Ø°ÙĥØ±": 4706, "ĠÙĪØ§ØªØ¨Ø¹ÙĪØ§": 2419, "ÙĦØŃÙĬÙĨ": 6363, "Ø®Ø°ÙĪØ§": 807, "ĠÙĦÙĨÙĨØµØ±": 8375, "ĠÙħØªÙħ": 4620, "ĠÙħØªØ§Ø¨": 7201, "ĠØ¹Ø§ÙĤØ¨": 9026, "ĠØ®Ø±Ø¬Ø§": 9537, "ÙĨØª": 434, "ØŃØ©": 3506, "ĠØ¨Ø¬": 1773, "ĠÙĪØ¹ÙĬÙĪÙĨ": 2968, "ĠØ£ÙĪØ²": 4134, "ĠØ®Ø´ÙĬ": 4869, "ĠÙĬØ³Ø¨ØŃÙĪÙĨ": 3396, "ĠØªÙģØª": 3523, "ĠÙĦØ£ÙĪÙĦ": 8497, "ĠØ¨Ø°ÙĨØ¨ÙĩÙħ": 9414, "ÙĨØ³Ø§ÙĨ": 686, "ĠØ¬Ø¯Ø§ÙĦ": 9842, "ĠÙĪØ§ÙĦÙĨØ¨ÙĪØ©": 6490, "ĠØ´Ø·Ø±Ùĩ": 9852, "ĠÙĪÙĬØ³ØªØŃÙĬÙĪÙĨ": 6649, "ĠÙħØ·ÙħØ¦ÙĨ": 7215, "ØªÙĤÙĪØ§": 2291, "ĠØ§Ø°ÙĩØ¨": 4179, "ĠØ²Ø±": 3693, "ĠØ¨ÙĪØ§ÙĦØ¯ÙĬÙĩ": 5516, "ĠÙĦÙħÙĬÙĤØ§ØªÙĨØ§": 10117, "ĠÙħØªØ±Ø¨Øµ": 8802, "ĠØ²Ø§Ø¯ÙĩÙħ": 6901, "ĠÙĦØŃÙĤ": 4666, "Ø§Ø±ÙĥÙĨØ§": 3817, "ÙħÙĪØ§": 874, "ĠØ¨Ø§ÙĦØ¢ÙĬØ§Øª": 7850, "ĠØ¥ÙĨÙĩØ§": 1860, "ĠÙħØ¹Ø°Ø¨ÙĩÙħ": 8103, "Ø±ÙĬØ§Øª": 3224, "ĠÙģÙĨØ¬ÙĬÙĨØ§Ùĩ": 6577, "ĠÙħÙĨØ§Ø¹": 8963, "ØµÙĪØ§": 2676, "ĠÙħØ§ÙĦØ§": 3094, "ĠØ§ÙĦÙĤØªØ§ÙĦ": 2936, "ĠÙĦÙĬØ¬ÙħØ¹": 8008, "ĠØ§ÙĦØ±Ø¬": 1518, "ĠÙħØ³ØªÙĥØ¨Ø±Ø§": 8748, "ĠØ§ÙĦÙĬÙĤÙĬÙĨ": 3824, "ĠÙĪÙħÙĦØ¦": 3288, "ĠØ¨Ø§ÙĦÙĬÙħÙĬÙĨ": 7855, "ĠÙģÙħÙĨÙĩÙħ": 2391, "Ø§Ø¦ÙĦ": 6088, "ĠÙĬÙħØª": 4682, "ĠØ¹ÙħÙĦÙĥÙħ": 6420, "ĠÙĤØ§ØªÙĦÙĪÙĥÙħ": 7536, "ĠÙħÙħ": 2848, "ĠÙĬÙĤØ§ØªÙĦÙĪÙĥÙħ": 4339, "Ø³": 64, "ĠÙĨÙģØ¹": 5842, "ĠØ¥Ø¨ÙĦÙĬ": 2313, "ĠÙĪØ·ÙħØ¹Ø§": 5314, "ĠØ£Ø±Ø¨Ø¹Ø©": 3383, "ĠØ¬Ø§Ø¯": 7770, "Ø§Ø®Ø°": 2797, "ĠØªØ¯": 675, "Ø¹ÙĥÙħ": 3946, "Ø·ÙĤÙĪÙĨ": 7688, "ĠÙĦÙĦÙħØ¬Ø±ÙħÙĬÙĨ": 8694, "ĠØµØ¯Ø±Ùĩ": 6426, "ĠÙģØªÙĪÙĥÙĦ": 8320, "ĠÙģØ£ÙĨØ¨Ø¦ÙĥÙħ": 8907, "ĠÙħØ´Ø±Ø¨ÙĩÙħ": 9923, "Ø¬Ø±": 284, "ĠØªÙħÙĪØª": 4433, "ĠÙħØ§Ø¦ØªÙĬÙĨ": 9471, "ĠØªØ´Ø§Ø¨Ùĩ": 8834, "Ø¸Ø±ÙĪÙĨ": 979, "ĠØ§ÙĦÙĥÙĦÙħ": 4955, "ĠÙĪØ§ÙĦÙĥØ§ÙģØ±ÙĪÙĨ": 6751, "ĠØªØ¯Ø¹ÙĪÙĩÙħ": 5478, "ĠÙħØ¹Ø¯ÙĪØ¯": 5481, "ĠØ¨ÙĤØ±Ø©": 5505, "ĠÙĪØ§ÙĤØªÙĦÙĪÙĩÙħ": 6113, "ĠÙĬØ²Ø§ÙĦ": 6587, "Ø¨ÙĩØ§": 3444, "ĠÙģØ¹Ø¯": 4653, "ĠÙħØªÙī": 2630, "ĠØ¨Ø§ÙĦØºØ¯Ø§Ø©": 9170, "ØªÙĩÙĦÙĥÙĨØ§": 8287, "ĠÙĬØªØ®Ø§ÙģØªÙĪÙĨ": 10287, "ĠØŃØ±Ùħ": 1382, "ĠÙħØ¹ÙĬÙĨ": 6107, "ÙĨÙĬØ§": 418, "ĠØ§ÙĦÙħÙĩØ¯": 5891, "ØªÙħÙĪØ§": 5912, "ĠØ¨ÙĬØ¹": 6447, "ĠØ¨ÙĦØ¯Ø©": 5057, "ĠÙĥØ°ÙĦÙĥ": 555, "ĠÙħØ¨ØµØ±Ø§": 6581, "Ø¸ÙĦÙĦ": 7831, "ĠÙĬØªÙħÙĨ": 8118, "ĠØ§ÙħØ±Ø£ØªÙĥ": 9273, "Ø²ÙĪÙĨ": 1190, "ĠØ¶Ø±Ø¨ÙĨØ§": 6676, "ĠÙħÙħØ¯": 6863, "ĠØ¹ÙħÙĦØ§": 3006, "ĠØ¨ÙħØ¹Ø±ÙĪÙģ": 3495, "ĠØ£ÙģØ¦Ø¯Ø©": 10001, "ĠØ¸ÙĦÙħÙĪÙĨØ§": 8765, "ĠÙĪØ§ÙĦØµØ§ÙĦØŃÙĬÙĨ": 9168, "³": 21, "ĠÙĦØ£ÙĪÙĦÙĬ": 2763, "ĠØªØ³Ø£ÙĦ": 8829, "ÙĤÙĪÙĩ": 3487, "ĠØ§ÙĦØ£ÙħØ±": 1092, "ĠØ³ÙĬØ¦Ø§ØªÙĩÙħ": 3375, "ĠÙĪØ£ÙĨÙĩÙħ": 4240, "ĠØ¨ÙĥÙģØ±ÙĩÙħ": 5530, "ĠØªØºØ±": 7483, "ĠØ£Ø´Ø±ÙĥØªÙħ": 9200, "ĠÙģØ§Ø®ØªÙĦØ·": 9449, "ÙģØ§Ø¹Ø©": 2384, "ĠØ³Ø§Ø¬Ø¯ÙĬÙĨ": 4072, "ØºÙģØ±ÙĪØ§": 2983, "ÙĬÙĤØ§Øª": 3073, "ĠØªØ¤Ùħ": 7487, "ĠÙģÙĦÙĩÙĨ": 7288, "ĠØ±ÙĤ": 2202, "ĠØ£ÙģØ£ÙĨØª": 3862, "ĠÙĪÙĦØª": 1119, "ĠØ§ÙĨØª": 3337, "ÙĨØªÙħ": 238, "ĠÙĨØ°Ø±": 4801, "Ø£Ø±ÙĪÙĨ": 7418, "ĠÙĬØªØ¯Ø¨Ø±ÙĪÙĨ": 8125, "ĠÙĬØ¤ÙħØ±ÙĪÙĨ": 8725, "ĠÙĬØªÙģÙĥØ±ÙĪØ§": 9377, "ĠÙĬØ¦Ø³ÙĪØ§": 9939, "ĠØªØ¤ÙģÙĥÙĪÙĨ": 5334, "ÙĪØ¨ÙĩÙħ": 1723, "Ø¶ÙĬØ¹": 2787, "ÙĬØ£Ø³ÙĪØ§": 10177, "ĠÙģÙĨØ§Ø¯ÙĪØ§": 9695, "ĠØªØ·Ø¹": 2320, "ĠØ¢ØªØ§ÙĥÙħ": 3822, "Ø¶ØªÙħ": 5813, "ĠÙģØªÙĨ": 3683, "ĠÙĦØ¨Ø§": 3112, "ĠØ¨ÙĨØ§ÙĩØ§": 7375, "ĠÙĬØ®ÙĦÙĤ": 1481, "Ø¯Ø±ÙĬØ³": 10046, "ĠØ§ÙĦÙĨØ§ØµØŃÙĬÙĨ": 6085, "ĠØ¹Ø²ÙĬØ²": 1111, "ĠÙħÙħØ²ÙĤ": 9631, "ĠØ®ÙĬØ±Ø§": 994, "ĠØ§ÙĦÙħÙĤØ³Ø·": 5899, "ĠÙĦØªÙĥÙĪÙĨÙĨ": 8570, "ĠÙĤ": 91, "ĠØ¬ÙĪØ¹": 7774, "ĠØ§ÙĦØ´ÙĩÙĪØ§Øª": 7023, "ĠÙĦÙģØ±ÙĪØ¬ÙĩÙħ": 9751, "ĠÙĪÙĦØ¢ÙħØ±ÙĨÙĩÙħ": 10262, "ÙĩÙĤÙĩÙħ": 7119, "ĠØ¨ÙĬØªÙĬ": 6448, "ĠÙħÙĤØ§ÙĦ": 7211, "ĠÙĦÙĬÙĤ": 2937, "ĠØªÙĤØ¯ÙħÙĪØ§": 5418, "ĠÙĬØªÙĬ": 5692, "ĠÙĪÙģØµØ§ÙĦ": 9277, "ĠÙĪÙĨØŃØ´Ø±": 8259, "ĠØ£Ùģ": 348, "ĠÙģÙĬÙĩÙħØ§": 2882, "Ø¸ÙĥÙħ": 3597, "ÙĬÙĨØ§ÙĥÙħ": 3627, "ĠÙĬÙĪØ¯": 3977, "ĠØ´ÙĤÙĬØ§": 5934, "ĠØ¥Ø¹Ø±": 7383, "ĠØ¥ÙĦÙĬÙĨØ§": 1560, "ĠØ¬Ø§ÙħØ¹": 6894, "ÙĪØ¬Ø§": 2567, "Ø¨Ø¹ÙĪ": 2730, "ĠØ¬ÙĬØ¨": 7772, "ĠÙĦÙĩØ¯Ø§ÙĥÙħ": 9934, "Ø¹Ø¨": 3097, "ØµÙĬØª": 4773, "ĠÙħØ±ØŃØ§": 8506, "ĠÙĤØ§Ø¦ÙħØ§": 5353, "ÙĥÙĦÙħØ§": 7175, "ÙĪÙĦØ¦Ùĥ": 290, "ĠÙģØ¹ÙĦÙħ": 7275, "Ø²Ø¹ÙĨØ§": 4786, "ĠØ³ÙĨØ§": 7657, "ĠØ¨Ø¹ÙĬØ³Ùī": 8115, "ĠØ§ÙĦÙħÙĬØªØ©": 5420, "ÙģØ¶": 5726, "ĠÙħØ§Ø¦Ø©": 3064, "ĠÙĬÙĨØ³": 6128, "ĠÙĬØ³ØªÙħØ¹": 6300, "Ø³ÙĪØ©": 7263, "ĠÙĤØ¶ÙĬÙĨØ§": 9830, "ĠØ®Ø§Ø·Ø¦ÙĬÙĨ": 9967, "ĠÙĬØ±ØŃÙħÙĥÙħ": 10293, "Ø¸Ùħ": 2707, "ÙĦØ§Ø«Ø©": 9182, "ĠØ£Ø«Ø±": 7238, "ĠØªØ¤ÙħØ±": 9253, "ĠÙĬØ¨Ø³Ø·": 2576, "ØªÙħÙĪÙĩÙħ": 2912, "ĠÙģØ§ÙĦ": 866, "ĠØ®Ø¨ÙĬØ±Ø§": 2212, "ĠÙģØ®ÙĦÙģ": 7289, "ĠØ¸ÙĦÙħØªÙħ": 8764, "ĠØ«ÙĤÙĬÙĦØ§": 9545, "Ø¯Ùĥ": 7249, "ÙĤØ¹": 2456, "Ø²Øª": 3547, "ĠÙģÙĪ": 3959, "ÙĬÙħÙĬÙĨ": 1458, "ĠØ£ÙĨØ¤ÙħÙĨ": 5831, "Ø§Ø¤ÙĥÙħ": 1670, "ĠÙĪÙĦØ¯Ø§Ø±": 9149, "ĠØ§ÙĦÙģØ±": 2049, "ÙħØ¯Ø§": 7094, "ĠÙĪØ§ÙĦØ£ÙĤØ±Ø¨": 3655, "ĠØ£Ø¨ÙĬÙĥÙħ": 5447, "Ø¦Øª": 7703, "ĠÙĬØ¤Ø§Ø®Ø°ÙĥÙħ": 5498, "Ø±ÙĪÙĨ": 165, "ĠÙĥØ´Ùģ": 7516, "ÙĦÙĬÙģØ©": 7539, "ĠØ£Ø±Ø§Ø¯ÙĨÙĬ": 9275, "ĠØ¸ÙĦÙĦ": 6191, "ĠØ§ÙĦÙħØ¬": 3576, "ĠÙģØ£ØŃØ¨Ø·": 6018, "ĠØ¨Ø³ÙĬÙħØ§ÙĩÙħ": 4405, "ĠØªÙĨÙģØ±ÙĪØ§": 8614, "ĠØªÙħØ³ÙĨØ§": 9457, "Ø§Ø¬ÙĩØ§": 8947, "ĠÙĪØ¬Ø¯ØªÙħÙĪÙĩÙħ": 9551, "ĠØ§Ø¶Ø·Ø±": 4540, "ĠØ£Ø¹ÙĪØ°": 3724, "ĠÙħØ¹ÙĤØ¨": 8101, "ĠÙĦÙĦØ³": 4210, "Ø£Ø¨": 4720, "Ø§Ø·ÙĦ": 1299, "ĠØ§ÙĦØ¢Ø²ÙģØ©": 9406, "ĠÙĪÙĬØ¹ÙģÙĪ": 7014, "ĠÙĤØ§ÙĦØ§": 7821, "ĠØ¨Ø³ÙĦØ·Ø§ÙĨ": 3033, "ĠØ¨ÙĬÙĨÙĩ": 8083, "ĠÙĦÙĥØ¨ÙĬØ±Ø©": 10006, "ĠØ¥ØµÙĦØ§ØŃØ§": 9761, "Ø°ÙĥØ±ÙĪØ§": 1017, "ĠØªÙĨØ¸Ø±ÙĪÙĨ": 3304, "ĠÙħÙĬØ«": 1388, "ĠØ¨ÙħØ¤ÙħÙĨÙĬÙĨ": 3777, "ĠÙģØ£ÙĬ": 7941, "ĠØ£ØµØ§Ø¨": 1234, "ĠÙĬÙĨ": 272, "ĠØªØ±Ùĥ": 1372, "ĠØŃÙĪÙĦÙĩ": 2910, "ĠØŃÙĪÙĦÙĩÙħ": 9709, "ÙĨÙĪØ§ÙĨ": 6600, "ĠÙĤØ±ÙĬ": 806, "ĠØ®Ø²ÙĨØªÙĩØ§": 6813, "ĠØªØ³Ø±ÙĪÙĨ": 6480, "ĠÙĨØ±Ùī": 3557, "ĠØŃØ§Ùģ": 7755, "ĠÙĪØªÙĥÙĪÙĨÙĪØ§": 8158, "ĠÙĥØ³Ø¨Øª": 1836, "ĠØ¢ÙĬØ©": 844, "ĠÙĦÙĩÙĪ": 1585, "ÙĨÙĪØ±": 7085, "ĠÙĪÙĨØ£Ùī": 8260, "ĠØ¬ÙĦØ¯Ø©": 9712, "ĠØ£Ø´Ø¯Ùĩ": 4394, "ĠØ§ÙĦØ¬Ø¨": 8282, "ĠØ§ØªÙĤÙĪØ§": 1168, "ØŃØª": 2463, "ĠÙĪÙĬØ¤Ø®Ø±ÙĥÙħ": 9544, "ĠØ§ÙĦØŃÙħ": 908, "ĠØ§ÙĦÙħØ®ÙĦÙģ": 5897, "ÙĩØ¯ÙĬ": 566, "ĠØ§ÙĦØ¥ÙĨØ³": 3728, "ĠØ§ÙĦÙħØ®ÙĦÙģÙĪÙĨ": 7052, "ÙĥÙĪØ±": 5613, "ĠÙĦØ³ÙħÙĬØ¹": 7318, "Ø«Ø±Ùĥ": 8577, "ĠÙĦÙĥÙħØ§": 3275, "ĠØªØ¹Ø¨Ø¯ÙĪØ§": 3410, "Ø°Ø§Øª": 2190, "ĠÙĬØŃØ³Ø¨": 3657, "ĠÙĪÙĦØ¹ÙĨÙĩÙħ": 9428, "Ø³Ø·": 793, "ĠØ±ÙĩÙĤØ§": 9834, "ĠØ§ÙĦÙĪØ¬ÙĪÙĩ": 7134, "ĠØ£Ø²": 3099, "ĠÙĪÙĬØŃØ±": 7893, "ÙĦÙģØªÙħ": 8314, "ĠØ£ÙĤØµÙī": 8880, "ĠØ¨ÙģØ§": 3492, "ĠØ§ÙĦØµØ§Ø¯ÙĤÙĪÙĨ": 8089, "ĠØ§ÙĦØ´Ø±": 3430, "ĠØªØ°Ùĩ": 7479, "ĠØŃÙĪ": 7752, "ĠØºÙĬØ¨": 3229, "ÙģØ³Ùĩ": 4938, "ĠÙĨØ°ÙĤÙĩ": 6549, "ĠÙģØ§Ø°ÙĩØ¨": 8205, "ĠÙģØ¹ÙĦÙĪÙĩ": 4419, "ÙĨØ¸Ø±": 5563, "ĠÙĬÙĤØª": 4681, "ĠÙĨØ§ÙģÙĦØ©": 9957, "ĠÙģÙģØ³": 7276, "ĠÙģÙĬØ¶Ø§Ø¹Ùģ": 7543, "ĠÙĪØ§ÙĦØ¶Ø±": 4060, "ĠÙĦØ®": 2450, "ĠØ¯Ø§Ø®Ø±ÙĬÙĨ": 9865, "ĠÙĪØ§ÙĦÙĦÙĩ": 259, "ĠÙģØºÙģØ±": 7281, "ĠÙģÙĬÙħØ§": 1316, "ĠØµÙĦØ§Ø©": 7988, "ĠØªÙħØªØ¹ÙĪØ§": 6827, "ĠÙĪÙĪØ±Ø«": 7161, "Ø§Ø¶ÙĬØ©": 4421, "Ø§Ø±Ø¹Ø©": 4153, "ĠØ¯Ø¨Ø±": 4923, "ĠØ¢ÙħÙĨØ§": 993, "ĠØŃØ³Ø¨": 1575, "ĠØ¶Ø§ØŃ": 8335, "ĠØ£ÙĦ": 1852, "Ø³ÙĬÙĨ": 4647, "ĠØ¢ØªÙĨØ§": 4827, "Ø®Ùģ": 5795, "ÙĤØ§Ùħ": 1475, "ĠØ£ÙĨÙģÙĤ": 3555, "Ø§Ø¬Ø§": 5245, "Ø±Ùī": 611, "ÙĤØ§ÙĨØ§": 8220, "ĠÙĦØ£Ùĥ": 8496, "ĠØ§ÙĦØºØ§Ø¦Ø·": 8528, "ĠØ§ÙĦØ£ÙĨÙĩØ§Ø±": 896, "ĠÙĨØ±ÙĬØ¯": 5451, "ĠÙĪØ§ÙĦÙģÙĪØ§ØŃØ´": 10235, "ĠÙħØ§ØªÙĪØ§": 5636, "ĠØªØ¶Ø¹": 5762, "ĠØ¨Ø§ÙĦØ¥ÙĬÙħØ§ÙĨ": 4519, "ĠØ§ÙĦØ´ÙĩØ¯Ø§Ø¡": 8356, "ĠÙħÙĦÙĪÙħÙĬÙĨ": 9511, "ĠÙĬØ¶Ø±Ø¨": 3032, "ĠØ§ÙĦØ¥Ø¨ÙĦ": 8624, "ĠÙĥÙĬØ¯ÙĬ": 9256, "ĠÙĬØ¹ÙĬØ¯Ùĩ": 3283, "ĠØ£ØµØ¨ØŃ": 8493, "ĠÙĪØ£Ø®Ø°": 2493, "ĠØ§ÙĦØŃØ³ÙĨØ©": 3616, "ĠÙĬØ®Ø§Ùģ": 2979, "ĠÙĦØ¢": 968, "ĠØ£Ø¬Ø±ÙĬ": 2755, "ĠØ¨Ø¹Ø¶ÙĥÙħ": 1531, "ĠØ¨Ø³ÙĦØ§Ùħ": 6579, "ĠØ£Ø±Ø¬Ùĩ": 9591, "ĠØ¹Ø§Ø¨Ø¯ÙĬÙĨ": 6826, "ĠØ§ÙĦÙħÙĦÙĥ": 1160, "ĠÙĪÙĨØµ": 5029, "ÙĪÙĥÙĬÙĦ": 3719, "ÙħØ±Ø£": 1231, "ĠÙĪØªØ¨": 6139, "ĠØ±ØŃÙĬÙħ": 714, "ĠÙĪÙĦÙĬØ¹ÙĦÙħÙĨ": 6338, "ĠÙĬÙĦÙĤÙī": 6734, "ĠØ§ÙĦÙĪ": 1493, "ĠØ§ÙĦØ£Ø¹ÙĦÙĪÙĨ": 7816, "ÙĦØ¹ÙĪÙĨ": 7078, "Ø§Ø¡ÙĩÙħ": 1636, "ĠØªØ¹ÙĪØ¯ÙĪØ§": 8537, "ĠØ¨ÙĬØ¯Ùĥ": 9819, "ĠÙĪØ¨Ø§Ø·ÙĦ": 8484, "ĠÙĨÙħ": 2686, "ĠÙĦÙĦØ·Ø§ØºÙĬÙĨ": 9877, "Ø£ÙĦÙĪÙĨ": 1280, "ĠÙĩØ§ÙħØ§ÙĨ": 9142, "ĠØ£ØŃØ¯ÙĩÙħ": 3341, "ĠÙĬØ£ØªÙĥÙħ": 3681, "ĠÙĪØ¬Ø§": 4975, "ÙħØ§Ø¡": 905, "ÙģØª": 390, "ĠÙģÙĩÙħ": 920, "ĠØ£ÙħÙĩØ§ØªÙĩÙħ": 6835, "ØªØ§Ø¨Ø¹ÙĬÙĨ": 8075, "ĠÙĦÙĪØ¬Ø¯ÙĪØ§": 8530, "ĠØ§ÙĦØ·ÙĬØ¨": 4350, "ĠÙĪÙĦÙĪØ·Ø§": 3704, "ĠØŃØ¨Ø§ÙĦ": 7757, "ĠÙħØªØ§Ø¹ÙĨØ§": 9112, "ĠÙħÙĨØ«": 7428, "ĠÙĦÙĦØ®ÙĬØ±": 8145, "ĠÙħØ³Ø§ÙģØŃÙĬÙĨ": 10143, "ĠØªØ®ÙĦÙĤ": 8727, "ĠÙĨØ¹ÙħØªÙĩ": 5220, "ĠÙĤØ³Øª": 7526, "Ø·Ø¹": 615, "ĠÙĪØ§ÙĦÙħØ´Ø±ÙĥØ§Øª": 8635, "ĠÙĦÙħÙĨ": 511, "ĠÙĪØ§ÙĦÙĨØµØ§Ø±Ùī": 4361, "ĠÙĨØ¨Ø§ØªØ§": 8926, "ĠØ¬Ø§Ø¹ÙĦ": 9711, "ĠØ§ÙĦØ£ÙĬØ§Ùħ": 5941, "ĠØªØ®ÙģÙĪÙĩ": 6788, "ĠØºÙĬØ§Ø¨Øª": 10280, "ĠØ§ÙĦÙĤØ±Ø¢ÙĨ": 890, "ĠÙĬØ±Ø¬Ø¹ÙĪÙĨ": 1411, "ĠÙĪÙĤØ¹ÙĪØ¯Ø§": 7981, "ÙĩÙĦØ§": 7116, "ĠÙĪØ£ÙĨÙĩØ§Ø±Ø§": 8266, "ĠÙĪÙģØ¬Ø±ÙĨØ§": 6692, "ĠÙĪØ±Ø³ÙĦÙĬ": 8658, "ĠØ¨Ø§ÙĦÙħÙĩØªØ¯ÙĬÙĨ": 5336, "ĠØ¨ÙĬÙĪØªÙĩÙħ": 9503, "ĠÙĬØ¹Ø±Ø¬": 5075, "ĠÙĪÙĬØ±": 1426, "ĠØ§Ø¨Øª": 4352, "ĠÙĪØ¥ÙĦÙĬÙĨØ§": 5946, "ĠÙĦÙĤÙĪØ§": 7304, "ĠØ³Ø§Ùģ": 7663, "ĠÙĬØµÙĦØ§ÙĩØ§": 8783, "ĠØ¢Ø«": 2901, "ĠØ§ÙĦÙĨØ§Ø³": 314, "ĠØ£ØªØ§Ùĥ": 3837, "ĠØ§ÙĦØ¹Ø¨Ø§Ø¯": 7964, "ĠÙĦÙĨÙģØ³Ùĩ": 2604, "ĠØ´ÙģØ¹Ø§Ø¡": 6969, "ĠØ¨Ø¹Ø¯": 286, "Ø¨Ø¦ÙĥÙħ": 1601, "ĠÙĨØ¬ÙĪÙī": 8889, "ĠÙħØ³Ø±ÙģÙĪÙĨ": 9745, "ĠÙĪÙĬÙħÙĬØª": 2815, "ØŃÙĩ": 4714, "ĠÙģØ£ØµÙĦØŃÙĪØ§": 6607, "ĠÙģØ§ÙĨØ·ÙĦÙĤ": 5226, "Ø¬ÙĬ": 4029, "ĠÙħÙĨØªÙĤ": 5742, "ĠØ¬ÙĩØ§": 5916, "Ø«ÙĪÙĨ": 1573, "ÙĥØ©": 7170, "ĠÙĪØªÙģØµÙĬÙĦØ§": 9989, "Ø³ÙħÙĪÙĨ": 8078, "ĠØ§ÙĦØŃÙħÙĬÙħ": 4380, "ĠØ®Ø¨Ø§ÙĦ": 7787, "ĠÙħØ³ÙĥÙħ": 8514, "ÙĪØ§ÙĨ": 5705, "ĠÙħÙĤÙĬÙħ": 2849, "ĠØºÙĦØ¨Øª": 7019, "Ø¨ÙĤØ§": 7190, "ĠÙģØµÙĦ": 4659, "ĠÙħØ¹ØªØ¯": 6110, "Ø¹Ø¬ÙĦ": 3461, "Ø¯ÙĨØ§": 774, "ĠÙģØ§Ø±ØªÙĤØ¨": 10165, "ØªÙĨ": 1848, "ĠØ§ÙĦØ¨Ø¹ÙĬØ¯": 5594, "ÙĤØªÙĦÙĪÙĨ": 1731, "ĠÙģØ§Ø¯Ø®ÙĦÙĪØ§": 9413, "ĠÙĪØ§ÙĦØ°Ø§": 5836, "ĠØ§ÙĦØŃÙĤ": 468, "ĠØ§ÙĦØŃØ³ÙĨÙī": 2165, "ĠØ¨Ø£ÙħØ±Ùĩ": 2276, "ĠÙĬØªÙĪØ¨": 1995, "ĠÙĪØ¹ÙĦ": 3433, "ĠØ§ÙĦØªØ§Ø¨": 5585, "ĠÙĦÙĦØ³Ø§Ø¦ÙĦÙĬÙĨ": 9874, "ĠØ£ÙħØ«Ø§ÙĦÙĩØ§": 9670, "ĠØ¬Ø¹ÙĦÙĨØ§ÙĩÙħ": 8895, "ĠØ§ÙĦÙĤÙħØ±": 4171, "ĠØªØŃØ³Ø¨ÙĨ": 4532, "ĠØ£ØµØ§Ø¨Ø¹ÙĩÙħ": 9111, "ĠÙģØ§Ø¯": 1940, "ĠÙħØ¹Ø¬Ø²ÙĬÙĨ": 8104, "ĠÙĪØ¶Ø±Ø¨Øª": 9738, "ĠÙĪØ¥ÙĨÙĩ": 1329, "ĠÙħØ±ÙģÙĪ": 6309, "ĠØ¨Ø±Ø§Ø¡": 6507, "ĠØ¨ÙĩÙĬØ¬": 8012, "Ø³ÙĪØ§": 1620, "ĠØ³ÙĥÙĬÙĨ": 4820, "ØµØŃÙĬÙĨ": 5806, "ĠØªÙĪØ¨Ø©": 9643, "ĠÙħØ®ØªÙĦÙģ": 2811, "ĠÙĤÙĪØ§Ø±ÙĬØ±": 10073, "ĠØ´Ø¹ÙĬØ¨Ø§": 3385, "ĠÙĨØ¬": 841, "Ø¨Ø§Ø·ÙĦ": 7193, "ĠØªÙĥØªÙħÙĪÙĨ": 4296, "Ø§Ø¨ÙĩØ§": 3558, "ĠÙĥÙģØ±ÙĨØ§": 8130, "Ø«ÙĦÙĩ": 2695, "ĠØªÙĨÙĤØµ": 8613, "ÙħØ¶ÙĪØ§": 7095, "ĠÙĪØ´Ø§": 9278, "Ø¨Ø§Ø¦Ø±": 5624, "Ø¹Ø¯ÙĩÙħ": 2714, "ĠÙĪÙĦÙĥÙħ": 1577, "ÙģØ±Ø©": 5927, "Ø¦Ø§Ø¡": 5868, "Ø®Ø³ÙĪØ§": 5800, "ĠØ³Ø¨ÙĤÙĪÙĨØ§": 9039, "ĠÙĪØªØ²ÙĩÙĤ": 9986, "ĠÙĪØ£": 128, "ĠØ¨Ø´Ø±Ø§": 2160, "ĠØ¨ÙĨØ¨Ø¥": 9181, "ĠØ£Ø±Ø£ÙĬØªÙĥÙħ": 9623, "ÙģÙĦ": 2656, "Ø£ÙĪØ§ÙĩÙħ": 2271, "Ø®Ø°": 254, "ÙĬØ§Ø¯Ø©": 7867, "Ø·ÙĪØ§": 2487, "ĠÙĪØ¹Ø¯ÙĩÙħ": 8690, "ÙĩØ§Ø±": 470, "ĠØ§ÙĦÙĥÙģÙĦ": 8029, "ĠÙĥØªØ§Ø¨": 636, "ĠØ¸ÙĦØ§ÙĦ": 5024, "Ø§Ø¨ÙĦ": 7641, "ĠÙģØ¨Ø´Ø±": 3741, "ĠÙĪØ§Ø¯Ø¹ÙĪØ§": 5372, "ĠØ§ÙĦÙħÙĬØ²Ø§ÙĨ": 5901, "ÙģÙĬÙĨ": 1188, "ØªØ¨ÙĬ": 5617, "ĠØ¨ÙĪØ±Ø§": 7365, "ØªØ§": 381, "ĠÙģØ¢ÙħÙĨØ§": 9158, "ĠØŃ": 130, "ÙĥØ±Ø©": 2518, "ĠØªÙģØªØ±ÙĪÙĨ": 9769, "ĠØ¹ÙĪØ¬Ø§": 3134, "ÙĨÙĪØ§": 1175, "ĠÙģÙĦÙħ": 1688, "ĠÙĪØ§Ø³": 1331, "ĠØ§Ø¯Ø®ÙĦÙĪØ§": 2146, "ĠØŃÙĬØ§": 4088, "ĠØ·ØºÙī": 3677, "ĠÙĬØ¯": 413, "Ø·ÙĬÙģ": 3568, "ĠÙĪÙĤØ§": 6024, "ĠØªØ¸": 3521, "ĠØ·Ø§Ø¦": 1207, "Ø´ÙĤØª": 5827, "Ø§ÙģØ±ÙĬÙĨ": 520, "ĠØªØµØ¯ÙĪÙĨ": 8966, "ĠÙģÙĤ": 510, "ĠÙħÙħÙĨ": 1003, "ÙĬÙħØ©": 4108, "ĠÙĬÙĨØ³ÙĦÙĪÙĨ": 10120, "ĠØ§ØªØ¨Ø¹": 963, "ĠØ¬ÙĦÙĪØ¯": 4549, "ĠÙĦÙĪÙĦØ§": 969, "ĠÙĦØªØ³ÙĥÙĨÙĪØ§": 5475, "ÙĨØªÙĬÙĨ": 2981, "ÙħÙĥ": 4580, "ĠØ£Ø³Øª": 3950, "Ø«ÙĬÙĨ": 4824, "ĠÙĪØ£ÙĥÙĦÙĩÙħ": 6741, "ĠÙĬØŃØ§ÙĪØ±Ùĩ": 10292, "ĠØ§ÙĦØ³ÙħØ§": 228, "ĠØ¨ÙħØ¹": 2311, "ĠÙĬÙĪÙģÙĪÙĨ": 9638, "ĠÙģØ¨Ø¹Ø«": 7283, "ĠÙĪÙħØºÙģØ±Ø©": 4281, "ĠØ§ÙĦÙģÙĪØ§ØŃØ´": 8642, "ÙĦØ§ÙĩØ§": 4740, "ĠØ£ÙĬÙĩØ§": 366, "ĠÙĪØ±ÙģØ¹": 2758, "ĠØ§Ø±": 1747, "ĠÙĦÙĨØ®Ø±Ø¬": 5073, "ĠÙĪÙĬÙĨÙĩÙĪÙĨ": 5303, "ĠØ¨Ø¹ÙĬØ±": 8111, "ĠØ¹Ø¬ÙĬØ¨": 9288, "ĠÙģÙĬÙĤÙĪÙĦÙĪØ§": 9389, "ĠØ£ÙĨØ²ÙĦØª": 2771, "Ø³ÙħÙĪØ§": 3232, "ĠØ¨Ø¬Ùĩ": 3842, "ĠÙĪØ§Ø³Ø¹Ø©": 5307, "ĠØŃØ³Ø§ÙĨ": 8818, "ĠÙģØ¨ÙĦØºÙĨ": 10195, "ĠÙĦØ¹ÙĦÙĥ": 8756, "ĠØ§Ø°ÙĥØ±": 8013, "ĠÙħØ´ÙĥÙĪØ±Ø§": 9310, "ÙĥØ±ÙĬÙĨ": 2092, "ĠÙĪÙĩØ§ÙħØ§ÙĨ": 5357, "ĠÙĪØ§ÙĩØ¬Ø±": 6114, "Ø¶Ø©": 1954, "Ø·ÙģÙī": 7689, "ĠÙħØªØ±ÙģÙĪÙĩØ§": 10148, "ĠØŃÙĤÙĩ": 6550, "ĠØµÙĦØŃ": 6037, "ÙĬØ³": 3424, "ÙĬÙĨÙĥ": 3490, "ĠØŃÙħÙĬÙħØ§": 7010, "ĠÙĥØ£Ø³Ø§": 9331, "ĠØ³Ø¨ÙĤ": 3799, "ĠÙĦØ¶Ø§ÙĦÙĪÙĨ": 10197, "Ø¨ÙĨ": 5619, "ÙĦØ§Ùģ": 1856, "ĠÙĬÙĨÙģØ¹ÙĩÙħ": 5327, "Ø°Ø±ÙĩÙħ": 1729, "ĠØ§ÙĦØ³Ø¨ÙĬÙĦ": 1214, "Ø¯ÙĨÙī": 7257, "ĠØ®Ø§ÙĪÙĬØ©": 4107, "ĠØ§ÙĦØ°ÙĩØ¨": 7653, "ĠÙĬØ³ØªØ¹Ø¬ÙĦ": 8455, "ĠÙĦÙĬØ¸ÙĦÙħÙĩÙħ": 7063, "ĠÙģÙĦ": 304, "ĠÙĥØ¨Ø§Ø¦Ø±": 5783, "ĠÙĪÙĬØ¹ÙĦÙħÙĥÙħ": 6660, "ĠØ£ÙĪÙĦÙī": 2922, "ĠÙħØ±Ø³": 3091, "ĠØ§ÙĦØºÙħØ§Ùħ": 6322, "ĠØŃÙħÙĬÙħ": 2403, "ĠØ£ØªÙĪØ§": 4640, "ÙĬØ£": 7102, "ĠÙĦÙĥÙģÙĪØ±": 8344, "ĠØ¥ÙģÙĥÙĩÙħ": 9759, "ĠÙĬØªÙģ": 1814, "ĠØ¨Ø¥ÙĬÙħØ§ÙĨ": 8864, "ĠØ¨Ø§ÙĦÙĪØ§Ø¯": 5965, "ĠÙģØ®Ø°ÙĪÙĩ": 9635, "ĠÙĬØŃØ²": 1524, "ĠØ¨Ø§ÙĦØ³ÙĪØ¡": 5469, "ĠØ¨ÙĤØ±Ø§Øª": 9757, "ĠØ¨Ø§ÙĦØµØ¨Ø±": 5453, "ĠØ¢ØªÙĬÙĥ": 9143, "ĠÙĬØ¨Øª": 3113, "ÙĬØ¨Ø§": 1146, "Ø°ÙĬ": 783, "ĠØ§ÙĦØ´ÙħØ³": 1528, "ĠØ§ÙĦØ£ØµÙģØ§Ø¯": 10261, "Ø¢ÙĬØ§Øª": 342, "Ø´Ùģ": 1359, "ĠÙħÙĥØ±ÙĪØ§": 6664, "ĠÙĪØªÙĨ": 4213, "ĠÙĪØ§Øµ": 1495, "ĠÙħÙĤØªØ¯": 9472, "Ø§Ø¦Ø±": 1987, "ĠØ®Ø±": 4102, "ĠØŃÙĪÙĦÙĩØ§": 6871, "ĠÙħÙĦÙĥØª": 1905, "ØªÙĦÙģ": 865, "ÙĦØŃ": 523, "ĠØ¨ÙħØ¹Ø¬Ø²ÙĬÙĨ": 3405, "ĠØªÙĨ": 503, "ÙĪÙĩØ§": 601, "Ø³Ø®Ø±ÙĪÙĨ": 7266, "ĠÙĪÙħØµØ¯ÙĤØ§": 8435, "ĠÙĦØ±Ø¬": 5685, "ĠØºÙĦÙĬ": 2944, "Ø§ÙģØ±": 389, "ĠÙĥÙģ": 4750, "ĠØµØ¯Ø±Ùĥ": 5179, "ĠÙĨØ·Ø¹Ùħ": 9332, "ĠØ§ÙĦØŃÙħÙĬØ¯": 2586, "ĠØªØ³ØªØ¹Ø¬ÙĦ": 8977, "ĠÙĬÙħØ³Ø³ÙĨÙĬ": 9249, "ĠØ§ÙĦØ³Ø¹ÙĬØ±": 2923, "ĠÙĬÙģØ³": 2451, "ĠØ§ÙĦØ«ÙħØ±Ø§Øª": 2423, "ĠØ§ÙĦØªÙĤÙī": 6530, "ĠÙĪØ¬Ø¯ÙĨØ§": 1988, "ĠØ´Ø¹": 1710, "ĠØ£ÙĨÙħØ§": 1567, "ĠØ£ØµÙĨØ§": 5111, "ÙĦØ§Ø¦": 2663, "Ø¯ÙĬ": 1618, "ÙĥÙĪÙĨÙĨ": 2368, "ĠØ´ÙĩØ¯ÙĨØ§": 5302, "ĠÙĬØªØ³Ø§Ø¡ÙĦÙĪÙĨ": 3419, "Ø¯ÙĬÙĨØ§Ùĩ": 5654, "Ø³ÙĦØ®": 9448, "ĠØ£Ø®Ø±": 1346, "ĠÙĪØ§ØµØ·Ø¨Ø±": 6989, "ØºÙģØ±": 443, "ĠÙĪÙĪ": 1344, "ĠØ¹ÙĦÙĪØ§": 4726, "ĠÙĪØªÙĨØŃØªÙĪÙĨ": 9878, "ĠØ®ÙĦØ§Ø¦Ùģ": 5547, "ĠÙĥØ§ÙĦÙħÙĩÙĦ": 6536, "Ø¤ÙĦØ¤Ø§": 7013, "Ġ": 32, "ĠØ£ÙħØ³Ùĥ": 4916, "ĠØ§ÙĦØ¯Ø§Ø±": 2107, "ĠÙĥÙĦØ§Ùħ": 5781, "ĠÙĪÙħØ«ÙĦÙĩ": 6273, "ĠÙħØ´Ø±Ùĥ": 4623, "ĠÙĬØ£Ø¬ÙĪØ¬": 8301, "ĠØªØ£ØªÙĬÙĥÙħ": 8598, "ĠØ¯ÙĬÙĨ": 1032, "ĠÙĬØ±ÙĪÙĨÙĩØ§": 9478, "ĠØ§ÙĦØ£ØµÙĪØ§Øª": 10091, "ĠØ²Ø®Ø±Ùģ": 10135, "ĠÙĪØ£ÙħÙĪØ§ÙĦ": 4442, "ĠÙħØ³Ø±": 3451, "ĠØ¨Ø±": 795, "ĠÙħØ«ÙĦ": 846, "ĠØ£ÙģÙĦ": 8303, "ĠØ¯ÙħØª": 6008, "ĠØ¥ØŃ": 1775, "ĠÙģØªØ¹": 5052, "ĠØ§ÙĦØŃØ¬": 2719, "ĠØ¹Ø¨Ø§Ø¯Ùĩ": 1302, "ĠØ¬Ø²Ø§Ø¤ÙĩÙħ": 4378, "ĠØ¨Ø´ÙĬØ¡": 3498, "ĠØªÙħÙĬ": 5757, "ĠØ§ÙĦÙħØ±": 5887, "ĠØªØ¨ØªØ¦Ø³": 9530, "µ": 23, "ĠÙĪÙħØªØ§Ø¹Ø§": 6940, "ÙĪØ§Ø¹Ø¯": 3489, "Ø·ÙĩØ±ÙĪÙĨ": 5863, "ĠÙĨÙĨØ³": 4802, "ĠÙĪØ²ÙĦØ²ÙĦÙĪØ§": 10040, "Ø¸Ø§Ùħ": 5951, "ĠØ£ÙĦÙĬ": 1217, "ĠÙĪØ¢ØªØ§ÙĨÙĬ": 9730, "Ø±Ø¶ÙĪÙĨ": 1459, "Ø§Ø³Ø±ÙĪÙĨ": 2029, "ĠÙĪÙĦØ¹ÙĦ": 2213, "ĠØ¨Ø®Ø§Ø±Ø¬ÙĬÙĨ": 10161, "ĠØ³ØªØ¬Ø¯ÙĨÙĬ": 7037, "ĠÙħØ´ÙĬØ¯": 9309, "ĠÙģØ£ØªØ¨Ø¹ÙĩÙħ": 9671, "ĠÙĪÙĬÙĦ": 1713, "ĠÙĪØ¨ÙĬÙĨÙĥ": 4395, "Ø±Ø§Ø¬": 3199, "ĠÙĪØ¸ÙĦÙħÙĪØ§": 7166, "ĠÙĨÙĩØ§Ø±Ø§": 7635, "ĠØ§ÙĦØ®Ø¨Ø§Ø¦": 8423, "ĠØ¬Ø¦Øª": 3806, "ĠØ§Ø³ØªØ¬Ø§Ø¨": 5127, "ĠØ£ÙģØ±Ø£ÙĬØª": 5397, "Ø¶Ø±Ø§": 5814, "ĠØ¨Ø¹Ø°Ø§Ø¨": 1994, "ĠØ¨Ø®ÙĦÙĤ": 6633, "ĠÙĪØ¬ÙĨÙĪØ¯ÙĩÙħØ§": 10168, "ĠØ£ÙĨØ¨": 5829, "ĠÙĪØ¢": 513, "ĠØ¢ØªÙĬÙĨØ§ÙĥÙħ": 6524, "ĠØ§ÙĦØºÙĬØ¨": 1210, "ĠÙĥÙħØ«ÙĦ": 2157, "ĠØ´Ø§": 3195, "ĠÙĪØ§ÙĦØ£Ø¨Ø±Øµ": 8167, "ĠØªØ®ÙĦÙģ": 8728, "ĠØªÙĪÙĥÙĦÙĨØ§": 5411, "ĠÙĬØªÙĤ": 4983, "ĠØ³Øª": 3562, "ĠÙģØ§Ø±Ø¬Ø¹": 9348, "ÙĬÙĤ": 1608, "ĠØ¨Ø¹ÙĩØ¯": 2947, "ĠØ¨Ø£Ø³ÙĥÙħ": 9175, "ĠÙĪÙĬÙĨØ²ÙĦ": 4435, "ĠØµØ¨Ø±": 3214, "ĠØ³Ø£ÙĦØª": 6752, "ĠØ³Ø§ÙĩÙĪÙĨ": 10245, "ĠØ§ÙĦØ£ÙĪÙĦÙĬÙĨ": 1127, "ĠØ§Ø¯Ø¹ÙĪØ§": 3030, "ĠÙĬØ«": 4673, "ĠÙĬØªØ®Ø°ÙĪØ§": 6119, "ĠÙĦØ¢ÙĬØ§Øª": 1132, "ĠØªÙĪØ¹Ø¯ÙĪÙĨ": 2159, "ĠÙģØ£ÙĦÙĤÙī": 6769, "ĠØ£Ø¬ÙĬØ¨": 6256, "ĠØªØ¸Ø§ÙĩØ±Ø§": 9768, "Ø¨ÙĬÙĨ": 239, "ĠØ§ÙĦÙģØ§Ø³": 1546, "Ø±Ø¨Ø§": 8052, "ĠØ§ÙħØ±Ø£": 1521, "ĠØ£ÙĬÙĩ": 6126, "ĠÙĬØ¸": 1767, "Ø¯Ø©": 522, "ĠÙĬÙĨÙĤØ¶ÙĪÙĨ": 5526, "ĠØ§ÙĦÙħØ¹ÙĦ": 7735, "ĠØ¨Ø§ÙĦÙħØªÙĤÙĬÙĨ": 10264, "ĠØ¨Ø§ÙĦØ¨Ø§Ø·ÙĦ": 2816, "ĠØ±Ø¨Ø§": 7708, "ØŃÙħÙĨØ§": 4229, "ĠÙĪØ§ÙĦØªÙĬ": 7594, "ĠØªØ£ØªÙĩÙħ": 8593, "ĠÙħØ«ÙĦÙĩ": 2385, "ĠÙĪØ¥ÙĦÙĩÙĥÙħ": 9855, "ĠØ¨ÙĩÙĬÙħØ©": 6062, "ĠÙģØ§ØŃÙĥÙħ": 4233, "ĠÙĬÙĩØ±Ø¹ÙĪÙĨ": 10202, "Ø¨Ø±Ø§Ø±": 3731, "ĠÙĪÙĤØ§ØªÙĦÙĪÙĩÙħ": 7980, "ĠØ£ÙĦÙĬÙħØ§": 2032, "Ø¶Ø±ÙĪÙĨ": 2886, "ĠØ¢ÙĬØ§ØªÙĬ": 2555, "ĠØ¨Ø£ÙħÙĪØ§ÙĦÙĥÙħ": 6784, "ĠÙĪØ´": 1550, "ÙĤØ¶ÙĪØ§": 7343, "Ø§ÙĤØ¨": 8489, "ĠÙĬØ¤ÙħÙĨ": 953, "Ø¹Ø§": 283, "ĠØ¹ÙĦÙĬÙħ": 479, "ĠÙģÙĦÙĬØ³ØªØ¬ÙĬØ¨ÙĪØ§": 10017, "ĠØ§ÙĦØ®ÙĦØ§ÙĤ": 8422, "ĠØ§ÙĦÙħÙĪØªÙī": 1797, "ĠÙĨÙĨØ¬ÙĬ": 6962, "ĠØºÙĦÙĬØ¸": 4544, "ĠØ·Ø³Ùħ": 8268, "ĠÙĪÙĬØŃ": 1881, "ĠØ£Ø«ÙĤØ§ÙĦÙĩÙħ": 10023, "ĠØªØ¸ÙĦÙħ": 5760, "ĠØ§ÙĦØ¨ØŃØ±": 1211, "Ø´ÙĪØ±": 5826, "ĠÙĪÙĦÙĬØ£Ø®Ø°ÙĪØ§": 8556, "ĠØ¥Ø®ÙĪØ©": 5436, "ÙģØ©": 834, "ĠÙģØ£Ø®Ø§Ùģ": 7955, "ĠØ£ÙħÙĨ": 1499, "ĠÙĪÙĤØ±Ø§": 4163, "ĠÙĥÙĬÙĦ": 5778, "ĠØºØ¶": 6075, "ĠÙĪØ£ØµÙĬÙĦØ§": 5260, "ĠØ³Ø¨ÙĦØ§": 5267, "ĠÙĬÙĦØ¬": 6949, "ĠØ£Ø¶Øº": 5396, "ĠØŃØ¯Ø§Ø¦ÙĤ": 9040, "Ø¦Ø°": 632, "ĠØ§ÙĦÙĪØ§ÙĤØ¹Ø©": 9345, "ĠØªØ¬Ø²ÙĪÙĨ": 2772, "ĠØ±Ø¨Ùĥ": 253, "ĠØªØ¹Ø§ÙĦÙī": 6332, "ĠÙĤØ§Ø¯": 7527, "Ø¯Ø¹": 1853, "ĠØ¹Ø¯": 733, "ĠØ³Ø¨ÙĬÙĦØ§": 1167, "ØŃÙħØªÙĩ": 2540, "ĠØ¬Ø§Ø¡ÙĪÙĩØ§": 6163, "ĠØ¨Ø£Ø¹ÙĬÙĨÙĨØ§": 5552, "ÙĬØ±Ø©": 7692, "ÙĥØŃÙĪØ§": 7176, "ĠÙĬØ·Ø¹ÙħÙĩ": 9116, "ĠØ·ÙĦÙĤÙĩØ§": 9620, "ĠØ§ÙĦÙħØ«ÙĦ": 7741, "ĠÙĬØ®Ø³Ùģ": 6288, "ĠØªÙĪÙĦ": 5754, "ĠÙĬÙģØ¹ÙĦÙĪÙĨ": 2154, "ĠØ¯Ø¹ÙĪ": 7936, "ĠÙĪØ£ÙĨØ´Ø£ÙĨØ§": 8267, "Ø±ÙĬÙĨÙĥ": 4353, "ĠÙĬØºÙĦØ¨ÙĪØ§": 5199, "ĠÙĪØ§ÙĦÙĦØ§Ø¦": 7602, "ĠÙĪØ¬Ø§ÙĪØ²ÙĨØ§": 9983, "ĠÙģØ£ØªÙĪØ§": 2515, "ĠØ±Ø§Ùĥ": 7560, "ĠÙĥØ«": 650, "ĠØ¨Ø§ÙĦÙĦÙĩ": 388, "ĠØ¨ÙĤ": 1246, "ĠÙĪØ±Ø§Ø¡": 2119, "ĠØ£ÙĪØŃÙī": 6712, "ĠÙĦÙĦØ°ÙĥØ±": 4212, "ĠÙĪØ§ÙĦÙħØ¤": 4315, "ĠØ²ÙģÙĬØ±": 8418, "Ø³Ø±Ø§": 3471, "ĠØ§ÙĦØ±ÙĤØ§Ø¨": 5990, "ĠØ£Ø®Ø°Øª": 8979, "ĠØªØ¯Ø¹": 3009, "ĠÙĬØ´ÙģØ¹": 6169, "ĠÙĦÙĬØ£ÙĥÙĦÙĪÙĨ": 10112, "ĠØ§ÙĦÙĤÙĩØ§Ø±": 3628, "ĠÙĥÙħÙĨ": 2670, "ĠØªØ®Ø±Ø¬ÙĪÙĨ": 4483, "ĠÙĪØ¬Ø¯ØªÙħ": 9550, "Ø¬Ø¹ÙĦ": 667, "ĠÙĬØ®ØªÙĦÙģÙĪÙĨ": 2558, "ĠÙĨÙĪØ¯ÙĬ": 4809, "ĠÙĬØ¤ØªÙĪÙĨ": 5186, "ĠØ£Ø³ÙħØ§Ø¡": 6405, "ĠØ®Ø§Ø´": 2500, "ĠØŃÙħÙĦÙĩØ§": 8843, "ĠÙĪØ§ÙĦØ£ÙĤØ±Ø¨ÙĬÙĨ": 6934, "ĠØ§ÙĦÙĤØ±Ø§Ø±": 6048, "ĠØªØ£ÙħØ±": 5139, "ĠÙĪØ±Ø¨": 966, "ĠÙĪØ§ØºÙģØ±": 5212, "ĠÙĨØ¹": 2481, "ĠØµÙĦÙī": 7983, "ĠÙĬØ¯Ø¨Ø±": 5096, "ØªØ§ÙĦ": 2175, "ĠÙħØ¯Ø¯ÙĨØ§ÙĩØ§": 9007, "ĠÙĬØ¹ÙĦÙħÙĪØ§": 4248, "ĠÙĦØŃØ¯": 7314, "Ø¯Ø±Ø¬": 7252, "ĠÙĦÙĤÙĪÙĬ": 6323, "ÙģØ§Ø¡": 3999, "ĠØªØ¹ÙĦÙĨÙĪÙĨ": 5765, "ØŃÙĨ": 519, "ÙĨØ§Ùĩ": 925, "Ø§ÙĩØ¯ÙĬÙĨ": 2251, "ĠØ¨Ø§Ø±": 3491, "ĠØªØ¹ÙĦÙħÙĪØ§": 4329, "ÙĤÙģ": 4690, "ĠØ§ÙĦÙħØºÙģØ±Ø©": 7742, "ĠØ¨ÙĨØ§Øª": 7364, "ĠØ¨Ø§ÙĦÙĨÙģØ³": 9860, "ĠÙĬÙĨÙĥØ«ÙĪÙĨ": 9726, "ĠÙģØ·Ø±": 2643, "ĠØ¨": 72, "ĠØ§Ø¯Ø®ÙĦÙĪÙĩØ§": 8945, "ĠØ¶Ø¹ÙĬÙģØ§": 5554, "ĠØ¹Ø°Ø§Ø¨": 292, "ÙĬÙģ": 501, "ĠÙĪØ§Ø´": 1669, "ĠØ£ÙĪÙĦÙħ": 1030, "ĠÙħØ³Ùĩ": 3712, "ĠØŃØ¸Ø§": 5906, "ĠØ¥ÙĦÙĬÙĩØ§": 4979, "ÙĥÙĪØ±Ø§": 5614, "ĠØ§ÙĦØ¹Ø§ÙħÙĦÙĬÙĨ": 6022, "Ø¤Ùħ": 1324, "Ø®ÙĦØ¯ÙĪÙĨ": 6348, "ĠÙħØ¸": 7199, "ĠÙħØ±Ø¬": 8504, "ĠØªØ£ÙħÙĨÙĩ": 8599, "ĠØ£ÙħÙĪØ§ÙĦÙĨØ§": 8954, "ĠÙĦØ²ÙĦÙģÙī": 10198, "ÙĤØªÙĦÙĪÙĩÙħ": 4459, "ĠØ¬ÙħÙĬÙĦ": 7779, "ĠÙĪÙĬØ°ÙĩØ¨": 7896, "Ø¯ÙĨØ§ÙĩØ§": 8840, "ĠØ¶Ø¹Ùģ": 2549, "Ø§Ø¨Ùĩ": 2896, "ĠØ¨Ø¹Ø´Ø±": 8112, "ĠÙħØ«ÙĨÙī": 6262, "ĠÙĤØ¯ÙĬØ±": 998, "ĠÙĪØ§ÙĦØ¨Ø§": 7595, "ĠÙħØ³ØªÙħ": 5114, "ĠÙĤÙĪÙħÙĩ": 1014, "ĠÙĪØ¶ÙĦ": 2845, "ÙĪØ²ÙĨ": 8992, "ĠÙĪØ£ØŃØ³ÙĨÙĪØ§": 9660, "ĠØªØ±Ø¶ÙĪÙĨ": 7490, "ĠØ§ÙĦØµÙĪØ§Ø¹ÙĤ": 8090, "ĠÙĩÙĦÙħ": 7648, "ĠØ¨Ø§ÙĦÙĤØ³Ø·Ø§Ø³": 9234, "ĠØ®Ø§Ø³Ø¦ÙĬÙĨ": 10089, "ÙĬÙĪÙħ": 562, "ĠÙĦØ£ÙĥÙģØ±ÙĨ": 10141, "Ø¯Ø§ÙĨ": 2300, "ĠÙĩØ§Ø±": 7649, "ĠÙĪÙĦÙī": 5596, "ĠÙĪØ§ÙĦØª": 4793, "ĠÙĪØµÙħÙĪØ§": 9029, "ĠÙĬØ³ÙħØ¹ÙĪÙĨ": 1439, "Ø¨Ùĥ": 1216, "ĠÙĪØ¬Ø¦": 4196, "ĠØ£ÙĨØ´Ø£ÙĥÙħ": 4501, "ĠÙĦÙĨÙģØ³": 1657, "ÙĪØ²ÙĨØ§": 8993, "ĠÙĬØ£ØªÙĪÙĨ": 3682, "ĠÙģØ¨Ø£ÙĬ": 1037, "ĠØ¹ÙĦÙĬÙĨØ§": 805, "ĠØ§ÙĦØ®ØµØ§Ùħ": 8426, "ĠÙĩØ§Ø¬Ø±": 9141, "Ø§Ø²": 1315, "ĠÙħØ³ÙħÙī": 1432, "ĠÙģØ§Ø®": 2060, "ĠØ³Ø±Ø§ØŃØ§": 9424, "ĠÙĬÙĩÙĦÙĥ": 3115, "ĠÙħØ³Ùĥ": 3713, "ĠØ¹ÙħÙĦÙĩ": 5175, "ĠÙĬÙĨÙģØ¹ÙĥÙħ": 5328, "Ø§ÙģØ§Øª": 6220, "ĠÙĪØºØ±ØªÙĩÙħ": 6862, "ĠÙĦÙĦÙħØŃØ³ÙĨÙĬÙĨ": 8695, "Ø²Ùħ": 2682, "ĠÙĪØªÙĪÙĥÙĦ": 3249, "ÙģØ±Ø§": 4871, "ĠÙħÙĩÙĬÙĨØ§": 5446, "ĠØ¨ÙĬÙĨ": 247, "ĠØ§ÙħØ±Ø£ØªÙĩ": 4457, "ĠÙĬØ£ÙĥÙĦÙĩ": 9301, "ĠÙĪÙĩØ¯": 4610, "ĠÙĬÙĤØ§ØªÙĦÙĪÙĨ": 2571, "ĠØ¨Ø§ÙĦØ¨Ø®ÙĦ": 9317, "Ø¬ÙĬØ¨ÙĪÙĨ": 9330, "ĠÙĬÙĨØ¨Ø£": 9581, "ĠØ§ÙĦØ¹Ø¯Ø©": 10034, "ĠÙĨØ§Ø¬": 7627, "ĠØª": 86, "Ø§Ø·ÙĬÙĨ": 1658, "ĠØ¨ÙĦØºØª": 4463, "ĠÙĦÙĬØ°ÙĥØ±ÙĪØ§": 6057, "ĠÙĪÙĨÙģØ®Øª": 9727, "ª": 13, "ĠØ§ÙĦÙĨØµÙĬØ±": 8236, "ĠÙĪØ£ÙĪØ±Ø«ÙĨØ§ÙĩØ§": 9776, "ĠÙĦÙĦØ³Ø§Ø¦ÙĦ": 9875, "ĠØ§ÙĦØ¹ÙģÙĪ": 7966, "ĠØ£ØŃØ¯": 820, "ÙĤÙĪÙĨ": 361, "Ø¹ÙĦØ§Ùħ": 7227, "ĠÙĨØ²ÙĦÙĩ": 9364, "ÙĬØ¹ÙĪÙĨ": 5569, "ĠÙĪØ¹ÙĦÙħÙĨØ§Ùĩ": 9625, "ĠÙĤØ¨ÙĦØªÙĩÙħ": 8212, "ĠØ¹ÙĦÙĬÙĥ": 736, "Ø§Ø·": 372, "ĠÙĨØ¨ÙĬÙĩÙħ": 9609, "ĠØ£Ø¹ÙħØ§ÙĦÙĨØ§": 6544, "ĠØ§ÙĦØ´": 364, "ĠØ§ÙĦØ¢Ø®Ø±ÙĬÙĨ": 2144, "ĠØ£Ø£ÙĨØ°Ø±ØªÙĩÙħ": 10045, "ÙĪÙĦ": 126, "ĠÙģÙĤÙĪÙĦÙĪØ§": 7293, "ĠÙĪØ§ÙĦÙħØ¤ÙħÙĨØ§Øª": 2393, "ĠÙģØ§Ø³ØªÙĪÙī": 8934, "ĠÙĦØ¥Ø¨Ø±Ø§ÙĩÙĬÙħ": 9523, "ĠÙĪÙĨÙĤÙĪÙĦ": 8247, "ĠÙĪØ£ÙĪÙģÙĪØ§": 4080, "ĠØ¥ØµÙĦØ§ØŃ": 9760, "ĠØ£ÙħÙĨØªÙħ": 5332, "ĠØ¨ÙĥØ±Ø©": 3122, "ĠÙģØ¹ÙĨØ¯": 8996, "ĠÙĤØµÙĪØ±Ø§": 9483, "ĠØ§ÙĦØµÙĪØ±": 2532, "ØµÙĦØ§": 2677, "ĠÙĦÙĬØ³Øª": 3219, "ĠÙĪØ¨Ø§ÙĦÙĪØ§ÙĦØ¯ÙĬÙĨ": 5356, "ĠØ¬Ø§Ø¡Øª": 2539, "Ø¸Ø©": 2346, "ØªÙĬÙĩÙħ": 1369, "Ø§ØªÙĪØ§": 3162, "ĠØ§ÙĦØ¨Ø·ÙĪÙĨ": 6336, "ĠÙĪØ£ÙĨ": 322, "ĠÙĪÙĨØ°Ø±": 2958, "ÙĪØ¬ÙĪÙĩ": 3736, "ĠÙĬØµ": 690, "ĠØ§ÙĦÙħØŃØ±Ø§Ø¨": 5521, "ĠØ¥ÙĥØ±Ø§Ùĩ": 10213, "ĠØ§ÙĦØ£Ø´": 4115, "ĠÙģØ£ÙĩÙĦÙĥ": 3208, "ĠÙĪØ£ÙĥÙĪØ§Ø¨": 6742, "Ø³Ø¯ÙĪÙĨ": 7262, "ĠÙĪØ§ÙĦØ³Ø§Ø¹Ø©": 9057, "ĠÙĬÙģØµÙĦ": 4340, "ĠØ±Ø¢Ùĩ": 5489, "ÙĬØ¯ÙĪÙĨ": 1802, "ĠÙĦÙĬØ¹ÙĦÙħ": 4175, "ĠØªØ¹Ø±Ùģ": 6329, "Ø§Ø¬Ùĩ": 8946, "ĠØ±ÙĩØ·": 9833, "ÙģØªØŃÙĨØ§": 9435, "ĠØ¹ÙħÙĬ": 4728, "ĠÙĪØ§ÙĦØ£Ø¨ØµØ§Ø±": 3251, "ĠÙĤØ·Ø¹Øª": 9950, "ĠØ£ÙħØ±Øª": 3305, "Ø³Ø¯Ø§": 4650, "ĠÙģØ£Ø±Ø³ÙĦÙĨØ§": 3209, "Ø¹Ø¯": 168, "ĠØªØ¹ÙģÙĪØ§": 6330, "ĠØ§ÙĦØ¶": 2442, "ĠÙĨØµØ¨": 5219, "ĠØ¹ÙĦÙĬÙĩÙĨ": 2342, "ĠØ°Ø±ÙĬØªÙĬ": 5385, "ĠØ³ÙĦÙħØ§": 7669, "ÙĤØ±Ø¨": 1624, "ĠØ¬ÙĨØ§Øª": 705, "ĠÙĦÙĥÙĨØ§": 5062, "ĠÙĪØ·Ø§Ø¦ÙģØ©": 6653, "ĠØ¨ÙħÙģØ§Ø²": 8919, "ĠÙĪØ§Ø¨": 1306, "ĠØ®ÙĦØ§ÙĤ": 5926, "ØµÙģ": 2200, "ĠØ¨ÙĬÙĪ": 2249, "ĠØªÙĤØ±Ø¨ÙĪØ§": 4324, "ĠÙħÙĪÙĦÙī": 5008, "ÙģØ¹ÙĪÙĨ": 7394, "ĠÙĦØ¦ÙĦØ§": 5687, "ĠÙĪÙĤØ¯": 798, "ĠÙĪØ§Ø¯Ø¹": 5371, "ĠØ§ÙĦØŃÙĥÙĬÙħ": 909, "ĠÙĦØ£Ø²ÙĪØ§Ø¬Ùĥ": 10140, "ĠØµÙĦ": 4167, "ĠØ£Ø¨ÙĨØ§Ø¡": 1904, "ĠÙĪØ§ÙĦØµ": 1320, "ÙĩØ§Ø¯": 1861, "Ø¶ÙĨ": 5812, "ĠØ¨Ø§Ø³Ø·": 9596, "ĠØ§ÙĦÙĨØ¨ÙĬ": 930, "ĠÙģØ¬Ø¹ÙĦÙĨØ§": 2264, "ĠØ§ÙĦÙħÙĪØª": 1008, "ĠÙĪØ§ÙĦÙħØŃØ±ÙĪÙħ": 8637, "ĠÙĨØ¤": 2688, "ĠØ´Ø·": 5930, "ĠØªØ®Ø§ÙģÙĪÙĨ": 4337, "Ø£ÙĨØ¹Ø§Ùħ": 5207, "ĠÙĪØ§ÙĦØ²": 4058, "ĠØ§Ø³ØªÙħØªØ¹": 10163, "ĠÙĬØ³Øª": 415, "ĠÙĪØ£ÙĪÙĦ": 4076, "ĠØ±Ø²ÙĤÙĩ": 5233, "ĠØ¨Ø§ÙĦÙĨØ§Ø³": 5966, "ÙĨØ§Ø±": 7454, "ĠÙĪØ§ÙĦÙħØ±Ø¬Ø§ÙĨ": 9955, "Ø¨Ø±ÙĬ": 3927, "ÙħØ§Ø¦": 4019, "ĠÙĬÙĨØ¨ØºÙĬ": 3879, "ĠØªÙħÙĦÙĥ": 4432, "ĠÙħÙĪÙĦØ§ÙĥÙħ": 4521, "ĠÙĬØ¹ÙĤÙĦÙĪÙĨ": 1413, "ĠØ¹Ø¸Ø§ÙħØ§": 4735, "ĠÙĪÙĨØ¬ÙĬÙĨØ§Ùĩ": 5033, "ĠØ§ØªØ¨Ø¹Ùĥ": 5250, "Ø±Ø§Ø¬Ø§": 7834, "ĠÙĬØŃÙħÙĦÙĪÙĨ": 10124, "ÙħØ±Ùĩ": 8192, "ĠØ§ÙģØªØ±ÙĬØªÙĩ": 9084, "ĠÙħØªØ¹": 8798, "Ø§ØŃØ¨Ùĩ": 9191, "ĠÙĬØ´Ø§Ø¡": 428, "ĠÙĦØ£Ø¸ÙĨÙĥ": 8499, "ĠØ¨Ø¶Ø§": 5722, "ĠÙĬÙĩØ¯ÙĬÙĩÙħ": 6519, "ĠÙĬØ³Ø±ÙĨØ§Ùĩ": 9479, "ĠØ´ÙģØ§Ø¹Ø©": 3593, "ĠØ´Ø±Ø§Ø¨": 5276, "ĠØ§ÙĦØºØ§ÙĦ": 2765, "ĠÙħØµØ±": 3933, "ĠÙĦØªÙĨ": 4305, "ĠØ§Ø®ØªÙĦØ§Ùģ": 9154, "ĠÙħÙĪØ¹Ø¯ÙĩÙħ": 8183, "ÙĦÙĨØ§": 219, "ĠØ¬Ø§Ø¡Ùĩ": 3253, "Ø¨Ø¯": 250, "ÙĪØ§ØªÙĥÙħ": 5001, "ĠØ£ØµØ§Ø¨Ùĥ": 6612, "ĠØ°Ø§Ø¦ÙĤØ©": 7060, "ĠÙĪØ¬Ø¹ÙĦ": 892, "ĠØªÙĨÙĩØ±": 8611, "ĠØ¹ØªÙĬØ¯": 9765, "ĠÙĪØ£ÙĪÙĦØ¦Ùĥ": 1289, "ĠÙħØ«ÙĦÙĨØ§": 3695, "ĠØ±ÙĤØ¨Ø©": 3864, "ĠØ·Ø±Ø§Ø¦": 8273, "ĠØ§ÙĦØ±ÙĬØ§ØŃ": 2510, "Ø°Ø¨Ùĩ": 4186, "ĠÙĤØ³Ùħ": 4759, "ĠØ§ÙĦØ£Ø®": 2345, "ĠÙĦØ¹ÙĦÙħ": 7301, "ĠÙħØ³ÙĨÙĪÙĨ": 6995, "ĠÙĨØ±Ø§Ùĥ": 4806, "ĠÙģØ±Ø¢Ùĩ": 8448, "ĠØ§Øµ": 2013, "Ø¹ÙĦÙħÙĪÙĨ": 1975, "ĠØ³ÙħØ§Ø¡": 7676, "ĠØ¯Ø§Ø¦": 3618, "ĠØ§ÙĦÙħØ³Ø§Ø¬Ø¯": 8850, "ĠÙĪÙĥÙĨØ§": 1808, "ĠØ¨Ø¹Ø¯Ùĩ": 1472, "ĠØ¨ÙĬØ§Øª": 5710, "ĠØ¹ÙĬØ´": 7449, "Ø¯Ø§Ø¯": 3955, "ĠÙħÙĪÙĦÙĪØ¯": 7220, "ĠÙģØ³Ø¬Ø¯": 8668, "ĠØ§Ø¶": 2773, "ĠØ§ÙĦØ£ÙĪÙĦÙĪÙĨ": 3785, "ĠÙĦÙĬØªÙĨØ§": 8001, "ĠØ±Ø²ÙĤÙĥÙħ": 3022, "ĠÙģØ§ØµØ¨Ø±ÙĪØ§": 9328, "ĠÙĦÙĦØºÙĬØ¨": 10123, "ĠØ§ÙĦØ¬Ø¨ÙĦ": 8283, "ĠØ£Ùħ": 177, "ĠÙĩØ¯": 2897, "ĠØµØŃÙģØ§": 7990, "ĠØ³ØŃØ§Ø¨": 3566, "ĠØ¥ÙĦÙĩ": 492, "ĠÙĬØŃÙĬÙĬ": 1602, "ĠÙĪØ§Ø¨ÙĨ": 3042, "ØŃØ§ÙĩØ§": 4431, "ĠÙħØ¨Ø¹ÙĪØ«ÙĪÙĨ": 7216, "Ø²ÙĬÙĦ": 2327, "ĠØªØŃÙĬ": 8395, "ĠØ¨ÙĬÙĨÙĬ": 2366, "ĠØ§ÙĦÙĤÙĬÙħ": 4937, "ĠØ§ÙĦØ¶Ø±": 2625, "ĠØŃØ¯": 1091, "ĠØ¯Ø§Ø¨Ø±": 5354, "Ø¢Ø®Ø±ÙĬÙĨ": 6217, "ĠØ§ÙĦØŃØ³ÙĨ": 2090, "ĠÙĥØ±Ø³": 7512, "Ø³Øª": 164, "ĠÙħÙĪØ§Ø¶Ø¹Ùĩ": 6759, "ĠÙĪØ£ÙĩÙĦÙĩ": 3051, "ĠØ§ÙĦØ£Ø¯Ø¨Ø§Ø±": 4117, "ĠÙĪØ¯ÙĪØ§": 5605, "ĠØµÙĪØ±ÙĥÙħ": 7989, "ĠØ¹ØµÙĪØ§": 6619, "ĠÙĦÙĦÙĤÙĪÙħ": 6917, "ĠØ£ÙĪØªÙĪØ§": 1094, "ĠØªÙĤØ±Ø¨": 3734, "ÙĨØ«": 7083, "ĠÙģÙĬØµÙĬØ¨": 7540, "ĠØ¨ÙĩØ°Ø§": 1983, "ĠÙĪØ£ÙĪÙĦØ§Ø¯ÙĥÙħ": 6893, "ĠØ§ÙĦØ®Ø§Ø³Ø±ÙĪÙĨ": 2386, "ĠØ¥ÙĨÙĩÙħ": 692, "ĠØªØ³ØªÙĥØ¨Ø±ÙĪÙĨ": 6559, "ĠØ¹Ø¨Ø§Ø¯Ùĥ": 3318, "ĠØ£Ø´": 699, "ĠÙĪØ¹Ø¯Ùĩ": 3320, "ĠØ£Ø¦ÙĨ": 3463, "Ø°ÙĪÙĤÙĪØ§": 1740, "ĠÙĪØ§ÙĦØ£Ø³Ø¨Ø§Ø·": 4999, "ÙĦÙĥ": 119, "ĠÙħØªØ¹ÙħØ¯Ø§": 8803, "ĠØµØ¯ÙĪØ±ÙĩÙħ": 2570, "ĠÙĨÙĩÙĪØ§": 4066, "ĠÙĦÙĦÙħÙĦØ§Ø¦ÙĥØ©": 2778, "ĠØ§ÙĦØ®Ø²ÙĬ": 4276, "ĠØ·ÙĦ": 5035, "ĠÙĪØ£ÙĤØ§Ùħ": 7724, "ĠØ³Ø§Ø¯Ø³ÙĩÙħ": 10078, "ĠÙĤØµØµ": 4509, "ĠÙĦØ¹ÙĨØ§": 8755, "Ø·Ø§Ø¹ÙĪØ§": 4355, "ĠØ£Ø±Ø³ÙĦ": 2564, "ĠØ¯Ø¹ÙĪØªÙĩÙħ": 10272, "ĠØ§ÙĦÙĨØ¬ÙĪÙī": 5434, "ĠØ§Ø«ÙĨ": 6678, "ØªØºÙĪØ§": 3441, "ĠØ¨Ø£ÙħÙĪØ§ÙĦÙĩÙħ": 3063, "ĠØ§Ø¹ØªØ¯Ùī": 5430, "ĠØ§ÙĦØ¨ÙĤØ±": 6335, "ĠØ£Ø¨ÙĦØºØªÙĥÙħ": 6864, "ÙĥÙĩÙħ": 5611, "ØªØ§ÙĨÙĪÙĨ": 9630, "ĠØ§ÙĦÙģØ¬Ø§Ø±": 8641, "ÙĪÙģØ§ÙĨ": 8197, "Ø§Ø¡ÙĪØ§": 3569, "ĠØ®ÙĬØ±": 438, "ĠØ¥Ø³Ø±Ø§Ø¦ÙĬÙĦ": 903, "ĠÙĦØ¥Ø®ÙĪØ§ÙĨÙĩÙħ": 5427, "ĠØ§ÙĦÙĤÙĪÙĬ": 6046, "ĠØ¬ÙħØ§ÙĦ": 7777, "ÙĤÙĪØ§": 291, "ĠÙĬØ£ÙģÙĥÙĪÙĨ": 8300, "ĠÙģØ±ÙĬÙĤ": 2030, "ĠÙĬØ®Ø²ÙĬ": 4294, "ĠÙĪØ¶Ø§ÙĤØª": 10187, "ĠØ³Ø¨Ø¨Ø§": 5268, "ĠÙĦØº": 1275, "Ø±Ø³ÙĪÙĨ": 8055, "ĠØ£ÙĨØª": 756, "Ø²Ø©": 1862, "ĠØªØ¨Ø§Ø±Ùĥ": 3527, "ĠØŃØ³Ø¨Ø§ÙĨØ§": 9299, "ÙĥØ±Ø§Ùħ": 7177, "ĠØªØª": 462, "ĠØ¨Ø¢ÙĬØ©": 2274, "ĠØµØ¯ÙĤ": 2131, "ÙĩÙĪÙĩ": 6106, "ĠÙħÙĥ": 790, "ĠØ®ÙħØ³ÙĬÙĨ": 9847, "ØºÙĪ": 2911, "ĠÙĪØ£Ø³Ø±ÙĪØ§": 4078, "ĠÙħØ³Ø¬Ø¯Ø§": 8521, "Ø¨ØªÙĦÙĬÙĥÙħ": 8626, "ĠÙħÙĨÙĩØ§": 554, "ĠÙģØ§Øµ": 1689, "ĠÙģØ§Ø¯Ø¹": 4498, "ĠÙĬØ±": 288, "ĠÙģØ§Ø¬ÙĦ": 8204, "ĠØ§ÙĦÙħØ´Ø±ÙĤ": 3890, "ĠØ¢ØªÙĬÙĨØ§ÙĩÙħ": 1834, "Ø´Ø±Ùī": 4190, "ĠÙĬØ®ÙĦÙĤÙĪÙĨ": 4452, "ØµØ¯ÙĤØ§": 2127, "ĠÙĪØ£ÙħØ±Øª": 3849, "ĠÙĪØ¹ÙĩØ¯ÙĩÙħ": 8369, "ĠÙĪÙĦÙĬØ®": 8549, "ĠØ£ÙĦÙħ": 583, "ĠÙĨÙĤØ§ØªÙĦ": 7639, "ĠÙħØ®ÙĦØµ": 3939, "ĠÙĨØªÙĪÙģÙĬÙĨÙĥ": 6891, "ĠÙĪØ²ÙĪØ¬Ùĥ": 9897, "ĠØ§Ø¦": 1844, "ĠÙĦØ¯ÙĨÙĩ": 9048, "ĠØ§Ø³ØªÙĪÙī": 2768, "ĠÙħÙĬØ«Ø§ÙĤÙĩÙħ": 5349, "ÙĬØ§": 161, "ĠÙĪØŃØ§ÙĤ": 3336, "ĠÙĪÙĥØªØ¨Ùĩ": 6973, "ĠÙģÙĬØªØ¨Ø¹ÙĪÙĨ": 7542, "ĠÙĤØ·ÙĪÙģÙĩØ§": 9948, "ĠØ´Ùĥ": 1197, "ÙĨØ§ÙĨ": 5748, "ĠØ²ÙĬÙĨ": 1415, "ĠØªØµØ¨Ø±ÙĪØ§": 4387, "ĠÙĬØ¨Ø´Ø±Ùĥ": 8863, "ĠÙĪØªØ´": 8150, "Ø¨Ø±ÙĪÙĨ": 1613, "Ø±Ø¨Øµ": 1719, "ĠØ§ÙĦÙħØ´Ø£": 5896, "ĠÙĪØ£ÙĨÙĩØ§Ø±": 6203, "ĠÙģØ±": 412, "Ø§Ø¹ÙĬ": 7076, "ĠØŃÙĤØª": 4090, "ĠØ¢ÙĬØ§ØªÙĨØ§": 1057, "ĠØ¹ÙĤØ¨ÙĬÙĩ": 6890, "ĠÙĥØ°Ø§Ø¨Ø§": 9770, "ÙĦØ§ÙĨÙĬØ©": 4741, "Ù": 30, "ĠÙĪÙģÙĬÙĩØ§": 6548, "ĠØªØ³ØªÙĪÙĬ": 8976, "ØºÙģØ±Ø©": 1209, "ĠØ¯ÙĬÙĨÙĩÙħ": 2591, "ĠÙģÙĬÙĨØ¨Ø¦ÙĥÙħ": 3377, "ÙĦØ§Ø«": 1355, "ĠØ§ÙĦØŃØ±Ø«": 4920, "ĠØªØºÙĦÙĪØ§": 9315, "ÙĦÙħØ§ØªÙĩ": 3752, "ĠØ£ØªØ¹Ø¨Ø¯ÙĪÙĨ": 8754, "ÙĨØ²ÙĬØ±": 4579, "ĠÙģØ³ÙĨÙĬØ³Ø±Ùĩ": 10309, "ÙĬØªÙĪÙĨ": 8512, "ĠØ§ÙĦØºØ§ÙģÙĦÙĬÙĨ": 8525, "ĠØ¨ÙģØ§ØŃØ´Ø©": 5504, "ĠÙĪØ±Ø³": 551, "ĠÙģØ£ÙĨØ³": 6010, "ĠÙĪØ²ÙĬØ±Ø§": 8872, "ĠØ±Ø¤ÙĬØ§": 5809, "ĠØ£ÙĨØ¹Ø§ÙħØ§": 7587, "Ø®ÙĦÙģÙĬÙĨ": 9360, "ØªØ±ÙĬ": 7180, "ĠØ´ÙĩØ±Ø§": 8988, "ĠØ¨Ø§ÙĦØŃØ³ÙĨ": 2919, "ĠÙĨØµØ±": 1397, "ĠØ£Ø´Ø±ÙĥÙĪØ§": 2270, "Ø¹Ø§Ø¡": 3098, "ĠÙģØ£ÙĩÙĦÙĥÙĨØ§ÙĩÙħ": 6898, "ĠÙĬØ¹Ø¨Ø¯ÙĪÙĨ": 2551, "ĠÙĨØ¬ÙĬØ§": 8887, "ĠØªØ¹ÙĦÙĪØ§": 7494, "ĠÙħØ¹Ø´Ø±": 6108, "ĠÙģØ±Ø§Øª": 8442, "ĠÙĬØ¶Ø±": 1854, "ĠØ£ÙħÙĪØ§ÙĦÙĩÙħ": 1541, "´": 22, "ĠÙĪØ³ÙĬ": 4320, "ĠÙĬØŃØ±ÙģÙĪÙĨ": 6149, "ĠÙĦØ¢Øª": 6556, "ĠÙĥØ³Ø¨ØªÙħ": 6560, "ĠÙĬØµØ¯Ø±": 9450, "ĠÙĪØ¨Ø¹": 7141, "ÙħØµØ©": 7098, "ĠÙĤÙĪÙħ": 310, "ĠØªÙĤÙĪÙĦ": 1220, "ĠÙĬØ®": 425, "ÙĦÙħÙĪØ§": 5851, "ĠØ§ÙĦÙĤÙĪØ©": 6047, "ĠØ±Øº": 4778, "ĠÙĥØ§ÙĨÙĪØ§": 268, "ĠØ§ÙĦØ¨Ø§Ø·ÙĦ": 2561, "ĠØ§ÙĦØ®Ø¨ÙĬØ«": 2977, "ĠØ§ÙĦÙħØŃÙĬØ¶": 7050, "ĠØ¬ÙĩØ±Ø©": 5920, "Ø³ÙħØ§Ø¹ÙĬÙĦ": 2279, "ĠØ£ÙĨÙĥÙħ": 1957, "ĠØ£Ø¯Ø¨Ø§Ø±ÙĩÙħ": 6985, "ĠÙĪÙĬÙĤØ·Ø¹ÙĪÙĨ": 7909, "ØªÙħØª": 1877, "ĠØªØ£ØªÙĬÙĩÙħ": 1827, "ĠÙĦÙħÙĩØªØ¯ÙĪÙĨ": 8096, "ĠÙħØ¹Ø±Ø¶ÙĪÙĨ": 1992, "ĠØ£Ø®Ø°ÙĨØ§": 2261, "ÙģØ³Ø¯ÙĪÙĨ": 4939, "ĠØ¶Ø±Ø¨ÙĪØ§": 6675, "ĠØ¢ØªÙĬÙĨØ§Ùĥ": 8894, "ĠÙĪÙĪÙĦ": 5597, "ĠØ§ÙĦÙĥØ¨Ø±": 2096, "ĠÙĦÙĦØ°ÙĬÙĨ": 577, "Ø¹ØªÙħ": 3459, "Ø§ÙģØ¸": 1656, "ĠÙģØªØ±Ø§Ùĩ": 8323, "ĠØ¨Ø¹Ø¨Ø§Ø¯": 2230, "ĠØ£Ø´ÙĩØ¯": 6460, "Ø£Ø®Ø±": 7419, "ÙĨØ¬ÙĬÙĦ": 2272, "ĠØ¨ÙĪØ¬ÙĪÙĩ": 7379, "ĠØ±Ø¨ÙĥÙħ": 495, "Ø§ÙĨÙĬØ©": 3550, "ĠØŃØ±ÙħÙĨØ§": 3771, "ĠÙĪØªØµØ±ÙĬÙģ": 9879, "ĠÙĪØ£ÙĪØ±Ø«": 3574, "ĠÙħØ®Ø±Ø¬": 3931, "ĠØ£Ø·ÙĬØ¹ÙĪØ§": 3953, "Ø±Ø¶ÙĬÙĨ": 4127, "ĠÙĪØ§ÙĦÙģØ±": 7593, "ĠØªØ¬Ø§Ø±Ø©": 3720, "ĠØ¹Ø²": 5746, "ĠÙĪØ§ÙħØ±Ø£": 3648, "Ø¥Ø°ÙĨ": 7589, "ĠÙĦØ£ÙĨÙģØ³ÙĩÙħ": 6773, "ĠØ¬ÙħÙĬØ¹": 6487, "ĠÙĬØµÙĦØŃÙĪÙĨ": 8782, "ĠØ£Ø±Ø£ÙĬØªÙħ": 2021, "ĠØ§ÙĦØ£Ø³ÙħØ§Ø¡": 4556, "ĠÙħØªØ§": 1241, "ĠÙĪØ®Ø±": 4609, "Ø¬Ø±ÙħÙĪÙĨ": 1817, "ĠÙĦØ°ÙĩØ¨": 7313, "ĠØ¹Ø§ÙĦÙħÙĬÙĨ": 7439, "ĠÙĦÙĦØ´Ø§Ø±Ø¨ÙĬÙĨ": 7065, "ĠØ§ÙĦÙģØ±ÙĤØ§ÙĨ": 5407, "ÙħØŃÙĪÙĨ": 7096, "ĠÙĨØ£ØªÙĬ": 10076, "ĠØ§ÙĦØŃÙĥÙħØ©": 4513, "ÙĬÙħØ§ÙĨÙĥÙħ": 8419, "ÙħØ§Ø±ÙĪÙĨ": 7461, "ĠØ¨Ø¦Ø³": 2865, "ĠØ§ÙĦØ¨ØŃØ±ÙĬÙĨ": 5287, "Ø´ÙĤ": 7578, "Ø£Ø³": 2464, "ĠÙĪÙĥÙĩÙĦØ§": 8023, "Ø²ÙĨØ§": 4785, "ĠÙģØ£ÙĨØ¨ØªÙĨØ§": 5241, "ĠØªØ±Ø§Ø¨Ø§": 2739, "ĠØµØ¯ÙĤÙĩÙħ": 8720, "ĠØ·Ø¨Ø§": 8270, "ĠÙĪØ¬Ø§Ø¡ÙĩÙħ": 6628, "ÙĨØ§ÙĩØ§": 1395, "ĠÙĬØªÙĥ": 6116, "Ø¶Ùī": 1447, "ĠÙĦØ¬Ø¹ÙĦÙĨØ§": 5374, "ĠÙħØ±Ø¶Ùī": 5291, "ĠÙĬØ¨Ø§ÙĬØ¹ÙĪÙĨ": 7002, "ĠÙĬÙĤØ±Ø¡ÙĪÙĨ": 8739, "ĠØªØ¨ØªØºÙĬ": 9532, "ĠØ¨Ø¸ÙĦÙħÙĩÙħ": 9756, "ĠØ§ÙĦÙħÙĩØªØ¯": 10085, "ĠÙĪÙĬÙĥÙĪÙĨ": 4900, "ĠÙħØŃ": 1130, "ĠØ´Ø§ÙĤÙĪØ§": 9715, "ĠØ§ÙĦØ£ÙĪØªØ§Ø¯": 10259, "ĠÙĦÙĬØ¬Ø²ÙĬ": 2524, "ÙĦØ§ÙħØ§": 2194, "ĠÙĪÙĤØ°Ùģ": 7979, "ĠØ§Ø³ØªØ³": 8557, "ĠØ§Ø®Ø±Ø¬": 6629, "ĠØ¨Ø§ÙĦÙħÙĪØ¯Ø©": 9266, "ĠÙĬØŃØ°Ø±ÙĪÙĨ": 8172, "ĠÙĪØ²ÙĬÙĨØ©": 9587, "ĠÙĤÙĦØª": 4150, "ĠØ§ÙĦØŃØ·": 6001, "ĠØ§ÙĦÙħØ´ØŃÙĪÙĨ": 7008, "ĠØ¥ÙĬÙħØ§ÙĨÙĩ": 9161, "ĠÙħÙħØ³Ùĥ": 7214, "Ùĩ": 53, "ĠØ³Ø¨ØŃØ§ÙĨÙĩ": 2028, "ĠØ®Ø§Ø·": 4866, "Ø¤ÙħÙĨÙĬÙĨ": 376, "ĠÙĬØµÙĦÙĬ": 8779, "ĠØ¨ØŃ": 2309, "Ø¬Ø±ÙĬ": 5773, "ĠØ§ÙĦØµØ±Ø§Ø·": 3646, "ĠÙĪØ¢ÙħÙĨØªÙħ": 9731, "ĠØ¨Ø§ÙĦÙħØª": 7852, "ÙĬØ§ÙħØ©": 637, "ĠØ£ÙĪØ¹Ø¬": 7871, "ĠØ¨ÙħØ«ÙĦÙĩ": 8914, "ĠØ¨ØŃÙģÙĬØ¸": 9526, "Ø§Ø¹": 2612, "ĠÙĥØ§Øª": 3532, "ÙģØ¹ÙĪØ§": 5728, "ĠÙĪÙĪØ§Ø¹Ø¯": 7163, "ĠØªØ±Ø¬Ùģ": 9991, "Ø¯Ø±ÙĬ": 5652, "ÙħÙĬØ¹": 931, "ĠØŃÙħÙĬØ¯": 3765, "ĠØ£Ø´Ø±Ùĥ": 1389, "ĠÙĪØªØ¸ÙĨÙĪÙĨ": 8162, "ĠÙĤØ±": 1445, "ĠØ£ÙĬÙĨÙħØ§": 6715, "ĠÙĪØ²Ø±": 2577, "ĠÙĪØ§ÙĦØ£Ø±Ø¶": 357, "ĠØ£Ø¹ÙĤØ§Ø¨": 5141, "Ø§ØºÙĪØª": 3025, "ĠÙĬØªØ¨Ø¹ÙĪÙĨ": 2732, "ĠØ¨Ø£Ø³ÙĨØ§": 2599, "ĠÙĪÙĬØ¯Ø®ÙĦÙĩÙħ": 7901, "ĠØ£": 62, "Ø£ÙĦÙĪØ§": 2869, "ĠÙĦØ°": 3967, "Ø±ÙĬÙĤ": 3222, "ĠØ¯Ø§Ùħ": 6006, "ĠÙĬÙģÙĦØŃ": 2779, "ĠØ¨Ø§ÙĦØ³Ø§": 7853, "ĠÙģØ³": 567, "ĠÙĦÙĥ": 358, "ĠØªÙħÙĨÙĪÙĨ": 9641, "ĠÙĨØ§Ø¯": 1701, "ĠØ¨Ø§ÙĦØ¹Ø±Ø§Ø¡": 9974, "ĠÙĪØµÙĬÙĨØ§": 9028, "ĠØ§ÙĦØ¹Ø¨Ø¯": 7963, "ĠØ§ÙĦØ·Ø§ØºÙĪØª": 3757, "ĠÙĬØ¨ØºÙĪÙĨ": 4370, "ĠØªØ¨Ø®Ø³ÙĪØ§": 6545, "ĠÙĦÙĬØ¬ÙħØ¹ÙĨÙĥÙħ": 10276, "ĠØ¢Ø¨": 843, "ĠØ¹Ø·Ø§Ø¡": 4736, "Ø¹ÙĪØ¯Ø§": 6613, "ÙĩÙĪØ¯": 2227, "ØªÙħØªØ¹ÙĪØ§": 3851, "ÙĩÙĬØª": 7118, "ØŃØ²Ø§Ø¨": 2429, "ĠÙħØ®ÙħØµØ©": 9199, "Ø§Ø¦ÙĩØ§": 8063, "ĠØ£ÙĦØŃÙĤ": 9387, "Ø°Ø§Ø¨ÙĨØ§": 8034, "ĠØªØ§Ø¨": 1396, "ÙĥÙĨÙĪØ§": 3019, "ĠÙĪÙĩØ§Ø¬Ø±ÙĪØ§": 5358, "ĠØ§ÙĦØŃÙĥÙħ": 2220, "ĠØ¬Ø§Ø¡ÙĩÙħ": 929, "ĠØ¨Ø³Ø·": 4708, "ĠØ§Ø±Ø¬Ø¹": 5369, "ĠØªØ¨": 940, "ĠØ°Ø±ÙĬØªÙĩÙħ": 5387, "ĠÙĬØ³Ø¬Ø¯ÙĪÙĨ": 5474, "ĠØ³": 117, "ĠØ§ÙĥØªØ³Ø¨": 6899, "ĠØ¶ÙĬÙĤØ§": 8337, "ĠØªØ¨ÙĬÙĨ": 2317, "ÙĦÙĬÙĨØ§": 599, "ĠÙģØ§ØªØ¨Ø¹": 3028, "ĠØ§ÙĦØµØ§Ø¨Ø±ÙĬÙĨ": 2533, "ÙĬÙĨØ§Ùĩ": 1256, "ĠÙĪØ±ØŃÙħØªÙĩ": 3292, "ÙĪØ§Ø±": 2457, "ĠÙģÙĪØ§ÙĥÙĩ": 9928, "ĠÙģØ£ÙĨØ²ÙĦÙĨØ§": 6528, "ĠÙĪÙĨØ³ÙĬ": 8250, "ĠÙĪØ¶Ø§": 7157, "ĠØªÙħØ¯ÙĨ": 9138, "ĠØ£Ø±Ø¯ÙĨØ§": 4346, "ĠÙģÙĪØ²Ø§": 5678, "Ø¸ÙĨÙĥ": 4881, "ĠÙĬØ¶Ø¹ÙĨ": 6566, "ĠØªØ¹Ø¯ÙĪÙĨ": 7485, "ĠØ£ÙĩÙĦÙĨØ§": 8349, "ĠÙĬØ±Ø¶Ùī": 4686, "ĠÙĦÙĬØ¯Ø®ÙĦ": 6916, "ĠØ´Ø±Ø¨": 4109, "ĠØ§ÙĦÙĤÙĪÙħ": 706, "ĠØ£ÙĨØ«Ùī": 2888, "ĠÙģØ§Ø¨": 5661, "ĠÙĪÙĦÙĬÙĥÙĪÙĨ": 8552, "ĠÙĪØ£Ø®ÙĪØ§ØªÙĥÙħ": 9371, "ĠÙģÙħØªØ§Ø¹": 9593, "ĠÙĬØŃÙĬ": 1035, "ĠØ£ÙĨÙģØ³ÙĩÙħ": 625, "ĠÙħÙĨÙĤÙĦØ¨ÙĪÙĨ": 10067, "ĠÙĪØ¨Ø±": 2843, "ĠÙĨÙĪØŃÙĬÙĩ": 8893, "ĠÙĪÙĦØ¢": 7836, "ĠÙĪØµÙĪØ±ÙĥÙħ": 9030, "ĠÙģØ³Ø¨ØŃØ§ÙĨ": 6809, "ĠÙĪØ§ÙĦØ¯": 7590, "ĠÙĨÙĪØ±": 1960, "ĠÙģÙĥØ°Ø¨": 1733, "ĠÙĪÙĪØ¬ÙĪÙĩ": 7164, "ĠØ¬Ø§Ø¡ÙĩØ§": 8190, "ĠÙħØ«ÙĪÙī": 2756, "Ø§ÙģÙĪÙĨ": 1655, "ĠÙĤØ±Ø¦": 9222, "ĠØ§ÙĦØ¹ØªÙĬÙĤ": 10273, "ĠØ£ÙģÙĦØ§": 872, "ÙħÙĪÙĨ": 545, "ĠØ¸ÙĦÙħØª": 6444, "ĠØ±Ø¢": 3150, "ÙħØªØ¹": 6461, "ĠÙĨØ¶Ø±Ø¨": 7636, "ĠÙĬÙĨÙĬØ¨": 10201, "ĠØ£Ø¨Ø§ÙĨØ§": 3402, "ÙħÙĨÙĪØ§": 1446, "Ø´Ø±ÙĬÙĨ": 3638, "ĠØ£Ø®": 547, "ĠØ³ÙĪÙĦ": 4818, "ĠÙĪØ¨ÙĬÙĨÙĩ": 6563, "ĠØŃÙħÙĦÙĨØ§": 4362, "ĠØ¹ÙĨØ¯ÙĩØ§": 6183, "ĠÙĥØ£": 1697, "ĠØ§Ø¨ØªØºÙī": 9441, "ÙĥÙĬÙħ": 569, "ĠØ§ÙĦÙħØ¹": 3575, "ĠÙĪØ§Ø¹Ø¨Ø¯ÙĪØ§": 6111, "ĠØ®ÙĦÙĤÙĪØ§": 4243, "Ø¹ÙħØ±Ø©": 7918, "ĠÙĬØ®Ø´Ùī": 3702, "ĠØ§ÙĦÙħØ³ØªØ¹Ø§ÙĨ": 9425, "ĠÙĦÙħØŃÙĬØ·Ø©": 10283, "ĠØ°Ø±ÙĩÙħ": 9494, "Ø¹ÙĦÙħÙĨ": 3204, "ĠÙĦØ¹ÙģÙĪ": 8758, "ØªÙĨÙĨÙĬ": 9384, "ÙĪØŃ": 424, "ĠÙģØ«": 7270, "ĠÙĪØ¹Ø¯ÙĨØ§": 4327, "ĠØ³ÙĬØ¯": 7660, "ĠØ§Ø³ØªÙĥØ¨Ø§Ø±Ø§": 10013, "ÙĪÙĬ": 741, "Ø°Ø±ÙĬÙĨ": 1897, "Ø°ÙĥØ±Ø©": 8429, "Ø±ØŃØ§Ùħ": 3356, "ĠÙĪØ§ÙĦÙĨØ§": 2479, "ĠÙĪØ£Ùħ": 1361, "ĠØ£ØµØ§Ø¨ØªÙĩÙħ": 9109, "ĠÙĬØ¬Ø§Ø¯ÙĦÙĪÙĨÙĥ": 9739, "ĠÙĬØ³Ø¹Ùī": 3708, "ĠØ¹Ø¬Ø¨Ø§": 5346, "ĠÙĪÙħÙĨ": 184, "Ø§Ø¯Ø§": 1801, "ĠØ¨Ø³ÙĪØ¡": 5264, "ĠÙĥØ§Ø°Ø¨": 3901, "Ø¹Ø§ÙģØ§": 6151, "ĠØ¨ÙĨØ§Ø¡": 5721, "ĠØªÙĨØª": 7477, "ĠÙĬÙĪØ±Ø«": 7326, "ĠØ§ÙĦØ±Ø´": 5989, "ĠÙĦÙĬØ¶ÙĦ": 4176, "ĠÙĬØªÙĪÙģÙĪÙĨ": 6802, "ĠØ¨ÙĥÙĦÙħØ§Øª": 8744, "ĠØ§ÙĦÙħØ¶": 7733, "ĠØ£ÙĦÙĪØ§": 3100, "ĠØ¹ÙĦØ§Ùħ": 4730, "ĠØªØ±Ø¨Øµ": 7495, "ĠØªÙĥØ°Ø¨Ø§ÙĨ": 1126, "ĠÙĨØ§ÙģÙĤÙĪØ§": 9956, "ĠÙĪØ³ÙĦØ·Ø§ÙĨ": 6391, "ĠÙĪÙĨØ®ÙĦ": 8248, "ĠÙĥØ±": 868, "ĠÙħÙĤØª": 2181, "Ø¬ÙħØ¹ÙĪØ§": 6956, "ĠØªÙĤÙĬÙĥÙħ": 8678, "ØªØ§ÙĥÙħ": 8393, "ĠÙĪØ£ÙĬØ¯": 2492, "Ø´ÙĬØ§Ø·ÙĬÙĨ": 6546, "ĠØ¨ÙĩØªØ§": 4947, "ĠØ§ÙĦØ¹ÙĨÙĥ": 7965, "ĠØªÙĨÙĥØŃÙĪØ§": 5459, "ĠÙĬØ¨Ø§": 4680, "ĠØ¨Ø¬ÙĩÙĨÙħ": 9357, "ĠØ§ÙĦÙħÙĥØ±ÙħÙĬÙĨ": 9964, "ĠÙĪÙĤÙĦÙĬÙĦ": 6029, "ÙĪØ«": 4591, "ĠÙĪØ¬Ø¹ÙĦÙĨØ§Ùĩ": 6515, "ĠØ§ÙĥØªØ³Ø¨ÙĪØ§": 9721, "ÙħØ§ÙĦ": 1925, "ĠØ¨ÙĬÙħÙĬÙĨ": 3496, "ĠÙģØ¹Ø§": 7279, "ĠØªØ¹Ø±Ø¶": 8535, "ĠÙĬØ±ÙĪÙĨ": 2188, "ĠÙĪØ°ÙĪÙĤÙĪØ§": 5608, "ĠÙĪÙĦØ¹Ø¨Ø§": 6767, "ĠÙĪØ¸Ø§": 7154, "ĠØ¶Ø±Ùĩ": 6231, "ĠÙĪØ¹ØµÙī": 8366, "ĠÙħÙĩÙĦÙĥ": 3093, "ĠØªÙĪØ¨": 2874, "ĠÙĬØ¯Ø±Ùĥ": 8449, "ĠØ§ÙĦÙĥØ±": 3429, "ĠØµØºÙĬØ±": 6039, "Ø³Ø§Ø¨": 1501, "ÙĬØ¹": 1607, "ĠØ¨ÙħØ§": 221, "ĠÙĪÙĦØªØµ": 9063, "ĠØ³ÙĪÙĬØªÙĩ": 10244, "ÙĪØ§Ø¨": 938, "ĠØµÙĦØµØ§ÙĦ": 5523, "ĠÙĦØ¨Ø«": 1911, "ĠØ§ÙĦÙĪØ§Ø±Ø«ÙĬÙĨ": 7034, "Ø·ÙĬØ¹ÙĥÙħ": 9585, "ĠØŃÙĥÙĬÙħØ§": 1842, "ĠØ®Ø³Ø§": 5924, "Ø²": 103, "ĠØ§ÙĦÙĤÙĬØ§ÙħØ©": 639, "ÙĬØ±": 120, "ĠÙĬØŃØ²ÙĨÙĥ": 4458, "ĠØ§ÙĦÙħÙĤØ³Ø·ÙĬÙĨ": 7054, "Ø±Ø§Ø±Ø§": 2347, "ĠÙħÙĩØ·Ø¹ÙĬÙĨ": 6843, "ĠÙĬØ²ÙĥÙĬ": 9054, "ĠÙħÙĨÙĬ": 2068, "ÙģØ§ÙĤØ§": 8389, "Ø¹ÙħØª": 4907, "ĠÙģØ§ØªÙĤÙĪÙĨ": 5244, "Ø¹ÙĤ": 4631, "ĠØ¥ÙĨØ§": 346, "ĠØ¨Ø§ÙĦØ£ÙģÙĤ": 9429, "Ø§Ø¬": 936, "ĠØ¨ÙĨØµØ±Ùĩ": 6646, "ÙĪÙĬÙĦ": 1675, "ĠØ§ÙĦÙĪØ¹ÙĬØ¯": 7138, "ĠÙģØ¹ÙĦÙĬÙĩØ§": 6565, "ĠÙĪØ³Ø¨Ø¹": 6389, "ĠÙĪØ£ÙĦÙĤ": 1871, "ĠÙĪÙħÙĥØ±": 5093, "ĠÙĨØ¶Ø±Ø©": 7638, "ĠØ³Ø¯Ø§": 5856, "ĠÙĪØ¨ÙĬÙĨÙĥÙħ": 2590, "Ø²Ø¹ØªÙħ": 6711, "ÙĬØŃ": 838, "ĠØ¬ÙĨØ¨Ø§": 9125, "ĠÙĬÙģØ³Ø¯ÙĪÙĨ": 6824, "ĠÙħØŃØ³ÙĨ": 3935, "ÙĥØ±ÙĩÙĪØ§": 4166, "ĠÙĦØ¬Ø¹ÙĦ": 4668, "ĠØ§Ø³ØªÙħØ³Ùĥ": 9271, "ĠÙĪÙĥØªØ¨": 4184, "ĠØ¯Ø¹ÙĪØª": 6650, "ĠÙĨØ§Ø±Ø§": 1569, "ĠÙħØªØ§Ø¹": 1745, "Ø±Ø³ÙĦÙĨØ§": 2101, "ØŃØ§Ø¬ÙĪÙĨ": 7415, "ĠÙģØ§Ø¹ÙĦÙħÙĪØ§": 3667, "ĠØ£Ø´ØªØ§ØªØ§": 8794, "ĠØ§ÙĦØ®Ø§ÙĦÙĤÙĬÙĨ": 9583, "ÙĦÙĬØª": 4045, "ĠØ¯Ø¹Ø§Ø¡": 3046, "Ø¹Ø«ÙĪØ§": 7231, "ĠÙĥØ±Ø§ÙħØ§": 7522, "ĠÙĬØ²ÙĬØ¯": 3800, "ĠÙħØªÙĨØ§": 3936, "ĠÙģØ¶ÙĦÙĪØ§": 6495, "Ø°ÙĪØ§": 4694, "ĠÙĪÙĬÙĤØ¨": 7897, "Ø¨Ø±ÙĬÙĦ": 6948, "ĠØªØŃÙħÙĦ": 3528, "ĠØ£ÙĤÙĦ": 3772, "ĠÙĥØ§ÙĦØ¹ÙĩÙĨ": 10156, "ĠØ§ÙĦÙĨØ¨ÙĬÙĪÙĨ": 8942, "ĠÙĪØ§ÙĦÙħÙĨØ§ÙģÙĤÙĬÙĨ": 5154, "ØŃÙħØ¯": 1652, "Ø±Ø¨Ø¹Ø©": 8054, "ĠØ§ÙĦÙħÙĨØ°Ø±ÙĬÙĨ": 3348, "ĠÙĪØ¶Ø±Ø¨": 3395, "ĠÙĦÙĦØ®": 6132, "ĠÙĤØªØ§ÙĦ": 9260, "Ø³Ø§ÙĨØ§": 2790, "ÙĤÙĪÙĨØ§": 6234, "ĠÙħÙĥØ±": 1431, "ĠØ£Ø®Ø§ÙĨØ§": 8653, "ĠÙħØ¨ØµØ±Ø©": 6582, "ĠÙģØ¶ÙĦ": 1043, "ĠÙĬØªÙĪÙĦ": 2535, "ĠÙģØ§Ø¹Ø¨Ø¯ÙĪÙĩ": 4506, "ÙģÙĥÙĪÙĨ": 2066, "ĠÙģØ¹ÙĦÙĬÙĩ": 5258, "ĠØ¢Ø°ÙĨ": 5871, "ĠØ¨Ø§ÙĦØµÙĦØ§Ø©": 6854, "Ø³Ø±ÙģÙĬÙĨ": 2542, "ĠÙĪØ¥Ø®ÙĪØ§ÙĨÙĩÙħ": 7827, "ĠÙģØ§ÙĦÙĤ": 8900, "ĠØ§ÙĦØ£ÙĬØ¯": 7810, "Ø§Ø¦ÙħÙĬÙĨ": 8066, "ĠØ¹ÙĨØ¯ÙĥÙħ": 6182, "ÙħØ±ÙĨÙĩÙħ": 8194, "ĠØ¹ÙĦÙħÙĨØ§Ùĩ": 8590, "ĠÙĦØ§Ø¨": 5681, "ĠÙĪØ·Ø¨Ø¹": 9193, "ĠØ¹Ø±ÙģÙĪØ§": 7448, "ĠÙģÙĦÙĩØ§": 5672, "ĠÙĤÙĦÙĨØ§": 1976, "ĠØ£Ø¬Ø±ÙħÙĪØ§": 6504, "Ø³ÙħØ¹ÙĪÙĨ": 1330, "ĠØ§ÙĦÙħÙĩØªØ¯ÙĬÙĨ": 7745, "Ø¯ÙĪÙĨÙĩÙħ": 8470, "ĠØ¨ØµÙĬØ±Ø©": 9077, "ĠÙģÙĪÙĤÙĩÙħ": 2145, "ĠØ³ÙĦØ§ÙħØ§": 3167, "ØŃØµÙĨØ§Øª": 3397, "ĠÙĪØ¹": 367, "ĠÙĪØ§Ø¨ØªØºÙĪØ§": 6631, "ĠØ£ÙĨØ¬": 4791, "ĠØªØ±ÙĪÙĩØ§": 6188, "ĠØ¢Ø¨Ø§Ø¦ÙĩÙħ": 6522, "ĠØªÙħØ³ÙĪÙĩØ§": 6780, "ĠÙĪØ§ÙĦØ®": 2480, "ÙĦÙĪÙĦØ©": 7080, "Ø¨Ø§Ø¹": 8371, "ĠÙģÙĤØ¯Ø±Ùĩ": 8795, "Ø¹ÙĬÙĩØ§": 9386, "ĠÙĤØ§ÙĦ": 143, "ĠØ¬Ø¹ÙĦÙĥÙħ": 3761, "ĠØªØ¬Ø²Ùī": 8582, "ĠØ¨Ø§ÙĦØ¨ÙĨÙĬÙĨ": 9318, "ĠØªØŃÙħÙĦÙĩ": 9822, "ĠØ¨Ø´Ø±ÙĥØ§Ø¦ÙĩÙħ": 10065, "ĠØ¬Ø²ÙĬÙĨØ§ÙĩÙħ": 8910, "ĠØªÙĩØªØ¯ÙĪØ§": 9946, "ĠÙĬÙĨÙģØ¹ÙĨØ§": 6674, "ĠØªØ·ÙĦØ¹": 6764, "ĠÙĤÙĪÙĦÙĩ": 5788, "Ø·ÙĪ": 7683, "ĠÙĬÙħÙĨ": 4672, "ĠÙĪØ¨Ø±ÙĥØ§Øª": 9628, "ĠÙĬØ§Ø¨Ø³Ø§Øª": 10059, "ĠÙĦØ¯ÙĬ": 5271, "ĠØ£Ø®Ø°": 988, "ĠÙģÙĪØ¬": 4658, "ĠÙģØ£Ø±": 7942, "ĠÙĪÙĬØ®": 2508, "ĠØªØºÙĨ": 5352, "ĠÙĪØ¨Ø´Ø±": 1661, "Ø§Ø¤ÙĩÙħ": 2139, "ĠÙĪÙĬØ¤": 2352, "ĠÙĪØ±ÙģØ§ØªØ§": 8478, "ĠÙĨØ²Ø¯": 9363, "ĠÙĤØª": 1508, "ĠÙĦØ¨Ø¦Ø³": 3973, "Ø¨Ø¦Ø³": 2580, "ĠÙĨØŃ": 2893, "ÙĤØ©": 1134, "ĠÙģØ¹Ø³Ùī": 4396, "ĠØ£ÙĪØªÙĬ": 1405, "ÙĥØ±Ùĩ": 3623, "ĠØ£Ø¸ÙĦÙħ": 1686, "ĠÙĩ": 112, "ĠÙĪÙĦÙĬÙħ": 3920, "ĠÙħÙĦÙĬÙħ": 7206, "ĠØªØ³Ø¬Ø¯": 8827, "ĠØ¹ÙĬÙĨÙĩØ§": 9312, "ĠØ²ÙĦ": 4272, "ĠØ¶Ø§": 8334, "Ø·ÙĩØ±": 1572, "ĠØ£Ø¹ÙĬÙĨÙĩÙħ": 3854, "Ø§ØµØ©": 8681, "ĠØ°Ø±Ø©": 3604, "ĠØ¹Ø¯ÙĪ": 1378, "ÙĪØ§Ø±ÙĬ": 3118, "ĠÙĦÙĦØ¥": 2370, "Ø¹Ø§Ø±": 7224, "ĠØ§ÙĦÙħÙĦØ¥": 7748, "ĠÙģØ±ÙĬ": 1150, "ÙħÙī": 1846, "ĠÙĦØ£ØŃØ¯": 6305, "ĠØ¹Ø°Øª": 7451, "Ø±Ùħ": 2441, "ÙĪØ¬ÙĬÙĨ": 8685, "ĠØ¬Ø¦ØªÙħ": 9092, "ØºØ±Ø¨": 3186, "Ø²Ùĩ": 5818, "ĠØºÙĬØ±ÙĥÙħ": 5155, "ĠØ¯ÙĬÙĨØ§": 4922, "ĠØ³Ø¯ÙĬØ¯Ø§": 10243, "ØŃÙħØ©": 1074, "ĠØ£ØªÙī": 3462, "ĠØ¹Ø±": 3514, "ĠØ¬Ø§": 3189, "ĠØªÙĩÙĨÙĪØ§": 5768, "ĠÙĤÙħ": 5785, "ØŃÙī": 4716, "ĠÙĪØ¬ÙĩÙĩØ§": 9016, "ĠÙĬØªÙĪØ¨ÙĪØ§": 9432, "ÙĦØ§Øª": 3520, "Ø¨Ø±": 246, "ĠÙĪÙĦÙĩØ§": 7151, "Ø·Ø±": 836, "ĠÙĦÙĥØ§Ø°Ø¨ÙĪÙĨ": 2750, "ØŃÙĥÙħØ©": 6532, "ĠØ£Ø±Ø§Ùĥ": 9019, "ÙĪ": 51, "ĠÙĥÙĦØ¨ÙĩÙħ": 6096, "ĠÙĪØªØ±Ø§ÙĩÙħ": 8160, "ÙģÙĪ": 1946, "ÙĬÙħÙħÙĪØ§": 5928, "ØºØ±ÙĤ": 3350, "ĠØªØ®Ùģ": 2132, "ĠØ§ÙĦØµØ¯": 1229, "ĠØ§ÙĦØ¨ÙĬ": 1494, "ĠÙĬØ¤ÙħÙĨÙĪÙĨ": 552, "ĠØ§ÙĦØ¨Ø§ÙĤÙĬÙĨ": 10179, "ĠØ´Ø±ÙĥØ§Ø¤ÙĩÙħ": 9014, "ĠØ®ÙĦØ§Ùģ": 3589, "Ø§ÙĦØ©": 2046, "ĠÙĬØ¹Ø±Ø´": 8380, "ĠØªØ¹ÙħÙĦÙĪÙĨ": 565, "ĠÙĪØ¨Ø¯Ø§": 3921, "ĠØ³ÙĬØ¦Ø§ØªÙĩ": 9241, "ĠØ§ÙĦÙħÙĥ": 4081, "ĠØ£ÙħÙĪØ§ÙĦÙĥÙħ": 2410, "ÙĨØ§Ùģ": 1312, "Ø£Ø°ÙĨ": 2193, "ĠØ°Ø±Ø£": 5421, "ĠÙĦØŃØ§ÙģØ¸ÙĪÙĨ": 6761, "ĠÙĬØŃØ°Ø±": 8171, "ĠÙĬÙĤÙĪÙĦÙĪÙĨ": 804, "ĠØ£Ø¨Ø¯Ø§": 1180, "Ø´ÙĬ": 941, "ĠØ£ÙĪÙĦ": 900, "ĠÙĪØ¥ÙĨÙĩÙħ": 2361, "ĠØ´ÙĬØ¹Ø§": 4970, "ĠÙĪØ²ÙĬÙĨØªÙĩØ§": 6841, "ĠØ¨ÙĬÙĨÙĩØ§": 8085, "ĠÙĪØ¨ÙĨ": 6296, "ÙħØ³": 457, "ĠÙĪÙĩØ¯Ùī": 1757, "ÙĪÙģÙĩØ§": 8196, "ĠÙĪÙĤØ§ÙĦ": 352, "ĠØ§Ø³ØªØºÙģØ±": 8559, "ĠÙĥÙģÙĪØ±Ø§": 3144, "ĠØ¨Ø§ÙĦ": 156, "ĠØ¢Ø¨Ø§Ø¡ÙĥÙħ": 6523, "ĠØ§ÙĦØ«": 1548, "ĠØ¹Ø§ÙħØ§": 6920, "ĠÙĪÙĥØ±": 7140, "ĠØ§ÙĦÙĨØµØ§Ø±Ùī": 5027, "ĠØºÙģØ±": 8038, "ĠÙĪÙħÙĦÙĥ": 8433, "ĠØ¨Ø§ÙĦØºØ¯ÙĪ": 6641, "ĠÙģÙĤÙĬØ±": 8618, "ĠØ¨Ø¹Ø¶": 400, "ĠÙĦØ£Ø®": 6302, "ĠÙĪØ§Ø±Ùĥ": 7156, "Ø¹ÙĪÙĨ": 202, "ĠÙģØ³ÙĪÙĤ": 8670, "ĠÙģØ§Ø¹Ø¨Ø¯Ùĩ": 9464, "ØªØ§ÙħÙī": 3689, "ĠØ£Ø®Ø±Ø¬ÙĨØ§": 3802, "ĠÙģØ·Ø±ÙĨÙĬ": 6845, "ĠÙĪÙĬØ³ØªØºÙģØ±ÙĪÙĨ": 9187, "ÙĪØ§Ø¨Ø§": 2458, "ĠØ¨Ø·Ø´ØªÙħ": 10019, "ØŃØ´Ø±": 4004, "ĠÙĪÙħØªØ§": 3698, "ĠÙĪÙĦÙĤ": 4122, "Ø¯Ùħ": 1042, "ĠÙĤØ±ÙĬØªÙĥÙħ": 8861, "ØŃØ³ÙĨÙĬÙĨ": 1079, "ĠØŃÙĥÙħØ§": 2598, "ÙĤØ±Ø§Ø¡": 3763, "ØªØ§Ø¨ÙĪØ§": 6092, "ÙĬÙĨØ§": 194, "ĠÙħØ³ÙĥÙĬÙĨØ§": 6941, "ĠØ±Ø¬ÙĬÙħ": 5174, "ĠØ§ÙĦØ°ÙĨ": 5849, "ĠÙĨØ²ÙĦØ§": 3845, "ĠÙĪØªÙĥÙĪÙĨ": 6140, "Ø±Ø¨ÙĬ": 7123, "ĠØ§ÙĦØ¨Ø´Ø±": 8540, "ØŃÙĩØ§": 4003, "ĠÙĪØ§ÙĦØ³Ø§Ø¨ÙĤÙĪÙĨ": 9058, "ĠØ§ÙĦØ¸Ø§ÙĦÙħ": 8465, "ĠØªØ®ØªØµ": 8731, "ĠÙĬØ¶ØŃÙĥÙĪÙĨ": 6567, "ĠØ£Ø«ÙħØ±": 9283, "ĠØ´ÙĩØ§Ø¯Ø§Øª": 9972, "ĠÙĨØ³Ø§Ø¦ÙĥÙħ": 4349, "ÙĪØªÙī": 1676, "ĠÙĦØ§ÙģØªØ¯ÙĪØ§": 10087, "ĠØµÙħ": 6034, "ĠØ¬ÙĬØ¨Ùĥ": 10254, "ÙĬÙĨØ§ÙĩÙħ": 2521, "ĠÙĪÙĤØªÙĦÙĩÙħ": 10104, "ĠØŃØªÙī": 383, "ĠØ¢Ø¨Ø§Ø¦ÙĩÙĨ": 9900, "ĠÙĪÙĬØŃÙĬÙī": 7907, "ÙĬÙĦØ§": 915, "ĠØ±Ø²ÙĤÙĨØ§ÙĩÙħ": 2581, "ĠØ±Ùĥ": 2883, "ĠØ§Ø³ØªØ¹ÙĬÙĨÙĪØ§": 8565, "Ø¹ÙĨØ§Ø¨": 4437, "ĠÙĨØ£": 5840, "ÙĪØ¹Ø§": 2621, "ĠÙĪÙħØ¨Ø´Ø±Ø§": 6274, "ĠØ¨ÙħØ¨Ø¹ÙĪ": 8915, "ĠØ³ÙħØ§": 2485, "ĠÙħØ¹ÙĦÙĪÙħØ§Øª": 10322, "ĠÙĬØ³ØªØ·Ø¹": 8452, "ĠÙģÙĬØ¶Ø§Ø¹ÙģÙĩ": 10230, "ĠÙĥØ§ÙĨØª": 1200, "ĠØ¥Ø³": 7382, "ĠØ¨ÙĩØªØ§ÙĨØ§": 5550, "ĠÙĬØ®ÙĦÙģ": 3290, "ĠÙĪØ¯Ø§": 4612, "ĠØªÙĪØ§Ø¨Ø§": 5764, "ĠØ¨ÙĩÙĨ": 6061, "ÙĬØªÙĨØ§": 6310, "Ø¨Ø±Ø§ÙĩÙĬÙħ": 644, "ÙĪÙĨÙĬ": 2460, "ĠØ³Ø¬ÙĬÙĦ": 6718, "ĠØ£Ø±Ø³ÙĦÙĨØ§": 687, "ĠÙĪÙħØªØ§Ø¹": 6939, "ĠØµØ¨ØŃ": 7987, "ĠØ£Ø¨ÙĪÙĬÙĩ": 8704, "ĠØ´ÙĬØ¹": 4969, "ĠØ§Ø³ØªØºÙĨÙī": 8563, "ĠÙĪØ±Ø³ÙĪÙĦÙĩ": 671, "ĠÙĬØ¹Ø¯ÙĩÙħ": 6762, "ĠÙĦÙĬÙĤØ¶ÙĬ": 9676, "ĠÙĬÙħÙĬ": 3483, "ĠØ£ÙĨØªÙħ": 576, "Ø¨Ø´Ø±ÙĪÙĨ": 3448, "ĠØªØŃØ´Ø±ÙĪÙĨ": 2970, "ĠØ±Ø¯": 2473, "ĠÙĪØ³Ø§Ø±": 6388, "ĠØ®Ø§ÙĦØ¯Ø§": 6385, "ĠØŃØ§ØµØ¨Ø§": 5546, "ÙĪØªÙĥ": 5092, "ĠØ¨Ø£Ø³Ø§": 8291, "ĠØ±Ø¯Ø¯ÙĨØ§": 9567, "Ø¡": 152, "ÙĦÙĬØ§": 7538, "ĠÙħØ±Ø³Ø§ÙĩØ§": 9689, "ĠÙģØ£ØºØ±ÙĤ": 4928, "ĠØŃÙĨÙĬ": 2340, "Ø§ÙĩØ±Ø§": 5211, "ÙĩØªØ¯ÙĪÙĨ": 1340, "Ø³Ø§Ø¡": 901, "ĠØ²Ø¨ÙĪØ±Ø§": 8416, "ÙĤØ¯Ø³": 4958, "Ø¢Ø®Ø±": 334, "ĠØªÙĨØ³": 7478, "Ø¹": 61, "ĠØ¨Ø§ÙĦØ¨ÙĬÙĨØ§Øª": 1326, "ĠÙģÙĩØ¯Ùī": 5673, "Ø±ÙĬÙĩÙħ": 6065, "ĠØ£Ø®Øª": 6383, "ÙĪØ§Ø¬Ø§": 7351, "ĠÙĨÙģØ±Ø§": 9706, "ĠÙĬØªÙĨØ§Ø²Ø¹ÙĪÙĨ": 10118, "ĠÙĪØ¢Ø«Ø§Ø±Ø§": 10144, "ĠÙĦØ®Ø§Ø³Ø±ÙĪÙĨ": 6823, "ĠØ¨Ø¹ÙĩØ¯Ùĩ": 9677, "ĠÙĨØ²ÙĦ": 1286, "ĠÙĪÙĩØ°Ø§": 1910, "ĠÙģÙĦÙĬÙĨ": 4235, "ĠØ£Ø°ÙĦØ©": 5342, "ĠØ¸ÙĩØ±Ùĩ": 9619, "ĠØ§ÙĦØ±Ø´Ø¯": 5991, "ĠÙģÙĥÙĨØªÙħ": 8645, "ĠØ±Ø¤ÙĬØ§ÙĬ": 10074, "ĠÙħÙģØªØ±Ùī": 9805, "ĠÙĪØ¬Ùĩ": 1053, "ĠØ¹ÙĨÙĩÙħ": 606, "ĠÙĩÙħ": 245, "ĠÙģØ§Ø¹Ø¨Ø¯ÙĪÙĨ": 6783, "ĠÙĬØŃØª": 6147, "ĠØ§ÙĦØ±Ø´Ø§Ø¯": 10099, "ÙģØªØŃ": 2003, "ÙĬØ¯ÙĥÙħ": 7916, "ĠÙĪÙĨØµØ±": 6198, "ĠÙĪØ¹Ø¯": 593, "ĠØ§ÙĦØ¶Ø§ÙĦÙĪÙĨ": 6822, "ĠØªØ¹ÙĤÙĦÙĪÙĨ": 1338, "ĠØªØºÙĨÙĬ": 3838, "ĠÙĨØµØ±ÙĩÙħ": 6656, "ĠØ§ÙĦØ·ÙĬØ¨Ø§Øª": 2573, "ĠØªØ¹ÙħÙī": 7496, "ĠØ¨Ø£Ø³ÙħØ§Ø¦ÙĩÙħ": 10319, "ĠÙħØ§Ø°Ø§": 1399, "ĠØ§ÙĦÙĥ": 205, "ĠØ£Ø±Ø¶ÙĥÙħ": 6696, "ĠÙĪØ¬Ø§ÙĩØ¯": 8071, "ÙħØ³Ùĥ": 3295, "ĠÙħÙĤ": 2295, "ĠØŃÙħØ¥": 6493, "ĠÙĪØ¥ÙĨÙĥÙħ": 6074, "ĠÙĪØ£Ùĥ": 1795, "ĠÙģØ§Ø³ØªØ¬": 4382, "Ø³Ø®ÙĪÙĨ": 9927, "ĠØ±Ø¬": 622, "ĠÙĩØ°Ø§ÙĨ": 7650, "ĠØ§Ø¹Ø¨Ø¯ÙĪØ§": 1717, "ĠØ¬ÙĨÙĪØ¨ÙĩÙħ": 9126, "ĠØ³Ø¨": 1090, "ĠÙĪÙĤÙĪÙĦÙĪØ§": 2933, "ĠÙģÙĦÙĬØªÙĪÙĥÙĦ": 2789, "ĠÙģØ°ÙĦÙĥ": 4654, "Ø¦ÙĪÙĨ": 1251, "ĠØ¬ÙħØ¹Ø§": 5918, "ĠÙħØªÙĥ": 2783, "ĠÙģØ¨Ø¦Ø³": 3321, "ĠÙģØ§Ø³ØªØºÙģØ±ÙĪØ§": 8936, "ĠØªØ³Ø¹Ùī": 6481, "ĠØ§ÙĦØ³ÙħØ¹": 2351, "ĠØ´Ø·Ø±": 4111, "ĠØ§ÙĦÙĤØ§Ø³Ø·ÙĪÙĨ": 9614, "ĠÙĬØ³ÙĬØ±": 2761, "ĠØ¹ÙĦÙħ": 493, "ĠÙĪØ£Ùĩ": 1514, "ĠÙħÙĦØªÙĩÙħ": 9510, "ĠØ¨ÙĬÙĨÙĥÙħ": 1166, "ĠÙĬØ³ØªØ£Ø°ÙĨÙĥ": 9888, "ĠÙģÙĨØ§": 3105, "ĠØ¢Ø¨Ø§Ø¦ÙĨØ§": 9899, "ĠÙĪØ§ÙĦØ¥ÙĥØ±Ø§Ùħ": 9122, "ĠÙĨØ³ÙĬØªÙħ": 8785, "Ħ": 36, "ĠÙĬØ¬": 533, "ĠÙĪØ§ÙĦØ¨ØºØ¶Ø§Ø¡": 5294, "ĠÙĪØ§ÙĦÙĥÙģØ§Ø±": 9390, "ĠÙĨØª": 3155, "ĠØ§ÙĦÙħØ§": 4601, "ÙĤÙĪØ¨": 1771, "ĠØ§ØªÙĤÙī": 4277, "ĠÙĨØ¸Ø±": 4803, "ĠÙĪØªØ¹Ø§ÙĦÙī": 3250, "Ø¨ÙĪØ±": 3445, "ĠØ¨ÙĨ": 1350, "Ø¯Øª": 1687, "ĠØ£ÙĨØ°Ø±": 3554, "ÙĤÙĬØ§": 3985, "ĠÙĪÙĤØ¨ÙĦ": 7974, "ĠØ£Ø¹Ùħ": 809, "ĠÙĬÙħÙĬØªÙĥÙħ": 5503, "ĠØ°ÙĪØ§": 5969, "ĠÙĦÙĨÙģØ³ÙĬ": 5355, "ĠØ§ÙĦØ´Ø¯ÙĬØ¯": 8354, "ÙĪÙĦØ¬": 2491, "ÙĨÙĥÙħ": 707, "ØŃØ³Ø¨ÙĪÙĨ": 7413, "ĠØŃØ±ÙĬØ±": 8867, "ĠØ®ÙħØ³Ø©": 9848, "ĠÙĪØ£ÙĪØŃÙĬÙĨØ§": 3065, "ĠÙĦØªØ¹ÙĪØ¯": 8573, "ĠØªØ³ÙĦÙĬÙħØ§": 8831, "ĠØªØ®Ø±Ø¬": 1781, "ÙģÙĬÙĩ": 4290, "ĠØ¥ÙĨØ³": 4780, "ÙĪØ±Ø§Øª": 4957, "ĠÙĪØ£ÙĨÙģØ³ÙĥÙħ": 5034, "ĠØªØ£ÙĪÙĬÙĦØ§": 8597, "ĠØ¬ÙĦÙĪØ¯ÙĩÙħ": 9916, "ÙĪÙĨÙĪØ§": 1945, "ĠÙģØ£ÙĪØŃ": 4158, "ÙĪØ§Ø¯": 4698, "ĠØ§ÙĦØŃÙĪØ§Ø±ÙĬ": 4921, "ĠÙĪØ±Ø£ÙĪØ§": 6292, "ĠÙĨÙĤØ¶": 6782, "ĠÙģØ§ØŃØ°Ø±": 9881, "ĠØ£ØŃØ³ÙĨØªÙħ": 10132, "ĠØ³ÙĬØµÙĬØ¨": 6422, "ĠÙģØ³ÙĬ": 3001, "ĠÙĪÙĦÙĩÙĪ": 6596, "ÙĤÙĩØ§": 7335, "ĠÙĪØ¥ÙĦÙĩ": 4120, "ĠÙĦÙĩÙħØ§": 2516, "ĠÙĦÙĤÙĪÙħ": 670, "ĠØªÙĥØ°Ø¨ÙĪÙĨ": 2587, "ĠÙĥØªØ¨ÙĨØ§": 6610, "ĠÙĪØ§ØŃ": 747, "ĠÙĪØ§Ø°ÙĥØ±ÙĪØ§": 2102, "ĠØ¨Ø¹Ø¯ÙĩÙħ": 1725, "ĠÙĩÙĪÙī": 8076, "ĠØ§ÙĦÙħÙĩØ§Ø¯": 4085, "ĠØªÙĥÙĪÙĨÙĨ": 2784, "ĠØªØ®Ø²ÙĪÙĨ": 8730, "ĠØ¨ÙĬØªØ§": 8768, "ÙĤÙĦØ¨ÙĪØ§": 3036, "ØªØ±ÙĥÙĪÙĨ": 6908, "Ø§ÙĩÙĨ": 7073, "ĠÙģØ£ØªØ¨Ø¹Ùĩ": 6873, "ĠØ§ÙĦØ³Ø§Ùħ": 7876, "ĠÙģØ¶ÙĦÙĩ": 1213, "ĠÙħØ¢Ø¨": 3884, "ĠÙĪØ£ÙħØ§": 1193, "Ø§ÙĦÙĬÙĨ": 2284, "ĠÙĦÙĬØ¹Ø°Ø¨ÙĩÙħ": 8007, "ĠÙĬØªÙĪÙĦÙĪÙĨ": 9580, "ĠØªÙĦÙĤØ§Ø¡": 6795, "ĠÙģØªÙĨØª": 8318, "ĠÙģØ³Ø¨ØŃÙĩ": 9518, "ĠØ£ÙĤØ³Ø·": 8879, "ĠÙĤØ³ÙħØ©": 9949, "ĠØ¸Ø§": 3674, "Ø¶ÙĬÙĨ": 4783, "ĠÙĪÙĦØ³ÙĪÙģ": 9856, "ĠÙĪØ®ÙĦÙĤ": 2415, "Ø«ÙĦ": 1117, "ĠÙĤØ¨ÙĦØ§": 8769, "ĠØ¨ØµÙĬØ±": 1152, "ĠÙģÙĬÙĩÙħ": 1783, "ĠØ£ÙģØ±Øº": 6760, "ĠØ£Ø¨": 602, "ĠØ´Ø±ÙĥØ§Ø¦ÙĥÙħ": 6574, "ĠÙĥØ³Ø§ÙĦÙī": 9602, "ĠÙħÙĬØ«Ø§ÙĤÙĥÙħ": 5350, "ĠÙĪØ§ÙĦØº": 7592, "ĠÙĦÙĨÙĥÙĪÙĨÙĨ": 4262, "ĠÙĪØ§ÙĦØ£": 278, "ĠÙħØ¹Ùĩ": 1054, "ĠØ£Ø®ÙĬÙĩ": 2565, "ĠÙħÙĨØ§ÙģØ¹": 4014, "ĠÙĤÙħÙĬØµÙĩ": 4565, "Ø¡ÙĪØ§": 4888, "ĠÙĥØ§ÙĦØŃ": 7513, "Ø¨ÙĥÙħ": 2293, "ĠØŃØ§Øµ": 4857, "ĠØ¨Ø§ÙĦØ´Ø±": 7847, "ĠÙĤØ§Ø¯Ø±": 7535, "ĠÙĪØªØ¤ÙħÙĨÙĪÙĨ": 8152, "ĠØ³Ø±ÙħØ¯Ø§": 9368, "Ø§ÙĦÙī": 1753, "ĠÙĬØ³ØªØ£Ø®Ø±ÙĪÙĨ": 4289, "ĠØ³Ø£ÙĦ": 2335, "ĠØ¢ÙħÙĨÙĬÙĨ": 3227, "ĠÙĥÙĬ": 4748, "ĠØ¶ÙĦØ§ÙĦ": 999, "ĠÙĬØ³ØªØ¹": 5097, "ĠÙĪØ£ÙħÙĪØ§ÙĦÙĩÙħ": 6988, "ĠÙĦØ¢Ø¯Ùħ": 4390, "ĠØ§ÙĦÙĬØª": 3918, "ĠØ§Ø°ÙĩØ¨Ø§": 8018, "ĠÙħÙĩØ§Ø¬Ø±": 7213, "ØªÙħØ¹ÙĪÙĨ": 2699, "ĠÙĪÙħØ³Ø§": 5094, "ĠÙĪÙĦÙħØ§": 1093, "ĠØŃÙĤ": 958, "Ø°ÙĬØ±Ø§": 2652, "ĠØ§Ø¬Ø¹ÙĦÙĨÙĬ": 9616, "ĠÙĦØ²Ø§ÙħØ§": 10199, "ĠØ¹Ø±ÙĪØ´ÙĩØ§": 6921, "ĠØªØ³Ø¹": 6479, "Ø´ÙĬØ©": 7580, "ĠÙĪÙħÙĪØ¹Ø¸Ø©": 4284, "ĠØ³ÙĬØ¬Ø²ÙĬÙĩÙħ": 8712, "ØµØ±Ùĩ": 5082, "ĠØªØ®ÙģÙĬ": 6428, "Ø±Ùģ": 664, "Ø±Ø¡": 1928, "Ø²Ø§ÙĨ": 2476, "ĠØ£ÙĥØ±": 5642, "ĠÙĪØ´Ø±Ùĥ": 7150, "Ø¦Ø©": 1007, "ĠÙħØ±Ø¯": 3711, "ĠØ¨Ø·ÙĨÙĩ": 9104, "ĠØ¨Ø±Ø²": 6506, "ĠÙĨØ¨Ø¥": 6531, "ÙħØ±Ø§Øª": 2104, "ĠÙĪÙĦØªØ¹ÙĦÙħÙĨ": 9064, "ĠÙħÙĥØ§": 2631, "ĠÙĦØ§ØªØ®Ø°": 6915, "ĠÙģØªÙĨØ§": 3273, "ĠÙĪØ§ÙĦØ£ÙģØ¦Ø¯Ø©": 4998, "ĠØ¨ÙĪØ£": 7378, "ĠÙĪØ¨ÙĬÙĨ": 1002, "ĠØ£Ø±Ø¨Ø¹": 6704, "ĠØ®Ø±Ø¯ÙĦ": 10257, "ĠØ£ÙĨØ²ÙĦÙĩ": 5835, "ÙĩØ±ÙĪØ§": 2991, "ĠØ¨ÙĥÙĦÙħØ§ØªÙĩ": 6432, "ĠÙģÙĦØ£ÙĨ": 8214, "ĠØªÙĤØ¯ÙĬØ±Ø§": 9481, "Ø¹ÙĦÙĨØ§": 430, "ĠØªØ¨Ø¯ÙĦ": 9358, "ĠÙģÙħØ§ÙĦØ¦ÙĪÙĨ": 9932, "ĠØ´ÙĩØ§Ø¨": 7807, "ĠØªØ³Øª": 971, "Ø¤ÙĬØ§": 3200, "ĠÙĥØ§Ø°Ø¨Ø©": 9801, "ÙĨØ§Ø¬ÙĪØ§": 7458, "ĠÙĥØ«ÙĬØ±": 1488, "ĠØªØ¹ØªØ¯ÙĪØ§": 6902, "ĠÙģØªØ§Ø¨": 3963, "ĠÙĪØ§Ø¶Ø±Ø¨": 5501, "ĠØ®Ø·Ø§ÙĬØ§": 6968, "ĠØ£Ø±Ø¬ÙĦÙĩÙħ": 6844, "ĠÙħØ§ÙĦÙĥ": 6694, "ĠØ¨Ø§": 2653, "ĠØ®ÙĦÙģØ§Ø¡": 6605, "ĠÙĪÙĬØ¯": 5982, "ĠÙĪØ§ÙĦØ®ÙĬÙĦ": 9571, "ĠÙĪØ¨Ø±Ø²Øª": 9627, "ĠÙĦØªØ£ÙĥÙĦÙĪØ§": 10306, "Ø§Ø¨Ø§": 1138, "ĠÙģØ§Ø³ØªÙĤÙĬÙħÙĪØ§": 8935, "ĠØ¢ÙĬØ§Øª": 405, "Ø¹ÙĪØ§": 423, "ĠÙģÙĬÙĩ": 414, "ĠÙĪØºØ±": 2846, "ÙĦÙĬÙħØ§": 3146, "ĠØ§ÙĦØ¹Ø§Ø¬": 6021, "ĠØ§ÙĦØ³Ø§ØŃØ±": 7880, "ĠÙĪÙĦÙĦØ¢Ø®Ø±Ø©": 9541, "ĠØªÙĪÙĥ": 2071, "Ø±Ø³ÙĪÙĦÙĩ": 4968, "ĠÙģØ±Ø´": 8441, "ĠÙģØ£ÙĤÙħ": 7953, "ĠØ±Ø§ØºØ¨ÙĪÙĨ": 10231, "ĠØ¨Ø¨ÙĬÙĨØ©": 7381, "ĠØ£Ø²ÙĪØ§Ø¬ÙĥÙħ": 3783, "ĠÙĪÙĬØ¨ØºÙĪÙĨÙĩØ§": 6833, "ÙĨØµØ±": 3909, "ĠÙĪÙĬØ²ÙĬØ¯": 3611, "ĠØ¥ÙĦÙī": 180, "ÙĤÙĬÙħÙĪÙĨ": 3738, "ĠØ§ÙĦØ£Ø³": 3594, "ĠØ£Ø¦ÙĨÙĥÙħ": 5502, "ĠØµØ§Øº": 6038, "ĠÙħÙĥØ§ÙĨÙĩ": 6651, "ĠØ§ÙĦØ¸": 422, "ĠÙħØ³": 455, "ĠÙĪØ¹ØµÙĬÙĩÙħ": 10134, "ĠÙħØŃØ¶Ø±ÙĪÙĨ": 4412, "ĠÙģØªØ¹Ø§ÙĦÙī": 5055, "ĠÙĪØ£ÙĤÙĦ": 9230, "ĠÙĨØ³ÙģØ§": 8784, "ĠØ¢ÙĦÙĩØªÙĥÙħ": 5277, "ĠÙĤØ§ÙĨØªÙĪÙĨ": 9702, "ĠØ¬Ø²Ø¡Ø§": 8911, "ĠÙģØ·": 2855, "ĠØ¹Ø§ÙĩØ¯": 3133, "ĠØ¥ÙĦÙĬÙĥ": 585, "ĠØ§ÙĦÙģØµÙĦ": 3312, "Ø²ÙĦÙĩ": 4784, "ÙĩÙĬØ¯": 5581, "ĠÙĬØµØ¯ÙĨÙĥ": 9452, "Ø®Ø±Ø¬": 368, "ÙĤÙĦÙĪÙĨ": 833, "ĠÙĪÙĤÙĪÙħ": 1466, "ĠÙģØ²ÙĬÙĨ": 7284, "ĠØ§ÙĦØµØ¨ØŃ": 8087, "ĠÙĦÙĥÙĦÙħØ§ØªÙĩ": 8345, "ĠÙħÙĪØ§": 1932, "ĠØ£ÙĦÙĪØ§ÙĨÙĩ": 5483, "ĠÙĬØ±ÙĬØ¯": 770, "Ø¯Ø³": 3467, "ĠØ§ÙĦØ±ØŃ": 218, "ĠÙĦÙĬØ¶": 4940, "ÙĥÙĬ": 7167, "ĠÙģØ§Ø¹Øª": 3255, "ĠÙĦØ¨Ø¯Ø§": 7311, "ĠØ³ÙĤØ·": 7677, "ĠÙģØ£ØŃØ³ÙĨ": 7948, "ĠØ²ÙĦØ²": 9885, "ĠØªØ£Ø®Ø°": 3722, "ĠØ§ÙĦØ±Ø³ÙĪÙĦ": 873, "ĠÙħØ¯ÙĥØ±": 3795, "ĠØ§Ø³ØªÙĥØ¨Ø±ÙĪØ§": 2390, "ĠØ¬Ø±Ùħ": 4100, "ĠÙĨØ¹ÙħÙĦ": 4365, "ĠÙħÙĨØ³ÙĥØ§": 9942, "ĠÙģØ³Øª": 3472, "ĠÙĬØ´ÙĥØ±": 6167, "ĠØ§ÙĦÙħÙĩÙĬÙĨ": 7743, "ĠØ§ÙĦØ£ÙħØ«Ø§ÙĦ": 2594, "ĠÙĪÙĬØ¯Ø¹ÙĪÙĨ": 7904, "ĠÙħÙĪØ«ÙĤØ§": 10125, "ÙĬØ§ØŃ": 2504, "ĠÙĦÙĬØª": 3630, "ĠÙħØ³ÙĨ": 4622, "ĠØªØ³ÙħØ¹ÙĪÙĨ": 7488, "Ø³ÙĦØ§Ùħ": 2854, "ÙĪØ¹Ø©": 5575, "ĠØ£ÙħÙĩ": 4914, "ĠØ¨Ø±Ø¨": 1110, "ĠÙĬØ¬Ø²ÙĬ": 6369, "ĠØ£ÙĦÙĤÙĬ": 6645, "ĠØªØŃÙĬØªÙĩÙħ": 8399, "Ø¨ÙĪØ§": 986, "ÙĪÙĬÙĥÙħ": 5203, "ĠØ£Ø±Ø§": 1063, "ĠØ§Ø¨ÙĨÙĬ": 8806, "ĠÙħØ³Ø¬Ø¯": 8515, "ĠØ¹Ø¶": 7434, "ÙĪØ±Ø©": 1886, "ĠÙģØ§Ø¬Ø¹ÙĦ": 6173, "ĠÙĦØ§ØªØ¨Ø¹": 6914, "ĠØªØªØ®Ø°ÙĪØ§": 2121, "ĠÙĪÙĬØ°Ø±ÙĪÙĨ": 5986, "ĠÙĨØ³ÙĬØ§": 6452, "ĠÙĦØŃÙħ": 7305, "ĠØ£ÙĪØ«Ø§ÙĨØ§": 7874, "Ø¦ÙĨÙĩÙħ": 7706, "ĠÙģÙħÙĨÙĥÙħ": 8576, "ĠØ¨Ø¯ÙĦÙĪØ§": 9205, "ĠÙĬØ£ØªÙĬÙĨÙĬ": 9557, "ĠÙĨØ§ØµØ±": 9422, "ÙĨÙģØ§Ø¡": 7089, "ĠØªØŃØµ": 4267, "ĠÙħØ³ÙĦÙħÙĬÙĨ": 2807, "ĠØ®ÙĦÙĤÙĨØ§": 1147, "ĠØ³Ø¹": 1570, "ĠÙģØ¨Ø¯ÙĦ": 7291, "ĠÙĬÙĦØ¨": 2861, "ĠÙĤÙĪÙħÙĬ": 4236, "ĠØ§ÙĦÙĥØ§ÙģØ±ÙĬÙĨ": 799, "Ø§ÙĦÙĪØª": 3912, "ĠØ®Ø·Ø§ÙĬØ§ÙĨØ§": 9851, "ĠØ§ÙĦØ³ÙĬ": 1464, "ĠÙĬØªØ±Ùĥ": 8120, "ĠÙħÙĨÙĬØ¨ÙĬÙĨ": 9456, "ĠÙĬÙĨØ§": 2186, "ĠØ¶Ø±": 2747, "ĠÙĬØµØ¯": 2061, "ĠØ§ÙĦÙħØ£ÙĪÙī": 4850, "ĠÙĨØµÙģ": 6498, "Ø«Ø±ÙĪÙĨ": 7698, "ÙĦØ¦": 2833, "ĠØªØ±Ø§ÙĨÙĬ": 8228, "ĠÙĪØ¹ØªÙĪØ§": 8362, "ĠØªØ¯Ø¹ÙĪÙĨØ§": 9128, "ĠÙħÙĨÙĬØ¨": 4724, "ĠØ§ÙĦØ±Ø¬Ø³": 5337, "ĠØ®Ø·ÙĬØ¦Ø§Øª": 9850, "ĠØ§ÙĦØ®Ø§ÙĦ": 2554, "ĠØ®ÙĦÙĤÙĩ": 3678, "ĠØ§ÙĦÙģØªÙĨØ©": 3431, "ĠÙħÙĨÙĩÙħØ§": 2547, "Ø¸": 146, "ĠØªØ±Ø¬Ø¹ÙĪÙĨ": 1527, "ĠØ®ÙĦÙģÙĩÙħ": 2265, "ÙģÙĥ": 2065, "ĠÙĪØ£Ø·Ø¹ÙĨØ§": 3573, "Ø¹Ø¨Ø¯": 728, "ĠØŃØ¸": 4852, "ĠØ¯ÙĬÙĨÙĬ": 9002, "ĠØ§ÙĦØ£Ø®ÙĬØ§Ø±": 9539, "ĠØ£ØŃØ¨": 3672, "ÙĦØºÙĪ": 3907, "¤": 7, "ĠÙħØ³Ø¦ÙĪÙĦØ§": 5529, "ÙĬÙħ": 139, "ĠÙħØ±ÙĬØ©": 3937, "ĠÙĪØ§ÙĦØ·ÙĬØ±": 4511, "ĠØ¶Ø±Ø§Ø±Ø§": 8339, "ĠÙĪØ£ÙĥØ«Ø±ÙĩÙħ": 3895, "ĠØªØŃØ²ÙĨ": 3394, "ĠØ¨Ø¨Ø¹ÙĬØ¯": 7380, "ĠÙĬØªÙĤÙĪÙĨ": 1649, "ÙĬØ¯ÙĪØ§": 5993, "ĠÙħØ±Ø¬Ø¹ÙĥÙħ": 2430, "ĠØ®ÙĦÙĬÙģØ©": 7798, "ĠÙĥØ®": 5777, "ĠÙĤØ§Øµ": 4041, "ĠÙĬØ¨Ø®ÙĦ": 6511, "ĠÙĦÙĨØ¹ÙĦÙħ": 5072, "ĠØ§ÙĦØ£ÙĦØ¨": 1799, "ĠÙĪØ§ÙĤ": 4202, "ĠØ¬Ø¨Ø§Ø±Ø§": 5919, "ĠÙĦØ¹ÙĨÙĩ": 8757, "ĠÙĪÙĬÙĤØ°ÙģÙĪÙĨ": 10270, "ĠØ£Ø³ÙģÙĦ": 6406, "ĠØ¢ØªØ§Ùĩ": 9228, "ĠØ¨Ø§ÙĦØµØ¯ÙĤ": 7856, "ĠØ§ÙĦÙĨÙĥØ§": 6193, "ĠÙĬÙĦÙĩ": 7319, "ĠÙĪØµØ§ØŃØ¨ØªÙĩ": 10158, "ĠØ§ÙĦØ°ÙĬ": 244, "Ø§ÙĨÙħ": 4787, "ĠÙĬØºÙĬØ±ÙĪØ§": 8809, "ĠØ¢ÙĬØªÙĥ": 10079, "ĠØ£Ø¬ÙħØ¹ÙĬÙĨ": 1376, "Ø°Øª": 4693, "ĠØ°ÙĬ": 1579, "ĠÙĦÙĦØ·": 4211, "ĠÙĦÙĦØ£": 6131, "ĠÙĤØ±ÙĪÙĨØ§": 7537, "Ø¹ÙĩÙħ": 2057, "ĠÙħØ¶ÙĦ": 7205, "ĠÙĪØ§ØºÙĦØ¸": 10152, "ØªÙĩÙħ": 329, "ĠÙĪÙĦØ£": 1711, "ĠØµØ¯ÙĬÙĤ": 8719, "ĠÙĪÙģØµØ§ÙĦÙĩ": 10320, "ĠÙģØ¹ÙĤØ±": 4397, "ĠØ³Ø¨ÙĬÙĦÙĥ": 8411, "ĠØ¨ÙĨÙĬØ§ÙĨÙĩÙħ": 8822, "ĠÙĪØ£Ø«": 5875, "ĠÙĪØ¹ÙĬØ³Ùī": 3280, "Ø¶Ø§Ø¡": 2326, "ÙģØ§ÙĦ": 5725, "ÙĦÙĤÙĬ": 4161, "ĠÙĪÙĬÙĤÙĬÙħÙĪÙĨ": 7903, "ĠØ¨Ø¶": 4702, "ĠØ£Ø±Ø¯ØªÙħ": 6450, "ĠØ²Ø¹ÙħØªÙħ": 3892, "ĠØ¶": 354, "Ø§Ø¯ÙĦ": 4145, "ĠÙĨØ¶": 4797, "ĠØ£ÙĨÙģØ³ÙĥÙħ": 984, "ĠÙĦÙĦØ¬": 8143, "ĠÙĬØ¹Ø¯ÙĦÙĪÙĨ": 4500, "ĠÙħØ¯ØŃÙĪØ±Ø§": 6570, "ĠØ¯Ø§Ø¨Ø©": 2039, "ĠØ§ÙĦÙĥØ¨ÙĬØ±": 2942, "ÙĦÙĤÙĪØ§": 7970, "ĠÙĪØ¨Ø±Ø§": 8482, "ĠØ°ÙĨÙĪØ¨ÙĩÙħ": 9322, "ĠÙģØŃØ§ÙĤ": 10192, "ÙĦÙĤ": 185, "ĠØ¬Ø¯": 4095, "Ø³ÙħØ¹": 1012, "ĠØªÙħØªØ±ÙĪÙĨ": 9565, "Ø¯Ø§Ø±": 4645, "ĠØ¨Ø§Ø±ÙĥÙĨØ§": 3997, "ĠÙĬØ³ØªØºÙĬØ«": 8458, "Ø§Ø¨Øª": 7642, "ÙĬØ¯Ø§": 856, "ĠØŃØ¨Ùĩ": 7759, "ĠØ·ØºÙĬØ§ÙĨÙĩÙħ": 4573, "ĠÙħØ³Ø·": 6313, "Ø²ÙĦØª": 8179, "ĠØªØŃØªÙĩØ§": 1015, "ĠÙĬØ¹ÙĤÙĪØ¨": 4265, "ĠÙĥØ§ÙĦÙħ": 6533, "ĠØªÙĤØªÙĦ": 7492, "ĠÙĪØŃØ³ÙĨ": 3435, "Ø¬Ø²ÙĬÙĨ": 2073, "ĠÙĬØ³ØªÙĤØ¯ÙħÙĪÙĨ": 6283, "ĠØ§ÙĦÙħÙħØªØ±ÙĬÙĨ": 5545, "ĠØ¢ÙĦØ¢ÙĨ": 9090, "ĠÙĨØ¨Øª": 7623, "ĠÙĬØ¹Ø±Ùģ": 5076, "ĠÙĦÙģØªØ§Ùĩ": 9813, "ÙĦÙĬÙĩ": 1047, "ĠÙĪÙĬØµØ¯ÙĪÙĨ": 5470, "ĠØ§ÙĦØ³Ø±": 5977, "ĠÙĦÙĬÙĨØ°Ø±ÙĥÙħ": 9521, "ĠØŃØ±Ø¬": 1875, "ĠÙĬÙĩÙĬØ¬": 10204, "ØªÙĤÙħ": 9076, "ĠÙĦÙĬØ²": 6053, "ÙĦÙĬ": 94, "ĠØªØ³Ø¹Ø©": 8828, "Ø¶ÙĬ": 797, "ĠØ§ÙĦØ£": 142, "ĠØ®Ø§ÙĦÙĤ": 3314, "ĠØ¹Ø§Ø¨Ø¯ÙĪÙĨ": 5437, "ĠØ£ÙĬØ¯": 773, "ĠØªØ³ÙħØ¹": 2197, "ĠÙĬÙĥØ°Ø¨ÙĪÙĥ": 6858, "ĠØªØ·Ø¦": 9418, "ĠØµØ¨Ø±ØªÙħ": 9719, "ĠØ£Ø¨ÙĪØ§Ùĩ": 8702, "ĠØ§ØµØ·ÙģÙī": 6946, "Ø¶Ø¹Ùģ": 1448, "ĠÙģÙĪØ³ÙĪØ³": 7296, "ĠÙĪØ¢ÙħÙĨ": 3307, "ĠÙĪÙĬØ¹Ø¨Ø¯ÙĪÙĨ": 4903, "ĠØ§ÙĦÙħØ¬Ø±ÙħÙĬÙĨ": 1574, "ĠÙĪØ§Ø²Ø±Ø©": 4545, "ÙĨØ§ØªÙĩÙħ": 7457, "ĠØ£ÙĬØ¯ÙĬ": 3762, "ĠØŃØ¨ÙĦ": 7753, "ĠØ§ÙĦÙħØ³ØªÙĤÙĬÙħ": 4502, "ĠÙĬØ¹ÙĦÙħÙĩØ§": 8295, "ĠØªØªØ¨Ø¹": 1594, "Ø³ÙĪÙĨ": 1939, "ĠÙĬØ¤Ø°ÙĨ": 5184, "ĠÙĨØªÙĤ": 7630, "ĠØ¨Ø§Ø®": 7371, "ĠÙģØ¯ÙĬØ©": 6806, "ĠØ§ÙĦÙĪÙĦØ¯Ø§ÙĨ": 7136, "ĠÙĪØº": 2841, "ĠØªØ£ÙĥÙĦÙĪØ§": 3038, "ĠØ¢Ø¨Ø§Ø¤ÙĩÙħ": 5238, "Ø°ÙĨÙĬ": 4696, "Ø£Ø®Ø±ÙĪÙĨ": 3510, "ĠÙħÙĤØ±ÙĨÙĬÙĨ": 5538, "ÙĤÙĬØ©": 7338, "Ø¹Ø¯ÙĦÙĪØ§": 7912, "ĠÙĬÙĨØ²ÙģÙĪÙĨ": 9873, "ĠÙĤÙĦÙĬÙĦ": 2323, "Ø·ÙĬ": 604, "ØªÙĨÙĬ": 1611, "ĠÙģØµÙĦÙĨØ§Ùĩ": 9217, "ĠÙĪÙĦÙĬ": 467, "ĠÙĪÙĦÙĦÙħØ¤ÙħÙĨÙĬÙĨ": 5522, "Ø§Ø¹Ø©": 750, "ĠÙĨØ³": 693, "ĠÙĪØ§ÙĦØ´": 1156, "ĠÙĦÙĪØ§": 3110, "ĠÙĦÙĥÙĬÙĦØ§": 5064, "ĠØ£Ø±Ø§Ø¯ÙĪØ§": 5263, "ĠÙĪÙĬØ£Øª": 5388, "ĠÙĥØ§Ø°Ø¨ÙĬÙĨ": 5782, "ĠØ£Ø¨Ùī": 6411, "ĠÙĪØ£ÙĨØ°Ø±": 6202, "ĠÙģÙĬ": 95, "ÙĪØªÙĬÙĨ": 8431, "ĠÙĩØ¨": 4813, "ĠØªÙħÙĪØ±": 9136, "ÙĥÙĨ": 789, "Ø£ÙĪÙī": 4721, "ĠÙħÙĨØ§Ø³Ùĥ": 8964, "ÙĦØ§Ùĩ": 7463, "ĠØ§ÙĦÙħØ´Ø±ÙĥÙĪÙĨ": 5895, "ĠØ±ØŃÙħ": 643, "ĠÙĨØ³ÙĤÙĬÙĥÙħ": 8786, "ĠÙģÙģ": 5659, "ÙĦÙĤØ©": 3621, "ĠÙħØŃÙĬØ·Ø§": 9410, "ĠØ§ÙĦØ²ÙĥØ§Ø©": 1267, "ĠØ§ÙĦØ®ÙĪØ§ÙĦ": 8421, "ĠØ§ÙĨØ¸Ø±": 2401, "ĠØ´Ø·Ø·Ø§": 10090, "Ø°Ø§": 140, "ĠØªØªÙĦÙī": 1823, "ĠÙĦÙħØ¨Ø¹ÙĪØ«ÙĪÙĨ": 4199, "ĠÙĦÙĦØ´": 4990, "ĠØ§Ø³ØªØ£": 8558, "ĠØªØ³Ø£ÙĦÙĩÙħ": 5208, "ĠÙĪØ£Ø´Ø±Ùĥ": 7721, "ĠØ®ÙĦÙĬÙĦØ§": 5923, "ĠØ£ØªÙĬÙĨØ§ÙĩÙħ": 9926, "ĠØ®ÙĦ": 7781, "ĠÙĤØ§Ùħ": 4042, "ĠÙħÙĨÙĩ": 541, "ĠØ§ÙĦØ°ÙĦØ©": 7652, "ĠÙĦØ¯Ùī": 7308, "ĠÙģÙħØ«ÙĦÙĩ": 9592, "ĠØ¸ÙĩÙĪØ±ÙĩÙħ": 4487, "ĠÙĪÙĬØ¨ÙĬÙĨ": 7892, "Ø¯ÙĪØ§": 613, "ĠÙĦØ¢ØªÙĬØ©": 8973, "ĠØ±Ø´": 2679, "ĠÙĨØ·": 1700, "ĠÙĪØ¥ÙĨÙħØ§": 6073, "ĠÙĪÙĤØ·Ø¹": 7975, "ĠÙĪØ£Ø·ÙĩØ±": 7725, "ĠÙĦØ²ÙĦ": 7303, "ĠÙĤØ§ÙĦØª": 1162, "ØŃÙĬÙĬ": 2020, "ĠÙĪÙģØ§Ø±": 7152, "Ø«ÙĪØ§": 1321, "Ø¹ÙĨ": 3945, "ĠØ¹ÙĦÙħÙĩ": 5136, "ÙĬØ±Ùī": 7691, "Ø¹Ø¸": 3947, "ĠÙģØ±ØŃ": 8440, "ĠØ£Ø³": 582, "ĠÙĪØ§Ø³ØªØºÙģØ±ÙĪØ§": 6791, "ĠØ§ÙĦØ®ÙĨØ²ÙĬØ±": 6269, "ĠÙģÙĬÙĨØ§": 3962, "ĠØ£ØªÙĬÙĨØ§": 4641, "Ø³Ø·ÙĪØ§": 6505, "ĠØ¬Ø¦": 1195, "Ø¹Ø¯ÙĪØ§": 1714, "ĠØ³Ø§Ø¹Ø©": 2899, "ÙĩØ§Ø¨": 4781, "ĠÙĦØ±": 3966, "ĠÙħØªØªØ§Ø¨Ø¹ÙĬÙĨ": 8804, "Ø¦Ùĥ": 233, "ĠØ£ÙħØ©": 828, "ĠØ£Ø·Ø±Ø§ÙģÙĩØ§": 9633, "ĠØ¯Ø¹": 1367, "ĠØ§ÙĦÙĪØ§Ø±Ø«": 5370, "ĠÙģØ§Ø¨Ø¹Ø«ÙĪØ§": 10048, "ÙģØ¹ÙĪÙĦØ§": 3317, "Ø¬Ø±Ùĩ": 6152, "ĠØ§ÙĦÙħÙħØª": 4846, "ĠÙĪØ£ÙĦ": 4834, "ĠØ¨ØªØ£ÙĪÙĬÙĦÙĩ": 6990, "ĠØ£Ø¬Ø±Ø§": 1414, "ĠÙĪØ§ÙĦØ°ÙĬ": 1866, "ĠÙĥØ§Ø±": 3533, "ÙĪØ§ØµÙĪØ§": 4700, "ÙĤÙĬ": 2648, "ĠÙĪØ§ÙĦÙĪÙĦØ¯Ø§ÙĨ": 7607, "ĠØ§ÙĦÙħØµÙĦØŃÙĬÙĨ": 9575, "ĠÙĪØ£ÙĤØ³ÙħÙĪØ§": 5325, "ĠØ«ÙĪØ§Ø¨": 3207, "ĠØ¬ÙĨÙĪØ¯": 5295, "ĠØ¨ÙĤÙĦØ¨": 5720, "ĠØ°Ø±ÙĬØªÙĩÙħØ§": 9395, "ĠØªØ°ÙĥØ±Ø©": 3411, "ĠÙĨÙĥØ°Ø¨": 9034, "ĠØ³ÙĦØ·Ø§ÙĨ": 1916, "ÙĩØ¨ÙĪÙĨ": 4596, "ĠÙĪØ§Ø°ÙĥØ±": 1722, "ĠØ£Ø´Ø±": 5643, "ĠÙģØ£ÙĨØª": 7947, "ĠØ§ÙĦÙĥÙģØ§Ø±": 2097, "ĠØ«ÙħÙĨØ§": 2517, "ĠÙĦØ²Ø§": 7315, "ĠÙħØ¤ØµØ¯Ø©": 9469, "ØµÙħ": 4770, "ĠØ¹Ø¬": 1562, "ĠÙĪÙĦÙĬÙĨØ§": 7837, "ĠÙĪØ¨Ø§ÙĦØŃÙĤ": 8488, "ÙĨØ§ÙģÙĤÙĬÙĨ": 1604, "ĠØ¨ÙħÙĨ": 2310, "ĠØªØ£ÙĪÙĬÙĦÙĩ": 4311, "ĠÙĬØ®Ø±ØµÙĪÙĨ": 6950, "ĠÙĪÙĥÙĦÙĪØ§": 4181, "ĠØ£Ø¨Ø±ØŃ": 9925, "Ø§ÙĦØªÙĩ": 7115, "ĠÙĬØªÙĪØ¨ÙĪÙĨ": 6771, "ĠØ³ÙħØ§ÙĨ": 7674, "ĠØ£Ø³Ø§Ø¡": 8682, "ĠÙģØ¥ÙĨÙĬ": 3626, "ĠÙĪØ§ÙĦÙĨÙĪØ±": 6488, "ĠØ§ÙĦØ°ÙĥØ±": 1249, "ĠÙĪØ¥Ø³ØªØ¨Ø±ÙĤ": 5949, "ĠØªØ®Ø´ÙĪÙĩÙħ": 9791, "ĠÙĨØ®Ø±Ø¬ÙĥÙħ": 9958, "ĠÙĦÙĦÙħØ¤ÙħÙĨÙĬÙĨ": 1903, "Ø²Ø§Ø¡": 5820, "ĠÙĨØ¬ÙĬÙĨØ§": 5234, "ĠØ¨Ø¬ÙĨÙĪØ¯": 9941, "ĠØ®ÙĦÙĤØ§": 3266, "ĠØ£ÙĨÙĥ": 3553, "ĠÙĪØ§ÙĦØ¯Ø§Ø±": 7606, "ĠÙĪØªØ¤": 8151, "ĠØ´Ø±ÙĥØ§Ø¦ÙĬ": 4402, "ĠÙĥÙģØ±ÙĩÙħ": 8129, "ĠØ§ÙĨØ·ÙĦÙĤ": 6477, "ĠØ±Ø²ÙĤÙĩØ§": 6521, "ĠØºØ«Ø§Ø¡": 8046, "ØŃØ¯ÙĪØ§": 7409, "ĠÙĥØ¸ÙĬÙħ": 5780, "ĠØ¨Ø£ÙĩÙĦÙĥ": 6216, "ĠÙĪØ¥ÙĨÙĥ": 3637, "ĠÙĬØ³ØªÙĨÙĥ": 6281, "Ø¹Ø§Ùħ": 760, "ĠÙħÙĤØªØ§": 6805, "ĠØ³ÙĨØ¯Ø³": 6594, "ĠØ°ÙĥØ±Ùĩ": 8749, "ĠØ¨Ø£ÙħÙĪØ§ÙĦ": 2112, "ĠØ£ÙħÙĨØ©": 9247, "ĠÙĪØ§ÙĦØ¥ÙĨØ³": 2810, "ĠØµØ§ØºØ±ÙĪÙĨ": 10108, "ĠÙĪØ£ÙĤØ±Ø¶ÙĪØ§": 9232, "ĠÙĪØ£ÙĪØŃÙī": 9492, "ĠØµØºÙĬØ±Ø©": 10109, "Ø±Ø´": 1178, "ĠØ«ÙĦØ§Ø«": 1582, "ĠÙģØ£Ø°ÙĨ": 6011, "ØªÙħØ¹": 3187, "ĠÙĨÙģØ³": 476, "ĠÙĬÙĤØªÙĦÙĪÙĨ": 3484, "ĠØªØ¶ÙĦ": 7476, "ĠØ£Ø·Ø¹ÙĨØ§": 7247, "ĠÙĥÙĨØ§": 691, "ĠÙĦÙĦØ°ÙĬ": 4991, "ĠØ³Ø±Ø§Ø¨ÙĬÙĦ": 9367, "ĠØªØ´ÙĩØ¯": 6483, "ĠØºÙħØ±": 6076, "Ø¬ÙĪ": 3529, "ĠØ§ÙĨØªÙĩÙĪØ§": 5205, "ĠØªØ¯Ø±ÙĬ": 5192, "ÙĪÙĬÙĩ": 5576, "ĠÙĪÙģØªØŃØª": 10042, "ĠØ§ÙĦÙħÙĨØªØ¸Ø±ÙĬÙĨ": 7032, "·": 25, "ĠÙģÙĦÙĬÙħØ¯Ø¯": 10052, "ĠØ£Ø¨Ø±": 4638, "ĠØ§ÙĦØ£ÙĬÙĥ": 4879, "ĠÙħÙĬØ±Ø§Ø«": 10189, "ĠØ§ÙĦØ±Ø¶Ø§Ø¹Ø©": 10178, "ĠØ¬ÙĨØ§ØŃÙĥ": 5275, "ÙĪØ¯Ø§": 3075, "ĠØ±Ø¨Ùĩ": 616, "ĠÙĬØ±Ø¯": 1588, "ĠØŃØ¶Ø±": 3580, "ÙģØ§Ø±": 990, "ĠØ§ÙĦØ³ÙĬØ¦Ø©": 4451, "ĠÙĪÙĦÙĬØ¹ÙĦÙħ": 3717, "ĠØ£ÙħØ±ÙĥÙħ": 5145, "ĠÙģØªÙĥÙĪÙĨ": 2548, "ĠÙĬÙĨØ·": 3246, "Ø±Ø¬": 521, "ĠØ§ÙĦØ¯Ø¹Ø§Ø¡": 4234, "ĠØ²Ø¯": 5086, "Ø³Ø§Øª": 5655, "ĠÙģØ§Ø¬": 6171, "ĠÙĪÙĦÙĦØ±Ø³ÙĪÙĦ": 6814, "ĠØ£ØŃØµÙĨØª": 9617, "ĠÙĪØ§ÙĦØ±Ø³ÙĪÙĦ": 2685, "ĠÙĤÙĪ": 651, "ĠØ§ÙĦÙĪØ¹Ø¯": 2813, "ĠØ§ÙĦØ®ÙĦØ¯": 3893, "ĠÙĬØ¬Ø¯": 1437, "ĠØ²Ø¯ÙĨØ§ÙĩÙħ": 10008, "ĠØªÙĤÙĦØ¨ÙĩÙħ": 9790, "Ø§ÙĨ": 104, "ĠÙĬØ±Ùĩ": 6156, "ÙĪØ²": 1022, "ĠØ®ÙĦÙģÙĩ": 5284, "ĠÙĬØµØ¯ÙģÙĪÙĨ": 6778, "ÙĪØ§Øª": 281, "Ø¦Ø§Øª": 976, "ĠØ¹ÙĤ": 3131, "ĠÙĨØªØ±Ø¨Øµ": 9705, "ĠÙĪØªÙģØµ": 4996, "ĠÙĦØ£Ø¨ÙĬÙĩ": 2764, "ĠØ¨ÙħØ«ÙĦ": 3778, "ĠÙĬØ±ÙĬØ¯ÙĪÙĨ": 2137, "ĠÙĪØ§ÙĦØ°ÙĬÙĨ": 340, "ĠØ£ÙĪÙĦÙĬ": 720, "ĠÙĬØªØ³Ø§Ø¡": 3242, "ĠÙĪØªØªÙĤÙĪØ§": 2950, "ĠÙĪØ§ÙĦÙħØ³": 1788, "ĠØ¨ÙĬÙĪØªÙĥÙħ": 3831, "ĠÙĬØ®ØªØµ": 3703, "ĠØªÙĤÙĪÙī": 8677, "Ø¨ÙĬØ«": 2223, "ĠØªØªØ¨Ø¹ÙĪÙĨ": 5122, "Ø¹ÙĨÙĥÙħ": 7228, "ĠØ¨Ø£ÙħØ±ÙĨØ§": 9337, "ĠØºÙħØ±Ø©": 10115, "ØµØ±Ø©": 5084, "ĠÙĦØ¹Ø¨Ø§Ø¯ÙĬ": 9732, "ĠØ£Ø¬ÙĪØ±ÙĩÙĨ": 3692, "ĠØ¹Ø¸": 1353, "Ø¦ÙĬÙĨ": 1794, "ØªÙĨØ¨ÙĪØ§": 3848, "ĠØ¢ÙĬØª": 5870, "ĠÙħÙĨÙĤÙĦØ¨": 5743, "ĠØ§ÙĦØ¨Ø±ÙĤ": 6642, "ĠÙĬØ¶ÙĦÙĪÙĨ": 5259, "ĠØ·Ø§Ø¦Ùģ": 9098, "ĠÙĦØ³ØªÙħ": 9519, "ÙĤÙĥÙħ": 7334, "ĠÙĪØ§Ø¹ØªØµÙħÙĪØ§": 5551, "ĠÙĪÙĬØŃØ³Ø¨ÙĪÙĨ": 6757, "ĠØ£Ø®Ø·": 8649, "ĠÙħØ²": 4619, "ĠØ·ÙĬØ±Ø§": 6207, "ĠÙĪÙĬØ¯Ø®ÙĦÙĥÙħ": 7908, "Ø¨Ø·ÙĦÙĪÙĨ": 4400, "ĠØ¨Ø§ÙĦØ³ÙĬØ¦Ø©": 4570, "ĠØ±Ø³Ø§ÙĦØªÙĩ": 8333, "ĠÙĬÙĥØ°Ø¨": 2752, "ĠØ·Ø§Ø¦ÙģØ©": 1744, "ĠÙħÙĨØ²": 5740, "ĠØ¬ÙĨØªÙĬÙĨ": 7778, "ĠØ£ÙģØ¦Ø¯ØªÙĩÙħ": 10002, "ĠØ¨Ø§ÙĦØ¸Ø§ÙĦÙħÙĬÙĨ": 4133, "ĠØ¨ÙĬØª": 2864, "Ø¹Ø±ÙĪÙĨ": 1274, "ÙĥØ±Ø§": 1610, "ĠÙĪÙĬØŃÙĤ": 5984, "ĠØ§ÙĦØ¨Ø±": 1343, "ĠÙĪØ¬Ø¦ÙĨØ§": 6974, "ĠÙħØªØ¨Ø±": 8800, "ĠØ¹ÙĨØ¯Ùĩ": 1371, "ĠÙĬÙĨÙĥ": 3245, "ĠØ§ÙĦØ¬ÙħØ¹": 2963, "ĠØ§Ø¯ÙģØ¹": 8943, "ĠÙĥØ§Ø¯ÙĪØ§": 4756, "ĠÙĬØ¯ÙĬ": 2387, "ĠØ£Ø¥ÙĨØ§": 2805, "ĠÙĬØŃØ´Ø±": 8170, "Ĭ": 42, "ĠØ¢": 125, "ĠØ³ÙĪ": 2484, "ĠÙģÙĬÙĨØ¨Ø¦ÙĩÙħ": 6681, "ĠÙĬØ°ÙĩØ¨ÙĪØ§": 7329, "ĠÙĪØ§ÙĦÙģØªÙĨØ©": 7603, "ÙĬÙĩÙħ": 617, "ĠÙĪÙĬØ·ÙĪÙģ": 9976, "ĠØªÙĤØ¹Ø¯ÙĪØ§": 8679, "ĠØ£Ø®Ø¨Ø§Ø±ÙĥÙħ": 10145, "Ø·Ø´": 4823, "Ø¨ÙĦØºÙĪØ§": 3642, "ĠÙĬØ´ØªØ±ÙĪÙĨ": 5016, "ĠØªÙģØ±ÙĤÙĪØ§": 6847, "ĠØªÙĥÙĪÙĨØ§": 8824, "ĠÙģØ²": 3106, "ĠØ£ØŃ": 313, "ĠØ§ÙĦØ¢": 1929, "ĠØªÙĨÙģ": 8608, "ĠØ¨Ø§ÙĦØ¢Ø®Ø±Ø©": 1461, "ĠÙĪØ§Ø®ØªÙĦØ§Ùģ": 5414, "Ø¨ÙĬØªØ§": 8026, "ĠØ£ÙĪØ§Ø¨": 3952, "Ø±Ø§ÙĥÙħ": 4884, "ÙĪØ¹ÙĬØ¯": 6601, "ĠØªÙĤØªÙĦÙĪØ§": 3139, "ĠÙĪØ£ÙĪÙĦÙĪ": 5519, "Ø³Ø¨Ø§Ø¨": 5014, "ÙģÙĬØ©": 7398, "ÙĦÙħÙĪÙĨ": 2692, "ĠØ´ÙģÙĬØ¹": 4113, "ĠÙĪØ§ÙĦØµØ§Ø¯ÙĤÙĬÙĨ": 9167, "ĠÙģÙĨ": 1064, "ĠÙĬÙĨØ¨": 2536, "ĠØ¹Ø§ÙħÙĦÙĪÙĨ": 6779, "ĠØ§ØµØ·Ùģ": 9438, "ØªØ±": 3438, "Ø·Ø§ÙĨØ§": 2136, "ĠØ§Ø³": 1520, "ĠÙĬØ·Ø¨Ø¹": 6616, "ĠÙĬØ±Ø¯ÙĪÙĥÙħ": 6703, "ĠØªØ²Ø±": 3367, "ÙĪØŃÙĬ": 8466, "ĠÙģÙĦÙĨÙģØ³Ùĩ": 5261, "ĠÙģÙĤÙĬØ±Ø§": 8619, "Ø«ÙĬØ§": 7697, "ØŃÙħÙĦ": 2105, "ÙĬØªÙĩÙħ": 4587, "ĠÙĬØ¸Ø§ÙĩØ±ÙĪÙĨ": 9355, "ĠØ¹ÙĬØ´Ø©": 10217, "Ø±ØŃÙħÙĨ": 2151, "ĠÙĪÙĦØ¨Ø§Ø³ÙĩÙħ": 10094, "ĠØ£ØªØ§ÙĩÙħ": 4465, "ĠØ¨ØµØ§Ø¦Ø±": 4430, "ĠÙĦØ¹": 673, "ĠÙĨØ±": 2687, "ĠÙĤØ¨Ø¶": 8770, "ÙĦØª": 530, "ĠØ¹ÙĨØ¯Ùĥ": 2737, "ĠØ£Ø®ÙģÙĬ": 8651, "ĠØ¬ÙĦ": 3190, "ĠØ¹ÙħÙĦÙĪØ§": 1536, "ĠØªÙĥÙĪÙĨ": 745, "ĠÙĪØ£Ø®": 1796, "ÙĩØ¯ÙĬÙĩÙħ": 6392, "ĠØ§ÙĦØ£ÙĨØ¨ÙĬØ§Ø¡": 6409, "ÙĨÙĩ": 948, "ĠØºØ´Ø§": 8044, "ĠØ§ÙĦØ£Ø¹": 1967, "ĠÙĬØ¹ÙħÙĦ": 2600, "ĠØ£Ø±Ø¬": 2640, "ĠÙĪÙħÙĨÙĩÙħ": 1255, "ĠØŃÙĦØ§ÙĦØ§": 4860, "ĠØ·ÙĦÙĤ": 2742, "ĠÙĪØ§ÙĨØ¸Ø±": 5359, "ĠÙħÙĤØ§": 3092, "ØµÙī": 3148, "ĠÙģØ§Ø¹Ø¨Ø¯": 2106, "Ø§ÙĪÙĬØ©": 3804, "ĠÙĥØ°Ø¨ÙĪÙĨ": 6333, "ĠÙĨÙģØ³Ùĩ": 1261, "ÙĦÙĪØ¨": 2617, "ÙģØ¹ÙĦÙĪØ§": 7402, "ĠØ§ÙĦØµÙĬØ§Ùħ": 6099, "ĠØ±Ø¬Ø²": 6417, "ĠÙģØ§ÙĨØ¸Ø±ÙĪØ§": 4367, "ĠÙĬØªØ¹Ø¯": 8119, "ĠÙĬØ¸ÙĨ": 9354, "ĠÙĪØ£ÙĪÙĦØ§Ø¯Ø§": 9707, "Ø§Ø": 93, "ÙĨÙĪÙĨ": 581, "ĠÙĦÙĬÙħ": 5682, "Ø¹ÙĦÙĪÙĨ": 2087, "ĠÙģØ£Ø®Ø°ÙĨØ§ÙĩÙħ": 5285, "ĠØ®Ø§Ø¦ÙģØ§": 9780, "ĠØ¢Øª": 4826, "ĠØ±Ø§Ø¨Ø¹ÙĩÙħ": 9952, "Ø¬Ø±ÙħÙĬÙĨ": 1055, "ĠÙĪÙĪÙģ": 7145, "ĠØ§ÙĦØµØ§Ø¨Ø±ÙĪÙĨ": 8091, "ĠÙĬØ´Ø¹Ø±": 8203, "ĠØŃØ³Ø¨Ùĥ": 9297, "ĠÙģÙĬØ¹Ø°Ø¨Ùĩ": 7544, "ĠÙĤØµ": 2199, "ĠØ§ÙĦØ£Ø®Ø±": 4116, "ÙĨÙĬØ³Ø±": 6081, "ĠÙĥÙĩÙģÙĩÙħ": 10227, "ĠØ°ÙĪ": 1071, "ĠØŃØ¬ØªÙĩÙħ": 9208, "ĠØ¶ØŃÙī": 8341, "ĠÙĪÙĦÙħÙĨ": 4123, "ĠØ¢Ø«Ø§Ø±": 9657, "ĠÙĥÙĬØ¯": 1507, "ÙĦÙĬÙĦØ§": 703, "ĠÙģØ±ÙĬØ¶Ø©": 4415, "ĠØ§ÙĦØµØŃÙģ": 6100, "ÙģØ¸": 2658, "ĠÙĬØ³ØŃØ¨ÙĪÙĨ": 8491, "ĠØ«ÙĤ": 2353, "Ø¨Ø§Ø¦": 3447, "ĠØŃØ¨": 5903, "ĠÙĬÙĤØµ": 8734, "ĠØ£ÙģÙĦÙħ": 2236, "Ø¨Ø¹ÙĬØ¯": 4197, "ĠÙĬÙģØ³ÙĤÙĪÙĨ": 4525, "ĠØ¥ØŃØ¯Ùī": 5377, "ĠÙĪÙĬØ¹ÙĦÙħ": 1406, "Ø¹ÙĦÙĨ": 7863, "ĠØ´ÙģØ§Ø¡": 7806, "ĠÙĦÙĦØµ": 8144, "ÙĩÙĬÙĨ": 1425, "ÙĬÙĤÙĬÙĨ": 4588, "ĠØ¨Ø§ÙĦØº": 1325, "ĠØ§ÙĦÙħØ´Ø±": 2907, "ĠØ£Ø¸ÙĨ": 6996, "ĠØ¹Ø¬ÙĦ": 7444, "ĠÙĬØµØ¹Ø¯": 8780, "ĠÙĬÙħØªØ±ÙĪÙĨ": 9938, "Ø§Ø¦ÙĬÙĦ": 891, "ÙĬÙĪØ¨": 4585, "ĠØ¹Ø³Ø±": 7438, "ĠØŃÙħÙĬ": 4856, "ĠÙĪØ§Ø¶ÙħÙħ": 9735, "ĠØ£Ø®ÙĪØ§ØªÙĩÙĨ": 8655, "ÙĥØ¨Ø±ÙĪØ§": 1428, "ÙĬØ³Ùī": 1271, "ĠØ§ÙĦØ±Ø§": 2623, "ĠØŃØ¨Ø©": 4091, "ĠÙģØ§Ø±ÙĩØ¨ÙĪÙĨ": 9350, "Ø±ÙĬÙĥÙħ": 3223, "ĠÙħÙĤØ¶ÙĬØ§": 9512, "ĠÙĪØµØ¯ÙĪØ§": 3863, "ĠØ¹Ø±Ø¨": 2661, "ĠØ¨Ø¯": 1392, "ĠØ§ÙĦØ¶ÙĦØ§ÙĦØ©": 3883, "ĠÙģÙĩÙĬ": 4408, "ĠÙĪØ¹ÙĨØ¯ÙĩÙħ": 6722, "ĠØ±Ø§Ø¶ÙĬØ©": 4779, "ĠØ§ÙĦÙħØº": 7734, "ØªØ§Ø¹": 8392, "ĠØ¨Ø¨": 4701, "ĠØŃÙģÙĬ": 2496, "ĠÙģÙĬÙħ": 5791, "Ø±ÙĬÙĥ": 2729, "ĠØ§ÙħØ±Ø£Ø©": 6690, "ĠÙĨØ¯Ø¹ÙĪ": 5428, "ĠØ¬Ø§ÙĨØ¨": 4529, "ĠÙĦØ³Ø§ØŃØ±": 5539, "ĠØ§Ø°ÙĩØ¨ÙĪØ§": 8016, "ĠÙĦØµØ§Ø¯ÙĤÙĪÙĨ": 5464, "Ø±Ùĩ": 1304, "Ø§ÙĦØ§": 1215, "ĠØºØ±ÙĪØ±Ø§": 4514, "Ø¹ÙħÙĪØ§": 4908, "ĠÙĬØ³ØªØŃÙĬÙĬ": 8453, "ĠØ§Ø³ÙĥÙĨÙĪØ§": 9269, "Ø°ÙĪÙĤ": 5703, "ĠÙĬØ³Ø¨ØŃÙĨ": 9815, "ĠÙĦÙħØŃØ¶Ø±ÙĪÙĨ": 10116, "Ø§Ø«": 1285, "Ø¯Ø¨Ø§Ø±": 2641, "ĠØŃÙĬØ§Ø©": 4858, "ĠØ¬Ø¹ÙĦ": 757, "Ø®ÙĨ": 7546, "ĠØ¯Ø§Ø±ÙĩÙħ": 4925, "ĠØ£Ø¨Ø´Ø±": 8699, "ĠØ§ÙĦØ±Ø¬ÙĬÙħ": 9267, "ĠØ§Ø´ØªØ±Ø§Ùĩ": 10024, "ĠØ¸Ø§ÙĩØ±ÙĬÙĨ": 10032, "ĠÙĬØ¨ÙĬ": 5691, "ĠÙĬØ¤Ø§Ø®Ø°": 3322, "ĠÙģØ§Ø°ÙĥØ±ÙĪØ§": 3256, "ĠØ¥ÙģÙĥ": 3500, "ĠÙģØªÙĤØ¨ÙĦ": 8326, "ĠØ¨Ø§Ø±Ø¯": 9753, "ĠØ§ØºÙģØ±": 3303, "ĠÙĪØ£ØŃÙĬ": 5880, "ĠØ±Ø¯Øª": 7563, "ĠÙģØº": 3960, "ĠØªØ·ÙĩØ±": 7493, "ĠØŃÙħÙĦØ§": 8841, "ĠØ¨Ø§ÙĦØ´": 4130, "ÙĤØ¯": 210, "ĠÙĪØ¨Ùĩ": 8481, "ĠÙĪØ£Ø±Ø¬ÙĦÙĩÙħ": 9708, "ĠÙĪÙĥÙģÙī": 1467, "ĠØªØ±ÙĩÙĤÙĩÙħ": 8232, "ĠÙĦØ³ÙĨØª": 10056, "ĠÙĨØ¹ÙħØª": 3018, "ĠÙħØ¨ÙĬÙĨØ§": 2152, "ĠØ³Ø¨ÙĦÙĨØ§": 9037, "Ø§Ø¹ÙĤØ©": 3881, "Ø§": 44, "ĠÙħØ±Ø©": 2010, "Ø´Ø±ÙĪÙĨ": 1450, "Ø¯ÙĬØ«": 3468, "ĠØµØ¨": 4168, "ĠÙĪØ£Ø·": 4836, "ĠÙĪØ§ÙĦØ³ÙĦÙĪÙī": 6589, "ĠÙĪØ¹Ø¯ÙĩØ§": 8692, "ĠÙĪÙĨØ§Ø¯ÙĪØ§": 9507, "ĠÙĪÙĩØ¯ÙĪØ§": 7158, "ÙĦØªÙĨØ§": 6366, "ĠÙħØ¤": 2178, "ĠØµØ¯ÙĤØ§Øª": 6425, "ĠÙĪÙĩÙĬ": 2411, "ĠÙĪÙĤÙĦÙĨØ§": 3622, "ĠÙĦÙģØ§Ø³": 10057, "ĠØ§ÙĦÙĥØ¹Ø¨Ø©": 8032, "ĠØºØ±Ùģ": 6078, "Ø¬Ø±Ø§": 2321, "ĠØ§Ø¦ØªÙĨØ§": 5383, "ĠÙĪØ¢ÙĦ": 6359, "ĠØ³ÙħØ§ÙĪØ§Øª": 4528, "ÙĬÙĨØ§ÙĩØ§": 4170, "ÙģØ³Ø¯": 6051, "ĠÙĪØ§ÙĦÙĬØªØ§": 3154, "ĠÙĪÙĨØŃÙĬØ§": 8256, "ÙģÙĩ": 2866, "ĠÙĪØ£ÙĩÙĦÙĬÙĩÙħ": 9263, "ÙĩØ§Ø¬Ø±ÙĪØ§": 4782, "ĠØ£Ø³Ø³": 6401, "Ø¯ÙĬÙĨ": 402, "ĠÙĪØ§ÙĦØ¯Ùħ": 4795, "Ø±Ø¨": 222, "ĠÙħØ¹ÙĥÙħ": 1257, "ØªØµ": 2290, "ĠØ§ÙĦØº": 458, "ĠØŃÙĪÙĦ": 3181, "ĠØ³Ø¹Ùī": 6698, "ÙģÙĬÙĩØ§": 6285, "ĠØ£ØµØ¨": 8492, "ĠÙģØ³ÙĪÙī": 8669, "ĠÙĩØ¯Ùī": 974, "ĠÙĪÙĦÙĬØªÙħ": 8550, "ĠÙģØªÙĥÙĪÙĨØ§": 9582, "ĠÙĪØ¢ØªÙĬÙĨØ§Ùĩ": 2812, "ĠÙĪØ§ÙĦØ£Ø¹ÙĨØ§Ø¨": 8165, "ĠÙħÙĤØ§ÙĦÙĬØ¯": 10191, "Ø£ÙĦ": 991, "Ø¨Ø§ØŃ": 5071, "ÙĪØ§Ø¹ÙĤ": 7352, "ĠÙĬÙĩØªØ¯ÙĪÙĨ": 2455, "Ø¸ÙĦÙħÙĪÙĨ": 1058, "ĠÙħÙĨØ²ÙĦÙĬÙĨ": 7432, "ĠÙĪÙĤÙĦÙĨ": 9107, "ĠØ³ÙħØ¹ÙĥÙħ": 8999, "ĠÙħØ±ÙĪØ§": 6308, "ĠØ±Ø¶ÙĪØ§": 2681, "ĠÙģÙĬÙĪÙħØ¦Ø°": 5542, "ĠÙĥØ£ÙĨÙĩØ§": 6638, "ĠÙģØ£Ø®ÙĦÙģ": 7950, "ĠØµØ§ÙĦØŃÙĬÙĨ": 5239, "ÙĪÙĤÙĨÙĬÙĨ": 8773, "ĠØªØ±Ø¯ÙĨ": 8231, "ĠÙĬØ¬ÙħØ¹ÙĥÙħ": 9892, "ĠØ£ÙĬÙħØ§": 1123, "ĠÙĬÙĨØ¸Ø±ÙĪØ§": 8134, "ĠÙĤØ·": 4758, "ÙĦÙĬÙĦ": 528, "ĠØ£ÙĪÙĦØ§Ø¯ÙĩÙħ": 3823, "ØºÙĪÙĨÙĩØ§": 4467, "ĠÙħØ®Øª": 9196, "ĠØ³Ø¨ÙĬ": 393, "ĠØ£Ø®Ø±Ùī": 1920, "Ø¨ÙĦ": 226, "ĠØ£ÙĩÙĦÙĩ": 1999, "ĠØµØ±Ø§Ø·Ø§": 4389, "ĠÙĥØ±ÙĬ": 4753, "ĠÙĬØ·ÙĪÙģ": 9113, "ĠÙĪØ£ÙĪØŃÙĬ": 9491, "Ø§Ø°Ø¨ÙĪÙĨ": 2043, "ÙĦØ¨": 490, "ĠÙĬØ±Ø«": 6158, "ĠØ¨Øª": 3119, "ĠØ¹Ø§ÙĦÙħ": 2162, "ĠÙĪÙĬÙĤØªÙĦÙĪÙĨ": 4142, "Ø¶Ø¹Ùĩ": 6687, "ĠØ®Ø·ÙĪØ§Øª": 4485, "ĠØ®ÙĦØª": 1878, "ĠÙĦÙĬÙĪØ³Ùģ": 4946, "Ø§ÙĩØ¯ÙĪØ§": 1489, "Ø¨ÙĬØ¹": 8025, "ØªØ¹": 4617, "ĠÙĬØªÙĪÙĦÙī": 6120, "ĠØ¹Ø§ÙĩØ¯ØªÙħ": 5487, "ĠØªØ³ØªØ·ÙĬØ¹": 5253, "ĠÙĦÙĦØ¹Ø¨ÙĬØ¯": 4447, "ĠØ¨Ø¹Ø¶ÙĩÙħ": 1077, "ØµÙĬÙĨØ§": 4049, "ĠÙĦØªØ³": 2987, "ĠÙĬÙħÙĪØª": 3767, "ĠØ¹Ø¯Ø©": 4729, "ĠÙĤÙĦØªÙħ": 2717, "ĠØ£Ø¥": 1218, "ĠÙĨØ§Ø¦ÙħÙĪÙĨ": 10238, "ĠÙĨ": 110, "ĠÙĪØ£ÙĦÙĤÙĪØ§": 9392, "ĠÙĦÙĬØ®Ø±Ø¬ÙĥÙħ": 9784, "ĠÙĪÙĦÙĥÙĨ": 449, "ĠÙĬØ¬Ø¹ÙĦ": 1597, "ĠØ¶ÙĦØ§ÙĦØªÙĩÙħ": 8986, "ĠÙĬØ®ÙģÙģ": 3291, "ĠÙħØ¤ÙħÙĨØ©": 3840, "ĠØªØ¯Ø¹ÙĪØ§": 6443, "ĠÙģÙĦØ¹ÙĦÙĥ": 9990, "ĠØ³Ø¨ØŃØ§ÙĨÙĥ": 2798, "ĠÙĨØ¤ÙħÙĨ": 2482, "ĠÙĦØ°ÙĥØ±": 3969, "ĠÙĪØ§ÙĦØŃÙĥÙħ": 1959, "Ø§ØªÙĦÙĪØ§": 1867, "ĠØµØ§ØŃØ¨Ø©": 9673, "ĠØ¯Ø±Ø¬Ø§Øª": 2277, "ÙĨØ³Ø§Ø¡": 5116, "ĠÙĦÙĦÙĬ": 5680, "ĠØ§ÙĦÙĥØ§Ø°Ø¨ÙĪÙĨ": 6070, "ĠØ±Ø¢ÙĩØ§": 9704, "ĠÙģÙĬÙĩÙĨ": 2675, "ÙĦÙī": 109, "ĠØªØµ": 955, "ĠÙĪØ£Ø¬Ø±": 3571, "ĠÙĥÙģØ±Ø§": 4984, "ĠØµØ¨Ø±ÙĪØ§": 2093, "ĠÙĬÙĥÙĪÙĨ": 812, "ĠØ§ÙĦØ®Ø§Ø³Ø±ÙĬÙĨ": 2116, "ĠØªØ¬Ø¹ÙĦ": 2989, "Ø´ÙĩØ¯ÙĪØ§": 3552, "ĠÙĪÙĦÙĬØªÙĤ": 8553, "ÙĪØ¯": 327, "ĠØ±Ø´Ø¯Ø§": 3412, "ĠÙĦÙĬØ±": 3111, "ĠØµÙģØ±": 7984, "ĠØ£ÙģÙĪØ§ÙĩÙĩÙħ": 5553, "ĠØ£Ø³ÙĦÙħØª": 9440, "ĠÙĬØ£Ø®Ø°ÙĩÙħ": 9728, "ĠØ¨Ø£": 333, "Ø®ÙĦÙĪÙĩØ§": 5133, "ĠØªÙĬØ³Ø±": 7499, "ĠØ¸ÙĨØ§": 6190, "ĠØŃÙħÙĦØªÙĩ": 6877, "ĠÙĪØ§ÙĦÙħØª": 6376, "Ø§ÙĦØª": 7114, "ĠÙģÙĬÙĪÙģÙĬÙĩÙħ": 7541, "ĠÙĬÙĨØ§Ø¯ÙĪÙĨ": 5416, "Ø±Ø¯": 2171, "ĠÙĪØ¢ØªÙĬÙĨØ§": 1483, "ĠØ®ÙĦÙĤÙĨØ§ÙĩÙħ": 6210, "ĠØªØªÙĤÙĪØ§": 8532, "ĠØ£Ø®ØªÙĩØ§": 8652, "ĠØ´ÙĬØ·Ø§ÙĨØ§": 8059, "ÙĪØ¯Ùĩ": 2546, "ĠØªØªÙģÙĥØ±ÙĪÙĨ": 6328, "ĠØªÙĩÙĪÙī": 5766, "ĠØ¨Ø§ÙĦØµØ§ÙĦØŃÙĬÙĨ": 9610, "ĠØªØ³Ø¨ÙĤ": 10221, "Ø§ÙĩØ±ÙĪÙĨ": 4358, "ĠÙĪØ±Ø§Ø¡ÙĩÙħ": 8474, "Ø°Ø±ÙĪØ§": 2002, "ĠÙģÙĥØ£ÙĨ": 6381, "ÙĪÙĬÙĦØ§": 3335, "ĠØ£Ø¹ÙĦ": 7233, "ĠØ§ÙĦØ£Ø¹ÙĬÙĨ": 7813, "ĠØ§ÙĦØ¹Ø²Ø©": 2932, "ĠØ£ÙĩÙĦÙĬ": 8347, "ĠÙĦØ£Ø²ÙĪØ§Ø¬": 6303, "ĠÙĬØ¸ÙĦÙħÙĪÙĨ": 1186, "ĠÙĨÙģØ±ÙĤ": 6892, "ĠØ§ÙĦØ±Ø¶": 7127, "ĠØªÙĦÙĤÙĬ": 9480, "ĠÙģÙĨØªØ¨Ø¹": 10051, "ĠØ§ØµÙĦÙĪÙĩØ§": 9439, "ĠÙĨØ±Ø¯": 7633, "ÙĦÙĬÙħ": 446, "ĠØ£Øª": 672, "ĠÙĪØ§ØŃØ¯Ø§": 4356, "ĠØ¢Ø¨Ø§Ø¤ÙĥÙħ": 4374, "ĠØ£ØŃÙĤ": 2377, "ÙģÙĦØ§": 7390, "ÙģØ±ÙĤÙĪÙĨ": 7800, "ĠÙĪØ§ÙĦÙĬØ³": 7605, "ĠØµØ§Ø¹ÙĤØ©": 6041, "ĠÙĪØ®ÙģÙĬØ©": 9070, "ĠÙĪØ£ØµØŃØ§Ø¨": 2413, "ĠÙĪØ§Ø¯Ø®ÙĦÙĪØ§": 6726, "ĠØ¨ØºÙĬØ±": 933, "Ø·ÙĩØ±ÙĬÙĨ": 9296, "ĠÙĪØ£ÙĨÙģØ³ÙĩÙħ": 2545, "ĠØ±Ø¬Ø§ÙĦØ§": 3005, "ÙħØ´ÙĪØ§": 7100, "ĠÙĪØ¥ÙĤØ§Ùħ": 7826, "ÙĬØ£Ø³": 5570, "ĠØ§ÙĦØ¹": 183, "ĠÙĪÙĦÙĨØ°ÙĬÙĤ": 8951, "ĠØ¯ÙĬÙĨÙĩ": 9003, "ĠØªØ¯Ø¹ÙĪÙĨÙĨÙĬ": 9129, "ĠÙħØ³Ø§Ø¬Ø¯": 6315, "ĠØ¸Ø§ÙĩØ±Ø©": 9787, "ĠØµØ¯ÙĬÙĤØ§": 8721, "ĠØ·": 323, "ÙĨØ§Ø³": 4738, "ĠØŃØµÙĬØ¯Ø§": 9778, "ĠÙĪØ§ÙĦØ£ØŃØ¨Ø§Ø±": 8166, "ÙģØªØ§ÙĨ": 8402, "ĠØ£ØµØ§Ø¨ØªÙĥÙħ": 9110, "Ø³Ø±ÙĪØ§": 1892, "ĠØ¨Ø¹ÙĦÙħ": 3120, "ĠÙĥØ§ÙĦØ£": 6535, "ĠØ§ÙĦØ£ØºÙĦØ§ÙĦ": 5943, "ĠØ£Ø³Ø±Ø¹": 9514, "ĠÙĨØµ": 785, "ĠØ·Ø§Ø¦Ø±": 9097, "ĠØ§ÙĦÙĥÙĪØ§ÙĥØ¨": 10279, "ÙģØ§Ø±Ø§": 5078, "ĠÙĨØŃÙĬÙĬ": 5845, "ĠØ§ÙĦØ±Ø¬Ø²": 6688, "ĠØ§ÙĦØ®Ø¨ÙĬØ±": 3696, "ĠØ£ÙĨÙĬ": 1863, "ĠØ§ÙĦÙħØ¨Ø·ÙĦÙĪÙĨ": 4849, "ĠÙĨØ¹Ø¬Ø©": 9839, "ØªØ¨": 612, "Ø°": 69, "ĠÙĨØŃØ´Ø±ÙĩÙħ": 9654, "ĠØ£Ø¬ÙĪØ±ÙĩÙħ": 5085, "ĠØ¹ÙĦÙĬÙĩÙħ": 275, "ĠÙĬÙĨÙĤÙĦØ¨": 4208, "ĠÙĪØ£ÙĨÙĩ": 2109, "ĠÙģÙĦÙĦÙĩ": 3670, "ĠÙĥØ§ÙģØ±": 4754, "ĠÙħØ³Ø§ÙĥÙĬÙĨ": 8518, "ĠØªØ¸ÙĦÙħÙĪÙĨ": 4027, "ĠØªÙĦÙĤÙģ": 6794, "ĠÙĬØ³ØªÙĪÙĬØ§ÙĨ": 9436, "ĠØ£Ø®ÙĪÙĩÙħ": 5161, "ĠØ¨Ø±ÙĪØ¬Ø§": 8857, "ĠÙĪØ£Ø¶ÙĦ": 3572, "ĠÙĪØ¢ØªØ§ÙĥÙħ": 8623, "ÙĬØ¯Ùĩ": 1974, "ĠÙĪØ§ÙĦØ¹Ø¯ÙĪØ§": 4061, "ĠÙĪØ¥ÙĨÙĩØ§": 8035, "ÙĬØ§ØªÙĥÙħ": 8049, "ĠÙĬØµØ¯ÙĪÙĨ": 3754, "ĠØ§ÙĦØ¨ÙĬÙĨØ§Øª": 2285, "ĠØ£ÙĬÙĩÙħ": 3653, "ĠØ®Ø§Ø´Ø¹Ø©": 4530, "ÙĪÙĤ": 688, "ĠÙĪÙħØ¹": 5603, "ĠÙĪÙĦÙĩ": 1128, "ĠÙģØ±ØŃÙĪÙĨ": 6278, "ĠØ£ÙĦÙĤÙĪØ§": 3044, "ĠÙĨØ¨ÙĬØ§": 3026, "ĠÙħØ³ØªÙĤØ±": 3748, "ĠÙĬØ®ÙĪØ¶ÙĪØ§": 5528, "ĠÙĪÙĦØ¹": 1970, "ĠØªØ°ÙĥØ±": 2666, "Ø¨ØŃÙĬÙĨ": 4319, "ĠØªØ¯ÙħÙĬØ±Ø§": 8761, "Ø¨Ø¯ÙĬ": 8086, "Ø§Ø¯": 169, "Ø¨Ø¹ÙĪÙĨ": 1682, "Ø°Ø§Ø¨": 208, "ÙĪÙĨÙĩ": 1351, "ĠØ§ÙĦØ¨ÙĬØ¹": 6679, "ĠÙĪØªØ³": 4214, "ĠØ¶Ø±Ø¨Ø§": 9240, "ĠÙĪØ§Ø¨ØªØº": 4436, "ĠÙĬØ®ÙģÙĪÙĨ": 6287, "ĠÙĤÙĪÙĦÙĬ": 8742, "ĠÙĬÙĪØµÙĦ": 6394, "ĠÙģØ£Ø±Ø³ÙĦ": 4159, "ĠØ¨Ø±ØŃÙħØªÙĩ": 8856, "ÙĤÙĬØª": 5698, "ĠÙĪÙĤÙĪÙħÙĩÙħØ§": 9238, "ĠØ§ÙĨØ´ÙĤØª": 8826, "ĠØ¨ÙĨØ¹ÙħØª": 9180, "ÙĪØ§Ø¡": 876, "ĠØªØ®Ø±": 7468, "Ø¨Ø¶": 7187, "Ø±ÙĬØ©": 1205, "ĠØ§ÙĦØ¹ØªÙĬ": 7962, "ĠØ¥": 74, "ĠÙĪØªØ¯": 8148, "ĠÙħØ¤ÙħÙĨÙĪÙĨ": 3452, "ĠÙħØ¹Ø§Ø¬": 6109, "ĠÙĪØ§ÙĦØ´ÙħØ³": 2802, "ĠØ¹ÙģÙĪØ§": 4731, "ĠØ·ÙĦÙĪØ¹": 9995, "ĠØ¯Ø®ÙĦØª": 6836, "ĠØªØŃÙĦ": 8394, "ĠØ§ÙĦØ¶Ø¹ÙģØ§Ø¡": 6992, "ĠØ£ÙĩÙĪØ§Ø¡": 1821, "ÙĦØ¨ÙĪØ§": 2990, "ĠÙħÙĬØ±": 7198, "ĠØªØ·ÙĬØ¹ÙĪØ§": 4028, "ĠÙĦØ¹Ùħ": 7300, "ĠØ£ÙĩÙĦÙĥÙĨØ§ÙĩØ§": 5270, "ĠØ§ÙĦØ²ÙĤ": 7131, "Ø¨Ø±Øµ": 8081, "ØªÙĦÙĪØ§": 3924, "ĠÙĪÙĬØ¹Ùģ": 4901, "ĠÙĬØ¨Ø¯ÙĦ": 4449, "ĠØŃÙĦÙĬÙħØ§": 5909, "ĠÙĥÙĬØ¯ÙĩÙħ": 6683, "ÙĦÙĩÙħ": 654, "Ø¬Ø±ÙĪØ§": 2103, "ĠÙĤØ¨ÙĦÙĥ": 1081, "ĠØ§ÙĦØ±ØŃÙħÙĨ": 356, "ĠÙģØ£ØµØ¨ØŃ": 1743, "Ø¹ÙĬ": 1850, "ĠÙĬØ·Ø§Ùģ": 9114, "ĠÙĥÙģÙī": 4034, "ĠÙĪÙĦØªØ·ÙħØ¦ÙĨ": 9065, "ĠØªØ³Ø£ÙĦÙĪÙĨ": 4357, "ĠØ£ÙĩÙħ": 4636, "ĠØ¹ÙĦÙħÙĩØ§": 5138, "ĠØ§ÙĦÙģØ³": 3080, "ĠØ§ÙĦØŃØ§ÙĤØ©": 6004, "ĠØ¹ÙħØ¯": 6419, "ĠØ®ÙĬØ§ÙĨ": 7797, "ĠÙĬÙĨØ§ÙĦ": 6127, "ĠØ®ÙģØªÙħ": 3194, "ĠÙĤÙĬÙĦ": 1045, "ĠØ§ÙĦÙĪØµÙĬØ©": 9244, "ĠÙĬØ¹ÙħØ±": 5315, "ĠÙĪÙĬÙĥØ£ÙĨ": 9716, "ĠÙĪÙĪÙĦØ¯Ø§": 10039, "Ø®ÙĦ": 487, "ĠØ¨Ø®Ø§Ø±Ø¬": 6635, "ĠÙħØªØ®Ø°": 6462, "ĠÙĪØ§ÙĦØ²Ø¨Ø±": 9837, "ĠØ°ÙĥØ±ÙĬ": 4343, "ĠÙĪØ£ÙĤÙĪÙħ": 6673, "ĠØ£ÙģØ£": 2113, "ĠØ¯Ø¹ÙĪØ§ÙĩÙħ": 5403, "ĠÙħÙĪØ«": 6154, "ĠÙĪØŃØ±": 3083, "ĠØªÙĥØªØ¨": 8480, "Ø¹Ø¨ÙĬÙĨ": 4632, "Ø¶Ø¹": 1511, "ĠØ±Ø¡ÙĪØ³ÙĩÙħ": 3880, "ÙĪÙĤØ¯": 5573, "ĠÙĪØ§ÙĤØ¹": 6112, "Ø³Ø±Ø§ÙĨ": 8215, "ĠÙĬÙĪØµ": 8675, "ĠØºÙĬØ±ÙĬ": 8639, "ĠÙĨØ´ÙĪØ±Ø§": 6592, "ĠØ§ÙĦÙħÙĨØ§ÙģÙĤÙĪÙĨ": 3414, "ĠÙĪØ¹Øµ": 6238, "ĠÙĬÙĩØªØ¯ÙĪØ§": 9818, "ĠØªØ¶Ø±Ø¹Ø§": 6955, "ĠØ³Ø¨ÙĬÙĦÙĬ": 6259, "ÙĤÙģØ§": 7339, "ĠØ¨Ø§ÙĦÙģØŃØ´Ø§Ø¡": 5967, "ĠØ¨Ø§ÙĦÙĤØ±Ø¢ÙĨ": 9233, "ĠØ£ÙħØ±ÙĪØ§": 6354, "ĠØµØ¯ÙĪØ±ÙĥÙħ": 5181, "Ø¯Ø®ÙĦÙĥÙħ": 6666, "ĠÙĦÙĩØ¯Ùī": 7309, "ĠÙħÙĨÙĬØ±": 7427, "ĠØ°ÙĨØ¨": 9321, "Ø¨Ø«Ø§": 7195, "ĠØ±ØŃÙħØªÙĨØ§": 5188, "Ø²ÙĬÙĨÙĩ": 3803, "ĠÙģÙĦÙĬØ£": 5231, "ĠØ¯ÙĪÙĨÙĬ": 6247, "ĠØ§ÙĦØ¹Ø¯Ø§": 4606, "ĠÙĦÙĤØ§Ø¡": 2985, "ĠÙĪÙĦØ¹Ø°Ø§Ø¨": 4503, "Ø§Ø¦Ùĩ": 4194, "ĠØªØ£ØªÙĬÙĨØ§": 5140, "ÙĦÙĪÙī": 5561, "ĠÙĬØ±ØªØ¯": 5010, "ĠÙĩÙĨØ§ÙĦÙĥ": 2821, "ĠØ£ØŃÙĬØ§ÙĩØ§": 9882, "ĠÙĬØ³ØªØ£Ø°ÙĨÙĪÙĨÙĥ": 9889, "Ø°ÙĬØ±": 4695, "ÙĬÙħØ§ÙĨ": 1479, "ĠÙħÙģØ§ØªØŃÙĩ": 10171, "Ø®ÙĦÙĩ": 7547, "ĠÙĪØ§Ø³Øª": 997, "ĠØ§ÙĦÙĥÙģØ±": 2224, "ĠÙĨØµÙĬØ¨Ø§": 3017, "Ø·Ùī": 4821, "ĠÙĬÙĨØ¸Ø±": 4988, "ÙģÙĪÙĨØ§": 8903, "ĠÙĦØ¢ÙĥÙĦÙĪÙĨ": 8974, "ĠÙĩØ²ÙĪØ§": 2333, "ĠÙĦÙĦØ±ØŃÙħÙĨ": 2733, "ĠÙĪÙĨØ®": 8244, "ĠØ¥Ø³ØŃØ§ÙĤ": 3499, "ĠÙĬØ³ÙĤÙĪÙĨ": 8490, "ĠÙĪØ¢ØªÙĪÙĩÙħ": 9729, "ĠÙĥØ§Ø±ÙĩÙĪÙĨ": 4552, "ĠØ¨Ø¶Ø±": 4707, "ĠØ£ÙĩØ¯": 7234, "ĠÙħØªØ¹ÙĨØ§": 6464, "Ø¯Ø§Ø¯ÙĪØ§": 3958, "ØŃØ§Ø¨": 548, "ĠØªÙģØ³Ø¯ÙĪØ§": 5488, "ĠÙĨØ´Ø£": 6591, "ĠØ¶Ø±Ø¨ØªÙħ": 6677, "ĠÙħØ¬Ø±ÙħÙĪÙĨ": 7210, "ĠÙĪØ§ÙĦÙĨØ¬Ùħ": 9896, "ĠÙĬØ®Ø§ÙģÙĪÙĨ": 2980, "ØŃÙĬÙĪØ§": 8759, "ĠØ§ÙĦØ¹Ø§ÙĦÙħÙĬÙĨ": 712, "ĠØ¢Ø¨Ø§Ø¤ÙĨØ§": 3346, "ĠØ£Ø¹ÙħØ§ÙĦ": 934, "ĠÙĪÙĥÙħ": 2626, "ĠÙĬØ´Ø§ÙĤ": 6168, "ĠÙĪÙĨÙħ": 6195, "ĠÙħÙĬØ«Ø§ÙĤ": 1605, "ĠØ¬ÙħÙĬ": 758, "ĠÙĬØªÙģÙĥØ±ÙĪÙĨ": 2609, "ĠÙĩØ§Ø¯ÙĪØ§": 2483, "ĠÙĪØ¢Ø¨Ø§Ø¤ÙĥÙħ": 4523, "Ø®Ø±ÙĪÙĨ": 1631, "ĠØ¥ÙĨ": 100, "ĠØ¨ÙĥÙĦ": 1060, "ĠÙĬØ³ÙħØ¹": 2647, "ĠÙĬØ¯Ø¹": 2556, "ØŃØ³Ø¨": 2660, "Ø°ÙĩØ¨ÙĪØ§": 3733, "ĠÙĬØ¸ÙĨÙĪÙĨ": 4480, "ÙĩØ¯ÙĪØ§": 1806, "ĠØ£Ø±Ø¨Ø¹ÙĬÙĨ": 5351, "Ø³Ø¨ÙĪØ§": 3665, "ĠØ§ÙĦØ·": 697, "ĠØ§ÙĦØŃÙĨØ§Ø¬Ø±": 7934, "ĠÙĪØ³Ø¹": 2394, "ĠÙĤØ±ÙĬÙĨÙĩ": 9951, "ĠÙģÙĦÙĬØ³Øª": 5232, "ĠØ¹ÙħØ§": 825, "ĠÙĦØŃ": 1941, "ĠØ±Ø²ÙĤÙĩÙħ": 3774, "Ø±ÙĨØ§": 4597, "Ø§ÙħØ³Ø©": 7077, "ĠØ´ØªÙī": 7802, "ĠØ¹ÙĩØ¯Ø§": 5361, "ĠÙĪÙĨÙĪØŃØ§": 6200, "ĠØ§ÙĦØ³ÙĬØ¦": 9237, "ĠØ¶ÙĬ": 5059, "Ø§ÙĪ": 1174, "ØŃØ´": 1278, "ĠØªÙĨØ²ÙĦ": 2994, "ØŃØ³ÙĨ": 641, "ĠÙĦÙģØ³": 4664, "ÙĥÙĦÙĪÙĨ": 5612, "Ø¯ÙĦÙī": 7250, "ĠÙĥØ§ÙĨ": 160, "ĠÙģØ¶ÙĦØ§": 2786, "Ø¯ÙĪÙĩÙħ": 7253, "ĠØ®Ø±ÙĪØ§": 7788, "ĠÙĥØ§ÙģØ©": 4553, "ØªÙħ": 132, "ĠØ§ÙĦØ¹Ùħ": 2839, "ĠÙĬØ¬Ø¹ÙĦÙĪÙĨ": 9307, "Ø¹Ø±Ø¶": 2183, "Ø§Ø¦Ø²ÙĪÙĨ": 4974, "Ø·ÙħØ¦ÙĨ": 3407, "ÙģØ¦": 2867, "Ø³ØªØ¯Ø±Ø¬": 7887, "ĠÙĬÙĦÙĤÙĬ": 6732, "ĠØ´ÙĥØ±": 4872, "ĠØªÙĤØ¯ÙĬØ±": 6796, "ĠØ§ÙĦØ³Ø§Ø¬Ø¯ÙĬÙĨ": 4137, "ĠÙĪØ£ÙĪØ°": 7728, "ĠÙĪØ¨Ø´Ø±Ùī": 4468, "Ø§ÙĨÙĬÙĪÙĨ": 9165, "ĠÙĬØ³ØªØ¬ÙĬØ¨ÙĪØ§": 4287, "ĠÙĬØ¯Ø®ÙĦÙĪÙĩØ§": 9558, "ĠØ§Ø³ØªØ¶Ø¹ÙģÙĪØ§": 4560, "ĠØ²ÙĪØ¬": 1529, "ĠØ£ÙħØªÙĥÙħ": 7927, "ĠÙĥÙĦÙĪØ§": 1857, "ĠØ£ØµØºØ±": 8494, "ĠÙĪÙĥØ°Ø¨ÙĪØ§": 2608, "ĠÙĬØ³Ø¬Ø¯": 2982, "ĠØ¨Ø£ÙģÙĪØ§": 2966, "ĠØ¯ÙĬØ§Ø±ÙĥÙħ": 5404, "ØŃÙĬÙī": 6442, "ÙĪØ±Ø§": 435, "ĠØ·Ø§ÙĤØ©": 8272, "ĠÙĤØ¨ÙĦÙĩØ§": 8772, "ĠØ§ÙĦÙĤØ±ÙĪÙĨ": 2522, "Ø¸ÙĬÙħ": 543, "ĠÙĪÙĦÙĪØ§": 4885, "ĠÙĪÙĤØ¶ÙĬ": 4164, "ĠØ§ÙĩØ¨Ø·": 4180, "ĠÙĪÙħÙĦØ§Ø¦Ùĥ": 4280, "ĠØ§ÙĦØ¯ÙĩØ±": 8209, "ĠÙĬØ·ÙĩØ±": 9115, "ĠÙĬÙĥÙģØ±ÙĪÙĨ": 2263, "ĠØªØªØ°ÙĥØ±ÙĪÙĨ": 6327, "ĠÙĪØ§Ø³Ø£ÙĦÙĪØ§": 9174, "ĠÙĥØ§ÙģØ±ÙĪÙĨ": 1858, "ĠÙĦØªØ£Ùĥ": 8569, "ØºÙī": 2341, "Ø¹Ø¬ÙĦÙĪÙĨ": 2034, "ĠÙĪÙĪÙĩØ¨ÙĨØ§": 3067, "ĠØªØ´Ø±": 7470, "ĠØªØ°Ø±ÙĨ": 9701, "ĠÙĬÙĬØ£Ø³": 7333, "Ø¨ØªÙĥÙħ": 6362, "ĠÙĬÙĩØ±": 7323, "Ø±ÙĬÙģ": 8020, "ĠØ¹Ø§ÙĥÙģÙĪÙĨ": 9820, "ĠÙĪØµ": 1085, "ĠØ§ÙħØ±": 3632, "ĠÙĪØ£ØŃ": 2902, "ÙħÙĨÙĥÙħ": 4046, "ĠØ§ÙĦØ±Ø¬ÙģØ©": 5338, "ĠØ³Ø±Ø§Ø¬Ø§": 6766, "ĠÙĬÙĥÙģØ±ÙĪØ§": 6595, "ĠØ§Ø¨": 716, "ĠÙĤØªÙĦÙĨØ§": 9261, "ĠÙĨÙĨ": 2892, "ĠØ®ÙĦÙĤÙĥ": 8279, "ĠØ·Ø¨Ø§ÙĤØ§": 10296, "ÙĦØ§ÙĦØ§": 3007, "ĠÙĪÙĨØ§Ø¯ÙĬÙĨØ§Ùĩ": 9508, "ĠÙĪØ§ØªÙĦ": 4312, "ÙģÙĤÙĪÙĨ": 1004, "Ø¬ÙĬÙĥÙħ": 5775, "Ø´Ø¯": 3151, "ĠÙĦÙĬØºÙģØ±": 4177, "ĠÙĬØ£Ø°ÙĨ": 6223, "Ø§ÙĩØ¯ÙĪÙĨ": 6466, "ĠØµÙĨÙĪØ§ÙĨ": 7992, "ĠÙĦÙĦØ·Ø§Ø¦ÙģÙĬÙĨ": 9876, "ĠØ¨ÙĨØ§ØªÙĬ": 9597, "ĠØ£Ø¹Ø¯Øª": 5373, "ĠØµØ§ÙĦØŃ": 858, "ÙĤÙĬÙĥÙħ": 7342, "ĠØªÙĪÙĦÙĬØªÙħ": 3041, "ĠØ¹Ø¯Ø§ÙĪØ©": 9943, "ÙĦÙģ": 349, "ĠØ³Ø£": 1868, "ĠÙĬØ£ÙĥÙĦÙĪÙĨ": 3382, "ĠÙĪØ£ÙĨÙĬ": 5877, "ĠØªØ¨ØµØ±ÙĪÙĨ": 2795, "ØªÙĦÙĪ": 8938, "ĠÙģÙĤØªÙĦÙĩ": 10194, "ĠÙĬØ¸ÙĩØ±ÙĪØ§": 6731, "ĠØªÙħØ³ÙĪÙĩÙĨ": 6781, "ĠØ¨Ø§ÙĦØºÙĬØ¨": 2269, "ĠØ¨ÙĦØ¯": 8331, "ÙĦØ§Ø¦Ø¯": 9599, "ØŃØ§Ø±": 5734, "ĠÙĥØ«Ø±": 4755, "ĠØ¬ÙħÙĬØ¹Ø§": 830, "ĠÙĪÙĬØºÙģØ±": 2509, "ĠØ«Ø¹Ø¨Ø§ÙĨ": 10271, "ÙģÙĪÙģ": 7396, "ĠØ§ÙĦÙħØªÙĤÙĪÙĨ": 3850, "ÙĬÙħØ§": 395, "ĠÙĪØ¢ØªÙĪØ§": 1902, "ĠÙģÙĤØ§ÙĦ": 859, "ĠÙĪØ§Ø³ØªØºÙģØ±": 2148, "ĠÙģØ§Ø¹ÙĦÙħ": 6172, "ĠÙĥØ¯Øª": 7517, "ĠØ¯ÙĪÙĨ": 380, "ĠØªÙģÙĬØ¶ÙĪÙĨ": 9825, "ĠØªØ¹": 464, "ĠØªØ±Ø¶": 5755, "Ø²ÙĥÙī": 7576, "ĠØ£ØµØ§Ø¨ÙĥÙħ": 5289, "ĠØ¯Ø±Ø¬Ø©": 5380, "ĠÙĨØµÙĬØ±Ø§": 2252, "ĠØ³ÙħÙĬØ¹Ø§": 5465, "ĠÙĬÙĨÙģØ¹": 1470, "ĠØªÙĥØ³Ø¨": 6295, "Ø¨Ø§": 369, "ĠØªØŃØ¨ÙĪÙĨ": 2969, "ĠØ£ÙĪÙĦØ§": 1463, "ĠÙĨÙĤ": 2076, "ĠÙĪØ§ØµØ¨Ø±": 3376, "ĠØ£Ø¬ÙĪØ±ÙĥÙħ": 8409, "ĠØ¬Ø¹ÙĦÙĨØ§Ùĩ": 3347, "ÙĪÙĦØ©": 4829, "ĠÙĪØ§ÙĦØŃØ±": 7596, "ĠÙĤØ±ÙĨ": 4450, "ÙħØªØ¹ÙĩÙħ": 8796, "ĠØ§ÙĦØ¯ÙĨÙĬØ§": 447, "ĠØ¨Ø¹ÙĦÙħÙĩ": 5486, "ĠÙģÙĤØ·Ø¹": 8621, "ĠÙħÙĨØª": 3512, "ĠÙĩØ§ØªÙĪØ§": 4817, "Ø¶Ø±Ø©": 6470, "ĠÙĪØ§Ø±": 1681, "ĠØ£ÙĨØ¬ÙĬÙĨØ§": 4792, "Ø±Ø¶ÙĪØ§": 1199, "ĠØ§ÙĦØ±Ø¹Ø¨": 4904, "ĠÙĪÙĨÙģØ®": 3265, "ĠÙĪÙĬÙĨ": 1305, "ĠÙĨØµÙĬØ¨": 2024, "ĠÙĦØ¨Ø´Ø±": 5251, "ĠÙĥÙĪÙĥ": 5779, "ĠÙģØªÙĨÙĪØ§": 8319, "ĠØ®ÙħØ±Ø§": 7793, "ĠØ£ØªØ§": 1617, "ĠØ£Ø¹ÙħØ§ÙĦÙĥÙħ": 2794, "Ø§Øª": 115, "ĠØ£ÙĤØ¯Ø§ÙħÙĨØ§": 6997, "Ø±Ø«ÙĪÙĨ": 7125, "ĠØ§ÙĨØ¸Ø±ÙĪØ§": 6475, "Ø¹Ø°Ø¨Ùĩ": 7232, "ĠØ£ÙĤÙĦØ§Ùħ": 8878, "ĠØªØ±Ø¶Ùī": 7497, "ĠØ§ÙĦØ£Ø®Ø³Ø±ÙĪÙĨ": 9540, "ĠÙĪØ§ÙĦÙĬØ³Ø¹": 10237, "Ø¹ÙħÙĦÙĪØ§": 2716, "ĠØ§ÙĦØµØ§ÙĦØŃÙĪÙĨ": 6386, "ØªØ±Ùģ": 7183, "ĠÙĨØ¬Ø§ÙĩÙħ": 8890, "Ø´Ùī": 1634, "ĠÙĥØ°Ø¨Ø§": 1900, "ĠÙĪØ¹Ø§Ø¯": 3279, "ÙĩÙģ": 3426, "ĠÙĪÙĦÙĥ": 399, "ĠÙĪØ¨ÙĨØ§Øª": 2759, "ĠÙĬÙĦØ§": 5688, "ĠÙĬØ´Ø±": 4677, "ĠÙĥÙģØ±Ùĩ": 6124, "ĠÙĪÙĦØ¦ÙĨ": 1070, "Ø¹Ø¬": 1243, "Ø±Ø¢ÙĨØ§": 2569, "ĠÙĬÙĦØ¹": 3116, "ĠØ£ÙĬØ§ÙĨ": 3654, "ĠÙģØ°Ø±": 4655, "ĠØ§ÙĦÙĨØ´Ø£Ø©": 7067, "ĠÙĦÙĬØ¹Ø¨Ø¯ÙĪØ§": 8003, "Ø¨ÙĨÙĬ": 3087, "ĠØ£Ø®Ø¯Ø§ÙĨ": 8654, "Ø¨Ø¯Ø§": 910, "Ø±Ø¨Ùĥ": 6082, "ĠØ¹Ø§ÙĦÙĬØ©": 9250, "ĠÙĥØ³Ø¨": 973, "ĠÙĦÙĬÙĤÙĪÙĦÙĪÙĨ": 4942, "ĠÙĪÙĨØ¹ÙħØ©": 8254, "ĠÙħØ³ÙĥÙĬÙĨ": 8517, "ĠÙĨØ¬Ø²ÙĬ": 1538, "Ø±Ø¬Ø§ÙĦ": 5151, "Ø°ÙĨØª": 5702, "ĠÙħÙĤØ§ÙħÙĬ": 9692, "ĠØ®Ø¶Ø±": 4868, "ĠØ¨Ø°Ø§Øª": 2191, "ĠÙĬØ£ØªÙĬÙĨØ§": 8299, "ĠØ±Ø£ÙģØ©": 8932, "ĠØµÙĪØ§": 6035, "ĠØªØ¯Ø¹ÙĪÙĨ": 1265, "ĠÙĬØ·ÙħØ«": 9117, "ĠØ¨Ø§Ø¡": 7354, "ĠÙĪÙĥØ§ÙĨØª": 5103, "ÙĥØ¨Ø±Ø§": 7174, "ĠÙħÙĤØªØ¯Ø±": 9474, "ÙĪÙĥÙħ": 731, "Ø®Ø§Ùģ": 4768, "ĠÙħØ®ØªÙĦÙģØ§": 5460, "ĠÙĪØªÙĥ": 4993, "ĠØ§ÙĦÙħØ¹Øª": 3577, "ĠÙĦØ¹ÙĦÙī": 6439, "ĠÙĪØ¢ÙĬØ§Øª": 7147, "ĠØ¨Ø£Ø®": 8289, "ĠØµÙĦØ§": 2724, "ĠØ§ÙĦÙĪÙĩØ§": 5588, "ĠÙģØ¬Ø¹ÙĦÙĨØ§ÙĩØ§": 9506, "ĠÙĦÙĩÙĨ": 2099, "ÙĬÙĥÙħ": 881, "Ø·Ø§Ø¡": 3169, "ĠØ§ÙĦØ³ÙĪØ¡": 1973, "ĠØ¨Ø¯Øª": 9202, "ĠØ±Ø¡ÙĪØ³ÙĥÙħ": 9588, "ĠØ§ÙĦÙĥÙĪØ§Ùĥ": 8031, "ĠÙĪÙĨØ¹Ùħ": 5030, "ĠÙĪÙĤÙģÙĬÙĨØ§": 6030, "ĠØ¨ØŃÙħØ¯Ùĩ": 5540, "ĠÙģÙĬÙĥÙħ": 2324, "ĠÙĪÙĬÙģ": 5983, "ĠØ®ÙĦØ§ÙĦÙĩ": 9665, "Ī": 40, "ĠÙĪØ¸ÙĨ": 5321, "Ø´Ø±ÙĥÙĬÙĨ": 1018, "ĠØ¨ØªØ£": 4548, "ĠÙĥØªØ¨Øª": 7524, "ĠÙĪØ§Ø¯Ø¹ÙĪÙĩ": 10025, "ØµØ±ÙĬÙĨ": 4269, "ĠÙģÙĨØ§Ø¯Ùī": 9696, "ĠØ§ÙĦØ£ÙĦØ¨Ø§Ø¨": 1843, "ĠØ¹Ø¯Ø§": 4727, "ĠÙĪØ£Ø¯": 3570, "ĠÙĦÙĦØº": 6133, "ÙĦØ¹ÙĬ": 9005, "ĠÙħØ¨Ø¯ÙĦ": 5634, "ĠÙģØ£ÙħØ³ÙĥÙĪÙĩÙĨ": 7061, "ĠÙĪØ¬Ø¹ÙĦÙĨØ§ÙĩØ§": 6516, "ĠØªØ²Ø±Ø¹ÙĪÙĨ": 9737, "ĠÙĪØ®ÙĬØ±": 6597, "ĠÙħØ«ÙĦÙĩÙħ": 4275, "ĠÙĬØ¹ÙĦÙħ": 336, "ÙĨÙī": 1083, "ĠØ£Ø¯Ø¹ÙĬ": 8846, "ĠØ§ÙĦÙĪØ¯": 5586, "ĠØŃØ³ÙĨØ©": 1708, "ĠÙĬØ³ØªØ·ÙĬØ¹ÙĪÙĨ": 1898, "ĠØªØ¹Ø¯ÙĪØ§": 5763, "ĠØªØ°": 7467, "Ø¯Ø§ÙħØ©": 8200, "ĠØ§ÙĦÙĨÙĩÙī": 8238, "ĠØ§ÙĦØµÙĬØ¯": 6098, "ĠÙģØ¶Ø±Ø¨": 6496, "ĠÙħØ±ÙĤÙĪÙħ": 8507, "ĠÙĪØ¶Ø§ÙĤ": 9445, "ĠØ¹ÙħØ±": 3516, "ĠØªÙĩØ¯ÙĬ": 5759, "ĠØ§Ø·": 4576, "ĠØ§ÙĦØ¥Ø³ÙĦØ§Ùħ": 5149, "ÙĪÙĩÙħ": 546, "Ø±ÙĪÙĨÙĬ": 4139, "ĠÙĪÙĩØ¨": 6554, "Ø±Ø¢ÙĨ": 722, "ĠØ§Ø¨ØªØº": 2023, "ĠÙĪØ£ØµÙĦØŃÙĪØ§": 3847, "Ø§Ø¦ÙĬ": 2945, "ĠØªØµÙĬØ¨ÙĩÙħ": 6945, "ĠØ¨Ø£ÙĨÙĩÙħ": 1259, "ĠÙģØ£ÙĤÙĬÙħÙĪØ§": 6014, "ĠÙĤÙĦØ¨": 7924, "ÙĪÙĨÙĥ": 2461, "Ø²ÙĦÙĪØ§": 5821, "ĠÙĪØŃÙĬØ«": 8821, "ĠÙĦÙĦØ¹": 1410, "ĠÙĪÙĨØŃ": 6196, "ĠÙĨØ³Ø¨ØŃ": 7626, "ĠØ§ÙĦÙĤØµØµ": 5494, "ĠØ¨ÙĬØ¶Ø§Ø¡": 3753, "ĠÙģØ¹ÙĦØªÙħ": 9088, "ĠØ´ÙĩØ±ÙĬÙĨ": 9781, "ĠÙĪØ§ØªÙĤÙĪØ§": 913, "ĠØ³ÙĦÙģ": 3565, "ÙĥÙģØ±ÙĪÙĨ": 4429, "ĠØ£Ø°ÙĩØ¨": 7243, "ĠØ§ÙĦÙģÙĪØ²": 1829, "ĠÙģØ§Øº": 3108, "ĠÙĪÙĥØ«ÙĬØ±": 3633, "ĠÙĬØªØ±Ø¨Øµ": 6122, "Ø°Ø±ÙĥÙħ": 2971, "ĠØ§Ø³ØªÙĩØ²Ø¦": 5129, "Ø±ÙĬØŃ": 6066, "Ø·Ø§ÙĨ": 517, "ĠÙģØ£ÙĤØ¨ÙĦ": 6015, "ĠØ¨ÙĦÙĤØ§Ø¡": 3417, "ĠØ³Ùħ": 3560, "ĠØ¨Ø§ÙĦØ¹Ø´ÙĬ": 5347, "ĠØ§ÙĦØ£Ø¨ØµØ§Ø±": 2703, "ÙĪØ¹Ø¸Ø©": 3805, "ĠØ§ÙĦØŃØ§ÙĥÙħÙĬÙĨ": 4572, "ĠÙĤØ¶ÙĬØªÙħ": 9644, "ĠØ£ØŃÙĬ": 3259, "Ø¤ÙħÙĨÙĪØ§": 1646, "ÙĦØŃÙĪÙĨ": 1170, "ĠØ§ÙĦÙĪØ§ÙĦ": 5587, "ĠÙĦÙĦÙĨØ§": 775, "ĠØ¨Ø¸ÙĦØ§Ùħ": 4564, "ĠÙĪØ§ØªÙĤÙī": 8627, "ĠØ¥ÙĬØ§ÙĥÙħ": 9455, "ĠÙĤØ±ÙĨØ§": 9221, "ĠÙĪØ§ÙĦØ¹Ø´ÙĬ": 9647, "ĠØªÙĨØ²ÙĬÙĦØ§": 5142, "ĠØ¹ÙĤØ§Ø¨": 4732, "ĠÙĪØ§ÙĦÙĦÙĬÙĦ": 3153, "ĠÙĪØ¹ÙĦÙĬÙĩ": 8363, "ĠÙĬØ¬ØªØ¨ÙĬ": 6375, "ĠØ³ÙĪØ¡": 975, "ĠÙħÙĩØªØ¯ÙĬÙĨ": 5635, "ĠÙĪØ§ÙĦØ¹Ø§ÙĤØ¨Ø©": 6960, "ĠØ´ÙĬØ®Ø§": 8060, "ĠØ±ÙĪØŃÙĬ": 9568, "ĠÙĬØ¬Ø±": 4679, "ĠØ¨ÙĬÙħÙĬÙĨÙĩ": 5506, "ĠÙģÙĬØ£Ø®Ø°": 5792, "ĠÙĦÙĬØªÙĨÙĬ": 2940, "ĠÙĦØ¹ÙĨØª": 6440, "ÙĪÙħÙĬÙĨ": 4832, "ĠÙĪØ±ØŃÙħ": 8472, "ĠÙĥØ³": 2669, "ĠØ¨Ø¯Ø§": 7361, "ĠØ£Ø¹Ø¸Ùħ": 8604, "ĠÙĬÙħØ³": 1504, "ĠÙħÙĨØ«ÙĪØ±Ø§": 10214, "Ø¯Ø¯": 3466, "ĠÙĬØªÙħ": 4674, "ÙĦØ§ØªÙĬ": 7464, "ÙĨØ¹ÙĪÙĨ": 3421, "ĠØ£ÙĦØ§": 505, "ĠÙĬØŃÙĦÙĪÙĨ": 4220, "ÙĤØªÙĩØ§": 8464, "ĠÙĪØ§ÙĦÙĤØ±Ø¢ÙĨ": 4401, "Ø´ÙĤÙī": 7582, "ĠØ¨Ø±Ø¨ÙĩÙħ": 2800, "ĠÙĪØ§ÙĦÙĥØªØ§Ø¨": 3058, "ĠÙĥØ±Ùĩ": 2584, "ØµÙĬØ©": 4772, "ĠØ£ÙĥØ«Ø±": 634, "ĠØ¨Ø¹Ø«": 1890, "ĠØ·Ø±Ùģ": 6208, "ĠØŃÙģØ¸": 7760, "ĠØ¥ØŃØ³Ø§ÙĨØ§": 3843, "ĠÙĤÙĬØ§ÙħØ§": 4765, "ĠØ¥ÙħØ§": 1944, "ĠÙĪØ§ÙĦØ±ÙħØ§ÙĨ": 9836, "ĠØ¨ÙĬÙĨÙĩÙħ": 737, "ĠØ´Ø¦": 1879, "ÙĪØ§ÙĦØ¯": 3315, "ĠÙĬØ¹ÙħÙĩÙĪÙĨ": 3370, "Ø³ÙħÙĬØ¹": 6094, "ĠÙĪÙĬØ®Ø´": 9577, "ĠØ³ÙħØ¹ÙĪØ§": 3794, "ĠÙĬÙĨØ²Øº": 6975, "Ø§ÙĨÙĬ": 1317, "ĠØ§ÙĦØŃØ±ÙĬÙĤ": 4156, "ĠÙĬØ´Ø±Ùĥ": 2453, "ĠÙĬØ³": 441, "ĠØŃØ³Ø§Ø¨": 1736, "ĠÙĪØ§Ø¹ÙĦÙħÙĪØ§": 1648, "ĠØµÙĨ": 3213, "ĠØªØ¹Ø¨Ø¯ÙĪÙĨ": 1533, "ĠØ§ÙĦØ¶Ø¹Ùģ": 4604, "ĠØ§ÙĦÙħÙĪØ¬": 7738, "ĠØ£Ø¥ÙĨÙĥ": 9102, "ĠØ¸Ø§ÙĦ": 2956, "ĠØ±Ø¶ÙĪØ§ÙĨ": 6848, "ĠØ£Ø³ØªØºÙģØ±": 9808, "Ø§ÙĦØŃ": 377, "ĠØªÙĨØªÙĩ": 6351, "ĠÙħØ·": 3089, "ĠØ·ÙĩÙĪØ±Ø§": 8278, "ÙĦÙĬÙĥÙħ": 3538, "ĠØ¨ÙĦØ§Ø¡": 3992, "ĠÙģØ¶ÙĦØªÙĥÙħ": 9008, "ĠÙĬØªÙĬÙħØ§": 10060, "ĠØ§Ø¨ÙĨÙĪØ§": 9042, "ĠÙĦØ¬ÙĩÙĨÙħ": 6729, "ĠØ£ÙĨØ²ÙĦ": 477, "ĠÙĦÙĬØ£Ø®Ø°": 8005, "ĠØ¬Ø²": 877, "ĠØ¨ØµÙĬØ±Ø§": 1918, "ĠÙĦØ¨ÙĨÙĬ": 3786, "Ø¬ÙĪØ±Ø§": 5774, "ĠÙģØ¥Ø°Ø§": 550, "ÙĬØ§Øª": 215, "ĠÙĦÙĬØ¸ÙĦÙħ": 6055, "ĠÙĦÙĤÙĬØªÙħ": 6324, "ĠØªÙĤØ·Ø¹": 6399, "ÙĩØ¯Ùī": 729, "ĠÙĨØ¹Ùħ": 786, "ĠÙĨØ´Ø±": 7615, "ĠÙĩÙĬÙĩØ§Øª": 8885, "ĠØ£Ø¬ÙħØ¹ÙĪÙĨ": 6258, "ĠÙĪÙĦÙĦÙĨØ³Ø§Ø¡": 9542, "ĠØ£ÙĨÙĩÙħ": 927, "ĠÙĦØªØ¹ÙĪØ¯ÙĨ": 10307, "Ø¨Ø«": 3086, "ĠØ§ÙĦØ£Ø±Ø§Ø¦": 4118, "Ø¯ÙĬØ¯": 647, "ĠÙĩØ§": 1287, "ĠÙĪØ±Ø¶ÙĪØ§": 2053, "ĠØ¨Ø£ÙģÙĪØ§Ùĩ": 3068, "ĠØªÙĨØ§": 4020, "ĠÙĩØ¯Ø§ÙĥÙħ": 5364, "Ø¨Ø´Ø±Ø§": 5625, "ĠÙĥÙĩ": 7510, "ĠÙħØ·Ø±": 4626, "ĠÙĪÙĬØ¯Ø±Ø¡ÙĪÙĨ": 10097, "ĠØ§ÙĦØªÙĤÙĪÙī": 3894, "ĠØ§ÙĦØ£Ø²ÙĪØ§Ø¬": 7812, "ĠØ®Ø¨ÙĬØ«": 7791, "ĠØ£Ùĩ": 362, "ØºÙģØ±ÙĪÙĨ": 4299, "ĠÙħØ¬Ø±": 7203, "ĠÙĪØ§ÙĦØ¥": 1248, "ĠØ®Ø´ÙĬØ©": 3877, "ĠØ§ÙĦÙħØ³ÙĦÙħÙĬÙĨ": 2404, "ĠØ¨ÙĤØ¯Ø±": 3497, "ĠØ£ÙħÙĦÙĥ": 4154, "Ø§Ø®": 1005, "ĠÙĨÙĥ": 1089, "ĠØ´Ø¬Ø±Ø©": 3592, "ĠØ³Ø¬Ø¯Ø§": 2428, "ÙĤØ±": 776, "ĠÙĥØ«ÙĬØ±Ø©": 2420, "ĠÙĪÙĥØ§ÙĨ": 421, "ĠÙħØ§Ø¦": 2180, "ĠØŃÙħ": 778, "ĠÙĨØ·ÙģØ©": 2427, "ĠØ³ÙĬØ±ÙĪØ§": 4071, "ĠØ¢Ø¨Ø§Ø¡ÙĨØ§": 2582, "ÙĦÙĤÙī": 4931, "ĠÙĤØ¯Ø±ÙĪØ§": 6145, "ĠÙĪØªØµ": 4216, "ĠÙĪØŃØ´Ø±": 6472, "ĠÙĬØŃØ³Ø¨ÙĨ": 6936, "Ø§Ø²ÙĤÙĬÙĨ": 3814, "Ø³ÙħØ§ÙĨ": 7264, "ĠØµØ¯Ø±ÙĬ": 8717, "ÙĤØ¨ÙĦÙĪØ§": 9201, "Ø§Ø¬Ø¯": 1749, "ÙĪØ¶Ø§": 7113, "ĠØ¹Øµ": 1281, "Ø¯Ùī": 628, "ĠÙĪÙĬØ§": 2287, "ĠØ¨Ø§ÙĦÙĨØ°Ø±": 4893, "ĠØ¹Ø¨Ø§Ø¯ÙĬ": 2243, "ĠÙĪÙĩ": 965, "ĠØŃØ³Ø§Ø¨Ùĩ": 9341, "ĠØ¢ÙĨ": 4074, "ĠØ§ÙĦÙħØ±Ø³ÙĦÙĪÙĨ": 3361, "ĠØ¨Ø£ÙħØ±": 1726, "ĠÙħØ³ØªÙĤ": 2399, "ĠØ³Ø¨ØŃØ§ÙĨ": 1021, "ÙĤØµ": 1440, "Ø¹Ø¯ÙĪÙĨ": 1144, "Ø³ÙĩÙħ": 3104, "ĠÙĪØ§ÙĦÙĬØªØ§ÙħÙī": 3418, "ĠØ¹ÙĨÙĬØ¯": 5971, "ĠØ£ØºÙĬØ±": 5293, "ÙĦÙħÙĬÙĨ": 2078, "ĠÙĦÙĦÙĩ": 437, "ĠÙĬØ¦": 5690, "ĠØªØ¨ØªÙħ": 8949, "ĠØ£ÙĪÙģÙĪØ§": 4896, "ĠÙĪÙħØ³ØªÙĪØ¯": 8438, "ĠØµØŃÙģ": 6040, "ØµÙĪØ±Ø§": 7553, "Ø·ÙĦÙĤØ§Øª": 9490, "ĠÙĪÙĦÙĪÙĦØ§": 1323, "ĠØ±Ø³ÙĪÙĦ": 721, "ĠØ£ØµØ¯ÙĤ": 8495, "Ø´ÙĪÙĨ": 1449, "ĠØ°Ø±ÙĬ": 1880, "ĠÙħØ¹ÙĩÙħ": 1991, "ĠÙħØµÙĦØŃÙĪÙĨ": 9044, "ĠØ®Ø±Ø¬Øª": 9538, "ĠØ¥ÙĦÙĬ": 252, "ĠÙħÙĪØ¹Ø¯Ø§": 5009, "Ùģ": 76, "ĠÙĨØ±Ø²ÙĤ": 6850, "ÙĬØ·": 5567, "ĠØ¬ÙĨØ¨": 9124, "ĠÙĦØºÙĨÙĬ": 9130, "Ø§Ø¯Ø¹ÙĪÙĨ": 7914, "Ø§ÙģÙĦÙĬÙĨ": 4249, "Ø¬Ø²ÙĬ": 1564, "ÙĪÙĥ": 482, "ØŃÙĬØ§Ø¡": 8760, "ĠØ¹Ø¨Ø§Ø¯": 587, "Ø³ØŃØ§ÙĤ": 1746, "Ø°ÙĥØ±ÙĪÙĨ": 923, "ĠÙĦÙĨØ¨ÙĬ": 6241, "ĠÙĥÙĪÙĥØ¨Ø§": 10071, "ÙĩØ§": 101, "ĠÙĪÙĬÙĦØ¹Ø¨ÙĪØ§": 9863, "ĠÙĪØ¥ÙĨÙĬ": 1986, "ÙĩÙĦÙĥ": 1001, "ĠØ§Ø¬ØªØ¨Ø§Ùĩ": 9799, "ĠÙĪØªÙĤØ·Ø¹ÙĪØ§": 8161, "ĠØ¨Øµ": 1276, "ĠØ£Ø¨Ø¹Ø«": 7242, "ĠØ¨ÙĪÙĦ": 7355, "ĠØ£Ø±ØŃØ§Ùħ": 4347, "ÙģØ§ØªØ§": 7403, "Ø±ÙĬØªÙĩ": 6068, "ĠÙĬÙģØ±ØŃÙĪÙĨ": 9477, "ĠØ¬Ø§ÙĩØ¯ÙĪØ§": 4099, "ĠØ¨ÙĬÙĪÙħ": 3993, "ĠØ§ÙĦØµØ¯ÙĪØ±": 1840, "ĠØ¨Ø§ÙĦØµ": 2710, "ØŃØ´Ø§Ø¡": 3366, "ĠÙĪØ§ÙĦÙĦØ§ØªÙĬ": 7610, "ĠØ¨Ø§ÙĦØ£ÙĨ": 5961, "ĠÙĪØ¨Ø§Ø·": 8483, "ĠØ£Ø´ØŃØ©": 8793, "ĠÙĬØŃÙĥÙħ": 1370, "ÙĨØ§ÙĥÙħ": 1627, "ĠÙĪØ£Ø¹Ø±Ø¶": 4841, "ĠÙĪØ³Ø¹Ùī": 8664, "ĠØ§ÙĦØºÙģØ§Ø±": 6321, "ĠÙģØ§Ø³ØªØº": 8933, "ĠÙĦÙĦØ¥Ø³ÙĦØ§Ùħ": 9553, "ĠØ¨Ø§ÙĦØ¹": 1578, "ØµØ±ÙĪÙĨ": 814, "ĠÙĬÙĪÙĦØ¬": 4685, "ĠØ§ÙĦØ±ØŃÙħØ©": 3639, "ĠÙģØ®": 2302, "ĠØ£Ø¸": 4637, "Ø¹Ø°Ø¨": 7225, "ĠÙĪÙĪÙĬÙĦ": 6643, "ØªØ§ØªØ§": 7185, "Ø®ÙĪØ§": 1358, "Ø²Ø¹": 1633, "ĠÙĤØ¯Ø±Ø§": 8168, "Ø²ÙĬØ¯": 1956, "ĠØ§ÙĦÙħÙĤØ±Ø¨ÙĬÙĨ": 5467, "ĠÙģØªÙħÙĨÙĪØ§": 8321, "ĠØ£ÙĨØ¹Ø§Ùħ": 5832, "¸": 26, "ĠÙĥÙĬØ¯Ø§": 3536, "Ø³Ø±Ùī": 5020, "ĠÙĥØ°Ø¨ÙĪÙĥ": 6334, "ĠØ§ÙĤØ±Ø£": 7018, "ĠØ³Ø¹ÙĬÙĩÙħ": 9294, "ĠØ§Ø´ØªÙħÙĦØª": 9306, "ĠÙĪÙħÙĬ": 7146, "ĠÙģØ¥ÙĨÙĩÙħ": 2534, "ĠØ¹ÙĦÙĬØ§": 5921, "ĠØ³Ø±ÙĩÙħ": 9366, "ÙĩØ¯ÙĩÙħ": 7993, "ĠÙĤØ§Ø±ÙĪÙĨ": 9828, "Ø§Ø¦ÙĤ": 4195, "ĠØ§ÙĦØŃØ±Ø§Ùħ": 1366, "ĠØ£Ø±Ø£ÙĬØª": 2782, "ĠØ§Ø®": 1300, "ĠÙĪØŃØ¯Ùĩ": 3759, "ĠÙĪØ£Øº": 7716, "ĠØ¹Ø§ÙĦÙĬÙĩØ§": 9251, "ĠØ¨ÙĬÙĨÙĨØ§": 1720, "ĠÙĬØªÙĪÙģÙī": 5423, "ĠØ§ÙĦØ¹Ø§Ø¯ÙĪÙĨ": 7968, "ĠÙĬÙĥØªÙħ": 8350, "ĠÙĥØ§ÙĦØ¹": 6534, "ĠØ¥ÙĨÙĥÙħ": 1113, "ĠØªØ±ØŃÙħÙĪÙĨ": 2955, "Ø§ÙģÙĦÙĪÙĨ": 6221, "ĠÙĤØ±Ø©": 7531, "ĠØªÙĤØ¯Ø±ÙĪØ§": 9482, "ĠØ£ÙĦÙĨ": 6745, "ÙĤØ¶": 7336, "ĠØ·ÙĬØ¨Ø§": 3676, "ĠØ£ÙħØ¯ÙĥÙħ": 7928, "ĠØ¢ØªÙĬØ©": 9145, "ĠØªØ¨Ø±Ø£": 9642, "ĠØ£ÙħÙħ": 2718, "ĠØ¢ÙħÙĨØªÙħ": 2943, "ĠØŃØ§Ø¶Ø±Ø©": 9966, "ĠØ¢ÙĬØ§ØªÙĥ": 6270, "ĠØ£ÙĪØ¹Ø¬Ø¨ØªÙħ": 10265, "ĠØªØ¬ÙĩÙĦÙĪÙĨ": 5132, "ĠÙĪØ§ÙĦØ±Ùĥ": 5838, "ĠØ¬ÙĨØ¯": 4427, "Ø®ÙĪØ§ÙĨ": 9184, "ĠØ±Ø¶ÙĪØ§ÙĨÙĩ": 9603, "ĠÙĬØºÙĨÙĬ": 2135, "ĠÙģØ³ÙĬÙĤÙĪÙĦÙĪÙĨ": 5477, "ĠØ¢ØªÙĬ": 1288, "ĠØ§ÙĦÙĪÙĤØª": 9243, "ĠØ¨Ø±ÙĬØŃ": 9453, "ĠØ¶Ø±Ø§": 2748, "ĠØ£Ø¶ÙĦ": 1938, "ÙĬØ¯": 170, "ĠÙĬØµÙĬØ¨": 3328, "ÙĩØ²Ø¦": 4424, "ĠØ¶ÙĬÙģ": 6230, "ĠÙħØ³Ø§Ùĥ": 3714, "ĠÙģØ£ÙĪØ¬Ø³": 7957, "ģ": 33, "ĠØ¹ÙĨØªÙħ": 7862, "ĠÙģØ§ÙĥØªØ¨ÙĨØ§": 10130, "ĠØ·ØºÙĬØ§ÙĨØ§": 5040, "ĠÙĪØ§Ø³ØªÙĥØ¨Ø±": 4393, "ĠÙĬØ¹ØªØ¯ÙĪÙĨ": 6976, "ĠØ§Øª": 407, "ĠÙĪÙĦÙĬØ³": 3299, "ĠØ§ÙĦØ·ÙĦØ§ÙĤ": 8789, "ĠÙĬÙĨØªÙĩ": 8133, "ĠÙĪØ£ÙĩÙĦÙĩØ§": 5335, "ĠÙģÙĨØ³": 3964, "ĠÙĬØ¸ÙĩØ±": 6730, "ĠÙģØ§Ø³ØªØ¹Ø°": 5531, "ÙĪÙģÙĪÙĨ": 5012, "ĠÙĪÙĦÙĪØ§ÙĦØ¯ÙĬ": 6289, "Ø¨ØªÙĪØ§": 3928, "ĠØ·ÙĪÙĦØ§": 8269, "ĠÙĬØªÙģØ·Ø±ÙĨ": 9378, "ĠØ³Ø¨Ø¹ÙĬÙĨ": 9227, "Ø±Ø§ÙĩÙħ": 3599, "Ø£Ùī": 5736, "ĠØ£ØŃØ¨Ø¨Øª": 9786, "ĠØ£Ø¬ÙĦÙĩÙħ": 3691, "ĠÙĬÙĪÙĤ": 2016, "ĠØªØ£ÙĥÙĦÙĪÙĨ": 2418, "ĠØ´Ùĩ": 1010, "ĠØ§ÙĦÙħØ¯Ø§Ø¦ÙĨ": 6964, "ÙĪØ§ØŃØ´": 7350, "ĠØ¬ÙĨ": 1253, "ĠÙĪÙĦÙĬØ§": 2122, "ĠØºÙģÙĪØ±": 800, "ÙĬÙĪÙĨ": 2168, "ĠØ¹Ø§Øµ": 3518, "ĠØ¨ÙĥØªØ§Ø¨": 4342, "ĠÙģØ§Ø³Ø£ÙĦ": 3793, "ĠÙĤØ·Ø¹": 4760, "ĠÙĨÙģØ®": 5254, "ĠØ¢ÙĦÙĦÙĩ": 9089, "ĠÙĪØªØ®Ø±Ø¬": 6141, "ĠØ§ÙĦØ¬ÙĦØ§ÙĦ": 8284, "ĠØªØ¨ÙĪ": 8948, "ĠØ§ÙĦØ·Ø±Ùģ": 6458, "ĠÙĪØ¬ÙĩÙĥ": 3355, "ĠÙĬØ£ØªÙĬÙĩÙħ": 1907, "ĠÙĬÙĨØµØ±ÙĪÙĨÙĩ": 9323, "ÙĩØ±": 491, "ĠÙģØ³Ø¬Ø¯ÙĪØ§": 4322, "ĠÙĪØ§Ø±ØŃÙħÙĨØ§": 6714, "Ø§Ø´Ø§": 9009, "ĠÙĬØŃÙĬÙī": 4398, "ĠØ¯": 181, "ĠØºØ¯": 4960, "ĠØ¬ÙĨØªÙĥ": 9844, "ÙĪØ±ÙĩÙĨ": 3635, "ĠØ§ÙĦØ¬ÙĨ": 1476, "ĠÙħØºÙģØ±Ø©": 1684, "ĠÙħØ¹ÙĨØ§": 3647, "Ø¹Ùī": 1851, "ÙĨØ¯": 7081, "ĠØ§ÙĦØºØ§Ø¨Ø±ÙĬÙĨ": 3296, "Ø°ÙĩØ¨Ø§": 5164, "ĠÙģØ£Ø±Ø§Ø¯": 7952, "ĠÙĪÙĤØ¹": 4162, "ĠÙĥØ³Ø¨ÙĪØ§": 1912, "ĠÙģØ£ÙĨÙī": 2408, "ĠØªÙĩØª": 4743, "ĠÙĨÙģØ³ÙĬ": 2769, "Ø±Ø¨Ùī": 1811, "ĠÙģØ£Ø®Ø°ØªÙĩÙħ": 2597, "Ø¦ÙĪØ§": 5867, "ĠØ§ÙĦØ£Øµ": 5936, "ĠØ£ØŃØ§Ø¯ÙĬØ«": 8218, "ĠÙĪØªÙĨØ³ÙĪÙĨ": 10289, "ĠØ¥ÙĦÙĬÙĩ": 596, "ĠØ£ÙģÙĦØŃ": 5049, "ĠÙĬØªÙĪÙģØ§ÙĥÙħ": 5424, "ĠØ§ÙĦØµØ§ÙĦØŃ": 561, "ĠÙģØµØ¯": 3473, "ĠÙħÙĩÙĬÙĨ": 2182, "ĠØ´Ø¬Ø±": 3590, "ĠØªØªÙĪÙģØ§ÙĩÙħ": 8534, "ĠÙĪØªØ±Ùī": 2232, "ĠÙĪØ¬Ø§Ø¡ÙĪØ§": 6627, "ĠÙĪØ£ÙĤÙħ": 6672, "ĠØ³ÙħØ¹Ùĩ": 8998, "ĠÙĦÙĬØ¤ÙħÙĨÙĪØ§": 4944, "ĠÙĪÙĬÙĦØ¹": 4141, "ĠÙħÙĨØªØ¸Ø±ÙĪÙĨ": 6919, "Ø¬Ø§Ø¬": 7506, "ĠÙĤÙĪØ©": 1599, "ĠÙĪÙĦÙĬÙħØŃØµ": 9803, "ĠØ¹ØµØ¨Ø©": 6620, "ĠÙĪØ§ÙĦØ¬Ø§Ø±": 9459, "Ø¬ÙĬØ±Ø§": 7504, "ĠÙħÙĨÙĬØ±Ø§": 7429, "ĠÙĬÙĨØª": 4987, "ĠÙĪÙĦØ£ÙĨØ¹Ø§ÙħÙĥÙħ": 10263, "ĠÙĪØªÙģ": 8149, "ĠØ§ÙĦØ±Ø¨Ø§": 3206, "Ø³Ø±": 311, "ĠÙĤØµØµÙĨØ§": 9911, "ÙĬÙĨÙĩÙħ": 3989, "Ø¶Ø¹ÙģÙĬÙĨ": 5324, "ĠØ§ÙĦÙĪØ±": 7129, "ÙĪÙĨØ§": 3502, "ÙĤÙĪØª": 7340, "ĠØ¹Ø¯ÙĪÙĩ": 8815, "ĠØ£Ø¹ÙĨØ§": 2993, "ÙĪÙĦÙĬ": 1926, "ĠÙĪØ£ÙĥÙĨ": 7722, "ĠÙĪÙĬØ¤Øª": 9543, "ĠØ¨ÙĤØ§Ø¯Ø±": 6618, "Ø´ÙģÙĨØ§": 3369, "ĠÙĦÙĬÙĦØ§": 4174, "ĠØ§ÙĦØ´ÙĩØ±": 5067, "ĠÙĬÙĨØ¨Ø¦ÙĥÙħ": 8136, "ĠØ¹ØªÙĪØ§": 7440, "Ø®ÙĦÙĪØ§": 926, "ØªÙħÙĨ": 7179, "ĠØªÙĤÙħ": 8676, "ĠÙĦØ¨Ø³": 8971, "ĠØªØ´Ø§Ø¡ÙĪÙĨ": 9559, "ĠØ¹ÙĤØ¨Ø§": 9700, "ĠØ£Ø¬Ø±": 791, "ĠÙĬÙĦØ¹Ø¨ÙĪÙĨ": 4547, "ÙģÙģ": 2657, "ĠÙħØ³ØªÙĤÙĬÙħ": 1264, "ĠÙĥØ°Ø¨ÙĪØ§": 895, "ĠÙĪØ§ÙĨØª": 6713, "ĠÙĪÙĬØ²ÙĥÙĬÙĩÙħ": 6932, "ØŃÙĤ": 486, "Ø§Ø³": 1102, "ÙĩØ¨Ø·": 3079, "ĠÙħÙĨÙĥ": 3511, "ĠÙħÙĩ": 2628, "ØŃÙħ": 294, "Ø§Ø¯ÙĪØ§": 1365, "ĠÙĦØ³Ø§": 4669, "ĠØ·Ø§Øº": 5037, "ĠØ§ÙĦØ£ØŃØ²Ø§Ø¨": 2502, "Ø¬ÙĨÙĪÙĨ": 4031, "ĠÙĦØ¹ÙĦ": 485, "ĠÙĪØ§ÙĦÙħÙĬØ³Ø±": 6849, "ĠØ³ÙĪÙģ": 3164, "ĠØ¹Ø§ØµÙħ": 6923, "ĠÙħØªØ¨Ø¹ÙĪÙĨ": 7218, "Ø§Ø¦ÙĦÙĬÙĨ": 4973, "ĠÙĨØ§Ø±": 1451, "ÙĬÙĥ": 2283, "ÙĦÙĬÙĥ": 4044, "ĠÙĨØ¹Ø¯ÙĩÙħ": 4068, "ØŃØ¨Ø§Ø±": 7410, "ĠÙĪÙĬØ¹": 1517, "ĠØ§Ø³ØªÙĬØ³Ø±": 8564, "ĠÙģØ§Ø³ØªÙħØ¹ÙĪØ§": 8990, "ĠØ¨Ø§ÙĦØ¹Ø±ÙĪØ©": 9975, "ĠÙĬØ§Ø¨": 5689, "ÙģÙĤ": 1625, "ĠÙģÙĦÙĨ": 1056, "Ø§ÙĦÙħÙĬÙĨ": 335, "Ø§Ø¦ÙĥÙħ": 1812, "ĠÙĬØªØ±Ø¨ØµÙĨ": 10119, "ĠØ¬ÙĨØªØ§ÙĨ": 6967, "ĠØ§ÙĦÙģÙĤØ±Ø§Ø¡": 6380, "ĠØ¹Ø´Ø±": 2315, "ĠØ±Ø¦Ø§Ø¡": 7565, "ĠÙĪÙĤØ¶": 6027, "ĠØ±Ø¨ÙĩÙħ": 463, "ĠØªØŃØªÙĩÙħ": 4268, "ĠÙĨÙĥÙģØ±": 9033, "Ø§ÙĥØ±ÙĬÙĨ": 2615, "ĠÙĪÙĨØ§": 2286, "Ø¨Ø¦ÙĩÙħ": 2406, "ĠØ§ÙĦØ®Ø³Ø±Ø§ÙĨ": 8427, "ĠØ£ÙħÙĪØ§ØªØ§": 9977, "ĠØ±Ø¨ÙĩØ§": 3172, "ĠØ¹ÙĤØ¨Ùī": 5517, "Ø§Ø¤ÙĨØ§": 1906, "ĠØ£Ø£ÙĨØª": 9282, "ĠØ¢Ø¯Ùħ": 1513, "ĠØ£ÙĩÙĦ": 762, "ĠÙĦØªÙĨØ°Ø±": 4306, "ĠØªØ³Ø±": 4742, "ĠÙħÙĨØ§Ùħ": 5741, "ĠÙħØ³Ø±ÙĪØ±Ø§": 9744, "Ø§ÙħÙĦÙĬÙĨ": 4328, "ĠÙĬØ®Ø±Ø¬ÙĪØ§": 3787, "ĠÙĪÙĦØŃÙħ": 4125, "Ø±ÙģÙĪÙĨ": 2248, "ĠÙĪØª": 277, "ĠØ§ÙĦÙĪØ§ØŃØ¯": 3841, "Ø§Ø¯ÙĪÙĨ": 4146, "ĠÙĬÙĪØ§Ø±ÙĬ": 7327, "ĠÙģØ£ÙĤ": 7943, "ØµØªÙĪØ§": 7554, "Ø§Ø°Ø¨ÙĬÙĨ": 2042, "ĠØ§ÙĦÙħØŃØµÙĨØ§Øª": 4848, "ĠØ¨Ø¹Ø¬ÙĦ": 8114, "ĠÙĬØµÙĦÙĪÙĨÙĩØ§": 5479, "Ø¹Ø±": 1105, "ĠÙĪØ£Ø¯Ø®ÙĦ": 4840, "Ø¨ÙĬØ±": 718, "Ø§Ø±Ùĩ": 5998, "ĠÙħØ¬ÙĬØ¯": 9408, "ØºÙĪÙĨ": 1638, "ÙĩØ¬Ø±": 4594, "Ø§Ø±ÙĤ": 4911, "ĠØ§ÙĦØ£Ø¨ÙĪØ§Ø¨": 7818, "ĠÙĨØ¹Ø¯": 7613, "ĠØªØ£Ø³": 8591, "ÙģØ¸ÙĪØ§": 6846, "ĠÙħØªØ§Ø¹Ø§": 3365, "Ø¢Ø®Ø±Ø©": 448, "ĠØ¨Ø§ÙĦØ¨Ø£Ø³Ø§Ø¡": 9320, "Ø£ÙĪØ§": 1394, "Ø³Ø³ÙĪØ§": 7265, "ĠØ³Ø§ÙģÙĦÙĩØ§": 10242, "ØµØ©": 2678, "ĠØ®Ø¨Ø§ÙĦØ§": 10256, "ĠÙħØ¹Ø¬Ø²ÙĬ": 8102, "ĠØ®Ø·Ø§": 4105, "ĠÙĪÙĦÙĨØ°ÙĬÙĤÙĨÙĩÙħ": 10313, "ĠÙĦÙĬ": 197, "ĠÙĦÙħØŃÙĬ": 8095, "ĠÙĦØ£ÙĩÙĦÙĩ": 6307, "ĠÙĪØ±Ø§Ø¦Ùĩ": 8476, "ĠÙĬØ²Ø¬ÙĬ": 9053, "ĠÙħÙĦÙĥ": 698, "ĠÙģØ£ØµØ¨ØŃØªÙħ": 9343, "ĠÙħØ¶ØºØ©": 9804, "ĠØ§ÙĦÙĪØ§ÙĦØ¯Ø§ÙĨ": 7038, "ĠØ¨Ø´Ø±": 1187, "Ø´Ø±ÙĪØ§": 4964, "Ø±Ø§Ùħ": 1198, "ĠÙĪØ¢Ø¨": 2392, "ÙĦØ¤": 2616, "ĠØ£Ø³ÙĪØ©": 6404, "ĠØºÙĨ": 4959, "ĠÙĬØ¯Ø¹ÙĪÙĨ": 1169, "ĠÙĬÙħ": 794, "ĠÙĬÙĪØ²Ø¹ÙĪÙĨ": 6396, "ĠÙĪØ³Ø¨ØŃØ§ÙĨ": 9509, "ĠÙħÙĪØ³Ùī": 411, "ĠØ¸ÙĩØ±": 2741, "ØµÙĦØ¨ÙĨÙĥÙħ": 7004, "²": 20, "ĠÙĪØ±Ø¨Ø§Ø¹": 8970, "ÙĩØ±Ø©": 3300, "ĠØ¨Ø§ÙĦØ¬ÙĨ": 7854, "ĠØªÙĤÙĪÙĦÙĪØ§": 1917, "ĠØ¨Ø±Ø¨ÙĬ": 5224, "ĠÙģÙĦÙĪ": 6178, "ĠØ¨Ø³ÙĪØ±Ø©": 9025, "ĠØªÙħØ´": 9135, "Ùħ": 49, "Ø³Ùĥ": 1763, "ĠÙĪØ£ØªØ¨Ø¹": 5881, "ĠÙĪÙĦØ£ØµÙĦØ¨ÙĨÙĥÙħ": 9336, "ĠÙĥÙħ": 1221, "ĠÙħÙĪØ¯Ø©": 4225, "ĠÙģÙĤØ§ÙĦÙĪØ§": 1672, "ĠØ£ÙħØ±ÙĬ": 2928, "ĠØ¹ÙħÙĦØª": 4333, "ØªÙĬØ©": 4972, "ĠÙĪØ§ÙĦØ¢ØµØ§ÙĦ": 7048, "Ø¸Ø±ÙĬÙĨ": 2240, "ĠÙĨØ¯Ø¹": 7632, "ĠÙĤØ±Ø£Øª": 9225, "Ø¬Ø±Ø©": 1525, "ÙĪØ¬ÙĩÙħ": 4325, "ĠÙģØ£Ø®Ø±Ø¬": 2355, "ÙģÙĪÙĨ": 867, "ÙĦÙĥÙĩ": 5864, "ĠÙĪØ§ÙĦØ¹Ø¯ÙĪØ§ÙĨ": 4567, "ĠØ§ÙĦØ·ÙĪÙĦ": 8788, "ĠØ±Ø¹": 7557, "ĠÙģØ§ØªØ¨Ø¹ÙĪØ§": 9685, "ĠØ£Ø¹Ø¨Ø¯": 2123, "ĠÙĪØ§ÙĦØ£ÙħØ±": 6143, "Ø§Ø³Ø±ÙĬÙĨ": 1606, "Ø£ÙĬ": 666, "ĠØªÙĩØªØ²": 9945, "Ø¯ÙĥÙħ": 1619, "ØµØ±ÙĪØ§": 2553, "Øº": 131, "ĠØ£ÙĬØ¯ÙĬÙĥÙħ": 2574, "ĠØªØ¨Ø±": 2873, "ĠØ¨Ø§ÙĦÙĩØ¯Ùī": 3203, "ĠØªÙĨÙģØ¹": 3726, "ĠØ§ÙĦØ¨ÙĬÙĨØ©": 7137, "Ø¨ÙĪÙĩÙħ": 7191, "ĠÙĪØ¬ÙĨØ©": 8069, "Ø¨ÙĬÙĦØ§": 4954, "ÙħÙĬØª": 3680, "ĠØ¬ØŃÙĬÙħ": 7776, "ĠÙħØ³Ø®Ø±Ø§Øª": 6317, "ĠØ§ÙĦÙħÙĤØ¯Ø³": 5900, "ĠÙĦØ´ÙĬØ¡": 3972, "ĠÙĪØ£Ø±Ø³ÙĦ": 7723, "ÙĬØ©": 337, "Ø§Ø¦ÙĨ": 2364, "ĠÙģØ§ÙĤØ±": 6175, "Ø¦ÙĨ": 588, "ĠØ£ÙĨÙģØ³": 451, "ĠÙħØ¹Ø§": 4200, "ĠÙħÙĨØªÙĤÙħÙĪÙĨ": 7046, "ĠÙģØ³ÙĬØ¹ÙĦÙħÙĪÙĨ": 9683, "ĠÙĪÙĬØªÙĪØ¨": 6832, "ĠÙĪÙĥÙĨ": 4950, "Ø³Ø¬Ø¯": 4651, "Ø¨ÙĪØ§Ø¨": 7192, "ĠÙĦÙĬØ¯ØŃØ¶ÙĪØ§": 9752, "ĠÙĦÙĦØ´ÙħØ³": 9985, "ĠØ§ÙĦÙģØ§Ø³ÙĤÙĪÙĨ": 2814, "ĠÙĪØ²ÙĨÙĪØ§": 8874, "ĠØªÙģØ³": 3135, "ĠÙĬØºØ±": 5197, "ĠÙĨØ³Ø¨": 7620, "ĠØ§ÙĦÙĨØ´Ø£": 6194, "ĠØ§ÙĦØ®Ø¨Ø§Ø¦Ø«": 10303, "ĠØ®ÙĦÙĤÙĩÙħ": 5042, "ĠØºÙĦØ§Ùħ": 4963, "ĠØ³ÙĪØ§Ø¡": 1250, "Ø§ÙħØ¯Ø©": 8698, "ĠÙĪØ§ÙĦ": 108, "ĠÙĪØ§Ø³Ø¬Ø¯": 9171, "Ø³ØªØ¶Ø¹ÙģÙĬÙĨ": 7886, "ĠÙĨØ¨Ø´Ø±Ùĥ": 8925, "ĠØ¨ÙĨÙĬ": 744, "ĠØ§ÙĦÙħØ±Ø³": 1118, "ĠÙħØ±Ø¶": 1240, "ĠØ§ÙĦÙģØ±Ø¯ÙĪØ³": 9443, "ĠÙĪØ¬Ø§ÙĩØ¯ÙĪØ§": 2530, "ĠÙĪÙĤØ·Ø¹ÙĨØ§ÙĩÙħ": 10275, "ĠÙģØªÙĪÙĦ": 6226, "ĠØ£Ø³ÙħØ¹": 5646, "ĠÙĦÙĦØ¥ÙĬÙħØ§ÙĨ": 6817, "ĠØ¨ÙĦ": 351, "ÙģØ³": 196, "ĠÙģØ±Ø¶ØªÙħ": 9697, "ØŃ": 77, "ĠØ§ÙĦØ³ØŃØ±": 1972, "ĠÙģÙħØ§Ø°Ø§": 6367, "ĠØ¢ÙĪÙĪØ§": 7713, "ĠÙĪØ§ÙĦÙĤØ§ÙĨØªÙĬÙĨ": 9012, "ĠÙĪØ¬Ø¹ÙĦÙĨØ§": 819, "ĠÙħØ±ÙĬØ¨": 3401, "ĠÙĦÙħØ¯ÙĬÙĨ": 8094, "ĠÙĦÙĥÙĬ": 8342, "ĠØ§ÙĦØ¨ÙĨÙĪÙĨ": 8541, "ĠØ³ØŃØ§Ø¨Ø§": 5509, "ĠØ±Ø³ÙĪÙĦÙĨØ§": 5200, "ĠÙħØ²ÙĬØ¯": 7212, "ĠÙħØ¹ÙĦÙĪÙħ": 2830, "ĠÙĬÙĩØ¯ÙĬ": 824, "ĠÙĦØ´Ø¯ÙĬØ¯": 5448, "ĠÙĦØ±Ø¨Ùĩ": 9351, "ĠÙĥÙģØ±ØªÙħ": 3651, "ĠÙĪØ§Ø´Ø±Ø¨ÙĪØ§": 3839, "ĠØ¹ÙĬÙĨØ§ÙĨ": 9313, "ĠØ§ÙĦØ£Ø´ÙĩØ§Ø¯": 9854, "Ø¬Ø§Ø±Ø©": 3531, "ĠØ§Ø«": 1482, "ĠØ¢ÙħÙĨÙĪØ§": 248, "ĠÙĪØ§ÙĦÙħÙĬØ²Ø§ÙĨ": 3885, "ĠØ¬Ø¨Ø§Ø±": 4098, "ĠØ£ÙĪØ±Ø«": 5976, "ÙĪØ·": 7106, "ĠØ§ÙĦØ£Ø³ÙĪØ§ÙĤ": 10260, "ĠÙĪØ£ÙĥØ«Ø±": 3057, "ĠÙĩØ¯ÙĬÙĨØ§": 6868, "ĠÙĪØ¬": 232, "ÙĨØ¨Ø¦ÙĥÙħ": 7087, "ĠØ®Ø§Ø¦ÙĨØ©": 9779, "ĠØ¨Ø¯ÙĦÙĩ": 9204, "Ø®ÙĦÙģ": 1784, "ĠÙĪÙĤØ±Ø¢ÙĨ": 4932, "Ø·ÙĩØ±ÙĥÙħ": 6699, "ĠØºÙĦØ§": 8037, "ĠÙĦÙĬØ®Ø±Ø¬": 3631, "ĠÙĦØ®ÙĦÙĤ": 9561, "ĠØ¥ÙĨÙĥ": 815, "ĠÙĦÙĤÙĪÙħÙĩ": 2133, "ĠØ¥ÙĦÙĩØ§": 1826, "ÙĤØ°ÙģÙĬÙĩ": 9595, "ĠØ¨ÙģØ§ÙĥÙĩØ©": 9755, "ÙĬØ¨": 267, "ĠÙĦÙĤØ¶ÙĬ": 2986, "ĠÙħØ±ÙģÙĪØ¹Ø©": 7069, "Ø§Ø·Ø¦ÙĬÙĨ": 8377, "ĠÙģØ¯Ø¹Ø§": 9516, "ĠØ§ÙĦÙħÙĥØ±": 4845, "ĠÙĬÙĦØŃÙĤÙĪØ§": 9816, "ĠÙĨØ¶Ø±Ø¨ÙĩØ§": 10241, "ĠÙĬØ¹Ø°Ø¨ÙĥÙħ": 5456, "ĠÙĬØ²ÙĥÙĬÙĩÙħ": 9052, "ĠÙħØ¨ÙĬÙĨ": 526, "ÙĩÙĦÙĩ": 3914, "Ø¤ÙĦØ¤": 4890, "ĠØ§ÙģØª": 1165, "Ø§Ø¸": 4043, "ĠØ±ØŃØ¨Øª": 8629, "ĠØ¬Ø¦ØªÙĨØ§": 9094, "ĠÙĨØŃÙĨ": 676, "ĠÙĪØ£Ø¬Ø±Ø§": 7729, "ĠØªØ¤": 1506, "ĠÙĪØ¹ÙĬØ¯": 6239, "ĠÙĪØ³Ø¹Øª": 8660, "ĠØ¬Ø§Ø¡ØªÙĥÙħ": 4228, "ĠÙĥØ§ÙģØ±ÙĬÙĨ": 2878, "ØµØŃ": 5801, "ĠØ²Ø¹ÙĬÙħ": 8415, "ĠÙĤÙĪÙĦ": 1357, "ĠØ¹Ø±Ùģ": 5747, "ĠØ£ÙĥÙĦ": 8462, "ØŃÙĦÙģÙĪÙĨ": 7414, "ĠÙħØ¨Ø§Ø±": 4624, "ĠØ§ÙĦØºØ§ÙģÙĦÙĪÙĨ": 8527, "ÙĪÙĩ": 299, "ĠØ£ØªØ±ÙĬØ¯ÙĪÙĨ": 9793, "ĠØ§ÙĦØªÙĪØ§Ø¨": 3898, "ĠØ¹ÙĦÙħØ§": 2467, "ĠÙĪØ£ØŃØ§Ø·": 9659, "Ø²Ùī": 2203, "Ø¹ÙħØ©": 2512, "Ø±Ø§ÙģÙĩØ§": 7835, "ĠÙĦÙĥØ¨ÙĬØ±ÙĥÙħ": 10005, "ĠØ¥ØµÙĦØ§ØŃÙĩØ§": 9762, "ĠØ¸Ùĩ": 1819, "ĠØ£ÙĬÙħØ§ÙĨÙĥÙħ": 1915, "ĠÙĨØ¨Ø¦": 5843, "ĠØ³ÙħØ¹ØªÙħÙĪÙĩ": 9000, "ĠØ£Ø¹ÙĬÙĨÙĥÙħ": 9404, "ĠÙĨÙĪØ±ÙĩÙħ": 7631, "ĠØ¨Ø·Ø´": 5288, "ØŃØ§Ùħ": 4006, "ĠØ¨Ø±ÙĬ": 2063, "ĠÙħØ±ØªÙĬÙĨ": 4300, "ÙģÙĨØ§": 7389, "ĠÙĬØªØ°ÙĥØ±ÙĪÙĨ": 3243, "ĠØ§ÙĦÙħØ³ÙĥÙĬÙĨ": 5221, "ĠÙĪØ§ÙĦÙħØ¤ØªÙģÙĥ": 6981, "ÙĬØ§ÙĨØ§": 2921, "ĠÙħÙĨÙĩÙĨ": 3130, "Ø§Ø¡Øª": 3170, "ĠØ§ÙĦØ£ÙĨÙģØ§ÙĦ": 8689, "ØŃÙĬÙħ": 1279, "ĠØ£Ø¨ØµØ±": 8700, "ÙĬØ¹Ø§Ø¯": 3836, "ĠØ¨Ø§ÙĦØŃØ³ÙĨØ©": 4543, "ĠØ§ÙĦÙħØª": 1873, "Ø±Ø³": 223, "ĠØ§ÙĦØ¹ÙħØ±": 5462, "ĠØ§ÙĦØ¬Ø¨Ø§ÙĦ": 1333, "ĠØªÙģØ¬ÙĬØ±Ø§": 8921, "ĠÙĦÙĦØ¹Ø¨Ø§Ø¯": 9212, "Ø«ÙĦØ«": 5272, "ĠØ£Ø°Ø§": 5641, "ĠÙĬØºÙĨÙĪØ§": 5198, "ĠÙģØ¬Ø¹ÙĦÙĨØ§Ùĩ": 6803, "ĠØ§ÙĦÙħØŃØ¶Ø±ÙĬÙĨ": 10084, "ĠØ§ÙĦØªØ±": 8912, "ĠÙĬØ®Ø±Ø¬ÙĪÙĨ": 3788, "ĠÙģØ§Ø¹Ùģ": 6174, "ĠÙħÙĩØ§": 5627, "ĠÙĪØ§ÙĦØªÙĪØ±Ø§Ø©": 9954, "ĠÙĤÙĬÙħØ§": 7528, "ĠÙĬØ³Ø¨": 3976, "ĠÙĬÙĨÙĤØµ": 8135, "ĠÙħØ³Ø§ÙĥÙĨÙĩÙħ": 4559, "ĠÙĬØ£ØªÙĪØ§": 4250, "Ø¬Ø§ÙĩØ¯ÙĪÙĨ": 7509, "ĠØ§ÙĦÙħØ¯": 4082, "Ø§Ø¸ÙħÙĬÙĨ": 9832, "ĠØ£Ø®Ø°ØªÙĩ": 8980, "ĠØ§ÙĦØ¹ÙĬØ±": 7960, "ĠÙĪÙĥØ°Ø¨": 1809, "ĠØ§ÙĦÙħØŃØ³ÙĨÙĬÙĨ": 1139, "ĠÙĪØ§ÙĦÙħÙĦØ§Ø¦ÙĥØ©": 2014, "ĠØ±ØºØ¯Ø§": 7005, "ĠØ¨Ø¶Ø¹": 7376, "ĠÙĬÙĤØ¯": 4676, "Ø²ÙĪØ§": 630, "ĠÙĬØ¶ÙĬØ¹": 4687, "ØµØ§Ùħ": 7555, "ĠÙĪÙĩÙħÙĪØ§": 8400, "ĠÙĦÙĦØ£Ø°ÙĤØ§ÙĨ": 10121, "ĠØ£ÙģØ§Ùĥ": 8306, "ĠÙħØ·ÙĦØ¹": 9687, "ĠÙĦØ¹ÙĨØ©": 3326, "ĠØ¬Ø¦ØªÙĩÙħ": 9093, "ĠÙĬØ´ÙĩØ¯": 3666, "Ø²ÙĬ": 324, "ĠØ³Ø¹ÙĪØ§": 7664, "ĠØ§Ø³ÙĥÙĨ": 9268, "ĠÙĪØ¹Ùħ": 658, "ĠÙĪØ£ÙĦØŃÙĤÙĨÙĬ": 9962, "ØªÙħØ±ÙĪÙĨ": 7766, "ĠÙĪØ°ÙĥØ±": 1930, "ĠØ¯ÙĬØ§Ø±ÙĩÙħ": 2823, "ĠÙĬØ¨Ø®": 4369, "ØªØ¨ÙĩØ§": 6413, "ĠÙĨØ¤ØªÙĩ": 6851, "ĠØ¨Ø§ÙĦØ³": 2917, "Ø±Ø§Ø¯": 3598, "ĠÙĦÙĬØ³ÙĪØ§": 8836, "ĠØ¨Ø§ÙĦØ¥Ø«Ùħ": 4518, "ĠÙĪØ§Ø®Ø´ÙĪÙĨ": 6789, "ĠÙĪÙĦØ¹ÙĦÙĥÙħ": 2827, "ĠÙĪÙĥÙĨØªÙħ": 2941, "ØªÙĩ": 328, "Ø¨ÙĬØ§Ø¡": 4185, "ĠÙĬÙĨØ¨Ø¦ÙĩÙħ": 6130, "ĠØ¹ØµÙĬØª": 5297, "ĠØ£ÙĬÙħØ§ÙĨ": 4205, "ĠÙģÙĦÙĪÙĦØ§": 2108, "ĠÙĦØ¯ÙĨØ§": 3480, "ĠØ§Ø³ØªØŃ": 4304, "ĠØ§ÙĦÙģØ§Ø¦Ø²ÙĪÙĨ": 5156, "Ø³Ø§": 875, "ĠØ§ÙĦÙģØªØŃ": 4605, "ĠÙĪÙĬÙĤØ°": 7900, "ĠØ¨ÙĨÙĬØ§ÙĨÙĩ": 8823, "ĠÙĤØµØ§Øµ": 9484, "ĠØ³ÙĨÙĥØªØ¨": 10246, "ĠÙĨØ±Ø³ÙĦ": 4805, "ĠØŃØ¯ÙĬØ«Ø§": 4495, "ÙģØ¶ÙĪØ§": 5729, "ÙĦÙĪÙħØ§": 5318, "ĠÙĪØ£ÙĬØ¯ÙĨØ§Ùĩ": 9573, "ĠÙĪØ¥ÙĦÙĬÙĩ": 1404, "ĠØ±Ø¬Ø²Ø§": 6418, "ĠÙĬÙĪØŃÙĬ": 5345, "ĠÙĦØ±Ø¡ÙĪÙģ": 4563, "ÙĪÙħÙĩØ§": 7715, "ĠØ®ÙĪÙģ": 1457, "ĠÙģØ£ØµØ¨ØŃÙĪØ§": 2819, "ĠÙĪØ§ÙĦÙħÙĨØ§Ùģ": 4316, "ĠÙĪØ£Ø®ÙĬÙĩ": 5379, "ĠÙģÙĥÙģØ±ÙĪØ§": 6382, "ĠØ¨Ø§Ø·ÙĦØ§": 10063, "ĠÙĪÙĪÙĤØ§ÙĩÙħ": 9177, "ĠØ²ÙĥØ±ÙĬØ§": 4273, "ĠÙħÙĦÙĥØ§": 3332, "ĠÙģØ§ÙĦØ°ÙĬÙĨ": 2583, "ĠØ¨Ø±Ø¨ÙĥÙħ": 4411, "ĠØ£ÙĬØ¯ÙĬÙĨØ§": 8839, "ĠØ§Ø³ØªØ¬ÙĬØ¨ÙĪØ§": 8561, "ĠÙĬØªÙħØ§Ø³Ø§": 8126, "ÙĤÙĬÙħ": 595, "Ø·Ø¹Ø§Ùħ": 5862, "ĠÙĨØ±ÙģØ¹": 9607, "ĠØ£ÙĨØ¹ÙħØª": 3386, "ĠÙĦÙĦÙģÙĤØ±Ø§Ø¡": 6137, "Ø¬Ø¨": 5770, "ĠØ£ÙģØ¨Ø§ÙĦ": 8307, "ĠÙħÙĦØªØŃØ¯Ø§": 9807, "ĠØ¨Ø·ÙĨ": 9103, "ĠÙģØ£Ø¨Ùī": 6017, "ĠØ³ÙĦØ·Ø§ÙĨØ§": 2416, "ØªØ§Ø±": 5616, "ĠÙĪØ£Ø´ÙĩØ¯ÙĪØ§": 7731, "ĠØ¸ÙĩÙĬØ±": 9382, "ĠÙĬÙĨØµØ±ÙĪÙĨ": 1650, "ĠÙĬÙĤØ¯Ø±ÙĪÙĨ": 6999, "ĠÙĪØ³ÙĪÙģ": 4321, "ĠÙĪØ¢Ø®Ø±ÙĬÙĨ": 6882, "ÙĬØªÙĨÙĬ": 6312, "ĠØ¹Ø¬ÙĪØ²": 9290, "ĠØ§ØµØ·": 3858, "Ø¹ÙĬØ±": 2634, "ĠØ§ÙĦØµØ§Ø¹ÙĤØ©": 6101, "ĠØ£ØŃÙĦØ§Ùħ": 6185, "ÙĩØ¨Ø§": 4595, "ĠØ£Ø³Ø±Ùī": 9515, "Ø§ÙĦØŃÙĬÙĨ": 5074, "ĠØ§ÙĦØ±Ø¬Ø§ÙĦ": 3378, "ĠÙħØŃØ±ÙĪÙħÙĪÙĨ": 9746, "ĠØ£ÙĪÙĦØ§Ø¯ÙĩÙĨ": 9236, "ĠÙĪÙĥØ§ÙĨÙĪØ§": 1036, "ĠØ£Ø¬ÙĦØª": 8407, "Ø±ÙĬ": 201, "ÙĩØ§Ø¬Ø±ÙĬÙĨ": 4542, "ĠØ£ÙĨØ¹Ùħ": 1787, "ĠØ§ÙĦØ£Ø¹ÙĦÙī": 2822, "ĠÙĦØ¥": 2307, "ĠØ°ÙĦØ©": 4894, "ĠÙĦÙĬÙĩØ¯ÙĬÙĩÙħ": 8010, "Ø¸Ø§ÙĩØ±": 9082, "ĠØ§ÙĦØ³Ø¬ÙĨ": 3607, "ĠÙĪÙĦÙĥÙĨÙĥÙħ": 8503, "ĠØ§ÙĦØ´Ø¬Ø±Ø©": 3277, "ĠÙģØ¦ØªÙĬÙĨ": 10049, "ĠØ®Ø§ÙĦØ¯ÙĬÙĨ": 880, "ĠÙĬØ¬Ø²ÙĪÙĨ": 6370, "ĠØ±Ø£Ø³Ùĩ": 6537, "ĠÙģØªØ¨Ø§Ø±Ùĥ": 8322, "ĠØ§ÙĦÙħÙĬØ¹Ø§Ø¯": 4086, "ĠÙĪØªØ²": 4994, "Ø¹ØªÙĩÙħ": 3460, "ĠÙĪØ±Ø¶": 7139, "ĠØ£Ø¨ÙĪØ§Ø¨Ø§": 8703, "ĠØ±ÙĬØŃ": 2680, "ĠØ§ÙĦØŃÙĪØª": 6002, "ĠØŃØ¬": 1402, "ĠØ¢Ø¨Ø§Ø¦": 4373, "ĠØ¨Ø¢ÙĬØ§ØªÙĬ": 5143, "ĠÙĪÙħÙħØ§": 2117, "ĠÙĦØ£ÙħÙĦØ£ÙĨ": 5555, "Ø¨ÙĦÙĪÙĨ": 7189, "ĠÙĨÙĤÙĬØ±Ø§": 9460, "ÙĪÙĦÙĩ": 497, "ĠÙħØ¨Ø±": 7202, "ĠÙĪØ±ÙĩØ¨Ø§": 8477, "ĠÙĨÙĥØ§ØŃØ§": 10240, "ØªÙħÙĪÙĩ": 2700, "ØµØ¯Ø©": 5803, "ĠØ£Ø±Ø¶ÙĨØ§": 6695, "ĠØ³ØªØ©": 3165, "Ø§Ø±Ùĥ": 1407, "ĠØŃÙħÙĦØª": 8842, "ĠØ¸": 319, "ØŃØ±": 416, "ĠØŃÙĥÙĬÙħ": 959, "ĠØ¥Ø«Ùħ": 3123, "ĠØ§ÙĦØ¹Ø±Ø´": 1519, "ĠÙĪØ£ÙĨØ§": 1159, "ĠÙĪØ¢ÙħÙĨÙĪØ§": 3308, "ĠÙĪÙĦÙĥÙĦ": 2975, "ĠÙĬÙĥØ³Ø¨": 6236, "Ø¨Ø¹Ø«ÙĨ": 8983, "ĠÙĪØ±Ø§": 5599, "ÙĪÙħÙĪØ§": 7714, "ĠÙĪØ«": 3432, "ÙģÙĬÙĨØ§": 4000, "ĠÙĦØ£ÙĨ": 2009, "ĠØªØ¹Ø§ÙĦÙĪØ§": 3298, "ĠØ£ÙģØ¦": 5048, "ĠÙĪÙĦØ£ÙĨØ¹Ø§Ùħ": 7840, "ĠØŃØ§Ø¶": 4859, "ĠØªØªØ¨ÙĬØ±Ø§": 8533, "ĠØªØ²Ø¯": 9139, "ĠÙĪØ§ÙĦØ²ÙĥØ§Ø©": 9838, "ĠÙĪØ´Ø±": 4611, "ĠÙĬØ¯Ø®ÙĦ": 2388, "ĠØ¨ÙĤØ±": 3494, "ĠÙĤØ¨ÙĦØ©": 6177, "ĠØ§ÙĦØªÙĪØ§": 3081, "ĠÙĬØŃØ²ÙĨÙĪÙĨ": 2163, "ĠÙĪØ§ÙĦÙħ": 534, "ĠØ¸ÙĦ": 6189, "ĠØ£ÙħØ±ÙĩØ§": 6355, "ĠÙĪØ¹ÙħÙĦ": 2398, "ĠØ§ÙĦÙĥØ±ÙĬÙħ": 6907, "ĠÙģØŃÙĤ": 4657, "ĠØ§ÙĥØª": 3220, "ÙĦÙĨØ§ÙĩÙħ": 3230, "Ø§Ø¦": 231, "ĠÙĩÙĪØ¯Ø§": 3645, "ĠØ§ÙĦÙĤØªÙĦ": 4172, "ĠÙħÙĨÙģ": 7425, "ĠØ§ÙĦØ±ÙĪØŃ": 4143, "ĠØ¥ÙĦÙĩÙĥÙħ": 3301, "ĠØªØŃÙħ": 4021, "ĠØ±Ø³Ø§ÙĦØ§Øª": 4254, "ĠØµØº": 6036, "ĠØ§ÙĨØªÙĤØ§Ùħ": 5500, "ĠØ³Ø¨Ø¹": 1452, "ÙĬØ§ÙħØ§": 2505, "ĠØ¢Ø°Ø§ÙĨ": 2208, "ÙĨÙĬ": 220, "ĠÙħÙĥØ±Ø§": 5223, "ĠØ§ÙĦØ¨Ø¹Ø«": 5590, "ĠØ§ÙĦØ³ÙħØ§Ø¡": 469, "ÙģÙĤØ±Ø§Ø¡": 5731, "ĠØ¬ÙĩØ¯": 3583, "ĠØ¹ÙĦÙĬ": 136, "ÙĤØ§ØªÙĦ": 6588, "ĠÙĪØ§Ø¨ÙĦ": 6630, "Ø¦Ø§": 542, "ĠØ£ØºÙĨÙī": 2808, "ĠØ¬Ø¹ÙĦÙĨØ§Ùĥ": 6525, "ĠÙħØ·Ø±Ø§": 6884, "ĠØ§ÙĦÙħØªÙĤÙĬÙĨ": 1363, "ĠØ§ÙĦÙħØ³Ø¬Ø¯": 1908, "ĠÙĪÙħÙĦØ§Ø¦ÙĥØªÙĩ": 4574, "ĠØ«Ø¨ÙĪØ±Ø§": 4910, "ĠÙĬÙĩØ§Ø¬Ø±ÙĪØ§": 5693, "ĠÙĪØ§ÙĦØ´ÙĩØ¯Ø§Ø¡": 6599, "ĠØ£ÙĦÙĪØ§ÙĨÙĩØ§": 9693, "ĠÙĪØ§ÙĦØ±ÙĪØŃ": 9835, "ÙĤØ¯Ø±": 1522, "ĠØ¥Ø®ÙĪØ§ÙĨÙĩÙĨ": 5535, "ĠÙģÙĦÙĬØ£ØªÙĪØ§": 10016, "ī": 41, "ĠÙĦØ¢ØªÙĬÙĨØ§": 8972, "Ø²ÙĬØªÙĪÙĨ": 4242, "Ø¸Ø§ÙĦÙħÙĬÙĨ": 1640, "²Ø¯Ø§Ø¯ÙĪØ§": 7072, "ĠÙĤØ¨ÙĦÙĩ": 1735, "ĠØ§ÙĦÙħØ³ØŃØ±ÙĬÙĨ": 8851, "ĠØªØ²Ø¹ÙħÙĪÙĨ": 5299, "ĠÙħØ¨Ø§Ø±ÙĥØ§": 5537, "ĠÙĪÙĦÙĬÙĩÙħ": 8548, "ĠØ§ÙĦÙħÙĨØ§ÙģÙĤÙĬÙĨ": 1874, "ĠÙĪØ´ÙĩØ¯ÙĪØ§": 6693, "ĠØ£ÙģØ£ÙħÙĨ": 6785, "ĠÙĨØ¬ÙĪØ§ÙĥÙħ": 8892, "ĠÙĪØ´Ø¯Ø¯ÙĨØ§": 9280, "ĠØ¨ÙĤÙĪØ©": 3808, "ĠØ¬Ø§Ø¡ØªÙĩÙħ": 1651, "ĠØ§ÙģØªØ±Ùī": 2031, "ĠØ§Ø³Ùħ": 1584, "ĠØ¨Ø¹ÙĬØ¯": 1993, "ÙħØ§Ø±": 5749, "ĠÙģØªØŃØ±ÙĬØ±": 6228, "ĠÙĪÙĬØ³ØªØ®ÙĦÙģ": 6647, "ĠÙħÙĨÙĨØ§": 7426, "ĠØ§ÙĦØ³ÙĥÙĬÙĨ": 7878, "ĠÙģØ§ÙĨ": 803, "ØŃÙħÙĪÙĨ": 2951, "ĠÙĤÙĦÙĪØ¨": 498, "ĠØ§Ø´Øª": 5348, "ĠÙĨØ¨": 887, "ĠÙģØ§Ø³Øª": 911, "ĠØ®ÙĬÙģ": 4867, "ĠÙĬØ¨ÙĦØº": 2862, "ĠØ³ÙĬØ¦Ø§ØªÙĥÙħ": 4453, "ĠÙĪØ£ØªÙĪØ§": 7720, "ĠÙĬÙĨØµØ±ÙĪÙĨÙĩÙħ": 9324, "ĠØ£ÙĦÙĬÙħ": 792, "ĠÙĦÙĤØ§Ø¡ÙĨØ§": 5118, "ĠØ¨ÙĩÙħ": 924, "ĠÙĬØ´ÙĥØ±ÙĪÙĨ": 2735, "ĠØ£ÙĬØªÙĩØ§": 8132, "ĠÙĪØ§ØªÙĤÙĪÙĩ": 5150, "ĠØ§ÙĦÙħÙĨØ´": 8955, "ĠØŃØ¬Ø§Ø¨Ø§": 9209, "ĠÙĪÙģØ±Ø¹ÙĪÙĨ": 4477, "ÙĩØª": 663, "ĠØªÙĤÙĦØ¨": 3735, "ĠØ«ÙĪØ§Ø¨Ø§": 4909, "ØªÙĦØ§Ùģ": 3442, "Ø¦Ø±": 7702, "ĠÙĬÙĨÙĩØ§ÙĥÙħ": 8142, "ÙĩØ§ÙĥÙħ": 5811, "ĠØ¸ÙĩÙĪØ±ÙĩØ§": 10029, "ĠÙģÙħÙĨ": 480, "ĠØ§ÙĦØµØ§ÙĦØŃØ§Øª": 715, "ĠÙĪÙħÙĨØ§ÙģØ¹": 6938, "Ø±Ø§ÙħØ§": 4883, "ĠØªØ¤ÙħÙĨÙĪÙĨ": 4022, "ÙĥÙĪØ§": 7168, "Ø³ÙĨØ§": 7260, "ĠØ£ÙĩÙĪØ§Ø¡ÙĩÙħ": 2278, "ĠØ¨ÙĨÙĬØ§": 7363, "ÙĨØ§ÙĨØ§": 7455, "ĠØ£Ø´Ø¯ÙĥÙħ": 8987, "ĠØ£ØµÙĨØ§ÙħØ§": 10011, "ĠØ¨Ø²ÙĬÙĨØ©": 10209, "ØŃÙĪÙĩÙĨ": 4718, "ĠÙģØ±Ø·ÙĨØ§": 8446, "ĠØ¹Ø§Ø¨": 2466, "ĠØ£Ø±ØŃÙħ": 5193, "ĠÙĬÙĤØªÙĦ": 3983, "ĠØ°ÙĨÙĪØ¨ÙĨØ§": 5425, "ĠØ§Ø®Øª": 9152, "Ø§ÙģØ¸ÙĬÙĨ": 9325, "ĠÙĤÙĪØ§Ø±": 5790, "ĠØ¨Ø³Ø§": 7368, "ĠÙĤØ±ÙĬØ¨Ø§": 2788, "ĠÙģÙĥ": 539, "ĠØ§ÙĦØ®ÙħØ±": 6268, "ĠØ§ÙĦØ³ÙħÙĬØ¹": 1581, "ĠØ¨ÙĬÙĪØªÙĥÙĨ": 9274, "Ø°Ø±": 387, "ĠÙĨØ§Øµ": 1961, "Ø¹ÙĦÙħ": 172, "ÙĥØ´Ùģ": 7178, "ÙĩÙĨÙħ": 591, "ĠÙĤÙĦÙĬÙĦØ§": 766, "ĠØ§ØªØ¨Ø¹Øª": 6551, "ĠÙĥØ§Ø´": 4035, "ĠÙĪÙĨØ°ÙĬØ±Ø§": 2959, "ĠØºØ´ÙĬÙĩÙħ": 8045, "ĠÙģØ¨Ø¥Ø°ÙĨ": 8715, "Ø·ÙĦÙĪÙĨ": 7686, "ĠÙģØ±Ø¬Ø¹": 8445, "Ø¨ÙĩÙħ": 1759, "Ø§Ø¡ÙĨØ§": 1793, "ĠÙĬØ°ÙĩØ¨ÙĨ": 9699, "ØªÙĩÙĪÙĨ": 3268, "ĠØ£Ø¨ÙĪØ§Ø¨ÙĩØ§": 6821, "ØªÙĪØ§": 484, "ĠØ£Ø¹ÙħÙī": 4368, "ĠØŃÙģÙĬØ¸Ø§": 6830, "ĠØ¨Ø¦Ø³ÙħØ§": 6866, "ĠØ¥Ø·Ø¹Ø§Ùħ": 7386, "ĠÙĨØºÙģØ±": 7621, "ĠÙĪØ³ÙĬØŃ": 8661, "Ø±ÙĥÙĩ": 4323, "ĠÙĨÙĪØŃØ§": 3345, "ÙĤ": 68, "ĠØªØµØ¯": 4025, "ĠÙħØ´ÙģÙĤÙĪÙĨ": 4464, "Ø³Ø·ÙĪÙĨ": 8853, "ĠÙĩØ§Ø±ÙĪÙĨ": 2266, "ĠÙĬÙĥÙĪÙĨÙĪØ§": 2142, "ÙĪÙĪÙĨ": 5572, "ĠÙĪØ§ÙĦÙħØ³Ø§ÙĥÙĬÙĨ": 2820, "Ø¹Ø²": 7222, "Ø¯Ø«": 3954, "ĠØ¨Ø£ÙģÙĪØ§ÙĩÙĥÙħ": 9686, "ĠØªØ³Ø±ÙģÙĪØ§": 9944, "ĠÙĩØ§Ø¬Ø±ÙĪØ§": 4434, "ĠØ¨Ø¥ØŃØ³Ø§ÙĨ": 6512, "ĠØ±ÙĩÙĬÙĨ": 7562, "<BOS>": 1, "ĠØ±Ø¬Ø¹ØªÙħ": 8707, "ĠÙħØŃÙģÙĪ": 9072, "ĠÙĪØ£ØªØ¨Ø¹ÙĪØ§": 10081, "ĠÙĪÙĤØ¯Ø±": 6509, "ĠØ®Ø¶Ø±Ø§": 7796, "ĠØŃØ¬Ø§Ø±Ø©": 4445, "ĠÙĬØµÙĬØ¨ÙĩÙħ": 6905, "ĠÙĪØ¢Ø®Ø±": 3082, "Ø§ÙĤØ§": 5558, "ÙħØ§Ø«": 7460, "ĠØ³ÙĪØ±Ø©": 3166, "Ø¨ÙĬØª": 4953, "ĠÙĨÙĤØµ": 2895, "ĠØ£Ø³Ø§Ø·ÙĬØ±": 2777, "ĠÙĪÙģØ¶ÙĦ": 5341, "ĠÙĪÙĬÙģØ³Ø¯ÙĪÙĨ": 7906, "ĠØ£ÙĪÙĦÙĬØ§Ø¤ÙĩÙħ": 8812, "ĠÙĬØ£ÙĥÙĦÙĩÙĨ": 9302, "ĠÙĬØŃØ³Ø¨ÙĪÙĨ": 5000, "Ø¦ØªÙĨØ§": 4073, "ĠÙĥØ³ÙģØ§": 4535, "ĠØ§ÙĦØ¨ÙĬÙĪØª": 5331, "ĠÙĬÙĥØªÙħÙĪÙĨ": 4256, "ĠØªØ¬Ø±ÙĬ": 829, "ĠÙĬØŃØ¨": 893, "ĠØ¨ÙĥÙħ": 989, "ĠØ³Ø±Ø§": 1962, "Ø¯Ø±": 2853, "ØªØ±ÙĪÙĨ": 3439, "ĠÙģØªÙħ": 5665, "ĠÙĪÙĦÙĬÙĨ": 5954, "ĠØ§ÙĦØ±Ø¤ÙĬØ§": 5992, "ĠÙĬØªØ®Ø§Ùģ": 8122, "Ø¶ÙĦÙĪÙĩÙĨ": 8401, "ÙĪØ¡ÙĪØ§": 8743, "ĠØ¹Ø¬Ø§Ùģ": 9289, "Ø°Ø±ÙĪÙĨ": 1692, "ĠØ§ÙĦØ£ÙĥÙħÙĩ": 7820, "ĠÙħØ§ÙĦÙĩ": 3832, "Ø²ÙĦÙĨØ§": 661, "ĠØ£Ø¬Ø¹ÙĦ": 6255, "ĠØ¹ÙĨÙĩÙħØ§": 4895, "ÙĪØ´ÙĩØ§": 6881, "ĠÙĬØ³ØªÙĨ": 8450, "Ø¹Ùħ": 171, "ĠØ¨Ø¨Ø§ÙĦ": 7369, "ĠØ±ØŃÙħØª": 3746, "ĠØ³ÙĨÙĦÙĤÙĬ": 9061, "ØµØ§Ø±": 704, "ĠÙĦØªØ¨ØªØºÙĪØ§": 5131, "ĠØ³ÙĦÙĬÙħØ§ÙĨ": 2486, "Ø¶Ø±ÙĬÙĨ": 7570, "ĠØ§ÙĦØ£Ø¹Ø±Ø§Ùģ": 9427, "ÙĩØ²": 1239, "ĠØ¨Ø§ÙĦØ£ÙħØ³": 5402, "ĠØ£ÙĪØŃÙĬ": 2712, "ĠÙĪØ¯Ø®ÙĦ": 5607, "Ø¤ÙħÙĨÙĪÙĨ": 406, "ĠØªØŃØµÙĪÙĩØ§": 9884, "ĠÙĪØ§ÙĦØ¨ØºÙĬ": 9120, "ØªÙĩØª": 6212, "ĠØ£ÙĤÙħ": 6518, "ÙĪØ£": 2620, "ĠØ¨Ø¯ÙĬÙĨ": 5714, "ĠÙĬØ®ÙĪÙģ": 8467, "ĠÙĬØ®ÙģÙī": 5104, "ĠØ£ÙĤØ±ÙĬØ¨": 8881, "Ø§Ø²ÙĩÙħ": 9164, "ĠØ¨ÙĦÙĤ": 3121, "ĠÙĦØ§Ø¹Ø¨ÙĬÙĨ": 7769, "ĠÙģØ³ÙĬØŃ": 8671, "ĠØ¹Ø¯ÙĪØ§": 1950, "ĠÙĬÙģÙĦØŃÙĪÙĨ": 8740, "Ø§ÙĨØ§": 1924, "ĠØºÙĬØ±Ùĩ": 2125, "ĠÙĬØ¬Ø§Ø¯ÙĦÙĪÙĨ": 3399, "ĠØ§ÙĦØ³ØŃØ§Ø¨": 7875, "ĠÙĬØ£ÙħÙĨ": 8298, "ĠÙĨØ§Ø¦": 7616, "ĠØ£ÙĥÙģØ±": 5100, "ÙĤÙĩ": 2863, "ĠØŃØ§Ø³": 7758, "ÙĤÙĬØ§Øª": 7337, "ĠÙĪØ£ØªÙĪÙĨÙĬ": 7727, "ĠØ£ÙĨØ°Ø±ÙĪØ§": 5834, "ĠÙĪØ¯Ø¹": 7159, "ĠØµØ¯": 638, "ĠØ§ÙĦÙĦÙĩ": 92, "ĠÙģØª": 350, "ĠÙĪØ±Ø¶ÙĪØ§ÙĨ": 4504, "ĠÙĪØ£Ø¨ÙĨØ§Ø¤ÙĥÙħ": 10082, "ĠØŃØ¬Ø±": 7754, "ĠÙĬØ³Ø§Ø±Ø¹ÙĪÙĨ": 3710, "ĠÙĥØ§ÙĦØ£Ø¹ÙĦØ§Ùħ": 10157, "ÙħØª": 708, "ĠÙĥÙĬØ¯ÙĥÙĨ": 9259, "ĠÙħØ¯Ø¨Ø±ÙĬÙĨ": 3796, "ĠØ£ÙĩÙĦÙĩÙħ": 6235, "ĠÙĬØªØ°ÙĥØ±": 3241, "ÙĪØ¨Ø§": 4204, "ĠØ®Ø·ÙĬ": 4104, "ĠÙĨØ§Ø¯ÙħÙĬÙĨ": 5362, "ĠÙģØ³Ø¨ØŃ": 2303, "ĠØ°Ø±Ø£ÙĥÙħ": 10031, "Ø«Ùī": 1637, "ÙĦÙĥÙħ": 524, "ĠØ³ÙħØ§Ø¹ÙĪÙĨ": 5441, "ĠØ²Ø§Ø¯": 3286, "Ø¨Ø±Ø©": 3234, "Ø§Ø¹Ùģ": 3069, "ĠØ¨Ø¬ÙĩØ§ÙĦØ©": 5514, "ĠÙģØ£ÙĨØ¬ÙĬÙĨØ§Ùĩ": 3776, "ĠØªØ¹Ø§": 7472, "ĠØªØ±Ø¯ÙĪÙĨ": 8226, "ĠÙģØ±ØŃÙĪØ§": 6277, "ĠÙģÙĦÙħØ§": 499, "Ø¨Ø¦": 832, "ĠÙħÙĪØªÙĩØ§": 2374, "Ø§Ø¤Ùĩ": 3764, "ĠØ·ÙĬØ¨Ø©": 2743, "ĠØ§Ø±Ø¬Ø¹ÙĪØ§": 6724, "ĠÙĪÙĤØ§ØªÙĦÙĪØ§": 4165, "ĠØ§ÙĦØ¸Ø§ÙĦÙħÙĬÙĨ": 685, "ĠØªÙģØ¶ÙĬÙĦØ§": 8922, "ĠØ§ÙĦÙĦØ§": 2048, "ĠÙĪÙĦØ¯ÙĬÙĨØ§": 9150, "ĠÙĪØ§Ø±Ø²ÙĤ": 5360, "ĠÙģØ±ÙĪØ¬": 8444, "ĠÙĬØ¯Ø¹ÙĪ": 2978, "ĠÙħØªÙĥØ¨Ø±": 8801, "ĠØ¨Ø²Ø¹ÙħÙĩÙħ": 10205, "ĠÙĬØ¹Øµ": 3282, "ĠÙĬØŃÙĬØ·ÙĪÙĨ": 9004, "ĠØªØ´ÙĩØ¯ÙĪÙĨ": 6485, "ĠÙĬØ±Ø¬ÙĪ": 5011, "ĠØ§ÙĦÙĨÙĪØ±": 2543, "ĠÙģØªØ±Ø¨ØµÙĪØ§": 5056, "ĠÙĬÙĨØµØ±ÙĥÙħ": 5433, "ĠØ§ÙĦØ³ÙģÙĬÙĨØ©": 5980, "Ø¨Ø©": 727, "ĠØ¨Ø·Ø§Ø±Ø¯": 9106, "ĠØ§ÙĦØ¹ÙĦÙī": 7959, "ØŃØµ": 2067, "ĠØ¨Ø£ÙĬØ¯": 2965, "ĠØ£ÙģÙĪØ§Ùĩ": 5050, "ĠÙĪØªØ¬Ø¹ÙĦÙĪÙĨ": 10290, "ĠÙĤØ±Ø¢ÙĨ": 4762, "ØªØ¨Ø¹ÙĪÙĨ": 5172, "ĠÙĪØ¹ÙĨØ¯": 6720, "ĠÙĬØ¶Ø§Ø¹Ùģ": 3354, "ĠØ§ÙĦØªÙĬ": 742, "ØµØ±Ø®": 6252, "ĠÙĬØªÙĤØ¨ÙĦ": 6123, "Ø³Ø®": 4648, "ĠÙĬØªØ®Ø°": 1815, "Ø§ÙĪØ±": 2613, "ĠØ§ÙĦÙĥØ§ÙģØ±ÙĪÙĨ": 1718, "ĠØ£ÙĪÙĦØ§Ø¯ÙĥÙħ": 3373, "ĠÙĪØ¨ÙĦØº": 5606, "ĠÙĪØ±Ø§Ø¦ÙĩÙħ": 6293, "ĠÙģØªØŃÙĨØ§": 5497, "ĠØ§ÙĦÙĬÙħ": 2838, "ĠÙĪÙħØ£ÙĪØ§ÙĥÙħ": 9887, "ĠÙĪØ§ÙĦØ¶Ø±Ø§Ø¡": 4566, "ĠÙĪÙħØ«ÙĦØ§": 9886, "ĠØ¨ØªØ§Ø¨Ø¹": 10206, "ĠÙĪÙĤØ¹Øª": 7976, "ĠØ¨ÙĥÙĦÙħØ©": 8745, "ĠÙĬÙĤØ§ÙĦ": 6430, "ĠÙģÙĬÙĥÙĪÙĨ": 2471, "ĠØ£ÙĬÙĥÙħ": 4985, "ĠÙĪØ®": 1129, "Ø¬Ø¯ÙĪØ§": 1075, "ĠÙĦØª": 474, "ĠØ¬Ø¦ÙĨØ§Ùĥ": 6604, "ĠÙħØ¹ÙĬØ´": 6770, "Ø²ÙĨ": 5817, "ĠØ¹Ø²Ùħ": 4734, "Ø§Ø¨Ø±ÙĪÙĨ": 7643, "ĠØŃÙĥ": 1252, "ĠØ¨Ø¨Ø¯": 7360, "ĠØ§ÙĦØ£Ø¹Ø±Ø§Ø¨": 2611, "ÙĥÙħØ§": 1847, "ĠÙĬØ±Ø«ÙĪÙĨ": 8186, "ĠØ¥ÙĬÙħØ§ÙĨÙĥÙħ": 3813, "ÙĤØ¯ÙħÙĪÙĨ": 4187, "ĠÙĦØ´Ø±": 7302, "ĠØ´ÙĩØ¯Ø§Ø¡": 2267, "ĠÙĪØ§ÙĦÙĤÙħØ±": 1544, "ĠØ§ÙĦÙĥØ¨Ø±Ùī": 3860, "ĠØ³ÙĤÙĬÙħ": 7667, "ĠØ³ÙĥÙĨ": 7673, "ĠØ§ÙĦÙħÙģØª": 7736, "ØªÙħÙĪÙĨÙĬ": 9300, "ĠØ´ÙĩÙĬØ¯Ø§": 1543, "ØŃØ±ÙĬÙĨ": 8459, "ĠØ¹ÙĬÙĨÙĬÙĥ": 9314, "ĠÙģØ£ØªØ¨Ø¹": 2931, "Ø§Øµ": 580, "ĠØ³Ø±Ø±": 4484, "ĠÙĪÙĨÙĪØ±": 8246, "ĠÙģØªÙĦÙĤÙī": 8327, "ĠØ·Ø§ØºÙĪÙĨ": 9998, "ĠØ£ÙĪØŃ": 1644, "ĠØ£ÙĪØ³Ø·": 7870, "ĠØ¯Ø¹Ø§ÙĨØ§": 9611, "ĠØ¨Ø£ÙĬØ¯ÙĬÙĥÙħ": 9680, "ĠØ±ÙĬØ¨": 1632, "ĠØ±Ø¨ÙĥÙħØ§": 1073, "ĠØ£ÙĬØ§Ùħ": 1500, "ĠØ§ÙĦÙĤØ¯Ø³": 5422, "ĠÙħÙģØª": 3932, "Ø¯ÙĤ": 5650, "ĠØ§ÙĦØ¥Ø«Ùħ": 2996, "ÙģØ§": 379, "ĠÙģØ§Ø·Ø±": 3887, "ĠØ§ÙĦØ£Ùħ": 1143, "ĠØ¹Ø§ÙĦ": 1505, "ĠÙħØªÙĥØ¦ÙĬÙĨ": 3416, "ĠÙħØ±Ø¬Ø¹ÙĩÙħ": 4488, "ĠÙĦØ±Ø³ÙĪÙĦ": 4670, "<PAD>": 0, "ĠÙĬÙĥØ³Ø¨ÙĪÙĨ": 2000, "ĠÙĬØ³Ø£ÙĦÙĪÙĨÙĥ": 2762, "Ø¨Ø¹ÙĪØ«ÙĪÙĨ": 3415, "Ø®ÙĪØ§ÙĨÙĥÙħ": 4441, "ĠÙĬÙĨØ§Ø¯ÙĬÙĩÙħ": 5533, "ÙĬØªÙĩØ§": 6311, "Ø§ÙĩÙħ": 1269, "ĠÙĬØ¬Ø¯ÙĪØ§": 3982, "ĠÙĨÙģØ¹ÙĦ": 6562, "ĠÙĪÙĥØ±ÙĩÙĪØ§": 7165, "ÙĨÙĬØ©": 2363, "ĠØ¨Ø§ÙĦÙĦÙĬÙĦ": 3603, "ĠÙģØ§ÙĨØªØ¸Ø±ÙĪØ§": 6944, "ØŃÙĤØ§": 7406, "ØŃØ±ÙĬØ±": 5099, "ĠÙĪØµØ¯": 2173, "ĠØ§ÙĦÙĤØ±ÙĨÙĬÙĨ": 6050, "Ø¶ÙĦÙĩ": 7569, "ÙĪØ¯ÙĩÙħ": 8286, "ĠÙĬØ£ØªÙĬÙĥÙħØ§": 8845, "ĠØ¸ÙĨÙĨØ§": 9381, "ÙĤØªÙĦÙĪØ§": 2118, "ĠÙĬØ±ÙĬÙĥÙħ": 4688, "Ø¹ÙĦ": 159, "Ø°Ø±Ø§": 7348, "ĠØ¥ÙĥØ±Ø§": 7384, "ĠÙĪØ¨": 436, "ĠÙĪØ§Ø³ÙħØ¹ÙĪØ§": 4981, "ÙĤÙĪÙĨÙĩ": 8346, "ĠÙħØ³ÙĦÙħØ§": 8516, "ĠØ§ÙĦØŃØ³Ø§Ø¨": 1803, "ĠÙĪØ¥Ø«Ùħ": 7825, "Ø¹ÙģØ§": 4634, "ĠÙħÙĪÙĦØ§ÙĨØ§": 9556, "ĠÙĪØ£ÙĨØ²ÙĦÙĨØ§": 2235, "ĠÙĦÙĦØªÙĤÙĪÙī": 4992, "ĠØªØŃØ§Ø¬ÙĪÙĨ": 8398, "ĠÙĪÙĬØ¨Ø´Ø±": 9576, "ĠÙĪØ¢ÙĬØ©": 5146, "ĠÙĪØ§ÙĦØŃÙĥÙħØ©": 2433, "ĠØ¨Ø°ÙĦÙĥ": 5712, "©": 12, "ĠØ¥Ø¨Ø±Ø§ÙĩÙĬÙħ": 701, "ĠÙĪØ§ÙĦØ¢Ø®Ø±Ø©": 1568, "ĠØªØ³ØªØ¹Ø¬ÙĦÙĪÙĨ": 3349, "ÙĦÙħÙĨØ§": 7654, "ĠÙĨØ¬Ø§ÙĨØ§": 8891, "ĠØ§ÙĦØ£ÙĪÙĦ": 960, "ĠØ§ÙĦØŃÙħØ¯": 1268, "ĠÙĪØ³ÙĬÙĤ": 8663, "ĠØ§ÙĦØ£Ø³Ø¨Ø§Ø¨": 5944, "ĠÙĬÙĨÙĤØ°ÙĪÙĨ": 10288, "ĠÙĦØºØ§ÙģÙĦÙĬÙĨ": 9132, "ĠÙĨØ¨Ø£": 1835, "Ø¬ÙħØ¹": 4030, "ĠØ§Ø³ØªÙĥØ§ÙĨÙĪØ§": 10014, "Ø´Ø¦": 7579, "ĠÙĬÙĨØµØ±ÙĨÙĬ": 9552, "ĠØ£ÙĨØ²ÙĦÙĨØ§": 942, "ĠØ§ÙĦØ£ØµÙģ": 7817, "ĠØ¹Ø°Ø±Ø§": 7453, "ĠØ£Ø´ÙĬ": 5195, "ÙĬØ¶": 4582, "ĠÙĪÙĬØ²ÙĬØ¯ÙĩÙħ": 4557, "ĠÙĥÙģÙĪØ±": 4032, "ĠÙĦÙģØ§": 5684, "ĠØ§ÙĦÙĤÙĪÙĦ": 1204, "ĠØ¨ÙĩÙħØ§": 5715, "ĠØ±Ø¬Ø¹ÙĪØ§": 8706, "ĠØ£Ø¬Ø±Ùĩ": 6503, "ÙĤØ·Ø¹": 7341, "ĠØ¨Ùĥ": 659, "ĠÙĪØ§ÙĦÙģ": 2891, "ĠØªÙĪÙģÙī": 9601, "ÙģÙĬ": 417, "ĠÙĬÙħØ³Ùĥ": 4456, "ÙĩØ¯": 192, "ĠØ§ÙĦØ¹ÙĦÙħ": 1179, "ĠÙĬØ¬ÙĬØ±": 6368, "ĠÙħÙĨØ§Ø²": 7430, "ĠØ¹ÙĤØ¯Ø©": 6953, "ĠÙĤÙĪÙĦÙĪØ§": 7530, "ĠÙģØ°Ø±ÙĩÙħ": 3474, "ĠØ¶Ø¹ÙĬ": 5060, "ĠØ£Ø¥ÙĦÙĩ": 4420, "ĠØªØºÙĬ": 7486, "ĠØ§ÙģØªØ±Ø§Ø¡": 9083, "ĠØ²ÙĪØ¬ÙĩØ§": 5340, "ĠÙĬØ¤ØªÙĥÙħ": 5185, "ÙĪÙģÙĬÙĨÙĥ": 6166, "ÙĪØ¡": 657, "ĠØ¨ÙĬÙĪØªØ§": 2828, "ĠÙĬÙĪÙħÙĥÙħ": 4193, "Ø³ÙĨÙĬ": 5657, "ĠÙģØªÙħØªØ¹ÙĪØ§": 7292, "Ø£Ø¬ÙĪØ¬": 7422, "ĠØªØ£Ø°ÙĨ": 8594, "ĠÙĪÙĦÙĬØ²ÙĬØ¯": 8554, "ĠÙĬØ¹ÙħÙĦÙĪÙĨ": 752, "ĥ": 35, "ĠØ¨Ø±Ùĥ": 7366, "ĠÙĪØ¢ÙĬØ§ØªÙĩ": 10184, "ĠØªØ¤ÙħØ±ÙĪÙĨ": 10223, "ĠØªØ¹Øª": 3297, "ĠØ§Ø¹ÙĦÙħÙĪØ§": 6063, "Øµ": 98, "ĠØ¬Ø§Ø¡ÙĪÙĥÙħ": 6164, "ĠÙĦØ£Ø¬Ø±Ø§": 6306, "ĠØ§ÙĦØ®ÙĪØ§ÙĦÙģ": 10302, "Ø°Ø¨ØŃ": 6071, "ĠØ®Ø³Ø§Ø±Ø§": 7056, "ÙģØªÙĩÙħ": 7397, "ĠØ§ÙĦÙħÙĥØ°Ø¨ÙĬÙĨ": 3578, "ĠÙĦØ·ÙĬÙģ": 4671, "ĠÙĪÙĬØŃÙĦÙģÙĪÙĨ": 9397, "Ø±ÙĬØŃØ§ÙĨ": 10113, "ĠØ³Ø£ÙĦØªÙĩÙħ": 3406, "ĠØ§ÙĦØ¨Ø£Ø³": 8543, "ĠÙĪÙĤÙĨØ§": 7973, "ĠÙĪÙĦØ°ÙĬ": 7839, "ĠÙĤØ¨ÙĦÙĬ": 6449, "ĠØ§ÙĦØ³ÙĨÙĬÙĨ": 7877, "ĠØ¹Ø±Ø¶ÙĩØ§": 9416, "ĠÙĦØ§Øª": 3475, "ĠÙĬØ¨ØªØºÙĪÙĨ": 3900, "Ø±ÙĤØ¨": 7124, "ĠØ£ÙĨÙī": 1864, "ĠÙĦØªÙĥÙĪÙĨÙĪØ§": 8571, "ĠØ³ÙħÙĬØ¹": 1453, "ĠÙģØ´Ø§Ø±": 7290, "ĠÙħØ¨Ø§Ø±Ùĥ": 3095, "ĠØ£ÙĪØ¢Ø¨": 7873, "ĠÙģØ¥ÙĦÙĬÙĨØ§": 7995, "ØªØ©": 1497, "ĠØ§ÙĦØ¯Ø±Ø¬Ø§Øª": 10294, "Ø§Ø¯Ø±": 2715, "ĠÙħÙĨØ°Ø±": 4012, "ĠØ³ÙħØ¹ÙĩÙħ": 6568, "ĠØ§ÙĦØ¨ÙĦØ§Ø¯": 4489, "Ø·ÙħØ¹": 5861, "ĠØ¨Ø¢Ø¨Ø§Ø¦": 9285, "ÙĬØ§ÙĬ": 7865, "ĠØ¨ÙħØ¬ÙĨÙĪÙĨ": 8916, "ĠÙĥØ¨ÙĬØ±ÙĩÙħ": 9420, "ĠÙĪÙħØ£ÙĪØ§": 4282, "ĠÙģØ§Ø±": 1764, "ĠÙĬÙĦØŃØ¯ÙĪÙĨ": 6951, "ĠÙĪØ§ÙĦÙĨØ®ÙĦ": 6489, "ĠÙĨØ³Øª": 4798, "ĠÙĪØ§Ø³ØªÙĥØ¨Ø±ÙĪØ§": 5256, "ĠÙĪØ£ÙĪØ°ÙĪØ§": 10249, "ĠØ£Ø¹Ø±Ø¶ÙĪØ§": 6350, "ĠØªØµÙĦ": 8965, "ĠÙħØŃØµÙĨÙĬÙĨ": 10018, "ĠÙĦÙĦØ®Ø¨ÙĬØ«": 10122, "ĠØ¯Ø¹ÙĪØ©": 5311, "ĠÙĪØ§ÙĦÙĨØ¬ÙĪÙħ": 6983, "Ø¹Ø§ÙĨ": 7223, "ĠØ£ÙħÙĬÙĨ": 2354, "ĠØ¸Ø§ÙĦÙħÙĪÙĨ": 3263, "ÙĤØ§ÙħØ§": 8221, "Ø´Ø±Ùĥ": 508, "ĠÙĪØ§ÙĦØ¨ØŃØ±": 2809, "Ø§Ø¦ÙģÙĬÙĨ": 8067, "ĠÙĤÙĬÙĦØ§": 5789, "ĠÙģØªÙĨÙĤÙĦØ¨ÙĪØ§": 9788, "ĠØ·ÙģÙĦØ§": 8277, "ĠØ§ÙĦÙĦ": 5583, "ĠÙģØ¨Ø´Ø±ÙĩÙħ": 6424, "ĠÙħØ¬Ø±ÙħÙĬÙĨ": 2447, "ĠØ´ÙĩØ±": 3591, "ĠÙģØ§ØªÙĤÙĪØ§": 1739, "ĠÙħÙĦØ§ÙĤ": 3457, "ĠØ£Ø±Ø§Ø¯": 1545, "Ø·Ùĩ": 7684, "ĠØ£Ø¬": 392, "ĠØŃØ±Øµ": 8866,
[...]
