{"Ø°Øª": 4693, "Ø¬Ø¹ÙĦ": 667, "ĠØªØ®Ø±": 7468, "ĠÙĦÙĬØªÙĨÙĬ": 2940, "ĠØ¹ÙĨÙĬØ¯": 5971, "ĠØ³Ø§Ø¬Ø¯ÙĬÙĨ": 4072, "ÙĬØ¯": 170, "ĠØ§ÙĦÙħØ¨Ø·ÙĦÙĪÙĨ": 4849, "ÙĪÙĤÙĨÙĬÙĨ": 8773, "ĠÙĪÙĤÙĦØ¨Ùĩ": 6032, "ĠØ¹Ø¯Ø¯Ø§": 6469, "ØŃÙĥÙħØ©": 6532, "ĠÙĥÙĨØªÙħ": 309, "ĠÙħØ³ØªÙĤ": 2399, "Ø¬Ø±ÙĪØ§": 2103, "ĠÙģØ¹ÙĦØªÙħ": 9088, "ĠØ¬ÙĨØ§Øª": 705, "ĠÙģØ³Øª": 3472, "ĠØ±Ø¬Ø§ÙĦ": 3003, "ĠÙģØªÙĥÙĪÙĨØ§": 9582, "ÙĦØªÙĨØ§": 6366, "ĠÙĬØ¨Ø¯ÙĦ": 4449, "ÙĬØ´": 4583, "ĠÙĪØ£ÙħØ§": 1193, "ÙĤ": 68, "ĠÙĦÙĬÙĥÙĪÙĨ": 4941, "ĠÙĬØ£": 345, "Ø´Ø±": 216, "ĠØªØ£": 494, "ÙĪØ¬ÙĬÙĨ": 8685, "ĠÙħÙĨØªØ¸Ø±ÙĪÙĨ": 6919, "Ø¯Ø¹": 1853, "ĠØ¨Ø¹Ø¯": 286, "ØµÙĬØ©": 4772, "ĠØ¹Ø¯ÙĪ": 1378, "ĠÙĪØ¬Ø§Ø¡ÙĩÙħ": 6628, "ĠÙģÙģØ³": 7276, "ĠØ¢ÙĨØ³": 7709, "ĠÙħØµØ¨ØŃÙĬÙĨ": 4407, "ĠÙĪÙĦÙĨØ³": 7838, "ĠØ±Ø¡": 1786, "ĠØªØ®ØªØµ": 8731, "ĠØ§ÙĦÙĥÙĩÙģ": 4956, "ØªØ±": 3438, "ĠØ²Ø§Ø¯ÙĩÙħ": 6901, "ĠØªÙĨÙĤØµ": 8613, "ĠÙĪÙĬØ®Ø´": 9577, "ĠÙĬØ±ØŃÙħÙĥÙħ": 10293, "ĠØ¨Ø¯Ø£": 9203, "ĠØ§ÙĦÙĤÙĪÙĦ": 1204, "ÙĪÙħØ§": 2834, "ĠÙħÙĨ": 80, "ĠÙģÙĥÙģØ±ÙĪØ§": 6382, "ĠÙĦÙĬØ±": 3111, "ĠØªÙĥÙģØ±ÙĪØ§": 5107, "ĠÙĪØªÙĪØ§ØµÙĪØ§": 4997, "ĠÙĨÙĥÙģØ±": 9033, "ĠÙĬØ£ØªÙĬÙĩÙħ": 1907, "ĠØ¬Ø§Ø¡ÙĪÙĩØ§": 6163, "ĠØªÙĬØ³Ø±": 7499, "ĠÙĦÙĦÙħØ¬Ø±ÙħÙĬÙĨ": 8694, "ĠØ§ÙĦØªÙĪØ¨Ø©": 5242, "ĠØ®Ø·Ø¨Ùĥ": 9373, "ĠØ¹Ø¬": 1562, "ĠØ£Ø¹Ø¬": 2238, "ĠØ¨Ø§ÙĦØ¹Ø±": 4891, "ĠÙĪÙĨÙĤØµ": 8251, "ĠØªÙĨØ³": 7478, "ĠÙĦÙĬØ¹Ø¨Ø¯ÙĪØ§": 8003, "ĠØ¨ÙĬÙĨÙĨØ§": 1720, "ĠØ®ÙĪÙģ": 1457, "ĠÙĬØªØ®Ø§Ùģ": 8122, "ĠØ´ÙĩÙĪ": 4873, "ĠØºÙĨÙĬØ§": 6077, "ĠÙĬØŃØ²": 1524, "ĠÙĪØ§Ø²Ø±Ø©": 4545, "ĠÙĦÙĬØ¸ÙĦÙħ": 6055, "ØªÙĩÙĪÙĨ": 3268, "ÙĪØ¹Ø§": 2621, "ĠØ¨Ø¥Ø°ÙĨÙĩ": 2799, "Ø´Ø²ÙĪØ§": 7581, "ĠÙĩÙĪØ§Ùĩ": 3559, "Ø°ÙĬÙĤ": 5218, "ĠØ¨Ø§Øº": 5718, "Ø¦Ø§Ø¡": 5868, "ĠÙĬØ·ÙĩØ±": 9115, "ĠØ¢ÙĦ": 1192, "ĠÙĪØ§ÙĦÙħÙĩØ§Ø¬Ø±ÙĬÙĨ": 6378, "ĠÙĬÙĨØµØ±ÙĪÙĨ": 1650, "ĠÙģØ§Ø±ØªÙĤ": 6728, "ĠÙĦØ¹ÙĦÙĩ": 6438, "ĠØ¯Ø§Ø¨": 1645, "ĠÙĪÙĦÙĬØ²ÙĬØ¯ÙĨ": 10305, "ĠØ§ÙĩØªØ¯ÙĪØ§": 5390, "ĠØªØ¬ÙĩØ±": 8581, "ĠØªØ®Ø§ÙģÙĪÙĨ": 4337, "ĠÙħØ³ÙħÙī": 1432, "ĠØŃØ³Ø¨ÙĬ": 8819, "ĠØ¥ÙĨÙĬ": 404, "Ø²Ùī": 2203, "ĠÙĬØµØ¯": 2061, "ĠÙģØ§ØµØ¨Ø±": 2425, "ĠÙĪØ§ÙĦØŃÙĥÙħØ©": 2433, "ĠØŃÙĬØ§Ø©": 4858, "ĠÙģÙĨØ§": 3105, "ĠÙĬØ¬Ø¯ÙĪØ§": 3982, "ĠØ¹ÙĩØ¯Ø§": 5361, "ĠØ£ÙħÙĩØ§ØªÙĩÙħ": 6835, "ĠØ¨ÙĪÙĦ": 7355, "ĠØªØ®Ø´": 3744, "Ø±Ø³ÙĪÙĦÙĩ": 4968, "ĠÙģØ§Ø®Ø±Ø¬": 5409, "ĠÙħØµ": 1104, "ĠÙģØ§ÙĦÙĨØ§Ø±": 8902, "ÙĨØ§": 82, "ĠÙĬØµÙĦÙĪÙĨ": 3011, "ĠÙĪØ§ØºÙģØ±": 5212, "ĠÙģÙĦÙĥÙħ": 6180, "Ø®": 97, "ÙĬÙĤ": 1608, "ĠØ²ÙĦ": 4272, "Ø·Ø±": 836, "ĠØ¹Ø±Ø¶": 1949, "ĠØ®Ø§Ø³Ø±ÙĬÙĨ": 4106, "ĠÙĪØ¢Ø«Ø§Ø±Ø§": 10144, "ĠÙĪØ£ÙĦÙĤÙĬÙĨØ§": 5384, "Ø°ÙĪÙĨ": 3488, "Ø§Ø¯ÙĬØ«": 4148, "ĠÙĥØªØ§Ø¨Ùĩ": 4334, "ĠÙĪØ£Ø¹ÙĦÙħ": 5876, "Ø®Ø§": 4047, "ĠØ§ØµØ·": 3858, "ĠÙĪÙĤØ¯": 798, "ĠØ£Ø´ÙĬ": 5195, "ĠÙĪÙĦÙĦÙħØ¤ÙħÙĨÙĬÙĨ": 5522, "ĠØ§Ø³ØªÙĬØ³Ø±": 8564, "ĠÙĪØ£ØµÙĬÙĦØ§": 5260, "ĠØ§ÙĦØ¹Ø¸ÙĬÙħ": 1011, "ĠÙĪØ¥ÙĬØ§ÙĥÙħ": 5452, "Ø§ÙģØ§Øª": 6220, "ĠÙĤØ¶ÙĬØª": 6957, "Ø¹Ø¨Ø©": 7229, "ĠØ£ÙĩØ¯": 7234, "ĠÙħØªÙĥØ¨Ø±": 8801, "ĠØ¥Ø¨Ø±Ø§ÙĩÙĬÙħ": 701, "Ø§Ø³Ø±ÙĬÙĨ": 1606, "ĠÙĪØ§ÙĦØ²Ø¨Ø±": 9837, "ÙĦÙģ": 349, "ĠÙĬÙģØª": 1066, "ĠØ£Ø¯Ø¨Ø±": 5215, "ĠÙģØ£ØµÙĦØŃÙĪØ§": 6607, "ĠØ´ÙĬØ·Ø§ÙĨ": 4971, "ĠÙĪØ£Ø¬ÙĦ": 4838, "ĠØ§ÙĦØ¶ÙĦØ§ÙĦ": 6842, "ĠØ¨Ø§ÙĦØ¢ÙĬØ§Øª": 7850, "ĠØ¹ØµÙĬØª": 5297, "ĠÙĬØ·ÙħØ«": 9117, "ĠÙĪÙĤØ§Ø±ÙĪÙĨ": 10103, "Ø´Ø±Ø§": 2328, "ĠØ¨Ø¹": 265, "ĠØ¨Ø¢ÙĬØ§Øª": 506, "ØªØ¨Ø¹": 1430, "ĠÙģØ³Ø¨ØŃ": 2303, "ĠØ¯Ø±Ø¬": 1804, "ĠÙģØ¶ÙĦØ§": 2786, "ĠØ§ÙĦÙĪØ§ÙĦ": 5587, "ĠÙĪØ§ÙĦÙħØºØ±Ø¨": 4317, "Ø§Ø¸": 4043, "ĠÙĬØ±Ø¯": 1588, "ĠØ£Ø³ÙģÙĦ": 6406, "ĠÙĪØ§Ø¬Ø¹ÙĦ": 3239, "Ø¨Ø¹Ø¶": 1295, "ĠÙģÙĦÙĬØ³": 3343, "ĠØ§ÙĦØ¹ÙĬØ±": 7960, "ĠØ£Ø¹ÙĪØ°": 3724, "Ø¯Ø¹ÙĪÙĨ": 3956, "ĠÙĩÙĨÙĬØ¦Ø§": 5543, "ĠØ¯ÙĪÙĨÙĩÙħØ§": 8391, "ĠÙĬØ®ÙģÙī": 5104, "ĠØ³ÙĨÙĨ": 9059, "ĠÙħØ´Ø±Ø¨ÙĩÙħ": 9923, "Ø·ÙĩØ±ÙĥÙħ": 6699, "ĠÙĪÙĤÙĪØ¯ÙĩØ§": 10106, "ĠØ·Ø¨Ø§ÙĤØ§": 10296, "ĠÙģØ§ÙĨØ¸Ø±": 2141, "ĠØ¹ÙĨÙĩÙħØ§": 4895, "ĠØªØ±Ø¶ÙĪÙĨ": 7490, "ĠØ¹ÙĦÙħØª": 2992, "ĠØ§ÙĦØ±Ø§ØŃÙħÙĬÙĨ": 3882, "ÙĦÙĬÙĦØ§": 703, "ĠÙĪÙĦÙĥÙĨÙĬ": 5090, "ÙĪØ±Ø§Øª": 4957, "ĠØªÙĦØ¨": 4024, "ĠÙĬØ¤ØªÙī": 8722, "ĠØ£Ø²ÙĪØ§Ø¬ÙĥÙħ": 3783, "ĠÙĨØ³ÙĤÙĬÙĥÙħ": 8786, "ĠØªØ¶": 2316, "Ø¨ÙĬÙĩ": 2095, "ÙģÙĨØ§": 7389, "ĠØªÙĥØ°Ø¨Ø§ÙĨ": 1126, "ĠØŃØ¸": 4852, "ĠÙĪØ¥Ø®ÙĪØ§ÙĨÙĥÙħ": 7828, "ĠÙĪØ·Ø¹Ø§Ùħ": 6652, "ĠÙĪØ²Ø±": 2577, "ĠØŃØ³Ø¨Ùĥ": 9297, "ĠØ¨Ø¶": 4702, "ĠÙĤØ·ÙĪÙģÙĩØ§": 9948, "ĠØ§ÙĦØ¢ÙĨ": 4496, "ĠÙĪÙĦØ¦ÙĨ": 1070, "ĠØ±ÙĤÙĬØ¨Ø§": 9487, "ĠÙĬÙĨØ¨ØºÙĬ": 3879, "ÙĤØ±": 776, "ÙĩØ§Ø¬Ø±ÙĬÙĨ": 4542, "ÙģØªØŃ": 2003, "ĠØ¹Ø²ÙĬØ²Ø§": 3360, "ĠØ§ÙĦØªÙĪØ±Ø§Ø©": 1909, "ÙĬÙĨØ§ÙĩÙħ": 2521, "ĠÙĬÙĨØªØµØ±ÙĪÙĨ": 9984, "ĠÙĦØ´": 2645, "ĠØ°ÙĥØ±ÙĬ": 4343, "ĠØªØµÙģÙĪÙĨ": 5248, "ĠÙĪØ³Ø±": 4613, "ĠØ§Ø®ØªØ±": 9153, "ĠÙģØ§ØªØ¨Ø¹ÙĪÙĨÙĬ": 10312, "ĠØ§ÙĦØµØ¯ÙĪØ±": 1840, "ĠØ§ÙĦÙĤÙĪØ©": 6047, "ÙĦÙĪÙĨØ§": 4917, "ĠØ§ÙĦÙħØ¹Øª": 3577, "ĠÙģÙĨÙģØ®": 9020, "ĠØ³ÙħØ¹ÙĨØ§": 1837, "ĠØªÙģØ¹ÙĦÙĪØ§": 2791, "ĠÙģØ¹Ùħ": 7274, "ĠØ°ÙĦÙĥÙħ": 878, "ĠØ§ÙĦØ³Ø§Ø¹Ø©": 1031, "ĠÙĪØ¶Ø§": 7157, "ĠÙģØ§Ø±": 1764, "ĠØ§ØŃÙĥÙħ": 8015, "ĠÙĬÙĤÙĪÙĦ": 811, "ĠØ¨ÙĩØ°Ø§": 1983, "ĠÙĪØ§Ø¨ÙĦ": 6630, "ĠÙħØ±ÙģÙĪØ¹Ø©": 7069, "ĠÙģØµÙĦÙĨØ§Ùĩ": 9217, "ĠØºØ¯": 4960, "ĠØ§ÙĦÙģØ³Ø§Ø¯": 3897, "ĠØ§ÙĦÙħÙħØª": 4846, "ĠØ±Ø¯Ø¯ÙĨØ§": 9567, "ĠÙģØªÙħØªØ¹ÙĪØ§": 7292, "ÙĤÙĪÙĨÙĩ": 8346, "ĠØ§ÙĦØ¬": 326, "ĠÙĬØ³": 441, "ÙĦØŃ": 523, "Ø¤ÙħÙĨØ§Øª": 1420, "ĠÙĦÙĬØ¤ÙħÙĨÙĪØ§": 4944, "Ø³Ø·ÙĪÙĨ": 8853, "ĠØ¨Ø§Ø±Ø¦ÙĥÙħ": 9754, "Ø§ØªÙĦ": 1703, "ĠØ£ÙĨÙĥÙħ": 1957, "ĠØ¹Ø¬ÙĦ": 7444, "Ø§Ø¦ÙģÙĬÙĨ": 8067, "Ø§Øµ": 580, "ĠØ¥ÙĦØ§": 149, "ĠØ¹ÙĪØ±Ø§Øª": 7452, "ĠØ¬Ø¹ÙĦÙĨØ§ÙĥÙħ": 8896, "ĠÙĦØ±Ø¨ÙĩØ§": 9353, "ĠÙħØ£": 7196, "Ø®Ø°ÙĪØ§": 807, "ĠØ£ÙĥÙĨ": 4291, "ĠÙĪØ§ÙĦØ°ÙĬ": 1866, "ĠØ±ÙĤÙĬØ¨": 9486, "ĠØ¬Ø§ÙħØ¹": 6894, "ĠØ¨Ø£ÙģÙĪØ§": 2966, "ĠÙĬÙĨÙģÙĤ": 4209, "ĠØ®ÙĦ": 7781, "ĠÙģØ¹ÙĦØª": 6603, "ĠØ¨ÙħØµØ§Ø¨ÙĬØŃ": 10311, "Ø¸Ø§": 1163, "ĠØ®Ø±Ø¯ÙĦ": 10257, "ĠØ¬Ø¹ÙĦÙĥÙħ": 3761, "ĠÙĪØ£ÙĦ": 4834, "ÙĬØ§ØªÙĥÙħ": 8049, "ĠØªØ·ÙĦØ¹": 6764, "ÙģØ³": 196, "ĠØ®ÙĦÙĤÙĨØ§ÙĥÙħ": 3035, "Ø¥ÙĨ": 7588, "ĠÙĪØ§ÙĦÙĨØ³Ø§Ø¡": 7608, "ĠØªÙĤØªÙĦÙĪØ§": 3139, "ĠÙĬØªÙĪÙĦÙĪÙĨ": 9580, "ØºÙī": 2341, "ĠÙĪØ¬": 232, "ĠØ¨ØµØ§Ø¦Ø±": 4430, "ĠÙĪÙģØ§ÙĥÙĩØ©": 6994, "ĠØ§ÙĦÙħØ±Ø¡": 4847, "ÙħØŃÙĪÙĨ": 7096, "ĠØªØ°ÙĥØ±": 2666, "ĠØªÙģÙĬ": 4023, "Ø§Ø¯ÙĦÙĪØ§": 7915, "ĠØ¬Ø¦ØªÙħ": 9092, "ĠÙĬØºØ´ÙĬ": 8807, "ĠÙĨØ§ÙģÙĤÙĪØ§": 9956, "ĠØªÙĤØ¯ÙĬØ±Ø§": 9481, "ĠØ§ÙĦÙĨØ¹ÙĬÙħ": 2544, "ĠÙĦÙĩÙĪ": 1585, "ĠØ£ÙħØ©": 828, "ĠÙģØ£Ø®Ø°": 1203, "ĠØ¨Ø¹Ø¶ÙĨØ§": 6265, "ĠØµØ±ØŃØ§": 8869, "ĠØ¨Ø¢ÙĬØ§ØªÙĩ": 5144, "ĠÙĬØªÙĪØ¨ÙĪØ§": 9432, "ĠØªÙĤØ¯": 2196, "ÙĤÙĬÙħ": 595, "ĠØ¨Ø§Ø¨": 4703, "ĠØ¨Ø§Ø±ÙĥÙĨØ§": 3997, "ĠØ¨Ø§ÙĦØ¬": 7845, "ĠÙģÙĪØ³ÙĪØ³": 7296, "ĠÙģØ£ÙĨÙī": 2408, "Ø¨Ø·": 1039, "ÙĩØ¯Ùī": 729, "ĠÙĤØ±Ø§Ø±": 4766, "ĠÙĩ": 112, "ĠÙĪÙĥÙĦÙħ": 4951, "ØµØ§Ùĥ": 5805, "ĠÙĪØ¹Ø¯ÙĩÙħ": 8690, "ĠØ§ÙĦØ¹Ø¸Ø§Ùħ": 6023, "ĠØ¨Ø®Ø§Ø±Ø¬": 6635, "ĠØ¹Ø¸Ø§ÙħØ§": 4735, "ĠØªØ£ØªÙĬÙĥÙħ": 8598, "ĠØ¨ÙĨÙĬØ§ÙĨÙĩÙħ": 8822, "ĠÙĪØªÙĥÙĪÙĨÙĪØ§": 8158, "ĠØ®Ø§Ø´Ø¹ÙĬÙĨ": 6831, "ĠÙĪØ§ÙĦØª": 4793, "ĠÙħØ§Ø¦": 2180, "ĠÙĬØ¸ÙĦÙħ": 3980, "ĠÙĬÙĩØ¯": 1690, "ĠØ¶Ø±Ø§Ø¡": 6856, "ĠÙĪÙĦØ¢": 7836, "ĠÙģÙĬÙĤÙĪÙĦÙĪØ§": 9389, "ĠÙĬØŃØ§ÙĪØ±": 8173, "ĠÙĤØ¨ÙĦ": 302, "ĠÙĤÙĪÙĦØ§": 1565, "ĠØ¢ÙĨ": 4074, "ĠØ§ÙĦÙĨØ¨ÙĬÙĪÙĨ": 8942, "ĠÙĪÙģÙĬÙĥÙħ": 8959, "Ø¬ÙĪÙĨ": 1782, "ĠØ§ÙĦÙħØªÙĤÙĬÙĨ": 1363, "ĠÙħØ¸": 7199, "ĠØ§ÙħØª": 8014, "ĠØ£ÙĨØ´Ø£ÙĥÙħ": 4501, "Ø¶Ø±Ø§": 5814, "ĠØ£Ø¹ÙħØ§ÙĦ": 934, "Ø¹ÙĬÙĨ": 1062, "ĠØ¹Ø§Ø¯": 1441, "ØºÙĪ": 2911, "ĠØ³ÙĦØ§ÙĦØ©": 7681, "ĠØ§ÙĦØ£Ø¯ÙĨÙī": 7819, "ĠØ¨Ø¯ÙĦÙĨØ§": 6655, "ĠÙģØ£Ø®Ø°ØªÙĩÙħ": 2597, "ĠÙĦÙĤÙħØ§ÙĨ": 8531, "ĠØ£Ø¹ÙĬØ¯ÙĪØ§": 8607, "Ø¬Ø¹": 796, "ĠÙĨØ§Ø¯Ùī": 3384, "Ø§ØªÙĦÙĪÙĨ": 2079, "ĠÙĪØ¯Ø®ÙĦ": 5607, "Ø¯ÙĥÙħ": 1619, "Ø©": 90, "ĠÙĪØ³ÙĦØ·Ø§ÙĨ": 6391, "ĠØ£ÙĨØ¬": 4791, "ÙĪÙĦÙī": 848, "ĠÙĪÙħÙĨØ§": 3697, "ĠØ§Ø«ÙĨÙĬÙĨ": 2603, "ĠØ£Ø¨Ø±": 4638, "ĠØ£ÙĨØ°Ø±ÙĪØ§": 5834, "ĠÙħÙĨØ¶ÙĪØ¯": 7433, "ĠÙĦÙħØ¤ÙħÙĨ": 8093, "ĠÙģØ£ØµØ¨ØŃØªÙħ": 9343, "Ø±Ø§Ø±Ø§": 2347, "ĠÙĦÙĦØ·": 4211, "ÙĬÙħØ§ÙĨÙĩÙħ": 5089, "ĠÙħÙĨØ²": 5740, "Ø³ÙĪØ§": 1620, "ĠÙĪÙĩÙĪ": 331, "ĠÙĬØªÙĤØ¨ÙĦ": 6123, "ĠØŃØ§Ùģ": 7755, "ØªÙĤÙĪÙī": 3362, "ĠØ³Ø¨ÙĬÙĦÙĩ": 2115, "ĠÙĪÙĬÙĤØ°": 7900, "Ø£Ø®Ø±ÙĪÙĨ": 3510, "ĠÙĬØºÙģØ±": 1503, "ÙĤØ§ÙĩÙħ": 4238, "ĠØ¨Ø±Ø³ÙĦ": 5719, "ĠÙĨØ§Ø¬": 7627, "Ø¹ÙĦ": 159, "ĠÙĪØ¬Ø¹ÙĦÙĨØ§ÙĩÙħ": 4371, "ĠÙģÙĦÙĪÙĦØ§": 2108, "ĠÙĬÙĦÙĤÙĪÙĨÙĩ": 9356, "Ø³Ø§Ø¨": 1501, "ĠØ§ÙĦØ®Ø§ÙĦ": 2554, "Ùī": 85, "Ø¯Ø§Ø©": 8199, "ÙģØµ": 3504, "ĠÙĦÙĬØ¯ØŃØ¶ÙĪØ§": 9752, "ĠÙĪÙħØªØ§": 3698, "ĠÙħØ¹ÙĦÙĪÙħØ§Øª": 10322, "ÙĬØ¹": 1607, "ĠÙĪÙĦÙĩÙĨ": 9067, "Ø£ÙĨ": 753, "ĠØ³ÙĬØ¡": 8709, "ÙĪÙĪØ¯": 7110, "ĠØ³ÙĦÙĬÙħ": 7665, "Ø±Ø´": 1178, "ĠØ§ÙĦØ¬ÙħØ¹": 2963, "ĠØªØ¹ÙĪØ¯ÙĪØ§": 8537, "ĠÙĪØ¥ÙĨÙħØ§": 6073, "ĠØ£Ø¸ÙĦÙħ": 1686, "ĠÙĦØ¹Ø¨Ø§Ø¯": 3327, "ĠÙĪØ¹Ø¯ÙĪÙĥÙħ": 8693, "Ø£ØªÙĪÙĨ": 2465, "ÙģØ¹ÙĪØ§": 5728, "ĠÙĪÙģØ±": 1755, "ĠÙĦÙĬÙĨ": 2306, "ĠØ«ÙĦ": 7920, "ĠØ§ÙĦÙĤØ§Ø³Ø·ÙĪÙĨ": 9614, "ĠØ£Ø³ÙĦØŃ": 6403, "ĠØ¨Ø§ÙĦØ´": 4130, "ĠÙĪÙĬØ¹ÙĦÙħÙĥÙħ": 6660, "ĠÙĪØ°ÙĦ": 9444, "ĠØ£Ø³ÙģØ§": 6402, "ĠØ¨ÙĨØ§ÙĩØ§": 7375, "ĠÙģÙĤÙĬØ±": 8618, "Ø«Ø§ÙĤ": 5866, "ĠÙĬÙĨØ¸Ø±ÙĪÙĨ": 1296, "ĠÙħØ´Ø±": 4621, "Ø±Øª": 7120, "ĠØ¹ÙĨØ¯Ùĥ": 2737, "ĠÙĬØŃØ³Ø¨": 3657, "ĠØ§ÙĦØ¹Ø¯Ø§ÙĪØ©": 5536, "ĠÙĥØ¨ÙĬØ±": 1952, "ĠÙģÙĨØª": 5670, "ĠÙĪØ§ÙĦÙģØ¶Ø©": 9649, "ĠÙģÙĨ": 1064, "ĠÙĪØ§ÙĦØ¢": 5837, "Ø°ÙĬÙĨ": 237, "ĠÙĪØ·": 1386, "ĠÙĪØ§ÙħØ±Ø£ØªÙĩ": 9785, "ĠÙĦØ¹ÙĦÙĥÙħ": 730, "ĠÙĬØ±Ùī": 3252, "ĠØ¨Ø¬": 1773, "ĠÙģÙĥÙĬÙģ": 1830, "ĠØ®Ø²ÙĬ": 3587, "ĠØªØ´ÙĩØ¯ÙĪÙĨ": 6485, "ĠØ£Ø³ØªØºÙģØ±": 9808, "ĠØ¯ÙĬØ§Ø±ÙĩÙħ": 2823, "ĠÙħÙĨÙĥ": 3511, "ĠÙĦØ¨Ø«": 1911, "ĠÙĪØ¬ÙĩÙĩ": 2414, "ĠÙĨØ¯Ø®ÙĦÙĩØ§": 9535, "ĠÙĪØ§ÙĦØ¥ÙĥØ±Ø§Ùħ": 9122, "ĠÙĪÙĬØ¤ÙħÙĨ": 7891, "Ø®ÙĪØ§ÙĨÙĥÙħ": 4441, "ĠÙħÙĨØ¹": 3129, "ĠÙĬÙħØ³ÙĥÙĩÙĨ": 9908, "ĠØ§ÙĦÙħØµØ¯ÙĤÙĬÙĨ": 7749, "Ø±Ø¯": 2171, "ĠÙĨØ³Ø§Ø¦ÙĩÙĨ": 8787, "ĠÙĦØ£ØŃØ¯": 6305, "ĠÙĬØ¹Ø±ÙģÙĪÙĨ": 3688, "ĠÙģØ£ÙĩÙĦÙĥÙĨØ§ÙĩÙħ": 6898, "ĠÙĥÙģÙĬÙĩ": 7521, "ĠÙĨÙĪØ±Ø§": 2690, "ĠØ§ÙĦÙĩÙĪÙī": 4607, "Ø²Ø§": 1955, "ĠØ£ÙĨÙģÙĤØªÙħ": 5507, "Ø¤ÙĩÙħ": 7843, "ĠØªØ±Ø¶Ùī": 7497, "ĠØ£ÙĨØ´Ø£ÙĨØ§": 5401, "ĠÙĪØ£ÙĪÙĦ": 4076, "Ø¨Ùĩ": 1498, "ĠÙĥØ£ÙĨÙĩ": 4439, "ĠÙĦÙĥØ¨ÙĬØ±ÙĥÙħ": 10005, "ÙĬØ§ÙĬ": 7865, "ĠÙĪØ®ÙĦÙĤØªÙĩ": 9560, "Ø§Ø¨Ø¯ÙĬÙĨ": 7644, "ĠÙĨÙĥ": 1089, "ĠØ£Ùĥ": 419, "Ø¯ÙĪÙĨ": 431, "ĠÙĪÙĦÙĪØ§": 4885, "ĠØ§ÙĦØŃØ·ÙħØ©": 10100, "ĠØªÙħÙĪØªÙĨ": 9904, "ĠÙģØ¬Ø§Ø¡": 4418, "ĠÙĨØ¹ÙħÙĦ": 4365, "ÙĬÙĨØ§": 194, "ØªÙĦÙĪ": 8938, "ĠØ¶Ø¹ÙģÙĬÙĨ": 6839, "Ø±Ø§ÙĩØ§": 5953, "ĠÙĪØ£Ø´Ø¯": 5884, "ĠÙĦØ¯ÙĨÙĩ": 9048, "ĠÙĬÙĩÙĦÙĥ": 3115, "ĠÙħØ®Ø±Ø¬": 3931, "ÙħØ§Ø±ÙĪÙĨ": 7461, "ĠÙĪÙĦÙĬØ§": 2122, "ĠØ£Ø®ÙĦÙģ": 8650, "ĠÙĦØ´ÙĬØ¡": 3972, "Ø±ÙĪÙĨØ§": 4898, "ĠØ¨Ø§ÙĦØ¹Ø±Ø§Ø¡": 9974, "ĠØ¬ÙħÙĬÙĦ": 7779, "ĠÙĪØ¬Ø¹ÙĦÙĨØ§": 819, "ĠÙĦØ¹ÙĨÙĩÙħ": 4344, "ĠÙĪØ§ÙĦØ£ÙģØ¦Ø¯Ø©": 4998, "ĠØ£Ø³Ø£ÙĦÙĥÙħ": 2395, "ĠØ®ÙĦÙĤÙĨØ§ÙĩÙħ": 6210, "ĠØŃÙĪÙĦÙĥÙħ": 9710, "ĠØªÙĤØ±Ø¨Ø§": 9789, "ĠØ§ÙĦÙĦØ¤ÙĦØ¤": 10181, "ĠØ§ÙĦØªØ§Ø¨ÙĪØª": 10035, "ĠÙħÙĪØ§Ø¶Ø¹Ùĩ": 6759, "ĠÙĤØ±ÙĬØ¨": 2025, "ÙĬØªØ§": 2045, "ĠÙĪØ¥Ø«Ùħ": 7825, "ĠØªØ¤Ø§Ø®Ø°": 9255, "ÙĩØªØ¯ÙĬÙĨ": 2780, "ĠØŃØ¨Ø·Øª": 3902, "ĠÙĬØ¶ØŃÙĥÙĪÙĨ": 6567, "ĠÙĨØ¨Ø±": 7617, "ÙĤÙĪØ§": 291, "ØºÙģØ±ÙĪØ§": 2983, "Ø°ÙĥØ±Ø©": 8429, "ÙĥÙĦÙħØ§": 7175, "ĠÙĬØµÙĦØ§ÙĩØ§": 8783, "ĠÙħÙĪØ³Ùī": 411, "ĠÙĪØªÙģØµÙĬÙĦØ§": 9989, "ĠÙħØ§Ø°Ø§": 1399, "ĠØ£ÙĬÙħØ§ÙĨÙĥÙħ": 1915, "ĠÙģØ¹": 1025, "ĠÙĬØ·ÙĪÙģ": 9113, "ĠÙĤØ¨ÙĦÙĨØ§": 8771, "ĠØ£ÙĥØ±": 5642, "ĠÙģØ²": 3106, "ĠØ³ÙģØ±": 3163, "Ø´ÙģÙĤ": 9185, "ĠØ§ÙĦØµØ§ÙĦØŃØ§Øª": 715, "ĠØªÙĤØªÙĦ": 7492, "ĠÙĦØ¬Ø¹ÙĦÙĨØ§": 5374, "Ø¦": 123, "ĠÙĪÙĤØª": 6026, "Ø´ÙĤ": 7578, "ĠÙĬÙħÙĦÙĥÙĪÙĨ": 2605, "ĠØ¨ÙħØ¹": 2311, "ĠÙĪÙĦØ£ØµÙĦØ¨ÙĨÙĥÙħ": 9336, "ÙħØ¹ÙĬÙĨ": 1335, "ĠØ§ÙĦØµÙĬØŃØ©": 3236, "ĠØ£ÙĬØ§Ùħ": 1500, "ĠÙĪÙĤØ§ÙĦ": 352, "ĠØ§ÙĦÙħÙĩØ¯": 5891, "Ø±Ø³ÙĪÙĨ": 8055, "ĠØªÙĦÙĥ": 1154, "ÙģØ³Ùĩ": 4938, "ĠÙĪØ§ÙĦÙĦØ§Ø¦ÙĬ": 10236, "Ø¬Ø±Øª": 5004, "ĠØªØ¬Ø¯ÙĪØ§": 3138, "ĠÙĪØ§ÙĦØµØ§Ø¨": 5305, "Ø¨ÙĬØ¯": 3926, "ĠØ³Ø¨Ø¹": 1452, "ĠÙĬØ¨ÙĦØº": 2862, "Ø§Ø¬ÙĪÙĨ": 4385, "ĠÙĪØ§ÙħØ±Ø£": 3648, "ĠØ§ÙħØ±": 3632, "ĠÙħØ¯Ø±Ø§Ø±Ø§": 6569, "ĠÙĪØªÙħØª": 5609, "ĠÙģÙĬÙĤØ³ÙħØ§ÙĨ": 7545, "ĠØ·ÙĦØ¹ÙĩØ§": 7022, "ØµÙĩ": 4048, "ĠØ¨Ø§ÙĦØ´Ø±": 7847, "ĠÙĪÙĬØŃÙĦÙģÙĪÙĨ": 9397, "ĠØ®Ø§Ø³Ø¦ÙĬÙĨ": 10089, "ĠØªØ¸Ø§ÙĩØ±ÙĪÙĨ": 9767, "ĠØ¯Ø±Ø¬Ø§Øª": 2277, "ĠØ£Ø´ØªØ§ØªØ§": 8794, "ĠÙģØ®": 2302, "ĠÙĬØ¹Ø¯ÙĩÙħ": 6762, "ĠØ¬Ø§Ø¡ÙĪÙĥ": 4227, "ĠØ®Ø§ÙĦÙĤ": 3314, "ØŃÙī": 4716, "ĠØ£Ø¬ÙĦØ§": 6254, "ĠÙĥØ§Ùģ": 3535, "ĠÙģÙĦÙĬØ¹ÙħÙĦ": 8883, "ĠØ§ÙĦØŃÙĤ": 468, "ĠØªØ§Ø¨": 1396, "ÙĩØ¨ÙĪÙĨ": 4596, "ĠÙĪÙĥÙģØ±": 2360, "ÙĨØ©": 371, "ĠÙĦÙĬ": 197, "ĠØ§ÙĦØ±ØŃÙĬÙħ": 375, "Ø³Ø§": 875, "ĠØ¢ÙĬØ§ØªÙĬ": 2555, "ĠÙĤØ¨ÙĦÙĩÙħ": 801, "ĠÙģØ£ÙĩÙĦÙĥ": 3208, "ĠØ´Ø¯Ø§Ø¯": 7805, "ĠØªØ²Ø±Ø¹ÙĪÙĨ": 9737, "Ùĩ": 53, "ÙĪÙĥ": 482, "ĠÙĬØ±ÙĪØ§": 1230, "Ø³ÙħÙĪØ§": 3232, "ĠØ§ÙĦØ´ÙĬ": 597, "ĠØ§ÙĦÙĬÙħÙĬÙĨ": 2172, "ĠØ§ÙĦØ¨ÙĬ": 1494, "ĠÙĨØ¸Ø±": 4803, "ĠÙĪÙĬØªÙħ": 7890, "ĠØ®Ø§ÙĦ": 549, "ĠÙħØ±ÙĬØ¨": 3401, "ĠØ¨ÙĦÙĤØ§Ø¡": 3417, "Ø³ÙĩÙħ": 3104, "ĠÙĬÙħØ³Ùĥ": 4456, "ĠÙĩØ§Ø¯ÙĪØ§": 2483, "ĠÙĬØ±ÙĪÙĨÙĩØ§": 9478, "ĠÙĦÙħÙĬÙĤØ§Øª": 6103, "ĠØªØ£Ø³": 8591, "ĠØ£ÙĨØ¨Ø¦ÙĥÙħ": 5833, "Ø±ÙĬÙĨØ§": 7122, "ĠØ®Ø§ÙĦØ¯Ø§": 6385, "ĠØ§ÙĦØºØ±Ùģ": 8524, "ØµÙĪØ§": 2676, "ĠØ¨Ø¯ÙĬØ¹": 9206, "Ø¸ÙĪÙĨ": 5950, "Ĭ": 42, "ĠØ¨ÙĦØ¯": 8331, "ĠØŃØ¨": 5903, "ĠØ£ÙĪÙĦØ§Ø¯ÙĥÙħ": 3373, "ĠØ£ÙħÙĦÙĥ": 4154, "Ø§ÙĪÙĪÙĨ": 9085, "ĠÙĪØ¨Ø§ÙĦÙĪØ§ÙĦØ¯ÙĬÙĨ": 5356, "ĠØ³ÙħØ§Ø¡": 7676, "ĠÙĤÙĪØ©": 1599, "ĠÙĦØ±Ø¨": 1766, "ĠØ°Ø±ÙĬØªÙĩÙħ": 5387, "Ø³ØªØ¶Ø¹ÙģÙĬÙĨ": 7886, "ĠØ§ÙĦØ¯ÙħØ¹": 8208, "ĠÙĬØ¬Ø¯ÙĪÙĨ": 2602, "Ø«": 122, "ĠÙĨÙĨØ¬ÙĬ": 6962, "ĠÙĦÙĬÙĤØ·Ø¹": 9675, "ĠÙĪØ§ÙĦØ¨ØºÙĬ": 9120, "¢": 5, "ĠÙĤØ¨ÙĦÙĩ": 1735, "ÙĥØ¨Ø±": 1496, "Ø±Ø§Ø¦": 2837, "ĠØ¨Ø£ÙħØ±Ùĩ": 2276, "ĠØ£ÙĥÙģØ±": 5100, "ĠØ¨ÙĤ": 1246, "ĠÙĬØ³ØªÙĩØ²Ø¦ÙĪÙĨ": 2007, "ÙĩÙĬØª": 7118, "ĠØ£Ø³ÙĦØŃØªÙĥÙħ": 10146, "ĠØªÙħÙĨÙĪÙĨ": 9641, "ĠØ¨ÙĤØ±": 3494, "ĠØ±Ø¯ÙĪÙĩØ§": 9566, "Ø¹Ø¨Ø¯": 728, "Ø§Ø¹Ùģ": 3069, "ĠÙĪØªÙĤØ·Ø¹ÙĪØ§": 8161, "ĠÙĪØµØ±Ùģ": 7162, "ĠÙħÙĩÙĦÙĥ": 3093, "Ø¹Ø«ÙĪØ§": 7231, "ĠÙĪÙĦØ°ÙĬ": 7839, "ĠØ³Ø§ÙĤ": 5858, "ĠØ³ÙĨØ³ØªØ¯Ø±Ø¬": 9062, "ĠØ§ÙĦØ£ÙħÙĬÙĬÙĨ": 9973, "ĠÙĬÙĩØªØ¯ÙĪÙĨ": 2455, "ĠÙħÙĪØ¹Ø¯": 3661, "ĠØŃØ²Ø¨": 3184, "ĠØŃÙĬÙĨ": 1140, "ĠØ§ÙĦØ¯ÙĪØ§Ø¨": 8211, "«": 14, "ĠØ§ÙĦØ¹ÙĦÙĬÙħ": 1095, "ĠØ¬ÙĩØ¯": 3583, "ĠÙĨØ±Ùī": 3557, "ĠÙĨØ¨Ø¦": 5843, "ĠÙģØ£ÙĤØ¨ÙĦ": 6015, "ÙĩØ¯": 192, "ĠØ£Ø¹ÙħØ§ÙĦÙĨØ§": 6544, "ĠÙģÙĬÙĩ": 414, "ÙħÙĨÙĩ": 5794, "Ø±Ø§Ø¬Ø§": 7834, "ĠÙĪØ§ØºÙĦØ¸": 10152, "ĠØ®ÙģØªÙħ": 3194, "ĠØ£ÙģØ¨Ø§ÙĦ": 8307, "ĠØ¹ÙĦÙĬÙĩÙħØ§": 2949, "ĠØ§ÙĦÙħØ®ÙĦÙģ": 5897, "ĠÙĪØ£ÙĪÙĦØ§Ø¯Ø§": 9707, "ÙĩØ§Ø¯Ø©": 1509, "ĠÙĬØ¹Ø±Ø¬": 5075, "ĠÙĦÙĦØ¯ÙĬÙĨ": 6134, "Ø±ÙĬØªÙĩ": 6068, "ĠÙģØ§ØªØ¨Ø¹ÙĪÙĨ": 8940, "ĠØ·Ø¨Ø¹": 6206, "ĠØ¥ÙĨØ§": 346, "ĠÙħØ¤ÙħÙĨØ§": 3400, "ĠØ³Ø¨ÙĦÙĨØ§": 9037, "ĠÙĦØªØ¨ÙĦØºÙĪØ§": 8572, "ĠØ§ÙĦÙħÙĩØ§Ø¯": 4085, "ÙĦÙĬÙĩØ§": 2674, "ĠØ¯Ø¹Ø§Ø¡": 3046, "ĠØ§ÙĦÙħÙĤØ±Ø¨ÙĬÙĨ": 5467, "ĠØªØ¹Ø§": 7472, "ĠØ§ÙĦØŃØ§ÙĤØ©": 6004, "ĠÙĬØ·Ø¨Ø¹": 6616, "ĠÙĪÙĦÙĬØ®": 8549, "Ø¶ÙĬØ§Ø¡": 8860, "ÙĤÙħ": 3984, "ĠÙħØªÙĤØ§Ø¨": 5196, "ĠÙħØ®ØªÙĦÙģ": 2811, "ĠÙĥØ§Ø°Ø¨": 3901, "Ø¹ÙĨØ§Ø¨": 4437, "ĠØ§ÙĦØ¸ÙĨ": 2557, "ĠÙħÙĩØªØ¯ÙĪÙĨ": 3938, "Ø¤ÙħÙĨ": 188, "ĠÙĤÙĦÙĪØ¨ÙĨØ§": 3723, "ĠØ¨Ø£ÙĬØ¯ÙĬÙĩÙħ": 6875, "ĠÙĥØªØ¨ÙĨØ§": 6610, "ÙĦØ§Ø¦": 2663, "ĠÙģØ±": 412, "ĠÙĬØ¯Ùĥ": 4285, "Ø¨ÙĬØªØ§": 8026, "ĠØŃØ§Ø¶": 4859, "Ø¨ÙĨØ§": 1612, "ĠÙĦÙħØ¬ÙĨÙĪÙĨ": 6104, "ĠÙĬØ®Ø²ÙĬ": 4294, "Ø±Ø¨Ùī": 1811, "ĠØ£Ø¶Øº": 5396, "ĠÙĬØŃØ³Ø¨ÙĨ": 6936, "ĠØªÙĨØªÙĩ": 6351, "ºÙģØ±": 2281, "ĠØªØ±ÙĩÙĤ": 8229, "ĠÙĬØ¤ÙħÙĨÙĪØ§": 2259, "ĠÙĨØ®": 2077, "ĠÙħÙĪØ¯Ø©": 4225, "ĠÙģØ§ØªÙĥÙħ": 6542, "ĠÙĬÙĤÙĦØ¨": 8736, "ĠØ¨ÙĬÙĨÙĬ": 2366, "ĠÙģÙĦÙĩÙħ": 3669, "ĠØªØ³Ø¨": 7474, "ĠØªÙĤÙĦØ¨ÙĩÙħ": 9790, "ĠÙĪØªÙĥ": 4993, "Ø¨ØµØ§Ø±": 1345, "ØµØ±Ùĩ": 5082, "ĠÙĨÙģØ³Ùĩ": 1261, "ĠØ²Ø¹ÙĬÙħ": 8415, "ĠØ³Ø¬Ø¯Ø§": 2428, "ĠØ§ÙĦØªÙĪØ§": 3081, "ĠØ§ÙĦØ´ÙĩØ±": 5067, "ĠØ§ÙĦØ£Ø¹ÙĬÙĨ": 7813, "ĠØ§Ø³ÙĥÙĨ": 9268, "ĠÙĪØ§ÙĦØ£ÙĤØ±Ø¨ÙĪÙĨ": 6935, "ĠÙĬØ¤ØªÙĪÙĨ": 5186, "ĠÙĪÙĦØ£Ø¬Ø±": 9335, "ĠØªØ¶ÙĦÙĪØ§": 9528, "ĠÙĬÙĥÙĨ": 1076, "ĠÙĪØ£Ø¯Ø®ÙĦ": 4840, "ĠÙĪØ¬Ø¯ÙĩØ§": 9549, "ĠØ¨Ø£Ø¹ÙĬÙĨ": 5046, "ĠØ¹ÙĨÙĩØ§": 1328, "ĠØªÙħÙĨÙĪØ§": 7489, "ĠØ§Ø±ÙĥØ¹ÙĪØ§": 9802, "ĠÙĦØºØ§ÙģÙĦÙĬÙĨ": 9132, "Ø¨Ø¹Ø«": 996, "ĠÙĪÙħÙĦØ¦": 3288, "ĠØªØŃ": 382, "ĠØªÙĨ": 503, "ĠÙĪÙĥ": 203, "ĠØ§Ø¯Ø¹": 3029, "Ø¶ÙĦÙĪÙĩÙĨ": 8401, "ÙĦÙī": 109, "ĠØ³ÙħÙĬØªÙħÙĪÙĩØ§": 6869, "ÙģØ§Ø±Ø§": 5078, "ĠÙĬØ¸ÙĨ": 9354, "ĠØªØ·Ø¹ÙĩÙħØ§": 9533, "ĠÙĦØ°ÙĥØ±Ùī": 9814, "ĠÙģÙĥØ°Ø¨ÙĪØ§": 9339, "ĠØªÙģ": 885, "ĠØ§Ø¬": 2357, "ĠÙĦÙĦÙħ": 594, "ĠÙĪØ¹ÙĩØ¯ÙĩÙħ": 8369, "ĠØªÙĨÙĩØ±": 8611, "ĠØªØ±ÙĪÙĨ": 3522, "ĠØ§ÙĦÙħØ¹ÙĦ": 7735, "ĠÙĪØ¨Ø§Ø·ÙĦ": 8484, "ĠØ§ÙĦØ¨Ø£Ø³": 8543, "ĠØµØ§ØŃØ¨ÙĬ": 9672, "ĠØ§ÙĩØ¨Ø·ÙĪØ§": 5525, "ĠØ·ØºÙī": 3677, "ĠØ£ÙĨÙģÙĤ": 3555, "ĠØªÙĥØ°Ø¨ÙĪÙĨ": 2587, "ĠÙĬØªØ°ÙĥØ±ÙĪÙĨ": 3243, "Ø³ÙĦØ®": 9448, "ĠØªØ±ÙĥÙĨ": 8227, "Ø¹ÙĬÙĦ": 2184, "ĠØ¨Ø±ÙĬØ¡": 2826, "ĠØ¹ÙĨÙĩÙħ": 606, "ĠØ³ÙĬØ¹ÙĦÙħÙĪÙĨ": 6421, "ĠØ§ÙĦØ³ÙħØ¹": 2351, "ĠØ·ÙĦØ¹": 5038, "ĠÙĤØ¯Ø±ÙĪØ§": 6145, "Ø¸Ø§ÙĦÙħÙĬÙĨ": 1640, "ĠÙģØªÙħ": 5665, "ĠØ³Ø¹ÙĬÙĥÙħ": 9295, "ĠÙħÙĨÙĬ": 2068, "Ø°ÙĬ": 783, "ØªØ§Ø¨Ø¹ÙĬÙĨ": 8075, "ĠÙģØ²Ø¹": 7287, "ĠÙĪÙĬØ±ÙĬØ¯": 6662, "ĠØ§ÙĦØ£Ø¨Ø±Ø§Ø±": 4119, "ĠÙĪØ§ÙĦÙĨÙĪØ±": 6488, "Ø°Ø§ÙĨ": 1691, "ĠØªØ¸ÙĦÙħÙĪÙĨ": 4027, "Ø²ÙĦØ§Ùħ": 7574, "ĠÙĪØ§ÙĦØ²ÙĥØ§Ø©": 9838, "ĠØªØ§Ø±Ø©": 7491, "ĠÙĪØ¹ÙĦÙħØ§": 4551, "ĠØ§ÙĤØªØ±Ø¨": 6855, "ĠÙĬØ£ØªÙĬÙĨÙĥÙħ": 6818, "ĠØ£ÙĤØ±ÙĬØ¨": 8881, "ĠÙĥØ§ÙĦØ¬": 8929, "ĠÙģÙĦÙĪ": 6178, "ÙĤÙĬØ§Øª": 7337, "ĠØ³ÙĨÙĥØªØ¨": 10246, "ĠÙĨÙĤØ±": 7625, "ĠØ³ÙĪØ±Ø©": 3166, "ĠÙĪØ§Ø³Ø¬Ø¯": 9171, "ĠØ¨Ø§ÙĦÙĥÙģØ±": 4892, "ĠÙĪØŃØ§ÙĤ": 3336, "ĠÙĦØ¹ÙĨØ©": 3326, "ĠÙħØ¹Ø±Ø¶ÙĬÙĨ": 4201, "Ø®ÙĦÙĪÙĩØ§": 5133, "Ø®Ø±Ø§Øª": 5996, "ĠÙĨÙģØ±": 3156, "Ø¹ÙĦÙħ": 172, "ĠØ®Ø§Ùħ": 7786, "ĠÙģÙĦØ£ÙĨ": 8214, "ĠÙģØ£ÙĨØ°Ø±": 8906, "ĠØ±Ø¨ÙĨØ§": 478, "Ø§ÙĪ": 1174, "ĠÙĪØ²ÙĪØ¬ÙĨØ§ÙĩÙħ": 9898, "ĠØŃÙĬØ§": 4088, "ÙħØ³Ø©": 6318, "ĠÙĪÙĨØ®": 8244, "ĠÙĪØ°ÙĪÙĤÙĪØ§": 5608, "ĠØ§ÙĦØ¸ÙĦ": 6286, "ĠØ³Ø¹ÙĪØ§": 7664, "ĠÙģØ£ÙĦÙĤÙĪÙĩ": 9431, "ÙģØªÙĬÙĨ": 6250, "ĠØ¢Ø°ÙĨ": 5871, "ĠÙĤÙĦÙĬÙĦØ§": 766, "ĠØ®Ø§Ø´": 2500, "ĠØ¨ØªØ§Ø¨": 7359, "ÙĦØ§ØªÙĬ": 7464, "Ø¨Ø¹ÙĪØ«ÙĪÙĨ": 3415, "Ø¹Ø¨Ø¯ÙĪÙĨ": 3012, "ĠØ§ÙĦÙģØªØŃ": 4605, "ĠØ³Ø±ÙĩÙħ": 9366, "ØµØ¨ØŃ": 4775, "Ø°Ø¨": 207, "ĠÙĪÙĤØ±": 6025, "ĠÙĪØ²ÙĬÙĨØªÙĩØ§": 6841, "ĠØ¸ÙĨÙĥÙħ": 8233, "Ø·Ø§Ø¡": 3169, "ĠÙĪØ§ÙĦØ£ÙĪÙĦØ§": 8164, "Ø§ÙĩØ§": 1748, "Ø¹ÙĦÙĨÙĪÙĨ": 2711, "ĠÙĬØªÙĪÙĥÙĦÙĪÙĨ": 4203, "ĠØ·Ø§Ø¦Ùģ": 9098, "ĠÙĪÙĬØŃØ°Ø±ÙĥÙħ": 9398, "ĠÙĪØ±Ø³": 551, "ĠÙĪÙĩØ¯Ùī": 1757, "ĠÙĥÙģ": 4750, "ĠÙģØ±Ø¢Ùĩ": 8448, "ĠÙĪÙĦÙĦÙĥØ§ÙģØ±ÙĬÙĨ": 4126, "ĠØ¶ÙĬÙĤØ§": 8337, "Ø°Ø¨ØŃÙĪÙĨ": 8033, "ĠÙĤØ¯Ùħ": 4217, "ĠØ£ØªØ¨Ø¹": 2781, "ĠØ§ÙĦØ¥ÙĨØ¬ÙĬÙĦ": 5148, "ĠÙĬØ¸ÙĩØ±ÙĪØ§": 6731, "ĠØ£ÙĨÙģØ³ÙĩÙħ": 625, "ĠÙĨØµÙĬØ¨Ø§": 3017, "ĠÙĩØ§Ø¬Ø±ÙĪØ§": 4434, "ĠÙĨÙĪØ¯ÙĬ": 4809, "ĠÙģØ£Ø±Ø³ÙĦÙĨØ§": 3209, "Ø®Ø±Ø¬": 368, "ĠØ§ÙĦØ°Ø¦": 5850, "ĠÙĨÙĩØ§Ø±Ø§": 7635, "ĠÙĪØ§ÙĦÙħØ³ÙĥÙĬÙĨ": 9362, "ĠÙĬØ¹ÙħÙĦÙĪÙĨ": 752, "ĠØ¬Ø¹ÙĦÙĩ": 4101, "ĠØ£Ø¹Ø¨Ø¯": 2123, "ÙĬÙĨØ§ÙĥÙħ": 3627, "ĠØ¥ÙĦÙĬÙĩÙħ": 946, "ØºÙĬØ±": 1876, "ĠÙģÙĪØ§": 4652, "ĠØ£ÙħØ§ÙĨÙĬ": 6727, "ØŃÙĬØ§Ø¡": 8760, "ØªØ¹": 4617, "ĠØŃØ³Ø±": 4855, "ĠØªØ°ÙĥØ±ÙĪÙĨ": 1694, "ĠÙĨØ¯": 2331, "ÙĪØ¯Ø§": 3075, "ĠØªÙĩØª": 4743, "ĠØ£ÙĨØ·": 5830, "ĠÙĪØ£Ø¯Ø®": 6927, "ĠØªÙĪØ§Ø¨": 7482, "ĠØ§ÙĦØµÙĪØ§Ø¹ÙĤ": 8090, "ĠÙĬÙĨØ§ÙĦÙĩÙħ": 8140, "ĠÙĪØ§ÙĦØ³Ø§Ø¹Ø©": 9057, "ĠÙħØ®ÙħØµØ©": 9199, "ĠÙħØ´Ø±ÙĥØ©": 9924, "ĠÙħØ¹ÙĬØ´": 6770, "Ø«ÙĪØ§": 1321, "ĠÙĬØ¶Ø±Ø¨": 3032, "ĠØ£ÙĨÙģØ³ÙĨØ§": 8510, "ĠØ¨Ø§ÙĦØ£": 1971, "Ø±Ùĩ": 1304, "ĠÙĦÙĬØ³Øª": 3219, "Ø«ÙĦÙĩ": 2695, "ĠÙĪØ±Ø¨ÙĨØ§": 6555, "ÙĥØ¨Ø±Ø§": 7174, "ĠÙĬØµØ¯ÙģÙĪÙĨ": 6778, "ĠÙĦÙħØ¨Ø¹ÙĪØ«ÙĪÙĨ": 4199, "ÙĤØ°": 2649, "ÙĦÙĥ": 119, "ĠØ¨ØºØªØ©": 2126, "ĠØ§ÙĦØ£Ø³Ùģ": 5940, "ĠØ§ÙĦØ±Ø´": 5989, "ĠØ£Ø±ÙĪÙĨÙĬ": 5648, "ÙĤÙī": 1044, "ĠØªØ®Ùģ": 2132, "ÙĪØ§Ø±": 2457, "ĠÙĦÙĩØ°Ø§": 8048, "ĠÙħÙĦØ§ÙĤ": 3457, "ÙĬ": 50, "ĠØ±Ø§ÙĪØ¯": 4510, "ĠÙģØ£Ø®Ø§Ùģ": 7955, "ĠÙĪØµØ¯ÙĪØ§": 3863, "ĠØªØªÙĤÙĪØ§": 8532, "ĠÙĬÙĥØ³Ø¨ÙĪÙĨ": 2000, "ĠÙĪØ£Ø¹Ø±Ø¶": 4841, "ĠÙĦØ§ÙĨ": 7299, "ĠÙħØ¨ÙĦ": 5630, "Ø§ÙĦØ©": 2046, "ÙģÙģ": 2657, "ĠØ§ÙĦØ³Ø¬ÙĪØ¯": 3608, "ĠÙĬØ®Ø±Ø¬ÙĪØ§": 3787, "ØµÙĬØ¯": 7551, "ĠØ¹ÙĨÙĬ": 3605, "ĠÙĨØ¨ÙĬØ§": 3026, "ĠÙĪØ°Ø±ÙĬØ§Øª": 5408, "ĠÙĪØ¹Ø°Ø§Ø¨": 4259, "ĠØ®ÙĪÙģØ§": 5326, "ÙĤØ¹Ø©": 5699, "ĠÙģÙħØ§Ø°Ø§": 6367, "ĠÙĦØ¹ÙĨÙĩ": 8757, "ĠØ¸Ø§ÙĩØ±Ø©": 9787, "ĠØªÙĨÙģÙĤÙĪÙĨ": 8612, "ĠÙĨØ¨Ø¥": 6531, "ÙĦØŃÙĬÙĨ": 6363, "ĠØ£Ø±Ø¶ÙĥÙħ": 6696, "ĠÙĪØ¹ØµÙī": 8366, "ĠÙĦØ¨Ø¦Ø³": 3973, "ĠÙĬØ¤ØªÙĬÙĩ": 3743, "ĠÙĬÙĨÙģØ¹": 1470, "Ø³Ø¨ØŃ": 879, "ĠØ³ÙĤØ·": 7677, "ĠÙĩØ°Ùĩ": 850, "ĠÙĦÙĦØ°ÙĥØ±": 4212, "ĠØ¨Ø£ÙĨØ§": 8288, "ĠÙħØ·ÙĩØ±": 3940, "ĠØ£ÙĪÙĦØ§Ø¯ÙĩÙĨ": 9236, "ĠÙħØ³Ø§Ø¬Ø¯": 6315, "ĠØ£Ø·ÙĬØ¹ÙĪØ§": 3953, "ĠØªÙĪÙĦÙĪÙĩÙħ": 10068, "ĠÙĪÙĬØ³ØªØ®ÙĦÙģ": 6647, "ĠØ¨ÙĨØ¹ÙħØª": 9180, "ĠØ¹ØªÙĬØ§": 9764, "ĠØ£ÙħÙĪØ§ÙĦÙĩÙħ": 1541, "ĠÙĦØªÙĨ": 4305, "ĠÙĨØ±ÙĬØ¯": 5451, "ĠØ¨ÙĬÙĪØªØ§": 2828, "ĠØ¨Ø°ÙĨÙĪØ¨": 5399, "ĠÙħØ³Ø±Ùģ": 9743, "Ø¹ÙĨÙĥÙħ": 7228, "ĠØ²Ø¯ÙĨØ§ÙĩÙħ": 10008, "ĠÙĬØªÙĦÙĪÙĨ": 3650, "ÙģØ³Ø¯": 6051, "ÙĪØ¬Ø³": 6407, "ÙĪÙĬÙĦØ§": 3335, "ÙĥØ°Ø¨ÙĬÙĨ": 1551, "ĠÙĪÙĤÙĪÙĦÙĪØ§": 2933, "ĠØªØŃØªÙĩØ§": 1015, "ĠØªØ¤Ùħ": 7487, "ĠÙĬØ¦Ø³": 4683, "ĠØ§Ø«ÙĨØªÙĬÙĨ": 5329, "ĠØ¹Ø§Ø¨": 2466, "ĠÙĬØ®ÙĪØ¶ÙĪØ§": 5528, "ĠØ§ÙĦØ£ÙĪÙĦÙī": 1968, "ĠÙĦØ£ÙĨØª": 8498, "ĠÙĦÙĤÙĪÙħÙĩ": 2133, "ĠØ¹Ø¯ÙĦ": 3334, "ĠØ§ÙĦØ¹Ø¨Ø§Ø¯": 7964, "ĠÙĪØµÙĬÙĨØ§": 9028, "ĠÙħÙĦØªÙĩÙħ": 9510, "ĠØ§ÙĦØ£Ø±ØŃØ§Ùħ": 3596, "ĠÙĪØ£ÙĨØ´Ø£ÙĨØ§": 8267, "ĠÙĤØªÙĦÙĩÙħ": 9262, "ĠØ§ÙĦÙħÙĨØªÙĩÙī": 8958, "ĠØ§ÙĦØ²ÙĪØ±": 8897, "ÙħÙĪØ§ÙĦ": 2044, "ĠØ§ÙĦÙĨØ°ÙĬØ±": 8240, "ĠÙĪØ¨Ø¹": 7141, "ĠØ§ÙĦÙħÙģØ³Ø¯ÙĬÙĨ": 2495, "ĠÙģØ§ÙĨØª": 3770, "ĠØ¸ÙĩÙĪØ±ÙĩØ§": 10029, "ĠØ¨ÙĤØ±Ø§Øª": 9757, "ĠÙĬÙĨØ¬ÙĬÙĥÙħ": 8141, "ÙħÙĥÙħ": 5564, "Ø¹ÙĨ": 3945, "ĠØ¨Ø§ÙĦØ¸Ø§ÙĦÙħÙĬÙĨ": 4133, "ĠÙģÙĦÙĬÙĨØ¸Ø±": 5527, "ĠØ§ÙĦØ¨": 466, "ĠÙĪØ°Ø±ÙĪØ§": 4616, "ĠØªØ±ÙĪÙĨÙĩØ§": 6924, "ÙĦÙĪÙĦØ©": 7080, "ĠØ°ÙĪÙĬ": 7861, "ĠÙħØ²": 4619, "ĠÙģÙħØ§ÙĦ": 4660, "ĠØªØ±ÙĪØ§": 8223, "ĠØ¨Ø£Ø³ÙĥÙħ": 9175, "ĠÙĪØ§Øº": 6491, "ĠÙĬØ²Ø±ÙĪÙĨ": 9049, "ĠÙĥÙĬØ¯ÙĥÙĨ": 9259, "ĠÙĥÙħ": 1221, "ĠÙĥØ£ÙĨÙĩÙħ": 2426, "ĠÙĪØ£Ø¹Ø¯": 3174, "ØªÙĪÙĨ": 709, "ĠÙĪÙĤÙĦÙĨØ§": 3622, "ÙħØ§Øª": 4739, "ĠÙĬÙĨØª": 4987, "ĠÙĬØŃØ´Ø±": 8170, "ĠØŃÙĦÙĬØ©": 5908, "ĠÙħØ¯Ø§": 7204, "ÙĤÙĩØ§": 7335, "ĠÙĪØªØ¸ÙĨÙĪÙĨ": 8162, "ĠÙħØ´ÙĥÙĪØ±Ø§": 9310, "ĠØªØ£ÙĥÙĦÙĪÙĨ": 2418, "ĠØ³Ø±ÙĬØ¹": 2694, "ĠØªØ·ÙĬØ¹ÙĪØ§": 4028, "ĠÙħØªØ¹": 8798, "ĠÙģØ§Øª": 921, "ĠÙĪÙĦØ¤ÙĦØ¤Ø§": 7841, "ĠÙĬØŃØ´Ø±ÙĪÙĨ": 6148, "ĠÙħÙĬØªØ©": 9747, "ĠÙĪÙĤÙĦÙĬÙĦ": 6029, "ĠØ´Ø¹ÙĬØ¨Ø§": 3385, "ĠÙģØªØ¨ÙĬÙĨÙĪØ§": 6229, "ĠØ´ÙĩØ§Ø¯": 4876, "Ø·ÙĬØ¹ÙĪÙĨ": 1212, "ĠØ£Ø²ÙĥÙī": 5482, "ĠØ°ÙĥØ±Ø§": 2086, "ĠÙĬØ¬Ø§Ø¯": 2124, "Ø³ØŃØ§Ø±": 9215, "Ø´Ø§": 3551, "ĠØ¨Ø³ÙĪØ¡": 5264, "ĠØ«Ø¹Ø¨": 7923, "ĠØ£ÙĥÙĦ": 8462, "ĠØ¯Ø¹ÙĪØªÙĩÙħ": 10272, "ĠÙĤÙĦÙĪØ¨": 498, "ĠÙħÙĬØ±": 7198, "ĠÙĬØ³Ø±ÙĨØ§": 5417, "ĠØ¥ÙĨÙħØ§": 454, "ĠØŃØ³Ø§Ø¨Ùĩ": 9341, "ĠÙĬØ´ÙĥØ±ÙĪÙĨ": 2735, "Ø¯ØªÙĩÙħ": 5653, "ĠÙģØ¨Ø¥Ø°ÙĨ": 8715, "ĠÙĬØ³Øª": 415, "ĠÙĬÙĤÙĬÙħÙĪÙĨ": 4689, "ĠØ³Ø¨ÙĦØ§": 5267, "ĠÙĦØ¨Ø«Øª": 5394, "ÙĤÙĬÙħÙĪØ§": 1486, "ĠØ£ÙģØª": 3271, "ĠÙĥÙĪÙĥ": 5779, "ĠØ§Ø³ØªØ·Ø¹": 2767, "Ø´Ø¯": 3151, "Ø§ÙĩØ¯ÙĪÙĨ": 6466, "ØªØ¨ÙĪÙĨ": 3002, "ĠØ£ÙĤØ·": 8877, "ĠØ¨Ø¹Ø«": 1890, "ĠØ§ÙĦÙĬÙĤÙĬÙĨ": 3824, "ĠÙĪÙĥÙĨØ§": 1808, "ĠÙĪØ§ÙĦØ£ÙĨ": 1891, "ĠÙĪØ¹Ùħ": 658, "ĠÙĬØ£ÙħØ±ÙĥÙħ": 4522, "ĠØ¹ÙĦÙĤØ©": 4737, "ĠØ´Ø±Ùĥ": 1050, "ĠØ§ÙĦØŃØ¬Ø±": 4919, "Ø§ÙĦØŃÙĤ": 8379, "ĠÙĪØ£ÙĨØ²ÙĦ": 2234, "ĠÙĪØ¹ÙĦ": 3433, "ĠÙħØŃØµ": 5274, "ĠØ¹Ø¨Ø§Ø¯Ø§": 8686, "ÙĦØ£": 1423, "ĠØªØ¤ØªÙĪÙĨ": 9254, "<EOS>": 2, "ĠØ¥ÙĦÙĬÙĥÙħ": 1097, "ĠÙĬØ²Ø§ÙĦ": 6587, "ÙħØ§Ø«": 7460, "ĠØ®Ø´ÙĬØ©": 3877, "ĠÙĪØ§ÙĦØ´ÙĩØ¯Ø§Ø¡": 6599, "ĠØ®ÙħØ³": 4103, "ĠØ£Ø±Ø£ÙĬØª": 2782, "ÙĦÙħÙĪØ§": 5851, "ĠØ§Ø¦": 1844, "ĠØ¨Ø§ÙĦØµØ¨Ø±": 5453, "ĠÙģØ£Ø®Ø°ÙĨØ§ÙĩÙħ": 5285, "ĠØ§ÙĦÙĪØ§ÙĦØ¯Ø§ÙĨ": 7038, "ÙĪØ·": 7106, "ĠØ¨Ø¹Ø¯Ùĩ": 1472, "ÙĬØ¨Ø§Øª": 1409, "ĠÙģØªÙĬÙĦØ§": 5677, "Ø³Ø±Ø§Ø¦ÙĬÙĦ": 894, "ĠÙĬÙĥØ§Ø¯ÙĪÙĨ": 6857, "ĠØ§ÙħØ±Ø£ØªÙĬ": 9272, "ĠØ±Ø¤ÙĬØ§ÙĬ": 10074, "ĠÙħØµÙģÙĪÙģØ©": 10315, "Ø·ÙĬØ¹": 2568, "ĠÙĥØ³Ø¨Øª": 1836, "ĠØ£ÙĦØ§": 505, "ĠØ§ÙĦÙħØŃØ±": 4083, "ĠÙĥÙĦÙħØŃ": 9078, "ÙĬØ¹Ø§Ø¯": 3836, "ĠØ«ÙĦØ§Ø«Ø©": 2424, "Ø°ÙĥØ±": 403, "Ø¯Ø±ÙĬ": 5652, "ĠÙĪØ§Ø±Ùĥ": 7156, "ĠÙĪØ§ÙĦÙĨØ¨ÙĬÙĬÙĨ": 6984, "ĠÙģØ£ØªØ¨Ø¹Ùĩ": 6873, "ĠÙĪØ§ÙĦØµØ§Ø¨Ø¦ÙĬÙĨ": 10021, "Ø¬Ø§": 2072, "ĠÙħØ´ÙģÙĤÙĪÙĨ": 4464, "Ø¹ÙĬÙĩ": 5639, "ĠØ£Ø³ÙĪØ£": 8683, "ĠÙģØ¨Ø£ÙĬ": 1037, "ĠÙĪØ§ÙĦØ£ÙĨØ¹Ø§Ùħ": 3853, "ĠØ§Ø®Ø±Ø¬": 6629, "ĠØ³ÙĦÙģ": 3565, "ĠÙĪÙĬØ²": 3609, "ĠØªÙĥ": 433, "ĠÙģØ§Ø¹ÙĦÙħÙĪØ§": 3667, "ĠØ£ØªØ£ØªÙĪÙĨ": 6435, "ĠÙĬØ¶Ø±Ø¨ÙĪÙĨ": 6880, "ĠÙģØ§Ø³Øª": 911, "ĠØªÙĪØ¬": 7480, "Ø±ÙĬØŃ": 6066, "ĠÙĤØ§Ø¯Ø±": 7535, "Ø¶ÙĦÙĩ": 7569, "ĠÙĩØ¯Ø§ÙĬ": 9333, "ĠÙĬØ³ØªÙĥØ¨Ø±ÙĪÙĨ": 3289, "ĠØ¯Ø®ÙĦØ§": 7937, "¯": 17, "ĠØ§Ø³ØªØ·Ø¹Øª": 6859, "ĠÙħÙĪÙĦØ§ÙĩÙħ": 9555, "ĠÙĥØ´ÙģÙĨØ§": 4757, "ĠØ£Ø®Ø§ÙĨØ§": 8653, "ĠØªØ³Ø±ÙĪÙĨ": 6480, "ĠØ£ÙģØ£ÙħÙĨÙĪØ§": 9466, "ĠÙĦÙĬÙĥÙģØ±": 4943, "ĠÙĬØ³ØªØ¹": 5097, "ĠØ³ÙĥØ±": 7661, "ĠØ¨Ø²Ø¹ÙħÙĩÙħ": 10205, "ĠÙĪÙĬÙĩØ¯ÙĬ": 1883, "ĠÙĪØ§ÙĦØ±ÙĥØ¹": 10075, "ĠÙĪØ£Ùĩ": 1514, "ĠØ§ÙĦØ«ÙħØ±Ø§Øª": 2423, "ĠÙĤØ³Øª": 7526, "ĠØ¢Ø¯Ùħ": 1513, "ĠØµØ¯ÙĬÙĤ": 8719, "ĠØ¹ÙĤØ¨Ø§": 9700, "ĠÙĪÙĬÙģ": 5983, "Ø«ÙĤÙī": 7699, "ĠÙĥÙħØ§Ø¡": 8805, "Ø°Ø§Øª": 2190, "ĠÙħÙĩØ§": 5627, "ĠÙĤØªÙĦÙĨØ§": 9261, "ĠØªØ®ÙĦÙģ": 8728, "ĠØ£ÙĤØ³ÙħÙĪØ§": 9504, "ÙĪÙģÙĬÙĨÙĥ": 6166, "ĠÙĦØ³Ø§ÙĨ": 3481, "ØªØ§ÙĥÙħ": 8393, "ĠØ³Ø¬": 1704, "Ø§Ø¦ÙĨ": 2364, "ĠÙĪÙĦÙĦØ±Ø³ÙĪÙĦ": 6814, "ĠØ´": 141, "ĠÙĪÙĦÙĥÙĦ": 2975, "ĠØµÙĦØ§Ø©": 7988, "ĠØ¹Ø¨Ø¯Ùĩ": 3820, "ĠÙĦÙģ": 3968, "ĠØ£Ø¬ÙĪØ±ÙĥÙħ": 8409, "Ø±ÙĬÙĥ": 2729, "Ø¹ÙħÙĪÙĨ": 2926, "ĠÙĪÙĦÙĥ": 399, "ĠÙĪØªÙĨØ³ÙĪÙĨ": 10289, "ĠÙħÙħ": 2848, "ĠØªÙĤØ§ØªÙĦÙĪØ§": 8680, "ĠØ§Ø·ÙħØ£ÙĨ": 9917, "ĠØ°Ø±ÙĬØ©": 2503, "ĠØ³Ø¢": 7659, "ÙĬØ§ÙħØ©": 637, "ÙħÙĬØª": 3680, "ĠÙĬÙĨÙĤØ°ÙĪÙĨ": 10288, "ĠÙģØ¸": 3961, "ĠÙĬÙĪØ¹Ø¸": 6395, "ĠØ§ÙĦØ°Ø¦Ø¨": 7049, "ĠØªØ£ØªÙĩÙħ": 8593, "ĠÙĪØ·ÙĩØ±": 9194, "ĠØ£ÙħØ±": 507, "ĠØ¨": 72, "ĠØ¹Ø¯ÙĨ": 2400, "ĠÙĪØªØ³": 4214, "ĠÙĪØ¸ÙĦÙĦÙĨØ§": 10022, "ĠÙĬÙĨØ§": 2186, "ĠØ¨Ø§ÙĦØºØ¯Ø§Ø©": 9170, "ĠØ§ÙĦØ£ÙĪÙĦÙĪÙĨ": 3785, "ØŃÙĬ": 674, "ĠÙģØ£ÙĦÙĤÙī": 6769, "ĠØ£Ø³Ø§Ø·ÙĬØ±": 2777, "ĠØ§ÙĦÙĦÙĬÙĦ": 726, "ĠØ¨Ø¨ÙĨÙĬ": 5723, "ĠØ£Ø¶ÙĦ": 1938, "ĠØ³Ø±": 1791, "Ø±Ø§ÙĥÙħ": 4884, "ĠØ£ÙĨÙģØ³ÙĥÙħ": 984, "ĠØ¯ÙģØ¹": 6005, "ĠÙħØ®ÙĦØ¯ÙĪÙĨ": 7221, "ĠÙħÙĦÙĪÙħÙĬÙĨ": 9511, "ĠÙħØ¯": 1040, "ĠØ§Ø¦ØªÙĨØ§": 5383, "ÙĩØª": 663, "Ø¹Ø§Ùħ": 760, "ÙĪØ¯Ø©": 2964, "ĠØµØ±Ùģ": 3216, "ĠÙĪÙĦÙĤØ¯": 410, "ÙĪØ§Ø¨": 938, "ĠØ²ÙĦØ²": 9885, "Ø±Ø¢ÙĨØ§": 2569, "ĠÙĨØªØ®Ø°": 4807, "ĠØ§ÙĦØ¬ÙĨ": 1476, "ĠÙĬØ¤ØªÙĬ": 6427, "Ùĥ": 57, "ĠÙĪÙĨØµØ±ÙĪØ§": 8255, "ĠÙģØ§Ø³ØªÙĥØ¨Ø±ÙĪØ§": 4383, "ĠØ§ÙĦÙĪØ¹ÙĬØ¯": 7138, "ĠØ¨Ø§ÙĦÙħ": 1515, "ĠØ§ÙĦÙħØ³Ø¬Ø¯": 1908, "ÙĦÙħØ©": 7655, "ÙģØ¯": 3998, "ĠÙģÙĪØ¬": 4658, "ĠØ§Øº": 8601, "ĠÙĪÙĬØ®": 2508, "ĠØ£ÙĨÙģØ³ÙĩÙĨ": 8511, "ĠÙĥÙģÙĪØ±Ø§": 3144, "ĠØªÙĥÙĦÙģ": 8479, "ĠÙĬØŃØ²ÙĨÙĪÙĨ": 2163, "ÙĤØ¯Ø³": 4958, "Ø¹ÙĦØ§Ùħ": 7227, "ĠÙĪÙĦÙĩ": 1128, "ĠØ°ÙĥØ±ÙĪØ§": 3008, "ĠØ§Ø³Ø¬Ø¯ÙĪØ§": 3829, "ÙģÙĥ": 2065, "ĠÙĦÙĦØ¹Ø§ÙĦÙħÙĬÙĨ": 2161, "ĠØ§ÙĦØ¹Ø§Ø¬ÙĦØ©": 7062, "ĠØ¥ÙĦÙĩÙĩ": 8587, "ĠÙģØ§Ø¨": 5661, "ĠÙģØµÙĦØª": 5322, "ĠØ§ÙĦÙħØ®ÙĦÙģÙĪÙĨ": 7052, "ĠÙĪØ£Ø±Ø³ÙĦÙĨØ§": 4079, "ĠÙĨØ¨Ø´Ø±Ùĥ": 8925, "Ø¹ÙĬ": 1850, "ĠØ£ÙģÙĦØŃ": 5049, "ĠØªÙħÙĦÙĥ": 4432, "ÙĩØ¯ÙĨØ§": 6043, "ĠØŃØ§ÙģØ¸ÙĬÙĨ": 6930, "ĠØ¬Ø¹ÙĦÙĨØ§Ùĥ": 6525, "ĠØ§ÙĦØ¹Ø¨Ø¯": 7963, "Ø°ÙĬØ±Ø§": 2652, "ĠÙħØ³Ùĩ": 3712, "Ø§ÙĦÙĦÙĩ": 2440, "ĠÙģØ§Øº": 3108, "ĠØ±ØŃÙĬÙħØ§": 1534, "ĠÙĬØªÙģ": 1814, "ĠØ®Ø·ÙĬØ¦Ø§Øª": 9850, "ÙĥÙĬÙħ": 569, "ĠÙĪØ¥ÙĨÙĬ": 1986, "ĠØ£Ø¹ÙħÙī": 4368, "ĠØ¬ÙĨØª": 4096, "ĠØ¸ÙĨÙĨØªÙħ": 4486, "Ø¬Ø©": 7503, "ĠÙĥÙĩÙģ": 7519, "ĠÙģØ±ØŃÙĪØ§": 6277, "ØµØ±Ø©": 5084, "ĠØµØ¯ÙĤÙĩÙħ": 8720, "Ø°Ø¨ÙĪÙĨ": 1468, "Ø³Ø±Ø©": 2541, "ĠØ£ÙĪÙĦÙħ": 1030, "ĠØªØ±Ø¬": 5022, "ĠÙĪØ£Ø²ÙĪØ§Ø¬": 2905, "ĠÙģÙĦÙĬØ£": 5231, "ĠØ£ØµØŃØ§Ø¨": 695, "ĠØ§ÙĦÙĨØ´Ø£": 6194, "ĠÙĬÙĪÙĦ": 7321, "Ø§ØŃØ¨Ùĩ": 9191, "ĠØ£Ø±Ø£ÙĬØªÙĥÙħ": 9623, "ĠÙģØ§Ø®ØªÙĦØ·": 9449, "ĠÙĪÙĬØ¹": 1517, "ĠØ®ÙĦØ§ÙĦ": 2914, "ÙĦÙĤØ©": 3621, "ĠØ°Ø±ÙĬØªÙĩ": 5386, "Ø¹ÙĩØ§": 5637, "ĠÙĬØ±Ùĩ": 6156, "ĠÙĬØµÙĦØŃ": 6451, "ĠÙĪØ±Ø¶": 7139, "ĠÙĬØŃØ²ÙĨÙĥ": 4458, "ĠØ£ÙĥØ±Ùĩ": 7248, "ĠÙĦØ£ÙĪÙĦÙĬ": 2763, "Ø¨ÙĬ": 204, "ĠÙĨØ¤": 2688, "Ø²Ø¹ÙĪØ§": 7573, "ĠÙģØ§ØŃØ°Ø±": 9881, "ĠØ®Ø²Ø§Ø¦ÙĨ": 3408, "ÙĨÙĪØ§": 1175, "Ø¯Ø§Ø¯ÙĪØ§": 3958, "ĠÙĬÙĨØ§ÙĦ": 6127, "ĠÙĥÙģÙĪØ§": 7515, "ĠÙĪÙĪÙģÙĬØª": 10183, "ĠÙĪØ§Ø®": 2138, "ĠØ§ÙĦØ¹": 183, "Ø³Ø±ÙĬÙĨ": 1474, "ĠØ§ÙĦØ£Ø³ÙħØ§Ø¡": 4556, "Ø§Ø³Ø±ÙĪÙĨ": 2029, "ĠØ¨Ø£ÙħÙĪØ§ÙĦ": 2112, "ØªÙħØ¹ÙĪÙĨ": 2699, "ĠØ§ÙĦÙħØ£ÙĪÙī": 4850, "ĠØ§ÙĦØ³Ø¬ÙĨ": 3607, "ĠÙĥÙĬØ¯ÙĬ": 9256, "ĠÙĬØºØ±ÙĨÙĥÙħ": 10015, "ĠÙĬØ¤ÙħØ±ÙĪÙĨ": 8725, "ĠÙħØ³ØªÙĥØ¨Ø±ÙĪÙĨ": 8747, "ĠØ§ÙĦÙĥ": 205, "Ø´Ø¦": 7579, "ĠØªØ±ÙĥØª": 9188, "ĠÙĪØ¨Ø¦Ø³": 1899, "ĠØ°ÙĨÙĪØ¨ÙĩÙħ": 9322, "ĠÙģØªÙĨ": 3683, "ĠÙĪØ¥ÙĦÙĬÙĨØ§": 5946, "ĠÙĨÙģØ±ÙĤ": 6892, "ĠÙĪØ§ØªØ¨Ø¹": 1301, "ĠØ¨Ø¶Ø¹": 7376, "ĠÙĤÙĦØ¨": 7924, "ĠÙĦØ£": 445, "ĠØ³ÙĥÙĨ": 7673, "ĠØ£Ø«Ø§Ø«Ø§": 9284, "ĠÙĩØ§Ø¯": 3161, "ĠØ®Ø§Ø¦ÙģØ§": 9780, "ĠØ§ÙĦÙĪØ¯ÙĤ": 10036, "ÙĪØ²": 1022, "ĠØ¨Ø¯Ø§": 7361, "ĠØ§ÙĦØ°": 113, "ĠØ¨Ø§ÙĦØ¯ÙĬÙĨ": 5960, "ÙħØªÙħ": 3422, "ØªØ¨ÙĩØ§": 6413, "ĠÙĪÙĦØŃÙħ": 4125, "ĠÙĥØ´": 4751, "ĠØ´ÙĩÙĪØ©": 9969, "ĠØ¥ØŃØ³Ø§ÙĨØ§": 3843, "ĠØ£ÙĨÙħØ§": 1567, "ĠØ®Ø§Ø¦ÙĨØ©": 9779, "ĠÙĬÙĤØ§ÙĦ": 6430, "ĠØ´ÙĩØ¯Ø§Ø¡ÙĥÙħ": 9147, "ĠØ§ÙĦÙĪØ§Ø±Ø«ÙĬÙĨ": 7034, "ĠØºØ¶Ø¨ÙĬ": 10114, "ĠØ³Ø¹Ø©": 7666, "ĠØ§Ø³ØªØºÙģØ±": 8559, "ĠØ§ÙĦØ³ÙĨÙĬÙĨ": 7877, "ØºÙĬ": 1194, "ĠØ¨ÙħØ¹Ø¬Ø²ÙĬÙĨ": 3405, "ĠØ±Ø²ÙĤÙĨØ§ÙĩÙħ": 2581, "ĠÙĪØ£ÙĪØ±Ø«ÙĨØ§ÙĩØ§": 9776, "ĠØªØŃÙĦ": 8394, "ĠØ¹Ø´Ø±Ø©": 4516, "Ø·ÙħØ¹": 5861, "ĠØ´Ø§Ø¹Ø±": 6895, "ĠØ¨Ø£ÙĨ": 1232, "ĠÙħÙĨØ³ÙĥØ§": 9942, "ĠÙĨØ¹": 2481, "ĠÙĪØ®Ø±": 4609, "ØµØ¯ÙĤ": 1664, "ĠØ£": 62, "ĠÙģØªÙħÙĨÙĪØ§": 8321, "ĠØ¨Ø¢Ø¨Ø§Ø¦": 9285, "ĠÙĪÙĬØ¶Ø±Ø¨": 7902, "ĠÙĬØ¹Ø±Ø´ÙĪÙĨ": 10301, "<BOS>": 1, "ĠØ§ÙĦÙĤØ§Ø±Ø¹Ø©": 6049, "ĠØ£ÙĩÙĦÙĬ": 8347, "ĠØŃØ·Ø©": 7763, "ĠÙĪØªÙĪÙģÙĨØ§": 9987, "ĠÙĪØºØ±ØªÙĥÙħ": 9629, "ÙĬØ¨Ø©": 1469, "ĠÙĪØµ": 1085, "ĠÙħØ¹Ø±ÙĪØ´": 8106, "ĠØ§ÙĦØºÙĬ": 2559, "ĠØªØ·": 1951, "ĠØ§ÙĦÙħØ§Ø¡": 1678, "ĠØ£ÙĥØ«Ø±": 634, "ĠÙĪÙģØ±Ø¹ÙĪÙĨ": 4477, "ĠÙĪØ±Ø§Ø¡ÙĥÙħ": 8475, "ÙĤÙĪÙĦÙĪØ§": 4198, "ĠØ§ÙĦÙħÙĨ": 950, "Ø¨Ø¦ÙĩÙħ": 2406, "Ø¹Ø°Ø¨": 7225, "ĠÙĪØ²ÙĬÙĨØ§ÙĩØ§": 8876, "ĠÙĪØŃØ³ÙĨ": 3435, "ĠÙģØ§Ø³ØªÙĤÙĬÙħÙĪØ§": 8935, "ĠÙħÙĪØ§": 1932, "ĠÙĤØ±Ø¨Ø§ÙĨØ§": 9831, "Ø¹": 61, "ĠØ¥Ø¨ÙĦÙĬ": 2313, "ĠØ·ÙĦÙĪØ¹": 9995, "Ø¨ÙĩØ§": 3444, "ĠÙĪÙĬØ³Ø£ÙĦÙĪÙĨÙĥ": 3846, "ÙĥÙĪØ±": 5613, "ÙĪØ§ØªÙĥÙħ": 5001, "ÙĩØªØ¯ÙĪÙĨ": 1340, "ĠØ§ÙĦÙħØ³Ø¨ØŃ": 7740, "ĠØµØ¨": 4168, "ĠØ§Ø¨Øª": 4352, "ÙĦÙħØ§": 680, "ĠØ§ÙĦÙħØ¤ÙħÙĨÙĪÙĨ": 1401, "ĠÙĪØ£ØºØ±ÙĤÙĨØ§": 4842, "ĠØ¹ÙĤØ¯Ø©": 6953, "ĠØ¬ÙĪØ§Ø¨": 4864, "ĠØ´Ø±Ø§Ø¨": 5276, "ĠÙħÙĨÙĨØ§": 7426, "ĠÙĥØ±Ø³": 7512, "ĠØ¨Ø§ÙĦØ¹Ø¯ÙĦ": 3891, "ĠÙģØ§ÙĦÙĤ": 8900, "ĠØºØ±ÙĪØ±Ø§": 4514, "ĠÙĪØ±Ø²ÙĤÙĥÙħ": 6786, "ĠØ¨Ø§": 2653, "ĠØ°ÙĦ": 5968, "ĠØ±Ø³ÙĦÙĨØ§": 1895, "ĠÙģØ¶ÙĦÙĨØ§": 4364, "ĠÙĪÙĨÙĤÙĪÙĦ": 8247, "ĠØ³ÙĬØ¦Ø§Øª": 1487, "ĠÙĪØµÙħÙĪØ§": 9029, "ĠØ§ÙĦØ¬Ø§ÙĩÙĦÙĪÙĨ": 9465, "ĠØ¬ÙĩØ±Ø©": 5920, "ĠÙĪØ§ÙĦÙģØªÙĨØ©": 7603, "ĠØ£ÙĨØ²ÙĦÙĨØ§": 942, "ĠÙĪØ£ÙĨ": 322, "ĠÙĬØ¨Ø¹Ø«": 1438, "ĠÙĪØ¸ÙĦÙħÙĪØ§": 7166, "ĠØ§ÙĦØ·ÙĪÙĦ": 8788, "ĠØ«ÙĤÙģØªÙħ": 9547, "ĠØ§ÙħØ±Ø£": 1521, "ĠØ¨Ø¨Ø¯": 7360, "ĠØ£Ø±Ùī": 3951, "ĠØ¨ÙĦØº": 1591, "ÙģÙĬØ¸": 8461, "ÙĪÙģÙĬÙĩÙħ": 5013, "ĠÙĬÙģÙĤ": 1734, "ĠØµÙĬØ¯": 7985, "ĠÙģÙĦÙħ": 1688, "Ø°Ø±ÙĥÙħ": 2971, "ĠÙĬÙħØ³Ø³ÙĨÙĬ": 9249, "ĠÙĦØ¹ÙĦÙĬ": 3325, "ĠØ£ÙĪØªÙĪØ§": 1094, "ĠÙĬØ³ØªØ¨Ø´Ø±ÙĪÙĨ": 4288, "ĠØ§ÙĦÙħÙĨØª": 5247, "ĠØ§ÙĦØ¹Ø³Ø±": 6020, "ĠÙĨØ¹ÙħØ©": 1833, "ĠØ§ÙĦØºØ§ÙĦ": 2765, "ÙĩØ±Ùĩ": 4308, "ĠØªØ³ØªÙĥØ¨Ø±ÙĪÙĨ": 6559, "ĠÙĬØ³ØªØ£Ø°ÙĨÙĪÙĨÙĥ": 9889, "ĠÙĬØ£Ø°ÙĨ": 6223, "ĠØ¨Ø£ÙģÙĪØ§ÙĩÙĩÙħ": 3896, "ĠÙĪØ§ÙĦÙĦÙĬÙĦ": 3153, "ĠÙĬØ³ØªÙħØ¹ÙĪÙĨ": 3709, "ĠØ±ÙĪØŃÙĨØ§": 6828, "ĠÙĪÙĨØ¬ÙĪØ§": 8257, "ĠØ°ÙĨØ¨": 9321, "ĠÙħÙĥØ±ÙĩÙħ": 4448, "ĠØµØ¨Ø±ÙĨØ§": 9718, "ĠÙħØ¹Ø°Ø±ØªÙĩÙħ": 8105, "ĠØ§Ø´ØªÙħÙĦØª": 9306, "ĠØ¹ØµÙĪØ§": 6619, "ĠØ£Ø±Ø¯ÙĨØ§": 4346, "ĠÙĪÙĦØ¨Ø¦Ø³": 4886, "ĠÙħØ«ÙĦÙĩ": 2385, "ĠØ§ÙĦØ£Ø³": 3594, "ĠØ·Ø±Ø§Ø¦ÙĤ": 10297, "ØªÙĩ": 328, "ĠÙĨØ¨Ø£": 1835, "ĠÙĦØ³Ø§ØŃØ±": 5539, "ĠÙĦÙĤÙĪÙĦ": 4665, "ĠÙħÙģ": 3450, "Ø·Ø§ÙĨØ§": 2136, "ĠØµØ¹": 4169, "ĠØªØ³Ø¹Ùī": 6481, "Ø¹Ø°Ø¨Ùĩ": 7232, "ĠØ§ÙĦÙĤØ¯Ø³": 5422, "ĠØ¢ÙħÙĨØªÙħ": 2943, "ĠØ³ÙĬØ±ÙĪØ§": 4071, "ĠØ¨Ø¬ÙĩØ§ÙĦØ©": 5514, "ĠØ±Ø£ÙĬØª": 3781, "ĠÙħØ¹Ø§Ø¬": 6109, "ÙĬØ±ÙĪØ§": 1635, "ĠÙĬÙħØ´ÙĪÙĨ": 4366, "ÙĨØµØ±": 3909, "ĠÙĥØ§ØªØ¨": 6926, "ĠØ®ÙĬØ§ÙĨ": 7797, "ĠØªØ±ØªÙĬÙĦØ§": 8230, "ĠØ¬Ø±Ùħ": 4100, "ĠØ¹Ø§ÙħÙĦÙĪÙĨ": 6779, "ĠØ§ÙĦØ±Ø¬ÙĬÙħ": 9267, "ĠÙĬØªÙħ": 4674, "ĠÙĥØ£Ø³Ø§": 9331, "ĠØ³Ø±Ø§Ø¹Ø§": 9423, "ĠØ´Ø±": 1142, "ĠØ£ÙĨÙī": 1864, "ĠÙĬØ¹Ø¯": 1942, "¦": 9, "ĠØ§ÙĦØ®Ø§Ø³Ø±ÙĪÙĨ": 2386, "ĠÙģØ§Ø¬ÙĦ": 8204, "ĠØªÙĥÙĪÙĨÙĪØ§": 1490, "ÙĩÙģ": 3426, "ĠÙĪÙĥÙģÙī": 1467, "Ø²Ø¨": 2683, "ĠØ§ÙĦÙĤØ±Ø§Ø±": 6048, "ØªÙħØ±ÙĪÙĨ": 7766, "ĠØ§ÙĦÙĥØ§ÙģØ±": 8028, "ĠÙĬØ³ØªØºÙĬØ«": 8458, "Ø¯Ø®ÙĦÙĨÙĩÙħ": 9214, "ĠÙģØ§Ø·Ø±": 3887, "ĠÙĤØ³ÙħØ©": 9949, "ÙĬØ¯Ùĩ": 1974, "ĠÙĪØ°ÙĦÙĥ": 2052, "ĠÙĨØ¶ÙĬØ¹": 5846, "ĠÙģØ§Ø³ØªØºÙģØ±ÙĪØ§": 8936, "ÙħØ§Ø¦": 4019, "ĠØ¹Ø°Ø§Ø¨Ø§": 981, "ĠÙħØ¹ÙĬ": 1990, "ĠÙĪÙĦØ¹ÙĦ": 2213, "ĠØ£Ø¬ÙĦØª": 8407, "ĠÙĪØ±ÙĤ": 8471, "ĠØ£ÙĨØµØ§Ø±ÙĬ": 9646, "ĠØ³ÙĥÙĨØ§": 9773, "ĠÙħÙĤØ§ÙĦÙĬØ¯": 10191, "ĠÙĬÙĩØ¯ÙĬÙĩÙħ": 6519, "ĠÙĬÙĨØ¨Ø£": 9581, "ĠÙħÙģØª": 3932, "ĠÙĦÙĦØ´": 4990, "Ø²ÙĪØ§": 630, "Ø²ÙĦÙĨØ§": 661, "Ø³Ø§Ø¡": 901, "ĠÙĪØ§ÙĦÙĦÙĩ": 259, "ĠÙĥØ³": 2669, "ĠØ£ØµØ§Ø¨Ø¹ÙĩÙħ": 9111, "ĠÙħØ±Ø³Ø§ÙĩØ§": 9689, "ĠØ¯Ø±Ø¬Ø©": 5380, "Ø·Ø±ÙĨØ§": 3773, "ĠÙĦÙĬÙĩØ¯ÙĬÙĩÙħ": 8010, "Ø§ÙģØ±ÙĪÙĨ": 1016, "ĠÙħÙĤ": 2295, "ĠÙĪÙĬÙģØ¹ÙĦÙĪÙĨ": 10098, "ĠÙĦÙĪØ§ÙĤØ¹": 6887, "ĠØ£Ø¯ÙĨÙī": 2785, "ĠÙĬØªØ°ÙĥØ±": 3241, "ĠØ§ÙĦÙĤ": 195, "ĠÙĪØ£ÙĤÙĬÙħÙĪØ§": 2339, "ĠØ¯ÙĬÙĨØ§": 4922, "ĠÙĬØ¶Ø±ÙĥÙħ": 6750, "ĠÙĪØ¨Ø±Ø§": 8482, "ĠØ£Ø¹Ø¸Ùħ": 8604, "ĠÙĬÙĪØŃÙī": 2037, "ĠÙĨØ´Ø£": 6591, "ĠÙĪØ³Ø¹Øª": 8660, "ĠÙĬØºØ§Ø«": 8808, "ĠØ§ÙĦØ¯Ø§": 4602, "ĠÙĨØ³Ø¨ØŃ": 7626, "ĠØªØ¯ÙħÙĬØ±Ø§": 8761, "ĠÙĬØ£ØªÙĩÙħ": 6222, "ĠÙĪÙĨÙģØ®": 3265, "ĠÙĪØ³Ø§Ø¡": 6387, "ĠÙħØ¹Ø±ÙĪØ´Ø§Øª": 10284, "ĠØ®Ø³Ø±": 3586, "ĠÙĬØ¹ÙĬØ¯": 4264, "ĠÙĬÙģÙĤÙĩÙĪÙĩ": 6723, "ØºÙģØ±Ø©": 1209, "ĠÙĩÙĨØ§ÙĦÙĥ": 2821, "ĠÙħÙģØµÙĦØ§": 9742, "ĠÙĪØ£ÙĬØ¯ÙĬÙĥÙħ": 5442, "Øº": 131, "Ø¨ÙĦØº": 1293, "Ø°ÙĪÙĤÙĪØ§": 1740, "ĠØ³Ø¨ÙĬÙĦÙĬ": 6259, "ĠØ£ÙħØ±ÙĩØ§": 6355, "ĠØ£ÙĦØ³ÙĨØªÙĥÙħ": 9388, "ØŃÙĪÙĩÙĨ": 4718, "ÙĦØ§Ø³ÙĦ": 7466, "ĠÙĪØ¬ÙĦØª": 8070, "ĠØ¨Ø®ÙĬØ±": 3811, "ĠÙĬØ¨Ø¹Ø«ÙĩÙħ": 6669, "ĠÙĪØ¬Ø¯ÙĨØ§": 1988, "ĠÙĪØ§ØµØ·": 4455, "ĠÙħØ¹ÙĦ": 2296, "ĠÙģØµØ¨Ø±": 9216, "Ø®ÙĦÙģÙĬÙĨ": 9360, "ĠØªØ®Ø§Ø·Ø¨ÙĨÙĬ": 8732, "ĠÙĪØ£Ø®Ø±Ùī": 6870, "ÙĦÙĬÙħØ§ÙĨ": 1699, "ĠØ£ÙħØ±Ø§": 1715, "ĠØ¹Ø§ÙĤØ±Ø§": 9027, "Ø·ÙĩØ±ÙĪÙĨ": 5863, "Ø«Ø±ÙĪÙĨ": 7698, "ĠØ¢ÙĪÙĪØ§": 7713, "Ø§Ø·ÙĬØ±": 2550, "ĠØ¨ÙĩÙĬÙħØ©": 6062, "ĠÙģØ£ØŃÙĬ": 7949, "ĠØ£ÙħÙĨØªÙħ": 5332, "ĠØ§ÙĦÙħØ´Ø±ÙĤÙĬÙĨ": 9662, "ĠÙĪÙĦØªØ¹ÙĦÙħÙĨ": 9064, "ĠØ£ØŃÙĬØ§Ø¡": 5496, "ĠØ¹ÙĪÙĤ": 7443, "ĠÙĪØ£ÙĪÙĦØ¦Ùĥ": 1289, "ĠÙĬØ³ØªØ·ÙĬØ¹": 8454, "ĠÙĦØ±Ø¨ÙĩÙħ": 4479, "Ø§Ø¡ÙĥÙħ": 1705, "ØŃÙĥÙĪÙĨ": 4005, "ĠØ§ÙĦÙħØ®ÙĦØµÙĬÙĨ": 2909, "ĠØ¯ÙĬØ§Ø±ÙĥÙħ": 5404, "ĠØ§Ø±ØªØ¶Ùī": 7033, "ĠØ£ÙĨÙĬ": 1863, "ÙħÙĩÙĦ": 5415, "ĠØ¶Ø±": 2747, "ĠØ§ÙĦÙĨØ³Ø§Ø¡": 1332, "ĠÙĬØ¬": 533, "ÙĥÙĨ": 789, "ĠØ¹Ø³Ùī": 1443, "ĠØŃØ¯ÙĬØ¯": 5904, "ĠØ§Ø¬Ø¹ÙĦÙĨÙĬ": 9616, "Ø§ÙģØ¸": 1656, "ĠØ¬Ø§Ø¡ÙĥÙħ": 1297, "ĠÙĪØ§ÙĦÙĨØ¬ÙĪÙħ": 6983, "ĠÙĦØ£ÙĥÙģØ±": 6304, "ĠØªØ¸Ø§ÙĩØ±Ø§": 9768, "Ø¬Ø§Ø©": 9458, "Ø·ÙĪ": 7683, "ĠÙĬØŃÙĬÙī": 4398, "ĠÙĥØ¨ÙĬØ±Ø§": 1698, "ÙĦØ§ÙĦØ©": 6429, "ĠØ¨Ø±Ø³": 7358, "ĠÙĪÙĦÙĨØ°ÙĬÙĤ": 8951, "Ø·Ø§Ø¹ÙĪØ§": 4355, "ĠÙĤØ¯ÙĬØ±": 998, "ÙĩÙĬØ¯": 5581, "ÙĦÙĬÙĨØ§": 599, "ĠÙħØ¨ÙĬÙĨØ§": 2152, "Ø·Ø´": 4823, "ĠÙĪØ§ÙĦÙĨØ®ÙĦ": 6489, "ĠØ¨ÙĤÙĪÙħ": 6617, "ĠÙĪØ¹ØªÙĪØ§": 8362, "ÙĦÙĨØ§": 219, "ĠØ§ÙĦÙģØ¬Ø±": 4318, "Ø¯Ùī": 628, "Ø§Ø¤": 777, "ĠØ±Ø£ÙĪØ§": 2585, "ĠÙĪÙĦØ¹ÙĦÙĥÙħ": 2827, "ĠØ£ØªØ§Ùĥ": 3837, "Ø±ÙĬØ¨": 4949, "ĠØ¬ÙħØ¹Ø§": 5918, "Ø³Ø·ÙĪØ§": 6505, "ĠØ³Ø¯ÙĬØ¯": 7668, "ĠØªØ±ÙĥÙĪØ§": 9189, "ĠÙĦÙĬØ¬Ø²ÙĬÙĩÙħ": 9578, "Ø³Ø±": 311, "ĠØ³ÙĪØ¢ØªÙĩÙħØ§": 5534, "ĠØ¨Ø§ÙĦØ®ÙĬØ±": 5963, "Ø²ÙĦÙĩ": 4784, "ĠØªÙĥÙĦÙħ": 5105, "ĠØ´ÙĬØ¹ØªÙĩ": 7020, "ĠÙģØ¢ØªÙĪÙĩÙĨ": 9906, "ĠÙĪØºÙĬØ±": 3923, "ÙĦØ§ÙĩØ§": 4740, "Ø²ÙģØ©": 7575, "ĠØ¬ÙħÙĬ": 758, "ĠØ§ÙĦÙģØ¬Ø§Ø±": 8641, "ĠØ¢ÙĬØª": 5870, "ĠÙħØ±Ø©": 2010, "Ø¬Ø²ÙĬ": 1564, "ĠÙħØ±Ø¯": 3711, "ÙģÙĤÙĪÙĨ": 1004, "ĠØ§ÙĦØ«": 1548, "ĠÙĪØ¬Ø§Ø¡ÙĪØ§": 6627, "ĠØ§ÙĦÙħØ¬ÙĬØ¯": 9777, "ÙĩØ¯ÙĬ": 566, "ĠÙĪØ§ÙĦÙĨØ¨ÙĪØ©": 6490, "ÙģÙĪÙĨ": 867, "ĠØªØªØ¨Ø¹ÙĪØ§": 3053, "ĠØ²Ø§Ø¯": 3286, "ĠØ§ÙĦØ£ÙħØ§": 5935, "ĠØ¹Ø±Ùģ": 5747, "Ø±ÙĪÙģ": 949, "ĠØ£ØŃÙĦØª": 8217, "ĠØ±Ø¬ÙĦØ§": 3004, "ĠÙħØªØ¹ÙĨØ§": 6464, "ÙĦÙĨØ§ÙĩÙħ": 3230, "ĠØ£Ø±Ø³ÙĦÙĨØ§": 687, "ĠÙĦØ°": 3967, "ĠÙģØ£Øµ": 1202, "ĠØªÙģØ±": 2664, "ĠØ´Ø±ÙĥØ§Ø¦ÙĥÙħ": 6574, "Ø«ÙĬÙħ": 7696, "Ø¬Ø²ÙĬÙĩÙħ": 6697, "ĠÙĦÙģØ±Ø¹ÙĪÙĨ": 9750, "ĠØ¸ÙĦÙħØª": 6444, "ĠÙģØ¬Ø¹ÙĦÙĩÙħ": 9811, "Ø«ÙĬØ§": 7697, "ĠØ£Ø¨ÙĪØ§Ø¨": 2397, "ĠØ§ÙĦØ£ÙĦÙĬÙħ": 3595, "ĠØ´Ø±Ø§Ø¨Ø§": 9075, "ĠÙħØ²Ø§Ø¬ÙĩØ§": 9921, "ĠØ¨Ø§ÙĦØ¹Ø°Ø§Ø¨": 3833, "ĠÙĤÙĪÙħÙĩÙħ": 3257, "Ø¨Ø¯ÙĦ": 2367, "ĠØ³ÙĬØ¦Ø§ØªÙĩÙħ": 3375, "ĠØ§ÙĦØ£Ø®": 2345, "ĠÙĩÙĪØ¯": 4976, "ĠÙĪØ£ÙĬØ¯ÙĨØ§Ùĩ": 9573, "ĠÙĪÙĦÙĪÙĦØ§": 1323, "ĠÙħØ¹Ø±Ø¶ÙĪÙĨ": 1992, "ĠÙĪØ¢Ø®Ø±ÙĪÙĨ": 5147, "ĠÙħØ¹Ùĩ": 1054, "ØŃØ¨Ø·": 4008, "ÙĩØ¨Ø§": 4595, "ĠÙĪØ¸ÙĨ": 5321, "ĠØ§ÙĦÙĦØ·ÙĬÙģ": 10033, "ĠØµØ¯Ø±Ùĩ": 6426, "ĠØ®Ø¨Ø±Ø§": 7785, "ĠØ¥ÙĬÙħØ§ÙĨÙĩÙħ": 3812, "ÙĨØ°Ø±": 2166, "Ø¨ÙĬØ±Ø§": 1086, "ĠØ§ÙĦØ¹ÙĨÙĥ": 7965, "ĠØ§Ø¨ØªÙĦØ§Ùĩ": 9895, "ĠÙħØŃØ±ÙĪÙħÙĪÙĨ": 9746, "ĠØ£Ø®ÙĦ": 7239, "ĠØ³Ø£Ø±ÙĬÙĥÙħ": 9391, "ÙĪØ§Ø±ÙĬ": 3118, "ĠØ£ÙĬÙĩÙħ": 3653, "ĠÙĬØ¹Ø¸ÙĥÙħ": 5077, "ĠØ®ÙģØª": 3588, "ĠÙħÙĨÙĥÙħ": 475, "ĠÙĪÙħÙĪØ³Ùī": 4283, "ĠØªØ´Ø±": 7470, "ĠÙĨØ§Ø¯": 1701, "ĠØªØ£ØªÙĬÙĩÙħ": 1827, "Ø¬ÙĪØ±Ø§": 5774, "ĠØ§ÙģØªØ±Ø§Ø¡": 9083, "ĠÙĥØ§ÙħÙĦØ©": 10226, "ĠØ§ÙĦØµØ§ØºØ±ÙĬÙĨ": 10282, "ĠØ±Ø´": 2679, "ĠÙģØ°Ø±ÙĩÙħ": 3474, "ĠÙĦØŃØ¯": 7314, "ÙĬØ·": 5567, "ĠØ§ÙĦØŃÙħØ¯": 1268, "ĠØ£ØŃØµÙĬÙĨØ§Ùĩ": 9618, "ħ": 37, "ĠÙĪØ¨Ø£ÙĬÙħØ§ÙĨÙĩÙħ": 8487, "ĠÙĨØ¹ÙħØªÙĥ": 8849, "ĠÙģÙĬÙĨØ¨Ø¦ÙĥÙħ": 3377, "ĠÙĨØ¨Øª": 7623, "ĠØ°ÙĬ": 1579, "ĠØ³ÙĬØ¬Ø²ÙĬÙĩÙħ": 8712, "ĠÙĥÙĨØªÙĨ": 8848, "ĠÙĪØ§ÙĦÙħØ¤ØªÙģÙĥØ§Øª": 10175, "ĠØ§ÙĦØµ": 251, "ĠØ¨ÙĬÙħÙĬÙĨ": 3496, "ĠÙģØ§ÙĤØªÙĦÙĪØ§": 8206, "ĠØ§ÙĦØµØ§ÙĦØŃÙĪÙĨ": 6386, "ĠØ§ÙĦØ¹ÙĩØ¯": 7961, "ĠÙĪÙĥØ±ÙĩØ§": 10182, "ĠÙĪØ§Ø¶Ø±Ø¨": 5501, "ĠØºÙģÙĪØ±": 800, "Ø¨Ø«": 3086, "ĠÙĬØ³Ø±ÙĪÙĨ": 5109, "ĠØ´Ø·Ø±Ùĩ": 9852, "ĠØ§ÙĦÙĥØ§Ø°Ø¨ÙĪÙĨ": 6070, "ĠØ¨ÙģØ§ÙĥÙĩØ©": 9755, "ĠÙĬØ§": 199, "Ø¹Ùĩ": 4630, "ĠÙħØªØ§Ø¹Ø§": 3365, "ĠÙĥØ°ÙĦÙĥ": 555, "ØµØ¯Ø©": 5803, "ĠØ§ÙĩØªØ¯Ùī": 3388, "Ø±Ø§ÙħØ§": 4883, "ÙĤÙĥÙħ": 7334, "ĠØ³Ø§Ùĩ": 7672, "ĠÙģØ¹ÙĦÙĬ": 8995, "ĠØªØµÙĦ": 8965, "ĠØ§ÙĦÙħÙĬØ²Ø§ÙĨ": 5901, "ÙĪØ§Ø¹ÙĤ": 7352, "ĠÙĪØ£ØµÙĦØŃ": 1838, "ĠÙĥØ°Ø§Ø¨Ø§": 9770, "ÙĩÙĪÙĨ": 863, "ĠÙĦØ¶": 7298, "ÙģÙĥÙĪÙĨ": 2066, "ĠÙĦØ¨Ø¯Ø§": 7311, "ĠÙĨØªØ®Ø°Ùĩ": 9960, "ĠÙĪØ£Ø²ÙĪØ§Ø¬ÙĩÙħ": 5466, "ĠØ¯ÙħØ±ÙĨØ§": 9978, "ĠØ¨Ø§ÙĦØ°ÙĬÙĨ": 3602, "ĠÙĬØ¯Ùĩ": 6279, "ÙĤØ§ÙĬØ©": 8222, "ÙģØ±ÙĪØ§": 1709, "ĠØ§ÙĦØ¹Ø°Ø§Ø¨": 558, "ĠØ§ÙĦØ³ÙħØ§ÙĪØ§Øª": 315, "Ø¸Ø±ÙĪÙĨ": 979, "ĠÙģØ¢ÙħÙĨ": 6632, "ÙĦÙĤ": 185, "ĠØ§ÙĦØ£ÙħÙĪØ±": 2155, "ÙĪØ¨ÙĪØ§": 6125, "ĠÙĤØ±ÙĨØ§": 9221, "ĠÙĬØºÙĨÙĪØ§": 5198, "ØªÙħØ¹": 3187, "ĠÙĬØ§Ø¨": 5689, "ĠÙĨØ²Øº": 6738, "ĠØŃØ¨Ùĩ": 7759, "ĠÙĨÙĪØ±": 1960, "ĠÙĦØ§ØªØ¨Ø¹": 6914, "ĠØ·ÙĪÙĬÙĦØ§": 8275, "Ø§ÙĦÙĥ": 2439, "ĠÙĨØ¹Ø¨Ø¯": 3159, "ĠÙģØ£ØªØ¨Ø¹": 2931, "Ø®Ø·Ùģ": 4769, "ĠØ³ØªØ¬Ø¯": 5508, "ĠÙģØ£ØŃÙĬØ§": 4160, "ĠØ§ØµØ·ÙģÙī": 6946, "ĠØªØ¹ÙĦÙħ": 603, "ĠØ§ÙħØ±Ø£ØªÙĥ": 9273, "ĠÙĪÙĦ": 148, "ĠÙĬØ¹ÙĦÙħÙĪØ§": 4248, "ĠØ£ÙĪØ²": 4134, "ÙĤÙĬ": 2648, "Ø§ÙĦØŃÙĬÙĨ": 5074, "ĠÙĪØ¹Ø¯Ø§": 3319, "ĠØ£Ø¹ÙĬÙĨ": 1901, "ĠØ¹Ø±ÙĪØ´ÙĩØ§": 6921, "ĠÙĪØ´Ø±Ø§Ø¨": 6993, "Ø£ÙĬ": 666, "ÙĪÙĬÙĦÙĩ": 3013, "ĠØ¬Ø§Ø¡": 289, "ĠØ²ÙĬÙĨ": 1415, "ĠÙģØµ": 1435, "ĠÙĪÙĨØ°Ø±": 2958, "ØŃÙĦ": 4713, "ÙĪÙĦÙĪØ¯": 5873, "ÙĦØ©": 724, "ĠØ§ÙĦØŃØ§ÙĥÙħÙĬÙĨ": 4572, "ĠØµØºÙĬØ±": 6039, "ĠÙĨØ´Ø±": 7615, "ÙĨØ§ÙĩØ§": 1395, "ĠØ³ÙĨÙĦÙĤÙĬ": 9061, "ÙĦÙĪÙĥ": 7079, "Ø·ÙĦÙĤØ§Øª": 9490, "ÙĪÙĨÙĬ": 2460, "ĠØ§ÙĦÙĪØ³": 5592, "ÙĨØ·": 7082, "ĠÙģØ¶ÙĦÙĪØ§": 6495, "ĠÙĪØ§ÙĦÙħØ³Ø¬Ø¯": 9361, "ĠØ£ÙĦÙĬÙħ": 792, "ĠÙĪØ¥Ø³ØªØ¨Ø±ÙĤ": 5949, "ĠØ¸ÙĩÙĪØ±": 5381, "ĠØªØ¨Ø®Ø³ÙĪØ§": 6545, "Ø§Ø¦ÙĩØ§": 8063, "ĠÙĬØŃÙĦÙģÙĪÙĨ": 4223, "ĠÙģØ£ØµØ§Ø¨ÙĩÙħ": 9096, "Ø²ÙĬ": 324, "ĠÙĦØ¨Ø§Ø³Ø§": 6888, "ĠØ£ÙĬØ¯ÙĬ": 3762, "ĠÙĨÙĤØ§ØªÙĦ": 7639, "ĠÙĪÙĩØ§ÙħØ§ÙĨ": 5357, "ĠÙĬØŃØ°Ø±": 8171, "ĠØ¨Ø§ÙĦÙħØ¬Ø±ÙħÙĬÙĨ": 9264, "ĠØ§ÙĦØ£ÙĬØ§Ùħ": 5941, "ÙĪØªÙī": 1676, "ĠØ¹Øª": 3515, "ĠÙĬØ¬Ø²ÙĬ": 6369, "ĠÙĦØºÙĬØ±": 5296, "ĠÙħÙĦÙĥÙĪØª": 5194, "ÙĦÙĪ": 1422, "ĠÙĨÙħ": 2686, "ĠÙĦÙģØ±": 3476, "ĠÙĬØŃØ¨ÙĪÙĨ": 3658, "ĠØ§ÙĦÙĥÙĪØ§Ùĥ": 8031, "ĠÙĬØ¤ØªÙĥÙħ": 5185, "ĠÙĪÙĬÙĤØ¨": 7897, "ĠØ¬Ø¯ÙĦØ§": 9843, "ĠØ£ØŃØµÙĨØª": 9617, "Ø§ÙĦØ¨": 4593, "ĠÙĦÙĪÙĨÙĩØ§": 7317, "ĠÙĤØ§Ø¦": 1629, "ÙĦØ§Ùģ": 1856, "ĠÙģØ¤Ø§Ø¯Ùĥ": 10054, "ĠØŃØ³Ø¨ØªÙħ": 6701, "ĠØ¨Ø§Ø·ÙĦØ§": 10063, "ĠØ§ÙĦØºÙĬØ¨": 1210, "ĠØ¨ÙĤÙĦØ¨": 5720, "ĠØ£ÙĤÙħ": 6518, "ÙĪÙĨØ§": 3502, "ĠÙģØ§Ø¹Ø¨Ø¯ÙĪÙĩ": 4506, "ĠØ£ÙģØºÙĬØ±": 5051, "ĠÙĨÙĥÙĬØ±": 4406, "ĠØ£Ø¨Ø¯Ø§": 1180, "ĠÙĪÙħÙĬ": 7146, "ĠÙĦÙĦÙĨØ§Ø³": 808, "ĠÙĪØ¨Ø¯Ø§": 3921, "ĠÙĦÙĩØ¯": 4663, "ØµØ§Ø±Ø§": 7556, "ĠØ¬ÙĨØªÙĬÙĨ": 7778, "ÙĤÙĬÙħÙĪÙĨ": 3738, "ĠÙĪØ±ÙĩØ¨Ø§": 8477, "ĠÙĪØ¥ÙħØ§": 1969, "Ø¨Ùī": 3443, "ĠØ¨Ø¹Ø¨Ø§Ø¯ØªÙĩÙħ": 9498, "ĠÙĦØ³": 2305, "ĠÙĪØ£ÙĪØŃÙĬÙĨØ§": 3065, "ĠØ³Øª": 3562, "ĠÙĪÙĪØ¬ÙĪÙĩ": 7164, "ĠØ§ÙĩØª": 1885, "ĠÙĪÙĥÙģØ±Ø§": 5431, "ĠØªØ´Ø±Ø¨ÙĪÙĨ": 10219, "ĠÙĪÙĨØ³ÙĬ": 8250, "ĠÙħØ¤ÙħÙĨØ©": 3840, "ĠÙĪÙĤØ¹ÙĪØ¯Ø§": 7981, "ĠØ£Ø³Ø§ÙĪØ±": 5170, "ØªÙħÙĪÙĩÙħ": 2912, "ĠØ¨Ø¹Ø¯ÙĩØ§": 3660, "ĠÙĤØ¶ÙĬØªÙħ": 9644, "ØµÙĦØ¨": 4774, "ĠÙĪØ¢ÙĦ": 6359, "ĠÙĦØªØ±Ùĥ": 6344, "ĠÙĨØ²": 1789, "ĠØ¨Ø±Ø¨Ùĥ": 4410, "ĠØ¬ÙĩØ§": 5916, "ĠØŃÙħÙĬÙħØ§": 7010, "Ø¬Ø¯Ø§": 7505, "ĠØ¹Ø¬Ø§Ùģ": 9289, "ĠØ§ÙĦØ£Ø´ÙĩØ§Ø¯": 9854, "ĠÙĬØ¨ØµØ±ÙĪÙĨ": 2254, "ÙĥØª": 2289, "ĠØ§ÙĦÙħÙĤØ±Ø¨": 2908, "ĠØµØ¯Ø±Ùĥ": 5179, "ĠØªÙĦÙĩ": 5752, "ĠÙħÙĥØ§ÙĨÙĩ": 6651, "Ø§Ø±ÙĩØ§": 4913, "ĠÙħØ¹Ùĥ": 2228, "ĠÙĥÙģÙĪØ±": 4032, "ĠØ§ÙĦÙĬ": 1492, "ĠÙĤØªÙĦÙĪØ§": 3826, "ĠÙĪØ¶ÙĦ": 2845, "ĠÙĥØ§Ø±ÙĩÙĪÙĨ": 4552, "ĠÙĨØ®Ø±Ø¬": 4800, "ĠÙģØ¶ÙĦÙĩ": 1213, "ĠÙĪÙĤÙĦÙĪØ¨ÙĩÙħ": 6611, "ĠÙĦÙĦØ®": 6132, "ĠØ£ØªØ±ÙĬØ¯ÙĪÙĨ": 9793, "Ø¹ÙĬÙħ": 1615, "ĠØ³Ø¨ÙĤÙĥÙħ": 9796, "ĠØ§ÙĦØ£ØµÙģØ§Ø¯": 10261, "ĠÙħØ¤ÙħÙĨÙĬÙĨ": 1041, "ĠØ§Ø³Øª": 471, "ĠØ¨Ø±Ø³ÙĪÙĦ": 7377, "ÙĥÙĪÙĨ": 257, "ĠØ¨Ø§ÙĦØ¥Ø«Ùħ": 4518, "ØªØ¨Ø°Øª": 8705, "Ø§Ø³ÙĬØ©": 9043, "ĠÙĪØ§Ø¬ØªØ¨": 9723, "ĠØ§ÙĦØ®Ø±": 3917, "ÙĦÙĪÙĨ": 178, "ĠÙĥÙĦÙħ": 1155, "ÙĤØ§Ùħ": 1475, "ĠÙĪØ³Ø¹": 2394, "ĠÙĪØ¬Ø§ÙĩØ¯ÙĪØ§": 2530, "ĠÙģÙĬÙĨØ¸Ø±ÙĪØ§": 3825, "ĠÙĪØ§ÙĦÙĨØµØ§Ø±Ùī": 4361, "ĠÙĥØ§ÙģØ©": 4553, "ĠØ¨ÙĩØªØ§ÙĨØ§": 5550, "ĠÙħÙĨØªÙĤ": 5742, "ĠÙĤÙĬÙħØ§": 7528, "Ø´": 105, "ĠÙĨÙĤØµØµ": 9655, "Ø¨Ø¥": 5621, "ĠØ¹Ø§ÙħØ§": 6920, "ĠÙĨØªÙĤ": 7630, "ĠØ±Ø¯Øª": 7563, "ĠÙĪØŃØ±Ùħ": 6883, "ĠÙĬØ¬ÙĬØ±": 6368, "ĠÙĪØ¥Ø°Ø§": 397, "ĠÙĬÙĤØ¯Ø±ÙĪÙĨ": 6999, "ĠØ¹ÙĬÙĨÙĩØ§": 9312, "ÙĦØ§Ø¦Ø¯": 9599, "ĠØªØªØ¨Ø¹ÙĪÙĨ": 5122, "ĠÙĨØ®ÙĦ": 7622, "ÙĬØ¨Ø§": 1146, "ĠØ´ØªÙī": 7802, "ĠÙĪØ§ÙĦØ¹": 2890, "ĠÙħØ´Ø±Ùĥ": 4623, "ØªÙĬØ§ÙĨ": 8061, "Ø±Øµ": 7121, "ĠØ§ÙĦØ³ÙģÙĩ": 4138, "ĠÙĪØªÙĪÙĦÙī": 3248, "ĠÙĪØ¶Ø§ÙĤ": 9445, "ĠØ¢ÙĦÙĩØªÙĩÙħ": 9081, "ĠØ§ÙĦÙĨØµÙĬØ±": 8236, "ĠÙħØ³ÙĥÙĬÙĨ": 8517, "ĠØ±Ø§ÙĪØ¯ØªÙĩ": 9912, "ĠØ£Ø¨Ø§ÙĨØ§": 3402, "ĠØ§ÙĤØª": 2726, "Ø¯ÙĪ": 5649, "ĠØªÙħØ´": 9135, "ĠÙĨÙĥØ§ØŃØ§": 10240, "ĠÙĬØ®ÙĦÙģ": 3290, "ĠØ§ÙĦÙĨØ§Ø±": 496, "ĠÙĪØ±Ø¯": 6290, "ĠÙĬØª": 266, "ÙĪØ¨ÙĩØ§": 8131, "ĠØŃØ¬Ø§Ø±Ø©": 4445, "Ø®Ø±Ø¬ÙĬÙĨ": 8370, "ĠÙĬÙĤØ¯Ø±": 4684, "Ø§Ùĥ": 847, "ĠÙĪØŃØ±": 3083, "ĠØªØ¹ØªØ°Ø±ÙĪØ§": 6903, "ĠØ¬ÙĬØ¨Ùĥ": 10254, "Ø´ÙĬØ©": 7580, "ĠÙĤØ¨ÙĦÙĥ": 1081, "ĠØ§ÙĦØ®ÙĬØ±": 1592, "ÙĪØ§": 70, "ĠÙģÙħØªØ§Ø¹": 9593, "Ø²Ø§Ø¡": 5820, "ĠÙĨØµØ¨": 5219, "ĠÙĪÙĩØ§Ø¬Ø±ÙĪØ§": 5358, "ĠÙģØ¹ÙĦÙĨ": 9087, "ĠØ¥ÙĬÙħØ§": 1311, "ĠÙĬØ±ÙĪÙĨ": 2188, "ĠÙĪØµØ§ÙĥÙħ": 5265, "ĠÙģØŃ": 7269, "ĠÙĪØ§ÙĦØ¬Ø¨Ø§ÙĦ": 3859, "ÙģØªØŃÙĪØ§": 8403, "ĠÙħØŃ": 1130, "ĠÙĪÙĬØ¹ÙĦÙħÙĪÙĨ": 9211, "ĠÙĤÙĨ": 5784, "ĠÙĪÙĤØ§ØªÙĦÙĪØ§": 4165, "ĠÙĨØ£": 5840, "ĠÙĪØ¹ÙĦÙħÙĨØ§Ùĩ": 9625, "ĠØ§ÙĦØ£ÙĦÙĪØ§ØŃ": 7057, "ĠÙģØ¬Ø§Ø¬Ø§": 9086, "ĠØ¨ÙĨØ¹ÙħØ©": 5309, "ĠÙĦÙĤÙĪØ§": 7304, "ĠØ§Ø³ØªØºÙģØ±ÙĪØ§": 6340, "ĠØ£Ø¨ÙĨØ§Ø¡ÙĩÙħ": 4494, "Ø§ÙĩØ±Ø§": 5211, "ĠØ¸ÙĦÙħØ§Øª": 2957, "ĠÙģØ±ØŃ": 8440, "ĠØ§ÙĦØ£Ø´ÙĤÙī": 9853, "ĠØ£ÙĦÙĤÙĪØ§": 3044, "ĠÙĪÙħÙĨØ°Ø±ÙĬÙĨ": 4929, "ĠØ§ÙĦØ´Ùĩ": 5066, "ĠØ£Ø¨Øª": 2639, "ĠÙģØ±Ø¬": 5095, "Ø®ÙĦÙĩ": 7547, "ĠÙĪØ³ÙĬÙĤ": 8663, "ĠØ£Ø¨ÙĨØ§Ø¡ÙĥÙħ": 5393, "Ø§Ø¬Ùĩ": 8946, "ĠØ°ÙĨÙĪØ¨ÙĥÙħ": 3867, "ĠØ¥ØŃ": 1775, "ĠÙĪØ§ÙĦÙĨØ§": 2479, "ĠØ²ÙĪØ¬": 1529, "ĠØ³ÙĨØ¨": 6593, "ĠÙģØ£ÙĬ": 7941, "ĠÙģØ§ÙĥÙĩÙĬÙĨ": 10128, "ĠØ§ÙĦÙħØ¹ÙĦÙĪÙħ": 10250, "ĠØ§ØªØ®Ø°Øª": 6609, "ĠÙĥØªØ¨": 1222, "ĠØ£ÙģÙĩÙħ": 8305, "ĠØ£ÙģÙĬ": 5047, "ĠÙĪÙħØ³Ø§": 5094, "ĠÙģØ¥ÙĨÙħØ§": 1145, "ĠØªÙģØª": 3523, "ĠØ£Ø·": 2851, "ØŃÙĬÙī": 6442, "ĠØ¨Ø£ÙģÙĪØ§ÙĩÙĥÙħ": 9686, "ÙĬØ§ÙĨØ§": 2921, "ĠØ£ÙĩÙĦÙĥÙĨØ§ÙĩÙħ": 5269, "ĠØ¬Ø¹ÙĦÙĨØ§ÙĩØ§": 6526, "ĠØ´Ø¬Ø±": 3590, "ĠÙĦÙĬØª": 3630, "ĠÙģØªØ±Ø¨ØµÙĪØ§": 5056, "ĠØ¨ÙĦØ§Ø¡": 3992, "Ø°Ø±ÙĪØ§": 2002, "ĠÙĦÙĤØ¯": 765, "ĠØ³ÙĬØ¦Ø§ØªÙĥÙħ": 4453, "ĠØ£ØµÙĨØ§": 5111, "Ø§Ø¦ÙģØ©": 6091, "ĠÙĤØ¨ÙĦÙĥÙħ": 1653, "ĠØ£ØŃÙĦØ§Ùħ": 6185, "ĠØªØ¹ÙĦÙħÙĪØ§": 4329, "ĠÙĪØ§ÙĦÙĨÙĩØ§Ø±": 1266, "ĠØ§ÙĦØ±Ø¶": 7127, "ĠØ§ÙĦØ«ÙĪØ§Ø¨": 9276, "ĠÙĪØ·Ø±Ø§": 9192, "Ø¯Ø¯ÙĥÙħ": 7259, "ĠÙħØ³ÙĪÙħØ©": 8520, "¶": 24, "ĠØ§ÙĦÙħÙĬÙħÙĨØ©": 7053, "ĠÙĪØ£Ø²ÙĦ": 5878, "ØªÙĦ": 917, "ĠÙĥÙĦØ§": 956, "ĠÙĬØ®Ø±Ø¬": 970, "ĠÙĥØ§Ùħ": 7514, "ĠØ¹ÙħÙĦÙĩ": 5175, "ĠÙĪÙħØ«ÙĦÙĩ": 6273, "ĠÙģØ¨Ø¹Ø«": 7283, "ĠØ§ÙĦÙĥØ§Ø°Ø¨ÙĬÙĨ": 2526, "ĠÙĦØ¯ÙĬÙĨØ§": 4409, "ĠØ¹Ø¯ÙĪØ§ÙĨ": 9417, "ĠÙĬØ¹ÙĬØ¯ÙĥÙħ": 9883, "ĠØªØ¬Ø¹ÙĦÙĪØ§": 4307, "ĠÙħØ¨Ø¯ÙĦ": 5634, "ÙĬØªÙĨÙĬ": 6312, "ĠÙħÙĨØ§Ø²ÙĦ": 10215, "ÙĦ": 45, "ĠØºØ§ÙģÙĦÙĪÙĨ": 3871, "ĠÙĥÙģØ§Ø±": 2322, "ĠØ·Ø§Ø¦Ø±ÙĥÙħ": 9099, "Ø±ÙĪØ§": 1177, "ĠØ¢ÙĦØ§Ùģ": 7711, "ĠØ£ÙĩØ¯Ùī": 3464, "²Ø¯Ø§Ø¯ÙĪØ§": 7072, "ĠÙģÙĬØµÙĬØ¨": 7540, "ĠÙģØ£ÙĦÙĤÙĬ": 9430, "ĠØ§ÙĦÙħØ³ØŃØ±ÙĬÙĨ": 8851, "ĠÙĪØ§Ø¹Ø¨Ø¯ÙĪØ§": 6111, "Ø§ÙĨØ¹": 7577, "ĠØ¹ÙĦÙĬ": 136, "ĠØ£Ø¨ÙĪÙĩÙħ": 8701, "ĠÙĬØ³ÙĤÙĪÙĨ": 8490, "ÙĬØ£": 7102, "ÙģØ¹ÙĦÙĪØ§": 7402, "ĠØ£Ø¹ÙħØ§ÙĦÙĥÙħ": 2794, "ĠÙĪØ¥ÙĬØ§ÙĬ": 6853, "ĠÙĬØ³Ø£ÙĦÙĥÙħ": 6298, "ĠØ§ÙĦÙħØ±Ø³ÙĦÙĬÙĨ": 1342, "Ø²ÙĤ": 488, "ĠÙĬÙĪÙĤÙĨÙĪÙĨ": 2434, "Ø¹ÙĬØ±": 2634, "ÙĩØ¯ÙĩÙħ": 7993, "ĠØ£ÙģØ£": 2113, "Ġ": 32, "ĠØŃÙħÙĦØ§": 8841, "ĠØ§ÙĨÙĤÙĦØ¨ØªÙħ": 10150, "ĠØ£Ø«ÙĤØ§ÙĦÙĩÙħ": 10023, "ĠÙĬØ¯Ø¹ÙĪ": 2978, "Ø³Ø¯ÙĪÙĨ": 7262, "ØªØ§Ø±": 5616, "ĠØ¨ØªØ£ÙĪÙĬÙĦÙĩ": 6990, "ĠÙģØ±Ø§": 7273, "ĠÙĬÙĨØ§Ø¯": 4508, "ĠÙĪØ§Ø´": 1669, "ĠØªØ³Ø±": 4742, "ÙħÙĨÙĬ": 5793, "ĠØªØµ": 955, "ĠØ£ÙĨÙĥ": 3553, "ĠÙĪØ£ÙĬÙĪØ¨": 5886, "Ø³Ø±Ø§ÙĨ": 8215, "ĠØ¢Ø«Ø§Ø±ÙĩÙħ": 3889, "ĠØ¥": 74, "ĠÙĨØ·ÙģØ©": 2427, "ĠØ§ÙĦÙħØ³Ø§Ø¬Ø¯": 8850, "ĠØ£Ø°ÙĦØ©": 5342, "ĠØ§ÙĦØ®ÙĬØ·": 8424, "ĠÙĬØªØ·ÙĩØ±ÙĪÙĨ": 8123, "ĠÙģØ³ÙĬØŃ": 8671, "ĠØ£Ø¨Ø´Ø±": 8699, "ĠÙģØ¨": 635, "ĠØªØ¯Ø¹": 3009, "ĠÙģØ°Ø±ÙĪÙĩØ§": 9930, "ĠÙĨÙĨØ²ÙĦ": 9651, "ĠØ®Øµ": 3192, "Ĩ": 38, "Ø³ØŃ": 1434, "ÙĤÙĬØ©": 7338, "ĠÙĬÙĨØ¨Ø¦ÙĩÙħ": 6130, "ĠØ¹ÙħØ¯": 6419, "ĠØ³Ø¬ÙĬÙĨ": 9334, "ÙħØ§Ø³Ø§": 7462, "ĠÙĩÙĦÙĥ": 4814, "ĠÙĬØ´Ø¹Ø±ÙĪÙĨ": 1473, "ĠØ§ÙĦÙĤÙĦÙĪØ¨": 3629, "ĠÙħØ¹Ø§ÙĬØ´": 9871, "ĠØ§ÙĦØ¨Ø§Ø·ÙĦ": 2561, "ĠÙĪÙĬÙħ": 1609, "Ø¨ÙĦÙĪÙĩÙħ": 8056, "Ø±Ø¨ÙĪØ§": 1887, "Ø²Ø¹ÙĪÙĨ": 4053, "ĠØ±Ø¬Ø¹": 6416, "ØªÙĩÙĨ": 2444, "ĠÙĨØ¨Ø§Øª": 3780, "ĠÙĤØ±ØŃ": 7533, "ĠØ³Ø¨ÙĤÙĪÙĨØ§": 9039, "ĠØ¹Ø¨Ø§Ø¯ÙĬ": 2243, "ĠØ£Ø±Ø£ÙĬØªÙħ": 2021, "ĠØªØ·Ø¹": 2320, "ĠÙħØ³Ùĥ": 3713, "ĠÙħÙģØªØ±Ùī": 9805, "ÙĩÙī": 3078, "ØªÙĤÙĬÙĨ": 918, "ĠÙĬØ³ØªÙĨ": 8450, "ĠØ¹Ø±ÙģÙĪØ§": 7448, "ĠØ±Ø¬Ø³": 5173, "ĠÙħØ¤ÙħÙĨÙĪÙĨ": 3452, "Ø¹Ø¬ÙĦ": 3461, "ĠÙģÙĬØªØ¨Ø¹ÙĪÙĨ": 7542, "ĠÙĦÙħØŃ": 6102, "ĠØŃØ¯ÙĪØ¯": 2153, "Ø·": 118, "ĠØ¸ÙĦÙħÙĨØ§ÙĩÙħ": 6446, "ĠÙħÙĩØ§Ø¬Ø±": 7213, "ÙĥØ±Ø§": 1610, "ĠÙĪÙĦÙĦ": 2348, "ĠØ§ÙĦØ¨ÙĨÙĪÙĨ": 8541, "ĠØ´Ø§ÙĩØ¯ÙĬÙĨ": 7804, "ĠÙĪØ®ØªÙħ": 9068, "ÙĩÙĦØ§": 7116, "ĠÙĪØ§Ø³Ø£ÙĦ": 9172, "ĠØ®Ø¨ÙĬØ±": 1290, "ĠØ£Ø¬ÙħØ¹ÙĬÙĨ": 1376, "ĠÙĦ": 66, "ĠÙĤÙĦØª": 4150, "ĠØ£ÙĬØ§ÙĨ": 3654, "ĠØ¬ÙĨØ©": 1639, "ĠÙĬÙĩØ±": 7323, "ĠØªÙĤØ¯Ø±ÙĪØ§": 9482, "ĠÙĬØ¯Ø®ÙĦÙĩ": 5405, "ĠÙħÙĪÙĦØ§Ùĩ": 9554, "ĠØ³ÙħÙĬØ§": 9772, "ĠÙģÙĨØ¨Ø°ÙĨØ§ÙĩÙħ": 9901, "ĠØªÙĦØ¨Ø³ÙĪÙĨ": 6954, "ĠÙĬØ¯Ø®ÙĦÙĪÙĨÙĩØ§": 6861, "ĠØ£ÙĦÙĬØ³": 2156, "ĠØ¨Ø§ÙĦÙħØªÙĤÙĬÙĨ": 10264, "ĠÙĪØ£Ø®Ø§Ùĩ": 6743, "ĠÙĪÙĤÙĪÙħÙĩ": 3374, "ĠÙħØ«ÙĦÙĩÙħ": 4275, "Ø±Ø¬": 521, "ĠÙĤÙĪÙĦÙĩ": 5788, "ĠÙĤØ§ØªÙĦÙĪÙĥÙħ": 7536, "ĠØ±Ø¢ÙĩØ§": 9704, "Ø¨Ø§Ø¡": 2177, "ĠØ£ÙħÙĪØ§ØªØ§": 9977, "ĠÙĪÙĬØ¨ÙĬÙĨ": 7892, "ØŃØ§Ø¬ÙĪÙĨ": 7415, "Ø§ÙĨÙĬ": 1317, "ĠÙĦÙĥ": 358, "Ø¶ÙĬØ¹": 2787, "ĠØ¸ÙĦÙħØ§": 3262, "ĠÙħØ§ÙĦ": 1552, "ĠÙħØªÙĥØ¦ÙĬÙĨ": 3416, "ĠØ¶Ø§ØŃ": 8335, "ĠÙĪÙĬØ¹Ø¨Ø¯ÙĪÙĨ": 4903, "Ø¤Ø§Ø¯": 4128, "ĠØ¹Ø·": 7435, "Ø¬Ø±ÙħÙĪÙĨ": 1817, "ØºØ¨": 7765, "ĠØªØŃØµÙĪÙĩØ§": 9884, "ĠÙĪØªØ¨": 6139, "ĠØ³ÙĬØ¬Ø¹ÙĦ": 8710, "ÙĥÙĪØ±Ø§": 5614, "ĠØ¥ÙħØ§": 1944, "ĠÙĦÙĨØŃÙĨ": 4261, "ĠÙĪØŃÙĬØ«": 8821, "ÙĬØ³": 3424, "ĠÙĪØ§ÙĦÙĨØ¬": 4359, "ĠØ§ØªØ®Ø°": 1208, "ĠØ¨Ø±ÙĬØŃ": 9453, "ĠØ£ØŃÙĬØ§": 4237, "ĠÙĦØ®": 2450, "ĠÙģØªØ¹Ø§ÙĦÙī": 5055, "ĠÙĦÙĥÙĨ": 3274, "ĠØ·ØºÙĬ": 4241, "ĠÙĪÙĤØ¹Øª": 7976, "ĠØ¨ÙħØ§Ø¡": 4967, "ĠØ§ÙĦÙĦØ§": 2048, "Ø¶ÙĬ": 797, "ĠÙħÙĪØ¹Ø¯Ø§": 5009, "ÙħØµØ©": 7098, "ĠÙĪØ§Ø³Ø£ÙĦÙĪØ§": 9174, "ĠÙĨÙĩÙĬØª": 7640, "ĠØ§ÙĦÙħÙħØªØ±ÙĬÙĨ": 5545, "ĠØªÙĨÙĥØŃÙĪØ§": 5459, "ĠÙĬØ¶Ø±ÙĪØ§": 6748, "ØªÙģÙĥ": 5618, "ĠÙĬØ¨Ø¹Ø«ÙĪÙĨ": 3047, "Ø±ÙĥÙĩ": 4323, "ĠØ¨Ø±ØŃÙħØªÙĥ": 10155, "ÙĦÙĬ": 94, "ĠÙĪØ¬Ø§Ø¡": 1294, "Ø¨Ø§Øª": 7188, "ÙģØ±ÙĤÙĪÙĨ": 7800, "ĠÙĬØ·": 1245, "ĠØ§ÙĦØ¨ÙĬÙĨØ§Øª": 2285, "ĠÙĬÙĤÙĪÙĦÙĪØ§": 2405, "ĠØªÙĩÙĪ": 7471, "ĠÙĬØ°ÙĩØ¨ÙĪØ§": 7329, "ĠØ¹Ø±Ø¶ÙĩØ§": 9416, "Ø¤ÙĥÙħ": 4889, "ĠÙħÙĤØª": 2181, "ĠÙĥØ§Ø±": 3533, "ÙĦØ¹": 1038, "ĠØ°ÙĩØ¨": 2215, "ĠØ£ÙĨØ¬ÙĬÙĨØ§": 4792, "ÙĬØ±Ø©": 7692, "ĠØªØ¹ÙĦÙħÙĪÙĨ": 740, "ĠØ£ØŃÙĥÙħ": 8216, "ĠÙĪØ¨Ø§Ø¡ÙĪØ§": 8486, "Ø±ÙĤØ¨": 7124, "ÙĤØ¨ÙĦÙĪØ§": 9201, "ĠÙĦØ£Ø¸ÙĨÙĥ": 8499, "ÙĩØ²Ø¦ÙĪÙĨ": 1841, "ĠØ¨Ø¹Ø¨Ø§Ø¯ÙĬ": 6801, "ĠÙħØŃÙĦÙĩ": 9071, "ĠØ¨ÙĥÙĦÙħØ§ØªÙĩ": 6432, "Ø³ÙħØ¹ÙĪÙĨ": 1330, "ĠÙĪØ§Ø±": 1681, "ĠÙĦØ¨Ø´Ø±": 5251, "ĠØ§ÙĦØ±": 167, "ĠÙĪÙĨÙĪØŃØ§": 6200, "ĠÙĦØŃØ§ÙģØ¸ÙĪÙĨ": 6761, "ĠØ£ÙģØ£ÙĨØª": 3862, "ÙĪÙĬÙĩ": 5576, "ĠÙĥØ§ÙĦÙħ": 6533, "ĠØ§ÙĦÙħÙĩØªØ¯ÙĬÙĨ": 7745, "ĠÙĪÙĬÙĦÙĨØ§": 3610, "ĠÙħÙĨÙĥØ±ÙĪÙĨ": 4013, "ĠØŃØ³Ø¨": 1575, "Ø¨": 59, "ÙĨØ§ØªÙĩÙħ": 7457, "ĠÙĪÙĦÙĬÙħØŃØµ": 9803, "ĠØªØ¹Ø±Ùģ": 6329, "ĠØ±Ø³ÙĦÙĩ": 4253, "ĠÙĪØ¨Ùĩ": 8481, "ĠØ®Ø§Ø³": 5925, "ĠÙĪÙĪÙĤØ§ÙĩÙħ": 9177, "Ø±Ø¨Øµ": 1719, "ĠÙĪÙĦØ£": 1711, "ÙĤØ§ÙĨØ§": 8220, "ĠÙģØ§Ø¹Ø¨Ø¯ÙĪÙĨ": 6783, "Ø¨ÙĪØ§": 986, "ĠØ¯Ø¹Ø§ÙĥÙħ": 9612, "Ø¶ÙĬÙĦØ§": 8859, "ĠÙĪØ£ÙħØ±Øª": 3849, "ÙĩØ²": 1239, "Ø·Ùģ": 2080, "ĠØ§ÙĦÙħØ§ÙĦ": 4843, "ĠØ§ÙĦØ®ÙħØ±": 6268, "ĠÙĪØ±ÙģØ¹ÙĨØ§": 4536, "ĠØ¸Ø§ÙĦÙħØ©": 5472, "ĠØ£ØŃØ³ÙĨÙĪØ§": 4391, "ĠØ£ÙĤØ±": 7241, "ĠÙĦÙĦØ®ÙĬØ±": 8145, "ĠÙģØ£ÙĨØ¬ÙĬÙĨØ§": 8908, "ĠÙħÙĤØªØ¯": 9472, "ØµÙĬÙĨØ§": 4049, "ĠÙĦØ¬ÙĩÙĨÙħ": 6729, "ĠÙĪÙħÙĦÙĥ": 8433, "ĠØ´ÙĩØ¯Ø§Ø¡": 2267, "ĠÙĬØ±Ø²ÙĤÙĥÙħ": 4531, "ĠÙģØ£Ø¨Ùī": 6017, "ĠÙģØ±Ø´": 8441, "ĠÙĪØ¨Ø±Ø²Øª": 9627, "ĠÙĪÙĬÙĤÙĪÙĦ": 2216, "ĠÙĪØ¥ÙĬØ§": 2704, "ĠØªÙĪÙĥÙĦÙĨØ§": 5411, "ĠÙĦØ¥": 2307, "ĠØµÙĦØŃ": 6037, "ĠØ¬Ø§ÙĩØ¯Ø§Ùĥ": 9845, "ĠÙħØ§Ùĥ": 7656, "ĠØªÙĤØ±": 6397, "ÙĩØ±ÙĪÙĨ": 3915, "ĠØ¨Ø´Ø±Ùī": 5280, "ĠØ·ÙĬØ¨Ø§Øª": 2962, "ĠÙģØ§Ø¹ÙĦÙħ": 6172, "ĠØ¨ÙĬÙĪØªÙĥÙħ": 3831, "ĠØ´Ø§Ùĥ": 4875, "ĠØ¨Øµ": 1276, "ĠÙĬØ¯Ø±ÙĬÙĥ": 6280, "ĠØ¶Ø±Ø¨ÙĪØ§": 6675, "ĠØ§ÙĦØºØ§ÙĦØ¨ÙĪÙĨ": 4537, "ĠØ³ÙĬØ¦Ø§ØªÙĩ": 9241, "ĠÙĬØªÙĦÙī": 3240, "Ø¨Ø¯Ø§": 910, "ØŃÙĬÙĨ": 2868, "ĠÙĪØ®": 1129, "ĠØ±ÙģØ¹": 4051, "ĠØ¨Ø§ÙĦÙħÙĪØ¯Ø©": 9266, "ÙħØ³": 457, "ĠØªØµÙĬØ¨": 3784, "Ø§Ø²ÙĤÙĬÙĨ": 3814, "ĠØªØ±ÙĥØªÙħ": 9190, "ĠÙĪÙĬÙĪÙħ": 870, "ĠÙħÙĨÙĤÙĦØ¨ÙĪÙĨ": 10067, "ĠØ¹ÙħÙĦ": 1666, "ĠØ§ÙģØª": 1165, "ĠØ·ÙĪÙĦØ§": 8269, "ĠØ§ÙĦØŃÙĪØ§Ø±ÙĬÙĪÙĨ": 7015, "ĠÙĬØªØ±Ø¨Øµ": 6122, "ÙģÙĦ": 2656, "ĠÙħÙĬØ«": 1388, "ĠØ³ÙĬØ¦Ø©": 2246, "ĠÙģÙĬØ£Ø®Ø°ÙĥÙħ": 7047, "ĠØ·Ø¨Ø§": 8270, "ĠÙĪØ§ÙĦÙħØ±Ø¬Ø§ÙĨ": 9955, "ĠØ±Ø¬Ø§ÙĦÙĥÙħ": 9684, "ĠÙģØ³": 567, "ĠØªÙĥÙĪÙĨ": 745, "ĠÙĨØ§ØµØ±ÙĬÙĨ": 3393, "ĠÙĦØªØ¨ÙĬÙĨ": 6341, "ĠØ£ØªÙĤÙĪÙĦÙĪÙĨ": 6434, "ĠÙħØ±Ø¬Ø¹": 1822, "ĠØ²Ø®Ø±": 6260, "Ø´Ø±ÙĥÙĪÙĨ": 1072, "ĠÙħØ¯ÙĬÙĨ": 2446, "ĠÙĨØµØ±Ùģ": 5316, "ĠØ±ØŃÙħØªÙĩ": 1832, "ĠØ¨Ø¹ÙĪÙĦØªÙĩÙĨ": 8116, "ĠÙģØ¶ÙĦ": 1043, "ĠØ§Ø¯Ø¹ÙĪØ§": 3030, "ĠØ§ÙĦØ£Ø¯Ø¨Ø§Ø±": 4117, "ĠØŃØ³Ø§ÙĨ": 8818, "ĠØ³Ø¹ØªÙĩ": 9293, "ĠÙĪÙĬØ¹Ø°Ø¨": 3828, "ĠÙħØ¹Ø¯": 3090, "Ø·Ø¹ÙĨ": 3739, "ÙĨÙĬÙĨ": 725, "ĠÙĪØŃØ¯Ùĩ": 3759, "ĠÙĪØ¨Ø´Ø±Ùī": 4468, "ĠÙĨØµØ±": 1397, "ĠÙģØ§ÙĦÙĦÙĩ": 3775, "ĠÙĪØ£ØªÙħ": 4837, "ĠÙĤØ±Ø¢ÙĨ": 4762, "ÙģØŃØ´Ø§Ø¡": 5730, "ĠÙĪÙĬØ¹ÙĦÙħÙĩÙħ": 6659, "Ø¬Ùħ": 7501, "ĠÙĦØ§ÙħØ³": 7768, "ĠÙĦØ§Ø¹Ø¨ÙĬÙĨ": 7769, "ÙĨØ¨ÙĬ": 7084, "ĠØ§ØªØ¨Ø¹ÙĪØ§": 2260, "ĠØ°Ø±ÙĬ": 1880, "ÙħØ«": 7092, "ĠÙģØ¬ÙħØ¹": 6602, "ĠØªÙĤØªÙĦÙĪÙĨ": 4745, "ĠØªØ«": 5753, "ĠØªØ³Ø¹Ø©": 8828, "ĠÙĦÙĦØ³": 4210, "ĠÙĤÙĬØ§ÙħØ§": 4765, "Ø¨Ø±Ø§Ø±": 3731, "ĠØªØ³ÙĦÙĬÙħØ§": 8831, "ĠÙĬØ£ØªÙĪØ§": 4250, "ĠÙĦÙĦÙħØªÙĤÙĬÙĨ": 1665, "ÙĩØ§Ø¯": 1861, "ĠØ§ÙĦÙĩÙĪÙĨ": 5589, "ĠÙĦØ°Ø©": 9812, "ĠØ³ØŃØ§Ø¨": 3566, "ĠØ¬Ø§ÙĨØ¨": 4529, "ĠÙģØ§Ø¹Øª": 3255, "Ø¯Ø³": 3467, "ĠØ²Ø§Øº": 5088, "ĠÙĪØ¢ØªÙī": 6361, "ĠÙĬÙĦØ¹": 3116, "ĠÙĬØ¤ÙħÙĨÙĪÙĨ": 552, "Ø§ÙħØ³Ø©": 7077, "ĠØ³Ø¨ÙĬÙĦÙĥ": 8411, "ĠÙĬØ³ØªØ¬ÙĬØ¨": 6282, "ĠÙĨØ³Ø§Ø¦ÙĩÙħ": 6454, "ĠØªØ³Øª": 971, "Ø£Ø³": 2464, "ĠÙĪØªØ²": 4994, "ĠÙģØªØ¨Ø§Ø±Ùĥ": 8322, "Ø§Ø´Ø§": 9009, "Ø§ÙĨØªÙĬÙĨ": 5824, "Ø¦ÙĥÙħ": 3171, "ĠØµÙĦØ§": 2724, "ĠÙģØªÙĦÙĤÙī": 8327, "ĠÙĦØ³Ø§ÙĨÙĬ": 9520, "ĠØµØ¯ÙĬÙĤØ§": 8721, "ĠØ§ÙĦØªÙĬ": 742, "ĠÙĪØ§ÙĦÙħÙĬ": 2684, "ĠÙĬØ±Ø³ÙĦ": 2454, "ĠØ¨Ø§ÙĦØ¥": 2349, "ĠØ³Ø¦": 5854, "Ø£Øª": 3509, "ĠÙĪØ¹": 367, "Ø±ÙĥÙħ": 3427, "ĠØŃÙħÙĬÙħ": 2403, "ĠÙħØŃÙĬØ·": 3390, "ĠØªØ¨Ø¯": 1780, "Ø²ÙĬØªÙĪÙĨ": 4242, "ĠØªØ²Ø±": 3367, "ÙĪØ¯ÙĬ": 4244, "ĠÙĪÙĦØ¹Ø°Ø§Ø¨": 4503, "ĠÙĪØ£ÙĩÙĦÙĥ": 4839, "ĠÙģÙĪ": 3959, "ĠØ³ÙħÙĬØ¹Ø§": 5465, "ĠÙĬØ¹Ø±Ø¶": 6243, "ĠÙħØªØ§": 1241, "ÙĨØ³Ø§Ø¡": 5116, "ĠØªÙĤØ±Ø¨": 3734, "ĠÙĪÙĨØµØ±": 6198, "ĠØ§ÙĨØ·ÙĦÙĤ": 6477, "ÙĦØ¹ÙĪÙĨ": 7078, "ĠÙħÙĪÙĦÙĪØ¯": 7220, "ĠÙĩØ§Ø±": 7649, "ĠÙĪÙĬÙĪÙĨØ³": 7905, "ĠØ§ÙĨØ´ÙĤØª": 8826, "ĠØªÙģØ±ØŃÙĪÙĨ": 9600, "ĠØ£Ø¨Ø±ØŃ": 9925, "ĠØªØµÙĬØ¨ÙĩÙħ": 6945, "ĠØ§Ø³ØªÙħØªØ¹": 10163, "ĠÙĬÙĨØ²ØºÙĨÙĥ": 10174, "ĠÙħØ¨Ø¹ÙĪØ«ÙĪÙĨ": 7216, "ĠÙĪØ§ÙĦØ³Ø§Ø¨ÙĤÙĪÙĨ": 9058, "ĠØ¹Ø°Ø§Ø¨ÙĩØ§": 8191, "ĠØ§Ø³ØªØ¶Ø¹Ùģ": 3718, "Ø§Ùģ": 344, "ĠØ§ÙĦÙĤÙħØ±": 4171, "ĠÙĪØ§ÙĦÙħÙĬØ³Ø±": 6849, "ĠØ¨ÙĨÙĬÙĨØ§ÙĩØ§": 9179, "ĠØ§ÙĦÙĪØ³ÙĬÙĦØ©": 10037, "ĠÙĦÙĬØ¬ÙħØ¹ÙĨÙĥÙħ": 10276, "ĠÙĪÙĩØ§Ø±ÙĪÙĨ": 3054, "ØµØ±Øª": 6251, "ÙĦÙĨØ§Ùĩ": 4191, "ÙĦÙĪÙĨÙĥÙħ": 3615, "ĠØ£ÙĤØ¯Ø§ÙħÙĨØ§": 6997, "ĠÙĦÙĬÙģØª": 8000, "ÙģØ§ØªØ§": 7403, "ÙĪØ±Ø«": 2527, "ĠÙĪØ£Ø·": 4836, "ĠÙħØ¯Ø®ÙĦØ§": 6571, "ĠØ¹ÙĤØ¯": 4015, "ÙĨØª": 434, "ĠØ§ÙĦÙĤØµØ§Øµ": 9720, "ĠØ£ÙĨØ¨": 5829, "ĠÙħØ¨ÙĬÙĨØ§Øª": 6365, "ĠÙĨØ¬ÙĨÙĬ": 8888, "ĠÙĬÙĥÙģØ±ÙĪØ§": 6595, "ĠØ¢ÙĪÙī": 7710, "ĠÙħØ´ØªØ±ÙĥÙĪÙĨ": 9311, "ĠÙĨÙħÙĥÙĨ": 9606, "ĠØ§": 200, "ÙĬØ¨ÙĩØ§": 8128, "ĠØ°Ø±Ø£": 5421, "ĠØ¸Ø§ÙĦÙħÙĬ": 9679, "ĠÙģØ§Ø³ÙĤÙĬÙĨ": 3792, "ĠÙĪÙĨØ¨": 8243, "ĠÙĪØ¥ÙĨØ§": 1051, "ĠÙĬØ³ÙĬØ±Ø§": 3293, "ĠÙĦÙĦÙĨØ§": 775, "ĠØ³Ø§Ø¹Ø©": 2899, "ĠÙģØ¬Ø¹ÙĦ": 3965, "ÙĥÙĬØ§": 7172, "ĠÙĪØ¹Ø¯ÙĥÙħ": 8691, "ØªÙħØ³Ùĥ": 5914, "ĠØ¨Ø§ÙĦÙħÙģØ³Ø¯ÙĬÙĨ": 9265, "Ø³Ø±ÙĪÙĨ": 4649, "ĠÙħØ±Ø¬Ø¹ÙĩÙħ": 4488, "ĠÙĪØ§ÙĦØ£ØŃØ¨Ø§Ø±": 8166, "Ø±ÙĪÙĩÙĨ": 5582, "ĠØ¨Ø¸ÙĦØ§Ùħ": 4564, "ĠØ³Ø±Ø§Ø¬Ø§": 6766, "ĠØºØ¶Ø¨Ø§ÙĨ": 9579, "ĠØ±Ø¨ÙĬ": 514, "Ø±Ø§Ùģ": 5952, "Ø¯Ø®ÙĦÙĪØ§": 7254, "ĠÙģØªÙĥÙĪÙĨ": 2548, "ĠÙĪØ·ÙħØ¹Ø§": 5314, "ÙĪØ³ÙĥÙħ": 9018, "ĠØ¨Ø·ÙĨ": 9103, "ĠØ¢Ø¨Ø§Ø¦ÙĩÙĨ": 9900, "ĠÙĪØ¥ÙĨ": 211, "ĠØªØªÙĦÙī": 1823, "ĠÙģÙĤÙĦÙĨØ§": 3727, "ĠØ¬Ø²": 877, "ĠØ§ÙĦØ³ÙħÙĬØ¹": 1581, "ĠØ®Ø¨ÙĬØ±Ø§": 2212, "ØªØ±ÙĪØ§": 2292, "ÙĩØ¯Ø§Ø¡": 3625, "ĠØºØ¶": 6075, "ĠØ¯Ø®ÙĦ": 2514, "ĠØ§ÙĦØºÙĨÙĬ": 2984, "ĠØ§ÙĦÙĨÙģØ³": 3264, "ĠØ·Ø±ÙĬ": 6205, "ĠØªØ±Ùĥ": 1372, "Ø°ÙĩØ¨ÙĪØ§": 3733, "ĠÙĦÙĬØ®Ø±Ø¬ÙĨ": 9783, "ĠÙĦÙĦÙħØŃØ³ÙĨÙĬÙĨ": 8695, "ĠÙĪØ§ÙĦØ¹Ø§": 4059, "ĠÙĪØ§ÙĦØ¥Ø¨ÙĥØ§Ø±": 9123, "Øµ": 98, "ØªÙħÙĨ": 7179, "ĠÙĬÙħØ³Ø³Ùĥ": 6682, "ĠØ£ÙĬØ¯ÙĬÙĩÙĨ": 6943, "ĠØ¢Ø¨Ø§Ø¤ÙĩÙħ": 5238, "ĠÙĬÙģØªÙĨÙĪÙĨ": 6578, "ĠØ³ÙĨØ©": 1963, "ĠÙĨØ§Ø¸": 7637, "ĠÙĪØ¹ÙħØ§": 8357, "ÙĪ": 51, "ĠØ§ÙĦÙĦÙĩÙħ": 3919, "ĠØ§Ø°ÙĩØ¨ÙĪØ§": 8016, "ĠÙĦÙĪÙĦØ§": 969, "ĠØ§ÙĦØ³ÙĦÙħ": 3606, "ØŃÙĦÙģÙĪÙĨ": 7414, "ĠØ¹Ø¯": 733, "ĠÙĨØ³Ø§Ø¡ÙĥÙħ": 6456, "Ø¹Ùī": 1851, "ĠÙģØ±ÙĬÙĤØ§": 2595, "ÙĤØ·Ø¹ÙĪÙĨ": 6736, "ĠØ¹Ø±Ø¶Ø§": 9415, "ĠØ§ÙĦØ²ÙĤ": 7131, "Ø£ÙĪÙī": 4721, "ĠØ³ÙĦÙħ": 5853, "ĠÙģØ£ÙĦÙĤ": 1981, "ĠÙħÙĤØªØ§": 6805, "ĠØ³Ø¨Ø¹Ø©": 6671, "ĠÙĪÙĦÙĤØ§Ø¡": 9858, "ĠÙģØ¥ÙĨÙĬ": 3626, "ĠÙģØ§ÙĥØªØ¨ÙĨØ§": 10130, "ĠØ¨Ø§ÙĤÙĬØ©": 10064, "ĠÙģØ£Ø®Ø±Ø¬": 2355, "ĠÙĪØ¨ÙĬÙĨÙĥÙħ": 2590, "ĠØµÙĨØ¹ÙĪØ§": 5492, "ĠÙĪÙĦØª": 1119, "ĠÙģØªØŃÙĨØ§": 5497, "ÙĦØ¨": 490, "ĠØ§ÙĦØ¢Ø®Ø±Ø©": 627, "ĠØ£Ø¯Ø±ÙĬ": 5214, "ĠÙĬÙģÙĦØŃ": 2779, "ĠÙģØ£Ø±Ø³ÙĦ": 4159, "Ø³ØªØŃÙĬÙĬ": 7885, "ĠØ±Ø²ÙĤ": 840, "ĠØ¹ÙĨØ§": 2314, "ĠÙħØ±Ø¶Ø§Øª": 4425, "ĠØªÙĦÙĪ": 5761, "ØªÙĩÙħØ§": 2745, "Ø§ØªÙĦÙĪÙĥÙħ": 3055, "ĠØ¥Ø®ÙĪØ§": 2655, "ĠÙħÙĥØ§ÙĨ": 1380, "ĠØ§ÙĦÙħØŃ": 5888, "ĠØ§ÙĦÙħØ´Ø§Ø±": 7744, "ĠÙĨØ¨Ø¹Ø«": 5844, "ĠÙĬØ£Ùĥ": 1590, "ĠØ¹Ø¯Ø©": 4729, "ĠØªØ±Ø§Ø¨Ø§": 2739, "Ø¶Ø¹Ùĩ": 6687, "ĠÙĬØªÙģØ·Ø±ÙĨ": 9378, "ĠÙģØªÙĨØª": 8318, "ĠÙģØ³ÙĨÙĬØ³Ø±Ùĩ": 10309, "Ø¬ÙĨÙĪÙĨ": 4031, "ĠÙĪØ´Ø¯Ø¯ÙĨØ§": 9280, "ĠÙģÙħØ«ÙĦÙĩ": 9592, "Ø¹Ø©": 453, "ĠÙħÙĨØ²ÙĦÙĬÙĨ": 7432, "ĠÙĬØ¨ÙĬ": 5691, "ĠØŃÙħÙĬØ¯": 3765, "ĠÙĪØ§ÙĦÙħÙĦØ§Ø¦ÙĥØ©": 2014, "ĠÙĬÙĩØ¯ÙĬÙĨ": 6716, "ĠÙĪÙĩØ§": 1679, "ĠØ¯Ø§ÙĪÙĪØ¯": 2041, "ĠÙģØ³ÙĬÙĤÙĪÙĦÙĪÙĨ": 5477, "ĠÙĪØ§": 264, "ĠÙģØ§Ø³ØªØ¹Ø°": 5531, "ÙĩØ¬Ø±": 4594, "ĠÙĪØ³Ø¹ÙĩØ§": 4524, "ĠÙĦÙĬÙħ": 5682, "ĠØ§ÙĦÙĤØ¯Ø±": 6799, "ĠØ§ÙħØ±Ø¦": 4558, "ĠÙĬÙĨØ³": 6128, "ĠÙħØ¹Ø¯ÙĪØ¯Ø©": 6885, "ĠØ£Ø¬ÙĦÙĩ": 8406, "ĠØ§ÙĦÙħØ³ØªØ¹Ø§ÙĨ": 9425, "ĠÙħØ¤ØµØ¯Ø©": 9469, "ĠÙħÙĬÙĤØ§Øª": 4629, "Ø¦Ø³": 1006, "ØªØºÙĪØ§": 3441, "ĠÙĪÙĨØ¬": 5028, "ĠØ£ÙģÙĪØ§ÙĩÙĩÙħ": 5553, "ĠÙĬÙħÙĦÙĥ": 1671, "Ø°ÙĤØ§ÙĨ": 5704, "Ø£ÙĩØ§": 7416, "ĠØ£ÙĦÙĤ": 1347, "ÙĥØ±ÙĪØ§": 1982, "ĠÙĪØ£ÙĤÙĪÙħ": 6673, "ĠÙĬÙĦØª": 3979, "ĠÙģÙĦØ¹": 5018, "ĠØ¬Ø¯Ø§ÙĦ": 9842, "ÙĬØªÙĩÙħ": 4587, "ĠÙĬÙģØ±ØŃÙĪÙĨ": 9477, "ĠÙĤØµØµÙĨØ§": 9911, "ĠÙĦÙĬØ£Ùĥ": 6059, "ĠÙĪØ§ÙĨ": 1680, "ĠØ¸ÙĨÙĨØ§": 9381, "ĠÙĪÙĨØµØŃØª": 9993, "ĠØ®Ø´ÙĬ": 4869, "ĠÙħØ³Ø±ÙĪØ±Ø§": 9744, "ĠÙĦØ§ÙħØ³ØªÙħ": 10253, "ĠÙĨØ¹ÙħØªÙĩ": 5220, "ĠØ®Ø§Ø´Ø¹Ø©": 4530, "ĠÙĪØ£Ø¹ÙĨØ§Ø¨": 5885, "ĠØªØ´Ø¹Ø±ÙĪÙĨ": 5209, "ĠÙĬØ¶": 1026, "ĠÙĪÙĨØ§": 2286, "ĠØ§Ø³ØªØ¬Ø§Ø¨ÙĪØ§": 5556, "ĠÙĪÙĦØªØ·ÙħØ¦ÙĨ": 9065, "ĠØ£ÙģØ§Ø¡": 6225, "ĠØ§ØªÙĤÙĪØ§": 1168, "ØºÙģØ±ÙĪÙĨ": 4299, "ĠÙħØ¹Ø´Ø±": 6108, "ĠÙĪØ¹ÙĨØ¯Ùĩ": 6721, "ĠÙĥØ±ÙĩÙĪØ§": 8904, "ĠÙĬØ¤ÙģÙĥ": 8726, "ĠØªØ¹Ø¬Ø¨Ùĥ": 6980, "ĠÙĤØ¯Ø±Ùĩ": 4218, "Ø³Ø±ÙĪØ§": 1892, "ØŃÙĬÙĪÙĨ": 6441, "ĠÙĬÙģ": 649, "Ø¨Ø¹": 242, "ĠÙĬØªÙĬÙħØ§": 10060, "ĠÙĥÙĬØ¯ÙĩÙĨ": 9258, "ĠØ²Ø¹Ùħ": 2973, "Ø²ÙĤÙĪÙĨ": 7572, "ĠØ®ÙĦØ§Ùģ": 3589, "ĠØ®ÙĦÙĤØª": 3679, "ĠØ£Ø®ÙĪÙĩÙħ": 5161, "ĠØ£Ø±Ø¬Ùĩ": 9591, "ÙĪÙĦØ©": 4829, "ĠÙħØªÙĬÙĨ": 8799, "ĠØ¨ÙĬØ¹": 6447, "Ø®ÙĪØ§ÙĨ": 9184, "ĠØ£ØºÙĨÙī": 2808, "ĠØ£ÙĨØ¬ÙĬÙĨØ§ÙĥÙħ": 9953, "ĠÙĪØ§ÙĦØ£ÙħØ±": 6143, "ĠÙĨØµÙĬØ¨": 2024, "ĠØ£ÙĪØªÙĬØªÙĩ": 9210, "ĠÙĪØ£Ø¯": 3570, "ĠÙĬØ¹ÙĦÙħÙĪÙĨ": 568, "Ø«Ø±": 481, "ĠØ¥ÙĦÙĬÙĥ": 585, "ĠØ®ÙĦØ§ÙĤ": 5926, "ĠØ£ÙĨÙĩ": 1319, "ĠØ´Ø±Ø¨": 4109, "Ø¹Ø«": 5638, "ĠØ£Ø¦ÙĨÙĥÙħ": 5502, "ĠØªÙĪ": 1283, "ĠØ¬ÙĨØ§ØŃ": 1141, "ÙĬØ¹ÙĪÙĨ": 5569, "ÙĤØ§ÙħÙĪØ§": 1997, "ĠØ§ÙĦÙĨØ¬": 2378, "ĠØ¨ÙĥØ±Ø©": 3122, "ĠØ¨Ø·Ø´ØªÙħ": 10019, "Ø´ÙĩØ¯": 4789, "ĠÙĬØ¹ÙĦÙħÙĩØ§": 8295, "ĠÙĦÙĥÙĦÙħØ§ØªÙĩ": 8345, "ĠØªÙħÙĬÙĦÙĪØ§": 10070, "ĠÙĬØ¯Ø¨Ø±": 5096, "ĠØ³Ø§Ø¨ÙĤ": 9775, "ĠÙĪØ³ÙĬØŃ": 8661, "³": 21, "ÙĩÙĨ": 249, "ĠÙģØ±Ø¯Ø§": 6275, "ĠÙĪÙĨ": 321, "ĠÙĪÙĤØ§ÙĦÙĪØ§": 713, "ĠØµØ¨Ø±ÙĪØ§": 2093, "ĠØ´Ø§": 3195, "ÙĤÙĪØ¨": 1771, "ĠÙĬÙĨÙĬ": 7322, "ĠØªØ³": 754, "ĠÙĦÙĦØ¹": 1410, "ĠØ§ÙĦØ¨Ø±ÙĤ": 6642, "ĠÙģØ£Ø®ÙĦÙģ": 7950, "ĠÙĥÙĬØ¯": 1507, "ĠÙħØ°": 3449, "ĠÙĪØ¬ÙĨØ©": 8069, "ĠØ±Ø¯ÙĪØ§": 5808, "ĠÙĪÙģØ¶ÙĦ": 5341, "ĠØµÙģØ±": 7984, "ĠØ·": 323, "ĠÙĪØ§ØµØ·Ø¨Ø±": 6989, "Ø«ÙĬØ±": 2489, "ĠÙħÙĤÙĬÙħ": 2849, "ĠÙĬÙĨÙĤÙĦØ¨": 4208, "ĠÙħØªØ´Ø§Ø¨ÙĩØ§": 5499, "ĠÙĩØ§Ø¬Ø±": 9141, "ĠÙĪØ£ÙĤØ¨ÙĦ": 9231, "ÙĪØ±Ø§": 435, "ĠØªØªØ°ÙĥØ±ÙĪÙĨ": 6327, "ĠÙĪØ§ÙĦØµØ§Ø¯ÙĤÙĬÙĨ": 9167, "Ø¯Ø¨Ø§Ø±": 2641, "Ø§Ø¡": 121, "ĠÙĪØ§ÙĦØ·ÙĬØ±": 4511, "ÙĬÙħØ§": 395, "ØªØ§Ø¹": 8392, "ĠÙĬØªØ±Ùĥ": 8120, "ĠØ¨Ø¹Ø¶Ùĩ": 6264, "ÙĬØ§Øª": 215, "ĠÙĦÙĥÙħØ§": 3275, "ĠÙĪØµÙĬØ©": 3798, "ĠØ§ÙĦØºÙħ": 6320, "ĠØ±Ø²ÙĤÙĩØ§": 6521, "ĠÙĪÙĨØ²Ø¹": 8252, "ĠÙĪÙĨØ¹ÙħØ©": 8254, "ĠØ£Ø´ÙĤ": 8791, "ĠØ¨ÙĤÙĬ": 9118, "ĠÙĩÙĦ": 652, "ĠØµ": 191, "ĠÙĪÙħÙĦØ§Ø¦ÙĥØªÙĩ": 4574, "ĠÙħØ·ÙĩØ±Ø©": 4562, "ĠØªØ¤ÙħÙĨÙĪØ§": 2668, "ĠØ¨Ø´ÙĬØ±Ø§": 5304, "Ø¯ÙĨÙī": 7257, "Ø¯ÙĬØ«": 3468, "ĠÙĦØ¯Ùī": 7308, "Ø±Ø¨Ùĥ": 6082, "ĠÙħØ§Øª": 7197, "ĠÙģØ£ÙĨØ¸Ø±ÙĨÙĬ": 8909, "ĠÙĬØªØ®Ø°ÙĪÙĩ": 9379, "Ø°Ø±ØªÙĩÙħ": 5081, "ĠÙĪÙĬØ°ÙĩØ¨": 7896, "ĠØ«ÙĦØ§Ø«": 1582, "ÙĪÙĤØ¯": 5573, "Ø¹ÙħØ©": 2512, "ÙĩÙĪØ¯": 2227, "ĠØ¨Ø³Ø§": 7368, "ĠÙģØ±Ø¬ÙĩØ§": 10010, "ĠØµØ¨Ø±ØªÙħ": 9719, "ĠØ¨ÙĬ": 682, "Ø¤ÙħÙĨÙĪÙĨ": 406, "ĠÙĪØ¥ÙĦÙī": 1225, "ĠØ´ÙģØ§": 4874, "ĠÙģÙĦÙĬØµ": 8882, "ĠØ£ÙĬÙħØ§": 1123, "ĠØªØŃÙĥÙħ": 3690, "ĠØ§ÙĦØ³Ø¨Øª": 4135, "ĠÙĦÙĦØ£": 6131, "ĠØªØŃØ§Ø¬ÙĪÙĨ": 8398, "ĠÙĪØ§ÙĦØµØ§ÙĦØŃÙĬÙĨ": 9168, "ĠÙħØ±Øµ": 8505, "ØªÙħÙĪÙĨ": 1576, "ĠÙĥØ³Ø¨ÙĪØ§": 1912, "ĠÙĪØ§ÙĦÙģØ±": 7593, "ĠÙģÙĪÙĦ": 5664, "Ø°Ø±ÙĪÙĨ": 1692, "ĠÙĥØ§ÙĦØ¹ÙĩÙĨ": 10156, "ĠÙĤØ§ÙĨ": 3145, "ĠÙĤØ³Ùħ": 4759, "Ø³ÙĪÙĨ": 1939, "Ø«ÙħØ§": 2207, "ĠÙħÙĪÙĦØ§ÙĨØ§": 9556, "ĠÙĪÙĬØ£ÙħØ±ÙĪÙĨ": 5389, "ĠÙĪÙĬØ³Ø¹ÙĪÙĨ": 9375, "Ø¹ÙħÙĪØ§": 4908, "µ": 23, "ĠØ¯Ø§Ø®": 4157, "ĠÙĪØ§ÙĦØ¯Ùħ": 4795, "ĠÙĬØ¨Øª": 3113, "Ø³ÙĦÙĪØ§": 5656, "ĠØµÙĦÙī": 7983, "ĠÙĪØ§ÙĦØªÙĪØ±Ø§Ø©": 9954, "ĠØ¨Ø¶Ø§Ø¹ØªÙĩÙħ": 10066, "ÙĤØ¯Ø§Ùħ": 3636, "ĠÙģØ²Ø§Ø¯ÙĩÙħ": 9913, "ĠÙĦØºÙĪØ§": 5686, "ĠÙĪØ¬Ø§ÙĪØ²ÙĨØ§": 9983, "ØºÙĬØ§ÙĨØ§": 4863, "ĠÙħÙģØ¹ÙĪÙĦØ§": 3458, "ĠØ³Ø±Ø±": 4484, "ÙħÙĬÙĦ": 5565, "ĠØ§ÙĦØ¨ÙĬØª": 2273, "ĠØ®ÙĦØ§Ø¦": 4870, "Ø°ÙĪÙĤ": 5703, "ĠØªØ¨Ø¯ÙĦ": 9358, "Ø®Ùģ": 5795, "ÙĥÙĦØ§": 7169, "ĠÙĦÙħÙĩØªØ¯ÙĪÙĨ": 8096, "ĠÙĪØ¥ÙĦÙĩ": 4120, "ĠÙħØ«ÙĦØ§": 1530, "ĠØ§ÙĦØ£ÙĨØ«Ùī": 8687, "ĠØªØºÙģØ±": 5758, "ÙħØ¹Ø§": 2619, "ĠØªØ¹ÙģÙĪØ§": 6330, "ĠØªØ¨ØªØ¦Ø³": 9530, "ĠÙģØºÙģØ±": 7281, "ĠÙĪÙĤØªÙĦÙĪØ§": 7978, "ĠÙĤØ¶ÙĬ": 2879, "ĠÙĪØ¥Ø®ÙĪØ§ÙĨÙĩÙħ": 7827, "ĠÙĪØ§ÙĦØµØ¨ØŃ": 9166, "ÙĦØŃÙĪÙĨ": 1170, "ÙħØ±ÙĪÙĨ": 1751, "ĠØªØµØ¨Ø±ÙĪØ§": 4387, "ÙĩÙĨÙĪØ§": 4978, "ĠØ¸ÙĦÙħÙĩ": 8763, "Ø¹ÙħØª": 4907, "ĠØ³Ø®Ø±ÙĪØ§": 6739, "ĠØ§ÙĦØ£ÙħØ«Ø§ÙĦ": 2594, "ĠÙĬÙĨØµØ±ÙĪÙĨÙĩÙħ": 9324, "ĠÙģÙĦØ¹ÙĦÙĥ": 9990, "ÙĨÙĬØ§": 418, "ĠÙĬØ³Ø¹Ùī": 3708, "ĠÙĪØ±ÙģØ§ØªØ§": 8478, "ĠØªØ·ÙĩØ±": 7493, "ĠØ¨Ø°ÙĦÙĥ": 5712, "ĠØ£ÙĤØ³Ùħ": 2255, "ĠÙĪÙĨÙħÙĬØª": 8258, "ĠØ¹ÙģÙĪØ§": 4731, "ĠÙģØ£ØªØ§ÙĩÙħ": 7954, "ĠÙĨØªÙĦÙĪÙĩØ§": 6961, "ĠØªÙħØ¯ÙĨ": 9138, "ĠØ£Ø·Ø±Ø§ÙģÙĩØ§": 9633, "ĠØ§ÙĦØ°ÙĨÙĪØ¨": 10077, "ĠØ£Ø¬Ø±": 791, "ĠÙĪØ£ÙħÙĪØ§ÙĦ": 4442, "ĠØ¬ÙĩØ²ÙĩÙħ": 10255, "ØªÙħØªØ¹ÙĪØ§": 3851, "ÙĥÙĩØ©": 2432, "ĠÙĬÙĥØªØ¨ÙĪÙĨ": 4257, "ĠØ®Ø§ÙĦØµØ©": 5163, "ĠÙħÙĨØ§Ø²": 7430, "ĠÙĬØ±ÙĬØ¯ÙĪØ§": 8838, "ĠØ¯Ø¹ÙĪØ©": 5311, "ĠØ±ÙĩÙĬÙĨ": 7562, "ĠØ®ÙĦÙĤØªÙĨÙĬ": 8281, "ĠØ£ÙĨØ§Ø¨": 6412, "ĠØ¯ÙĪÙĨÙĬ": 6247, "ĠØªÙĪÙĥÙĦØª": 3398, "ĠØ®ÙĦÙģØ§Ø¡": 6605, "ĠØ²Ø¨ÙĪØ±Ø§": 8416, "ĠÙĦØªÙĥÙĪÙĨ": 6342, "ĠØªÙĤÙĪÙĦÙĪÙĨ": 3524, "ĠØ³Ø§Ø¡": 2205, "Ø±Ø¨ÙĬ": 7123, "ĠØ¹Ø°Ø§Ø¨Ùĩ": 6165, "ĠØ§ÙĦØ¯ÙĨÙĬØ§": 447, "ĠÙģØ¬Ø¹ÙĦÙĨØ§Ùĩ": 6803, "ĠÙħØ¬ÙĬØ¯": 9408, "Ø³ØªÙĤØ±": 7884, "ÙħØª": 708, "ĠØ§ÙĦÙħÙĨØ¸Ø±ÙĬÙĨ": 6547, "Ø¦Ùĥ": 233, "ĠÙħÙĬØ«Ø§ÙĤÙĩÙħ": 5349, "ĠÙħØ³Ø¦ÙĪÙĦØ§": 5529, "ÙĪØ§ØµÙĪØ§": 4700, "ĠØ§ÙĦØ¸ÙĦÙħØ§Øª": 2008, "ÙĤÙĬØª": 5698, "ĠØ§Ø³ØªØŃ": 4304, "Ø¯Ø±Ø¬": 7252, "ÙĨØ§Ø¬ÙĪØ§": 7458, "ĠØªØ¹Ø¯": 2468, "ØªÙĬØªÙħ": 8062, "ĠØ³Ø§ÙĩÙĪÙĨ": 10245, "ĠÙģØ§ÙĥÙĩØ©": 3668, "ĠÙĬØ¹ÙĦÙħÙĩ": 4247, "ĠØ¨Ø§ÙĦØ®": 5958, "ĠØ¬Ø¯ÙĬØ¯": 2913, "ĠÙĪÙĥÙĨ": 4950, "ĠØ£ÙģØ¶ØªÙħ": 8310, "ØªÙĤÙħ": 9076, "ĠØ§ÙĦØ®Ø¨Ø§Ø¦Ø«": 10303, "Ø¹ÙĨØ§ÙĤ": 9157, "ĠÙĥØ§ÙĨÙĪØ§": 268, "ØªÙĤÙħÙĨØ§": 4414, "ĠØ§ÙĦÙĪØ«ÙĤÙī": 9245, "ĠØ£Ø¨ÙĪØ§Ùĩ": 8702, "ĠÙĤÙĪÙħÙĬ": 4236, "Ø±Ø§Ø·": 3428, "ĠÙĪÙĦØ³": 4121, "ĠÙĤØ§ÙħÙĪØ§": 5518, "ĠÙģØ£ØºØ±ÙĤÙĨØ§ÙĩÙħ": 7016, "ĠØ®ÙĦÙĤÙĨØ§": 1147, "ØŃÙħÙĦ": 2105, "ĠØªÙĤÙĦØ¨": 3735, "ĠØŃØ±ÙħÙĨØ§": 3771, "ØŃÙħØ©": 1074, "ĠØ¢Ø«Ø§Ø±": 9657, "ĠÙģÙĪÙĦÙĪØ§": 7282, "ĠÙĪØªÙĨØ°Ø±": 8156, "ĠÙĪØ§ÙĦÙĤØ±Ø¢ÙĨ": 4401, "ĠØ£ØµØ¯ÙĤ": 8495, "ÙĬØªÙĨØ§": 6310, "ØªÙħÙĪÙĩ": 2700, "ĠÙĬØ®ØªØµÙħÙĪÙĨ": 5513, "Ø¸Ø±ÙĬÙĨ": 2240, "ÙħÙĪØ§": 874, "ĠÙĬØµÙģÙĪÙĨ": 3329, "ĠÙĪÙĪ": 1344, "ĠØ¹Ø²": 5746, "ÙĩÙĪÙī": 2946, "ĠÙĩÙĬ": 827, "ĠØ±Ø¬Ø§ÙĦØ§": 3005, "ĠØªØ¬Ø¹ÙĦÙĨØ§": 6347, "ØŃØ³Ø¨ÙĪÙĨ": 7413, "ÙĤØ§ÙħØ§": 8221, "ĠØ¨Ø¢ÙĬØ§ØªÙĨØ§": 748, "ÙĪÙĬÙĦ": 1675, "Ø®ÙĦØ¯ÙĪÙĨ": 6348, "ĠÙĬØ£ØªÙĪÙĨ": 3682, "ĠØ³ÙĪØ¡Ø©": 8978, "ĠØ¨ÙĨØµØ±Ùĩ": 6646, "ĠÙĬØ°ÙĪ": 7325, "ĠÙĨØ°Ø±Øª": 9959, "ÙĪØ¹Ø¸Ø©": 3805, "ĠØ£Ø¹Ø¬Ø¨Ùĥ": 9500, "Ø·ÙĪØ§": 2487, "ÙħØ³Ùĥ": 3295, "ĠÙĦØ¶Ø§ÙĦÙĪÙĨ": 10197, "ĠØ¨ÙĥÙģØ±ÙĩÙħ": 5530, "ĠØ²ÙĦÙģ": 6261, "Ø¦ÙĦØ§": 4825, "ĠØºÙĨÙĬ": 3228, "ĠØ¹": 81, "ĠÙĪØ¥ÙĦÙĬ": 7824, "ĠÙĪØ£ØŃØ§Ø·": 9659, "ĠÙĪÙĬØ±Ø³ÙĦ": 5319, "ĠÙĨÙĪÙħ": 7611, "ĠØ¨Ø±ØŃÙħ": 6508, "ĠÙģØ£Ø±Ø§Ø¯": 7952, "ĠØ¸ÙĩØ±": 2741, "ĠØ§Ø¬ØªÙĨØ¨ÙĪØ§": 9548, "ĠÙĪØ§ÙĦÙģØ±ÙĤØ§ÙĨ": 10232, "ĠÙĪØ§ÙĦØµ": 1320, "ĠÙĪÙħÙĨÙĩÙħ": 1255, "ĠÙħØªÙħ": 4620, "ĠØ·ÙĦ": 5035, "ĠØ£ÙħØ±ÙĪØ§": 6354, "ÙĥÙģØ±": 1273, "ĠÙĪØ¢Ø¨": 2392, "ĠØ¶Ø¹ÙģØ§": 5061, "Ø¦ØªÙĨØ§": 4073, "Ø¹Ø°Ø¨ÙĩÙħ": 3948, "Ø±ÙĬØ¹": 2359, "ĠØºÙģÙĦØ©": 4189, "ĠØ´ÙĩØ§Ø¯Ø§Øª": 9972, "ĠØ¨Ø§ÙĦØ³ÙĨ": 7849, "ĠÙħØ¢": 2629, "ĠÙĦØ¹ÙĨØª": 6440, "Ø£ÙĦÙĪÙĨÙĥ": 1919, "ØŃÙĪØ±Ø§": 3127, "Ø²ÙĬÙĨÙĩ": 3803, "ĠØªÙħÙĬØ¯": 6623, "ĠØ£Ø¹ÙĦ": 7233, "ĠØªÙĨÙģ": 8608, "ĠØ·Ø±ÙĬØ§": 9996, "ĠØªÙĨÙģØ±ÙĪØ§": 8614, "ĠØ¶Ø±Ø¨ØªÙħ": 6677, "Ø·Ø§ÙĨ": 517, "ĠÙĪÙħØ£ÙĪØ§": 4282, "ĠØ±Ø¢": 3150, "ĠØ§ÙĦØ±Ø§": 2623, "ĠÙĤØ·": 4758, "ĠÙĦØ§Øª": 3475, "ĠØ§ÙĦØµØŃÙģ": 6100, "Ø¸ÙĦÙĦ": 7831, "Ø¯Ø±ÙĬØ³": 10046, "ĠØ§ÙĦÙħÙģÙĦØŃÙĪÙĨ": 2280, "ĠØ¹ÙĬÙĨØ§": 3132, "ĠØ®Ø·Ø§": 4105, "ÙĨÙģØ§Ø¡": 7089, "ĠÙĪØ§ÙĤØªØ±Ø¨": 10285, "ĠÙĬØ¨": 810, "ĠØ§ÙĦØ³ÙĬ": 1464, "ĠÙģØ£Ùħ": 4926, "ĠÙħØ¨ÙĬÙĨØ©": 6364, "ĠÙĪØ¹ÙĨØ¯": 6720, "ĠØ£ÙģØ¥ÙĨ": 8312, "ĠØ³Ø¨ØŃØ§ÙĨÙĥ": 2798, "Ø§Ø¯ÙĪÙĨ": 4146, "ÙĤØ¹Ø¯ÙĪØ§": 7345, "Ø¶Ø§": 1510, "ĠØ£Ø¹ÙĨØ§Ø¨": 6876, "ĠÙĦØªÙģØª": 8568, "ĠØ¨ØºÙĬ": 8648, "ĠØ§ÙĦÙħÙĪÙĦÙī": 5894, "ĠØ¹Ø¯Ø¯": 6467, "ĠØ§ÙĦØºÙĬÙĪØ¨": 5444, "ĠÙĬÙĨØµØ±ÙĨÙĬ": 9552, "ĠÙĬØ¹Ø±Ùģ": 5076, "ĠØ¨Ø¥ØŃØ³Ø§ÙĨ": 6512, "ĠÙĥØ§Ø°Ø¨Ø©": 9801, "ĠØ¨ÙħØ«ÙĦÙĩ": 8914, "ĠØ£ØµÙĨØ§ÙħØ§": 10011, "ÙĬÙĥÙħ": 881, "ĠÙĨØµÙĬØ¨ÙĩÙħ": 6774, "ĠÙģØªØŃØ§": 5054, "ĠØ±ÙĤØ¨Ø©": 3864, "Ø¬ÙĬØ¨": 1695, "ĠØ§ÙĦÙģØ±": 2049, "ĠØªØŃØ³Ø¨ÙĨ": 4532, "ĠÙĪØ£ÙĩÙĦÙĩØ§": 5335, "Ø¯ÙĪÙĩÙħ": 7253, "ĠÙĦØ£ØµØŃØ§Ø¨": 8501, "ĠÙĨÙĪØ±Ùĩ": 6765, "ĠÙħÙģØ³Ø¯ÙĬÙĨ": 3941, "ĠÙĤÙĪØ§Ø±ÙĬØ±": 10073, "ĠÙħÙĥÙĬÙĨ": 5222, "ĠØ§ÙĦØ±Ø¬Ø§ÙĦ": 3378, "ĠØ§ÙĦØ¹Ùħ": 2839, "ĠØ³ÙħØ§ÙĪØ§Øª": 4528, "ĠÙģÙģØ²Ø¹": 10047, "ĠØ£ÙĤØ§ÙħÙĪØ§": 7246, "ĠÙĪØ¢": 513, "ĠØ¹Ø´Ø±": 2315, "Ø±ÙĨÙĬÙĨ": 4600, "ĠØ®Ø§Ø·": 4866, "Ø·ÙģÙī": 7689, "ĠÙĦØ¢ØªÙĬØ©": 8973, "ĠÙģØ£ÙĬÙĨ": 7944, "ÙĥØ±Ø©": 2518, "ÙħÙĬÙĨ": 256, "ĠØ¨ÙĥÙģØ±": 4341, "ĠÙģÙĨØ¬ÙĬÙĨØ§Ùĩ": 6577, "ĠØ±Ø¨Ø§": 7708, "Ø¤": 155, "ÙĦÙĩ": 79, "ĠÙĬÙĩØªØ¯ÙĬ": 6952, "ĠÙģÙĪØ¬Ø¯Ø§": 9931, "Ø¤ÙħÙĨÙĨ": 4933, "ĠÙĪØ¢ÙħÙĨÙĪØ§": 3308, "ĠÙģØµÙĬØ§Ùħ": 5323, "ĠÙĬÙĤØªÙĦÙĪÙĨ": 3484, "ĠÙĬÙĦÙħ": 7320, "ĠØŃØ°Ø±ÙĥÙħ": 7762, "ĠÙĪÙħÙĥØ±": 5093, "ĠØªØ¬": 483, "ÙĦØ¦": 2833, "Ø§ÙĪÙĬÙĨ": 5278, "ØªÙī": 307, "ĠÙĪØ£Ùĥ": 1795, "ĠØ§ÙĨØªÙĤØ§Ùħ": 5500, "ĠÙĦØ£Ø®": 6302, "Ø¶ÙĨ": 5812, "ĠØ£ÙĤÙĦ": 3772, "ĠÙģØ±Ø§Øª": 8442, "ĠØªØ¨Øª": 2319, "ĠØ§ÙĦÙĥØ¨ÙĬØ±": 2942, "ÙĬÙĪØ¨": 4585, "Ø®ÙģÙĪÙĨ": 5799, "ĠØ³ØªØ©": 3165, "ĠÙĪØ§Ø¹Ø¨Ø¯": 8108, "ĠÙģØ§ØŃÙĥÙħ": 4233, "ĠØ£ÙĨ": 106, "ĠØ¢Ø¨Ø§Ø¦ÙĨØ§": 9899, "ĠØªØºÙĨÙĬ": 3838, "ĠØ¨Ø¹Ø«ÙĨØ§": 3852, "Ø¸ÙĩØ±Ùĩ": 4882, "ĠÙĬÙĦØªÙģØª": 9817, "ĠØ£ÙĤØµÙī": 8880, "Ø³ÙĨ": 316, "ĠÙĨÙĥØ§": 7624, "ĠØ¨Ø¹Ø²ÙĬØ²": 4982, "ĠØ£ÙģØ±Øº": 6760, "ĠØµÙĦÙĪØ§": 7986, "Ø¹Ø¬ÙĦÙĪÙĨ": 2034, "ĠÙĪØ§ÙĦØ¥ÙĨØ¬ÙĬÙĦ": 3039, "ÙĬØ¯ÙĥÙħ": 7916, "ĠÙĤÙĪØ§Ø±": 5790, "ĠØºÙģØ±": 8038, "ĠØªØ´Ø±Ùĥ": 3525, "ĠØ§ÙĦØºØ§Ø¦Ø·": 8528, "ĠØ¨ØªØ£": 4548, "ĠØ§ÙĦØµØ§Ø¨Ø±ÙĬÙĨ": 2533, "ĠØ§ÙĦÙħØ³ÙĥÙĬÙĨ": 5221, "ĠÙĪØ§ÙĤ": 4202, "ĠÙĪØªÙĨØ³": 8153, "ĠÙĬÙĦØ¨Ø³ÙĪÙĨ": 9639, "ĠÙĬÙĦØ¬": 6949, "ĠÙĤÙĪÙĦÙĥÙħ": 9183, "ÙĬØ£Ø³": 5570, "ĠÙĪØ£ÙĪØ°": 7728, "Ø±ÙĪÙĨ": 165, "ĠØ¨Ø±ØŃÙħØªÙĩ": 8856, "ĠØ§ÙĦØ³ØŃØ±Ø©": 3060, "ÙģØªØ§ÙĨ": 8402, "Ø±Ø§Ø±": 2916, "Ø¨Ø´Ø±ÙĪÙĨ": 3448, "ĠÙĬØ¯": 413, "ĠØ±Ø¨Ùĥ": 253, "ĠÙĦØ£ÙħØ§": 6301, "ØªØ§ÙħÙī": 3689, "ĠÙĬØªØ¨Ø¹": 2948, "ĠÙĬÙĤØ¶Ùī": 8737, "ĠÙĤØ±Ø¦": 9222, "Ø°ÙĩØ¨Ø§": 5164, "ĠÙĪØ§Ø¨ØªØºØ§Ø¡": 9905, "ĠØ£Ø¨ÙĦØº": 2852, "ĠÙĬØ¹Ø·ÙĪØ§": 8383, "Ø¨Ø§Ø±Ùĥ": 1737, "ĠØ§Øµ": 2013, "ĠÙĬØ°ÙĩØ¨": 3117, "ĠØ§ÙĦÙħÙĥØ±ÙħÙĬÙĨ": 9964, "ĠØŃØ¸Ø§": 5906, "ĠÙĪØ¨ÙĬÙĨÙĥ": 4395, "ÙĪØ¯": 327, "Ø¦Ø©": 1007, "ĠÙģØªØŃØª": 8324, "ĠÙĦØ§ÙģØªØ¯ÙĪØ§": 10087, "ĠÙĨØ±": 2687, "Ø§Ø": 93, "ĠÙĪÙħØªØ§Ø¹Ø§": 6940, "ÙĨÙĬ": 220, "ĠØ§ÙĦÙĨØ¨ÙĪØ©": 8239, "ĠØ³ÙĬØ±Øª": 9840, "Ø§ÙĪØ±": 2613, "ĠÙĨØµ": 785, "ĠØŃÙĬØ«": 1161, "ÙĦØ§Ø¡": 527, "ĠÙĪØ¨Ø´ÙĬØ±": 8485, "ĠÙħÙĤØ§Ùħ": 2633, "ĠØ¹ÙĪØ¬Ø§": 3134, "ĠØ§ÙĦÙħØ±ÙĬØ¶": 7750, "ĠÙģØ£Ø¬Ø±Ùĩ": 7956, "ÙħÙĨ": 96, "ĠÙĦØ³ØªÙħ": 9519, "ĠÙģØ£ÙĨ": 871, "ĠÙģÙħ": 2642, "ØµØ¯": 556, "Ø´ÙĬØ§Ø·ÙĬÙĨ": 6546, "ĠØºÙĦØ§ÙħØ§": 8041, "ĠØ§ÙĦØ¬Ø§ÙĩÙĦÙĬÙĨ": 3861, "ĠØ´Ø§ÙĥØ±Ø§": 7012, "Ø§Ø¤Ùĩ": 3764, "ĠØ®Ø§ÙĪÙĬØ©": 4107, "ĠÙĥØ°Ø¨ÙĪØ§": 895, "ĠÙĪÙĪÙĦ": 5597, "ÙĪØ±Ø§Ø©": 1659, "ĠÙĬÙĥÙģØ±": 1124, "ĠÙĪØ£ÙĨØ²ÙĦÙĨØ§": 2235, "ĠØ³Ø¨ÙĤ": 3799, "ĠØ¨ÙĪØ§ÙĦØ¯ÙĬÙĩ": 5516, "ÙħØªØ¹": 6461, "ĠÙĬØªØ±Ø¨ØµÙĨ": 10119, "ĠØ£ÙģÙĦ": 8303, "ĠØ§ÙĦÙĪÙĦÙĬ": 9242, "ĠØ£ØŃØ¨Ø¨Øª": 9786, "ĠØ¨Ø£Ø³ÙħØ§Ø¦": 9176, "ĠØºÙĦØ§Ùħ": 4963, "ĠØ£Ø®": 547, "Ø§Ø±ÙĥÙĨØ§": 3817, "ĠØ¨Ø§ÙĦØŃÙĥÙħØ©": 7857, "ÙĨØ§Ø¡": 1354, "ÙĨÙĥÙħ": 707, "ĠÙĤØ¯": 279, "Ø°Ùģ": 3988, "ĠØªØµØ¨ÙĩÙħ": 4388, "ĠÙĪÙģØ§": 4614, "ĠÙĥØ±": 868, "ĠÙĨØ¤ØªÙĩ": 6851, "ĠØ£Ø¯Ø¹ÙĪÙĥÙħ": 8847, "ĠØ¢ØªÙĬÙĨØ§Ùĥ": 8894, "ĠÙĥØ£ÙĨÙħØ§": 6637, "ĠÙĬÙħÙĪØª": 3767, "ÙĪØ¶Ø©": 5577, "ĠØ§ÙĦÙģØ§ØŃØ´Ø©": 4428, "ĠÙħÙĥÙĨØ§ÙĩÙħ": 6501, "ĠØŃØ·Ø§": 5905, "ĠÙĬØ³ØªØ£Ø°ÙĨÙĥ": 9888, "ĠÙĦÙĩØ¯Ø§ÙĥÙħ": 9934, "ĠØ§ÙĦØ®ÙĬØ±Ø©": 9304, "ĠØ¬ÙĨØ¯": 4427, "ÙĤÙĪÙħ": 5696, "ĠÙĪØ§ÙĦØº": 7592, "ĠÙĪÙĥØ£ÙĬÙĨ": 3634, "Ø§Ø¯ÙĤÙĪÙĨ": 3612, "ĠØ¢Ø¨Ø§Ø¡ÙĩÙħ": 5236, "ĠØ§ÙĦÙĤØµØµ": 5494, "ĠØ§ÙħØ±Ø£ØªÙĩ": 4457, "ĠØ§ÙĦÙħØ¯ÙĬÙĨØ©": 2040, "ĠÙģØ£ÙħØ§": 1368, "ĠØªØ¹Ø¨Ø¯": 2560, "ĠÙĪØ£ØŃ": 2902, "Ø¯Ø§ÙĨ": 2300, "ĠØ¨ÙĩÙħØ§": 5715, "ĠØŃØ³ÙĨ": 4089, "ĠØ³ÙĪÙĦ": 4818, "ĠØ§ØªØ¨Ø¹Øª": 6551, "ÙĨÙĪØ§ÙĨ": 6600, "ĠØ±Ø³ÙĦÙĩÙħ": 2383, "ĠÙĪØ£ÙĨÙģØ³ÙĩÙħ": 2545, "ĠÙĤØµÙĪØ±Ø§": 9483, "ĠÙģØ³ÙĬØ¹ÙĦÙħÙĪÙĨ": 9683, "ĠØ¶Ø±Ø¨Ø§": 9240, "ĠØ§ÙĦØŃÙħÙĬÙħ": 4380, "ĠÙĩØ¯Ùī": 974, "ĠÙĪÙĦÙĩÙħ": 889, "ĠÙĪÙĦÙĬÙħ": 3920, "ØªÙĤÙĪØ§": 2291, "ĠØ§Ø³ØªØ¹ÙĬÙĨÙĪØ§": 8565, "ĠÙĨØ§Ø±Ø§": 1569, "Ø§ÙĦÙĪØ§": 1927, "ĠÙĪÙħØ«": 4279, "ĠØ§ÙĤØªØªÙĦÙĪØ§": 9615, "ĠÙĦØ¯ÙĬÙĩÙħ": 3358, "ĠÙĪØ¥ÙĬØª": 5945, "ĠØ¨ÙĥÙĦÙħØ©": 8745, "Ø¨Ø§Ø±": 772, "ĠÙĪÙĬØŃÙĬÙī": 7907, "ĠÙĨÙĤØ¶ÙĩÙħ": 10167, "ĠÙģÙĨØªØ¨Ø¹": 10051, "ØŃØ²Ø§Ø¨": 2429, "ÙģÙĬÙĨØ©": 5281, "ĠØ¬Ø¨Ø§ÙĦ": 7773, "ĠÙĪÙĩÙħÙĪØ§": 8400, "Ø¨Ø¹Ø«ÙĨØ§": 8984, "ĠÙĬÙĩØªØ¯ÙĪØ§": 9818, "ĠÙħØ³ÙĨÙĬ": 5115, "ĠØ·Ø§Ø¦": 1207, "ÙģØ¹": 575, "ĠØ£Ø®Ø¨Ø§Ø±": 6384, "ĠÙĦØªØ£Ùĥ": 8569, "ĠÙĪÙĦÙĦÙħ": 4124, "ĠÙģØªÙĨÙĪØ§": 8319, "ĠÙĬÙĩÙĬØ¬": 10204, "ĠØ¨Ø§ÙĦÙĨÙģØ³": 9860, "ĠØ¹ÙĦÙĬÙĩ": 374, "ĠÙĨÙĥØ±": 7614, "ĠÙĬØŃØ§Ø¯ÙĪÙĨ": 8175, "ĠÙĪØ£ÙĨÙĩÙħ": 4240, "ĠØ§ÙĦÙħØ±Ùģ": 7739, "ĠØ§ÙĦÙĨÙĩÙī": 8238, "Ø¹ÙĩÙħ": 2057, "ĠÙĪØ§ÙĦØ¶Ø±Ø§Ø¡": 4566, "ĠØ¹Ø§Ø¨Ø¯ÙĬÙĨ": 6826, "ĠØ£Ø·ÙĩØ±": 7245, "ĠØ¸ÙĨ": 1818, "ĠØ¨Ø°ÙĨØ¨ÙĩÙħ": 9414, "Ø±Ø¬Ø§ÙĦ": 5151, "Ø§Ø¨Øª": 7642, "ĠÙħØŃÙĬ": 1934, "ĠØ¬ÙĨØ§ØŃÙĥ": 5275, "ĠØµØ¯ÙĤÙĪØ§": 4335, "ĠÙħÙĬØ«Ø§ÙĤÙĥÙħ": 5350, "ÙĪØŃÙĬ": 8466, "ĠØ±Ø²": 1785, "ÙĨØ¹": 3908, "ĠØ£Ø¯": 781, "ĠÙĬÙĦÙĤØ§ÙĩØ§": 6735, "ĠØ£ÙĤÙĪÙĦ": 2637, "ĠÙĪØ§ÙĨØµØ±ÙĨØ§": 9327, "ĠÙĪÙĬØ¹ÙĤÙĪØ¨": 2421, "ÙĪØ§Øª": 281, "ĠÙĦØŃÙĥÙħ": 3970, "ØŃÙĩ": 4714, "ĠØ§ÙĦØ£ØºÙĦØ§ÙĦ": 5943, "ĠÙĬØªØ¨": 8117, "ĠØªØ¬Ø¯ÙĪÙĩ": 9292, "ĠØ§ÙĦØ³ØŃØª": 7879, "ĠÙĪØ£ØŃØ³ÙĨÙĪØ§": 9660, "ĠØ´ÙģÙĬØ¹": 4113, "ĠÙĬÙģØ¹ÙĦÙĪØ§": 9041, "ĠÙĬØ´Ø£": 2953, "ÙĬØ§ÙĦ": 7101, "ĠÙĪÙģØ¶ÙĦÙĨØ§ÙĩÙħ": 10164, "ĠØ§ÙĦÙĪØ§ØŃØ¯": 3841, "ĠÙĬÙĨØ·ÙĤÙĪÙĨ": 5495, "ĠÙĪÙĬØµØ¯ÙĪÙĨ": 5470, "ĠÙĪÙĦÙĩØ§": 7151, "ĠÙĪØŃ": 743, "ĠÙģØ§Ø±Ø¬Ø¹ÙĪØ§": 9349, "ØŃØ§Ø¬": 7411, "ĠÙĤÙĪØª": 5787, "ĠØ§ÙĦØ£Ø³Ø¨Ø§Ø¨": 5944, "Ø·ÙĬÙĨ": 7685, "ĠÙĪØ§ÙĦÙħØŃØ±ÙĪÙħ": 8637, "ĠØªØ£ÙĦÙħÙĪÙĨ": 8596, "Ø¬Ø¯": 359, "ĠÙĪØ§ÙĦÙĬÙĪÙħ": 1360, "ĠÙĬÙĨÙĤØµ": 8135, "ĠØ«ÙĤÙĦØª": 5429, "ĠØ§ÙĦÙħØ¬Ø±ÙħÙĬÙĨ": 1574, "ĠÙģØ§ØµÙģØŃ": 9329, "ĠÙģÙĤØ¯Ø±Ùĩ": 8795, "ĠØ¨ÙĨÙĬØ§ÙĨØ§": 10207, "ĠØ¥ÙĦÙĬÙĨØ§": 1560, "ÙħÙĬ": 330, "Ø±Ø§Ùħ": 1198, "Ø£ÙĬØªÙħ": 1419, "ĠØ£Ø±ÙĨÙĬ": 8775, "ĠØ§ÙĦØºÙģÙĪØ±": 2389, "Ø®ÙĦØµÙĬÙĨ": 1921, "Ø´Ø§Ø±": 2329, "Ø´ÙĤØª": 5827, "ÙĪÙĦÙĪØ§": 837, "ĠØ£ÙĩÙĪØ§Ø¡ÙĩÙħ": 2278, "ĠØ£Ø¯Ø¨Ø§Ø±": 4363, "ĠÙĪØ§ÙĦØ³ÙħØ§ÙĪØ§Øª": 6590, "ĠØ¬ÙħØ§ÙĦ": 7777, "ĠØªØ¬Ø²Ùī": 8582, "ĠÙĪØ±Ø³ÙĦÙĬ": 8658, "ĠØ±Ø³ÙĪÙĦ": 721, "ÙĤÙĩ": 2863, "ĠØªØµØ¯": 4025, "ĠÙģÙĦÙĦ": 8213, "ÙħØ±ÙĨÙĩÙħ": 8194, "ĠØµØ¯ÙĤØ§Øª": 6425, "ĠØªÙħØ±": 7473, "ÙĪÙĨÙĪØ§": 1945, "Ø¨ÙĪØª": 5623, "ÙĥØ§Ø±Ø§": 8766, "ĠØ§ÙĦØªØ§Ø¨": 5585, "ÙĤØ¯Ø±": 1522, "ĠÙģØ§ØªØ¨Ø¹ÙĪÙĩ": 6879, "ĠÙĦØ£Ùĥ": 8496, "ĠÙĨØ¹ÙĦÙħ": 3157, "ĠØ¥ÙģÙĥ": 3500, "ĠÙĬÙħØ³ÙĩÙħ": 5333, "ĠÙĬØ³ØªØ·Ø¹": 8452, "ĠØ¥ÙĬØ§ÙĨØ§": 9454, "ĠØ±Ø¶ÙĪØ§ÙĨÙĩ": 9603, "ĠØ£ÙĨØ²ÙĦÙĩ": 5835, "ĠØ§ÙĦÙħÙĦØ§Ø¦ÙĥØ©": 977, "ĠÙĪÙħØ¨Ø´Ø±Ø§": 6274, "ĠØ§ÙĦÙĦØ¤": 7133, "ĠÙĦÙĬØ¨ÙĦÙĪÙĥÙħ": 4945, "ĠÙĪÙħØµØ¯ÙĤØ§": 8435, "ĠØ£Ø±ÙĨØ§": 8774, "ÙĦÙĪÙħØ§": 5318, "ĠÙħØ±ØªÙĬÙĨ": 4300, "Ø®ÙĪØ§": 1358, "ÙĩØ§ÙĨ": 7567, "ĠÙģØªÙĨØªÙħ": 8317, "ĠØªØ´ÙĤÙĤ": 8835, "ĠØ±ØµØ¯Ø§": 7566, "ĠØ¨Ø¹Ø¶ÙĩØ§": 6266, "ĠØŃÙĥÙħ": 3180, "ĠØ§ÙĦØ±Ø¬Ø¹": 7911, "ĠÙĬØªÙħÙĨ": 8118, "ĠØ±Ø¡ÙĪØ³": 2607, "Ø¶Ø¹": 1511, "Ø§ÙĨÙħ": 4787, "ĠÙĪÙħØ§ØªÙĪØ§": 4887, "ĠÙĪØ¨Ø±": 2843, "ĠØ¨ÙĪØ£": 7378, "ĠØ¬Ø²Ø§Ø¡": 1172, "Ø³ÙħÙī": 1408, "ĠÙĪÙĪØ¬Ø¯Ùĥ": 9907, "ØµÙģ": 2200, "ØªØ±ÙĥÙĪÙĨ": 6908, "ĠÙĪØ¬Ø¹ÙĦÙĨØ§ÙĩØ§": 6516, "ĠÙĪØ²ÙĬÙĨ": 2578, "Ø³ÙĬÙĨ": 4647, "ĠÙĦÙĬØ°ÙĥØ±ÙĪØ§": 6057, "Ø´ÙĪØ§": 4788, "ĠØ¨Ø£": 333, "Ø¨Ø©": 727, "ĠØ¨ÙĬØ¯": 3991, "ĠÙĤØµØµ": 4509, "Ø§Ø¨ÙĬÙĦ": 4812, "ĠØ¨Ø§ÙĦØ·": 5959, "ĠØªØ®ÙģÙĬ": 6428, "ĠØµØ§ÙĦØŃ": 858, "ĠØ£Ø®Ø¨Ø§Ø±ÙĥÙħ": 10145, "ĠØ§ÙĦÙħÙĥ": 4081, "ĠØ¶ÙĦÙĦØª": 9239, "ĠÙģÙģØ±": 7271, "ĠÙĦÙĨØ§": 557, "ĠØªÙĪÙģ": 2665, "ĠÙĨÙĤØ¶": 6782, "ĠØ¬Ø§Ø¡ÙĨÙĬ": 6162, "ĠÙĨØ§ØµØ±": 9422, "ĠØ¬Ø²ÙĬÙĨØ§ÙĩÙħ": 8910, "ĠØ§ÙĨÙģ": 8825, "ĠÙĪØ§ÙĦÙĬØ³Ø¹": 10237, "ĠÙĪØ§ØµØ¨Ø±": 3376, "ØªÙĩÙĦÙĥÙĨØ§": 8287, "ĠÙħÙĪØ¬": 5007, "ĠØ§Ø³ØªØºÙĨÙī": 8563, "ĠØ¨Ø£ÙħØ±ÙĨØ§": 9337, "ĠÙĦÙĨÙģØ³ÙĬ": 5355, "Ø¬Ø§Ø¬": 7506, "ĠØ´ÙĬØ¡": 306, "ĠÙħØ³ÙĥÙĬÙĨØ§": 6941, "ĠÙĬØ³Ø¨ØŃÙĪÙĨ": 3396, "Ø¯Ø§Ø¯": 3955, "ĠØªØ°ÙĥØ±ÙĪØ§": 7484, "ĠÙĪØ§ÙĦØŃØ±": 7596, "ĠØ£Ø±": 689, "ĠØ£ÙĩÙĦÙĨØ§": 8349, "ĠØ§ÙĦØ®ØµØ§Ùħ": 8426, "ĠØ§ÙĦØ£ÙĨÙģØ³": 4326, "ĠÙĪØ£ÙĨØ°Ø±ÙĩÙħ": 8264, "ĠØªØªØ®Ø°": 5119, "Ø§Ø¯Ø§": 1801, "ĠØ¨Ø£ÙĨÙĩÙħ": 1259, "ĠØ£ÙħØ±ÙĥÙħ": 5145, "ĠÙħÙĨÙĩÙħØ§": 2547, "ĠÙĪÙĦØ£ÙĨØ¹Ø§Ùħ": 7840, "ÙĪØŃØ§": 4292, "ÙĪØ¬Ø§": 2567, "Ø¨Ø¦Ø³": 2580, "ĠÙĪØ£ÙĪØª": 7719, "ĠÙģØ³ÙĪØ§ÙĩØ§": 8673, "ĠÙĬØ´": 298, "ĠÙĬØªÙĪÙĦÙī": 6120, "ĠÙĥØ£ÙĨÙĩÙĨ": 9163, "ĠÙĦÙĬÙĨØ°Ø±ÙĥÙħ": 9521, "ĠØ±ÙĩØ·": 9833, "ĠÙĪØ§Ø¨Ø¹Ø«": 9156, "ĠÙģÙĨØ³": 3964, "ĠØ£Ø®Øª": 6383, "ĠØ§ÙĦØ´Ø±": 3430, "ĠØªØŃÙĥÙħÙĪÙĨ": 5512, "ĠØ§ÙĦØ³Ø§Ø¬Ø¯ÙĬÙĨ": 4137, "ĠØ¬Ø§Ø¡ØªÙĩÙħ": 1651, "ĠØ¶Ø±Ùĩ": 6231, "ĠØ¥Ø·Ø¹Ø§Ùħ": 7386, "ĠÙģÙĦÙĬÙĨ": 4235, "ĠØ¹ØªÙĪØ§": 7440, "ĠØ¨Ø§ÙĦÙħØ¤ÙħÙĨÙĬÙĨ": 3827, "Ø´Ùģ": 1359, "ØµØ¯ÙĤÙĬÙĨ": 5165, "ÙģÙĪÙĨØ§": 8903, "ĠØ£ÙĨØ²ÙĦÙĨØ§Ùĩ": 2026, "ĠØ§ÙĦØªÙĪØ§Ø¨": 3898, "ĠØ¹Ø¨Ø§Ø¯Ùĥ": 3318, "Ø¹Ø¬": 1243, "ĠØ§ÙĦØ¹ÙĦÙħ": 1179, "ĠÙĦÙĬØŃÙĥÙħ": 4178, "ĠÙĬØ¹ÙĤÙĪØ¨": 4265, "ĠÙģÙĪÙĬÙĦ": 2644, "ĠØ³ÙĪØ¢": 4527, "Ø§Ø³Ø¨": 7074, "ĠØ¢ÙĦÙĩ": 1158, "ĠÙĪÙĨØ§Ø¯ÙĪØ§": 9507, "ĠÙħØ¹": 263, "ĠÙĪØ§ÙĦØ±Ø³ÙĪÙĦ": 2685, "ĠÙĦØªØ¨ØªØºÙĪØ§": 5131, "ĠØ¹Ø¨Ø¯": 1442, "ĠØ§ÙĦÙĪØ¹Ø¯": 2813, "ĠØ£ÙģÙĦÙħ": 2236, "ĠÙħØ³ØªÙĤØ±": 3748, "ĠØªÙĨÙĥØŃÙĪÙĩÙĨ": 9622, "ÙĪÙĨÙĥ": 2461, "ĠØ§ØªØ¨Ø¹ÙĪÙĩ": 6552, "ĠØ®Ø§Ø¶": 7789, "ĠØ¨Ø§ÙĦÙĤØ³Ø·": 2035, "ĠÙĪØ§ÙĦÙħØª": 6376, "ĠÙĪØ±Ø§Ø¦Ùĩ": 8476, "ĠÙģØ£ÙĨØ¬ÙĬÙĨØ§Ùĩ": 3776, "ĠÙģØ³Ø¬Ø¯ÙĪØ§": 4322, "ĠØªÙĥØªÙħÙĪÙĨ": 4296, "ĠÙĪÙĤÙģÙĬÙĨØ§": 6030, "ĠÙĪÙĥØ±ÙĩÙĪØ§": 7165, "ÙĦÙĦ": 2437, "ĠØ¨Ø§Ø®": 7371, "ĠÙĪÙħÙĤ": 8432, "ĠØ§ÙĦØ¨Ø£Ø³Ø§Ø¡": 8544, "ĠØ£ØµØ§Ø¨ØªÙĥÙħ": 9110, "ĠÙģÙĥÙĦÙĪØ§": 3313, "ĠØ£ÙĨÙĩØ§Ø±Ø§": 7585, "Ø²ÙĪÙĨ": 1190, "ĠÙĪØ¥ÙĨÙĥ": 3637, "ĠØ§ÙĦØ¯Ø±Ø¬": 8210, "ÙĪÙĦÙĬ": 1926, "ĠÙħØ«": 396, "ĠÙĦÙĦÙħØ´Ø±ÙĥÙĬÙĨ": 5171, "ĠØ³Ø¨Ø¨Ø§": 5268, "ĠÙģØ¢ÙħÙĨÙĪØ§": 3810, "ĠÙģØ§ÙĥØªØ¨": 6176, "ĠÙħØ³": 455, "ĠØ§ÙĦÙħÙĨØ§ÙģÙĤÙĪÙĨ": 3414, "ĠÙģØ°ÙĦÙĥ": 4654, "ĠØ§ÙĦÙħØ¶Ø§Ø¬Ø¹": 7751, "ĠØ³ÙĦØ·Ø§ÙĨ": 1916, "ØµÙĪØ±Ø§": 7553, "ĠØ£ÙģØŃØ³Ø¨": 8309, "ĠØ£ÙĨØª": 756, "ĠÙģØ£ØªÙĪØ§": 2515, "Ø³ÙĦÙħ": 3470, "ØªÙĦÙģ": 865, "Ø¹Ø§ÙĦÙī": 2298, "ĠØ§ÙĦØµØ±Ø§Ø·": 3646, "ĠÙĦØ°ÙĥØ±": 3969, "ÙĨØªÙħ": 238, "ĠÙĪÙĪÙģ": 7145, "ĠØ£ÙģØ§Ùĥ": 8306, "ĠØ¯Ø§Ø±": 2720, "ĠØ£Ø³Ø§Ø¡ÙĪØ§": 8684, "ĠØ§ÙĦØŃØ±Ø¨": 7932, "ĠØ¨Ø§ÙĦØ¨Ø®ÙĦ": 9317, "ĠØ§ÙĦÙħÙĤØª": 7737, "Ø§Ø¯": 169, "ĠÙģØ§Ø¶Ø±Ø¨": 10053, "ĠÙĬØ³ØªØ®ÙģÙĪÙĨ": 8457, "ĠØ£ØªØ§": 1617, "ĠÙĪØ§Ø®ÙģØ¶": 6790, "ĠÙĪØ°ÙĥØ±Ùī": 3389, "ĠØ³Ø¨Ø¹ÙĬÙĨ": 9227, "ĠÙĬÙĩØ¯ÙĪÙĨ": 4472, "ĠØ¨Ø¦Ø³ÙħØ§": 6866, "ÙĩÙħ": 73, "ĠØªØ¹Ø±Ø¶": 8535, "Ø±Ø¬ÙĪÙĨ": 8628, "ĠØ£Ø±ØŃØ§ÙħÙĥÙħ": 9894, "ÙĦØ§Ø«": 1355, "ĠØ¯ÙĪÙĨÙĩ": 983, "ĠÙħØ§Ø¡": 987, "ĠØªØ¹Ø¯ÙĨØ§": 5438, "ÙĤÙĬØ§": 3985, "ĠØ£ÙĦÙĬÙħØ§": 2032, "ĠÙĪØªÙģ": 8149, "ÙĬØ¡": 5568, "ĠØ§ÙĦÙħÙĩØ§Ø¬Ø±ÙĬÙĨ": 7747, "Ø§ÙģØ¸ÙĪÙĨ": 2817, "Ø¶ÙĬÙĨ": 4783, "ĠØµÙħ": 6034, "ĠÙĬÙħØ³ÙĨØ§": 9248, "ĠØ§Ø«ÙĨ": 6678, "ĠÙĨØ°ÙĬØ±Ø§": 5249, "ĠÙħÙĨØ³": 4723, "ØºÙĬØ«": 5911, "ĠØ°Ø±Ø§": 7859, "ĠÙħÙĪØ§Ø®Ø±": 9407, "ĠÙĬØ¬Ø²ÙĪÙĨ": 6370, "ØµÙĦØ¨ÙĨÙĥÙħ": 7004, "ĠØ¨Ø±Ùĥ": 7366, "ĠØ¹Ø§ØµÙģ": 9766, "ĠÙĤÙĬÙĦ": 1045, "ĠØªØ´ÙĥØ±ÙĪÙĨ": 1600, "Ø§ØªÙĪØ§": 3162, "ĠÙĬØªÙĨØ§": 6117, "ĠÙĬØ²ÙĬØ¯": 3800, "ĠØ§ÙĨ": 749, "ĠÙħØ±ÙĬ": 2179, "ÙĬÙĨ": 71, "ĠÙĬØŃÙĬØ·ÙĪÙĨ": 9004, "ĠØ´ÙĩÙĬØ¯": 2149, "ĠÙģÙĬÙĪÙħ": 4767, "ĠØ£Ø¬Ø¯": 4639, "Ø¬Ø§ÙĨ": 5771, "ĠÙĪØ¬ÙĨ": 2226, "ĠÙĬÙĨØ§ÙĦÙĪØ§": 8137, "ĠÙģØ¥ÙĦÙĬÙĨØ§": 7995, "ĠØ§ÙĦØ±Ø¶Ø§Ø¹Ø©": 10178, "Ø¨ØªÙĦÙĬÙĥÙħ": 8626, "ĠÙħÙĪÙĦØ§": 2373, "Ø´Ø±ÙĥÙĬÙĨ": 1018, "ĠØ§ÙĦØŃÙĦÙħ": 7931, "ĠÙĪØ§ÙĦØ¨Ø§": 7595, "ØºØ±ÙĤÙĨØ§": 3031, "ÙĪÙĩ": 299, "ĠÙĤØª": 1508, "ĠÙħÙĬØ«Ø§ÙĤØ§": 6654, "ÙĦØ¨Ùĩ": 5134, "ĠÙĬÙĥ": 363, "ĠØ£ØŃØ³": 6184, "ĠÙĪØ¨Ø§ÙĦ": 1660, "Ø«Ø¨Øª": 2490, "ĠØ£ÙĪÙĦØ§": 1463, "ĠÙĬÙĨØªÙĩÙĪØ§": 8139, "ÙĪØ§ÙĩØ§": 5706, "ÙģØ§Ø¡": 3999, "ĠÙĦØ¹Ø¨Ø§Ø¯ÙĬ": 9732, "ĠÙģØªÙĦÙĥ": 8316, "ĠØ§ÙĦÙħØ¶": 7733, "ĠØ²Ø§ØºØª": 10009, "ĠÙĨØµØ±ÙĨØ§": 9207, "ĠÙĦØ²Ø§ÙħØ§": 10199, "ĠÙĪØ¢Ø¨Ø§Ø¤ÙĥÙħ": 4523, "ĠØ¬ÙĨØªØ§ÙĨ": 6967, "ĠÙĥØ§ÙĨØ§": 7518, "ĠØ£Ø±Ø¨Ø¹Ø©": 3383, "ĠÙģØ¹ÙĤØ±": 4397, "ĠØªØŃÙħÙĦ": 3528, "ĠÙħØµÙĬØ¨Ø©": 2593, "ÙĪØ§ÙĦØ¯": 3315, "Ø³Ø¬Ø¯": 4651, "ÙħØ©": 472, "ĠØ¹ÙĦÙħÙĨØ§": 3302, "ĠÙĪØ¢ØªÙĬÙĨØ§ÙĩÙħ": 5330, "ĠØ¬Ø«ÙĬØ§": 7780, "ĠÙĤØªØ§ÙĦ": 9260, "ĠØ¨ÙĬÙĨÙĥ": 8084, "ĠØªÙĤÙĪÙħ": 2128, "ĠØ£Ø®ÙĬ": 5160, "ĠÙģØ®ÙĦÙĤÙĨØ§": 10170, "ÙĪÙĥÙħ": 731, "Ø¹ÙĨØ§": 1307, "ĠØªØ¨ÙĪ": 8948, "Ø§Ø¦Ø¨ÙĬÙĨ": 6089, "ĠØ¢ÙħÙĨÙĪÙĨ": 8036, "ĠØ¢ØªÙĬÙĨØ§": 851, "ĠÙĦÙĤØ§Ø¡": 2985, "ĠÙģÙĥ": 539, "ĠÙħÙĩØªØ¯ÙĬÙĨ": 5635, "ĠØ¸Ø§ÙĩØ±": 5511, "ĠØ¨ÙĦ": 351, "ĠÙĦÙĤ": 461, "ĠØ§Ø¬Ø¹ÙĦ": 2727, "ĠÙĨØ¬ÙĪÙī": 8889, "ĠØªÙĦÙĤÙģ": 6794, "ĠÙĪØ£ÙħØ±": 1872, "ĠÙħØ³Ø®Ø±Ø§Øª": 6317, "ĠÙĦØ±Ø¨Ùĩ": 9351, "ÙĥÙĩ": 1931, "ÙĦÙģØªÙħ": 8314, "ĠÙĨÙĥØ«ÙĪØ§": 9036, "ĠØ®Ø·Ø¨ÙĥÙħ": 9374, "ĠÙĬØŃØ§ÙĪØ±Ùĩ": 10292, "ĠØªÙĥÙĨ": 1416, "ÙĤÙĨ": 3486, "ĠÙĤÙĪ": 651, "ĠÙĪÙģÙĬÙĩØ§": 6548, "ĠØ·ÙĬØ¨Ø©": 2743, "ĠØªØµØ±ÙģÙĪÙĨ": 7500, "ĠØ³ÙħØ¹ØªÙħÙĪÙĩ": 9000, "ĠÙĪØ§ØªØ¨Ø¹ÙĪØ§": 2419, "ĠØ¨ØºØ¶Ø¨": 5159, "ÙĦÙĥÙĩ": 5864, "ĠØ£ÙħÙĩ": 4914, "ĠØªØ¹Ø¯ÙĪÙĨ": 7485, "Ø¨Ø¹ÙĪ": 2730, "ĠØµØ¨Ø§Ø±": 4936, "ÙĬØ§Ùħ": 1029, "ĠÙĪØ¥Ø¨Ø±Ø§ÙĩÙĬÙħ": 4880, "ĠØ±ÙĬØŃØ§": 5450, "ĠØ§ÙĦØ¬ÙĦØ§ÙĦ": 8284, "ĠØ£ØŃØµ": 2738, "ĠØºÙĦÙĬØ¸Ø§": 6874, "ĠØªØªØ¨ÙĬØ±Ø§": 8533, "ĠÙĬØ³ØªØ¹Ø¬ÙĦ": 8455, "ĠØ£Ø·Ø¹ÙĨØ§": 7247, "ĠÙĨØŃØ´Ø±": 9653, "ĠÙĬØ®Ø±Ø¬ÙĪÙĨ": 3788, "Ø¯ÙĩÙħ": 1762, "ĠÙĬØ£ØªÙĪÙĥ": 5392, "ÙħØ£ÙĨ": 5566, "ĠÙĪØ¢Øª": 3306, "ĠØªØªÙĪÙģØ§ÙĩÙħ": 8534, "ĠØ´ÙĩÙĪØ¯Ø§": 9970, "ĠØªØ¶Ø±Ø¹Ø§": 6955, "ĠÙĨØµØ±ÙĩÙħ": 6656, "ĠÙĬØµÙĬØ¨ÙĥÙħ": 9733, "ĠØ§ÙĦØ¶Ø±": 2625, "ÙħØ³ÙĨØ§": 8522, "ĠØ®Ø±Ø¬ÙĪØ§": 4517, "ĠØ¹Ø§Øµ": 3518, "ĠØ§Ø«ÙĨØªØ§": 10162, "Ø¨Ø§Ø³Ø·": 8372, "ĠÙĬÙģØªÙĬÙĥÙħ": 8741, "ĠÙĪÙģØ¶": 6691, "ĠÙĪØ£Ø±Ø³ÙĦ": 7723, "ĠÙĪØ¬Ø¯ØªÙħÙĪÙĩÙħ": 9551, "ĠÙĦØ¹ÙĨØ§": 8755, "ĠÙĪÙĥØ§ÙĨÙĪØ§": 1036, "ĠØ£ÙĬØªÙĩØ§": 8132, "ĠØªØ¹Ø¬": 4302, "ÙĪÙĩÙħ": 546, "ĠÙĨÙģØ®": 5254, "ĠÙĨÙĨØ³": 4802, "ĠØ¥ÙĦÙĩ": 492, "ĠØªÙħØªØ±ÙĪÙĨ": 9565, "ĠØ£Ø¨": 602, "ĠÙĪØ£ÙĪÙĦÙĪ": 5519, "ĠØ§Ø³ØªØŃØ¨ÙĪØ§": 9891, "ĠÙĬØ¹Ø¯ÙĥÙħ": 4499, "Ø¹ÙĬÙĨÙĪØ§": 6576, "ĠØŃØ§Ø¶Ø±Ø©": 9966, "ĠØªØ²Ø¹ÙħÙĪÙĨ": 5299, "ĠØ§ÙĦÙĬØª": 3918, "ĠÙĪÙĦÙĥÙĨÙĥÙħ": 8503, "ĠØ¢Ø¨Ø§Ø¤ÙĨØ§": 3346, "ĠØªØºÙĨ": 5352, "ĠØ¨ÙħØµØ±Ø®": 8918, "ĠÙģØ£ÙĨÙĩ": 8905, "ĠÙĪÙĤØ¶": 6027, "ÙĨØ³": 456, "ĠÙĪÙĥØ«ÙĬØ±": 3633, "ĠØ¨Ø¹Ø¨Ø§Ø¯": 2230, "ĠØ´Ø¦ØªÙħ": 4493, "ØŃØµ": 2067, "ĠØ¥Ø«Ùħ": 3123, "ĠÙģØ³ÙĨÙĬØ³Ø±": 8674, "ĠÙģÙĤÙĦ": 1662, "ĠÙĬÙĥÙĪÙĨÙĪØ§": 2142, "ĠÙĬØ£ØªÙĬÙĨ": 2380, "ĠÙģØ§Ø¬": 6171, "ĠØ£ÙĨØ¹Ø§Ùħ": 5832, "ĠØªÙĦØ¨Ø³ÙĪÙĨÙĩØ§": 10172, "ÙģØ§Ø¹Ø©": 2384, "ĠÙħÙĨØ§ÙģØ¹": 4014, "ĠØ´Ø±ÙĥØ§Ø¤ÙĩÙħ": 9014, "ĠØ§ÙĦØ±ØŃÙħØ©": 3639, "ĠØ§Ø³ØªÙħØª": 6689, "ĠØ§ÙĦØ£ØŃØ§Ø¯ÙĬØ«": 6970, "ĠÙħØ³Ø§ÙĥÙĬÙĨ": 8518, "Ø¯": 63, "ĠÙģÙĨÙģØ®ÙĨØ§": 10314, "ĠÙĤØ§": 4036, "ĠØ®Ø°ÙĪØ§": 4512, "ĠØ°ÙĥØ±": 668, "ĠØ´ÙĬØ¹Ø§": 4970, "ĠÙħÙĬØª": 3454, "ĠØ¨Ø§ÙĦØ¹Ø¯": 2918, "ÙĩÙĦÙĥ": 1001, "ĠØ§ÙĦØ£ÙĪØª": 7811, "ĠÙĪØ²ÙĪØ±Ø§": 8873, "Ø§Ø±ÙĤ": 4911, "ĠÙĬÙħÙĥØ±ÙĪÙĨ": 3768, "ĠÙĪØ£ÙĨØª": 1998, "ĠØ§ÙĦØµØ¯ÙĤØ§Øª": 3807, "Ø¨ÙĪÙĩÙħ": 7191, "ĠÙĪØ¹Ø¸Ø§ÙħØ§": 4260, "ĠÙĬÙĥÙĪÙĨ": 812, "ĠØªØ±ÙĬØ¯": 6187, "Ø¬ÙħØ¹ÙĪØ§": 6956, "ĠØ¹Ø³ÙĬ": 7445, "ĠÙĨØ®ÙĪØ¶": 9463, "ĠÙĬØ´Ø±Ø¨": 9937, "ĠØ¯ÙĬÙĨÙĥÙħ": 2592, "ĠØªÙħØ´ÙĬ": 9137, "ĠØ®Ø´": 2499, "ĠÙĪØ¨ÙĨØ§Øª": 2759, "ĠØ§ÙĦØ¥": 515, "ĠØ§Ø¹ØªØ²ÙĦ": 6815, "ĠÙħÙĨØ§Ùħ": 5741, "ĠÙĪØ£ÙĨØªÙħ": 869, "ĠÙĬØ®ÙĦÙĤ": 1481, "ĠØ£ÙģØ£ÙħÙĨ": 6785, "ĠÙģØ¥Ø°Ø§": 550, "ĠØ£Ø¨Ø§": 2185, "ĠØ¨ÙĬÙħÙĬÙĨÙĩ": 5506, "ĠØ¨Ø§ÙĦØ±ØŃÙħÙĨ": 5962, "ĠÙĪÙĦÙĬÙĩÙħ": 8548, "ĠÙĪØ§ÙĦØ´ÙĬØ§Ø·ÙĬÙĨ": 7609, "ĠÙħØ¨Ø§Ø±Ùĥ": 3095, "ĠÙĬØº": 719, "ĠÙĬØ¨Ø³Ø·": 2576, "ĠÙĬØ¨ØªØºÙĪÙĨ": 3900, "ĠÙĬØªØ³Ø§Ø¡ÙĦÙĪÙĨ": 3419, "ÙĥÙħØ§": 1847, "ĠÙĪØ¹ÙĬÙĪÙĨ": 2968, "ĠÙĬØ¹ÙĦÙĨÙĪÙĨ": 3485, "ÙģÙĩØ§": 3505, "ĠØ§ÙĦØ¹ÙĦÙĬ": 3211, "ĠÙĬÙĦØ§": 5688, "ĠØ§ÙĦØ¹ÙĦÙī": 7959, "ĠØ¥ÙĬØ§ÙĥÙħ": 9455, "ĠÙĪØ§ÙĦØ¹Ø´ÙĬ": 9647, "ĠØ®Ø·Ø§ÙĬØ§ÙĨØ§": 9851, "ĠØ¨Ø£Ø³": 1334, "ĠÙĬØ£ØªÙĬÙĥÙħ": 3016, "ĠÙģØµØ¯": 3473, "Ø¨Ø±ÙĪÙĨ": 1613, "ÙĦÙĬØª": 4045, "ĠØªÙĤØ±Ø¨ÙĪØ§": 4324, "ĠØ¹Ø°Ø§Ø¨": 292, "ĠØºÙĬØ±ÙĥÙħ": 5155, "ĠÙĪØ±Ø¶ÙĪØ§": 2053, "ĠÙĦÙĥØ¨ÙĬØ±Ø©": 10006, "ĠÙĬÙĨÙĬØ¨": 10201, "ĠÙĪÙĦÙĬÙĬ": 8546, "ĠÙĬØªØ¶Ø±Ø¹ÙĪÙĨ": 10286, "ĠØ³Ø¨ØŃ": 888, "ĠÙĬØªØ®Ø°ÙĪØ§": 6119, "ĠÙĪØ§ÙĦÙħØ±": 4794, "ĠÙħØºØ±ÙĤÙĪÙĨ": 6910, "Ø¦ÙĨØ©": 7705, "ĠÙĪÙĥØªØ§Ø¨": 6069, "Ø¨ÙĬØ¨": 8024, "ĠØ¨Ø£ÙĨÙĩ": 8292, "ĠÙģØ§Ø³ØªØº": 8933, "ĠØ°ÙĨÙĪØ¨ÙĨØ§": 5425, "Ø±ÙĪÙĨÙĬ": 4139, "ÙĬÙħØ©": 4108, "ÙĪØ§Ø¹Ø¯": 3489, "ĠÙĦÙĦØ¥ÙĬÙħØ§ÙĨ": 6817, "ÙĤÙĪÙĩ": 3487, "ĠÙĪØ¬Ø¨Ø±ÙĬÙĦ": 8074, "ĠÙģØ§Ø³ØªØºÙģØ±": 6538, "ĠÙĬÙģØªØŃ": 9023, "ĠÙĪØ¢ØªÙĪÙĩÙħ": 9729, "Ø¨Ø§Ø¦Ø±": 5624, "ĠÙĪØª": 277, "ĠØ¶ÙĬÙģÙĬ": 10004, "ĠÙĬØ¬Ø¹ÙĦ": 1597, "ĠØ£ÙĬÙħØ§ÙĨÙĩÙĨ": 9872, "ĠÙĬØ¹Ø°Ø¨ÙĥÙħ": 5456, "ĠÙĪÙĥØ°ÙĦÙĥ": 980, "ĠØ§ÙĨØµØ±ÙĨÙĬ": 7029, "ĠØ¹ÙĦÙī": 145, "ĠÙĪÙħÙĨ": 184, "ĠØ¬Ø¦ØªÙĥÙħ": 5283, "ĠØ¢Ø¨Ø§Ø¦ÙĩÙħ": 6522, "ĠØ§Ø±Ø¬Ø¹ÙĪØ§": 6724, "ĠÙĬØ¤": 640, "ØªØ¯": 2443, "ĠÙĪØ§ÙĦØªÙĬ": 7594, "ĠÙĨÙģØ±Ø§": 9706, "Ø§ÙĦØ§": 1215, "ĠÙĦÙĬØ³": 768, "ĠÙĪØ£Ø¶ÙĦ": 3572, "ĠØ¨Ø±ÙĩØ§ÙĨ": 6878, "ĠØªØµØ¯ÙĪÙĨ": 8966, "ĠØºÙĦØ¨": 4962, "Ø¨ÙĬÙĨØ©": 4977, "ĠÙĦÙĬÙĪØ³Ùģ": 4946, "ĠÙĬØ¸ÙĩØ±": 6730, "ÙħØ§ÙĪØ§Øª": 5750, "ĠÙħØ³Ø§Ùĥ": 3714, "Ø¹Ø§Ø¡": 3098, "ĠØ§Ø³ØªÙĥØ¨Ø±ÙĪØ§": 2390, "ĠÙĪÙĤ": 186, "ĠØ£Ø±Ø¨": 1616, "ĠØ¨ÙħØ¹Ø°Ø¨ÙĬÙĨ": 6810, "Ø«Ø§": 2337, "ĠØ£ØºÙĬØ±": 5293, "ĠÙĨØ³ÙģØ§": 8784, "ĠÙģÙĦÙĬÙħØ¯Ø¯": 10052, "ĠØ§ÙĦÙħØµÙĦÙĬÙĨ": 9574, "ĠÙħÙĤØ·": 7209, "ĠØ£Ø³ÙĦÙħØª": 9440, "ĠØ²Ø¹ÙħØªÙħ": 3892, "ÙĩØ¨Ø·": 3079, "ĠØ£Ø«ÙĬÙħ": 4460, "ĠÙĪÙģÙĬ": 951, "ĠØ¥ÙħØ§ÙħØ§": 5400, "ĠØ¬Ø¦": 1195, "ĠÙĨØ¹ÙħØªÙĬ": 3766, "ĠØ£Ø±Ø¨Ø¹ÙĬÙĨ": 5351, "ĠÙĦÙĤØ§Ø¯Ø±ÙĪÙĨ": 6326, "ĠØ²Ø±Ø¹Ø§": 6937, "ÙĬØªÙĩ": 7105, "ĠÙĬÙĩÙĬ": 7330, "Ø¸ÙĨÙĪÙĨ": 7829, "ĠØ¢": 125, "ĠØ±Ø§Ø¨": 4777, "ĠÙĪØ¬ÙħØ¹": 8068, "Ø²ÙĬÙĦØ§": 5041, "ĠØ¨Ø§ÙĦØŃØ³ÙĨØ©": 4543, "ĠÙĪÙĨØ®ÙĦ": 8248, "ĠÙĦÙĬØŃØ²ÙĨ": 10111, "Ø¬ÙĨØ¨ÙĩØ§": 9162, "Ø³Ø¯Ø§": 4650, "ĠÙĪØ¥Ø³ÙħØ§Ø¹ÙĬÙĦ": 2706, "ĠØ¨ØµÙĬØ±Ø§": 1918, "ÙĨØ§ÙģÙĤÙĬÙĨ": 1604, "ĠØ§ÙĦØºØ§ÙĦØ¨ÙĬÙĨ": 5457, "ĠÙģØ£ØŃØ¨Ø·": 6018, "ĠØ§ÙĦØ£Ø²ÙĪØ§Ø¬": 7812, "ĠÙĥÙģØ±ÙĩÙħ": 8129, "ĠÙĪØ£ÙĥÙĨ": 7722, "ĠÙĬÙĨÙĤ": 4206, "ĠØªØ°": 7467, "Ø§ÙĤØ©": 2760, "Ø¯Ø§ÙĩÙħØ§": 3664, "Ø¢": 153, "Ø¢ÙĬØ§Øª": 342, "ĠÙĦØ¢Ø¯Ùħ": 4390, "ĠÙĪÙĨØŃØ´Ø±": 8259, "ĠØ§Ø¯Ø®ÙĦÙĪØ§": 2146, "ĠÙĪØ£ÙĪØŃÙī": 9492, "ĠÙĪØ£ÙĪÙĦØ§": 3175, "Ø¢Ø¨": 5957, "ĠØ¨Ø§ÙĦØµ": 2710, "ĠÙģÙĦÙĨ": 1056, "ĠÙģÙĬØ¶Ø§Ø¹Ùģ": 7543, "ĠÙħÙĪÙĦØ§ÙĥÙħ": 4521, "Ø¨ÙĥÙħ": 2293, "ĠÙĪØ£ÙĨÙĩ": 2109, "ĠÙģØ§ÙĨØªÙĤÙħÙĨØ§": 5227, "ĠØ³ÙĤÙĬÙħ": 7667, "ĠØªØ£ÙħÙĨÙĩ": 8599, "ĠÙģØ³Ø¬Ø¯": 8668, "ØŃÙĥ": 4715, "ĠÙĨÙħÙĪØª": 9605, "ĠÙĪØ¥ÙĨÙĩ": 1329, "Ø¬Ø§Ø±Ø©": 3531, "ĠÙģÙĪÙĤ": 922, "ĠØ§ÙĦØ¨ØµÙĬØ±": 5124, "ĠÙĦØªØ³ÙĥÙĨÙĪØ§": 5475, "ĠÙĪØµØ§ØŃØ¨": 6580, "ĠØ§ÙĦØ£Ø¹ÙĦÙĪÙĨ": 7816, "ĠÙĪØºØ±ØªÙĩÙħ": 6862, "ĠÙĪØ¬Ø¦": 4196, "ĠØ¨Ø¬Ùĩ": 3842, "ØŃØª": 2463, "ĠØ±Ø§Ø¶ÙĬØ©": 4779, "ĠÙĪØ³ÙĦÙĬÙħØ§ÙĨ": 5166, "ÙĬÙħÙĬÙĨ": 1458, "ĠØ·Ø§Ø¦ÙģØ©": 1744, "ĠÙģØ£ÙħØ³Ùĥ": 6016, "ĠÙĬÙĨÙĤØ¶ÙĪÙĨ": 5526, "ĠØµØŃÙģ": 6040, "ĠØªØ³ÙħØ¹ÙĪÙĨ": 7488, "ĠÙĪØ³": 563, "ĠØ§ÙĦØ¹Ø§Ø¯ÙĪÙĨ": 7968, "Ø§ÙģØ§": 6219, "ĠÙĬØ·Ø¹ÙħÙĩ": 9116, "ĠØ§ÙĦØ¢Ø²ÙģØ©": 9406, "ĠÙĬÙĪØŃÙĬ": 5345, "ĠØ¨Ø±Ø§Ø¡Ø©": 10154, "ĠÙĪÙħØªØ¹": 8436, "ĠÙĬØ´Ø±ÙĥÙĪÙĨ": 1558, "ĠÙħÙĬØ«Ø§ÙĤÙĩ": 9308, "ĠÙģÙĨØ§Ø¯ÙĪØ§": 9695, "ĠÙĬØ±Ø§ÙĥÙħ": 7332, "ĠÙĨÙĩÙĪØ§": 4066, "ĠÙĨÙĤÙĪÙĦ": 2894, "ĠØ¨ÙĬÙĪÙħ": 3993, "Ø£Ø®Ø±": 7419, "ĠÙģØ§Ø³ØªÙĪÙī": 8934, "ĠÙĪØºØ±": 2846, "ĠÙĦØ´Ø±": 7302, "ĠØ´Ø¹ÙĬØ¨": 5366, "Ø§Ø¶ÙĬØ©": 4421, "ĠØ¥Ø¹Ø±": 7383, "ĠÙĪØ£Ø´Ø±": 7717, "ĠØ·Ø§ÙĤØ©": 8272, "ĠÙĪØ§ÙĦØ¨ØµÙĬØ±": 4426, "ĠØ§ÙĦÙģØ±ÙĤØ§ÙĨ": 5407, "ÙĨØ§ÙĨØ§": 7455, "ĠØ§Ø³ØªØ¬ÙĬØ¨ÙĪØ§": 8561, "ĠØ§ÙĦØ·Ø§ØºÙĪØª": 3757, "ÙħÙĦ": 1750, "ĠÙĦÙĩØ¨": 8047, "ĠØ¹Ø¨Ø§Ø¯ÙĨØ§": 2396, "ĠØ±Ø³Ø§ÙĦØ§Øª": 4254, "ĠØªØ³Ø£ÙĦ": 8829, "Ø±Ø§Øª": 2836, "Ø¬Ø¯ÙĪØ§": 1075, "ĠØ§ÙĦØ¬Ø§Ùĩ": 2111, "ÙĦÙĪÙĩ": 3420, "ĠÙĪØ¨Ø´Ø±": 1661, "ĠØ£ØªÙī": 3462, "ĠØ¢ÙĦØ§Ø¡": 1049, "ĠÙĪÙĬÙĤÙĪÙĦÙĪÙĨ": 1201, "ĠÙħÙĨØª": 3512, "ĠØ¥Ø«ÙħØ§": 3124, "ĠØ§ÙĦÙĥØªØ§Ø¨": 343, "ĠÙĬÙģØµÙĦ": 4340, "ĠØ£ÙĥÙĦÙĩØ§": 5102, "ĠØ¨Ø¯ÙĦÙĩ": 9204, "ÙģÙĦØ©": 4002, "ĠØ±ØŃØ¨Øª": 8629, "ØŃÙĩØ§": 4003, "ĠØŃØ§Ø´": 4092, "ĠØ§ÙĦÙħÙĨØ´": 8955, "ĠØ£Ø«": 1555, "ĠÙģÙĥØ°Ø¨ÙĪÙĩ": 3056, "ĠÙĨÙĥÙĪÙĨ": 7618, "ØºØ§": 3582, "ĠÙĪØ§Ø´ÙĥØ±ÙĪØ§": 4471, "ĠÙĨØ±Ø¯": 7633, "ĠØ¨Ø£ÙĦ": 5045, "ĠÙħÙĨÙĤÙĦØ¨": 5743, "ĠÙģØ·Ø±ÙĨÙĬ": 6845, "ĠØªØ®ÙģÙĪÙĨ": 8729, "ĠØ£Ø®Ø°ÙĨØ§ÙĩÙħ": 8981, "ĠØ¬Ø¹ÙĦÙĨØ§": 852, "ĠØ³Ø¯Ø§": 5856, "ĠÙĪØ£ØŃØµ": 7726, "ĠØ±ØŃÙħØ©": 1059, "ĠÙħÙĦÙĤÙĪÙĨ": 7217, "Ø²ÙĬØ²": 509, "ĠØµØºÙĬØ±Ø§": 10107, "ĠØ®Ø²": 2343, "ĠÙĬÙĦØŃØ¯ÙĪÙĨ": 6951, "ÙģØ§ÙĤØ§": 8389, "ĠØºÙĬØ±ÙĬ": 8639, "ĠÙĦÙĬØ«Ø¨Øª": 8004, "ĠØ®Ø¶Ø±": 4868, "ĠÙħÙĥØ±ÙħÙĪÙĨ": 6665, "ĠØªÙĤØ¯ÙĬØ±": 6796, "ĠÙĪÙĬÙĥÙĪÙĨ": 4900, "Ø°ÙĨØª": 5702, "ĠÙģÙĦØ¨Ø«": 6181, "ĠÙĩØ¯Ø§": 1702, "ĠØ¨Ø§ÙĦØºØ¯ÙĪ": 6641, "ĠÙĤØ±Ø¶Ø§": 3537, "ĠÙħØªØ§Ø¹ÙĨØ§": 9112, "ĠÙĪÙĬØ³ØªØŃÙĬÙĪÙĨ": 6649, "ĠØ§ÙĦØªÙĨÙĪØ±": 8913, "ĠÙĪØ¢ÙĬØ§ØªÙĩ": 10184, "ĠØ§ÙĦØŃÙĥÙĬÙħ": 909, "ØŃØ´Ø©": 2158, "Ø«ÙĬ": 2900, "ÙĪØ§ØªÙĩÙĨ": 8178, "ĠØ³Ø¨": 1090, "ĠÙħÙĪÙĤ": 4224, "ĠÙĬØ¹ÙĬØ¯Ùĩ": 3283, "ĠÙĤØ§ØªÙĦÙĩÙħ": 10072, "ÙģØªÙħ": 2462, "ĠØ£ÙĩÙĦÙĩØ§": 1820, "ĠÙĪØ²ÙĥØ±ÙĬØ§": 8875, "ĠØ¸ÙĦÙħÙĪÙĨØ§": 8765, "ĠØŃØ³Ø¨ÙĨØ§": 6700, "ĠÙĪØ§ÙĦØ£ÙĤØ±Ø¨": 3655, "ĠØ¶Ø¹ÙĬÙģØ§": 5554, "ĠÙħØ·ÙħØ¦ÙĨ": 7215, "ĠÙģØ§ÙĨØ¸Ø±ÙĪØ§": 4367, "ĠÙĦÙĥÙĬ": 8342, "ĠÙĬØ±ÙĬØ¯": 770, "ĠÙĪÙĩÙĨ": 7142, "ĠØ§ÙĦØ¹ÙĤØ§Ø¨": 1805, "ĠØ°Ø±": 2214, "ĠÙĪÙĦØ³ÙĦÙĬÙħØ§ÙĨ": 9857, "ĠØ£ÙĨØ²ÙĦ": 477, "ĠØ§ÙĦØŃÙĪØª": 6002, "ĠØ§Ø³ØªÙĥØ¨Ø±": 8560, "ĠÙģØ³ÙĬÙĨ": 8666, "ĠØ¥Ø°Ø§": 276, "ĠØŃØ±ÙĤÙĪÙĩ": 8868, "ØŃØ³Ø§ÙĨ": 3508, "ĠØªØ®ÙģÙĪÙĩ": 6788, "ĠØ°Ø±Ø¹Ø§": 9495, "ĠÙĪØ§ÙĦØ¹Ø§ÙĤØ¨Ø©": 6960, "ØŃÙĤÙĨÙĬ": 8584, "ĠØ§ÙĦØ£ÙħÙĬÙĨ": 5938, "Ø¹Ø±ÙĪÙĨ": 1274, "ĠØªØ¨ØªØºÙĪØ§": 9531, "ĠÙħÙĨØ§": 954, "ĠÙĪØ§ÙĦÙħ": 534, "ĠØ³ÙĦÙĬÙħØ§ÙĨ": 2486, "ÙĬÙĨÙĥ": 3490, "ÙĩÙĪÙĩ": 6106, "ĠØªØ¨Ø¯ÙĬÙĦ": 9359, "ĠÙģØ£Ø«": 7945, "ĠØ§ÙĦÙĤØ§ÙĩØ±": 9613, "ĠÙĬÙģÙĤÙĩÙĪÙĨ": 2164, "ĠÙĬØµÙĦ": 8778, "ĠØ¹Ø§ÙĥÙģÙĪÙĨ": 9820, "ĠØ§ÙĦØ¬Ø¨ÙĦ": 8283, "Ø¨ÙĬÙĦØ§": 4954, "ĠØµØ¯ÙĤØª": 8718, "ÙģÙĪ": 1946, "ĠØ£Ø±Ø§": 1063, "ĠÙħØ·ÙĦØ¹": 9687, "ĠØ¨Ø¬ÙĩØ§Ø²ÙĩÙħ": 9798, "ĠÙĦÙĦÙĬØ³Ø±Ùī": 10055, "ĠØ¹ÙĦÙħØªÙħ": 3721, "Ø³Ø®": 4648, "ĠØ£ÙĨÙģØ³": 451, "Ø°Ø¨Ùĩ": 4186, "ĠÙģØ¶Ø©": 5217, "ĠÙĪØ¹Ø°Ø¨": 8360, "ĠØ¬Ø¦Øª": 3806, "ĠØ£Ø´Ø±ÙĥØªÙħ": 9200, "ĠØªØ¯Ø®ÙĦÙĪØ§": 3751, "Ø¦ÙĪØ³": 7707, "ÙĨÙĬØ§Ø¡": 4966, "ÙĦÙĪÙī": 5561, "Ø¯ÙĩØ§": 5651, "ĠØªØ£Ø®Ø±": 8592, "Ø¤ÙĦØ§Ø¡": 855, "ĠØ±ØŃÙħØª": 3746, "ĠÙĨØ±Ø²ÙĤ": 6850, "ĠØ§Ø´ÙĥØ±": 9305, "Ø´ÙĪØ±": 5826, "ØºÙĪÙĨÙĩØ§": 4467, "ĠØ¹ÙĦØ§Ùħ": 4730, "ĠØ³ÙĬØ¯": 7660, "ĠÙĪÙĦÙĤ": 4122, "ĠÙĬÙĨØ²Øº": 6975, "ĠØ§ÙĦØ±Ø³ÙĪÙĦ": 873, "ĠÙĪØ£Ø®": 1796, "Ø§ØŃØ±": 2614, "ĠÙĦØ¬Ø¹ÙĦ": 4668, "ĠÙĪØ¬ÙĪÙĩÙĩÙħ": 1741, "ĠÙĪØµØ¯ÙĤ": 3922, "ĠÙĪØ£ÙĨÙģÙĤÙĪØ§": 2960, "ĠØŃÙģÙĬØ¸Ø§": 6830, "ĠØ¥ØµÙĦØ§": 3501, "ĠÙĨØ¹ÙĬÙħ": 4065, "ĠÙĦÙĬØ¸ÙĩØ±Ùĩ": 6060, "Ø¹ÙħÙĩ": 3613, "ĠØ¢ÙħÙĨØ§": 993, "ĠØ¨Ø£ØŃØ³ÙĨ": 4246, "ĠØ®ÙĦÙĬÙĦØ§": 5923, "ĠØ¢ÙĬØ§ØªÙĥ": 6270, "ĠØµØºÙĬØ±Ø©": 10109, "ÙĬØª": 452, "ĠÙĪÙĬØ¨ØºÙĪÙĨÙĩØ§": 6833, "ĠØ£ØªØ®Ø°": 5191, "ĠØ§ÙĦÙĨØ°Ø±": 5025, "ĠÙħØ§Ø¦ØªÙĬÙĨ": 9471, "ĠØµØ¯Ø±ÙĬ": 8717, "ĠØ§ÙĦÙĪØ§Ø±Ø«": 5370, "ĠØ¯ÙħØª": 6008, "ĠÙĪÙĩÙĬ": 2411, "ĠØ®ÙĬÙģØ©": 7011, "ÙħÙĨØ§": 655, "Ø±Ø³ÙĪÙĦ": 1586, "ĠÙģØ£Ø®Ø±Ø¬ÙĨØ§": 3869, "ĠØ£Ø¬ÙĦÙĩÙħ": 3691, "ĠÙĤÙĪØ§": 4037, "ĠÙģØ£ÙĨØ¨Ø¦ÙĥÙħ": 8907, "Ø¬Ùĩ": 5769, "ĠØªÙģØ¬ÙĬØ±Ø§": 8921, "ĠØªØ¶Ø±": 4026, "ĠÙģÙĦÙħØ§": 499, "ĠØ§Ø¨ÙĨ": 1100, "Ø²ÙĬÙĨ": 1137, "ĠØ§ÙĦÙĤØ±Ùī": 1716, "ĠØŃØ±Ø«": 3340, "ĠØ¨ØºÙĬØ±": 933, "ØºÙĨÙī": 4093, "ÙĦØ§ÙĦ": 645, "ĠÙĦØ§ØªØ®Ø°": 6915, "ÙĩØ±": 491, "ĠÙĪÙĬØ±ÙĬØ¯ÙĪÙĨ": 6663, "ĠØ¥Ø³": 7382, "ĠØ¢Øª": 4826, "ÙģØ¶": 5726, "ØµÙĦ": 1224, "ĠÙħØ±ÙĬØ©": 3937, "Ø·ÙĬ": 604, "ĠÙħØ«ÙĤØ§ÙĦ": 2974, "ĠÙĪØ±Ø¨ÙĬ": 6291, "ĠÙħØ¹ÙĦÙĪÙħØ§": 9513, "Ø§ÙģØ¹": 3269, "ĠÙĪØ³Ø§Ø¡Øª": 5167, "ØŃÙĬÙĪØ§": 8759, "ĠÙĦÙģØ³Ø¯Øª": 9935, "ĠÙĪØ§Ø³ØªÙĥØ¨Ø±ÙĪØ§": 5256, "ĠÙģØ§Ø³ØªØ¬": 4382, "ĠØªÙĪÙĦÙī": 2667, "Ø±Ø¶Ø§": 2708, "ĠÙģØ®ÙĪØ±": 6808, "ĠØŃÙģØ¸": 7760, "ĠÙĬØªØ®Ø°ÙĪÙĨÙĥ": 9380, "ĠÙĦÙĦÙħØ³ÙĦÙħÙĬÙĨ": 8697, "ĠÙĪØ¢ØªÙĪØ§": 1902, "ĠØ¹Ø¨Ø¯ÙĨØ§": 3821, "ĠØ§ÙĦØ°ÙĬ": 244, "ĠÙĦØ£ÙħÙĦØ£ÙĨ": 5555, "Ø§Ø¦ÙħÙĬÙĨ": 8066, "ĠØ®ÙĦÙģÙĩÙħ": 2265, "ĠØ§ÙĦØ´Ø¬Ø±Ø©": 3277, "ĠØ£ÙĪØªÙĬØªÙħ": 4446, "ĠÙĪØ§ÙĦØªÙĤÙĪÙī": 7604, "ĠØ¹Ø§Ø¦": 7437, "Ø®ÙĦÙĩÙħ": 8585, "ÙĤØª": 420, "Ø§ÙģØ±ÙĬÙĨ": 520, "ĠÙĪØ¬Ùĩ": 1053, "ĠÙĨÙģØ³": 476, "ĠØ§ÙĦØ¨ØŃØ±": 1211, "ĠØ¨ÙĤÙĪØ©": 3808, "ĠØ¨Ø¹Ø¨Ø§Ø¯Ùĩ": 3866, "ĠÙĬØ³ØªØ¹ØªØ¨ÙĪÙĨ": 7025, "ĠÙĬÙĦÙĤ": 1768, "ĠÙĬÙĪÙģ": 2860, "ĠØªØ¤ÙħÙĨÙĪÙĨ": 4022, "ĠÙģØªØ¹": 5052, "ĠØ±Ø¡ÙĪØ³ÙĥÙħ": 9588, "Ø²ÙĩÙħ": 5819, "ĠÙĪÙĬØŃØ±": 7893, "ĠØ£Ø¥ÙĨÙĥ": 9102, "ĠØ¨Ø´ÙĬØ±": 9160, "ĠÙĤÙĪÙĬ": 5190, "ĠØ§ÙĦÙģØ§": 1272, "ĠÙħÙĤØ§ÙĦ": 7211, "ĠÙħØ¨Ø±": 7202, "ØµØªÙĪØ§": 7554, "ÙħÙĬØ±Ø§": 7093, "ĠØ¨Ø²": 7353, "ĠØ£ÙĪÙĦØ§Ø¡": 7869, "ĠÙĬØ±ØŃÙħ": 8185, "ÙĪØ¨Ø©": 3652, "ĠØ¬ÙĩÙĨÙħ": 623, "Ø¦Ø°": 632, "ĠÙħØ¢Ø¨": 3884, "ĠÙĪØ£Ø°ÙĨØª": 7732, "ĠÙģØ£ÙĤ": 7943, "Ø¶Ø±Ø©": 6470, "ØºÙĩ": 5910, "ĠÙĪØ§ÙĦØ¨ØŃØ±": 2809, "ĠØ´ÙĤØ§ÙĤ": 4550, "ØºØ±Ø¨": 3186, "ĠÙģØ¥Ø®ÙĪØ§ÙĨÙĥÙħ": 6044, "ĠØ·ÙĦÙĤÙĩØ§": 9620, "Ø£ÙĦÙĪÙĨ": 1280, "ĠØ¶ÙĦ": 1477, "ĠÙĤÙĦÙĪØ¨ÙĥÙħ": 2012, "ĠØ§ÙĦØŃØ·": 6001, "ĠÙĤØ¶Ùī": 2470, "ĠÙħÙĨÙĬØ±Ø§": 7429, "ĠÙĤØ§Ø¦Ùħ": 6709, "Ø§ÙĦØ¯ÙĬ": 5579, "ĠÙĬÙĦØ¨": 2861, "ĠØ¨Øª": 3119, "ĠØ¨ÙĥØªØ§Ø¨": 4342, "ĠØ£ØŃÙĤ": 2377, "ĠÙĪØ¬Ø§Ø¡Øª": 6626, "ĠØ§ÙĦÙĨØ¯Ø§ÙħØ©": 8242, "ĠÙģØ§ÙĨ": 803, "Ø¬Ø§ÙĩØ¯ÙĪÙĨ": 7509, "Ø¨Ø·ÙĦÙĪÙĨ": 4400, "ÙĪÙĤ": 688, "ĠÙĪØ°Ø±ÙĬØ§ØªÙĩÙħ": 7035, "ØªÙĦØ·": 6541, "ĠÙģØ§Ø¯Ø¹": 4498, "ĠØ§ÙĦÙĨØ´Ø£Ø©": 7067, "ÙĪÙģÙĩØ§": 8196, "ĠÙĬØ¶ÙĦÙĦ": 2262, "ĠØªÙĤÙħ": 8676, "ĠØªÙĤÙĪÙī": 8677, "ĠØªØ¨Ø¯ÙĪØ§": 5378, "Ø®ÙĦÙĩØ§": 7549, "ĠÙģØ¶ÙĦØªÙĥÙħ": 9008, "ĠØ¢ØªÙĬØªÙħ": 6625, "ĠØªØ¯": 675, "ÙģØª": 390, "ĠØ«ÙĬØ§Ø¨": 3614, "ĠÙĪÙĦØ¯Ø§ÙĨ": 9148, "ĠÙĦÙĬØ®Ø±Ø¬ÙĥÙħ": 9784, "Ø¬ÙĪØ¬": 4747, "ĠØ£ÙĤØ¯Ø§Ùħ": 4643, "Ø¨ÙĦØ©": 6087, "ĠØ£ÙĦÙĪØ§ÙĨÙĩØ§": 9693, "ĠØ£ÙĬÙĩ": 6126, "ĠØŃØ±Ø«ÙĥÙħ": 9736, "ĠØ§ÙĦØ£ÙĨØ¨Ø§Ø¡": 8688, "Ø§": 44, "ĠÙģØ£ØºØ±ÙĤ": 4928, "ĠØ£ÙĦÙĪØ§ÙĨÙĩ": 5483, "ØµÙī": 3148, "ĠÙĬØ±ÙĬØ¯ÙĪÙĨ": 2137, "ĠÙĪØ¸ÙĨÙĪØ§": 3371, "ĠØ¨Ø£ÙģÙĪØ§Ùĩ": 3068, "ĠÙħØ³Ø±": 3451, "ĠØ£Ø²ÙĪØ§Ø¬ÙĨØ§": 8962, "ĠÙĪÙĬØ³Ø®Ø±ÙĪÙĨ": 9376, "Ø¡Ø§": 5956, "ĠØ§ÙĦØ±ØŃ": 218, "ĠÙĩØ¤ÙĦØ§Ø¡": 928, "ĠÙħØ±ÙĬÙħ": 1078, "ĠÙĨÙģØ³Ø§": 2011, "ĠÙĪÙĤØ¹": 4162, "ĠÙĦÙĦØ°ÙĬÙĨ": 577, "ĠØ§ÙĦØ±Ø¹Ø¨": 4904, "ĠÙĪØ¶Ø±Ø¨Øª": 9738, "ĠØ¬Ø¯": 4095, "ĠÙĪØ£ÙĪÙĦØ§Ø¯ÙĥÙħ": 6893, "ĠÙĥØ§ÙĦØ£Ø¹ÙĦØ§Ùħ": 10157, "ĠÙĥÙĬØ¯Ø§": 3536, "ÙĦÙĬØ§": 7538, "ĠØ£ÙĪØ¢Ø¨": 7873, "ĠØ¥ÙĦÙĬ": 252, "ĠØ§ÙĦØ³Ø¨Ø¹": 5978, "ĠØªØ¹ÙħÙī": 7496, "ĠØ¹ÙħÙĦØ§": 3006, "ØµØ§Ø±Ùī": 2022, "ĠØ³ÙĪÙĦØª": 7006, "Ø§Ùĩ": 763, "ĠØªÙĪØ¹Ø¯ÙĪÙĨ": 2159, "ĠØ£ÙģÙĪØ§Ùĩ": 5050, "ĠØ§ÙĦØ¨Ø§": 7130, "ĠØ£ÙħØªÙĥÙħ": 7927, "ĠØ§ÙĦÙħÙĨÙĬØ±": 8956, "ĠØ®Ø§Ø¨": 5922, "ĠÙĪÙĬØ¨Ø´Ø±": 9576, "ĠØ¨Ø§ÙĦØµØ§ÙĦØŃÙĬÙĨ": 9610, "Ø²Ø±Ø¹": 9771, "ĠØ£ÙĪÙĦ": 900, "ĠÙĬØ®Ø´Ùī": 3702, "ĠÙĨØ°": 957, "ÙĪØ§Ø¨Ø§": 2458, "ĠØ£ÙħØ§": 1760, "ĠÙĪØ¬Ø¹ÙĦÙĨÙĬ": 5243, "ĠØ§ÙĦØ³Ø¯Ø³": 5979, "ĠØ¹ÙĦÙĬÙĩÙĨ": 2342, "Ø±ÙĬÙĨ": 717, "ĠØ¹ÙħÙĦØª": 4333, "Ø¹Ø¨": 3097, "ĠÙģØ¹Ø¯": 4653, "ĠØ·ÙĬØ±Ø§": 6207, "ĠÙĩØ°Ø§ÙĨ": 7650, "ĠÙĪÙĤØªÙĦÙĩÙħ": 10104, "Ø£Ø¬ÙĪØ¬": 7422, "ĠØªÙĤÙĪÙĦÙĪØ§": 1917, "ĠÙĦÙĦØªÙĤÙĪÙī": 4992, "ĠØ´ÙĩØ±ÙĬÙĨ": 9781, "ĠØ£ÙĥÙĪÙĨ": 2638, "ĠØ±Ùĥ": 2883, "ĠÙĪÙĬÙĨ": 1305, "ĠØ§ÙģØªØ±Ùī": 2031, "ĠØ¥Ø³Ø±Ø§Ø¦ÙĬÙĦ": 903, "ĠÙĬØ¬Ø±ÙĬ": 5152, "ØµØ±Ø§": 3541, "Ø§Ø±Ùī": 4912, "ĠÙĬÙĨØµØ±ÙĪÙĨÙĩ": 9323, "Ø§Ø¡ÙĩÙħ": 1636, "ĠØ£ÙĪØª": 5974, "ĠÙĦØ³ÙħÙĬØ¹": 7318, "ĠØ§ÙĦÙĨØ´ÙĪØ±": 8241, "ĠØ¬ÙĨÙĪØ¨ÙĩÙħ": 9126, "ĠÙĤØ±ÙĬÙĨÙĩ": 9951, "ÙĦØºÙĪ": 3907, "ĠÙĨÙĨ": 2892, "ÙĪØ¨Ø§": 4204, "ØµØŃØ§Ø¨": 5804, "ÙħØ§ÙĨ": 884, "ĠØ§ÙĦØµØ¨ØŃ": 8087, "Ø±": 54, "ĠÙĬØ£ÙĥÙĦÙĩÙĨ": 9302, "ĠØ¬Ø²Ø¡Ø§": 8911, "ĠØ§ÙĦØ¬Ø¨Ø§ÙĦ": 1333, "ÙĩÙĬÙħ": 618, "ĠØ±Ø¡ÙĪØ³ÙĩÙħ": 3880, "Ø®Ø§Ùģ": 4768, "ĠØ§ÙĦØ³Ø§ÙħØ±ÙĬ": 10268, "ĠØ¨Ø£ÙħÙĪØ§ÙĦÙĥÙħ": 6784, "ĠÙĦÙĬØ¬Ø²ÙĬ": 2524, "ÙĥÙĨÙĪØ§": 3019, "ĠØªØºØ±": 7483, "ĠÙģØ²Ø§Ø¯": 4546, "ĠØ¨Ø£ÙĩÙĦÙĥ": 6216, "ĠØ£ÙħØ±ÙĩÙħ": 2239, "ĠÙĦÙĬØ¨ÙĬÙĨ": 6054, "ØªÙĦØ§Ùģ": 3442, "ĠØªÙĨØ²ÙĬÙĦØ§": 5142, "ĠØ§ÙĦÙģØ±Ø¯ÙĪØ³": 9443, "ĠØ§ÙĦØ®ÙĬØ±Ø§Øª": 3052, "ĠØ§ÙĨØ¸Ø±": 2401, "ĠÙĪØ§ØªØ®Ø°": 4313, "ĠÙĥÙĬØ¯ÙĩÙħ": 6683, "ĠØ£ÙĨÙĩØ§": 4055, "ØªØ¨Øª": 7181, "ĠÙĪØ£Øµ": 1028, "ÙĪØ§Ø¬Ø§": 7351, "ĠÙĤØ¨ÙĦÙĩØ§": 8772, "ĠÙĥÙĦØ§Ùħ": 5781, "ĠØ³ÙĬÙĨ": 5852, "ĠÙĪÙĬØŃÙĦ": 6756, "Ø§Ø¬Ø¯ÙĬÙĨ": 2606, "ĠØ£ÙĤØ±Ø¨": 2579, "ĠÙĪØ®ÙĦÙĤ": 2415, "ĠØ°ÙħØ©": 7860, "ÙĪÙĦØ§": 360, "ĠÙĪÙģØµØ§ÙĦÙĩ": 10320, "ĠÙĪÙĦÙĩÙĪ": 6596, "ÙĪØ«": 4591, "ĠØ¨Ø³ÙĬÙħØ§ÙĩÙħ": 4405, "ĠØ¨Ø§ÙĦØŃÙĬØ§Ø©": 6931, "ĠØ£Ø£ÙĨØª": 9282, "ĠÙĬØ¤Ø®Ø±ÙĩÙħ": 6982, "ĠØ¹ÙĨØ¯": 312, "ĠÙĬØ£ÙģÙĥÙĪÙĨ": 8300, "ĠÙĬØ´Ø±": 4677, "ĠØ£Ø³Ø±Ø¹": 9514, "ĠÙĨØ¬ÙĪØ§ÙĥÙħ": 8892, "ĠØµØ§ÙĦ": 7982, "Ø³Ø±Ø§": 3471, "ĠØ§Ø¹ÙħÙĦÙĪØ§": 3221, "ĠÙģÙĤÙĪÙĦÙĪØ§": 7293, "ĠØ§ÙĦØ£ÙĥÙħÙĩ": 7820, "ØŃÙħØªÙĩ": 2540, "ĠØªØ°Ùĩ": 7479, "ĠÙģØªÙĨØ§": 3273, "ĠØ¨Ø§ÙĦØ¨Ø±": 7848, "ĠØ§ÙĦÙħØ±Ø³": 1118, "ØªØ¨ØªÙħ": 6414, "ĠÙĪØ¹ÙĦÙĬÙĩ": 8363, "ĠÙĪØ§ÙĦØ´": 1156, "ØºÙĪÙĬÙĨÙĩÙħ": 9663, "Ø¦ÙĩÙĨ": 7704, "ĠØ§ÙĦÙħÙĩØªØ¯": 10085, "Ø¹ÙĪÙĨ": 202, "ĠÙĬÙĩØ§Ø¬Ø±ÙĪØ§": 5693, "ĠØºÙĬØ±Ùĩ": 2125, "ĠÙĪÙħÙĨØ§ÙģØ¹": 6938, "ĠØ£Ø¬ÙħØ¹ÙĪÙĨ": 6258, "ĠÙĪØªØ¬Ø¹ÙĦ": 8154, "ĠØ¨Ø¥": 813, "ÙĦØ§Ø©": 660, "Ø§Ø¹": 2612, "Ø£ÙĦÙĪØ§": 2869, "ĠØ®ÙĦÙĤÙĨØ§Ùĩ": 5043, "ĠÙĬØ¨Ø¯Ø£": 3819, "ĠØ®Ø²ÙĨØªÙĩØ§": 6813, "ĠÙĬØ®Ø³Ùģ": 6288, "ĠÙĬØŃÙĦ": 4219, "ÙĬÙĨØ§ÙĩØ§": 4170, "ĠØ¨Ø¯": 1392, "ĠÙĬØ¯ÙĬ": 2387, "ĠØ°Ø§Øª": 1712, "ĠÙĪØ¶Ø§ÙĤØª": 10187, "ĠØ£ÙĩÙĦÙĩÙħ": 6235, "ĠÙĪØ£ÙĨÙģØ³ÙĥÙħ": 5034, "ĠØªØº": 1628, "ĠØ¯Ø®ÙĦÙĪØ§": 2722, "ĠÙĪØ¢ÙħÙĨ": 3307, "ĠØ§ÙĦÙģØªÙĨØ©": 3431, "Ø®Ø·": 5797, "ĠÙģØªØ«ÙĬØ±": 8325, "ÙģØ©": 834, "ĠÙĬØªÙĪØ¨ÙĪÙĨ": 6771, "ĠÙĬÙĥÙģ": 4255, "Ń": 43, "ĠÙĬÙĤØ§ØªÙĦÙĪÙĨÙĥÙħ": 5445, "ĠÙĥØªØ¨Øª": 7524, "ĠØªÙĦÙĤ": 2195, "ØªØº": 1429, "ĠØ¨Ø·ÙĪÙĨ": 2806, "ĠÙĪØ£Ø·Ø¹ÙħÙĪØ§": 9963, "ÙĪØ±Ø©": 1886, "ĠÙĥØ§ÙĦÙħÙĩÙĦ": 6536, "ĠÙħØ«ÙĦÙĨØ§": 3695, "ĠÙĬÙĥØ§Ø¯": 2751, "ĠØ£Ø°ÙĨ": 2448, "ĠÙĦÙĨØ¨ÙĬ": 6241, "Ø·ÙĬØ¹ÙĥÙħ": 9585, "ĠØŃØ¬ØªÙĩÙħ": 9208, "ÙĦÙĬØ©": 2673, "ĠÙĦÙĬØ¶": 4940, "ĠØŃØ§Ø³": 7758, "ĠÙĪØµÙĦÙĪØ§Øª": 9031, "ÙĩÙĬ": 3913, "ĠØ§ÙĦØŃÙĥÙħ": 2220, "ĠÙĪØ£Ø®ÙĬ": 9370, "ĠÙĬØ±Ø²ÙĤÙĪÙĨ": 8188, "ĠØªØ§Ø¨ÙĪØ§": 2601, "ĠØªÙĨØ²ÙĬÙĦ": 2562, "ĠÙģØ£ØªÙĨØ§": 6012, "ĠÙĪÙģØ¬Ø±ÙĨØ§": 6692, "ĠØ®ÙĦÙĤÙĥÙħ": 1654, "ĠØ¸ÙĦÙħÙĩÙħ": 6445, "ĠØ¹Ø³ÙĬØªÙħ": 10216, "ĠØ¨ÙĨÙĬØ§ÙĨÙĩ": 8823, "ĠØ¢ØªÙĬ": 1288, "ĠØ§ÙĦÙģØ§Ø³ÙĤÙĬÙĨ": 2422, "Ø³ÙħØ§": 2059, "ĠØ±Ø¡ÙĪÙģ": 3844, "ĠÙĨÙĪØŃÙĬÙĩ": 8893, "ĠØ³Ø¨Ø¹Ø§": 9226, "ÙĦÙĥØ§ÙģØ±ÙĬÙĨ": 1191, "Ø¹ÙĦÙĨØ§": 430, "ĠÙĪØ£Ø®Ø±": 2903, "ĠØ£ÙĥÙĨØ©": 5101, "ĠÙħØ¬Ø±ÙħÙĬÙĨ": 2447, "ĠÙĬØ³Ø¨ØŃÙĨ": 9815, "ĠØ§ÙĦÙĦ": 5583, "ÙĦØ§Ùħ": 621, "ĠÙģØ§Ø¹ÙĦ": 3254, "ĠØ°ÙĥØ±Ùĩ": 8749, "ĠØ®Ø±Ø¬Ø§": 9537, "ĠÙģØ£Ø±Ø³": 6009, "ĠÙģÙĪØ¬Ø¯": 9809, "ØªÙĬØ©": 4972, "ĠÙĬØºØ±": 5197, "Ø·Ø©": 4822, "ĠØ£ØŃØ§Ø¯ÙĬØ«": 8218, "ÙĨÙĩØ§": 2618, "ĠØ§Ø¨ÙĨÙĬ": 8806, "ĠØ§Ø³ØªÙĩØ²Ø¦": 5129, "ĠØ¹Ø§ÙĦ": 1505, "Ø¨ÙĬØ¹": 8025, "Ø¹Øª": 780, "ĠÙĪÙĥØ§ÙĨ": 421, "ĠÙĪØ¹Øµ": 6238, "ĠØ§ÙĦÙĥØ±ÙĬÙħ": 6907, "ĠØ¨Ø±Ø¨": 1110, "ĠÙĬØ³ØªÙĪÙĬ": 2006, "ĠØ§ÙĦÙħØ¬Ø§ÙĩØ¯ÙĬÙĨ": 6929, "Ø¹ÙĬÙĩØ§": 9386, "ĠØªÙĨÙģÙĤÙĪØ§": 2995, "ÙĪØ¶Ø§": 7113, "ĠØ´Ø±ÙĥØ§Ø¦ÙĩÙħ": 9013, "ĠØµØ§ØŃ": 2935, "ĠØ®Ø¨Ø§ÙĦ": 7787, "ĠÙĪØ£": 128, "Ø¨Ø§": 369, "Ø±Ø«": 2047, "ĠØ¨Ø£ÙĨÙģØ³ÙĩÙħ": 4422, "ĠÙĪØ§Øª": 518, "ØµØ±ÙĨØ§": 5083, "ĠÙĤØ±": 1445, "Ø§Ø±Ø¯": 7925, "ĠÙĪØ¨Ø§Ø·": 8483, "ĠØ³ÙĥÙĬÙĨØªÙĩ": 7007, "ĠØ¶ÙĬÙĤ": 8336, "ĠØŃÙħÙĦÙĩÙĨ": 8844, "ĠØ¬ÙĦØ¯Ø©": 9712, "ĠØ¹ÙĦÙĬÙĩØ§": 853, "ĠÙĦØ³ÙĨØª": 10056, "Ø«Ø§ÙĦ": 1454, "ĠØ§ÙĦØ¬Ø§ÙĩÙĦÙĬØ©": 5413, "ĠÙĪØ¨ÙĨ": 6296, "ĠØ®Ø¨Ø§ÙĦØ§": 10256, "ĠØ£ÙĤÙĬÙħÙĪØ§": 7244, "Ø¬Ø¹ÙĦÙĩØ§": 8858, "ĠÙĪÙĬØ£": 1882, "ÙģØ±": 138, "ĠØŃØ±Ø¬Ø§": 9393, "ÙģØ³ÙĩÙħ": 1583, "ĠÙģÙĬÙĩÙħ": 1783, "ĠØŃØ¨Ø§ÙĦ": 7757, "Ø´ÙĬØ§": 4054, "ÙĪØ¹": 1176, "Ø³ÙĨØ§": 7260, "ĠÙģØ§Ø¯Ø¹ÙĪØ§": 9412, "ĠØ®Ø±Ø¬Øª": 9538, "ĠÙĬØ£ØªÙĬÙĩ": 5213, "ĠÙĨØªØ±Ø¨Øµ": 9705, "ĠØ¨ØªØ£ÙĪÙĬÙĦ": 9915, "ĠØ§ÙĦØŃØ¬": 2719, "ĠÙĪÙĬØ¹ÙĦÙħ": 1406, "ĠØ§ÙĦØ£Ø¹Ø±Ø§Ùģ": 9427, "ĠÙĬÙĩØª": 3981, "ĠØªÙĤØ¨ÙĦ": 5169, "ĠÙĪÙĬÙĤØ°ÙģÙĪÙĨ": 10270, "ĠÙĦØ¨Ø³": 8971, "ĠÙĪÙĬØ¬Ø¹ÙĦ": 2217, "ĠÙĪØ§ÙĦÙħØ¤ÙħÙĨØ§Øª": 2393, "ĠØ¯Ø¨Ø±": 4923, "ĠÙĪÙĬØ§": 2287, "ĠÙģØ±ØŃÙĪÙĨ": 6278, "ĠÙĪØ£ÙĤØ³ÙħÙĪØ§": 5325, "Ø°Ø¨ÙĬÙĨ": 961, "ĠÙĥÙĩ": 7510, "ØªØ§Ø¨": 235, "ĠÙĦÙħØ¯ÙĬÙĨ": 8094, "Ø²ÙĦØª": 8179, "ĠØ®ØµÙħØ§ÙĨ": 9714, "ĠØ¨ØŃÙħ": 4705, "ĠÙĪØ¢ÙĬØ©": 5146, "ĠÙĤØ§Ø¦ÙĦ": 6708, "ĠÙĬØ¨ÙĬØªÙĪÙĨ": 7044, "ÙĤØ§Øª": 1109, "ĠÙģØµÙĦ": 4659, "ĠØ³ÙħØ§ÙĨ": 7674, "ĠÙĪØ§ÙĦØ£ÙĪÙĦÙī": 6144, "ĠÙħÙĪØªÙĪØ§": 8182, "Ø£Ùĥ": 2192, "ÙĦÙĥÙĨØ§": 5865, "ĠÙĬØ¬Ø§ÙĩØ¯ÙĪØ§": 8631, "ĠØ¨Ø°ÙĨ": 1943, "ĠØ´Ø¬Ø±Ø©": 3592, "ĠÙĦØªØ³": 2987, "ĠØ§ØºÙģØ±": 3303, "ĠØ§ÙĦØ¯Ø§Ø±": 2107, "ĠÙĥÙĦÙĩ": 3143, "ĠØ³ÙĪÙģ": 3164, "Ø§ÙĦÙħÙĪÙĨ": 1023, "ĠÙĪØ¬Ø¹ÙĦÙĨØ§Ùĩ": 6515, "ÙĬÙĨØ§Ùĥ": 7997, "ĠØ´Ø§ÙĩØ¯": 3197, "ĠÙĪÙĤØ¯Ø±": 6509, "ĠØ§ÙĦÙħØ¯ÙĬÙĨ": 1966, "ĠØªØ£ÙĥÙĦÙĪØ§": 3038, "ĠØ¯Ø§Ø±ÙĩÙħ": 4925, "ĠÙĬØªØ¨ÙĬÙĨ": 6118, "Ø³ÙĤ": 3103, "Ø³ÙģÙĨØ§": 8939, "ÙĪØ¹Ø©": 5575, "ĠÙģØ£ÙĦÙĤÙĪØ§": 6768, "ÙĩØ§Ø±": 470, "ÙĦÙĤÙĬÙĨ": 7971, "ĠØ®ÙħØ³ÙĬÙĨ": 9847, "ĠØ¸ÙĦÙħØªÙħ": 8764, "ĠÙĪØ¬Ø¹ÙĦ": 892, "ĠÙĪÙĪÙĩØ¨ÙĨØ§": 3067, "Ø¬Ø±Ùĩ": 6152, "ĠØ¢Ø¨Ø§Ø¡ÙĥÙħ": 6523, "ĠÙģØ¬": 1182, "ĠÙĪÙĦÙĨØ¬Ø²ÙĬÙĨ": 5246, "ĠØ§ÙĦØ£ÙĬÙĥØ©": 5548, "ĠØµØ§Ø¨": 4935, "ĠÙĪÙĬØ·ÙĪÙģ": 9976, "ĠØªØ³ÙħØ¹": 2197, "ĠØ¬Ø²Ø§Ø¤ÙĩÙħ": 4378, "ĠÙĬÙģØ±ÙĤÙĪÙĨ": 9476, "ĠØ§ÙĥØªØ³Ø¨": 6899, "Ø±ÙĪØ´": 7126, "ĠÙħØ£ÙĪØ§ÙĩÙħ": 3944, "ĠÙĪØ§ÙĦÙħÙĨ": 4057, "ĠØ¹Ø¸": 1353, "ÙĦØ§ÙħØ§": 2194, "Ø¨Ø§ÙĬØ¹": 8373, "ĠÙĨÙĥÙĨ": 4804, "ĠÙĬØ¤Ø°ÙĨ": 5184, "Ø£ÙĨØ¹Ø§Ùħ": 5207, "ĠÙĪØ´Ø±Ùĥ": 7150, "Ø§Ø±Ø©": 1465, "ĠÙħÙĪØ¹Ø¸Ø©": 6155, "ĠÙĪÙĬ": 166, "ĠØ³ÙħØ¹ÙĥÙħ": 8999, "ĠÙĨØ¸": 7612, "ĠØŃØ§Øµ": 4857, "ĠÙĦÙĤØ§ÙĦÙĪØ§": 6325, "ĠØ¨Ø¹ÙĬØ³Ùī": 8115, "ĠÙĪØ£ÙĪØ°ÙĪØ§": 10249, "Ø·Ø¹": 615, "ĠÙĬØ°ÙĪÙĤÙĪÙĨ": 10203, "ĠÙĪÙĦØ³ÙĪÙģ": 9856, "ĠÙĬØ¬Ø±": 4679, "ĠÙĬÙĥØªÙħ": 8350, "Ø³ÙĨØ©": 1258, "ĠØªØŃØ´Ø±ÙĪÙĨ": 2970, "ĠØŃÙĨÙĬ": 2340, "ĠØ¨Ø·ÙĪÙĨÙĩØ§": 9624, "ĠØŃØ¬Ø§Ø¨Ø§": 9209, "Ø¹Ø¯ÙĪØ§": 1714, "ĠØ¹Ø§Ùĥ": 4016, "ĠÙĬÙĨØ¸Ø±": 4988, "ĠÙĪØ£Ùħ": 1361, "ĠØ§ÙĦÙĤÙĬÙħ": 4937, "ĠÙĦÙĤØ¶ÙĬ": 2986, "ĠØ£ØµØ§Ø¨": 1234, "ĠÙĥÙħØ«ÙĦ": 2157, "ĠØ¶ÙĬ": 5059, "ĠØªØ³Ø£ÙĦÙĪØ§": 6482, "ĠØ´Ø¦ØªÙħØ§": 9909, "ÙģÙĤØ§": 4001, "ÙĩÙħØ§": 426, "ĠØ¨ÙĨØ¨Ø¥": 9181, "ĠÙģØ¹ÙĦ": 1183, "ĠÙĦÙĥÙĦ": 1233, "ĠØ£Ø®Ø°": 988, "ĠØ±Ø³ÙĦ": 2382, "ĠØ£Ø¶ØºØ§Ø«": 10030, "Ø¨ÙĩÙħ": 1759, "Ø³ÙħØ¹": 1012, "ĠØªØ¹Ø¬ÙĦ": 6331, "ĠÙĬØ±Ø²ÙĤ": 2538, "ĠÙĦØ¥ÙĦÙī": 9522, "ĠÙħÙĩØ¯Ø§": 10190, "Ø²ÙĬÙĦ": 2327, "ĠÙĨØ³": 693, "ĠÙĤØ±ÙĬÙĨ": 4761, "ĠÙĨØ¨Ø¯ÙĦ": 7634, "Ø¶Ø§Ø¬Ø¹": 6686, "ØªÙĬÙĩ": 2529, "ĠÙĪÙģØªØŃ": 5610, "ĠØ¢ØªØ§": 1455, "ĠÙĤÙĦØªÙħ": 2717, "ĠØ¢ØªÙĪÙĨÙĬ": 7712, "ĠØ§Ø¨ØªØºÙī": 9441, "ĠØ¹ÙħØ±Ø§ÙĨ": 6922, "ØªÙĨ": 1848, "ĠØ¬ÙĨÙĪØ¯": 5295, "ÙħÙĬØ©": 6214, "ĠÙħØ¹Ø¯ÙĪØ¯": 5481, "ĠÙħØ²ÙĬØ¯": 7212, "ĠÙĪÙĤÙģÙĪØ§": 7977, "ĠÙħØ³Ø§ÙĥÙĨÙĩÙħ": 4559, "ĠØ¹Ø§ÙĤ": 1069, "ĠÙĨÙģØ¹ÙĦ": 6562, "ĠÙģØ£ÙĨØ³Ø§ÙĩÙħ": 10102, "ĠÙĪØ§ÙĦ": 108, "ĠØ·ÙĪÙī": 8271, "ÙħØ±Ùĩ": 8192, "ÙĩØ¯ÙĪØ§": 1806, "ĠØªØ®Ø±Ø¬": 1781, "ĠÙĬÙĤØ¨ÙĦ": 3747, "ĠØµÙĪØ§": 6035, "ĠÙģÙĬÙĩÙħØ§": 2882, "º": 28, "ĠØ¹ÙĤØ§Ø¨": 4732, "ĠÙĨØ®ÙĬÙĦ": 5412, "ĠØ·ÙĩÙĪØ±Ø§": 8278, "ĠØ¨ÙĬÙĪØªÙĩÙħ": 9503, "ĠÙĬØ¹Ø°Ø¨ÙĩÙħ": 3687, "ĠÙģØ£Ø³Ø±": 4927, "ÙĬØ¯ÙĪÙĨ": 1802, "ĠÙģØ§ØªÙĤÙĪØ§": 1739, "Ø¢ÙĨ": 3600, "ØªÙĪØ§": 484, "ĠØ´ÙĬØ§Ø·ÙĬÙĨ": 8058, "ĠØªØ¶Ø§Ø±": 9527, "ĠÙĬØªÙĪÙģ": 2231, "ĠØ®Ø§Ø·Ø¦ÙĬÙĨ": 9967, "ĠØ¨Ø±Ø¯Ø§": 8854, "ĠÙħØ±Ø¶Ùī": 5291, "Ø±ÙĬØ§Øª": 3224, "ĠÙĪÙĦÙĬØ³": 3299, "ĠÙĦÙĥÙħ": 206, "ĠÙĨØµÙĬØ±Ø§": 2252, "ĠØ¹ÙĬÙĨ": 1626, "ĠØ§ÙĦØ£ÙĦÙĪØ§": 5937, "ĠÙħØ®": 1387, "ĠØ£Ø®Ø°ÙĨØ§": 2261, "ÙħØ±Ø§Øª": 2104, "ĠÙħÙĩ": 2628, "ĠØ²ÙĪØ¬ÙĬÙĨ": 5339, "ĠÙħØ¹ÙĨØ§": 3647, "Ø¬ÙĦØ§": 7502, "ĠÙĤÙĪÙĦÙĬ": 8742, "Ø¬ÙĬØ±Ø§": 7504, "ĠÙħØ³ÙĦÙħ": 1235, "ĠØ§ÙĦÙĨØ¬ÙĪÙħ": 3873, "ĠØ¹ÙĦÙĬÙħØ§": 1403, "ĠÙĦÙĥÙĦÙħØ§Øª": 6232, "ĠÙĪØ£Ø¬Ø±": 3571, "Ø±ØŃ": 1084, "ĠØ¨ÙħÙģØ§Ø²": 8919, "ĠØ§ÙĦØ°ÙĬÙĨ": 135, "Ø±Ø¶ÙĪÙĨ": 1459, "ĠÙĪÙĦØ¯": 1292, "Ø¹Ø¯ÙĦÙĪØ§": 7912, "ØŃÙħØ¯": 1652, "ĠØ¨ÙħØ¤ÙħÙĨÙĬÙĨ": 3777, "ĠÙĪØ£Ø³Ø±ÙĪØ§": 4078, "Ø§Ø¹Ø©": 750, "ĠÙĨØ²ÙĦØ§": 3845, "Ø°ÙĨ": 512, "ĠÙĪØ£ÙĨÙĩØ§Ø±Ø§": 8266, "ĠÙĦØ±Ø³ÙĪÙĦ": 4670, "Ø§ØªÙĦÙĪØ§": 1867, "ģ": 33, "ĠØ®Ø³Ø±ÙĪØ§": 2915, "ĠØ¯ÙĬÙĨ": 1032, "ĠØ¨Ø§ÙĦØªÙĬ": 3202, "Ø¹ÙĪ": 1242, "ĠØªØ¸ÙĦÙħ": 5760, "ĠØ£Ø±Ø³": 538, "ĠÙģØ£ØªØ¨Ø¹ÙĩÙħ": 9671, "Ø¹ÙħÙĦÙĪÙĨ": 386, "Ø¯Ø¯ÙĨØ§": 4646, "ĠÙĪØ£Ø®ÙĬÙĩ": 5379, "ĠÙĪØ£Ø®Ø°ÙĨØ§": 6829, "ÙĪØ¯ÙĪÙĨ": 4245, "ĠÙĥÙĪÙĨÙĪØ§": 2671, "ÙĪØ§ÙĨ": 5705, "Ø§Ø±Ùĥ": 1407, "ĠÙĦØªÙĨØ°Ø±": 4306, "ĠØ§ÙĦØ¨ÙĦØ§Ø¯": 4489, "ĠÙĪÙĨØŃ": 6196, "ÙĤØ·Ø¹": 7341, "ĠØ¹ÙĬØ´": 7449, "ĠØ¨ØµÙĬØ±Ø©": 9077, "ĠØ¨Ø§ÙĦÙĩÙħ": 7844, "ĠØ§Ø³ØªÙħØ¹": 9270, "ĠÙħÙĨÙĬØ±": 7427, "ĠØµØ±ØµØ±Ø§": 8870, "ĠÙĤØ§ÙĦØ§": 7821, "Ø´ÙĬ": 941, "ĠÙĪØ³Ø¨ØŃ": 2288, "ĠØ£ÙħØ«Ø§ÙĦÙĩÙħ": 9669, "ĠØ¨Ø§ÙĦØ¨Ø£Ø³Ø§Ø¡": 9320, "ĠÙĪØ¹Ø§Ø¡": 8359, "ĠØ¨ÙĨØ§Ø¡": 5721, "ĠØ£ÙĪÙģÙī": 5975, "ÙĩØ²Ø¦": 4424, "ĠØ£ØŃØ¨": 3672, "ĠÙĬØ´ØªÙĩÙĪÙĨ": 4231, "ĠØ®ÙĦÙĪØ§": 3193, "ĠØ¨Ø§ÙĦØ£ÙħØ³": 5402, "ĠÙĩÙĦÙħ": 7648, "ĠØ§Ø": 500, "ĠØ§ÙĦØ¶": 2442, "ĠØ§ÙĦØ£ØŃ": 4114, "ĠÙĪØ§ÙĦÙĥØªØ§Ø¨": 3058, "ĠÙĪÙħÙĨÙĩØ§": 2723, "ĠÙĪÙħØ³Ø§ÙĥÙĨ": 7024, "ÙĬØ§Ø¯Ø©": 7867, "ĠÙħÙĪØ¹Ø¯ÙĩÙħ": 8183, "ĠÙħØªØ§Ø¨": 7201, "ĠÙĬÙĤØ±Ø¶": 8735, "ĠÙĪØ¢ØªØ§ÙĨÙĬ": 9730, "ØªØ§": 381, "ĠØ§Øª": 407, "ĠØ£ÙĩÙĦÙĥÙĨØ§": 1839, "ĠØ¥ÙĬØ§": 2064, "ĠÙĪØ£ÙĦÙģ": 7718, "ĠØ¹Ø§Ø¨Ø¯ÙĪÙĨ": 5437, "ĠØªÙĥØ±ÙĩÙĪØ§": 5767, "ĠØ§ÙĦÙħÙĬØª": 2210, "ĠÙĬÙĤØµ": 8734, "ÙĪØ¬ÙĩÙħ": 4325, "ĠÙģØ§ÙĦØŃ": 5668, "ĠØ¨ØµÙĬØ±": 1152, "ĠØ¨ÙĬØª": 2864, "ĠÙĬØ¹Øµ": 3282, "ĠÙĬØ£ÙĥÙĦ": 3834, "ĠØ¨Ø£Ø±Ø¨Ø¹Ø©": 8294, "ĠÙĪØ§Ø´ÙĩØ¯": 9326, "ÙĩØ§": 101, "ĠÙĪØ§ÙĦÙħØ¤ÙħÙĨÙĪÙĨ": 3311, "ĠØ§ÙĦÙĤÙĪÙĬ": 6046, "Ø¬ÙħØ¹": 4030, "ĠØ§ÙĦÙħØºØ±Ø¨": 7746, "ĠØ§ÙĦØŃØ§ÙĥÙħ": 4155, "ĠÙĤØ§ÙĨØªØ§Øª": 9703, "Ø±Ø¶Ùī": 2709, "Ø¬Ø¨": 5770, "ĠØŃØ§": 5902, "ĠØ£ÙħÙĩØ§ØªÙĥÙħ": 3878, "ĠØ«Ø¨ÙĪØ±Ø§": 4910, "ĠØ£ØªØªØ®Ø°": 8752, "ĠØŃØ§ÙħÙĬØ©": 10086, "ĠÙĨØ§Ø¦ÙħÙĪÙĨ": 10238, "ĠÙĬØªÙĥ": 6116, "ĠÙĨØŃÙĨ": 676, "ĠÙĥÙĦÙĩØ§": 4033, "ĠØ§ÙĦÙħØ¹ØªØ¯ÙĬÙĨ": 5510, "Ø§Ø·": 372, "ĠØ£Ø¥ÙĨØ§": 2805, "ĠØ¢ØªÙĬØª": 9144, "ĠØ±ÙĩÙĤØ§": 9834, "ĠØ¬Ø§Ø¡Ùĥ": 2376, "Ø§ÙĥØ±ÙĬÙĨ": 2615, "ĠÙĬØ¤ÙħÙĨ": 953, "ĠÙģØ§Ø¶": 5674, "ĠØ¢ÙĦÙĩØ©": 1742, "ĠØ¶ØŃÙī": 8341, "ĠØªØ³ØªÙĪÙĬ": 8976, "ĠÙĦÙĦÙĥ": 4661, "ĠÙĪØ£ÙĤØ±Ø¶ÙĪØ§": 9232, "ĠÙħÙħØ²ÙĤ": 9631, "ĠØ£ØºÙĪÙĬØªÙĨÙĬ": 10020, "ÙĩÙĨÙħ": 591, "ĠØ¥ÙĨÙĨØ§": 4052, "ĠÙģØªÙĨÙĤÙĦØ¨ÙĪØ§": 9788, "ĠÙĪÙĨØ§Ø¯ÙĬÙĨØ§Ùĩ": 9508, "Ø²ÙĬØ±": 3548, "ĠÙĦÙĨ": 370, "ĠØ¹ÙĦÙĬÙĨØ§": 805, "ĠØµÙĨ": 3213, "ĠØ¬ÙĨØ¨": 9124, "ĠÙģØ¶Ø±Ø¨": 6496, "ĠÙĪÙĬØŃ": 1881, "ĠÙĬÙģØ³Ø¯ÙĪÙĨ": 6824, "ĠØªØ¬Ø¹ÙĦÙĨÙĬ": 9682, "ĠØ«ÙħÙĪØ¯": 2091, "ĠÙħØ´ÙĬØ¯": 9309, "ĠØ¨Ùĥ": 659, "Ø¨Ùĥ": 1216, "ĠÙĬØ¬ØªÙĨØ¨ÙĪÙĨ": 10308, "ĠØŃÙħÙĬ": 4856, "Ø®ÙĦØ§": 3147, "ĠÙĥØ¨Ø±": 2877, "ĠØ§Ø±ØªØ¨ØªÙħ": 9344, "ĠØ¹Ø§ÙĩØ¯ÙĪØ§": 4733, "ĠØ´ÙĬØ¨Ø§": 8057, "ØªÙĥ": 839, "ÙĪÙĩØ§": 601, "ĠØ³Ø¨ÙĤØª": 3357, "ĠØ§ÙĦØŃØ²ÙĨ": 7933, "ĠØ§ÙĦØ®ÙĪÙģ": 5091, "ĠÙģÙĪÙĤÙĩØ§": 6543, "ĠÙģÙĤØ¯": 700, "ĠÙĪØ§Ø³ØªØºÙģØ±ÙĪØ§": 6791, "ĠØªØ³Ø£ÙĦÙĪÙĨ": 4357, "ĠÙĦÙĪØ¬Ø¯ÙĪØ§": 8530, "ĠÙħØ§Ø¦Ø©": 3064, "ĠÙĬØŃÙĬÙĬÙĥÙħ": 4399, "ĠØ¸Ø§ÙĦ": 2956, "ĠÙĤØ§ÙĦØª": 1162, "ØµØ§Ùħ": 7555, "ĠÙĦØ¢Øª": 6556, "ĠÙģÙĩÙĪ": 1184, "ĠØ§ÙĦØ±Ø³ÙĦ": 1667, "ĠØ¢ÙĬØ§Øª": 405, "ĠØ¨Ø§ÙĦØ¨ÙĨÙĬÙĨ": 9318, "ĠØ¨Ø§ÙĦØŃÙĤ": 610, "ĠØ²Ø¬Ø±Ø©": 8414, "ÙģØ®": 1776, "ĠØ¨Øº": 540, "ĠØ£Ø®Ø±": 1346, "ĠÙĨØ¨Ø§ØªØ§": 8926, "ĠÙħØ±ÙĤÙĪÙħ": 8507, "Ø¶Ø¹ÙģÙĪÙĨ": 6670, "Ø§Ø¯Ø±": 2715, "ĠØ£ÙĪØ§Ø¨": 3952, "ĠÙĪØ±Ø¶ÙĪØ§ÙĨ": 4504, "ĠØ³Ø£ÙĦØª": 6752, "ĠØ¯ÙħØ§": 7935, "ÙĬØ¸": 4584, "ĠÙħØ³ØªÙĥØ¨Ø±Ø§": 8748, "ĠØ¥ÙĦÙĩÙĥ": 8588, "ĠÙĤØ§Ø¯Ø±ÙĬÙĨ": 10229, "ÙĤØ·": 1770, "Ø£ØªÙĬÙĨ": 4011, "ĠØªØŃÙĪÙĬÙĦØ§": 6249, "ĠÙĪØ£ÙĥÙĪØ§Ø¨": 6742, "ĠØ¬ÙħÙĬØ¹": 6487, "ĠÙĦÙģØ§": 5684, "ĠÙĬØ£Øª": 1894, "Ø³ÙĨØªÙĩÙħ": 3673, "ĠØ§ÙĦÙĤØ¯": 2221, "ĠÙĦØ³ÙĨØ©": 7312, "ĠØªØ´Ø§Ø¡ÙĪÙĨ": 9559, "ÙģÙĥØ±ÙĪÙĨ": 4712, "ĠØ°Ø±ÙĬØªÙĬ": 5385, "ĠÙĪÙĬØ¯Ø¹ÙĪÙĨ": 7904, "ĠÙĪØ§ØŃØ¯": 1668, "ĠØ¯Ø¹": 1367, "ĠØ¨Ø§ÙĦØ£ÙĨ": 5961, "ĠØ§Ø³ØªÙĥØ§ÙĨÙĪØ§": 10014, "ĠØ§ÙĦØ´": 364, "ĠØ§ÙĦØ£Ø±Ø§Ø¦Ùĥ": 4569, "ĠØ£Ø®Ø°ØªÙĩÙħ": 6561, "ĠÙĪØ´": 1550, "ÙĦÙĤÙĪØ§": 7970, "ĠØ§ÙĦÙĪØ§Ø±Ø«ÙĪÙĨ": 9346, "ĠÙħØ¹Ø§Ø°": 9870, "ĠÙģÙĤØªÙĦÙĩ": 10194, "ÙħØ¯Ø§": 7094, "ĠÙĪØ¨Ø±ÙĥØ§Øª": 9628, "ĠØ¨ÙĦØ§Øº": 10062, "ÙĩÙĪØ§": 1677, "ĠØ§ÙĦÙĨØ®ÙĦØ©": 9992, "ĠØ£Ø¥ÙĦÙĩ": 4420, "ÙĬØ§ÙħØ§": 2505, "ĠÙħØ¹ÙĥÙħ": 1257, "ĠØ¹ÙĨØ¯ÙĬ": 3671, "ĠÙĪØ§ÙĦÙĨØ¬Ùħ": 9896, "ĠÙĪÙĬØ¬Ø¹ÙĦÙĪÙĨ": 6798, "Ø¯Ùħ": 1042, "ĠÙģØ¬Ø¹ÙĦÙĨØ§": 2264, "ĠÙĦÙĬÙĥÙĪÙĨÙĪØ§": 8006, "ĠÙĦÙĦÙħØ³Ø±ÙģÙĬÙĨ": 8696, "§": 10, "ĠÙĪØ£ÙĤ": 1456, "ĠÙģØ§ÙĦÙĬÙĪÙħ": 3023, "ØŃÙħÙĬÙĨ": 3507, "ĠØ¹Ø³": 5745, "ÙĨØ§ÙĩÙħ": 578, "ĠØ§ÙĦØ£ÙĬÙĥ": 4879, "ØµØ¯Ø§": 7552, "ĠÙģØ¨Ø¹Ø¯Ø§": 8714, "ĠØ¶ÙĦØ§ÙĦ": 999, "ÙĦÙħÙĨØ§": 7654, "ĠØ£Ø±Ø§ÙĨÙĬ": 8776, "ĠØŃØ³Ø§Ø¨ÙĬÙĩ": 9342, "ĠÙħÙħØ¯": 6863, "ĠØ²Ø®Ø±Ùģ": 10135, "ĠØ±Ø¬ÙĦ": 2130, "Ø§ÙħÙĦÙĬÙĨ": 4328, "Ø®ÙĬØ±": 3539, "ĠÙĪÙĬØ·": 4899, "ĠØ£ÙģÙĪØ§Ø¬Ø§": 8311, "<PAD>": 0, "ĠØ¥Ø®": 2459, "ĠØ¨Ø§ÙĦÙĦÙĬÙĦ": 3603, "ĠÙĬÙĪÙĤ": 2016, "ĠØ¨ÙĬØªÙĥ": 9640, "ĠØ§ÙĦØ´ÙĬØ§Ø·ÙĬÙĨ": 2129, "ĠÙģØ£": 182, "ĠØ§ÙĦÙħÙģØª": 7736, "ĠÙ": 46, "ĠØ¨ØŃ": 2309, "ĠÙĪØ£ÙĩÙĦÙĩ": 3051, "ĠØ§ÙĦØ±Ø²ÙĤ": 2088, "ĠÙĪØ£ÙĨÙī": 8261, "ĠØªÙĨÙĥ": 2775, "Ø¬ÙĬÙĥÙħ": 5775, "ĠÙĦØ¹Ø¨": 6437, "ĠØ§ÙĦÙĤØ¯ÙĪØ³": 9497, "ĠÙĬØ£ÙĥÙĦÙĩ": 9301, "ÙĬÙĩ": 600, "ĠØ£ØªØ±Ø§Ø¨Ø§": 9792, "ĠÙĪÙĦÙĪ": 429, "Ø§Ø¡ÙĨØ§": 1793, "ĠØ¨ØµØ§ØŃ": 9133, "ĠØµØ¯ÙĤØ©": 5180, "ĠÙģØ¥ÙĨÙĩØ§": 6105, "ĠÙĬÙĦØŃÙĤÙĪØ§": 9816, "ØµØ±Ùģ": 3285, "ĠØ§ØªÙĤÙī": 4277, "ØªÙĬÙĨØ§": 564, "ÙĦØ¸": 4578, "ĠÙĪØ¶Ø¹": 4615, "ĠØ®ÙĦÙĤÙĥ": 8279, "ĠØ§ÙĦØ¨ÙĨØ§Øª": 5123, "ĠØ±Ø¶ÙĪØ§": 2681, "ĠÙĬØ¯Ø¹": 2556, "ĠÙĬØŃÙħÙĦ": 4221, "ĠØºØ«Ø§Ø¡": 8046, "ĠØ£Ø±Ø¶ÙĨØ§": 6695, "ÙĤØ°ÙģÙĬÙĩ": 9595, "ĠØ£Ø¹Ø¯Øª": 5373, "ĠÙħÙĨÙĩØ§": 554, "ÙĨØ§Ø¬Ø±": 7456, "ĠÙĬØ¹ÙħØ±": 5315, "ĠÙĪØ£Ø³Ø±": 5879, "ĠÙĪØ±Ø²ÙĤÙĨØ§ÙĩÙħ": 6787, "Ø±Ø§": 147, "ĠÙĦÙĦÙĤÙĪÙħ": 6917, "ÙĪÙĦØ¦Ùĥ": 290, "ĠØ®Ø³Ø§Ø±Ø§": 7056, "ĠØªÙĪÙĦ": 5754, "ĠØ£Ø¨Ø¹Ø«": 7242, "ĠØ³ÙĬØ¬Ø²ÙĪÙĨ": 8711, "ĠØ³Ø®Ø±ÙĬØ§": 6740, "ĠØ§Ø«": 1482, "Ø¨Ø¹Ø«ÙĨ": 8983, "ĠÙĬØ¬Ø¹ÙĦÙĪÙĨ": 9307, "ĠØ£Ùħ": 177, "ĠÙĬÙĩÙĦÙĥÙĪÙĨ": 9698, "ĠÙĪØªØ·ÙħØ¦ÙĨ": 8159, "ĠØ®Ø§ÙĦØ¯ÙĪÙĨ": 1339, "ĠÙħÙĬØªØ§": 3943, "ĠØ¶ÙĬÙģ": 6230, "ÙĩÙĤ": 3077, "Ø§Ø«Ø§": 6624, "ĠÙģÙĨØ§Ø¯Ùī": 9696, "ĠØ¢Ø¨Ø§Ø¦": 4373, "Ø¯ÙĪØ³": 7256, "Ø±Ø³": 223, "ĠØ´Ø·Ø±": 4111, "ĠØ£ÙĪØŃ": 1644, "ĠØ§ÙĦØ£Ø¹ÙĦÙī": 2822, "ÙĪØµ": 4590, "ĠÙĦÙĦØ¸Ø§ÙĦÙħÙĬÙĨ": 2371, "ĠÙģÙĬÙĤÙĪÙĦ": 1859, "ĠØªÙĤØ·Ø¹": 6399, "ÙħÙĩ": 2167, "Øª": 58, "ĠØ£ÙĪØ«Ø§ÙĨØ§": 7874, "ĠØ³Ø¨ÙĬ": 393, "ØµØ¨": 4771, "ÙĦÙĬØªÙħ": 2881, "ĠØ¥ÙĦÙĩØ§": 1826, "ĠÙģÙĬÙĨØ¨Ø¦ÙĩÙħ": 6681, "ĠØªØ¬Ø¹ÙĦ": 2989, "ĠÙĪØ§ÙĦØ¥ÙĨØ³": 2810, "ĠÙģØ§ÙĦÙħ": 4376, "ĠØŃØ±Ùħ": 1382, "Ø§ÙĦÙħ": 5578, "Ø¢Ø®Ø±ÙĬÙĨ": 6217, "ĠÙĤØ§ÙĦØªØ§": 7822, "ĠØªØ³ÙĤØ·": 8830, "ĠÙĬØ³Ø£ÙĦÙĥ": 9890, "ĠØ§ÙĦÙħÙĥØ°Ø¨ÙĬÙĨ": 3578, "ĠØ§ÙĤØ±": 4948, "ĠØ¹ÙĪØ¬": 7441, "ĠØ¬Ø³Ø¯Ø§": 4865, "Ø³Ùĩ": 3102, "ĠØ§ÙĦØ¸": 422, "ĠÙĪØ§ØªØ®Ø°ÙĪØ§": 3729, "ĠØ§ÙĦØ®ÙĦØ§ÙĤ": 8422, "Ø±Ø¢": 626, "ĠØ³Ø£": 1868, "ĠØ§ÙĦÙħØ´Ø±ÙĥÙĪÙĨ": 5895, "Ø§Ø¯Ø±ÙĪÙĨ": 4147, "ÙĪÙĦØ¯Ø§ÙĨ": 4830, "ĠØ¥ÙĨÙĩÙħ": 692, "ĠÙĪØ²ÙĬØ±Ø§": 8872, "ĠØ¨Ø¹ÙĦÙħ": 3120, "ĠÙģØ¯": 2301, "Ø±Ø¶": 154, "Ø¹Ùģ": 751, "ĠØ¢Ø¨Ø§Ø¦ÙĥÙħ": 5237, "ĠØ§ÙĦØ¨Ø§ÙĤÙĬÙĨ": 10179, "Ø¹Ø¯Ø§": 2218, "ĠØ¨Ø§ÙĦÙĨØ§Ø³": 5966, "ÙĪØ²ÙĨ": 8992, "ĠÙĪØ§ÙĦÙĥ": 1865, "ØºØ¶Ø§Ø¡": 4094, "ØŃØ¨Ø§Ø±": 7410, "ĠØªØ®Ø±Ø¬ÙĪÙĨ": 4483, "Ø¹Ø¯": 168, "ĠØ±Ø§Ø¯": 7559, "Ø¨ÙĦ": 226, "ĠØ®Ø§Ø¦": 3585, "ĠÙħÙĦØ©": 2632, "ØµÙĬ": 3540, "ĠÙĦØªØ³Ø£ÙĦÙĨ": 9681, "ĠÙģÙĩÙĬ": 4408, "ĠÙħÙĨÙĩ": 541, "ĠØ§ØªØ®Ø°ÙĪØ§": 1480, "ĠØ¨ÙĬÙĨØ§": 5709, "ĠØ¢ÙħÙĨØª": 3226, "ĠÙĥØ§ÙģØ±ÙĬÙĨ": 2878, "ĠÙĪØ§Ø³Ø¹": 3043, "Ø§ÙģÙĦ": 2746, "ĠØ§ÙĦØ£ÙĥØ¨Ø±": 4878, "ĠÙĪØ§ÙĦØ°ÙĬÙĨ": 340, "ĠÙĬØªÙĪÙĦÙĩÙħ": 6838, "ĠØ§ÙĦÙħÙĤØ³Ø·ÙĬÙĨ": 7054, "ĠÙĪØ§ÙĦØ¯ÙĪØ§": 7598, "ĠØµÙĦØ§ØªÙĩÙħ": 3886, "ĠÙĥØ¯Øª": 7517, "ĠØªØ£ÙĪÙĬÙĦØ§": 8597, "ĠÙģØ³ÙĪÙĤ": 8670, "ĠØªÙħØ³ÙĨØ§": 9457, "ĠØ§ÙĦØ¥Ø³ÙĦØ§Ùħ": 5149, "ĠÙĬØªÙĪÙģÙī": 5423, "ĠÙģØ®ÙĦÙĤ": 6807, "ĠØ®ÙĦÙĤÙĩÙĨ": 8280, "ĠÙĪÙĦÙĬØªÙħ": 8550, "ĠÙĦÙĬÙĤ": 2937, "ĠÙĦÙĨÙĨØµØ±": 8375, "ĠØ³Ø¨Ø§ØªØ§": 9038, "ĠÙģÙĬÙĥÙĪÙĨ": 2471, "ĠØ§ÙĦØ±Ø³": 669, "ĠØ¢ØªØ§ÙĩÙħØ§": 9229, "ĠÙħØºØ±Ùħ": 9748, "ĠÙģÙħØ§": 532, "ĠÙģØ¯Ø¹Ø§": 9516, "ĠØ§ÙĦØ£ÙħØ±": 1092, "ĠÙĥØ´Ø¬Ø±Ø©": 9947, "ĠÙĪÙħØ¹ØµÙĬØª": 10041, "ĠØ£Ø´ØŃØ©": 8793, "ĠØ±ØŃ": 529, "ØµÙĬØª": 4773, "ĠØ§ÙĦÙĤÙĬÙĪÙħ": 6045, "ĠÙĬØ£Ø¨": 8297, "ĠØ¨ÙħÙĨ": 2310, "Ø±Ø§ÙĩÙħ": 3599, "Ø±ÙĪÙĨÙĥ": 7888, "ĠÙĬÙģØ±ÙĤÙĪØ§": 9475, "ĠØ·ÙĪØ¹Ø§": 5039, "Ø¬Ø§Ø¬Ø©": 10224, "ĠØ®Ø·": 1798, "ĠÙĬØ³ØªØ¹Ø¬ÙĦÙĪÙĨ": 5098, "ĠØ£Ø±Ø°ÙĦ": 8777, "ĠÙĪØ¶Ø¹ØªÙĩØ§": 9920, "ĠØ¥ÙĬÙħØ§ÙĨÙĥÙħ": 3813, "ĠÙĦØ¯ÙĨ": 9046, "Ø¯Ø©": 522, "ĠÙĪØ²ÙĦØ²ÙĦÙĪØ§": 10040, "ĠØºÙĦÙĬ": 2944, "ĠÙĪÙĬØ¹ÙħÙĦ": 7899, "ĠØ®ÙĦÙĤØ§": 3266, "ÙĩÙĪ": 262, "Ø§ÙģØ¸ÙĬÙĨ": 9325, "ĠØ¢ØªÙĬÙĥ": 9143, "Ø¸ÙĥÙħ": 3597, "ĠÙĬØ³ØªÙħØ¹": 6300, "ĠÙĪÙĦØªØ¨ÙĦØºÙĪØ§": 9066, "ĠÙģØ§Ø·": 2857, "Ø¬Ø²ÙĬÙĨ": 2073, "ĠØŃÙĬØ§Øª": 4853, "ĠØ£ÙĪÙĦÙĪ": 1540, "ĠØ£Ø¬Ø¨ØªÙħ": 8410, "ĠÙģØ¹ÙĦÙĪÙĩ": 4419, "ĠÙĬØ±ØªØ¯": 5010, "Ø£Ø±ÙĪÙĨ": 7418, "ĠÙĪØ§ÙĤØªÙĦÙĪÙĩÙħ": 6113, "ĠØªØ®Ø²ÙĪÙĨ": 8730, "ÙĤØ¹": 2456, "ĠØ¨Ø§ÙĦÙĤ": 1460, "ĠØ§ÙĦØ¨Ø±": 1343, "ĠÙĬÙĨÙģÙĤÙĪÙĨ": 1471, "ÙģÙĤ": 1625, "ĠØ§ÙĦØ¢Ø®Ø±": 898, "ĠÙĪØ£Ø®Ø°": 2493, "ĠØ§ÙĦØ¶ÙĦ": 2624, "ĠÙģØ´": 5660, "ĠØ§ÙĦÙĤØ±ÙĪÙĨ": 2522, "ÙĦØªÙħ": 1845, "ĠÙĬØ³ØªØ£Ø®Ø±ÙĪÙĨ": 4289, "ĠØ·Ø§Øº": 5037, "ĠØ³ÙĤÙģØ§": 7682, "ĠØ¢Ø°Ø§ÙĨÙĩÙħ": 3403, "Ø§Ø¨ÙĦ": 7641, "ĠÙĪÙĨØ£Ùī": 8260, "ĠÙĨÙĪØŃØ§": 3345, "ĠÙĥÙĨØ²": 4473, "ĠÙĦÙĨØ¹ÙĦÙħ": 5072, "ĠØªØ¹ÙħÙĦÙĪÙĨ": 565, "ĠØ¨Ø¬ÙĩÙĨÙħ": 9357, "ĠÙģØ³Ø¨ØŃÙĩ": 9518, "ĠØ¨Ø³ÙĪØ±Ø©": 9025, "ĠÙĬØ²ÙĥÙī": 9050, "ĠØ£Ø¦ÙĨ": 3463, "Ø°ÙĩØ¨": 1262, "ØªÙħÙĪÙĩÙĨ": 2701, "ĠØ£ÙĥØ«Ø±ÙĩÙħ": 985, "ÙĪØ³": 1061, "ØªÙĤ": 1149, "ĠØ¹Ø¨Ø³": 7450, "ĠØ£Ø³Ø§Ø¡": 8682, "ĠÙĪØ«ÙħÙĪØ¯": 2174, "ĠÙģØ£ÙĨØ¨ØªÙĨØ§": 5241, "ĠØ£Ø¹Ø·Ùī": 8606, "ÙħØªØ¹ÙĩÙħ": 8796, "ĠØ¨Ø±Ø¨ÙĨØ§": 9055, "ÙĨØ§ØŃ": 1112, "ĠÙĪØ§ØµØ¨Ø±ÙĪØ§": 6680, "ĠÙĪØ¸": 1427, "ĠØ¢ÙĬØ§ØªÙĨØ§": 1057, "ĠÙĨØ¤ØªÙĬÙĩ": 9608, "ĠØ´Ø¦ÙĨØ§": 4492, "ĠØ£Ø£ÙĨØ°Ø±ØªÙĩÙħ": 10045, "ĠÙĬØ¸Ø§ÙĩØ±ÙĪÙĨ": 9355, "ĠÙģØ¥ÙĨØ§": 2520, "ĠØ°ÙĦÙĥ": 234, "ĠØ£ÙĪØŃÙĬÙĨØ§": 2038, "ĠØ§ÙĦØ·Ø±Ùģ": 6458, "ĠÙģØ®Ø±Ø¬": 5667, "ÙĩØ±ÙĪØ§": 2991, "ĠØ¨Ø¶Ø§": 5722, "Ø·ÙĦÙĤ": 2206, "ĠÙĨØ¶Ø±Ø©": 7638, "ĠØ¨Ø§ÙĦØ¹Ø±ÙĪØ©": 9975, "ĠØ§ÙĦØ²ÙĤÙĪÙħ": 10180, "ĠØ¨Ø§ÙĦØ£ÙĨØ«Ùī": 10095, "ØªÙĨÙĬ": 1611, "ĠØªØ¨Ø¹Ùĥ": 6811, "ĩ": 39, "ĠØ§ÙĦØ£ÙĨØ«ÙĬÙĬÙĨ": 3905, "ÙĪÙĦØ¬": 2491, "ÙĦØ§ÙĨÙĬØ©": 4741, "ÙĦØ§ÙĤ": 1444, "ÙĬØ§Ø©": 633, "ĠØ³ÙĪØ§Ø¡": 1250, "ÙĥØ¨Ø±ÙĪÙĨ": 2055, "ĠØªÙĪÙĥ": 2071, "ĠÙĨØ¶": 4797, "ĠÙĬØªÙĤ": 4983, "ĠØ¨ÙĥÙħ": 989, "ĠÙĪØ¹Ø´ÙĬØ§": 5068, "ĠÙģØ£ÙĨØ²ÙĦÙĨØ§": 6528, "ĠØ£Ø¬Ø±ÙħÙĪØ§": 6504, "ÙĤØªÙĩØ§": 8464, "ĠØ§ÙĦØ³ÙĦØ§Ùħ": 4136, "ĠØªÙģØ¹ÙĦÙĪÙĨ": 3779, "ĠÙĩÙħØª": 8080, "ĠØ§ÙĦØ®Ø¨ÙĬØ±": 3696, "ØŃØªÙħ": 5733, "Ø§Ø¦ÙĦ": 6088, "ĠÙĦÙĬØºÙģØ±": 4177, "ĠØ¹Ø³Ø±": 7438, "ĠØ®ØµÙĬÙħ": 9713, "ĠÙĥØ§ÙĦ": 906, "ĠÙģØ¨ÙĦØºÙĨ": 10195, "ĠØ¯Ø¹Ø§": 2721, "ÙĨÙĩÙħ": 440, "ĠÙĦØŃÙħØ§": 5398, "ÙĪØ±ÙĥÙħ": 2098, "ĠØªØ¬Ø±ÙĬ": 829, "ĠÙĩØ§Ùĩ": 4816, "ÙĬØªÙĩØ§": 6311, "Ø¶Ø±Øª": 8817, "ĠÙģØ£ØµØ¨ØŃ": 1743, "ĠØ¹Ø§ÙĩØ¯ØªÙħ": 5487, "Ø¤ÙħÙĨÙĬÙĨ": 376, "ĠØ¨Ø§ÙĦÙĤÙĪÙĦ": 4131, "ĠØ£ØµØºØ±": 8494, "Ø¹ÙĪØ¯": 4633, "ĠØ£Ø¶Ø¹Ø§ÙģØ§": 9411, "ĠÙĪØ£Ø¨ÙĨØ§Ø¤ÙĥÙħ": 10082, "ĠÙĪØ§Ø±Ø²ÙĤ": 5360, "Ø°Ø±Ø§": 7348, "Ø®Ø±Ø©": 5995, "ĠÙĬØ¹ØªØ¯ÙĪÙĨ": 6976, "Ø¨ÙĦÙĪ": 6086, "ÙģÙĬÙĨ": 1188, "ØªØµ": 2290, "ĠÙĬØµÙĨØ¹ÙĪÙĨ": 4348, "ĠÙĪÙĬÙĥÙģØ±": 5985, "ĠÙĥØ°Ø¨ÙĪÙĥ": 6334, "ĠØ£Ø¸ÙĨ": 6996, "ĠÙħØ³ØªÙħØ±": 10012, "ĠØ£Ø¹Ø¬Ø§Ø²": 9501, "ĠØ£ØŃØ¯ÙĥÙħ": 3342, "ØŃØ¶ÙĪØ§": 7412, "ĠÙĪØ¬ÙĨØ§Øª": 3644, "ĠØ¹Ø°Ø±Ø§": 7453, "ĠÙĪØ¢Ø®Ø±ÙĬÙĨ": 6882, "ĠØ®ÙĦÙĬÙģØ©": 7798, "ĠÙģØ±ÙĪØ¬": 8444, "ĠØ¹Ø²Ùħ": 4734, "ĠØ¹Ø§ÙĩØ¯": 3133, "ĠÙĨØ³Ø§Ø¡ÙĩÙħ": 6455, "ĠØªØŃÙĬØªÙĩÙħ": 8399, "ĠØ¨ØŃÙħØ¯": 2312, "ÙĪØ²ÙĨØ§": 8993, "ĠØ£ØªØ¹ÙĦÙħÙĪÙĨ": 8753, "ĠØ£Ø¬Ø±Ùĩ": 6503, "ĠØ¹ÙĩØ¯ÙĩÙħ": 6717, "ĠØ£Ø°ÙĤÙĨØ§": 5343, "ĠÙĪÙĥÙħ": 2626, "ĠÙħØ¹Ø¬Ø²ÙĬ": 8102, "ÙĬÙĨØ§Ùĩ": 1256, "ĠØ§ÙĦØ®Ø¨Ø§Ø¦": 8423, "ĠÙħØ³ÙĦÙħØ§": 8516, "ĠÙħØ³ÙĦÙħÙĪÙĨ": 2033, "ĠØ£ÙĨÙģÙĤÙĪØ§": 2330, "ĠØ§ÙĦØ¹Ø±Ø´": 1519, "ĠÙĦÙĦØ°ÙĬ": 4991, "ĠØ¨Ø§Ø±Ø¯": 9753, "ĠÙĨØ¬ÙĬØ§": 8887, "ĠÙĪÙĦÙĬØ£Ø®Ø°ÙĪØ§": 8556, "ĠØ®ÙĬØ±": 438, "ĠØ£Ø®Ø§Ùģ": 1535, "ĠØ±ÙĪØ§Ø³ÙĬ": 2831, "ĠÙĪØ£ÙĪØŃ": 2209, "ĠØ§Ø¬Øª": 3870, "Ø¨ØªÙĪØ§": 3928, "ĠØ£Ø®Ø§Ùĩ": 5162, "ĠØ§ÙĦØ¨ÙĬÙĨØ©": 7137, "ĠØ£Ø³ÙĦÙħÙĪØ§": 5406, "ĠÙĪØ§Ø¹ØªØµÙħÙĪØ§": 5551, "ĠØ§ÙĦØ³ÙħÙĪÙħ": 7881, "ĠÙģÙĪØ§ÙĥÙĩ": 9928, "ĠÙĤØ±ÙĨ": 4450, "ØªÙĬÙĩÙħ": 1369, "ĠÙĩØ¯Ø§ÙĨÙĬ": 9656, "ĠÙĪÙĥØ°Ø¨ÙĪØ§": 2608, "ĠØ§Ø¶": 2773, "ĠÙħÙĤØ§Ø¹Ø¯": 9691, "ĠØ§ÙĦØ¹Ø¬ÙĦ": 3619, "ĠÙħØ¯Ø¨Ø±ÙĬÙĨ": 3796, "ĠØªØ¤ÙģÙĥÙĪÙĨ": 5334, "Ø¯Ø®ÙĦ": 1433, "ĠØ´Ø·": 5930, "ĠÙĪØªØ¤ÙħÙĨÙĪÙĨ": 8152, "ĠÙĦÙĬØ³Ø¬ÙĨ": 8837, "ĠÙĦÙĩ": 214, "ĠØªØŃØª": 3284, "ĠØªØ£ÙĪÙĬÙĦ": 4309, "Ø£ØªÙĬÙĩÙħ": 5738, "ĠÙģØ§ÙĤØ±": 6175, "ĠÙĦØ£ÙĩÙĦÙĩ": 6307, "ĠØªØ¯Ø¹ÙĪÙĨÙĨÙĬ": 9129, "ĠÙģØ£Ø°ÙĨ": 6011, "ĠØ£ØµØ¨ØŃ": 8493, "ĠÙĬØ¹Ø±Ø¶ÙĪÙĨ": 6244, "ĠÙħÙģØ±ÙĪØ¶Ø§": 10043, "ĠØ¨ØªØ§Ø¨Ø¹": 10206, "ĠÙĪÙĨØ¬ÙĨÙĬ": 7021, "ĠÙĪØ¬ÙĩÙĥ": 3355, "ÙĨØ¨Ø¦": 7086, "Ø¨ÙĬÙĨÙĪØ§": 6093, "ĠØ§ÙĦØ°ÙĥØ±": 1249, "ĠØµØ¹ÙĬØ¯Ø§": 5524, "ĠØ§ÙĦÙħØ±": 5887, "ÙĦÙĪÙħ": 5559, "Ø£Ø¨": 4720, "ĠØªØ³Ø¤ÙĩÙħ": 8832, "ĠÙħØ³ÙĥÙħ": 8514, "ĠÙĪØ§ÙĦÙĬØªØ§": 3154, "ĠÙĪÙĩØ¯": 4610, "ĠØ¹ÙĦÙħÙĨØ§Ùĩ": 8590, "ĠÙĤØ¨ÙĦØ§": 8769, "ĠÙĨØ¤ÙħÙĨ": 2482, "ĠÙĪØ²ÙĨÙĪØ§": 8874, "ĠÙĪØ§ÙĦÙģÙĦÙĥ": 9648, "ĠÙĬØ³ÙĬØ±ÙĪØ§": 3294, "ĠÙĪÙĬØ³ØªØ¹Ø¬ÙĦÙĪÙĨ": 6648, "ĠØ¹ÙĤ": 3131, "ĠÙĪØ«": 3432, "ĠØªØ¨Ø¯ÙĪÙĨ": 4744, "ĠØªÙĪÙģÙī": 9601, "ĠÙĬÙĦÙĩØ«": 10200, "ĠÙĪÙĬØºÙģØ±": 2509, "ĠÙĤÙĪÙħÙĥ": 2736, "ĠÙħØ¬": 1933, "ĠØ§ÙĦÙħØ¹": 3575, "Ø¯Øª": 1687, "ÙĪÙĦ": 126, "ĠÙħÙĨÙĤ": 7424, "ĠØ§ÙĦØŃØ¯ÙĬØ«": 3617, "ĠØ§ÙĦÙħØª": 1873, "Ø®Ø±Ø§Ø¬": 7550, "ĠØ§ÙĦØ®Ø§Ø¦ÙĨÙĬÙĨ": 8425, "ĠÙĦØ¢ÙĬØ§Øª": 1132, "ĠØ§ÙĦÙģØ³": 3080, "ĠØªÙħÙĬ": 5757, "ĠØ£Ø³Ø±Ùī": 9515, "ĠØ¸": 319, "ĠØ§ÙĦØ£Ø®ÙĬØ§Ø±": 9539, "Ø¶Ø¨": 1566, "ĠØ£Ø£ÙĨØªÙħ": 3380, "ĠÙĪØ§ÙĦÙģÙĪØ§": 7599, "ĠÙĨØ§Ø¯ÙħÙĬÙĨ": 5362, "ĠØ±Ø³ÙĦØ§": 2967, "ĠÙģÙĤØª": 7280, "Ø§ÙĩØ¯ÙĪØ§": 1489, "ĠØ§ÙĦÙĥØ§ÙģØ±ÙĪÙĨ": 1718, "ĠØ£Ø³ÙħØ§Ø¡": 6405, "ĠØŃØ±ÙĬØ±": 8867, "ĠÙĦÙĤÙĪÙħ": 670, "ĠØŃÙĨÙģØ§Ø¡": 7764, "ĠØ¨Ø¢Ø¨Ø§Ø¦ÙĨØ§": 10321, "ĠØ£Ø´Ø¯Ùĩ": 4394, "ĠØ§ÙĦÙĥÙģÙĦ": 8029, "ĠØ§Ø³ØªØ·Ø¹ØªÙħ": 4539, "ĠØ¹ØµÙĬØ§": 9134, "ĠÙĨØ´": 1115, "ĠÙĨØ¬Ø²ÙĬ": 1538, "Ø§Ø·ÙĬÙĨ": 1658, "ĠÙĪØªØ°Ø±ÙĪÙĨ": 6142, "ĠÙĪØ§ÙĦÙĤ": 1048, "ĠÙĬØ£Ø®Ø°": 3270, "ĠÙĦÙĩØ¯Ùī": 7309, "ĠÙĬØµØ¯Ø¹ÙĪÙĨ": 9451, "ĠÙĦÙģØªØ§Ùĩ": 9813, "Ø§Ø±": 176, "Ø¯Ø¬Ø±": 7251, "ĠÙĪØ§ÙĦÙĩØ¯ÙĬ": 7597, "ØµØ¯ÙĤØ§Øª": 8659, "ÙĤÙĦÙĪÙĨ": 833, "ÙĨÙĩ": 948, "Ø¯ÙĤ": 5650, "ĠØ¯Ø§Ø¦Ø±Ø©": 6933, "ĠÙĪÙħØºÙģØ±Ø©": 4281, "Ø¬Ø¹ÙĪÙĨ": 835, "ĠÙģØ§ÙĨØ·ÙĦÙĤØ§": 7030, "ĠÙĤØ§Ø¯": 7527, "ĠØ§ÙĦØ´Ø¬Ø±": 8353, "ĠØ¹Ø§ÙĤØ¨": 9026, "ĠØ£Ø¦": 2635, "ÙĤØ§Ø¨": 1067, "ĠØ£Ø²ÙĪØ§Ø¬Ø§": 2027, "ĠÙĬØ¹Ø¨Ø¯": 2754, "ĠÙĬÙĤØ¯": 4676, "ĠØªÙĤØ¯ÙħÙĪØ§": 5418, "ĠØ¹ØµØ¨Ø©": 6620, "ĠØ§Ø¦Øª": 6744, "ĠØ§ÙĦØºØ§ÙĪÙĬÙĨ": 8526, "ĠØ¨Ø±Ø²Ø®": 10153, "Ø¯ÙĪØ§": 613, "ĠØ£ÙģØ¨Ø§ÙĦØ¨Ø§Ø·ÙĦ": 10298, "Ø§ÙĩØ¯": 723, "ÙģØ§Øª": 5727, "ÙĪØ¨ÙĩÙħ": 1723, "ÙĪÙĦÙĩÙħ": 4828, "ĠÙĦÙĬØŃØ²": 6058, "ĠÙĪØ¹ØµÙĬÙĨØ§": 8368, "ĠØ§ÙĦÙģÙĪØ§ØŃØ´": 8642, "ĠØ¨Ø¨ÙĬÙĨØ©": 7381, "ĠÙĥÙĦÙħØª": 4416, "ĠÙģØ£ÙĨØ²ÙĦ": 6527, "ĠØ£Ø®Ø±Ø¬ÙĪØ§": 4413, "Ø®ÙĪØ§ÙĨÙĩÙħ": 3816, "Ø£Ø°ÙĨ": 2193, "ÙĪØ´": 3074, "ĠÙĪØ£Ø´Ø±Ùĥ": 7721, "ĠØ¨ÙħØ³Ø¨ÙĪÙĤÙĬÙĨ": 8920, "ĠÙħØ§ØªÙĪØ§": 5636, "ĠÙĪÙĨØ°ÙĬØ±Ø§": 2959, "Ø²Ùĩ": 5818, "ĠÙĪØ£ØªÙĪØ§": 7720, "ØªÙĬÙĦØ§": 3231, "ĠÙĪØ§ÙĦØ¯Ø§Ø±": 7606, "ĠØ£Ø¥Ø°Ø§": 2417, "ĠØ§ÙĦÙĬÙĪÙħ": 916, "ĠØŃØ³Ø¨ÙĩÙħ": 9298, "ĠØ§ÙĦØŃØ³ÙĨ": 2090, "ĠØ£Ø±Ø¶": 1556, "ÙĬØ³Ùī": 1271, "ĠÙĬØ¤Ø®Ø°": 5183, "ĠØ®ÙĪÙĦ": 7783, "ĠÙĪØ§ÙĦØ£Ø±Ø¶": 357, "ØªØ©": 1497, "Ø²Ø¹": 1633, "Ø§ÙĨÙĬØ©": 3550, "ĠÙĪÙħÙħÙĨ": 4278, "ĠØ¹Ø°Øª": 7451, "ĠÙĦØ£ÙĪÙĦ": 8497, "ĠÙĥØ£ÙĨÙĩØ§": 6638, "ĠÙĤØ±Ø¢ÙĨØ§": 2672, "ĠØ®Ø¨ÙĬØ«": 7791, "ĠØ¹ÙĨØ¯ÙĩÙħ": 3258, "ĠØ§ÙĦØ·ÙĦØ§ÙĤ": 8789, "ĠØ£ØºÙĪ": 5292, "ĠÙģØ§": 300, "ĠÙĬØ³ÙĬØ±": 2761, "ĠØ§ÙĦØ´ÙĩØ§Ø¯Ø©": 8355, "ĠØªØ¯Ø¹ÙĪÙĨ": 1265, "ĠØ¢ØªØ§ÙĨÙĬ": 9961, "ĠÙħØ³Ø§ÙģØŃÙĬÙĨ": 10143, "ĠØ§ÙĦÙĥØ±": 3429, "ĠÙĤÙĦÙĪØ¨ÙĩÙħ": 679, "Ø§Ø¯ÙĦ": 4145, "ĠØªÙģÙĬØ¶": 9824, "ĠØªØ´Ø±ÙĥÙĪÙĨ": 3137, "ĠØ£Ø±Ø¬ÙĦÙĩÙħ": 6844, "Ø¨Ø¯ÙĬ": 8086, "Ø¯ÙĦÙī": 7250, "ĠØ£Ø¨ØµØ±": 8700, "ĠØ§ÙĦØ®Ø§ÙĦÙĤÙĪÙĨ": 9584, "ĠØ¯ÙĬØ§Ø±": 1980, "ĠÙĪÙĦØ£ÙĨØ¹Ø§ÙħÙĥÙħ": 10263, "ÙĤÙĨØ§Ùĩ": 3987, "ĠØ£ÙĪÙģÙĪØ§": 4896, "ĠØ§ÙĦØ®ÙĦ": 2976, "ĠØ§ÙĦØ¯Ø¹Ø§Ø¡": 4234, "ĠØ¬Ø§Ø±": 7771, "ĠÙģÙĦÙĨÙģØ³Ùĩ": 5261, "ĠØ§Ø°ÙĥØ±": 8013, "Ø§Ø¯ÙĤÙĬÙĨ": 817, "ĠØµØ±Ø§Ø·Ø§": 4389, "ØŃØ§Ø±": 5734, "ĠÙĦÙĥØ§ÙĨ": 3684, "ÙħØ±ÙĥÙħ": 8193, "ĠÙĬØ²ÙĬØ¯ÙĩÙħ": 9797, "ĠØµØ§ÙģØ§Øª": 7991, "ĠÙħÙĪÙĦÙī": 5008, "ĠØ¨Ø¥ÙĬÙħØ§ÙĨ": 8864, "ĠØ£ÙħÙĨØ©": 9247, "ĠØ¨Ø§ÙĦÙĦÙĩ": 388, "ØªØ§Øª": 5615, "Ø§ÙĪÙĬØ©": 3804, "ĠØªÙĩÙĨÙĪØ§": 5768, "ĠØ¨ÙģØ§ØŃØ´Ø©": 5504, "ĠÙĪÙĦØ¹ÙĦÙĩÙħ": 6797, "ĠØ¥ÙĦÙī": 180, "ĠØ§ÙĦØŃØ³Ø§Ø¨": 1803, "ĠÙĬÙĦ": 3974, "ĠÙģØ¥ÙĨÙĥ": 2731, "ĠÙĥÙħØ§": 711, "Ø¬Ø§Ø¨": 2876, "ĠØªÙĥØ§Ø¯": 6294, "ĠÙħÙĪØ«": 6154, "Ø¯Ø¨Ø±ÙĪÙĨ": 7258, "ĠØ¨Ø¨Ø§ÙĦ": 7369, "ĠØªÙĪØ¨Ø©": 9643, "ĠÙĥØ§Ø´Ùģ": 9827, "Ø¹ÙħØ±Ø©": 7918, "ĠØ§ÙĦØ´ÙĩØ¯Ø§Ø¡": 8356, "ĠÙģØ±ÙĪØ¬ÙĩÙħ": 8447, "ĠØªÙĪØ¨": 2874, "ÙĪØ¬": 586, "ĠØ£ÙĬÙĥÙħ": 4985, "ĠØ³Ø¨ØŃØ§": 8927, "ĠØ·Ø±": 5036, "ĠØ´Ø±ÙĬÙĥ": 5933, "ĠÙģØ³ÙĬØ±ÙĪØ§": 8672, "ĠÙĪØ¹ØµÙĪØ§": 8365, "Ø³ÙĤÙĬÙĨØ§ÙĥÙħ": 9694, "ĠØ£Ø¹Ø¯Ø§Ø¡": 4478, "ĠØ·Ø±ÙĬÙĤØ§": 10133, "ĠÙĥØªØ§Ø¨": 636, "ĠØ¨Ø²ÙĬÙĨ": 7372, "ĠÙĪØªØ±Ø§ÙĩÙħ": 8160, "ÙĬÙĩÙħ": 617, "ĠÙĪÙĬØµ": 2924, "ĠÙĤØ±ÙĬ": 806, "Ø´Ø£": 1318, "ĠØ±Ø§Ø¹ÙĪÙĨ": 9485, "ĠÙĪØ£Ø®ÙĪØ§ØªÙĥÙħ": 9371, "ĠØ³ÙĪØ¡": 975, "ĠÙĨØ¨ÙĬ": 2689, "ĠØ§ÙĦØ£Ø®Ø±": 4116, "ĠØ¢Ø¨": 843, "ĠØ±Ø³ÙĪÙĦÙĨØ§": 5200, "ĠÙĪÙĥÙĬÙĦØ§": 2094, "ĠÙĪØ§ÙĤØª": 8107, "ĠØ£ÙĦÙĤÙĬ": 6645, "ĠØ¯Ø§Ø¹ÙĬ": 7940, "ĠÙĬÙĪÙħÙĩÙħ": 4192, "Ø¨ÙĤ": 5620, "ĠÙĬØªØ±ÙĤØ¨": 8124, "ĠØ¹ÙĤÙĬÙħ": 7442, "ĠØ£ÙĨØ¨ÙĬØ§Ø¡": 7586, "ĠÙĪÙħØ§": 151, "ĠÙħØ³ØªÙĩÙħ": 6433, "ĠØ§ÙĦÙĥØ°Ø¨": 1985, "ÙģÙĬØ¹": 3700, "ĠØªØŃÙħÙĦÙĩ": 9822, "ĠÙĦÙĦØ¹Ø¨Ø§Ø¯": 9212, "ĠØ¸ÙĩÙĬØ±": 9382, "ĠÙĤÙĪÙħ": 310, "ĠÙĨØ³Ø§Ø¦ÙĥÙħ": 4349, "ĠØ¨ÙĬÙĨÙĥÙħ": 1166, "ĠØ¹Ø§ÙĦÙĬÙĩØ§": 9251, "ĠØ£Ø¯Ø¨Ø§Ø±ÙĩÙħ": 6985, "ĠÙħØº": 2056, "ĠÙģØ³Ø§Ø¡": 5168, "ĠØ¹ÙĦÙĬÙĩÙħ": 275, "ĠÙĪÙĤÙĩÙħ": 7972, "ĠÙĪÙĬØªØ¨Ø¹": 7898, "ĠÙĪÙĦÙĬÙĨ": 5954, "ĠØ§ÙĦØ¬ÙĪØ§Ø±": 6211, "ĠØ§ÙĦØºØ±": 2766, "ÙģÙĩ": 2866, "ĠØ§ÙĦØŃØ¯ÙĬØ¯": 6003, "ÙĬÙĤØ§": 2169, "ĠÙĬØ³ØªØ·ÙĬØ¹ÙĪÙĨ": 1898, "ĠÙĦÙĨØ±Ø§Ùĥ": 6242, "Ø¬Ø¯ÙĨ": 6233, "ĠÙĪØ³ÙĬØ¹ÙĦÙħ": 9893, "ĠØ±Ø²ÙĤØ§": 1922, "ĠÙĪØ§ÙĦØ¨": 1247, "ĠØ§ÙĦØ·Ø¹Ø§Ùħ": 3756, "ĠÙĦØ¦ÙĦØ§": 5687, "ĠÙĬØ´ÙģØ¹": 6169, "ĠØ§ÙĦØ¨ØŃØ§Ø±": 8545, "ĠÙħØ¨Ø§Ø±": 4624, "ĠÙĪÙĬØ«Ø¨Øª": 5988, "ĠÙģØ¥ÙħØ§": 3217, "ĠÙĥÙĦÙħØ§Øª": 6758, "ĠØ§ÙĦÙħÙĪØ¬": 7738, "Ø±Ùģ": 664, "Ø¸Ø§Ùħ": 5951, "ĠØ§ÙĦØ³ÙħØ§Ø¡": 469, "ĠØ§ÙĦØ¸Ø§ÙĦÙħÙĬÙĨ": 685, "ØµØ±ÙĪØ§": 2553, "ĠÙĦØ°ÙĨ": 4667, "ĠØ³ÙĨÙĥ": 7675, "ĠØ¬Ø¦ØªÙĨØ§": 9094, "ĠØ£ÙĪÙĦÙĬØ§Ø¡Ùĩ": 8991, "ĠØªØ·Ø¦": 9418, "ĠØ¸Ø§ÙĩØ±ÙĬÙĨ": 10032, "ĠØ£Ø¯Ø±Ø§Ùĥ": 2140, "ÙĬÙĪÙħ": 562, "ØŃÙĤ": 486, "ÙĬØ¯ÙĩØ§": 4906, "¬": 15, "Ø¦ÙĪÙĨ": 1251, "ĠÙĪØ¨ÙĬÙĨ": 1002, "ĠÙģØ³ÙĪÙģ": 1263, "ĠØ³Ø¹ÙĬØ±Ø§": 3381, "ĠÙģØº": 3960, "ĠÙĬÙģØ¹ÙĦ": 1099, "ĠØ§ÙĦØ¨Ø´Ø±Ùī": 6337, "ØŃØ³Ø¨": 2660, "ĠÙĥÙģØ§Ø±Ø§": 7523, "ĠØ¹ØªÙĬØ¯": 9765, "ĠÙĪØ¥ÙĦÙĬÙĩ": 1404, "ĠØ±Ø§Øº": 7561, "ĠÙħØŃÙĬØµ": 4497, "ĠÙĥÙģØ±Ùĩ": 6124, "ĠÙħÙĨØ§Ø¹": 8963, "ĠØ¨Ø§ÙĦØ¨Ø§Ø·ÙĦ": 2816, "ĠØ£Ø¹ØªØ¯ÙĨØ§": 3725, "ĠØ¨ÙĩØ¯": 7356, "ĠØ£Ø¯ÙĦÙĥÙħ": 6494, "ĠØ§ÙĦØªÙĤ": 3024, "ĠÙĬÙģØªØ±ÙĪÙĨ": 1673, "Ø°Ø±": 387, "ĠØ¹ÙĨÙĥ": 2920, "ĠØ§ÙĥØªØ³Ø¨ÙĪØ§": 9721, "Ø¯Ø§Ø±": 4645, "ĠØ§ÙĦØ¹Ø§ÙĦÙħÙĬÙĨ": 712, "ĠØ¨Ø³ÙĦØ§Ùħ": 6579, "ĠÙĪØ§ÙĦØ¬ÙĨ": 5839, "ĠØ§ÙĦØ£Ø®Ø³Ø±ÙĪÙĨ": 9540, "ĠÙħÙĤØªØ¯Ø±": 9474, "ĠÙĬØ°ÙĩØ¨ÙĥÙħ": 5485, "ĠÙĪÙĥÙĦØ§": 2525, "ĠØ§ÙĦÙħØ³ÙĬØŃ": 2575, "ĠÙħÙĨÙĩÙħ": 339, "ĠÙģØ§Ø¹Ø¨Ø¯Ùĩ": 9464, "ĠÙĪØ§ÙĦØ®Ø§ÙħØ³Ø©": 9572, "Ø¬ÙĪØ¯": 3530, "ĠÙĪØ¬ÙĩÙĬ": 9015, "ĠÙĩÙĬÙĩØ§Øª": 8885, "ĠÙģÙĥÙĦØ§": 8644, "ĠØ§ÙĦÙĨØ§ÙĤØ©": 6084, "ĠØ§ÙĦØ¬ÙħØ¹Ø§ÙĨ": 5473, "ÙĦÙħØ§Øª": 1148, "ĠÙĪØ¹ÙĨØ¯ÙĩÙħ": 6722, "ĠØ§Ø³ØªÙĨØµØ±": 8562, "ĠÙĬØ¤Øª": 5182, "ĠØ§ÙĦØ¹Ø²Ø©": 2932, "ĠØ§ÙĦØ¯ÙĬÙĨ": 845, "ĠØ§ÙĦÙħØµÙĦØŃÙĬÙĨ": 9575, "ĠÙĦÙĦØ·Ø§ØºÙĬÙĨ": 9877, "<EOD>": 3, "ĠØ£ÙĩÙĦ": 762, "ĠÙĨØ²ÙĦ": 1286, "ĠØºØ±Ùģ": 6078, "ĠÙĨØµÙģ": 6498, "ĠØ¥ÙĥØ±Ø§": 7384, "ĠÙĨØ·Ø¹Ùħ": 9332, "ĠÙĪØ§ÙĦÙģÙĪØ§ØŃØ´": 10235, "Ø¸ÙĦÙħ": 605, "Ø§Ø¦ÙĬ": 2945, "ĠÙĥØ°Ø¨Øª": 1824, "ĠØ§ÙĦØ¹ÙģÙĪ": 7966, "ØŃØ§Ùħ": 4006, "ĠÙĬÙĪÙħÙĬÙĨ": 6083, "ĠØ¹ÙĨ": 158, "ĠÙĪÙĬÙĥØ£ÙĨ": 9716, "ĠÙģÙĦÙĥ": 5662, "ĠØ£ÙĪØ³Ø·": 7870, "ÙĤÙĪÙĨØ§": 6234, "ĠÙĤØªÙĦ": 1630, "Ø±Ø¨ØµÙĪØ§": 4475, "ÙĦÙĬÙģØ©": 7539, "Ħ": 36, "ĠØªÙĨØµØ±ÙĪÙĨ": 6353, "ĠÙħØ¤Ø°ÙĨ": 9468, "ĠÙĦÙĬÙĨØ°Ø±": 5426, "ĠÙĪÙĬØ®Ø§ÙģÙĪÙĨ": 6834, "ĠØ§ØªÙĤ": 8430, "ĠÙĪÙħØ±": 7144, "ĠÙģØ§ÙĨØ·ÙĦÙĤ": 5226, "ĠØªØŃØ²ÙĨÙĪÙĨ": 9434, "ĠÙģØ§Ø¨Ø¹Ø«ÙĪØ§": 10048, "ĠØ£Ø±Ø³ÙĦØªÙħ": 5157, "ĠØ£ÙĩØ°Ø§": 8348, "ĠØªÙģÙĦØŃÙĪÙĨ": 2409, "Ø³Ùī": 303, "Ø§ØªØ§": 2334, "ĠÙĪØ§Ø®ØªÙĦØ§Ùģ": 5414, "ĠØ§ÙĦÙħØ´Ø£ÙħØ©": 7051, "ÙģÙĪÙģ": 7396, "ĠÙĪÙĨØ¨Ø¦ÙĩÙħ": 8253, "ĠØ§ÙĦØ³ÙĬØ¦Ø©": 4451, "Ø¹Ø¯ÙĪÙĨ": 1144, "ĠØ§ÙĦØ±Ø§Ùĥ": 5593, "ĠØ±Ø·": 7558, "ĠÙģÙĥØ°Ø¨": 1733, "ĠÙĬØ¨Ø¯Ø¦": 6668, "ĠÙĪØ¯Ø¹": 7159, "ĠØ¬Ø¹ÙĦÙĪØ§": 6486, "ĠØ²ÙħØ±Ø§": 8417, "ØµÙħ": 4770, "ĠÙħØ®ØªØ§ÙĦ": 9197, "ĠÙĪØ§ØŃØ¯Ø§": 4356, "ĠØŃÙĪÙĦ": 3181, "ĠÙĦØ¹Ø¨Ø§Ø¯Ùĩ": 6904, "ÙĨØªÙĩØ§": 5108, "ĠÙĬØ¯Ø¹ÙĪÙĥÙħ": 5443, "Ø²ÙĨÙĬ": 5822, "ĠØªÙĤØ§": 7475, "Ø£ÙĪØ§": 1394, "ÙħÙĪÙħØ§": 7099, "ĠÙĪØªØªÙĤÙĪØ§": 2950, "ĠÙĦÙĦØŃÙĤ": 3247, "ĠÙĤØ¨Ø¶": 8770, "ĠÙĪØ³ÙĦØ§Ùħ": 6390, "ĠØªØ±Ø¶Ø§Ùĩ": 10069, "Ø¯ÙĩÙĨ": 3957, "ĠØ£Ø®Ø°ØªÙĩ": 8980, "Ø³ÙħÙĬÙĨ": 8077, "ĠØ§ÙĦÙĦØ¹ÙĨØ©": 7040, "ĠØ¯Ø§ÙĨÙĬØ©": 7939, "ĠÙĪØ§ÙĦØ²ÙĬØªÙĪÙĨ": 4796, "ĠØ¹Ø¬ÙĪØ²Ø§": 9291, "ÙĩÙĦÙĩ": 3914, "Ø¤Ùħ": 1324, "ĠØ§Ø¹Øª": 2358, "Ø§Ø¤ÙĥÙħ": 1670, "ĠÙĥØ±Ø§ÙħØ§": 7522, "ĠÙĦÙģØ±ÙĪØ¬ÙĩÙħ": 9751, "ĠØ§Ø´ØªØ±Ø§Ùĩ": 10024, "ĠÙĬÙĪÙĨØ³": 7331, "ĠÙĦØªØ£": 8566, "ĠØ§ÙĦØ³Ø§Ùħ": 7876, "ĠØ§ÙĦÙħÙĪØª": 1008, "ĠÙĪØ¥ÙĨÙĩØ§": 8035, "ĠØ¨Ø§ÙĦÙĨØ°Ø±": 4893, "ĠØ®Ø§ÙĦØ§Øª": 8656, "ĠØªÙĤÙĬÙĥÙħ": 8678, "Ø±ØŃØ§Ùħ": 3356, "ĠÙģØ³ÙĤÙĪØ§": 8667, "ĠÙĦÙĦØ£Ø°ÙĤØ§ÙĨ": 10121, "ĠÙģÙĨØ¹Ùħ": 4403, "ĠØ¨Ø¨": 4701, "ÙĤØ¯": 210, "ĠÙĤØ±Ø¨Ùī": 4763, "ĠØ£Ø¥": 1218, "ĠÙĦÙĤÙĬØªÙħ": 6324, "ĠÙĬÙĥØªØ¨": 8352, "ĠÙĪØ§ÙĦØŃÙħØ¯": 7601, "ØºÙĦØ§ÙĦ": 4862, "ĠÙĬØ£Ø¬ÙĪØ¬": 8301, "ĠØ¸Ùĩ": 1819, "ĠØ£ÙģØªÙĪÙĨÙĬ": 8308, "ĠØ²ÙĥØ§Ø©": 8413, "ĠÙĩØ§ÙħØ§ÙĨ": 9142, "ØµØ±": 391, "ĠÙĩØ²ÙĪØ§": 2333, "ĠÙĪØ§Ø®Ø´ÙĪÙĨ": 6789, "ÙĤØ¨": 1391, "ĠØ®Ø·Ø§ÙĬØ§ÙĥÙħ": 10173, "ĠØ§ÙĦÙħØ¯Ø§Ø¦ÙĨ": 6964, "ĠÙĬØ¶ÙĦ": 1065, "ĠØªØ±Ø¶": 5755, "ĠÙĪØ¥": 144, "ĠÙĪØ§Ø¯Ø¹ÙĪÙĩ": 10025, "ØºÙĪØ§": 1009, "Ø´Ø±ÙĥØ§Øª": 6356, "ĠÙĪÙĬØ²ÙĬØ¯ÙĩÙħ": 4557, "ĠÙĪØ´Ø±": 4611, "ĠÙħÙĨÙĬØ¨ÙĬÙĨ": 9456, "ĠÙĦÙħ": 260, "ĠØ¢ÙĬØªÙĥ": 10079, "ĠÙĬÙĪØ¹Ø¯ÙĪÙĨ": 2566, "ĠØ¨Ø¸": 3990, "Ø¨ÙĪ": 3925, "ÙĪÙĦÙĩØ§": 8600, "ĠÙħØŃØ±": 3453, "ĠØŃØ¨ÙĦ": 7753, "ĠÙĬÙģØªÙĨ": 9022, "ĠÙĪÙĤÙĪÙħ": 1466, "ĠÙħÙĦÙĥØª": 1905, "ĥ": 35, "ĠØ§ÙĦØ£": 142, "ĠÙĥÙģØ±": 269, "ĠØ¨Ø§ÙĦÙĥ": 3201, "ĠÙĬØ¨Ø§": 4680, "Ø®Ø±ÙĥÙħ": 7919, "ĠÙĦØªÙĥÙĪÙĨÙĨ": 8570, "ĠØªØ®ÙĦÙĤ": 8727, "ĠØ·Ø§Ø¦ÙģØªØ§ÙĨ": 9100, "ĠØ§ÙĦØµØ§Ø¯ÙĤÙĬÙĨ": 1721, "ĠÙĪÙĦØ¨Ø§": 5955, "ĠÙģÙģ": 5659, "Ø§Ø¨Ø±ÙĬÙĨ": 1398, "ĠØ§ÙĦÙĦØ§ØªÙĬ": 3061, "ĠÙĬÙĦÙĩ": 7319, "Ø¯ÙĪÙĨÙĩÙħ": 8470, "Ø¨ØªÙħ": 2627, "ĠØ§ÙĦÙĪÙĩØ§": 5588, "ĠÙĬØ¹ÙģÙĪ": 8382, "ĠÙģØ§ØªØ®Ø°": 4384, "ĠÙħØµÙĦØŃÙĪÙĨ": 9044, "ĠÙĬØ³Ø£": 4297, "ĠØ£ÙĪÙĦØ¦Ùĥ": 398, "ĠÙĪÙĤØ§ØªÙĦÙĪÙĩÙħ": 7980, "ĠØ¹Ø§Ø¨Ø¯": 9563, "ĠØ¬ÙĦÙĪØ¯ÙĩÙħ": 9916, "ĠØ¶Ø§ÙĦÙĬÙĨ": 8338, "ĠÙĬØµØ¯ÙĨÙĥ": 9452, "ĠØŃÙģÙĬ": 2496, "ĠÙĬØ¤Ø°ÙĪÙĨ": 5187, "ĠÙĬØ±Ø«ÙĪÙĨ": 8186, "ĠØ£Ø°Ùī": 3379, "ĠØ§ÙĦÙģÙĪØ²": 1829, "ĠÙĦØ£ÙĨÙģØ³ÙĩÙħ": 6773, "ĠØ¨Ø£Ø³Ø§": 8291, "ĠØ£Ø²ÙĪØ§Ø¬Ùĥ": 8961, "ĠØ£ØŃÙĬØ§ÙĩØ§": 9882, "ĠÙĨØ³ÙĬØ§": 6452, "ÙĤÙĦ": 5694, "ÙĥØ±Ø§Ùħ": 7177, "ĠÙĩØ°Ø§": 305, "ØµØŃ": 5801, "ÙħØ¶ÙĪØ§": 7095, "ĠØªØ¹Ø§ÙĦÙĪØ§": 3298, "ÙĪÙĩÙħØ§": 4592, "ĠÙĬØ®Ø´ÙĪÙĨ": 3701, "ĠÙĥØ§ÙĦØ£ÙĨØ¹Ø§Ùħ": 8930, "ĠØ¨Ø±Ø§Ø¡": 6507, "ÙģØ±ÙĤ": 7799, "ĠÙĦØªØ¹ÙĪØ¯": 8573, "ĠÙĪØ£ÙĦÙĤÙĪØ§": 9392, "ĠØ§ÙĦÙħÙĦÙĥ": 1160, "Ø¨Ø±Øµ": 8081, "ĠÙħÙĦØ§Ø¦ÙĥØ©": 3455, "ĠØªØ±Ø§Ø¨": 3260, "ÙĪØ±": 209, "ÙĬÙĨÙĩÙħ": 3989, "ĠÙĪØ¹ÙĦÙĬÙĩØ§": 6240, "ĠØ¨Ø£Ø®": 8289, "ĠØ¨Ø§ÙĦØºØ©": 9169, "Ø¯ÙĨØ§ÙĩØ§": 8840, "ĠØ¨Ø²ÙĬÙĨØ©": 10209, "ĠØ§ÙĦØ²ÙĥØ§Ø©": 1267, "ĠØ®ÙħØ³Ø©": 9848, "Ø¨ÙĪÙĨ": 732, "ĠÙĦÙĬØ¬ÙħØ¹": 8008, "ÙĤÙĨØ§": 1623, "Ø¸Ø§ÙħØ§": 2803, "ĠØ´Ùĩ": 1010, "Ø±ÙĬØ¶": 6067, "ĠØ§ÙĦØ¨Ø±ÙĬØ©": 8542, "ĠØºØ·Ø§Ø¡": 8043, "ĠØ¨Ø§ÙĦØ¢Ø®Ø±Ø©": 1461, "ĠØ¨Ø¥Ø°ÙĨÙĬ": 5229, "ĠÙĬØ²Ø§ÙĦÙĪÙĨ": 9051, "ĠØ¨Ø§ÙĦÙĨÙĩØ§Ø±": 9861, "ĠÙĪÙĥØªØ¨": 4184, "ÙģØ¦Ø¯Ø©": 3888, "ĠÙĬØºØ´": 6465, "ÙĥØ±": 190, "ĠØ£ÙĥØ¨Ø±": 1593, "ĠØ§ÙĦÙħØŃØµÙĨØ§Øª": 4848, "ĠØµØ§Ø¨Ø±Ø§": 9980, "Ø§Ø¶": 1223, "ĠÙĪØ¢Ø¨Ø§Ø¡ÙĩÙħ": 6819, "ĠØ³ÙĦÙĥ": 7658, "ĠØªØ¯Ø±ÙĬ": 5192, "ĠÙĥØ°Ø¨ØªÙħ": 8539, "ĠØ¨Ø³": 1068, "ĠÙĬØ¨Ø®ÙĦÙĪÙĨ": 6986, "ĠÙĪÙĬÙĨØ°Ø±ÙĪÙĨÙĥÙħ": 10318, "Ø®Ø°": 254, "ĠÙĬØŃØ±ÙģÙĪÙĨ": 6149, "ĠÙħØ®ØªÙĦÙģØ§": 5460, "ĠÙĥÙĬÙģ": 702, "ĠÙĪØ³Ø¹Ùī": 8664, "ĠÙĪØ³Ø®Ø±": 2242, "ĠÙģÙĥØ°Ø¨ÙĪÙĩÙħØ§": 9340, "Ø³ÙħØ§ÙĨ": 7264, "ĠÙĬØ¯ÙĬÙĩ": 1730, "ĠØ¬Ø§ÙĩØ¯": 4097, "ĠÙħØªÙĨØ§": 3936, "ĠØ§ÙĦÙħÙĪØªÙī": 1797, "ĠÙģØ§Ø³ÙĤÙĪÙĨ": 3352, "ĠØ®Ø±": 4102, "Ø§ØŃ": 1384, "ĠØ£Ø±Ø¬": 2640, "Ø¬ÙĨ": 1313, "Ø§ÙĦÙĩÙħ": 3911, "ĠÙĪØ§ÙĦØ´ÙħØ³": 2802, "ĠÙĪÙħÙĪØ¹Ø¸Ø©": 4284, "ĠÙĪØ¬ÙĨÙĪØ¯Ùĩ": 3404, "ĠÙĪØ±Ø§Ø¦ÙĩÙħ": 6293, "ĠØ¨Ø§ÙĦØ³Ø§": 7853, "ĠÙĪØŃÙģØ¸Ø§": 10149, "Ø¬Ø±Ø§": 2321, "ĠÙĬØ´ÙĩØ¯": 3666, "ĠØ§ÙĨØ·ÙĦÙĤÙĪØ§": 10151, "ÙĦÙĤÙĩ": 7969, "ĠÙĦØ¯ÙĬ": 5271, "ĠØ³ÙĪ": 2484, "Ø£ÙĨØ§": 4009, "ØŃØ±ÙĬØ±": 5099, "ĠÙĬØ®ØµÙģ": 8468, "ĠØ£Ø°ÙĤÙĨØ§Ùĩ": 9281, "ĠØ¨Ø§ÙĦØ¬ÙĨ": 7854, "Ø·ÙĩØ±ÙĬÙĨ": 9296, "ÙĥÙĬÙĨ": 1758, "ĠÙħØªÙī": 2630, "ĠØªØ¹Ø§ÙĦÙī": 6332, "ĠÙģØ¯ÙĬØ©": 6806, "ĠÙĨØ¬": 841, "ĠØ¨Ø£ÙĬØ¯": 2965, "ĠÙĤØµ": 2199, "ĠØ£ØŃØ¯ÙĩÙħ": 3341, "ĠÙĨÙĥØ±Ø§": 6583, "ĠÙĪØ§ÙĦØ¢ØµØ§ÙĦ": 7048, "ĠÙģÙĬÙĪÙħØ¦Ø°": 5542, "ÙĤØ¶ÙĪØ§": 7343, "ĠÙĨØ±ÙģØ¹": 9607, "ĠÙĬØºØ´Ùī": 3758, "Ø¸Ø§ÙĩØ±": 9082, "ĠÙĪÙĬØ¯Ø±Ø¡ÙĪÙĨ": 10097, "ÙĦØ¥": 4577, "Ø¨Ø«Ø§": 7195, "Ø¹Ø¨ÙĬÙĨ": 4632, "ĠØ¨Ø§Ø±": 3491, "ĠØ£ÙĦÙħ": 583, "ĠÙģØ£ÙĤÙĬÙħÙĪØ§": 6014, "ĠØ±Ø¬ÙĬÙħ": 5174, "ĠÙģØ§Ø³ØªÙħØ¹ÙĪØ§": 8990, "Ø²ÙĨØ§": 4785, "ĠØ´Ø±ÙĥØ§Ø¦ÙĬ": 4402, "ĠÙĪØ§Ø¨ØªØºÙĪØ§": 6631, "Ø¯Ø§Ø¯Ø§": 3101, "ĠÙĪØ§ÙĦÙĦØ§Ø¦": 7602, "ĠÙĪÙĬØ¯Ø®ÙĦÙĩÙħ": 7901, "ĠÙĦØµ": 2858, "ĠØ¨ÙĬØ¯Ùĥ": 9819, "ĠÙĤÙĪØ§ÙħÙĬÙĨ": 9829, "ĠÙĥØ£": 1697, "ĠØ§ÙĦØ·ÙĬÙĨ": 6457, "ĠØ£Ø®Ø±Ùī": 1920, "ĠØ§ØªØ¨Ø¹": 963, "ĠÙģÙħÙĨÙĥÙħ": 8576, "ĠØ±Ø¶ÙĪØ§ÙĨ": 6848, "Ø«Ø±Ùĥ": 8577, "ĠÙħÙĨØªÙĤÙħÙĪÙĨ": 7046, "Ø°ÙĥØ±ÙĬÙĨ": 8428, "Ø³ØªØ®Ø±Ø¬": 7883, "ĠÙĬØ±Ø¬ÙĪÙĨ": 2375, "ÙĩØ§Ø¬Ø±": 2885, "ĠØ´ÙĬØ¹": 4969, "ĠØ§ÙĦØ¨ØµØ±": 3716, "ĠÙĬØ´Ø§ÙĤÙĤ": 10127, "ĠØ³ÙħØ¹Ùĩ": 8998, "ĠØªÙĨØ²ÙĦ": 2994, "ĠØµØŃÙģØ§": 7990, "ĠØ¬ÙħØ¹": 3191, "ĠÙĪÙĩØ¨": 6554, "ĠØ£ØªÙĬÙĨØ§ÙĩÙħ": 9926, "ĠÙĪØ£Øº": 7716, "Ø§Ø±Ø¹ÙĪÙĨ": 2927, "ĠÙĬØ¯Ø®": 2005, "ØŃÙĪØ§": 1153, "ĠØ³ØªØ¬Ø¯ÙĨÙĬ": 7037, "ĠØªØºÙĦÙĪØ§": 9315, "ÙĦÙħ": 114, "ĠØ£ÙĥÙĦÙĩ": 8463, "Ø§ÙĨÙĩ": 3549, "ĠÙĬØ¨Ø¯": 1436, "ĠÙĬÙĨØ¨Ø¦ÙĥÙħ": 8136, "ĠØ§ÙĦÙħÙĬØªØ©": 5420, "ĠØ¹ÙĨØ¯ÙĥÙħ": 6182, "ĠÙĪØ§Ø¯Ø¹ÙĪØ§": 5372, "ĠÙģÙĬØ¶Ø§Ø¹ÙģÙĩ": 10230, "ĠØ¨Ø¹ÙĩØ¯Ùĩ": 9677, "Ø§ØºÙĪØª": 3025, "ĠÙĨÙģØ³Ùĥ": 2770, "ĠÙĪØ§ÙĦØ£ÙĨØ«Ùī": 5391, "ĠÙģØ¨Ø´Ø±ÙĩÙħ": 6424, "ĠÙĬÙĪØ¯": 3977, "ĠÙĬØ¶ÙĬØ¹": 4687, "ĠÙĤØ±ÙĬØ©": 1381, "ĠÙĪÙĬÙĨØ²ÙĦ": 4435, "ÙħÙĥ": 4580, "ĠÙĬÙĪÙħØ§": 1831, "ĠØ§ÙĦØ£Ø¬Ø¯Ø§Ø«": 7058, "Ø¬ÙĬÙĨØ§": 2198, "ĠÙģØ²ÙĬÙĨ": 7284, "Ø³Øª": 164, "ĠÙĨØ§ÙģÙĦØ©": 9957, "ĠÙĪØ°": 2050, "ĠØ¨Ø§ÙĦÙĦØºÙĪ": 5964, "ĠÙĪØ¬Ø¯ØªÙħ": 9550, "ĠØ§ÙĦØ³ÙģÙĬÙĨØ©": 5980, "ĠØªÙģØªØ±ÙĪÙĨ": 9769, "Ø¹ÙħÙĦÙĪØ§": 2716, "ÙĤØ§": 317, "ĠÙħ": 60, "ĠÙĪØ§ÙĦÙħØ³Ø§ÙĥÙĬÙĨ": 2820, "ĠØ´ÙĥÙĪØ±": 3037, "ĠØ³ÙĪÙĬØ§": 5440, "Ø®ÙĬÙĦ": 5798, "ĠÙĪÙĬÙĦØªÙī": 6719, "ĠÙħØ·Ø±Ø§": 6884, "ØŃÙĪÙĨ": 1352, "ĠØŃØ¯ÙĬØ«Ø§": 4495, "ĠØŃØ·Ø§ÙħØ§": 7055, "Ø¶ÙĪØ§": 1136, "Ø·Ùī": 4821, "ĠÙĬÙĤÙĪÙĦÙĪÙĨ": 804, "ĠÙĪÙĦÙĪØ§ÙĦØ¯ÙĬ": 6289, "ÙĩÙĤÙĩÙħ": 7119, "Ø¹Ø¸": 3947, "ĠØ±Ø§Ø¬Ø¹ÙĪÙĨ": 5419, "ĠØ±Ø³ÙĪÙĦÙĩÙħ": 8813, "ØŃØ§ÙĩØ§": 4431, "ĠÙĥØ§Ø°Ø¨ÙĬÙĨ": 5782, "ĠÙĤØ§Ø±ÙĪÙĨ": 9828, "ĠØ§ÙĦØ®Ø·": 6267, "ĠÙħØ·": 3089, "ĠÙĬØ¶Ø±ÙĩÙħ": 6749, "ĠØ£Ø¹Ø²Ø©": 8603, "Ø§ÙĩØ±ÙĪÙĨ": 4358, "Ø§Ø¨ÙĩÙħ": 4811, "ĠÙĪØ¹Ø¯ÙĩØ§": 8692, "ĠÙĪØªÙĨØŃØªÙĪÙĨ": 9878, "ĠØ´ÙĩØ±": 3591, "ĠØ¢ØªÙĬØªÙħÙĪÙĩÙĨ": 5301, "ĠØ¨ÙĬØ§ØªØ§": 7045, "ĠØ¹Ø¯ÙĪØ§": 1950, "ĠÙĥÙĦØ¨ÙĩÙħ": 6096, "ĠÙħØ¹Ø°Ø¨ÙĩÙħ": 8103, "ĠØ¹Ø§ÙĤØ¨Ø©": 1238, "ĠØ£Ø°Ø§": 5641, "ĠÙģØ§ØµØ¨Ø±ÙĪØ§": 9328, "ØªÙĪÙĨÙĬ": 2134, "Ø¤ÙħÙĨÙĪØ§": 1646, "Ø§ÙĦÙĪÙĨ": 2622, "ĠÙĬØ¶ÙĦÙĩ": 8997, "ĠÙģÙĥÙĬØ¯ÙĪÙĨ": 8646, "ØªØ§ÙĦ": 2175, "ĠÙħØ´Ø±ÙĥÙĬÙĨ": 4627, "ÙĪØ¹ÙĬØ¯": 6601, "ĠÙĪØ£ÙĤÙħ": 6672, "ĠÙģØ£ÙĪØŃÙī": 6972, "ĠÙĪØ¶": 2051, "ÙĪØ£": 2620, "ØªØ®Ø°ÙĨ": 9385, "ĠÙĪØ²": 821, "ĠÙĦØªØ¹ÙĦÙħÙĪØ§": 6345, "Ø¤ÙĦØ¤Ø§": 7013, "ĠÙĬØ¬Ø±ÙħÙĨÙĥÙħ": 7001, "ĠØ¹ÙĨØªÙħ": 7862, "ĠÙĤØ±ÙĬØªÙĥÙħ": 8861, "ĠÙģØ§ÙĨØªØ´Ø±ÙĪØ§": 9794, "Ø³ÙĪØ©": 7263, "ĠÙĪØ§ÙĦÙħØ´Ø±ÙĥØ§Øª": 8635, "ĠÙĪØ³ÙĦØ§ÙħØ§": 8665, "ĠØ£ÙħØ«Ø§ÙĦÙĩØ§": 9670, "ØªÙĨØ§": 646, "ĠÙĬÙĨØ·": 3246, "ĠØ£Ø±Ø¯ØªÙħ": 6450, "ĠØºØ±": 2225, "ĠØ·Ø±Ø§Ø¦": 8273, "ĠØ£ÙĪÙĦÙĬ": 720, "ĠØªØ£ØªÙĬÙĨØ§": 5140, "ĠØ¨Ø§ÙĦØ¹Ø´ÙĬ": 5347, "ÙĦÙĩØªÙĨØ§": 5739, "ĠÙĬØ¹Ø¨Ø¯ÙĪÙĨ": 2551, "ĠÙĪØ£Ø¨ØµØ±": 6753, "ĠÙĨÙĥØ§ÙĦØ§": 9035, "ĠØ§ÙĦÙĨÙĥØ§ØŃ": 7066, "Ø§ÙģØ¹ÙĬÙĨ": 8296, "ĠØ£ÙĦÙĨ": 6745, "ĠØŃØªÙī": 383, "ĠÙĪÙĬØ±": 1426, "ĠÙħÙĪØªÙĩØ§": 2374, "ĠÙĪØ§ÙĦØ°Ø§": 5836, "ĠØ¬ÙħÙĬØ¹Ø§": 830, "ĠÙħØ¹ÙĬÙĨ": 6107, "ĠØªØ³ØªØºÙģØ±": 6558, "ØŃØ©": 3506, "Ø±Ø§Ùĥ": 1254, "ĠÙĬØ²": 1108, "ĠÙĦØ±": 3966, "ĠØ£Ø²ÙĪØ§Ø¬": 952, "ĠÙģÙĦÙĩØ§": 5672, "ĠØªØŃØ²ÙĨÙĪØ§": 6772, "ØŃØ¯ÙĪØ§": 7409, "ĠØ£Ø¹ÙĬÙĨÙĥÙħ": 9404, "ĠÙĩØ¯ÙĬÙĨØ§": 6868, "ĠÙĤØ¨": 683, "ĠØªØ¨Ø¹": 2318, "ĠØ¢Ø¨Ø§Ø¡ÙĨØ§": 2582, "ĠÙĥØ¨ÙĬØ±ÙĩÙħ": 9420, "Ø³ÙĨØ§Øª": 5658, "ĠØ¹Ø§ÙĦÙĬØ©": 9250, "ĠÙĪÙĦØ¹": 1970, "ĠØ§ÙĦ": 55, "Ø®ÙĦØµ": 1377, "ĠÙĬÙĨØ§Ø¯ÙĬÙĩÙħ": 5533, "ÙĦØ§ÙĦØ§": 3007, "Ø´ÙĬØ¡": 2258, "ØºØ±ÙĤ": 3350, "ĠÙĬÙĥÙĦÙħÙĩÙħ": 6237, "ĠØ£Ø´Ø¯ÙĥÙħ": 8987, "ĠÙĬØ´ØªØ±ÙĪÙĨ": 5016, "ĠØ¨Ø´Ø±ÙĥØ§Ø¦ÙĩÙħ": 10065, "ĠØ§ÙĦÙĤØµ": 3218, "ĠÙĪØªÙĦÙĥ": 2372, "ÙĨØ¨Ø¦ÙĥÙħ": 7087, "ĠØ¥ØŃØ¯Ø§ÙĩÙħØ§": 4481, "ĠØ§ÙĦØ®ÙĦØ¯": 3893, "Ø°ÙĥØ±ÙĪØ§": 1017, "ĠÙĪØ§ÙĦÙĨØ¨ÙĬ": 4360, "Ø´Ø±Ø§Øª": 8050, "ØªØ§Ø¨ÙĪØ§": 6092, "ĠÙĬÙĤÙĬÙħØ§": 6431, "ĠÙħÙĩØ¯": 7200, "ĠÙĬØ¬ØŃØ¯ÙĪÙĨ": 3310, "ĠØ¨Ø§Ø·": 5713, "ĠØ¨Ø§ÙĦÙĪØ§Ø¯": 5965, "ĠÙģÙĥØ§ÙĨ": 1663, "ĠÙĬÙĥØ°Ø¨ÙĪÙĨ": 3276, "ĠÙĦÙħÙĨ": 511, "ØŃÙħÙĪÙĨ": 2951, "ĠØªØ¬Ø§Ø±Ø©": 3720, "ĠÙĨÙģÙĤØ©": 8982, "ĠØ£Ø°ÙĩØ¨": 7243, "ĠÙĪØ´Ø§": 9278, "Ø°ÙĩØ¨ÙĨ": 9127, "Ø§Ø¦ÙĬÙĦ": 891, "Ø¹ÙĤ": 4631, "ĠØ¨Ø§ÙĦÙĩØ¯Ùī": 3203, "ÙĥÙĩÙħ": 5611, "ĠØ³ÙĨØª": 5857, "ĠÙĬØ³ÙĪÙħÙĪÙĨ": 6299, "Ø°Ø¹": 7347, "ÙĨÙĬÙĩ": 8051, "ĠØ§ÙĦØ±Ø¤ÙĬØ§": 5992, "ĠØªØ£ØªÙĬ": 6349, "ĠÙĨØ¯Ø±ÙĬ": 9534, "ĠØ¨ÙĤØ±Ø©": 5505, "ÙħÙĦØ§ÙĤ": 7097, "ĠÙĪÙħØ£ÙĪØ§ÙĥÙħ": 9887, "ĠØ°Ø§Ø¦": 5970, "ØŃÙĨ": 519, "ĠÙĦÙĬØ¹Ø°Ø¨ÙĩÙħ": 8007, "ĠØ§ÙĦÙĥØ¨Ø±ÙĬØ§Ø¡": 10278, "ĠÙĦÙĩÙĨ": 2099, "ĠÙĬØ®ØµÙģØ§ÙĨ": 10304, "ĠØªØ°Ø±": 3136, "ĠØ¹Ø¸ÙĬÙħØ§": 1421, "Ø´Ùī": 1634, "ĠØ£Ø¹Ø¯": 1761, "ĠÙĬØ¹ÙĦÙħÙĩÙħ": 6218, "ĠØ³ÙħÙĬ": 2898, "Ø¹ÙĥÙħ": 3946, "ĠØ£Ø¹ÙħÙĦ": 5228, "ĠØ¨Ø§ÙĦØµØ¯ÙĤ": 7856, "ĠØ": 47, "ĠÙĪØ§ØªÙĤÙī": 8627, "ĠÙħØ³ÙĨ": 4622, "ĠØ£Ø®Ø±ÙĨØ§": 9178, "ĠØªØ¨Ø¹Ø§": 9529, "ĠØ¢Ø®Ø±": 1512, "ĠÙĬÙĨØ³ÙĦÙĪÙĨ": 10120, "ĠÙĪØ¥ÙĬØªØ§Ø¡": 7059, "ĠÙĪØ³Ø¹Ø±": 8662, "ĠÙĬØ®ØªØµ": 3703, "ĠÙĪÙĤÙĦ": 1227, "ĠÙĪØ§ÙĦÙħØ¤ØªÙģÙĥ": 6981, "ĠØ±ØŃÙĬÙħ": 714, "ĠÙĥØ§Ø¯ÙĪØ§": 4756, "ĠØ±Ø¶ÙĬ": 3543, "ĠÙĬØ³Ø±": 2189, "ĠØ°Ø§ÙĤÙĪØ§": 9235, "ÙĩØ§ÙĩÙħ": 7568, "ĠØªØ¨ÙĬÙĨ": 2317, "ĠØªØŃØ³Ø¨": 2552, "ĠØ·Ø±Ùģ": 6208, "ĠØ£Ø²": 3099, "ÙĪØ¶": 3425, "ĠÙģØ±Ø¹ÙĪÙĨ": 662, "ĠÙĪØ§ÙĦØ³ÙĦÙĪÙī": 6589, "ĠÙĬØ´Ø§Ø¡ÙĪÙĨ": 4295, "ĠÙģØ¨Ø¦Ø³": 3321, "ĠÙĬØ±Ø¯ÙĪÙĥÙħ": 6703, "ĠÙĬØ³ØªØŃÙĬÙĬ": 8453, "ÙĪØ¯ÙĪØ§": 3267, "ÙĪÙĥØ§": 8578, "ĠØ£ØªÙĪÙĥ": 8751, "ĠÙĦØ¯ÙĨÙĥ": 3359, "Ø°ÙĨÙĬ": 4696, "ĠØ¥Ø®ÙĪØ§ÙĨ": 4534, "ĠÙĪØ¬Ø¹ÙĦÙĨØ§ÙĥÙħ": 8871, "ĠØ³Ø±ÙħØ¯Ø§": 9368, "ĠØ£ØŃØ¯": 820, "ĠÙĬØ¦Ø³ÙĪØ§": 9939, "ĠØ·ÙĬØ¨Ø§": 3676, "ĠÙĦÙĦØ´Ø§Ø±": 6135, "ÙģÙī": 849, "ĠØ§ÙĦÙģØ§Ø¦Ø²ÙĪÙĨ": 5156, "ĠÙĪØ¥ÙĦØ§": 7823, "ĠØªØ¬Ø²ÙĬ": 8580, "ØµÙĬØ±": 609, "ĠÙĦØŃÙħ": 7305, "Ø±Ø¶ÙĬÙĨ": 4127, "ĠØµØ¨Ø±Ø§": 2934, "ĠØ´Ùĥ": 1197, "ĠØ¨Ø¹Ø¶Ø§": 2757, "ĠØ£Ø±Ø§ÙĥÙħ": 5262, "ĠÙģØ¹ÙĦÙĬÙĩ": 5258, "ĠÙĬÙĪØ§Ø±ÙĬ": 7327, "ĠÙħÙĨÙĥÙĨ": 4725, "ĠÙĬÙĨÙĥØ«ÙĪÙĨ": 9726, "ĠØ¹ÙĨÙĩ": 995, "ÙĬØ¯ÙĪØ§": 5993, "ĠÙĪØ¢ÙĬØ§Øª": 7147, "ĠØ³Ø§Ùģ": 7663, "ĠØ£Ø°": 1553, "ĠØ±Ø¬Ø²Ø§": 6418, "ĠÙĪÙģØªØŃØª": 10042, "ĠÙĬØ±Ø¬ÙĪ": 5011, "ÙĬØ§": 161, "Ø±ØŃÙħÙĨ": 2151, "ÙĥØªØ¨": 3084, "Ø®Ø±": 173, "ĠØ®ÙĦÙĤ": 325, "ĠØŃÙĦÙĬÙħ": 2497, "ĠØŃÙħÙĦØª": 8842, "ĠØ¨Ø¹ÙĩØ¯": 2947, "Ø´Ø±Ùĥ": 508, "ĠÙĪÙĦÙĬØª": 8547, "Ø«ÙĦØ«": 5272, "ĠØ¨ÙĦØ§": 5708, "Ø§Ø¡ÙĪÙĨ": 7693, "Ø§Ø¤ÙĩÙħ": 2139, "ĠØªØ®Ø´ÙĪÙĩÙħ": 9791, "ĠÙĪÙĬØ®Ø±Ø¬": 4140, "Ø¹Ø¸Ø©": 5640, "ĠØªØ³Ø±ÙģÙĪØ§": 9944, "Ø¨Ø±": 246, "ĠØ£ØŃØ¯ÙĩÙħØ§": 5230, "ÙģÙĬÙĩ": 4290, "ĠØ¨Ø§ÙĦÙħÙĨ": 7846, "ĠØ£Øª": 672, "Ø£ÙĥÙĦ": 6793, "Ø§ÙĤØ¨": 8489, "ĠØ£Ø¨ÙĪÙĬÙĩ": 8704, "ÙĬÙĤØ§Øª": 3073, "ĠÙĪÙĬØ±ÙĬÙĥÙħ": 9213, "ĠØ¨ÙĩÙĨ": 6061, "ĠØ¨Ø£ÙħÙĪØ§ÙĦÙĩÙħ": 3063, "ĠØªØ£Ø°ÙĨ": 8594, "Ø¢Ø®Ø±Ø©": 448, "ØŃØ²": 1777, "ÙĪÙģÙĪÙĨ": 5012, "ĠÙĤÙĪÙĦÙĪØ§": 7530, "ĠÙĪØ£Ø·ÙĩØ±": 7725, "ĠÙĪØ§ÙĦØŃØ³Ø§Ø¨": 9569, "ĠÙģØ·": 2855, "ĠÙĪØ£ÙĪØªÙĬÙĨØ§": 10248, "Ø¬Ø§Ø¯ÙĦ": 7508, "ĠÙĥØ«ÙĬØ±": 1488, "ĠÙģØ³ÙĪÙī": 8669, "ĠÙģØ¥": 193, "ĠØ¨Ø¢ÙĬØ©": 2274, "ĠØ±ÙĬØŃ": 2680, "ĠØŃØ¶Ø±": 3580, "ĠÙĪÙĬÙħÙĨ": 7889, "ĠØ´ØŃ": 5929, "Ø¶Ø§Ø¹Ùģ": 6685, "ĠØ§ÙĦØµØ§Ø¨Ø±ÙĪÙĨ": 8091, "ĠÙĪØ¬ÙĬÙĩØ§": 8072, "ĠÙĨØµØ§Ø±Ùī": 4067, "ĠÙģØ§Ø³ØªØ¬Ø¨ÙĨØ§": 5532, "ĠÙģØ¨Ø¯": 7278, "ĠÙĪØ§ÙĦØŃØ¬Ø§Ø±Ø©": 9570, "ĠÙģØ·Ø±": 2643, "ĠØ£ÙĨØ«Ùī": 2888, "ĠÙħÙĨØ«ÙĪØ±Ø§": 10214, "ĠØ±Ø²ÙĤÙĥÙħ": 3022, "ĠØ¬ÙĨØ¨Ø§": 9125, "ĠØµØ±ÙģÙĨØ§": 5493, "ĠÙģÙĤ": 510, "ĠØŃ": 130, "Ø¡": 152, "ĠØµØ±Ø§Ø·": 964, "Ø¯Ø±": 2853, "ĠÙĦØ³Ø§": 4669, "ĠÙĦÙĤØ§Ø¡ÙĨØ§": 5118, "ĠØ§ÙĦÙħÙĤØ¯Ø³": 5900, "ĠØ£ÙģÙĨ": 8304, "ĠÙĪØŃÙĬÙĨ": 4354, "ĠÙĨÙĪØŃ": 842, "ĠÙģØ¥ÙĬØ§ÙĬ": 7996, "ĠØ¬Ø§Ø¡Øª": 2539, "ĠÙĬÙĦØ§ÙĤÙĪØ§": 7043, "ÙĩØ§Ø±Ø§": 2884, "ĠØ£ÙĨØ¹Ø§ÙħØ§": 7587, "ĠØ£ØŃ": 313, "ĠÙĬÙħÙĬÙĨÙĥ": 7000, "ĠÙĪØŃÙħ": 3434, "ĠÙĪØ£ÙĤØ§ÙħÙĪØ§": 2906, "ĠÙĦÙĦØ¥Ø³ÙĦØ§Ùħ": 9553, "ĠØ¢ØªÙĬÙĨØ§Ùĩ": 4375, "ĠÙĬÙĨÙģØ¹ÙĥÙħ": 5328, "Ø²ÙĥÙī": 7576, "ĠÙĪØ§ÙĦØ·": 2204, "ĠØªÙĥØªØ¨": 8480, "ÙĥØ§Ø©": 1080, "Ø·Ùħ": 2336, "ĠØŃÙĥÙħØ§": 2598, "ĠØ¯Ø§Ùħ": 6006, "ĠÙĦØ¯Ø§": 7306, "Ø¨Ø§Ø¯": 473, "ĠÙħØªØ´": 3333, "ĠÙģØ£ÙĪÙĦØ¦Ùĥ": 857, "ĠØ§ÙĦØµÙĪØ±": 2532, "ĠØŃØµÙĬØ¯Ø§": 9778, "ĠÙħØ±ÙĬØ¶Ø§": 6792, "ĠØªØ±": 318, "ĠØ§ÙĦØ²ÙĪØ¬ÙĬÙĨ": 8899, "ÙĪØ³Ùģ": 3910, "ÙĨØ¯": 7081, "Ø²Ø§ÙĨ": 2476, "ĠÙħÙħÙĨÙĪÙĨ": 5257, "ĠØ§ÙĦØ¥ÙĨØ³Ø§ÙĨ": 739, "ĠÙģØ§Ø¯Ø®ÙĦÙĪØ§": 9413, "ĠÙĪÙħ": 409, "ĠØ£Ø·Ø¹": 5644, "ĠÙģÙĦÙĬØ£ØªÙĪØ§": 10016, "ĠØ£Ø¸": 4637, "ÙħØ±": 293, "ĠØ³Ø§Ùħ": 5859, "ĠØ¥Ø³ÙĦØ§Ùħ": 7385, "ĠØ§ÙĩØªØ²Øª": 9401, "ĠÙĬØ«": 4673, "ÙħÙĪÙħ": 4581, "ĠÙĤØªÙĦØª": 6684, "ĠØ§ÙĦÙĥÙģØ§Ø±": 2097, "ĠØ§ÙĨØª": 3337, "Ø¨Ø±Ùĩ": 6097, "ĠØ¨Ø£ÙĬ": 6215, "ĠÙĪØ¨Ø«": 6297, "ĠÙģØ§ØŃ": 4232, "Ø¸Ùħ": 2707, "ĠØ±ÙĪØ§": 2474, "ĠÙĪØ¬Ø§": 4975, "Ø¹ÙĦÙħÙĨ": 3204, "ĠØ§ÙĦØ¹ØªÙĬ": 7962, "ÙģÙĪØ±Ø§": 1189, "ĠÙĥØ¸ÙĬÙħ": 5780, "Ø¹Ùħ": 171, "ĠÙģØ¥ÙĨÙĩÙħ": 2534, "ĠØ¬ÙĨØªÙĥ": 9844, "Ø¯Ùĩ": 1181, "ĠÙĥØ±Ø³ÙĬÙĩ": 10225, "Ø®ÙĦÙģ": 1784, "ĠØ¹Ùħ": 629, "ĠÙģØ§Ø¹Ùģ": 6174, "ÙĤØªÙĦ": 1532, "ÙĬØªÙĪÙĨ": 8512, "ĠØ¬Ø§": 3189, "ĠØªÙĥÙģØ±ÙĪÙĨ": 2237, "ĠØ¨ÙĨØ§": 2654, "ĠØ¨Ø§ÙĦÙĥØªØ§Ø¨": 5491, "ĠÙģÙħØªØ¹": 7295, "ĠÙģÙĦ": 304, "Ø§ÙĦØ§Øª": 2835, "ĠØ§ÙĦØŃÙĥÙħØ©": 4513, "ĠØ¬": 134, "ĠÙĪÙĥÙĬÙģ": 4183, "ĠØªÙħØ³ÙĪÙĩØ§": 6780, "ĠØ¨Ø£ÙĩÙĦÙĩ": 8293, "ĠÙĬØ³Ø£ÙĦÙĪÙĨÙĥ": 2762, "ĠØ¬Ø¹ÙĦÙĨØ§ÙĩÙħ": 8895, "ĠÙĤÙĦÙĨØ§": 1976, "ĠÙĦÙĦØ·Ø§Ø¦ÙģÙĬÙĨ": 9876, "ĠØ¨ÙĬÙĨØ©": 1989, "ĠÙĪØ«ÙĦØ§Ø«": 9740, "ØŃÙĬØ§": 2659, "ÙģØªÙĪÙĨÙĥ": 8404, "ĠÙħØ«ÙĦÙĥÙħ": 3287, "ĠÙħØ§ÙĦÙĩ": 3832, "ĠÙĪØ¨ÙĬÙĨÙĩÙħ": 3791, "ĠØ³ÙĬÙĩØ¯ÙĬÙĨ": 6423, "ĠÙĪØ§ÙĦÙģØŃØ´Ø§Ø¡": 9650, "ĠÙĬÙĥØ°Ø¨": 2752, "ĠÙĦÙĩÙĪØ§": 6080, "ĠÙĪØ¹ÙĬØ³Ùī": 3280, "ĠÙĬØªÙĦÙĪ": 3244, "ĠØ±Ø²ÙĤÙĨØ§ÙĥÙħ": 3344, "Ø¨Ø¹ÙĬØ¯": 4197, "ĠØ²Ø¨Ø±": 8412, "ĠÙĬØºÙĨÙĬ": 2135, "Ø§ÙĦÙħÙĬÙĨ": 335, "ĠØ°ÙĪÙĤÙĪØ§": 3034, "ĠØ¨Ø®ÙĦÙĤ": 6633, "ĠØ¹ÙģØ§": 3517, "ĠÙħØ³Ø·": 6313, "ĠÙĨØ¹Ø¯": 7613, "Ø¨Ø¹Ø°Ø§Ø¨ÙĨØ§": 8079, "ÙħØ¹ÙĪØ§": 8302, "ĠØ§ÙĦØŃØ±Ø«": 4920, "ĠØªÙģØ¶ÙĬÙĦØ§": 8922, "ĠÙħØµÙģÙĪÙģ": 9045, "ÙĪØ°": 2170, "ÙĬÙĤÙĬÙĨ": 4588, "ĠØ¬Ø§Ø¡ÙĨØ§": 3663, "ĠÙĪÙħØ£Ø¬ÙĪØ¬": 8437, "ĠØ§ÙĦÙħØªÙĥ": 4084, "ĠÙģØªÙĤØ¹Ø¯": 8328, "ĠØ£Ø³ÙĦÙħ": 2017, "Ø¦ÙĪØ§": 5867, "ĠØ¨Ø§Ø²": 7374, "Ø¹Ø²": 7222, "ĠÙĪÙĬÙĤØªÙĦÙĪÙĨ": 4142, "Ø±Ø§ÙĪØ¯": 7832, "ĠÙĦÙħØ³ÙĥÙħ": 8098, "ĠÙĪØ§ÙĦØ£Ø¹ÙĨØ§Ø¨": 8165, "ÙĤØªÙĦÙĪÙĨ": 1731, "ØŃÙģ": 3125, "ĠØ§Ø¯Ø§Ø±Ùĥ": 8944, "ÙĦÙĤÙī": 4931, "ĠÙĪØ²Ø±ÙĪØ¹": 9586, "ĠÙħÙĤØ±": 4625, "ĠÙĦØ®ÙĦÙĤ": 9561, "ÙĬÙĦØ§": 915, "ĠÙħØ±Ø¬": 8504, "ØŃÙĥÙħÙĩ": 8928, "ĠÙĪÙĥÙĨØª": 4952, "ĠÙĩÙħ": 245, "Ø·ÙĬÙģ": 3568, "ÙĨØ§Ùĩ": 925, "Ø±Ø§Ø¬": 3199, "ĠÙĤØ±Ùī": 7529, "ĠØ§ÙĦÙĤÙĩØ§Ø±": 3628, "ĠÙĪØ¸Ø§": 7154, "ĠÙģØ¹Ø§": 7279, "ĠÙĤÙĬØ§Ùħ": 7532, "ĠÙĪØ±Ø§Ø¡": 2119, "ĠÙħÙĥÙĨÙĪÙĨ": 6502, "ĠØ¨Ø¹Ø«Ø±": 8113, "ĠÙĬØŃØ¯Ø«": 8174, "ĠÙĬÙĤØµÙĪÙĨ": 8738, "ĠÙĬØ§Ø¨Ø³Ø§Øª": 10059, "ÙħØ§ÙĦ": 1925, "ĠÙģØªØµØ¨ØŃ": 6227, "ĠÙĪÙĨØ¬ÙĬÙĨØ§Ùĩ": 5033, "ÙĪÙĨÙĩ": 1351, "ĠÙĬØµÙĦÙĪÙĨÙĩØ§": 5479, "ĠÙĪØ§Ø¹ÙħÙĦÙĪØ§": 8110, "ĠØ²Ø±": 3693, "ĠØ£ÙħØ±ÙĨØ§": 1828, "ĠÙĬØ¬ÙħØ¹ÙĪÙĨ": 6374, "ĠØ§ÙĦÙħÙĨØ§ÙģÙĤÙĬÙĨ": 1874, "ĠØ¨ÙĪØ£ÙĨØ§": 10210, "ĠÙĪÙħÙĦØ¦Ùĩ": 3904, "ĠØªØ´Ø§Ø¨Ùĩ": 8834, "ĠÙģØ§ÙĦ": 866, "ĠØ§ÙĦØ¶Ø§ÙĦÙĪÙĨ": 6822, "ÙĦØ§Øª": 3520, "ĠØ§ÙĦØªÙĤÙĪÙī": 3894, "ĠØ³Ø£ÙĨ": 7671, "ÙĬØ£Ø³ÙĪØ§": 10177, "ĠÙĬØªÙĪØ¨": 1995, "ĠÙĥÙĬÙĦ": 5778, "ĠØ¹ÙĦÙĬÙħ": 479, "ĠÙĥ": 88, "ĠØ§ÙĦÙģØµÙĦ": 3312, "ĠÙĬØ¬Ø¹ÙĦÙĩ": 6373, "ĠØªØªÙģÙĥØ±ÙĪÙĨ": 6328, "ĠÙĦØ£ÙĤØ·Ø¹ÙĨ": 8500, "ĠÙĦØ±Ø¬": 5685, "ĠØ¨Ø¹ÙĬØ¯Ø§": 3649, "ĠÙĬØ¹Øª": 4263, "ĠÙĬØºÙĬØ¸": 8810, "ĠØ±ÙĥØ¨Ø§": 9645, "ĠÙĬÙĤØª": 4681, "ĠØ³ÙģØ§ÙĩØ©": 10247, "ĠÙģØ§ÙĨÙģ": 6510, "ĠÙĨØ³Ø¨": 7620, "ĠØ§ØŃØªÙħ": 8019, "ĠÙĦØ¹Ø¨Ø±Ø©": 4345, "ĠØ§ÙĦØ£Ø¹Ø±Ø§Ø¨": 2611, "ĠØªØ¹Ø°Ø¨ÙĩÙħ": 8536, "Ø±ÙĬÙĥÙħ": 3223, "Ø¬Ø²ÙĪÙĨ": 5776, "ĠÙĪÙĤÙĬÙĦ": 1884, "Ø³ÙĥÙħ": 3469, "ĠØ¥ÙĨ": 100, "ĠÙģÙĬÙĩÙĨ": 2675, "ĠÙĦØªØ¬Ø±ÙĬ": 8574, "ĠØºÙĦ": 4188, "ĠØŃØ³ÙĨØ§": 1379, "ØªÙĦÙĪØ§": 3924, "ĠØ§ÙĦØ¨ÙĦØ¯": 4608, "ĠÙĪØ£Ø¨ÙĨØ§": 5882, "Ø±ÙĬØŃØ§ÙĨ": 10113, "ĠØ¹ÙĦÙĬÙĥÙħ": 341, "Ø³Ø³ÙĪØ§": 7265, "ĠØ¹Ø¯ÙĪÙĩ": 8815, "ĠØ±Ø£ÙĬØªÙĩÙħ": 4554, "ĠÙĬØ´ÙĩØ¯ÙĪÙĨ": 5015, "ĠØ§ÙĦÙĨÙģ": 8235, "ĠØ¨ÙĨÙĬ": 744, "ĠØ§ÙĩØ¨Ø·": 4180, "ĠÙĪÙģØ±ØŃÙĪØ§": 9347, "ĠÙħØ¨ÙĦØ³ÙĪÙĨ": 7041, "ĠÙĥÙĦÙĩÙħ": 6095, "ĠÙĤØµØ§Øµ": 9484, "ĠÙĪÙĪØŃÙĬÙĨØ§": 10185, "ĠÙģØªÙĬÙħÙħÙĪØ§": 8329, "ĠÙģØ§Ø³": 1013, "ĠØ§ÙĦØ¶ÙĦØ§ÙĦØ©": 3883, "ĠÙĪÙħØªØ§Ø¹": 6939, "ØªÙĩÙħ": 329, "ĠØ¨ØŃÙħØ¯Ùĩ": 5540, "ØªÙħÙĪØ§": 5912, "ØŃØ³ÙĨÙĬÙĨ": 1079, "ĠØ±Ø£ÙĬ": 3542, "ĠÙĤØ§ØªÙĦÙĪØ§": 4764, "ĠÙĪÙĩØ¯ÙĪØ§": 7158, "ĠÙģØ¨Ø¯ÙĦ": 7291, "ĠÙĪØ§ÙĦÙĦØ§ØªÙĬ": 7610, "ĠØ§ÙĦØ¬ÙĨØªÙĬÙĨ": 8285, "ĠÙģÙĬÙĩØ§": 258, "ĠÙĬØµØ¹Ø¯": 8780, "ĠØ¨ÙĬÙĨÙĩÙħØ§": 1122, "ĠÙħØ¨ØµØ±Ø§": 6581, "ĠØ¨Ø§Ø¡": 7354, "ĠÙĤØ±ÙĪÙĨØ§": 7537, "ĠÙģØ¥ÙĨÙĩ": 1889, "ĠØ§ÙĦÙĤØ§Ø¹Ø¯ÙĬÙĨ": 5454, "ĠØ§ÙĦØ£Ø¨ÙĪØ§Ø¨": 7818, "ĠÙĬØ¤Ø§Ø®Ø°": 3322, "ĠØ³ÙĬÙĤÙĪÙĦÙĪÙĨ": 5177, "ĠÙĪØ§Ø³": 1331, "ØµØ±Ø®": 6252, "ĠÙĩØ¯Ø§ÙĩÙħ": 5363, "Ø§ÙĦØªÙĩ": 7115, "ĠÙģØ®ÙĦÙģ": 7289, "ÙĤÙĪØª": 7340, "ĠØ¶Ø§": 8334, "ĠÙĬØ¬Ø§Ø¯ÙĦÙĪÙĨÙĥ": 9739, "ĠØªØŃØµ": 4267, "ĠØ£ÙĩÙĦÙĥ": 1098, "ĠÙĦÙĬÙĪÙħ": 2938, "ĠÙĬÙĨØµØ±ÙĥÙħ": 5433, "Ø¨ÙĬØª": 4953, "ÙģØ§ÙĦ": 5725, "ĠÙĥØ¨Ø§Ø¦Ø±": 5783, "ĠÙĪÙĦØ§": 150, "ØµØ±ÙĪÙĨ": 814, "Ø³Ø±Ùī": 5020, "ĠÙħØªØ±Ùģ": 6463, "ĠØ¯Ø§Ø®Ø±ÙĪÙĨ": 9864, "Ø§Ø¬": 936, "ÙĦÙĩØ§": 620, "ĠØ°": 157, "ĠÙĪÙĩÙħ": 384, "ĠÙĬØ±": 288, "Ø¹ÙĪØ§": 423, "Ø§Ø¨Ø§": 1138, "ĠÙĪØ¹Ø¯Ùĩ": 3320, "ÙĪØ¡ÙĪØ§": 8743, "ĠØ¥ØŃØ¯Ùī": 5377, "ĠØ¢ÙĦØ¢ÙĨ": 9090, "ĠÙħÙĤØ§ÙħØ§": 9690, "ĠÙĬÙħØªØ±ÙĪÙĨ": 9938, "ĠÙĬØŃ": 280, "ĠÙĪÙĤØ§ÙĦØª": 2114, "ØŃØ´Ø§Ø¡": 3366, "ĠØ¨Ø§ÙĦØ¹Ø¯ÙĪØ©": 9668, "ĠÙĤØ¶ÙĬÙĨØ§": 9830, "ĠØ£Ø´Ø±ÙĥÙĪØ§": 2270, "ĠØ¨ÙĪØ¬ÙĪÙĩ": 7379, "ĠÙĬØ¹ÙħÙĩÙĪÙĨ": 3370, "ÙĦÙħØ§ØªÙĩ": 3752, "ĠÙĦØ§": 133, "Ø§Ø±Ø¬": 4152, "ĠØ£ÙħØ¯ÙĥÙħ": 7928, "ĠØ£ÙħÙĨ": 1499, "ĠØ§ÙĦØ£ÙĨØ¨ÙĬØ§Ø¡": 6409, "ĠÙĪØ¢ØªÙĬÙĨØ§": 1483, "ĠÙĨØ±ÙĬÙĨÙĥ": 4810, "ĠÙĪÙĬØªÙĪØ¨": 6832, "ĠÙĪØªÙģØµÙĬÙĦ": 9988, "ĠØ£ÙĦÙģ": 1937, "ĠÙĬØ¨Ø§ÙĬØ¹ÙĪÙĨ": 7002, "ĠÙħÙĨÙĬØ¨": 4724, "ĠÙĦÙĬØ³ÙĪØ§": 8836, "ĠØ¹Ø°Ø§Ø¨ÙĬ": 2734, "ĠÙħØ³ÙĨÙĪÙĨ": 6995, "ĠØ£ÙħØ±ÙĬ": 2928, "Ø§Ø¸ÙħÙĬÙĨ": 9832, "ĠØ¨Ø£ÙĦØ³ÙĨØªÙĩÙħ": 9999, "ĠÙģØ§Ø¹ÙĦÙĬÙĨ": 3903, "ĠÙĪØ§ÙĦØ³": 1114, "ÙģØ¸ÙĪØ§": 6846, "ĠÙĬØ¨Ø®": 4369, "ĠÙĬØŃØ¶": 8169, "ĠÙĪÙĬÙĪÙĦØ¬": 4902, "ĠÙģØ³Ø§Ø¯Ø§": 6393, "ĠØ°ÙĨ": 1642, "ĠÙħØ¨Ø´Ø±ÙĬÙĨ": 5266, "ĠÙĬØªÙĪÙģÙĪÙĨ": 6802, "ĠÙĦØ´Ø±Ùĥ": 7307, "ĠØ³ÙĨØ§": 7657, "ĠÙĨÙĤÙĬØ±Ø§": 9460, "ĠÙĦÙģØ§Ø³": 10057, "ĠÙĪØªØ±Ùī": 2232, "ĠØ¹Ø¯Ø§": 4727, "ĠÙĬØ¬Ø§Ø¯ÙĦÙĪÙĨ": 3399, "ÙĦÙĬÙĥÙħ": 3538, "ĠÙħØ«ÙĦÙĩØ§": 4274, "ĠØŃÙĬ": 4851, "ĠØ°ÙĦØ©": 4894, "ĠØ§ÙĦØ®ÙĪØ§ÙĦÙģ": 10302, "ĠØ¯ÙĥØ§": 6007, "ĠØ§ÙĦÙĥØ¨Ø±ÙĬ": 8030, "Ø¸Ø±ÙĪØ§": 1418, "Ø£ØªÙħ": 5737, "ĠÙĨØªØ¨Ø¹": 3160, "ĠÙĥØ§ÙĨ": 160, "Ø¨ÙĬÙĨ": 239, "ĠÙĪÙĬØ²ÙĬØ¯": 3611, "ĠØ³Ø§ØŃØ±": 3168, "ĠØ£Ø®Ø°Øª": 8979, "ĠÙĪØ¨Ø±Ø²ÙĪØ§": 9626, "Ø¨Ø±Ø©": 3234, "ĠØ¨Ø¹Ø¯Ø§": 5005, "ĠØ¬Ø¹ÙĦÙĨØ§Ùĩ": 3347, "ĠÙĪÙĦÙĨ": 944, "ĠØºÙĦÙģ": 8039, "ÙģØ§Ø²": 7401, "ĠÙĪØ§ÙĦØ£Ø¨Ø±Øµ": 8167, "ĠÙĬÙģÙĦØŃÙĪÙĨ": 8740, "ĠÙĩØ¨": 4813, "ĠØ±Ø§Ø¨Ø¹ÙĩÙħ": 9952, "ĠÙĬØªÙĪÙĥÙĦ": 6121, "ĠØªØ³ØªØ¹Ø¬ÙĦÙĪÙĨ": 3349, "ØªÙĦÙģÙĪÙĨ": 1738, "ĠÙĪØ³ÙĪÙģ": 4321, "ĠØŃÙĦØ§ÙĦØ§": 4860, "ÙĨØªÙĬÙĨ": 2981, "ĠÙħÙĦØ¬Ø£": 10169, "ĠØ¨ÙĦØ³Ø§ÙĨÙĥ": 10003, "ĠÙħØµØ¯ÙĤ": 3942, "ĠØ£Ø¨ØµØ§Ø±": 2019, "ÙĨØ§Ùĥ": 2662, "Ø²ÙĦÙĪØ§": 5821, "ĠÙĪØ£ØµØ¨ØŃ": 9001, "Ø±Ø§Ùĩ": 2084, "ÙĩØ§Øª": 5810, "ĠØ§ÙĦÙħØ´Ø±": 2907, "ĠÙĪÙĨØŃÙĬØ§": 8256, "ĠÙĬÙĪÙħØ¦Ø°": 677, "ĠØ£Ø²ÙĪØ§Ø¬ÙĩÙħ": 4386, "Ø®ÙĦÙĬ": 5796, "ÙĤØµÙĩØ§": 9219, "Ø´Ø±ÙĪÙĨ": 1450, "ĠÙħÙĥØ§ÙĨØ§": 2832, "ĠØ®Ø·Ø§ÙĬØ§": 6968, "ÙĬÙħÙĨ": 3071, "ĠÙħÙĦØ¬": 6804, "ØŃØ´": 1278, "ĠÙĪØ£ÙĨØ§": 1159, "Ø¯Ø¯": 3466, "ÙĪØ§ÙĦ": 559, "ĠØŃØ¨Ø§": 3182, "ĠÙĬØªØ³Ø§Ø¡": 3242, "Ø´ÙģÙĨØ§": 3369, "ĠØ§ÙĦØ£Ø³ÙĪØ§": 7815, "ĠØ§ÙĦØ£ØµÙģ": 7817, "ĠÙĪÙĦÙĬ": 467, "Ø¨ÙĬÙĨØ§Øª": 1033, "ĠÙĬØ¨Ø´Ø±Ùĥ": 8863, "ĠÙģØ£ÙĪÙĦÙī": 6013, "Ø¨ÙĬÙĪØªÙĩÙħ": 8027, "ĠÙĤØ§ÙĦÙĪØ§": 255, "ĠÙĦÙĩÙħ": 187, "Ø®Ø±ÙĪÙĨ": 1631, "ĠØ°ÙĥØ±Ùī": 3749, "ĠÙģÙĪØ±Ø¨Ùĥ": 10050, "ĠØªØ£Ùĥ": 1236, "ĠØ§ÙĦÙħØ´Ø§Ø±ÙĤ": 10251, "ĠÙĬØµÙĬØ¨ÙĩÙħ": 6905, "ĠØ¸ÙĦØ§ÙĦ": 5024, "Ø§ØµØ©": 8681, "ĠÙĬØ£ÙħØ±": 2379, "ĠØ¨ÙħÙĬ": 7362, "ĠØ§ÙĦØ¢": 1929, "ĠÙĪØ§ÙĦÙĨ": 767, "ĠÙĦØ±Ø¡ÙĪÙģ": 4563, "ĠÙĬÙĨØ§Ø¯ÙĪÙĨ": 5416, "ĠÙĪÙĪØ¶Ø¹": 5308, "ĠØ£ÙĪØŃÙĬ": 2712, "Ø°": 69, "ĠØ§ÙĦÙĨØ¬ÙĪÙī": 5434, "ĠÙĪØ§ÙĦØ£": 278, "ĠØ¨Ø®ÙĦØ§ÙĤ": 6634, "ĠÙĦÙĦÙĨØ¨ÙĬ": 8147, "Ø¯Ø®ÙĦÙĥÙħ": 6666, "ĠÙĪØ±ØŃÙħ": 8472, "ĠÙĦØ¹ÙĦÙħ": 7301, "Ø§ÙĦ": 52, "ĠØ£ÙĨØ²ÙĦØª": 2771, "ÙģÙĬÙĩØ§": 6285, "ĠØªØ±Ø§Ø¶": 5023, "ĠØ¨ÙĬØªÙĬ": 6448, "ĠØ§ÙĦØŃÙħ": 908, "ĠÙĪØ¬ÙĪÙĩ": 1121, "ĠÙĥØ±ÙĬÙħ": 1539, "ĠØ§ÙĦÙĨØ§ØµØŃÙĬÙĨ": 6085, "ĠÙĪØ£Ø¨ØµØ§Ø±ÙĩÙħ": 5520, "ĠÙĪÙģØ§Ø±": 7152, "Ø¯Ø¹ÙĪÙĩÙħ": 6747, "ĠØ¨ÙħØ¨Ø¹ÙĪ": 8915, "ĠÙĥØ£ÙĨ": 1314, "ÙĦÙĪÙĨØ§ÙĩÙħ": 7930, "ĠÙģØ±Ø¬Ø¹": 8445, "ĠØ¨ÙĦØºØª": 4463, "ĠØ§ÙĦÙĨØ§Ø³": 314, "ÙĥØ±ÙĪÙĨ": 504, "ĠÙħØ°ÙħÙĪÙħØ§": 9741, "ØµÙĬØ¨": 3149, "Ø¶ÙĦ": 385, "ÙĨÙī": 1083, "ĠØ·ÙĬÙĨ": 2961, "ĠÙĪÙĦÙĥÙħ": 1577, "ĠØ¸ÙĦ": 6189, "ĠÙħØ¹Ø¯ÙĪØ¯Ø§Øª": 7036, "ĠÙĬØµØ¯ÙĪÙĨ": 3754, "ĠÙħØ®ÙĦØµØ§": 5515, "ĠÙĬØ³Ø¨ØŃ": 2062, "Ø´ÙĬÙĩÙħ": 5828, "ĠØ£Øµ": 444, "ØŃÙĬÙĬ": 2020, "ĠÙĪØ£ÙħÙĦÙĬ": 9186, "ĠØ£ÙĪØ¹Ø¬Ø¨ØªÙħ": 10265, "ĠØ£Ø¬": 392, "Ø§Ø¨ÙĩØ§": 3558, "ÙģØ§ÙĤ": 6246, "ÙĥÙĨØ©": 7173, "ĠÙĦÙĬÙĤÙĪÙĦÙĨ": 1923, "ĠØ¶ØŃØ§ÙĩØ§": 8340, "Ø±ÙĬÙĤ": 3222, "ĠØªØ³ØªØ·ÙĬØ¹": 5253, "ĠÙĪØ£Ø·ÙĬØ¹ÙĪØ§": 1964, "ĠØ¢ÙĬØ§ØªÙĩ": 1125, "ÙĤØ¨ÙĪØ§": 5700, "ĠÙħØ³ØªÙĤØ±Ø§": 5435, "ĠÙĬØ®ÙĪÙģ": 8467, "ĠØŃØ³Ø§Ø¨ÙĩÙħ": 4476, "ĠØ§ÙĦÙĪØ±": 7129, "ÙĥÙģØ±ÙĪÙĨ": 4429, "Ø¹Ø§Ø±": 7224, "ĠØ§ÙĦÙĬØªØ§ÙħÙī": 4454, "ĠÙħØ±": 450, "ÙĪÙĪØ§": 4589, "ĠÙħØ³ÙĪØ¯Ø§": 8519, "ĠØ§ÙĦÙĨØµØ§Ø±Ùī": 5027, "ĠØ£Ø¯Ø¹ÙĬ": 8846, "ĠÙģØ±Ø¶": 3107, "ĠØ¨Ø§ÙĦØŃ": 3601, "Ø³": 64, "ĠØ³ÙĪØ¡Ø§": 3789, "ĠØªØ¹Ø«ÙĪØ§": 4303, "ØŃØ§Ø¨": 548, "ĠÙĪÙħØ«ÙĦØ§": 9886, "ĠØ£ÙĬÙħØ§ÙĨ": 4205, "ĠÙĪÙĦÙĥÙĨ": 449, "ĠØ®Ø·ÙĬ": 4104, "ĠÙĦÙħØ§": 608, "ĠØ§ÙĦØ³ÙĪØ¡": 1973, "ĠØªÙģØ³": 3135, "ĠØ¬Ø§Ø¡ÙĪØ§": 3662, "ĠØ§Ø³ØªÙĥ": 5125, "ĠØ¨Ø·Ø´": 5288, "ĠØ±Ø¨ÙĥÙħ": 495, "ÙĬØ§Ø±Ø©": 5973, "ĠØ¹Ø¶": 7434, "ĠØªØ¯Ø¹ÙĪÙĨØ§": 9128, "ĠÙĤØ¨ÙĦØªÙĩÙħ": 8212, "ĠÙĬØ¯Ø®ÙĦÙĪÙĩØ§": 9558, "ĠÙĪØ§Ø¨ØªØº": 4436, "Ø²Ø¹ÙĨØ§": 4786, "ĠÙĪÙĬØŃÙĤ": 5984, "ĠÙĪØ§ÙĦÙħØ³": 1788, "ĠÙĦÙĬØ£ÙĥÙĦÙĪÙĨ": 10112, "ĠØ£Ø³Øª": 3950, "ĠØ£Ø®Ø§ÙĩÙħ": 3000, "Ø¨ÙĨÙĬ": 3087, "ĠØªÙĪØ¨ÙĪØ§": 4541, "ĠÙĬØ´Ø¥": 8202, "ĠÙģØ±ÙĬØ¶Ø©": 4415, "ĠØ§ÙĦÙĬÙĩÙĪØ¯": 3049, "Ø²ÙĬØ¯": 1956, "ÙĬØ¶": 4582, "ĠØªØ´Ø±ÙĥÙĪØ§": 6925, "ĠØ³Ø§ÙģÙĦÙĩØ§": 10242, "ĠÙĪØ®ÙģÙĬØ©": 9070, "ĠØªÙĤÙĪÙħÙĪØ§": 9467, "ĠÙģÙĤØ·Ø¹": 8621, "ĠØ·Ø§Ø¹Ø©": 6209, "ĠÙĪÙĬØ°Ø±ÙĪÙĨ": 5986, "ĠØ±Ùĩ": 4050, "Ø´Ø§Ø¡": 5825, "ĠØ¥ÙħÙĦØ§ÙĤ": 7387, "ĠÙĦØ®Ø§Ø³Ø±ÙĪÙĨ": 6823, "ĠÙĥØªØ§Ø¨Ø§": 2247, "ĠØ£ØºØ±ÙĤÙĨØ§": 4642, "ĠÙĬØ±ÙħÙĪÙĨ": 6160, "ĠØ¨Ø¹Ø¶ÙĥÙħ": 1531, "ÙĩÙĬÙĨ": 1425, "ĠÙĨØ¹Ùħ": 786, "ĠØ§ÙĦØµØ§Ø¹ÙĤØ©": 6101, "ĠØ¨ÙģØ§": 3492, "ÙĬØ«": 531, "ĠÙĬÙĪØ³Ùģ": 1485, "ĠÙĦØ¨ÙĨÙĬ": 3786, "ĠØ§ÙĦÙħØ¯": 4082, "ĠØŃÙĤ": 958, "ĠØ«ÙĤ": 2353, "ĠÙĤÙħ": 5785, "Ø²Ø¹ØªÙħ": 6711, "ĠÙĦØ¹ÙģÙĪ": 8758, "ĠÙĤØ¯Ø±": 2233, "ĠÙģØªÙĪÙĦ": 6226, "ĠØ§Ø¹ÙĦÙħÙĪØ§": 6063, "ĠÙģØ£ÙĪØ¬Ø³": 7957, "ĠØ§ÙĦÙħØ§ÙĥØ±ÙĬÙĨ": 9919, "ĠØªÙģØ³Ø¯ÙĪØ§": 5488, "ĠÙĬÙĩØ±Ø¹ÙĪÙĨ": 10202, "ĠÙĪÙĦÙĨØ¬Ø²ÙĬÙĨÙĩÙħ": 7031, "ĠØºØ¯Ø§": 4961, "ĠÙħØ§ÙĦØ§": 3094, "ĠØ£ÙģØ¦": 5048, "ĠØ§ÙĦØºØ§ÙģÙĦÙĬÙĨ": 8525, "ĠÙĨØ±Ø³ÙĦ": 4805, "ÙĪØ¯Ùĩ": 2546, "ĠÙģØ£ÙĤÙħ": 7953, "ĠØ§ÙĦÙħØµ": 2494, "ĠÙĬØ·ÙħØ«ÙĩÙĨ": 10317, "Ø¨Ø±Ø§ÙĩÙĬÙħ": 644, "ĠØ£ÙĩÙĦÙĩ": 1999, "ĠØªÙĥØ°Ø¨": 912, "ĠØ¯Ø§ÙħØª": 10101, "ĠÙĬØ¶Ø§Ø¹Ùģ": 3354, "Ø¸Ø±ÙĨÙĬ": 6379, "ĠÙģØ£ÙĪØŃÙĬÙĨØ§": 9866, "ĠØ§ÙĦØª": 882, "ĠØ¥Ø³ÙħØ§Ø¹ÙĬÙĦ": 5724, "ĠÙĪØ£ØŃØ³ÙĨ": 2904, "ÙħÙĪÙĨ": 545, "ĠØ¨ÙĬÙĨØ§Øª": 1813, "ĠÙĦÙĦÙħØ¤ÙħÙĨÙĬÙĨ": 1903, "ĠÙĥØ«ÙĬØ±Ø©": 2420, "ĠØ£ØªØ±": 3750, "ĠØ£Ø¦ÙħØ©": 4533, "´": 22, "ĠØ£Ø¹ÙĬÙĨÙĩÙħ": 3854, "ĠØ§ÙĦÙĨØ®ÙĦ": 5026, "ĠØŃØ³Ø§Ø¨Ø§": 5201, "ĠØ£Ø±Ùĥ": 7240, "ĠØªØŃØ·": 8396, "Ø¨Ø§Ø¦": 3447, "Ø¹ÙĦÙĪÙĨ": 2087, "ĠÙĬØ³ØªØºÙģØ±ÙĪÙĨ": 8456, "ĠØ¥ÙĦÙĩÙĬÙĨ": 8589, "ĠÙĬØªØ¶Ø±": 8121, "ĠÙħØªÙĥ": 2783, "ĠØ£Ø®ÙģÙĬ": 8651, "ĠÙĪÙĥÙĨØªÙħ": 2941, "ĠØªØ±ÙĬØ¯ÙĪÙĨ": 4239, "ĠÙģØ´Ø§Ø±Ø¨ÙĪÙĨ": 10196, "ĠÙĪØ§ÙĩØ¬Ø±": 6114, "ĠØªØ¹ØªØ¯ÙĪØ§": 6902, "ĠØ£ØªÙĬÙĨØ§": 4641, "ĠØ£ÙĨØ¹ÙħÙĨØ§": 6737, "ĠØ£Ø¹ÙĨØ§": 2993, "ĠØ¬ÙħÙĬÙĦØ§": 5210, "Ø®ÙĦÙĪØ§": 926, "ĠÙħÙĦØªØŃØ¯Ø§": 9807, "ĠØ§ÙĦØ°ÙĩØ¨": 7653, "Ø·Ø§Ø³": 6473, "ĠÙĩØ§ØªÙĪØ§": 4817, "ĠÙĬØ±Ø¶": 4675, "ĠØ±Ø¬ÙĦÙĬÙĨ": 4332, "ĠØ´ÙĥØ±ØªÙħ": 9968, "ĠØªÙĤ": 579, "ÙģØªÙĩÙħ": 7397, "ĠÙĪÙĬØªØ®Ø°": 5987, "ĠÙģÙĬÙĥÙħ": 2324, "ĠÙĩÙĪ": 236, "ÙĪÙī": 656, "ØŃÙĬÙħ": 1279, "Ø·ÙĤÙĪÙĨ": 7688, "ĠØ¨Ø¯Øª": 9202, "ĠØ£Ø¬ÙĦÙĩØ§": 6257, "Ø¬ÙĬØ¨ÙĪÙĨ": 9330, "ĠÙĨØ¶Ø±Ø¨ÙĩØ§": 10241, "ĠØ£ÙĦØ³ÙĨØªÙĩÙħ": 6746, "ĠØŃØ§ÙģØ¸ÙĪÙĨ": 7761, "ĠØ¢ØªÙĬÙĨØ§ÙĥÙħ": 6524, "ĠØŃÙĬØ§ØªÙĨØ§": 7009, "ĠØ¯Ø®ÙĦØªÙħ": 6837, "ĠØ¯ÙĪÙĨÙĩÙħ": 5079, "ØŃØ¯": 1561, "ĠÙĪØ¹ÙĦØ§ÙĨÙĬØ©": 5069, "ĠØ£ÙĨØ§Ø³": 4331, "ĠÙģØ§Ø²": 7286, "ĠÙĬØ³ØŃØ¨ÙĪÙĨ": 8491, "ĠÙĦÙģÙĬ": 1133, "ĠÙĦØ²ÙĦÙģÙī": 10198, "Ø§Ø¦ÙĩÙĨ": 8065, "Ø¬Ø±Ø©": 1525, "ĠØ³ÙĦØ·Ø§ÙĨØ§": 2416, "ĠØ¶Ø±Ø¨ÙĨØ§": 6676, "ÙĨØ§Ùģ": 1312, "ĠØ§ÙĦÙħØ¨ÙĬÙĨ": 1400, "ĠØªÙĤÙĬØ§": 6398, "ĠÙħØª": 710, "ÙĦÙĤÙĬ": 4161, "ĠÙĦØ¢ÙĥÙĦÙĪÙĨ": 8974, "ĠØ§Ø´": 1596, "ĠØ§ÙĦØ¨Ø´Ø±": 8540, "ĠÙĬÙģØ³ÙĤÙĪÙĨ": 4525, "ĠØ³Ø§Ø¨": 3563, "ĠÙĬØ±Ø¶Ùī": 4686, "ĠØ«ÙħÙĨØ§": 2517, "ĠØ£Ø«Ø±": 7238, "ĠØ§ÙĦØ³ÙĥÙĬÙĨ": 7878, "ĠØ¨Ø§ÙĦØµÙĦØ§Ø©": 6854, "ĠÙģØ®Ø°ÙĪÙĩÙħ": 9636, "ĠØ¨Ø§ÙĦØ³ÙĬØ¦Ø©": 4570, "Ø¬Ø¹ÙĦÙĩ": 3021, "Ø¨ÙĦÙĪÙĥÙħ": 3641, "ĠØ®Ø§ÙĦØ¯ÙĬÙĨ": 880, "ĠÙħØ¹ÙĦÙĪÙħ": 2830, "ĠØ§Ø¦ØªÙĪÙĨÙĬ": 4490, "ÙĪØªÙĩÙħ": 5574, "ĠÙĤÙĦØ¨Ùĥ": 5997, "ĠØªØºØ±ÙĨÙĥÙħ": 10222, "ĠØ¨Ø±Ø²ÙĪØ§": 8855, "ĠØ¨ÙħØ¨Ø¹ÙĪØ«ÙĬÙĨ": 10310, "ÙĬØ§Ø¨": 2438, "ĠØ¨Ø®ÙĦÙĪØ§": 7370, "ĠØ¬ÙĬØ¨": 7772, "Ø¶": 102, "ĠÙĪÙĤÙĪÙĦÙĩÙħ": 6031, "ĠØ§ÙĦØ¬Ø¨": 8282, "ĠØ£ÙĦÙĬ": 1217, "ĠØ¬Ø¯ÙĬØ¯Ø§": 9664, "ĠØ§ÙĦÙħØ®": 5889, "ĠØ¨Ø®Ø¨Ø±": 9159, "ĠØ§ÙĦØ¹ØªÙĬÙĤ": 10273, "ĠØŃÙĪ": 7752, "Ø³ÙĪÙĩ": 7261, "Ø¨Ø¯": 250, "ĠÙģØ§Ø³ØªÙģØªÙĩÙħ": 8937, "ĠØ§ÙĦÙĨØµØ±": 6192, "ĠØŃÙģÙĬØ¸": 3876, "ĠÙĪØ±Ø¨Ùĥ": 2412, "ĠØ±Ø³": 353, "ĠØ²ÙģÙĬØ±": 8418, "ĠØªØªÙĪÙĦÙĪØ§": 5120, "ÙĬØ©": 337, "ØºØ±": 978, "Ø£Ùī": 5736, "ĠÙĪÙĦÙĬØ²ÙĬØ¯": 8554, "ĠÙĦØºÙĨÙĬ": 9130, "Ø§Ùħ": 598, "ĠÙĪØ¢Ø«": 6360, "ĠØ§ÙĦØµØ§ÙĦØŃ": 561, "ĠØ§ÙĦÙħØ§": 4601, "ĠØ¶ÙĦØ§ÙĦØªÙĩÙħ": 8986, "ĠØ£Ø¹ÙĤØ§Ø¨": 5141, "Ø·ÙĦÙĪØ§": 7687, "ĠÙĪØ§ÙĦÙĪÙĦØ¯Ø§ÙĨ": 7607, "Ø¬Ø±ÙĬ": 5773, "ÙģØ±ÙĪÙĨ": 2083, "ÙĪØ¯ÙĩÙħ": 8286, "ÙĪØ±ÙĩÙĨ": 3635, "ĠØªØ£ÙħØ±ÙĪÙĨ": 4310, "ĠÙģÙĦÙĩÙĨ": 7288, "ĠÙĪØ¥Ø³ØŃØ§ÙĤ": 2705, "ĠØ£ÙĨØµØ§Ø±": 2887, "ĠØ§ÙĦÙĨÙĩØ§Ø±": 1298, "ĠÙĪÙĬÙĥ": 3205, "Ø¨Ø³": 4618, "ĠØ£ÙħØ³Ùĥ": 4916, "ĠØ¥ÙĬÙħØ§ÙĨÙĩ": 9161, "ØµÙĪÙĨ": 2325, "ĠÙĪÙĥØ°Ø¨": 1809, "ÙĤØ§ÙĨ": 2650, "ĠØ£ØŃØ³ÙĨØªÙħ": 10132, "ĠÙħØªÙĤØ§Ø¨ÙĦÙĬÙĨ": 5557, "ĠÙĪØ§ÙĤØ¹": 6112, "ĠÙĥØ®": 5777, "ĠØ¬Ø§Ø«": 3584, "ĠÙĪØ£ÙĪÙģÙĪØ§": 4080, "Ø·ÙħØ¦ÙĨ": 3407, "ĠØ³Ø§Ø¦": 3564, "ĠØªØ±ÙĪÙĩØ§": 6188, "ĠØ§ÙĦØ³Ø§ØŃØ±": 7880, "ĠÙĪØ¨Ø¯": 5600, "Ø§Ø¬Ø¯": 1749, "ĠØ¨Ø³Ùħ": 442, "ÙģØ³Ø¯ÙĬÙĨ": 1647, "ĠÙĪØ¹ÙĬØ¯": 6239, "ĠÙĦØ¬Ø¹ÙĦÙĨØ§Ùĩ": 10026, "ĠÙģØ§Ø±ØªÙĤØ¨": 10165, "ĠØ§ÙĦÙħØ¬Ø±ÙħÙĪÙĨ": 2082, "ĠØ¨Ø¢ÙĦÙĩØªÙĨØ§": 9286, "ĠÙĩÙĬÙĨ": 7645, "ĠØ²ÙĬÙĨØªÙĩÙĨ": 6661, "ĠÙħÙģØ§Øª": 6909, "ĠØ§ÙĦÙĨÙĥØ§": 6193, "ĠÙĪÙĪÙĦØ¯Ø§": 10039, "ĠØ¶ÙĦÙĪØ§": 2749, "Ø¨ÙĦØ¯": 3640, "Ø§ÙģÙĪÙĨ": 1655, "Ø³ØªØ¨Ø±ÙĤ": 5549, "ĠÙģØ¹ÙĨØ¯": 8996, "ĠØ£ÙĪØ±Ø«": 5976, "ĠÙģÙĤÙĪÙĦØ§": 6357, "ĠØ£ØµØ§Ø¨ÙĩÙħ": 4423, "ĠØ£ÙħÙĪØ§ÙĦØ§": 8953, "Ø£ÙĦÙĨ": 3351, "ĠØ£Ø£ÙĨ": 5645, "Ø±Ø¡": 1928, "ĠÙģØ§ÙĦØªÙĤ": 8901, "ĠÙĪØ§ÙĦØ±ÙħØ§ÙĨ": 9836, "ĠØ¥Ø¨ÙĦÙĬØ³": 2436, "Ø±ÙģÙĪÙĨ": 2248, "ĠØ±Ø¢Ùĩ": 5489, "ĠÙĬØŃÙħ": 6146, "ĠØ§ÙĨØªÙĩÙĪØ§": 5205, "ĠØª": 86, "ĠØ§ÙĦØ±Ø§ÙĥØ¹ÙĬÙĨ": 10038, "ĠÙĥØ§ÙĦØ£": 6535, "ĠÙĬÙĥØ³Ø¨": 6236, "ĠÙģØ±Ø¶ØªÙħ": 9697, "ĠØ£Ø¬Ø¦ØªÙĨØ§": 4271, "ĠØ£ÙħÙĥ": 5999, "ĠØ¢ØªÙĬØ©": 9145, "ĠÙĬÙĤØ§ØªÙĦÙĪÙĥÙħ": 4339, "ĠÙĬÙĪØµ": 8675, "ĠØ®Ø·ÙĪØ§Øª": 4485, "ĠÙĬØ®": 425, "ĠØ£ÙģØ±Ø£ÙĬØª": 5397, "ĠÙĬØ¹ÙĤØ¨": 8381, "ĠØ¬ÙĦ": 3190, "ĠØ§ØµØ·Ùģ": 9438, "ĠÙĦÙĩÙħØ§": 2516, "ĠØ§ÙĦØ£Øµ": 5936, "ĠØ¹ÙĩØ¯": 1693, "ÙĥØ©": 7170, "ĠÙĤØ·Ø¹": 4760, "ĠØªÙħØª": 2469, "ĠÙĦÙĬØ²": 6053, "ĠØªÙĦÙĤÙĬ": 9480, "Ø£Ø®Ø°": 2870, "Ø¹ÙĦÙħÙĪØ§": 1052, "ĠØºØ´ÙĬÙĩÙħ": 8045, "ĠØ±Ø³ÙĪÙĦØ§": 1374, "ĠÙģØ¬Ø§Ø¡ÙĪÙĩÙħ": 9902, "ĠÙĬØ±Ø¬Ø¹": 4226, "ĠØ§ÙĦØ¨ÙĦØ§Øº": 2431, "Ø«ÙĦ": 1117, "ĠÙĬØºÙĦØ¨ÙĪØ§": 5199, "ĠØ´ÙĤÙĬØ§": 5934, "Ø±ØªÙħ": 4599, "ĠÙħÙĥØ§": 2631, "ÙĦØª": 530, "ĠÙĪØ£Ø¯Ø¨Ø§Ø±ÙĩÙħ": 10083, "ĠØªÙĥÙĪÙĨÙĨ": 2784, "ĠØ£Ø¨ØµØ§Ø±ÙĩÙħ": 2825, "ĠÙĬÙĨØ²": 4207, "Ø·ÙĬØ¹ÙĪØ§": 1303, "ĠÙĥÙĦÙĪØ§": 1857, "ÙĩØ±Ø§": 5580, "ĠØ¨Ø§ÙĦÙħØª": 7852, "ĠØ¥ÙĨÙĩ": 373, "ĠØªØ¬Ø§Ø¯ÙĦ": 8583, "ĠØ§ÙĦØ£ÙħÙĬ": 4877, "Ø±Ø¨": 222, "ĠÙĪØ§Ø³ØªØºÙģØ±": 2148, "ĠØ£Ø³ÙħØ¹": 5646, "Ø§Ø´Ø±ÙĪÙĩÙĨ": 6572, "ĠØ²": 394, "ĠØ§ØªØ¨Ø¹Ùĥ": 5250, "ĠØŃØ´Ø±": 4854, "ĠØµÙĦØµØ§ÙĦ": 5523, "ĠÙĬÙĤØªÙĦ": 3983, "ĠØ§ÙĦØ£Ùħ": 1143, "ĠØ¨Ø§ÙĦÙĨ": 4129, "ĠØ£Ø´Ø¯": 1000, "ĠÙħØµÙģØ±Ø§": 6586, "ĠØªØµØ¨Ùĥ": 8967, "ĠØ§ÙĦØ·": 697, "ĠØ£Ø¬Ø§Ø¬": 8408, "ĠØ§ÙĦÙĨØ¨ÙĬÙĬÙĨ": 2793, "ÙĪØ©": 861, "ĠÙģØ¯Ø¹ÙĪÙĩÙħ": 7297, "Ø¬ÙĬÙĨØ§Ùĩ": 2074, "ĠÙģØ¥Ø°": 7994, "ĠÙĪØ§ÙĦØ¬": 2075, "ĠÙģØ¹Ø³Ùī": 4396, "ĠØ¨ÙĬÙĪØª": 1537, "ĠØ£ÙħØ±Ùĩ": 2563, "ĠÙĪÙħÙĦØ§Ø¦Ùĥ": 4280, "ĠØªØ£Ø®Ø°": 3722, "ĠØ¨Ø¹Ø¯ÙĬ": 5006, "ĠÙĥÙĩÙĬ": 7520, "ĠÙĨØ¹ÙħØª": 3018, "ĠÙĪØªØ¹Ø§ÙĦÙī": 3250, "ĠØªØ³Ø¨ÙĤ": 10221, "ĠØµØº": 6036, "ĠØ¨Ø¯ÙĬÙĨ": 5714, "ĠÙģØ§Ø³ÙĦÙĥ": 6564, "ĠØ«": 174, "ĠØ£ÙĪØŃÙī": 6712, "ĠÙĥØ±Ùĩ": 2584, "ÙĥÙĬ": 7167, "ĠØ¥ÙĦÙĬÙĩÙĨ": 8092, "Ø§ÙĤÙĪÙĨ": 7075, "ĠÙħØ¹Ø±ÙĪÙģØ§": 3865, "ĠÙĦØ§Ø¨": 5681, "ĠØ£ÙĤØ³Ø·": 8879, "ĠØ£Ø¨ÙĨØ§Ø¦ÙĩÙĨ": 10147, "ÙģØªØŃÙĨØ§": 9435, "ĠÙĪØ§ÙĦÙħØŃØµÙĨØ§Øª": 6377, "ĠÙĪÙĨØµ": 5029, "ĠØ³ÙĬÙĤÙĪÙĦ": 5176, "ĠÙĦÙĦÙĬ": 5680, "ĠØ³Ø±ÙĤ": 9365, "ĠØ£ÙĩÙħ": 4636, "ĠÙĪØ§ÙĦØ®ÙĬÙĦ": 9571, "ÙĥÙĬÙĩÙħ": 3437, "ĠØ³Ùĥ": 3561, "ĠØŃØ³Ø±Ø§Øª": 9965, "ĠØ¨ÙĨ": 1350, "ĠÙĦØ¬": 1765, "Ø¨Ø§Ùĩ": 5070, "ĠØ£Ø¹": 502, "ĠÙĨÙĪØ±ÙĩÙħ": 7631, "ĠÙĪØ§Ø´Ø±Ø¨ÙĪØ§": 3839, "ĠÙģÙĥØ§ÙĨØª": 4469, "ĠØ£Ø¦ÙĨØ§": 9590, "ĠÙĪØ§ÙĦØ²": 4058, "ĠÙĦØ¨Ø«ÙĨØ§": 9405, "ĠÙĬÙĪÙģÙĪÙĨ": 9638, "ĠØ¨Ø§ÙĦØ³ÙĬ": 4132, "ĠÙĦØ¢ØªÙĬÙĨØ§": 8972, "ĠÙĤÙĪÙħØ§": 947, "ĠØ£ÙĨØ´Ø£": 1958, "ĠÙĪØ£ÙĨØ¹Ø§Ùħ": 8263, "ĠÙĪØ£ÙħÙĪØ§ÙĦÙĩÙħ": 6988, "ĠÙĬØ£ØªÙĬÙĥÙħØ§": 8845, "ĠÙĨØ±Ø§Ùĥ": 4806, "Ø§Øº": 886, "ĠØŃÙĤØª": 4090, "ĠÙĬØªÙĤÙĪÙĨ": 1649, "Ø«ÙĬÙĨ": 4824, "ĠØ§ÙĦØ³": 163, "ĠØ³ÙĦØ§ÙħØ§": 3167, "ĠØ¨Ø£ÙĨÙģØ³ÙĩÙĨ": 9108, "ĠÙĪØ¹ÙħÙĦ": 2398, "ĠÙģÙĩØ¯Ùī": 5673, "ĠØ±Ø²ÙĤÙĩ": 5233, "ĠÙĪØ§ÙĦÙħØ³ØªØ¶Ø¹ÙģÙĬÙĨ": 8636, "ĠØ§ÙħÙĥØ«ÙĪØ§": 10277, "ĠØ§ÙĦØ³ØŃØ§Ø¨": 7875, "ĠÙģØ§Ø³Ø£ÙĦ": 3793, "ĠØ§ÙĦØ£Ø¨ØµØ§Ø±": 2703, "ĠØµÙĦ": 4167, "ÙĥØ§Øª": 7171, "Ø§Ø¨Ø±ÙĪÙĨ": 7643, "ĠÙĦÙĦØ³Ø§Ø¦ÙĦ": 9875, "ĠÙĬÙĩØ¯ÙĬ": 824, "ĠØ§ÙĦØºØ±ÙĪØ±": 4538, "ĠØºÙĪØ±Ø§": 8040, "ĠÙĨÙĪØŃÙĬ": 5235, "ĠØªÙĪÙĦÙĪØ§": 1356, "ÙĩÙĬØ©": 7117, "ĠÙĪØ§Ø¯": 1756, "ĠØ¹Ø¬Ø¨Ø§": 5346, "ĠÙģØ§ØªØ¨Ø¹": 3028, "ĠØŃÙħØ¥": 6493, "ÙĥØ§": 681, "ĠÙĬØ¶Ø±": 1854, "ÙĪÙģØ§": 8195, "ĠØ¸ÙĦÙħÙĪØ§": 914, "ĠÙģØ§Ø¬Ø¹ÙĦ": 6173, "ĠØ§ÙĦÙħÙĬÙħÙĨ": 5898, "Ø¬Ø±ÙĨØ§": 6153, "ĠØ³Ø¨ÙĬÙĦ": 544, "ĠÙĬØ®ÙģÙģ": 3291, "ĠØ¸Ø§": 3674, "ĠØ£ÙĬÙħØ§ÙĨÙĩÙħ": 1914, "ĠÙĦÙĥØ§Ø°Ø¨ÙĪÙĨ": 2750, "ĠÙħØ®ÙĦÙĤØ©": 9198, "ĠØŃØ§Ø´Ø±ÙĬÙĨ": 6966, "ĠØ£Ø´": 699, "Ø¶Ø±": 734, "Ø¹Ø¯ÙĩÙħ": 2714, "ĠØ´ÙģØ¹": 4110, "ĠØ³ØŃØ±": 1869, "Ø°Ùĩ": 553, "ĠØ°Ø§Ø¦ÙĤØ©": 7060, "ĠÙĪÙĪØŃ": 7149, "ĠØ§ÙĤØªÙĦÙĪØ§": 6064, "ĠÙĪÙĦÙĦÙĨØ³Ø§Ø¡": 9542, "ĠØ§ÙĦÙħØŃØ¶Ø±ÙĬÙĨ": 10084, "ĠÙĦØ´Ø¯ÙĬØ¯": 5448, "Ø¹ÙĦÙĪØ§": 1580, "ĠÙĦÙĬØ¸ÙĦÙħÙĩÙħ": 7063, "ĠÙģØµØ¯ÙĩÙħ": 9749, "ĠÙĤÙħÙĬØµÙĩ": 4565, "ĠÙĥØ«ÙĬØ±Ø§": 860, "ÙĦÙĪØ§Øª": 4965, "ĠÙĬØ¬ØŃØ¯": 6371, "ĠÙħØ«ÙĪÙī": 2756, "ĠØºÙĬØ¨": 3229, "ĠØ¨Ø§ÙĦØ³ÙĪØ¡": 5469, "ĠÙģÙĬÙĨØ§": 3962, "ĠÙĬØ®Ø±Ø¬ÙĥÙħ": 6557, "ĠØµÙĪØ±ÙĥÙħ": 7989, "ĠÙĪØ§Ø³ÙħØ¹ÙĪØ§": 4981, "ĠÙĬØ¹Ø±ÙģÙĪÙĨÙĩ": 10007, "ĠØ§ÙĦØ°ÙĦØ©": 7652, "ĠÙĪÙĦØ¯Ø§": 2085, "ĠÙĬØ¬ØªØ¨ÙĬ": 6375, "ĠØ¨ØºÙĦØ§Ùħ": 5158, "ÙĨØ§ÙĨ": 5748, "ÙĨØ¬ÙĬÙĦ": 2272, "ĠÙħÙĦÙĬÙħ": 7206, "ĠÙĪØ¨Ø§ÙĦØŃÙĤ": 8488, "ĠÙģØ¯ÙħØ±": 9517, "ĠØ¨Ø®Ø§Ø±Ø¬ÙĬÙĨ": 10161, "ĠØ§ÙĦØºÙħØ§Ùħ": 6322, "ĠÙĪØ¢ØªÙĬÙĨØ§Ùĩ": 2812, "ĠÙħØ®ÙĦØµ": 3939, "ĠØ¨Ø§ÙĦØºÙĬØ¨": 2269, "ĠØ§ÙĦÙĥÙĪØ§ÙĥØ¨": 10279, "ĠÙĪØ§ÙĦØ®": 2480, "ĠÙĪØ£Ø¯Ø¨Ø§Ø±": 5883, "ĠØ¨Ø¹ØµØ§Ùĥ": 6115, "ĠØ¨Ø§ÙĦÙĬÙħÙĬÙĨ": 7855, "Ø£ÙĨØ³": 7420, "ĠÙĨØ®Ø±Ø¬ÙĥÙħ": 9958, "ĠØ·ÙĦÙĤ": 2742, "ĠÙħØ¨Ø§Ø±ÙĥØ§": 5537, "ĠÙĦØªØ£ØªÙĪÙĨ": 5130, "ĠÙĪÙĤØ·Ø¹ÙĨØ§ÙĩÙħ": 10275, "ĠØ§Ø°ÙĩØ¨": 4179, "ĠÙģØ£ÙĥØ«Ø±": 7951, "ĠÙĪÙĦÙĨØ°ÙĬÙĤÙĨÙĩÙħ": 10313, "ĠÙĪØ§ÙĦØ£ÙĤØ±Ø¨ÙĬÙĨ": 6934, "ĠÙĪØ£ÙĪØŃÙĬ": 9491, "ĠØ£ÙģØ¨Ø¹Ø°Ø§Ø¨ÙĨØ§": 8313, "ĠÙĬØ³Ø¨": 3976, "Ø¸ÙĬÙħ": 543, "ĠÙĥØ´Ùģ": 7516, "ØªÙĤÙī": 7184, "ĠÙĪØ§ÙĦØ·ÙĬØ¨": 9488, "ĠÙģØ®Ø°ÙĪÙĩ": 9635, "ĠØ§Ø®": 1300, "ÙĪØ§Ùĩ": 1772, "ĠØ¨Ø§ÙĦØ¹Ø¨Ø§Ø¯": 4461, "Ø¨Øª": 516, "Ø±ÙĨØ§": 4597, "ÙĤÙģØ§": 7339, "ĠØ«Ø§ÙĨÙĬ": 7922, "ĠÙĪØ£Ø®Ø±Ø¬": 3176, "ĠØ£ÙĨÙĩÙħØ§": 7584, "ĠÙĪÙĬØ¯Ø®ÙĦÙĥÙħ": 7908, "ĠÙģÙĪÙĤÙĩ": 8941, "ĠÙĦØµØ§Ø¯ÙĤÙĪÙĨ": 5464, "ĠÙĪØ£Ø¬Ø±Ø§": 7729, "ØŃÙĤØ§": 7406, "ĠØ§Ø¶Ø·Ø±": 4540, "Ø¨Ø±ÙĪØ§": 769, "ĠÙĤÙĪÙĦ": 1357, "ĠØ¨Ø±ØŃÙħØ©": 3339, "ĠØ®ÙĦØ§ÙĦÙĩØ§": 9666, "ĠÙĦØ£Ø²ÙĪØ§Ø¬Ùĥ": 10140, "ĠØ´ÙģØ§Ø¹ØªÙĩÙħ": 9971, "ĠØ¯": 181, "Ø²ÙĦÙĬÙĨ": 5002, "ĠØŃÙĤÙĩ": 6550, "ĠØ§ÙĦØ¸Ø§ÙĦÙħÙĪÙĨ": 1336, "Ø¨Ø±Ø§": 525, "ØªÙĬÙĨ": 937, "ØµÙħÙĪØ§": 4776, "ĠØªØ¨Ø§Ø±Ùĥ": 3527, "ĠÙĬØ¹Ø²Ø¨": 8384, "ÙĪÙģØ§ÙĨ": 8197, "ĠÙĩØ§Ø±ÙĪÙĨ": 2266, "Ùħ": 49, "ĠØ¨ÙĩØªØ§": 4947, "ĠØ«ÙħØ§ÙĨÙĬØ©": 6971, "ĠÙĪÙĦÙĦØ¢Ø®Ø±Ø©": 9541, "Ø§Øª": 115, "ĠØªØ£ÙĥÙĦ": 3364, "ĠÙĦÙĦÙĥØ§ÙģØ±ÙĬÙĨ": 1349, "ĠÙĪÙĦÙĥÙĨØ§": 6263, "ĠÙĪØ±Ø³ÙĦÙĩ": 2241, "ĠØ§Ø³ØªØ¶Ø¹ÙģÙĪØ§": 4560, "ĠØ§ÙĦÙĥÙĦÙħ": 4955, "ĠÙĪÙĦÙħÙĨ": 4123, "ĠØ£Ø¬ÙĦ": 1375, "ØªÙĬÙĥÙħ": 3643, "Ø³Ø§Øª": 5655, "ĠØªØ¹ÙĤÙĦÙĪÙĨ": 1338, "ĠÙĦØ¯ÙĨØ§": 3480, "ĠÙħÙĪØ§Ø²ÙĬÙĨÙĩ": 3855, "ĠÙĪÙĦÙĬØ¹ÙĦÙħÙĨ": 6338, "ĠØªÙĩÙĪÙī": 5766, "ĠÙģØ£Ø®Ø°ÙĩÙħ": 2804, "ĠÙĬØ´Ø§ÙĤ": 6168, "ĠØ£Ø´Ø±": 5643, "ĠÙħØ¨ØµØ±Ø©": 6582, "ĠÙģÙĨØ¨Ø°": 4404, "Ø£ÙĦÙĩÙħ": 4010, "ĠÙĨØ°Ø±": 4801, "ĠÙĪØªØ®Ø±Ø¬": 6141, "ĠÙĬØ³Ø¬Ø¯ÙĪÙĨ": 5474, "ĠØªØ¹ÙĦÙĨÙĪÙĨ": 5765, "ĠÙĦÙĪÙĦÙĪØ§": 7310, "ĠÙĬØ£ÙħÙĨ": 8298, "ĠØ±Ø¨": 124, "ĠÙĤØ±ÙĬÙĨØ§": 9223, "ĠÙħÙĪØ«ÙĤØ§": 10125, "ĠÙĨØ¬Ø§ÙĨØ§": 8891, "ĠØµØ§ÙĦØŃÙĬÙĨ": 5239, "ĠØ§ÙĦØŃÙĨØ§Ø¬Ø±": 7934, "ĠÙĦØ²Ø§": 7315, "ĠÙĦØ¦ÙĨ": 1185, "ĠØ¨Ø§ÙĦÙĥØ§ÙģØ±ÙĬÙĨ": 6897, "ĠØ§ÙĦÙħØŃÙĬØ¶": 7050, "ĠÙħÙĨØ°Ø±ÙĬÙĨ": 5744, "ĠÙģØ°ÙĥØ±": 4656, "ĠØ£Ø¬Ø±Ø§": 1414, "ÙĪØ§Ø¯": 4698, "Ø²ÙĨ": 5817, "ØªØ§Ùĩ": 6248, "ØªØ§ÙĨÙĪÙĨ": 9630, "ĠØ³ÙĦØ§Ùħ": 1571, "ÙĤØªÙĦÙĪØ§": 2118, "ĠØ¨Ø§ÙĦØ£ÙģÙĤ": 9429, "ĠØ§Ø³ØªÙĥØ¨Ø§Ø±Ø§": 10013, "ĠÙĪØ§ÙĦØŃ": 2478, "ĠÙĨØ´Ø±Ùĥ": 5841, "ĠÙĪØ£ÙĪØ±Ø«": 3574, "ĠØ´Ø±ÙĥØ§Ø¡": 2150, "ĠÙĦÙĦÙħÙĦØ§Ø¦ÙĥØ©": 2778, "ĠØ§ÙĦØ¨ÙĬØ¹": 6679, "ĠØªÙĨØ§": 4020, "ĠØ§ÙĦØŃØ³ÙĨÙī": 2165, "ÙħÙī": 1846, "ĠÙĪØ¨ÙħØ§": 3705, "ĠØ§Ø¦ØªÙĪØ§": 9383, "ĠØ§ÙĦØ¹ÙħØ±": 5462, "ĠÙĪØ¢Ø®Ø±": 3082, "ĠØŃØ³Ø¨Ø§ÙĨØ§": 9299, "ÙĬØ¨": 267, "ĠØŃØ¯Ø§Ø¦ÙĤ": 9040, "ĠÙĪØ£ÙĦØŃÙĤÙĨÙĬ": 9962, "ĠØ¯Ø§Ø¦": 3618, "ĠØ¯ÙĬÙĨÙĬ": 9002, "ĠÙģÙĬØ¹Ø°Ø¨Ùĩ": 7544, "ĠØ¹Ø±": 3514, "ĠÙĪÙĨÙħ": 6195, "ĠØ¹ÙĤØ¨ÙĬÙĩ": 6890, "ĠØŃØ±Øµ": 8866, "Ø«Ùī": 1637, "ĠØ£ÙħØ«Ø§ÙĦ": 2929, "ĠØ¨Ø´ÙĬØ¡": 3498, "Ø¹ÙĦÙĪÙĩ": 7864, "ĠØ£ÙģØ¦Ø¯ØªÙĩÙħ": 10002, "ĠÙĪÙĩÙĦ": 6553, "ĠØ³ÙĪÙĬ": 7670, "ĠÙģØ³ÙĬ": 3001, "ĠØŃÙħÙĦÙĨØ§": 4362, "ĠØ§ÙĦØ´Ø§ÙĩØ¯ÙĬÙĨ": 3686, "ĠØ®Ø·Ø£": 9372, "ØºÙģØ±": 443, "ĠÙĦÙĦÙģÙĤØ±Ø§Ø¡": 6137, "°": 18, "ĠÙħÙģØ±": 5628, "ĠØªØ´ØªÙĩ": 8833, "ĠÙĨÙĤØµ": 2895, "ĠØ£Ø¬ÙĪØ±ÙĩÙĨ": 3692, "ĠÙĬÙĤØ±Ø¡ÙĪÙĨ": 8739, "ĠÙĥØ§Ø´": 4035, "ĠØ§ÙĦØŃØ±Ø§Ùħ": 1366, "ĠÙģÙĦÙĨØ£ØªÙĬÙĨ": 9017, "ĠØ¨Ø§ÙĦØ³Ø§Ø¹Ø©": 9667, "ĠÙĨÙģØ³ÙĩØ§": 8575, "ĠÙĪØ£ÙĨØ¨Øª": 8262, "Ø¹ÙĦÙĩØ§": 7226, "ĠÙģÙĤØ§ÙĦ": 859, "Ø´ÙĤÙī": 7582, "ĠØ§ÙĦÙĤØ±Ø¢ÙĨ": 890, "ĠÙĬØ£ØªÙĬÙĨØ§": 8299, "ĠÙĪÙĬÙĨØ°Ø±ÙĪÙĨ": 9155, "ĠØ³Ø£ÙĦ": 2335, "ÙĪØ±ÙĩÙħ": 1228, "ĠÙĬÙĤØ¶ÙĬ": 5189, "ĠØ§ÙĦØ³ÙĥÙĬÙĨØ©": 10269, "ĠÙĬØµÙĬØ¨": 3328, "ĠØªÙĨØ°Ø±": 8610, "ĠØ¨ÙħØ§": 221, "ĠØ¨Ø¹Ø¬ÙĦ": 8114, "ĠÙĪÙĬØ¤": 2352, "ĠØ§ÙĦÙĪØ¯": 5586, "ĠØ¨Ø´Ø±Ùĥ": 5717, "ĠØ£ÙħÙĩØ§": 2513, "ĠØ§ÙĦØµÙĦØ§Ø©": 738, "ĠÙĪÙĤÙĪØ¯": 6028, "ĠÙĬÙĨØ¸Ø±ÙĪØ§": 8134, "ĠÙĬÙĪ": 574, "ĠÙĬØ±Ùĥ": 6157, "ĠÙĪØ¬Ø§Ø¡ØªÙĩÙħ": 9151, "ĠÙĬØªØ®Ø°": 1815, "ĠØ¹ÙĦÙħÙĥÙħ": 5137, "Ø¬": 87, "ĠØ¬Ø§Ø¯": 7770, "ĠÙĦØ¨Ø§": 3112, "Ø±Ø¢ÙĨ": 722, "ĠØ£Ø±ÙĬØ¯": 3010, "ĠØ¥ÙĬØ§Ùĩ": 3062, "ĠÙĪØ±Ø¨Ø§Ø¹": 8970, "ĠÙĬØ¸ÙĦÙħÙĪÙĨ": 1186, "ĠÙĥÙĨØª": 784, "ĠÙĪØ²ÙĪØ¬Ùĥ": 9897, "ĠØ£Ø¹Ø¬Ø¨ØªÙĥÙħ": 9502, "ĠÙĪØ£Ø²ÙĦÙģØª": 10080, "ĠÙĪØªØµÙģ": 8157, "ĠØªØ²ÙĥÙī": 5298, "ĠÙĨØµØ±ÙĥÙħ": 6657, "Ø¶Ø±ÙĬÙĨ": 7570, "ĠÙĬØ¦": 5690, "Ø³Ùģ": 919, "ĠØ£Ø³Ø±": 2299, "ĠÙĥØ§ÙĦØ°ÙĬ": 4379, "ĠØ§ÙĦÙĤØ¨ÙĪØ±": 4173, "ØªÙĪÙĥÙĦ": 2445, "ĠØ£ÙĪØ¹Ø¬": 7871, "ĠØ³Ø¨ØŃØ§ÙĨÙĩ": 2028, "ĠÙĬØªÙĪÙĦ": 2535, "ĠÙĨØ¨": 887, "ĠØªØ¹": 464, "ÙĦÙħÙĬÙĨ": 2078, "ĠØ£ÙĪØ²Ø¹": 7872, "ÙĦÙĪØ§": 217, "ÙĪØªÙĩ": 7111, "ĠØ§Ø²Ø¯Ø§Ø¯ÙĪØ§": 8602, "Ø¨ÙĥØ§Ø±": 9101, "ĠÙħÙĩÙĬÙĨ": 2182, "ĠØ¨Ø°ÙĥØ±": 4706, "ĠØ§Ø³ÙĥÙĨÙĪØ§": 9269, "Ø³Ø®ÙĪÙĨ": 9927, "ĠØ¥Ø®Ø±Ø§Ø¬": 6825, "ĠØŃØ±": 816, "ĠÙĪØ§Ø³ØªÙĥØ¨Ø±": 4393, "ĠÙĪØ§ÙĦØ¹Ø¯ÙĪØ§": 4061, "ÙĨØ§Øª": 427, "ĠÙģØ³Ø¨ØŃØ§ÙĨ": 6809, "ĠØ§ÙĦØ®Ø±ÙĪØ¬": 6947, "ĠØ¨Ø³ØŃØ±": 3797, "ĠÙĬÙĨÙģØ®": 4989, "ĠØªØ³Ø¨ØŃ": 7481, "ĠØ®Ø¶Ø±Ø§": 7796, "ĠØ³Ø±Ø§Ø¨ÙĬÙĦ": 9367, "ĠÙĬØ¨Ø®ÙĦ": 6511, "ĠÙĪÙĤØ±Ø¢ÙĨ": 4932, "ĠØªØ±Ø¬Ùģ": 9991, "ĠØ§ÙĦØ¹ÙĨÙĥØ¨ÙĪØª": 10274, "Ø·ÙĪÙĨ": 2488, "ØŃØ¯Ø§": 7405, "Ø¯Ø®ÙĦÙĩÙħ": 3372, "ĠÙĬØ®Ø±": 3975, "ĠØ¹ÙĬÙĨØ§ÙĨ": 9313, "ĠÙĪØ¢ØªØ§ÙĥÙħ": 8623, "Ø": 29, "ĠÙĬÙħÙĨ": 4672, "ØŃÙħ": 294, "ĠØŃÙĥÙĬÙħØ§": 1842, "ĠÙĦØ£ÙĨ": 2009, "Ø¬ÙĪØ§": 3140, "ĠÙĪØ£Ø³": 5874, "ĠØ§ÙĦØ¹ÙĦ": 7128, "ĠÙĨØ¶Ø±Ø¨": 7636, "ĠÙĪÙĨØ¬Ø¹ÙĦÙĩÙħ": 9994, "Ø³Ø·": 793, "ĠØ±": 99, "Ø¹Ø§": 283, "ĠØ°ÙĨÙĪØ¨": 2275, "ĠØ£ÙĪÙĦÙī": 2922, "ĠÙĪØ§ØŃ": 747, "ØŃØªÙĪÙĨ": 4717, "ĠÙĬØŃØ§ÙģØ¸ÙĪÙĨ": 6150, "ÙħØ³ØŃÙĪØ§": 6319, "ĠØ§ÙĦÙħØ³ØªÙĤÙĬÙħ": 4502, "ĠÙĥØ³Ø¨ØªÙħ": 6560, "Ø®ÙĦ": 487, "ĠÙħÙĦØŃ": 7207, "ĠÙĪØ£ÙĤØ§Ùħ": 7724, "ĠÙģØªÙĪÙĦÙī": 5053, "ĠØµØ§Ø¹ÙĤØ©": 6041, "ĠÙĬØªÙħØ§Ø³Ø§": 8126, "ĠØ§ÙĦÙĤØ¯ÙĬÙħ": 9496, "ĠÙħÙĤØ¶ÙĬØ§": 9512, "ĠØ³Ø§Ø¯Ø³ÙĩÙħ": 10078, "ĠÙĬØ¤ØªÙĬÙĩÙħ": 8724, "ĠÙĬØ±Ø«ÙĩØ§": 10126, "ĠØ±Ø²ÙĤÙĩÙħ": 3774, "ĠÙħØ·Ø±": 4626, "ĠØ§Ø¹Ø¨Ø¯ÙĪØ§": 1717, "ĠØŃØ±Ø¬": 1875, "ĠØªØ¹Ø¯ÙĪØ§": 5763, "ĠÙĦØ¥Ø¨Ø±Ø§ÙĩÙĬÙħ": 9523, "ÙĪØ¡": 657, "Ø±ÙĬØ©": 1205, "ĠØ´ÙĩØ¯": 1291, "ĠØ§Ø±": 1747, "Ø¬ÙĪ": 3529, "ĠÙĬØŃØ´Ø±ÙĩÙħ": 4222, "ĠÙĬØ¹Ø¸Ùħ": 8385, "ĠÙĪÙĪØ§Ø¹Ø¯": 7163, "ĠØ£Ø¬Ø±ÙĩÙħ": 2253, "ĠØµØ¯ÙĤ": 2131, "ĠÙĪÙĨØ¹Ùħ": 5030, "Ø§ØªÙĦÙĪÙĩÙħ": 5365, "ĠØ§ÙĦÙĥÙģØ±": 2224, "ĠÙĦÙĦØ´Ø§Ø±Ø¨ÙĬÙĨ": 7065, "ĠÙĪØ¥ÙĨÙĩÙħ": 2361, "ĠØ¨Ø§ÙĦÙĤØ³Ø·Ø§Ø³": 9234, "ĠØ³ÙĥÙĬÙĨ": 4820, "ĠØ§ÙĦØ³Ø¹ÙĬØ±": 2923, "ĠØ¨Ø§ÙĦØº": 1325, "ĠÙĪÙĥÙĦÙĪØ§": 4181, "ĠØ¨Ø¹Ø´Ø±": 8112, "Ø¸ÙĦÙħÙĪØ§": 4330, "ĠÙĬÙĤÙĪÙħ": 4338, "ĠÙĪØ¹ÙĦÙī": 962, "ĠØ§ÙĦØ¨ÙĤØ±": 6335, "ĠÙĪØªØ³ØªØ®Ø±Ø¬": 8163, "ĠØ£ÙĬØ¯ÙĬÙĨØ§": 8839, "ĠØ¨Ùħ": 883, "ĠÙģØ¥ÙĨÙĥÙħ": 8099, "ĠØ´ÙĩØ¯ÙĪØ§": 9146, "ĠÙĬØ°ÙĩØ¨ÙĨ": 9699, "ĠÙĪÙĦÙħØ§": 1093, "ĠØŃÙħÙĦØªÙĩ": 6877, "ĠØ£ÙĦØŃÙĤ": 9387, "ĠØ§ÙĦØ®Ø³Ø±Ø§ÙĨ": 8427, "ÙħØ§": 83, "ĠØªØ¨ØµØ±ÙĪÙĨ": 2795, "Ø¦ÙĬÙĨ": 1794, "ĠØ£ÙģÙħÙĨ": 1727, "ĠØ®ÙĦÙĤÙĪØ§": 4243, "ĠÙģÙĥÙĨØªÙħ": 8645, "ĠÙģÙĦØ§": 355, "ĠÙĦÙĪØ§": 3110, "ĠØªÙĩØ¯ÙĬ": 5759, "ĠØ§ÙĦØ¨ØŃØ±ÙĬÙĨ": 5287, "ĠØ±Ø§": 2201, "ĠÙĬØªÙģÙĥØ±ÙĪÙĨ": 2609, "ĠÙģØªØ±Ùī": 4252, "ĠÙĬØ¬Ø²": 8630, "Ø³Ø§ÙĨØ§": 2790, "ĠÙĥÙĨØ§": 691, "Ø±ÙĬÙģ": 8020, "ĠØºØ§ÙģÙĦÙĬÙĨ": 5432, "ĠØ®ÙĦØª": 1878, "ĠÙĬØŃØ³Ø¨ÙĪÙĨ": 5000, "ĠÙĨØµØ±Ø§": 6499, "ĠØ¨Ø¬Ø§ÙĨ": 5376, "ĠÙĬØµÙĦÙĬ": 8779, "ĠÙĪØ§ÙĦØ³ÙĦØ§Ùħ": 9056, "ĠÙĪÙĦØ¨Ø§Ø³ÙĩÙħ": 10094, "ĠÙĦÙĬÙĦØ©": 2939, "ĠØŃØ¨Ø§ÙĦÙĩÙħ": 10252, "ÙĥØ´Ùģ": 7178, "ĠØ¶Ø±Ø§Ø±Ø§": 8339, "ĠÙĪØ£Ø¨ÙĤÙī": 3387, "ĠÙģÙĬÙħ": 5791, "ĠØ§Ø¯ÙģØ¹": 8943, "ĠÙĬØ³Ø±ÙĨØ§Ùĩ": 9479, "ĠØ§ÙĦÙĪØ§": 1754, "ÙĤØ¨ÙĦ": 2651, "ØºØ©": 3185, "ĠÙĪØ¸ÙĦ": 5320, "ĠÙĪÙĬÙĤÙĬÙħÙĪÙĨ": 7903, "ØªÙħÙĪÙĨÙĬ": 9300, "ÙĬÙĨÙĩ": 5707, "ĠØ§ÙĦØ¬ÙĩØ±": 5044, "ĠØ¹ÙħÙĦÙĩÙħ": 8708, "ØŃØ§": 1277, "ĠØµØ±": 818, "ĠÙĪØ§Ø³Øª": 997, "ÙĬÙĥ": 2283, "ÙĩØ¯ÙĪÙĨ": 2519, "ĠÙĪÙĬÙĨÙĩÙĪÙĨ": 5303, "ĠØ£ØªØ§ÙĥÙħ": 6706, "ĠÙħØ³Øª": 665, "ÙĤÙģ": 4690, "·": 25, "ĠÙĬØ¸ÙĨÙĪÙĨ": 4480, "ĠØºÙħØ±": 6076, "ĠÙĪØ§Ø³Ø¹Ø©": 5307, "ĠÙģØ§Ùĥ": 6170, "ĠØ¹Ø´ÙĬØ±": 7447, "ĠØ¨Ø§ÙĦÙħØ¹Ø±ÙĪÙģ": 1516, "ĠÙĦØªÙĥÙĪÙĨÙĪØ§": 8571, "Ø¨Ø¯ÙĪÙĨ": 1034, "Ø°Ø¨ØŃ": 6071, "ĠØ§ÙĦØ£ØµÙĪØ§Øª": 10091, "ĠØ§ÙĦØ£ÙĪÙĦÙĬÙĨ": 1127, "ĠÙĬÙĪØŃ": 1557, "ĠØ§ÙĦØ¹Ø¯Ø§": 4606, "ĠÙģÙĦÙĬÙħ": 5671, "ĠØ¨Ø¶Ø±": 4707, "Ø±Ø§Ø¯ÙĪØ§": 7833, "ĠÙģØªÙĪÙĥÙĦ": 8320, "ĠØ¹ÙĨØ¯Ùĩ": 1371, "ÙĪØ³Ùī": 3076, "Ø°ÙĪÙĤÙĪÙĩ": 10061, "ĠØ§ÙĦØ£ÙĨØ«ÙĬ": 3737, "ĠØ¥ØµÙĦØ§ØŃ": 9760, "ĠØµÙĨÙĪØ§ÙĨ": 7992, "ÙĥØ«Ø±": 3436, "ĠØ§ÙĦØ¨ÙĦØ§": 1825, "ĠØ¨ÙĤØ·Ø¹": 9119, "ĠØ§ÙĦÙħØªÙĥØ¨Ø±ÙĬÙĨ": 6965, "ĠÙĦÙĬØ£Ø®Ø°": 8005, "ĠØ§ÙĦØ´ÙħØ§ÙĦ": 3685, "ĠÙĪØ°Ø§": 5598, "ĠØºÙĨÙħØªÙħ": 9982, "ĠÙĬØªÙĨØ§Ø²Ø¹ÙĪÙĨ": 10118, "Ø¨ÙĬØ±": 718, "ĠØ¬Ø¹ÙĦ": 757, "ĠØ£Ø£": 1554, "ĠÙĬØªÙĪÙģØ§ÙĥÙħ": 5424, "ĠÙħÙģØ§ØªØŃÙĩ": 10171, "ĠØ¨Ø§Ø®Ø¹": 10208, "ĠÙĬÙĦØŃ": 3978, "ĠØ«ÙħØ±Ùĩ": 6033, "Ø¨ÙĦÙĬ": 2176, "ĠØ¢ÙĬØ©": 844, "ĠÙĪÙĨØ²ÙĦÙĨØ§": 5031, "Ø¨ØŃ": 560, "ĠØ£ØŃØ¯Ø§": 1526, "ĠØªØ¬Ø²ÙĪÙĨ": 2772, "ÙĥØ±ÙĬÙĨ": 2092, "ĠØºØ§Ùģ": 2362, "Ø¨ØªÙĨØ§": 2997, "ĠÙĪØ´ÙĩØ¯ÙĪØ§": 6693, "ĠÙĪÙĦØ¹ÙĨÙĩÙħ": 9428, "ĠÙĪØ®ÙĬØ±": 6597, "Ø¨Ø§ÙĦ": 899, "ĠØŃÙĦ": 4087, "Ø¯ÙĬÙĨ": 402, "ĠØ®ÙĦÙģÙĩ": 5284, "ĠÙħØºØ±": 3456, "ĠÙĨÙĥÙĦÙģ": 6584, "ĠØ³ÙĦ": 1157, "ĠØ¨Ø´Ø±": 1187, "ĠØ§ÙĦØ¥ÙĬÙħØ§ÙĨ": 3309, "Ø¨ÙĪØ©": 3929, "ĠØ§ÙĦÙĤØ±ÙĬØ©": 2523, "ĠØ¹Ø¯ÙĨØ§": 6468, "ĠØ¨ÙĩÙĬØ¬": 8012, "ĠÙĪØ±Ø³ÙĦØ§": 8657, "ĠÙħØ³ØªÙĤÙĬÙħØ§": 3874, "ÙĨØ¹ÙĪÙĨ": 3421, "Ø¨Ø±ÙĬ": 3927, "Ø§Ø¦Ùĩ": 4194, "Ø§Ø¦Ø·": 8064, "ĠÙĥØ§ÙĨØª": 1200, "Ø§Ø´ÙĬØ©": 9010, "ĠÙĬØ³ÙħØ¹ÙĪÙĨ": 1439, "ĠÙĪØ³ÙĨ": 5602, "ĠØªÙħ": 1282, "ĠÙĬÙĨ": 272, "ĠÙĬØ°ÙĥØ±ÙĪÙĨ": 2308, "ĠÙĦØ³ÙĨ": 5683, "Ø¨Ø¶": 7187, "ĠÙģÙĩ": 1106, "Ø³ØªØ¨Ø±": 4897, "ĠØ¨Ø§ÙĤ": 5716, "ĠØªØŃÙĬØ©": 8397, "ĠØµØ¨Ø±": 3214, "ÙĬÙħØ§ÙĨÙĥÙħ": 8419, "ĠØ£ÙĤÙĦØ§Ùħ": 8878, "ĠØ¹Ø¬ÙĬØ¨": 9288, "ĠØ£ÙĨÙĩÙħ": 927, "ĠÙĪØ±Ø¨": 966, "ĠÙĬÙħÙĬ": 3483, "ĠÙĬÙĨØµØ±": 2369, "ĠÙĤØ§Øª": 5786, "ĠØ§ÙĦØŃÙĬØ§Ø©": 694, "ĠÙħØŃØ³ÙĨ": 3935, "Ø§Ø°Ø¨ÙĬÙĨ": 2042, "ÙĥÙī": 2054, "ĠÙħØ¹ØªØ¯": 6110, "ĠØµØ¯": 638, "ĠÙģØ¢Øª": 4438, "ĠÙĪØ²Ø§Ø¯": 6517, "ĠÙħØµÙĬØ±Ø§": 6585, "ĠØ³ÙħØ¹ÙĩÙħ": 6568, "ĠØ³ÙĨØ³ØªØ¯Ø±Ø¬ÙĩÙħ": 10316, "ĠØ¨Ø¸ÙĦÙħ": 3493, "ĠØ´Øº": 5931, "ĠØ²ÙĪØ¬ÙĩØ§": 5340, "ĠØªØ¤ÙħØ±ÙĪÙĨ": 10223, "ĠÙħÙĨÙĩÙĨ": 3130, "ĠØªØ´ÙĩØ¯": 6483, "ÙĤØ³Ø·": 4691, "ĠÙħØºØ§ÙĨÙħ": 6777, "ÙĬÙħ": 139, "ĠÙħØ¤ÙħÙĨ": 1683, "ĠÙĪØ£ÙĤÙĦ": 9230, "ĠÙĪØ§ØŃØ¯Ø©": 1171, "ĠØ¹Ø¬ÙĦØ§": 9287, "ĠØ±Ø¹": 7557, "ĠØ¬Ø§ÙĩØ¯ÙĪØ§": 4099, "Ø¨ÙĬØ«": 2223, "ĠØ§ÙĦÙħØ«": 5890, "ĠÙĬÙĨØ·ÙĤ": 6900, "ĠÙĬØ³ÙħØ¹ÙĩØ§": 9594, "ĠØ´Ø±ØŃ": 7803, "ĠÙĪØ¬ÙĨÙĪØ¯ÙĩÙħØ§": 10168, "Ø³ÙĬ": 1348, "ĠØ§ÙĦÙĥØ±Ø¨": 6906, "ĠÙĪØ¬Ø§ÙĩØ¯": 8071, "ĠØªØ±Ø¯ÙĪÙĨ": 8226, "ĠØ¢ÙħÙĨÙĪØ§": 248, "ĠØ´Ø¦": 1879, "ÙħØ±Ø£": 1231, "Ø¬Ø±": 284, "Ĥ": 34, "ĠØ§ÙĦÙĥÙĬÙĦ": 3225, "Ø³Ùħ": 240, "ĠÙĪÙĬØ³": 1800, "ĠØŃÙĦÙĬÙħØ§": 5909, "ĠÙģØ£ÙĨØ³": 6010, "ÙħØ§Ùħ": 2871, "ĠØ§Ø¨ØªØºØ§Ø¡": 2435, "Ø¨ØŃÙĬÙĨ": 4319, "ĠØ´ÙĩÙĬØ¯Ø§": 1543, "ĠØ§ÙĦÙħØ³Ø±ÙģÙĬÙĨ": 3179, "ĠÙĪØ¯ÙĪØ§": 5605, "ĠØ±ÙĪØŃÙĬ": 9568, "ĠÙĬØ´Ø±Ùĥ": 2453, "ĠØ¢ÙĦÙĩØªÙĥÙħ": 5277, "ÙĥÙħÙĩ": 7525, "ĠØ§ÙĦÙĥØ¹Ø¨Ø©": 8032, "ĠØªØ¨Ø·ÙĦÙĪØ§": 8950, "ĠÙĪØ§ÙĦØ±ÙĪØŃ": 9835, "ĠØ£ÙĪØ¢Ø¨Ø§Ø¤ÙĨØ§": 10267, "ĠÙĦÙĬÙĩÙĦÙĥ": 8002, "ÙĬÙĪÙĨ": 2168, "ØŃØ±ÙĪÙħ": 8460, "ĠÙĪØ£Ø¹Øª": 2696, "Ø£ÙĦÙĥÙħ": 1948, "±": 19, "Ùģ": 76, "ĠØ£ÙħØ¯Ø§": 6000, "ĠØ§ÙĦÙħØ³Øª": 1965, "ØªÙħÙĪÙĨØ§": 6702, "ĠØ³Ø¯Ø±": 7679, "ĠÙĩØ§": 1287, "ĠÙģØµÙĦÙĨØ§": 6667, "Ø¹ÙħÙī": 2219, "ĠÙĦÙĦØ¨Ø´Ø±": 6136, "ĠÙĥÙĩÙģÙĩÙħ": 10227, "ĠØ§ÙĦØ³Ø¨ÙĬÙĦ": 1214, "ĠØ´Ø¹": 1710, "ĠÙĬØ¶Ø¹ÙĨ": 6566, "ĠØ§ÙĦÙĬÙħ": 2838, "ĠÙĪÙĬØ³Øª": 1364, "ÙĪÙħÙĪÙĨ": 3173, "ĠÙĦÙģØ³": 4664, "ÙĤØ±Ø¨": 1624, "ĠØ®ÙĦÙĤÙĩ": 3678, "ĠØ¥Ø³ØŃØ§ÙĤ": 3499, "ØªÙħ": 132, "Ø£ÙĪØ§ÙĩÙħ": 2271, "ĠØ¨Ø¨Ø¹Ø¶": 1774, "ÙĦØ¤": 2616, "ĠÙĨØ¯Ø¹ÙĪ": 5428, "Ø°ÙĬÙĤÙĩÙħ": 6497, "ĠÙĬÙĥÙģØ±ÙĪÙĨ": 2263, "ĠÙĪØªØ²ÙĩÙĤ": 9986, "ĠÙħØ¹Ø§Ø¬Ø²ÙĬÙĨ": 7064, "ĠÙĪÙĨØ¹ÙĦÙħ": 8245, "Ø³ÙĦÙħÙĬÙĨ": 7267, "ĠØ§ÙĦØ·ÙĪÙģØ§ÙĨ": 8790, "ĠØ®Ø¨ÙĬØ«Ø©": 10258, "Ø·Ø±ÙĨ": 8886, "ĠÙĨÙģØ¹": 5842, "ĠØ£Ø¬Ø±ÙĬ": 2755, "ĠÙģØ§ØºÙģØ±": 3899, "ĠØ±Ø¦Ø§Ø¡": 7565, "ÙĬØ§Ùĩ": 7866, "ĠÙĤÙĦÙĬÙĦ": 2323, "ĠØ§Ø³ÙħÙĩ": 4462, "ĠÙĬØªÙģÙĥØ±ÙĪØ§": 9377, "ĠØ¥ØµÙĦØ§ØŃÙĩØ§": 9762, "ĠÙģØ£Ø°Ø§": 7946, "ĠØ§Ø³": 1520, "ĠØ§ÙĦØ¹Ø¯Ø©": 10034, "ĠÙĪØµØ§ØŃØ¨ØªÙĩ": 10158, "ĠÙĪÙĤØ¨ÙĦ": 7974, "ĠØ¨Ø§Ø¨Ø§": 7373, "ĠØ¬Ø§Ø¡ÙĩÙħ": 929, "ÙħØ´ÙĪØ§": 7100, "ĠÙĪØ§ÙĦÙĬØ³": 7605, "ĠÙĤÙĦ": 175, "Ø³ØªØ¯Ø±Ø¬": 7887, "ĠÙĦØ£Ø¸ÙĨÙĩ": 8502, "ĠØ£ØµØ§Ø¨Ùĥ": 6612, "ĠØ¨Ø±ÙĬ": 2063, "ĠÙĬÙĥØªÙħÙĪÙĨ": 4256, "ĠØªØŃÙħ": 4021, "ĠÙħØªØªØ§Ø¨Ø¹ÙĬÙĨ": 8804, "Ø§ÙĨØ§": 1924, "Ø³Ø¨Ø§Ø¨": 5014, "ØªÙħØª": 1877, "ĠÙĪØ§ÙĦÙĤØ§ÙĨØªÙĬÙĨ": 9012, "ĠÙĪØ£Ø´ÙĩØ¯ÙĪØ§": 7731, "ĠØ´ÙĬ": 227, "ĠÙĦØµØ§ØŃØ¨Ùĩ": 9637, "ĠÙĬØ¹ÙĦÙħ": 336, "ĠÙĪØ±Ø²ÙĤ": 2120, "ÙĦÙħÙĪÙĨ": 2692, "Ø¹ØªÙħ": 3459, "ĠØ§ÙĦÙĥØ¨Ø±": 2096, "ĠÙħØ³ÙĦÙħÙĬÙĨ": 2807, "ĠÙĨØ¹Ø¬": 4063, "ĠÙĬØ£ØªÙĬÙĨÙĬ": 9557, "ÙĦÙĤÙĪÙĨ": 4930, "ĠØ§ÙĦØµØ§ÙĦØŃÙĬÙĨ": 1598, "ĠØ§Ø³ØªØ£": 8558, "ĠÙħØ§": 116, "ÙĩØ¨": 1424, "ĠÙĪØ§Ø": 771, "ØªÙĩØ§": 619, "ĠØ¨ØºÙĬØ§": 2999, "ĠØ£Ø¹Ø±Ø¶ÙĪØ§": 6350, "ĠÙģÙĥØ£ÙĨ": 6381, "Ø·Ø§Ø¹": 3760, "ĠØŃØ³Ø§Ø¨": 1736, "ĠÙģØ§Ø®ØªÙĦÙģ": 4505, "ĠØ¹ÙħØ§": 825, "ĠØ§ÙĦÙħØ«ÙĦ": 7741, "ĠÙģÙĦÙĬØ³ØªØ¬ÙĬØ¨ÙĪØ§": 10017, "ĠØªÙħØªØ¹": 9564, "Ø¶Ø¹Ùģ": 1448, "ĠØ§ÙĦØ´Ø¯ÙĬØ¯": 8354, "ĠØ£ÙħÙĪØ§ÙĦ": 945, "ĠÙĬØ¯Ø¹ÙĪÙĨ": 1169, "ĠÙĦÙĬÙĤÙĪÙĦ": 1807, "ĠØ§ÙĦØŃØ±ÙĬÙĤ": 4156, "ĠØ§ÙĦØ¥Ø¨ÙĦ": 8624, "ĠÙģØ£Ø®Ø°ÙĨØ§Ùĩ": 6608, "ĠØ³Ø®Ø±": 1792, "Ø¹Ø§ÙħØ§": 5003, "ĠØµØ§ØŃØ¨Ø©": 9673, "ĠÙģØ§Ø¹Ø¨Ø¯": 2106, "ĠÙĬØ®Ø§ÙģÙĪÙĨ": 2980, "ĠØµØ¯ÙĪØ±ÙĥÙħ": 5181, "ĠÙĪØ§ÙĨØª": 6713, "ĠØŃØ¨Ø·": 3183, "ĠØµØ¨ÙĬØ§": 9867, "ØŃÙģØ§": 5735, "ĠØ§ÙĦØ¬ØŃÙĬÙħ": 1373, "ĠÙĪØ§ÙĦÙĤÙħØ±": 1544, "ĠÙĪØ£Ø·Ø¹ÙĨØ§": 3573, "ĠØ§ÙĦØ±ÙĬØ§ØŃ": 2510, "ĠØ´ÙĩØ±Ø§": 8988, "ĠØ§ÙĦØº": 458, "ĠÙĪÙĥØ§ÙĨØª": 5103, "ĠÙĬØ®Ø§Ùģ": 2979, "ĠÙĬÙĦÙĤÙĪÙĨ": 6733, "ĠÙĬØ¬Ø¯": 1437, "ĠÙĪØ·Ø¨Ø¹": 9193, "ĠÙĦØ£ÙħÙĦ": 5113, "ĠÙħØ±ÙĪØ§": 6308, "ĠÙĥÙģÙī": 4034, "ĠØ±Ø£ÙĪÙĩ": 8931, "ØªÙĩÙī": 6213, "ÙĪÙħ": 127, "Ø¸": 146, "ĠÙĬØ±Ø¯ÙĪÙĨ": 6159, "ĠÙĨØµÙĬØ±": 2691, "ĠÙĨØ¹Ø¬Ø©": 9839, "ĠØ§ÙĦÙģÙĦÙĥ": 1484, "ĠØŃØ§Ø¬Ø©": 6852, "ÙĬØ§ÙĨ": 7104, "ĠÙĥØ§ÙĦØ°ÙĬÙĨ": 2792, "ĠÙĦØ£ÙħØ§ÙĨØ§ØªÙĩÙħ": 10139, "ĠØªØ§ÙĦÙĦÙĩ": 2875, "ĠÙĪØ§Ø¶": 3338, "ĠÙĪØ§ÙĦØ¨Ø§ÙĤÙĬØ§Øª": 10233, "ĠØ®ÙĦÙģ": 1196, "ÙĬØ§Ø±": 1643, "ĠÙħÙĤØ±ÙĨÙĬÙĨ": 5538, "ĠÙĬÙĨÙĩØ§ÙĥÙħ": 8142, "ĠÙĨÙģØ¹Ø§": 2796, "ÙģÙĪØ±": 571, "ÙĪÙģ": 295, "ĠØªÙħÙĨ": 2872, "ØªÙħÙĦØª": 7767, "ĠØ¥ÙĨÙĩØ§": 1860, "ĠØ³ÙĨÙĬÙĨ": 2693, "ĠÙħØ³Ø¦": 4301, "ĠØ®ÙĪØ¶": 7794, "ĠÙħØ±ØŃØ§": 8506, "ĠÙĪØ£Ø¨": 1870, "ÙĪÙħÙĩØ§": 7715, "ĠØ§ÙĦÙĥØ§ÙģØ±ÙĬÙĨ": 799, "ĠÙĦØ³Ø§ÙĨØ§": 7316, "ĠÙģØ¹Ø¯Ø©": 9929, "ĠÙĪØ£Ø·ÙĬØ¹ÙĪÙĨ": 2338, "ĠØ§ÙĦÙħÙĩØª": 5892, "ĠØºØ´Ø§": 8044, "ĠÙĪØ£ØªØ¨Ø¹": 5881, "ĠØ·Ø§ØºÙĪÙĨ": 9998, "ī": 41, "ĠØ³ÙħØ§Ø¹ÙĪÙĨ": 5441, "ĠØ§Ø³ØªÙĤØ§ÙħÙĪØ§": 5126, "ĠØ§ÙĦÙģØ±ÙĬÙĤÙĬÙĨ": 6775, "ĠÙĪØ±Ø§": 5599, "ĠØªØŃÙĬ": 8395, "ĠØ³ÙĦØ³": 9080, "ĠØ¹Ø¨Ø¯Ø§": 3519, "ØŃØ´Ø±": 4004, "ĠÙĬÙģØ¹ÙĦÙĪÙĨ": 2154, "ĠÙĪØ¬ÙĬØ¡": 8073, "ĠØ¨Ø±": 795, "ĠØ§ÙĦÙģØŃØ´Ø§Ø¡": 8640, "ÙģØ§Ø±": 990, "ÙĩØ§Ø¨": 4781, "ĠØªØ±ÙĩÙĤÙĩÙħ": 8232, "ĠÙĬØŃØ§Ø³Ø¨": 8176, "ĠÙģØ²Ø§Ø¯ØªÙĩÙħ": 9914, "ĠØ¨Ø¦Ø³": 2865, "ĠØ§Ø³Ùħ": 1584, "ĠÙĥØ«Ø±": 4755, "ØªØªÙĨØ§": 7182, "ĠÙĤØ±Ø¯Ø©": 9224, "ĠØ¨ÙĨÙĬØ§": 7363, "ÙģÙĬØ§": 7393, "ĠÙĪÙĬØŃØ³Ø¨ÙĪÙĨ": 6757, "ĠÙģØ®Ø°": 2856, "ĠØ¨Ø¹Ø¶": 400, "ĠÙĪØ§ÙĦØ³ÙħØ§Ø¡": 2801, "ĠØ¨Ø³ÙĦØ·Ø§ÙĨ": 3033, "ĠØ§ÙĦØ±Ø¬Ø³": 5337, "ĠØŃØ±ÙħØª": 6514, "ĠÙĪØ§Ø²": 3014, "Ø²Ø©": 1862, "ĠÙĪØ§Ø³ÙħØ¹": 8109, "ĠØ¶Ø±Ø§": 2748, "ĠØªØ³Ø¬Ø¯": 8827, "Ø§Ø¹ÙĬ": 7076, "ĠÙħÙĤØ¯Ø§Ø±Ùĩ": 10044, "ĠØ³ÙĬØ±": 4070, "ĠØªØ±ÙħÙĬ": 8225, "ĠÙģØ£Ø±": 7942, "ĠØ§ÙĦØ£ÙĪÙĦ": 960, "ĠÙģØ¢ÙħÙĨØ§": 9158, "ÙĪÙħÙĬÙĨ": 4832, "ÙĬØ²Ø§ÙĨ": 5571, "ĠØŃØ¯": 1091, "Ø¨ÙĦØºÙĪØ§": 3642, "ĠÙģØ°Ø±": 4655, "ĠØ±ÙħÙĬØª": 7564, "ĠØªÙħØªØ¹ÙĪØ§": 6827, "ĠØ´ÙģØ§Ø¹Ø©": 3593, "ĠÙĦÙĬØ®Ø±Ø¬": 3631, "ĠØ£ÙħÙĪØ§Øª": 4915, "ĠØµØ§ØŃØ¨ÙĥÙħ": 9674, "ĠÙĬØ£ÙĥÙĦÙĪÙĨ": 3382, "ĠÙĩÙħØ§": 7646, "ÙĩØ±Ø©": 3300, "ĠØŃÙĥÙĬÙħ": 959, "ĠÙħØ«ÙĤÙĦÙĪÙĨ": 8420, "ĠÙĪÙĬØ¯": 5982, "ĠÙĦÙĦØ®Ø¨ÙĬØ«": 10122, "ĠØªØ±Ø¬Ø¹": 3261, "ĠØ¨ÙĪÙĥÙĬÙĦ": 3996, "Ø¶Ø¹ÙģÙĬÙĨ": 5324, "Ø³Ø±ÙģÙĬÙĨ": 2542, "ĠØ§ÙĦØ°ÙĨ": 5849, "ĠÙĬÙĬØ£Ø³": 7333, "Ø·Øª": 5860, "Ø®ÙĨ": 7546, "ĠØ¹Ø¯Ø§ÙĪØ©": 9943, "ĠÙĨØ³Ø¨Ø§": 10239, "ĠÙĦÙĦØ¹Ø¨ÙĬØ¯": 4447, "ÙģØ¦": 2867, "ĠØ¨ÙĪØ±": 7357, "ĠØ§Ø³ØªØ£Ø°ÙĨ": 6339, "ĠÙģØªØŃØ±ÙĬØ±": 6228, "ĠÙħØ´": 1614, "Ø§Ø¦ÙĩÙħ": 1587, "ĠØ¬Ø¨ÙĦ": 5917, "ĠØ¨Ùĩ": 198, "ĠÙĬØ¯Ø®ÙĦ": 2388, "ĠØ§ÙĦØºÙģØ§Ø±": 6321, "ĠØ¬Ø¦ØªÙĩÙħ": 9093, "ĠØ¢ÙĨØ§Ø¡": 5872, "ĠÙĪØ¥ÙĨÙĥÙħ": 6074, "ĠØªØ®": 642, "ĠÙĦÙĬØ¶ÙĦ": 4176, "Ø§ÙĩÙĨ": 7073, "ĠÙĨØ²Ø¯": 9363, "ĠØ£ÙĨØ¯Ø§Ø¯Ø§": 3556, "ĠØ£ÙĨØ¤ÙħÙĨ": 5831, "ĠØ£Ø®Ø¯Ø§ÙĨ": 8654, "Ø¯Ùĥ": 7249, "Ø£Ùĩ": 4719, "ÙģÙĬØ©": 7398, "ĠØ§ÙĦØ±ØŃÙħÙĨ": 356, "ĠÙĤØ±Ø§Ø±Ø§": 7534, "Ø§Ø²ÙĩÙħ": 9164, "ĠÙĦØº": 1275, "ĠØ£ÙĩØ¤ÙĦØ§Ø¡": 5065, "ĠÙĩØ¯Ø§ÙĥÙħ": 5364, "ĠØ£ÙĦÙĪØ§": 3100, "ÙĦØ¨ÙĪØ§": 2990, "ĠÙĪØ®Ø°": 7143, "ĠØ£ÙħÙĬÙĨ": 2354, "ĠØ³ÙħØ§": 2485, "ĠØ¨Ø§Ø³Ø·": 9596, "ĠÙĥØªØ§Ø¨ÙĬÙĩ": 8716, "ĠÙĦØ¹": 673, "ĠÙĦÙĦÙĨØ§Ø¸Ø±ÙĬÙĨ": 6492, "ĠÙĬÙĨØµØ±Ùĩ": 6816, "ĠÙĪÙĬÙĦÙĥÙħ": 7894, "ÙĬØŃØ©": 2143, "ĠÙħØ´Ùģ": 5632, "ĠÙĦÙĦÙĤ": 3479, "ĠØªØ¤ÙħØ±": 9253, "ĠØ£Ø®ÙĪØ§ØªÙĩÙĨ": 8655, "ĠØ¨Ø§ÙĦÙĬÙĪÙħ": 7851, "ĠÙħØ¶ÙĦ": 7205, "ĠØ£ÙĪØªÙĬ": 1405, "ÙħØ±Ø§": 3423, "ĠÙĨØ¬Ø§ÙĩÙħ": 8890, "ĠÙħØ¹ÙĩÙħ": 1991, "ĠØ³ØŃØ§Ø¨Ø§": 5509, "ĠÙĪØªØ±": 6138, "ĠÙĨÙĤÙħÙĪØ§": 9461, "ĠØ¨Ø¢ÙĬØ§ØªÙĬ": 5143, "ĠØ¨ÙĪØ§ÙĦØ¯": 3995, "ĠÙħÙĪ": 287, "ĠÙĥØ³Ø§ÙĦÙī": 9602, "ĠØ³Ø¹": 1570, "ĠØ§ÙĦØ£Ø®Ø±Ùī": 4568, "ĠÙĦØ±Ø¨Ùĥ": 9352, "Ø¹Ø±": 1105, "ĠØªØªØ®Ø°ÙĪÙĨ": 7026, "ĠÙĦÙĥÙĨØª": 8343, "ĠØ§Ø³ØªÙĪÙī": 2768, "ĠØ§ÙĦØ¯": 301, "ĠØŃØ¬": 1402, "ĠØ§ÙĨÙĤÙĦØ¨": 6474, "Ø®Ø§ÙĨ": 7548, "ĠÙģØ£ÙĨØª": 7947, "Ø±Ø§Ø¡": 4598, "ĠØ¨ÙĬØ¶Ø§Ø¡": 3753, "ĠØ«ÙĪØ§Ø¨Ø§": 4909, "ĠÙĦÙĦØ´ÙħØ³": 9985, "ĠØ§ÙĦØ¯Ø±Ø¬Ø§Øª": 10294, "ĠØ§ÙĦØ°ÙĦ": 5848, "ĠÙĤØªÙĦØªÙħ": 6710, "ĠØ¨ÙĬØªØ§": 8768, "ĠÙĪØ§Ø¬ØªÙĨØ¨ÙĪØ§": 9724, "ØŃØ¯ÙĪÙĨ": 3126, "ĠÙģÙĪÙĤÙĩÙħ": 2145, "ĠØªØ¨Ø±Ø£": 9642, "ĠÙħØ¨ÙĬÙĨ": 526, "ĠÙħØªØ§Ø¹": 1745, "ĠÙĬØ£ØªÙĥÙħ": 3681, "ĠØ£Ø®Ø·": 8649, "ĠÙĩÙĨÙĬ": 4815, "ĠØ¹ÙĬÙĨÙĬÙĥ": 9314, "ĠÙĦØ¯": 1107, "ĠØ®ÙħØ±Ø§": 7793, "ĠØ¥ÙģÙĥÙĩÙħ": 9759, "ĠØ¨Ø§ÙĦØŃØ³ÙĨÙī": 6872, "©": 12, "ĠÙģÙĪØ±": 5666, "ĠØ§Ø¨ÙĨÙĪØ§": 9042, "ĠÙĦÙĬØ¯": 3478, "ĠØ£Ø¯Ø¹ÙĪ": 5216, "ĠÙģØ¨Ø´Ø±": 3741, "ĠÙħØ±Ø³ÙĦÙĬÙĨ": 9688, "ĠÙħØ¤ÙħÙĨØ§Øª": 5633, "ĠØ®Ø±ÙĪØ§": 7788, "ĠØ´Ø§ÙĤÙĪØ§": 9715, "ĠÙĤØªÙĦÙĪÙĩ": 9316, "ĠØ¨Ø¹Ø¯ÙĩÙħ": 1725, "Ø¨ØªØºÙĪØ§": 2998, "ĠØ³ÙĨ": 1116, "ĠØ£Ø¨ÙĨØ§Ø¡": 1904, "ĠØ°ÙĪ": 1071, "ĠØ§ÙĦØ´Ø§ÙĥØ±ÙĬÙĨ": 3278, "ĠÙĬØ³ØªÙĨÙĥ": 6281, "ĠÙĤØ±Ø£Øª": 9225, "ĠÙħÙĦØªÙĨØ§": 9806, "ĠÙĪÙĦÙĬÙĨØ§": 7837, "ĠØªØ±Ø§ÙĨÙĬ": 8228, "ĠØ³Ø§Ø¯": 5855, "ĠÙģØ§Ø³ØªØ¬Ø§Ø¨": 6539, "ĠÙĬØ³ØªØºÙģØ±": 8451, "Ø§Ø¤ÙĨØ§": 1906, "Ø±Ùħ": 2441, "ĠÙĬØ®ØªÙĦÙģÙĪÙĨ": 2558, "ĠÙĪØ¹ÙĨ": 1728, "ĠØ¬Ø¦ÙĨØ§": 5282, "ĠÙĦØ¸": 4662, "ĠØ§ÙĦÙĦÙĩ": 92, "ĠÙĪØ£Ø²ÙĪØ§Ø¬ÙĥÙħ": 9661, "ĠÙĪÙĬÙĦ": 1713, "ĠØ¹Ø¸ÙĬÙħ": 826, "ĠÙĪØ§ØªÙĤÙĪÙĩ": 5150, "ĠÙĪØ¬ÙĩÙĩØ§": 9016, "ĠÙĪØ¥ÙĦÙĩÙĥÙħ": 9855, "ĠÙħØºÙģØ±Ø©": 1684, "ĠØ²Ø¯": 5086, "ĠÙĪÙĥØªØ¨Ùĩ": 6973, "ĠÙħØ¬ÙĨÙĪÙĨ": 3856, "ØªØ¨Ø¹ÙĪÙĨ": 5172, "ĠÙĪÙħÙħØ§": 2117, "ĠØ®": 137, "ĠÙĥØ³ÙģØ§": 4535, "ĠÙģØ¹ÙĤØ±ÙĪÙĩØ§": 6987, "ĠÙĦØ¹Ùħ": 7300, "Ø¹Ø¨Ø¯ÙĪØ§": 1341, "ĠØªØŃØªÙĩÙħ": 4268, "ĠØ§ÙĦÙħØº": 7734, "ĠÙĥØ°Ø§Ø¨": 3534, "ĠÙĤØ§Ùħ": 4042, "ĠÙĬØ¤Ø¯Ùĩ": 8723, "ĠÙĪÙĦÙĤØ§Ø¦Ùĩ": 9859, "ÙħÙĨÙĪØ§": 1446, "ĠÙĪØ§ÙĦØ¶Ø±": 4060, "ĠØ§ÙĦØªØ±": 8912, "ĠØ§ÙĦØ¢ÙĬØ§Øª": 1103, "ĠÙĦØ¨Ø§Ø³": 5484, "ĠÙħØ³ØªÙĤÙĬÙħ": 1264, "ĠÙĪÙĨÙĥÙĪÙĨ": 6197, "ĠÙģÙĦÙĬ": 823, "ĠØ§ÙĦÙħÙĤØ±Ø¨ÙĪÙĨ": 5468, "ĠÙĪÙĤØ§": 6024, "Ø¨ÙĤØ§": 7190, "ĠÙģÙĩÙħ": 920, "ĠØ§ÙĦÙħÙĬØ¹Ø§Ø¯": 4086, "ĠÙĨØ®Ø§Ùģ": 9462, "ĠØ§ÙĦÙħØªÙĤÙĪÙĨ": 3850, "ĠÙĪØ£ÙĨØ°Ø±": 6202, "ØŃØ±": 416, "Ø§ÙĨÙĪØ§": 5823, "ĠÙĥØ³Ø¨": 973, "ĠØ£ÙĩÙĪØ§Ø¡": 1821, "ĠÙħØ³ØŃÙĪØ±Ø§": 6316, "ĠÙĨØ¨Ø§ØªÙĩ": 9795, "ĠØ§ÙĦØ£ÙĪØªØ§Ø¯": 10259, "ĠØ§Ø¹ØªØ¯Ùī": 5430, "ĠÙĪØ§ÙĦØ£ÙĪÙĦØ§Ø¯": 10291, "ĠØ£ÙĨØ¨Ø§Ø¡": 2889, "Ø³Ø¨ÙĪÙĨ": 1206, "ĠØŃÙĨÙĬÙģØ§": 2610, "ĠÙĨØ§Ø±": 1451, "ĠÙħÙĦØª": 3934, "Ø¤ÙĦØ¤": 4890, "ĠØ§ÙĦØ£Ø´": 4115, "ĠØ¯Ø¹ÙĪØ§ÙĩÙħ": 5403, "ĠÙĦØªØ¤ÙħÙĨÙĪØ§": 6346, "ĠØ¨Ø·ÙĪÙĨÙĩÙħ": 6860, "ÙĬØªÙħ": 1752, "ĠØ£ÙĨØªÙħ": 576, "ĠÙĪØ²ÙĪØ¬": 4372, "ĠØ§ÙĦØªÙĨØ§": 7132, "Ø¯Ø±Ø©": 7255, "ĠØ§ÙĦØµØ§Ø¯ÙĤÙĪÙĨ": 8089, "ĠØ¢Ø°Ø§ÙĨ": 2208, "ĠØ£ÙĦÙĤÙī": 3815, "Ø³ÙħØ§Ø¹ÙĬÙĦ": 2279, "ĠØ£ÙĪ": 162, "ĠØ¨ÙĬØ¯Ùĩ": 3994, "ÙĨØ²ÙĬØ±": 4579, "ĠØ¯Ø¹ÙĪØª": 6650, "Ø§Ø·Ø¨ÙĨÙĬ": 8378, "ĠÙħØ±ØŃØ¨Ø§": 8509, "ĠØ§Ø´ØªØ±ÙĪØ§": 3835, "ĠØªÙĤØ¹Ø¯ÙĪØ§": 8679, "ĠÙħØ¯Ø¯ÙĨØ§ÙĩØ§": 9007, "ÙĦØ§Ø«Ø©": 9182, "ĠØªØŃØ²ÙĨ": 3394, "ĠÙĪØ¹ÙħÙĦÙĪØ§": 788, "ĠØ¯ÙħØ±": 4924, "ĠÙĪØ§ÙĦØ¯": 7590, "ĠÙĪØªØ¬Ø¹ÙĦÙĪÙĨ": 10290, "ÙĥØ±ÙĩÙĪØ§": 4166, "ĠØ¨Ø´": 1310, "ĠØ§ÙĦØºØ§Ø¨Ø±ÙĬÙĨ": 3296, "ĠØ§Ø±Ùĥ": 3906, "ĠØ´ÙĥÙĪØ±Ø§": 6606, "ĠØ³": 117, "ÙĤÙĪÙĦÙĪÙĨ": 489, "ĠÙħÙĥ": 790, "ĠÙĪØ§ÙĦØ¬Ø§Ø±": 9459, "Ø³ØªÙĪØ¯": 7882, "Ø§Ø«": 1285, "ĠÙĪÙĥÙĦ": 1984, "ĠØ§ÙĦÙħÙĤØ³Ø·": 5899, "ĠÙĬØ¤ÙģÙĥÙĪÙĨ": 3742, "ĠØ³Ø¨ÙĦ": 7662, "ĠØªÙĨØ³Ùī": 8609, "ĠÙĦØ§ÙģØª": 5915, "ĠØ§Ø¯": 935, "ĠÙĪØ¶Ø±Ø¨": 3395, "ĠÙħÙĨØ¹Ùĥ": 6889, "ĠØ£Ø¬ÙĦÙĩÙĨ": 4270, "ĠÙģÙħØ§ÙĦØ¦ÙĪÙĨ": 9932, "ĠÙĨØªÙĪÙģÙĬÙĨÙĥ": 6891, "ĠÙĥØ±ÙĬ": 4753, "ĠÙĦØ£Ø¬ÙĦ": 5112, "ÙĨØ¬": 1491, "ĠÙĪØ¹ÙĦÙħ": 2842, "ĠÙĪØªØµ": 4216, "ĠØªØ¨": 940, "ÙĪÙĬÙĥÙħ": 5203, "Ø¹ÙģÙģ": 5206, "ÙħÙħ": 7090, "ĠÙĬØ²Ø¬ÙĬ": 9053, "Ø¸ÙĦÙħÙĪÙĨ": 1058, "ĠÙĪØ§ÙĦØ£ÙĨØµØ§Ø±": 9403, "ĠØ¯Ø§Ø®Ø±ÙĬÙĨ": 9865, "ØªÙĩØª": 6212, "ÙĤØªÙĦÙĪÙĩÙħ": 4459, "ĠØ§ÙĦØ£Ø¹Ø±Ø¬": 9426, "ĠØ£Ø¨ÙĬ": 2636, "ĠØªÙĪØ§Ø¨Ø§": 5764, "Ø§Ø±Ø§": 1270, "ĠØ¨Ø§ÙĦØ¨ÙĬÙĨØ§Øª": 1326, "ĠÙģØ§Ø³ØªØ¨ÙĤÙĪØ§": 6540, "ĠÙĪØŃØ´Ø±": 6472, "ĠØŃÙħÙĦÙĩØ§": 8843, "¹": 27, "ĠÙģØªØ§Ø¨": 3963, "ĠØ§ÙĦØ·ÙĬØ±": 2572, "Ø¨Ø§Ø¦ÙĩÙħ": 7194, "ĠØ¯Ø§ÙģØ¹": 7938, "ĠÙĥØ§Ø°Ø¨Ø§": 9800, "ÙĤÙĪÙĦ": 243, "ĠÙĪÙģØ±ÙĬÙĤØ§": 6725, "ĠØ§ÙĦÙħÙĩÙĬÙĨ": 7743, "ĠÙĬÙħØ³": 1504, "ÙħÙĨÙĥÙħ": 4046, "Ø±ÙĬÙĨÙĥ": 4353, "ĠØ¨ÙĦØ³Ø§ÙĨ": 5058, "ĠÙĪØ§ÙĨØ¸Ø±": 5359, "ĠØŃÙħ": 778, "ĠÙĦÙĬÙĥÙģØ±ÙĪØ§": 7017, "Ī": 40, "ĠØ«ÙħØ±Ø§Øª": 4934, "ĠÙĦØ°ÙĩØ¨": 7313, "ĠÙĤØ¯ÙĬØ±Ø§": 3656, "ĠÙħÙĦ": 2294, "ĠØ§ÙĦÙĤØ§": 2725, "¡": 4, "ĠØ¹Ø§": 3513, "ĠÙģØ¸ÙĦÙħÙĪØ§": 7294, "ĠÙħØ¹ÙĤØ¨": 8101, "ĠÙĪØ£Ø±Ø¬ÙĦÙĩÙħ": 9708, "ĠÙĨØ¨ÙĬÙĩÙħ": 9609, "ĠØªÙĥØ³Ø¨ÙĪÙĨ": 5106, "Ø§ÙħØ¯Ø©": 8698, "ĠÙĪÙĬÙĦØ¹Ø¨ÙĪØ§": 9863, "ĠØ³ÙĬ": 631, "ĠÙĪØ£ÙĨØ¬ÙĬÙĨØ§": 8265, "ĠÙĦÙĬØ²Ø¯Ø§Ø¯ÙĪØ§": 10110, "ĠÙĥÙħÙĨ": 2670, "ĠÙĬØªØ²ÙĥÙī": 8127, "ĠØ£ØµØ§Ø¨ÙĥÙħ": 5289, "ĠÙĪÙĤØ¶ÙĬ": 4164, "ĠØ¢ØªÙĨØ§": 4827, "ÙĦÙĬÙĦ": 528, "ĠØ¨ÙĤØ§Ø¯Ø±": 6618, "ĠÙĦÙĨÙģØª": 8374, "ĠÙĬØŃÙĬ": 1035, "ĠÙĥÙĬØ¯Ùĩ": 9257, "ĠØ°Ø±Ø£ÙĥÙħ": 10031, "ØŃÙĥÙħ": 904, "ĠØªØ³Ø£ÙĦÙĩÙħ": 5208, "ĠÙĪÙĬØª": 2506, "ĠÙĦÙħØŃØ¶Ø±ÙĪÙĨ": 10116, "ĠØ¬ÙĩØ²": 7775, "ĠØµØ§ØºØ±ÙĪÙĨ": 10108, "ĠØ³Ø¬ÙĬÙĦ": 6718, "ĠÙĪØ´ÙģØ§Ø¡": 10186, "ĠÙħØ¬Ø±ÙħÙĪÙĨ": 7210, "ĠÙĦØ°ÙĨØ¨Ùĥ": 6998, "ĠÙĪØ±ØŃÙħØªÙĩ": 3292, "ĠÙĬØ³ÙĪÙħÙĪÙĨÙĥÙħ": 7068, "ĠÙħØŃÙĬØ·Ø§": 9410, "ĠØ¨Ø¹Ø°Ø§Ø¨": 1994, "Ø¹Ø±Ø¶ÙĪØ§": 4635, "ĠØ´Ø¦Øª": 4491, "ĠØ§ÙĦØ£Ø±Ø§Ø¦": 4118, "ĠØºÙĦÙĬØ¸": 4544, "ĠØ§ÙĨØµØ±": 5204, "ĠØªØ¯Ø¹ÙĪÙĩÙħ": 5478, "ĠØ¨Ø£Ø³ÙħØ§Ø¦ÙĩÙħ": 10319, "ĠÙĦØ£ÙĨØ²ÙĦ": 9437, "Ø¬Ø±ÙĪÙĨ": 5772, "ĠØ±Ø¨Ùĩ": 616, "ĠÙĪØ¹Ø²Ø±": 8367, "Ø¸Ø±": 535, "Ø§Ø´": 1046, "ĠÙĨØ·": 1700, "ĠØ¨Ø°Ø§Øª": 2191, "ĠÙĨÙĨØ¬": 4064, "ĠØ¹Ø¨Ø§Ø¯": 587, "ĠØ¹Ø§ØµÙħ": 6923, "ĠÙĪØ§ÙĦÙħÙĤÙĬÙħ": 8634, "ĠÙĬØ¶ÙĦÙĪÙĨ": 5259, "ĠØ§Ø¨ØªØº": 2023, "ÙģÙĬØ±": 7391, "ĠØ§ÙĦÙħØºÙģØ±Ø©": 7742, "ĠÙĪÙħØ£ÙĪØ§ÙĩÙħ": 3699, "ĠÙģØ£ØŃØ³ÙĨ": 7948, "ĠØ¹ÙħÙĦÙĥÙħ": 6420, "ĠÙģÙĤØ¹ÙĪØ§": 8620, "ĠÙħÙĪÙĤÙĨÙĬÙĨ": 9880, "ĠØ§ÙĦØŃ": 179, "ĠÙĬØ£ØªÙĬ": 779, "ĠØ§ÙĦØ´ÙĬØ·Ø§ÙĨ": 696, "ĠØ£ÙĬØ¯ÙĬÙĥÙħ": 2574, "ĠØ§ÙħÙĥ": 8017, "ĠØªÙĩØªØ²": 9945, "ĠÙĬØ³ØªÙĨÙĥÙģ": 10138, "ĠØ¥ÙĬÙħØ§ÙĨØ§": 3368, "ĠÙĪØ§ÙĦØ¯ÙĪØ§Ø¨": 10234, "ØªØ¨": 612, "ÙĩØ¯ÙĬÙĩÙħ": 6392, "ĠÙħØªØ´Ø§Ø¨Ùĩ": 9734, "ĠØ§ÙĦØµØ¯": 1229, "ĠÙĪØ§ÙĦÙħØ¤": 4315, "ÙĥÙĦÙĪÙĨ": 5612, "ĠÙĬØ¹Ø±Ø´": 8380, "ĠØ¨Ø±Ø²": 6506, "ĠØ°Ùĩ": 7858, "ĠØ¯Ø§Ø¨Ø©": 2039, "ĠØ¨Ø¬Ø§ÙĨØ¨": 10027, "ĠØ¬Ø¨Ø§Ø±": 4098, "Ø¬Ø²Ùī": 7507, "ĠÙĪØ£ÙĩÙĦÙĬÙĩÙħ": 9263, "ĠÙħØ³ØªÙħ": 5114, "ĠÙĪØ§ÙĦØ´ÙĩØ§Ø¯Ø©": 2596, "ĠÙĪØ§Ø¯Ø®ÙĦÙĪØ§": 6726, "ĠÙħØ¬ÙħØ¹": 9409, "ĠØ§ÙĦØ±Ø¬Ø²": 6688, "ĠÙĬÙĪÙħÙĥÙħ": 4193, "ĠØªÙħØ³": 2070, "ĠÙĪØ§ÙĦÙħÙĬØ²Ø§ÙĨ": 3885, "ÙģØ±Ø§": 4871, "Ø±Ø§ÙģÙĩØ§": 7835, "ĠØ§ÙĦÙģØ§Ø³ÙĤÙĪÙĨ": 2814, "Ø§ØŃØ¨": 4444, "ĠØ¢ÙħÙĨ": 212, "Ù": 30, "ĠØ±Ø¬Ø¹ÙĪØ§": 8706, "ĠØ´Ø±Ø§": 7801, "ÙĦØ·Ø§ÙĨ": 2282, "ĠÙĬØ¨Ø§ÙĬØ¹ÙĪÙĨÙĥ": 10176, "Ø¹ÙħÙĦ": 2511, "ĠØ¹ÙħÙĦÙĪØ§": 1536, "ØªÙĩÙĪØ§": 2744, "ĠÙĦØ¨Ø«ØªÙħ": 3059, "ĠØ§ÙĦØµÙħ": 3235, "ØŃØ¨ÙĪÙĨ": 4007, "ÙĬØŃ": 838, "ĠØ£Ø´Ø±Ùĥ": 1389, "ØµØ©": 2678, "ĠÙĤØ§Øµ": 4041, "ÙħØ¹ÙĪÙĨ": 3070, "ĠØ«ÙħØ§": 4149, "ĠÙĪÙĪØ¬Ø¯": 4440, "ĠÙĪÙħÙĥØ±ÙĪØ§": 6272, "ĠÙħÙĦÙĥ": 698, "Ø§Ø¨": 111, "ÙĤØ³ÙħØ§ÙĨ": 7346, "ĠÙĬÙĨÙĤØ°": 8138, "Ø¨ØªÙĥÙħ": 6362, "Ø¹Ø±Ø¶": 2183, "ĠÙĪØ§Ø¨ÙĨ": 3042, "ĠÙĬÙĨÙĥ": 3245, "ĠÙħÙĥÙĨØ§ÙĥÙħ": 8852, "ÙĨØ§ÙĥÙħ": 1627, "Ø¹ÙħÙĩÙħ": 5994, "ĠØ£ØªÙħ": 3949, "ÙĬØ³Ø±": 4586, "ĠÙħØ³Ø±ÙģÙĪÙĨ": 9745, "ĠÙĪÙĤØ¶ÙĬÙĨØ§": 10105, "ĠØ´ÙĬØ¦Ø§": 590, "ĠÙĬÙħ": 794, "ĠØ´ÙĩØ¯ÙĨØ§": 5302, "ĠØ§ÙĦØ«ÙĦØ«": 5595, "ĠÙĪÙĦÙĦÙĩ": 1226, "Ø±Ø¨Ø©": 8053, "ĠØ«ÙĤÙģÙĪØ§": 9546, "Ø²ÙĪØ§Ø¬": 802, "ĠÙĪØ±": 432, "ÙģÙĩÙħ": 7388, "ĠÙĪØ£ÙħØ·Ø±ÙĨØ§": 4443, "ĠØ£Øº": 1244, "ĠØ§ÙĦÙĪØ¬ÙĪÙĩ": 7134, "ĠÙĪÙĬÙĩØ¯ÙĬÙĩÙħ": 9399, "Ø§Ø·Ø¦ÙĬÙĨ": 8377, "ĠÙģØ°ÙĪÙĤÙĪØ§": 2304, "ĠÙģØª": 350, "ĠÙĬØ¯Ø±Ùĥ": 8449, "ĠØ£Ø±ØŃØ§Ùħ": 4347, "ĠÙĦØªØ®Ø±Ø¬": 6343, "Ø´ÙĩØ¯ÙĪØ§": 3552, "ĠÙĪØ¨": 436, "ĠÙĪØ®Ø³Ø±": 9069, "¤": 7, "ĠØ¢ØªÙĬÙĥÙħ": 5300, "ĠØ¹Øµ": 1281, "ĠÙħØ´Ø±ÙĥÙĪÙĨ": 7208, "ĠØ¨Ø£Ø³ÙĨØ§": 2599, "ĠØ§Ø°ÙĥØ±ÙĪØ§": 2728, "ÙģØ§": 379, "Ø£ÙĦÙĥ": 7417, "ĠØ§ÙĦØŃØ³ÙĨØ©": 3616, "ĠØ´Ø¯ÙĬØ¯Ø§": 2407, "ĠØ§ÙĦÙħØŃÙĬ": 5893, "ĠØ§ÙĦØ³Ø±": 5977, "ĠÙĬØµÙĦÙĪØ§": 8781, "ĠÙħØ¹Ø§": 4200, "ĠØ§ÙĦØ®Ø§ÙĦÙĤÙĬÙĨ": 9583, "ĠØ¬Ø§Ø¡ÙĩØ§": 8190, "ĠÙĬØ³Ø£ÙĦ": 4298, "ĠÙĦØ£Ø¨ÙĬÙĩ": 2764, "ĠØ¢Ø«": 2901, "ĠÙĪÙħØ£ÙĪØ§Ùĩ": 6978, "ĠØ±Ø³Ø§ÙĦØªÙĩ": 8333, "ĠÙĪÙĬØ¤Øª": 9543, "ĠØªØ¤": 1506, "ĠØ·Ø±ÙĬÙĤ": 8274, "ĠØ¹ÙĦÙħ": 493, "ĠÙĪØ¬Ø¹ÙĦÙĪØ§": 3027, "ĠØ§ÙĦØ£Ø¹ÙħÙī": 3198, "ĠÙħÙĦØ§ÙĤÙĪ": 6911, "ĠÙĤØ§ÙĨØªÙĪÙĨ": 9702, "ĠØ¢ÙĦÙĩØªÙĨØ§": 4417, "ĠÙĨØª": 3155, "ĠØ¨Ø·": 1219, "ĠÙĦÙĥÙĬÙĦØ§": 5064, "ĠØ¥ÙĥØ±Ø§Ùĩ": 10213, "ĠÙĦÙĨØ®Ø±Ø¬": 5073, "ĠØ±Ø£Ùī": 2257, "ĠØ³Ø£ÙĦØªÙĩÙħ": 3406, "ĠÙģØ°Ø§": 7272, "ĠØ£ÙĪØ±Ø«ØªÙħÙĪÙĩØ§": 10096, "Ø³ØŃØ§ÙĤ": 1746, "Ø¨Ø°": 3085, "ĠÙĤØ¯ÙħØª": 1816, "ĠØªØ¶ÙĦ": 7476, "ĠØªØ¨ØªØºÙĬ": 9532, "ĠÙĬØ±Ø§Ø¡ÙĪÙĨ": 8189, "ĠÙĬØ³ØªÙĤØ¯ÙħÙĪÙĨ": 6283, "¸": 26, "ĠØ£ÙĬÙĨÙħØ§": 6715, "ØŃØ¯Ø©": 7408, "ĠÙĪÙĦØ¢ÙħØ±ÙĨÙĩÙħ": 10262, "Ø±Ø¡ÙĪÙĨ": 5395, "ĠÙĪØµØ±ÙģÙĨØ§": 10188, "ĠÙĦØ¹ÙĦÙī": 6439, "ĠØ¢Ø¨Ø§Ø¤ÙĥÙħ": 4374, "ĠØ³Ø±Ø§": 1962, "ÙģÙĤÙĪØ§": 1135, "ĠÙĪØ§ÙĦØŃÙĥÙħ": 1959, "ĠÙĦÙĨØ¨ÙĪ": 8376, "ĠØ§ÙĦØ¥ØŃØ³Ø§ÙĨ": 8625, "ĠÙħØªØ¨Ø±": 8800, "ĠØµØ¯ÙĪØ±": 5178, "ĠÙĪÙĨØ¬ÙĬÙĨØ§": 6199, "ĠØºØ´Ø§ÙĪØ©": 10281, "ĠÙģÙĦÙĦÙĩ": 3670, "ĠÙģØ§ØªÙĤÙĪÙĨ": 5244, "ĠÙĦØªØ¹ÙĪØ¯ÙĨ": 10307, "ĠØ¨Ø¯ÙĦÙĪØ§": 9205, "ĠÙħØ³ÙĦÙħØ©": 5290, "ĠØ§ÙĦØ±Ø¬ÙģØ©": 5338, "ĠÙĬÙĨÙģØ¹ÙĩÙħ": 5327, "ĠØ·Ø³Ùħ": 8268, "ĠÙĦÙĥØ¨ÙĬØ±": 5063, "ĠÙģØ´Ø§Ø±": 7290, "ĠÙĪ": 56, "ĠØ§ÙĦØ´ÙĩÙĪØ§Øª": 7023, "ĠÙĬØ¹Ø°Ø¨": 2753, "ØªØ¨ÙĬ": 5617, "ĠÙĪØ¢ØªÙĬØªÙħ": 8622, "ĠØ£Ø·ÙĦØ¹": 9632, "ĠØ±Ø³ÙĪÙĦÙĩ": 1896, "ĠÙĥÙĦÙħØ§": 1888, "ĠØ§ÙĦØ¬ÙĨØ©": 761, "Ø£ÙĦ": 991, "ĠÙģÙĬÙħØ§": 1316, "ĠÙĪØ£ÙĦÙĤÙī": 6754, "Ø¶Ø±Ø¨": 3545, "ĠÙģØ§Ø®": 2060, "ĠÙĨÙĥØ°Ø¨": 9034, "ĠÙĨØ§Øµ": 1961, "ĠÙĪØ¹Ø§Ø¯": 3279, "ĠÙĦÙĬØ¯Ø®ÙĦ": 6916, "ĠÙĬØ³Ø£ÙĦÙĪÙĨ": 5110, "ĠØ£Ø¶": 1935, "ĠÙĪØ«Ø¨Øª": 7160, "ĠØªØ¨Ø±": 2873, "ĠØ¨Ø£ÙħØ±": 1726, "ĠÙĪÙĥÙĩÙĦØ§": 8023, "Ø´Ø£ÙĨØ§": 6639, "ĠÙħÙĥØ±": 1431, "Ø±Ø§Ø¯": 3598, "ĠÙģÙħÙĨÙĩÙħ": 2391, "ĠØªØ¬ÙĩÙĦÙĪÙĨ": 5132, "Ø§Ø¬Ø§": 5245, "ĠÙĪÙĨÙĪØ±": 8246, "ĠØ£Ø¹ÙĤØ§Ø¨ÙĥÙħ": 7027, "Ø¶Ø§Ø¡": 2326, "ĠØ§ÙĦÙħØ¤ÙħÙĨØ§Øª": 3178, "ĠÙĪØ£Ø±Ø¬ÙĦÙĥÙħ": 5490, "ĠØ¶Ø¹ÙĬ": 5060, "ĠÙĬØ¨Ø¯ÙĬÙĨ": 9218, "ĠØ´ÙģØ§Ø¡": 7806, "ĠÙĬÙĥÙĦÙģ": 8351, "ĠÙĩØ¯": 2897, "ĠÙĤÙĪÙħÙĨØ§": 5019, "ĠØ§ÙĦÙħØªÙĪÙĥÙĦÙĪÙĨ": 6755, "ĠØ£Ø´ÙĥØ±": 8792, "Ø§ÙĦÙĪØª": 3912, "ĠÙħÙĥØ§ÙĨØªÙĥÙħ": 5313, "ĠÙĪÙĬÙĤØ¯Ø±": 2713, "ĠÙģØ£ØµØ¨ØŃÙĪØ§": 2819, "ĠÙĪØ¹Ø¯": 593, "ĠÙģØ£ÙĩÙĦÙĥÙĪØ§": 9717, "ÙĬÙħØ§ÙĩÙħ": 3694, "ĠÙģÙĦÙĬØªÙĪÙĥÙĦ": 2789, "Ø·ÙĦÙĪÙĨ": 7686, "ĠÙħØºÙĨÙĪÙĨ": 9446, "ĠØ¨ØŃÙĪØ±": 9524, "ĠÙĨÙħÙĦÙĬ": 9604, "ĠØ¯Ø¹ÙĪ": 7936, "ĠØ·ÙĦÙĤØªÙħÙĪÙĩÙĨ": 9621, "ĠÙĨØŃ": 2893, "ĠØ§ÙĦØ¨Ø¹ÙĬØ¯": 5594, "ĠØ§ÙĦÙģÙĤØ±Ø§Ø¡": 6380, "Ø·ÙħØ¦ÙĨØ©": 9536, "ĠØ±Ø¨ÙĩÙħ": 463, "ĠØ§ÙĦØ£Ø±Ø¶": 230, "ÙĦÙĥÙħ": 524, "Ø°ÙĥØ±ÙĪÙĨ": 923, "ĠÙĦÙĦÙħÙĥØ°Ø¨ÙĬÙĨ": 2244, "Ø¦ÙĨ": 588, "ĠÙģÙĥØ§ÙĨÙĪØ§": 4470, "ĠÙĬØ¤Ø®Ø±": 4336, "ĠÙħØŃÙħØ¯": 4628, "ĠÙĪØ§ÙĦØ¶": 7591, "ĠÙħØ§Ø¦Ø¯Ø©": 9470, "®": 16, "ĠÙĥÙĬ": 4748, "ĠÙĬØ³ØªÙĪÙĪÙĨ": 6284, "ĠØ¬ÙĩØ§Ø¯Ø§": 10088, "ĠØ§ÙĦÙĤÙĬØ§ÙħØ©": 639, "ĠÙĬÙħØ´ÙĬ": 3769, "ĠØ¥Ø¹Ø±Ø§Ø¶": 10212, "ĠØ£Ø¨Ùī": 6411, "ĠÙĪØ§ÙĦÙĨØ§Ø³": 4526, "ĠØ¹Ø¬ÙĪØ²": 9290, "ĠØ§ÙĦÙĬØªÙĬÙħ": 4561, "ĠØ¨Ø§ÙĦÙģØŃØ´Ø§Ø¡": 5967, "ĠØ¨Ø§ÙĦØŃØ³ÙĨ": 2919, "ĠØ§ÙĦÙħØ´Ø±ÙĤ": 3890, "ĠÙĬØ³ØªØ¬ÙĬØ¨ÙĪØ§": 4287, "Ø°ÙĬØ±": 4695, "ĠØºØ§ÙĦØ¨": 6079, "ĠÙĨØ³ÙħØ¹": 7629, "ĠØ§ÙĦØ²Ø¨Ø±": 8898, "Ø¨ÙĪØ±": 3445, "ĠÙĥØ±ÙĬÙħØ§": 5541, "ĠØ¨Ø§ÙĦÙĤØ±Ø¢ÙĨ": 9233, "ĠÙħØµØ±": 3933, "ĠÙĬÙĩØ¯ÙĬÙĩ": 8884, "ĠØ§ÙĦØ£ØŃØ²Ø§Ø¨": 2502, "ĠÙĬÙĦØ¹Ø¨ÙĪÙĨ": 4547, "ĠØ³Ø¹Ùī": 6698, "ĠØ¢ØªØ§Ùĩ": 9228, "ÙĥØ±Ùĩ": 3623, "ĠÙħÙĦÙĪÙħØ§": 7219, "ĠÙĦØ±Ø¡": 3971, "ĠØ§ÙĦØŃØ±": 4918, "Ø¦Øª": 7703, "ĠØº": 213, "ĠÙģØ¹ÙħÙĬØª": 10193, "ĠÙĪØ±Ø³ÙĪÙĦÙĩ": 671, "ĠÙĪØ§ÙĦÙĥØ§ÙģØ±ÙĪÙĨ": 6751, "ĠØ¥ÙĨØ§Ø«Ø§": 4251, "ĠÙĨÙĤ": 2076, "ĠÙĪØ§Ø¯Ø¹": 5371, "ĠØ¥ÙĨÙĨÙĬ": 3544, "ĠÙħÙĨØ¸Ø±ÙĬÙĨ": 7431, "ĠÙĪÙĦØ¯ÙĬÙĨØ§": 9150, "ĠÙħØ³Ø¬Ø¯Ø§": 8521, "ĠÙĪÙĦØªØµ": 9063, "ÙĪÙĥÙĦ": 1417, "ĠÙħØ¬Ø±": 7203, "ĠØ®Ø³Ø±Ø§": 7795, "ĠØªØ¶Ø¹": 5762, "ĠØµÙĬØŃØ©": 3624, "ĠØ³ÙģØ§Ùĩ": 7680, "Ø¨ÙĬØ§Ø¡": 4185, "ĠØ¹ÙĨØ¯ÙĩØ§": 6183, "ĠÙĪØ²ÙĬÙĨØ©": 9587, "ĠÙĬÙĦÙĤÙī": 6734, "ĠØ¨Ø¹Ø¯Øª": 8180, "ĠÙĬØ³Ø§Ø±Ø¹ÙĪÙĨ": 3710, "Ø§Ø¨Ùĩ": 2896, "ĠÙģØ§Ø±ÙĩØ¨ÙĪÙĨ": 9350, "ÙĪØ§ÙĦØ¯ÙĬÙĨ": 3316, "ĠÙĪØ£Ø³ÙĦÙħ": 7730, "ĠÙĦØ¬Ø¹ÙĦÙĥÙħ": 9936, "ĠÙĦØ¹ÙĦÙĩÙħ": 932, "ĠØŃØ³ÙĬØ¨Ø§": 5202, "ÙĪÙĬ": 741, "ĠØªØª": 462, "ĠØ§ÙĦÙĤØ±ÙĨÙĬÙĨ": 6050, "Ø¨Ø´Ø±": 3446, "ØªÙĨÙĨÙĬ": 9384, "ĠÙģÙĦØ£ÙħÙĩ": 10131, "Ø§Ø¦Ø±": 1987, "ĠÙĤØ·Ø¹Øª": 9950, "ĠØ¬Ø§ÙĨ": 2498, "ĠØ®ÙĦØ§Ø¦Ùģ": 5547, "ĠÙĥÙģØ±ÙĨØ§": 8130, "ĠÙģØ¦": 5663, "ĠØ£ØµØ¨": 8492, "ĠØ±Ùħ": 5807, "ĠÙħÙħØ§": 459, "ĠÙģØ£ÙĪØŃ": 4158, "ĠÙĪØ¨ÙĨÙĬÙĨ": 3706, "ĠÙĪØ±Ø¶ÙĪØ§ÙĨØ§": 6776, "ĠÙĪÙĦÙī": 5596, "ĠÙĪØµØ¯": 2173, "ĠØ£Ø®Ø±Ø¬ÙĨØ§": 3802, "ÙĬØ¯Ø§": 856, "ØªÙĨØ¨ÙĪØ§": 3848, "ĠØ¬Ø¨Ø§Ø±ÙĬÙĨ": 9846, "ĠÙĥØ±Ø©": 5240, "ĠÙĦÙĦ": 273, "ĠÙĪØ°ÙĥØ±": 1930, "ĠÙĦØ®Ø¨ÙĬØ±": 9562, "ĠØ£Ø±Ø³ÙĦÙĨØ§Ùĥ": 2250, "ĠÙĨØ§Ùģ": 4799, "ĠÙĬØ±ÙĩÙĤ": 8187, "ĠØ®ÙĬÙģ": 4867, "ĠØŃØµ": 3579, "Ø´Ø±ÙĬÙĨ": 3638, "ĠÙĪÙĬØ¤ØªÙĪÙĨ": 4520, "ĠØ®ÙĦÙĤÙĩÙħ": 5042, "ĠØ¹ØµØ§Ùĥ": 6622, "ĠØ¨ÙĤÙĪÙĦ": 5711, "ĠÙĪØ§ÙĦØ¥": 1248, "ĠÙĪÙģ": 1549, "Ø¨Ø¹ÙĪÙĨ": 1682, "ÙĤÙĩÙħ": 1769, "ĠØ¨ÙħØµØ§Ø¨": 8917, "ĠÙħØªØ±ÙģÙĪÙĩØ§": 10148, "ĠØ«ÙĪØ§Ø¨": 3207, "ĠÙħØ´Ø±ÙĤÙĬÙĨ": 9922, "ĠÙĪØ±Ø¨ÙĥÙħ": 2589, "ĠØ£Ùĩ": 362, "Ø§ÙĦÙī": 1753, "ÙĬÙħÙħÙĪØ§": 5928, "ĠØ®ÙģÙĬ": 7784, "ĠØ¬Ø²Ø§Ø¤Ùĩ": 6529, "ĠÙĪØ§ÙĦÙĬØªØ§ÙħÙī": 3418, "ĠÙħØ³ÙĨØ§": 8513, "ĠØ¨Ø§ÙĦØ¹": 1578, "ĠØµØ¯ÙĪØ±ÙĩÙħ": 2570, "ĠØ¬Ø¦ÙĨØ§Ùĥ": 6604, "ĠØ§Ø®ØªÙĦÙģ": 2268, "ØªØ±ÙĬ": 7180, "ĠØ«ÙĦØ©": 7921, "ĠÙĨØ³Øª": 4798, "ĠØ§ÙĦØ£Ø³ÙģÙĦÙĬÙĨ": 10092, "ĠÙħÙĦÙĥÙĩ": 6459, "ĠÙħØ«ÙĨÙī": 6262, "ĠÙĬØµÙĦØŃÙĪÙĨ": 8782, "ĠØ¯Ø¹Ø§ÙĨØ§": 9611, "ĠÙģØ§ØªØ¨Ø¹ÙĪØ§": 9685, "ĠØ±Ø£": 907, "ĠÙĬÙĤØ§ØªÙĦÙĪÙĨ": 2571, "ĠÙģØ§ØŃØ´Ø©": 5017, "ÙĤØ¯ÙħÙĪÙĨ": 4187, "ĠØªÙħÙĪØª": 4433, "ĠØ·ÙĦÙĤØªÙħ": 5455, "ĠØ§ÙĦÙĨØ§": 225, "ÙĪÙģØ§ÙĩÙħ": 8198, "ĠÙĬÙģØ³": 2451, "ĠØ§Ø°ÙĩØ¨Ø§": 8018, "ĠÙĪØ§ÙĦØ¹Ø¯ÙĪØ§ÙĨ": 4567, "ĠØŃØ¬Ø©": 6658, "ĠÙĪÙĬØ³ØªØ¹Ø¬ÙĦÙĪÙĨÙĥ": 7071, "ÙĤÙĬÙĥÙħ": 7342, "ĠØ¨Ø¹ÙĬØ±": 8111, "ĠØ¨Ø¥Ø°ÙĨ": 1101, "ĠÙĪØªÙĪÙĦÙĪØ§": 8155, "ĠØ§ÙĦØ®ÙĨØ²ÙĬØ±": 6269, "ĠÙĪÙĦÙĨØ¨ÙĦÙĪÙĨÙĥÙħ": 8952, "ĠØ±Ø¯": 2473, "ĠÙģØ£Ø¹Ø±Ø¶": 3210, "Ø®Ø³ÙĪØ§": 5800, "ĠØ§ÙĦÙħÙĨØªØ¸Ø±ÙĬÙĨ": 7032, "ÙħØ¹": 347, "ĠÙĬØ¨ÙĬÙĨ": 1622, "ĠØ§ÙĦØ®Ø¨ÙĬØ«": 2977, "ÙģØ¹ÙĪÙĦØ§": 3317, "ÙĪØŃ": 424, "ÙģÙĦØ§": 7390, "ĠØ¬Ø¨Ø§Ø±Ø§": 5919, "ĠÙĨØ¯Ø¹": 7632, "ĠÙĪÙĤÙĨØ§": 7973, "ĠØ£ØŃÙĬ": 3259, "ĠÙħÙĪØªÙĩ": 8181, "ĠÙĪØ§ÙĦØµØ§Ø¨Ø±ÙĬÙĨ": 5306, "ĠØ£ÙĥØ«Ø±ÙĥÙħ": 8713, "ĠØ¨Ø¥Ø³ØŃØ§ÙĤ": 8865, "ĠØ¥ÙĦÙĬÙĩØ§": 4979, "ĠØ§Ø³ØªÙħØ³Ùĥ": 9271, "ĠØ³ÙĨØ¨ÙĦØ§Øª": 10159, "ĠØªØ£Ø®Ø°ÙĪØ§": 8595, "ĠÙĪØ¥ÙĦÙĬÙĥ": 5948, "ĠØ§ÙĦÙħØ¤ÙħÙĨÙĬÙĨ": 584, "ĠÙĦØ¨Ø¹Ø¶": 2646, "ĠÙĪÙĨÙĤÙĦØ¨": 8249, "ĠÙħÙĪØªØªÙĨØ§": 8184, "Ø§ÙĥÙħ": 1547, "Ø¬ÙĬ": 4029, "ĠÙĦÙĬØ¤ÙħÙĨÙĨ": 8009, "ĠÙĬÙĪØ²Ø¹ÙĪÙĨ": 6396, "ĠØ§ÙĦÙħÙĥÙĬØ§ÙĦ": 9841, "ĠØ¹Ø§Ùħ": 2069, "ĠÙģØ¦Ø©": 3109, "ĠØªÙĤÙĪÙĦ": 1220, "ĠØ¨Ø«": 4704, "ÙĦÙĬÙĥ": 4044, "ĠØ§ÙĨÙģØ±ÙĪØ§": 6476, "ÙĦØ§ØªÙĥ": 7465, "ĠØ§ÙĦØµÙĬØ¯": 6098, "ĠØ¹Ø§Ø¯Ø§": 9220, "ĠØ¯Ø¹ÙĪØ§": 1978, "ĠÙĦÙĬÙĤØ¶ÙĬ": 9676, "ÙħØ§Ø«ÙĬÙĦ": 10218, "ĠÙģØ£ÙħÙĦÙĬØª": 9979, "ĠÙĨØºÙģØ±": 7621, "ĠØ£ÙħØ±Øª": 3305, "Ø³Ø¨ÙĪØ§": 3665, "ĠØ§ÙĦØ¹Ø§Ø¬": 6021, "ĠÙĦÙĬØ§ÙĦ": 6052, "ĠÙĥØ§Øª": 3532, "ĠØ«ÙĬØ§Ø¨ÙĩÙħ": 9782, "ĠÙĨØ¹Ø¯ÙĩÙħ": 4068, "Ø§ÙĦØŃ": 377, "ĠÙĦØ£Ø¬Ø±Ø§": 6306, "ĠØªØ¨ÙĬ": 7469, "Ø±ÙĬÙĩÙħ": 6065, "ĠÙĦÙĪØ·": 1732, "ĠØ£Ø°ÙĥØ±": 7236, "ĠØªÙħÙĪØ±": 9136, "ĠÙģÙĬ": 95, "ÙĪÙĦÙĩ": 497, "ĠÙĪÙĨØ§Ø¯Ùī": 3868, "ĠØ§ÙĦØ£Ø¬Ø¯": 5939, "ĠÙħÙĦÙĥØ§": 3332, "ĠÙĬØ£Ø®Ø°ÙĩÙħ": 9728, "ĠÙģÙĦÙĩ": 2449, "ĠØ¨Ø§ÙĦØ³": 2917, "ĠØ§ÙĦØ¥Ø«Ùħ": 2996, "ÙĦØ§Ùĩ": 7463, "ĠÙħØªØ±Ø¨Øµ": 8802, "ĠØ§ÙĦØ´ÙħØ³": 1528, "ĠØ·Ø§ØºÙĬÙĨ": 9997, "ĠÙĪØ£Ø±Ø¬": 3177, "ĠØ§ÙĤØ±Ø£": 7018, "ĠÙģÙħÙĨ": 480, "£": 6, "ĠØ£Ø«ÙĤØ§ÙĦ": 5344, "ĠØ¨ÙĦØºÙĨ": 9303, "ĠØªØ·ØºÙĪØ§": 6763, "ĠØ§ÙĦØ¸Ø§ÙĦÙħ": 8465, "ĠØ§ÙĦØ¯ÙĩØ±": 8209, "ĠÙĬØŃØ¨": 893, "ĠÙħØ®ÙĦØµÙĬÙĨ": 3096, "ĠØ«Ø¹Ø¨Ø§ÙĨ": 10271, "ĠØ¥ÙĦÙĬÙĩ": 596, "ĠÙĦÙĦØ±ØŃÙħÙĨ": 2733, "ĠÙĦÙĨØ¨ÙĪØ¦ÙĨÙĩÙħ": 10300, "ĠØ¨Ø¢": 1559, "ĠÙĪØ¬Ø¯": 2365, "ĠÙĨØ²ÙĦÙĩ": 9364, "ĠØªÙĨØ°Ø±ÙĩÙħ": 8615, "ĠÙħØŃÙģÙĪ": 9072, "ĠØ§ÙģØªØ±ÙĬØªÙĩ": 9084, "ĠÙĬØ±ÙģØ¹": 6161, "ĠÙĪÙĥÙĬÙĦ": 4182, "ĠØ¹Ø§ÙħÙĦ": 5410, "ĠÙĬØŃØ°Ø±ÙĪÙĨ": 8172, "Ø¨ÙĤÙĪØ§": 5622, "Ø·Ùĩ": 7684, "ĠÙĪÙĥÙģ": 8021, "Ø§Ø¦Ø²ÙĪÙĨ": 4974, "ĠØªØ²Ø¯": 9139, "ĠØ§Ø·": 4576, "ĠØ§ÙĦØ¨Ø¹Ø«": 5590, "ĠÙģÙĥØ°Ø¨Øª": 9338, "ĠØ§ÙĦØ°ÙĥØ±Ùī": 3809, "ĠÙĪÙĬÙĦØ¹": 4141, "ĠÙģØ¹ÙĦÙħ": 7275, "Ø³Ø¨ÙĪÙĤÙĬÙĨ": 8201, "ĠØ¶Ø¹Ùģ": 2549, "ĠÙĪØ°Ø±": 7148, "ĠÙĪØ£Ø¹ØªØ¯ÙĨØ§": 3413, "ÙĪØ¨": 270, "ĠÙĬØ¹": 378, "ĠÙĬØ®ÙĪ": 4293, "Ø´Ø§ÙĩØ§": 4790, "Ø¨Ø±ÙĬÙĦ": 6948, "ĠÙĪÙĤÙĪÙħÙĩÙħØ§": 9238, "ĠØ§ÙĦÙĦØ§Ø¦ÙĬ": 9442, "ĠÙĪÙĥØªØ¨ÙĨØ§": 9869, "ĠØ³ÙħØ¹Ø§": 7678, "ĠØ£ÙĩÙĦÙĥÙĨØ§ÙĩØ§": 5270, "ĠØ¨Ø·Ø´Ø§": 9105, "ĠÙĪØ§ÙĦÙħÙĨØ§ÙģÙĤØ§Øª": 4575, "ÙĥØ¨Ø±ÙĬÙĨ": 9246, "ĠÙĬÙĨÙĥØŃ": 9725, "Ø·Ø¹ÙĬÙĨ": 6415, "ĠØ¨Ø§Ø³Ùħ": 5449, "ÙĪØ±ÙĪÙĨ": 7107, "ĠØ£ÙĬÙĨ": 1685, "ÙĤÙĬÙĨ": 332, "ĠÙĪØ§ÙĦØ¨ØºØ¶Ø§Ø¡": 5294, "Ø³ÙħØ¹ÙĪØ§": 3233, "ĠÙĬØ¹Ø¯ÙĦÙĪÙĨ": 4500, "ĠØªÙħÙĨÙī": 6867, "ØªØ¯ÙĨØ§": 3440, "ĠÙĬÙĥØ°Ø¨ÙĪÙĥ": 6858, "ĠÙĨØ³ÙĬØª": 6453, "ĠØ§ÙĦÙĪ": 1493, "ĠØ§Ø³ØªØ·Ø§Ø¹ÙĪØ§": 5128, "ĠÙĤØ±Ø©": 7531, "ĠÙĬØ´ÙĥØ±": 6167, "ĠØ¸Ø§ÙĩØ±Ø§": 8234, "ĠÙĪÙĤØ±Ø§": 4163, "ĠÙħØ³Ø·ÙĪØ±Ø§": 10142, "ĠØ£ØªØ§ÙĩØ§": 6707, "ĠÙĪØ±Ø§Ø¡ÙĩÙħ": 8474, "Ø¬Ø±ÙħÙĬÙĨ": 1055, "ĠØ£ÙĬØ¯ÙĬÙĩÙħ": 1082, "ĠØ¯ÙĬÙĨÙĩ": 9003, "ĠØ£Ø´ÙĩØ±": 4351, "ĠÙĪØ´Ùģ": 7155, "Ø£ÙĬÙħØ§ÙĨÙĩÙħ": 7423, "ĠÙĪÙĤØ°Ùģ": 7979, "ĠÙĪÙĦÙĬÙĤÙĪÙĦÙĪØ§": 8555, "ĠØ£Ø°ÙĦÙĥ": 7235, "Ø¬Ø¹ÙĪØ§": 3141, "Ø¹ÙģØ§": 4634, "ĠØªØºÙĬ": 7486, "ĠØ£Ø±Ø§Ø¯": 1545, "ĠØ¨ÙĬÙħÙĬÙĨÙĥ": 9758, "ÙĬÙģ": 501, "ĠØ§ÙĦØ³ÙĬØ¦": 9237, "ĠØ¨Ø±ÙĩØ§": 3020, "Ø¤ÙĬØ§": 3200, "ĠØ§ÙĦØ¹Ø²ÙĬØ²": 684, "ĠØ§Ø±Ø¬Ø¹": 5369, "ĠÙĦÙĦØ¬": 8143, "ĠØ·ÙģÙĦØ§": 8277, "ĠÙģØ±ÙĤÙĪØ§": 8443, "ĠÙĪÙĦÙĬØ³Øª": 8551, "Ø·Ø¹Ø§Ùħ": 5862, "ĠÙĪØ£ØŃÙĦ": 9658, "Ø¨ÙĪØ±Ø§": 3088, "ÙĨØ²ÙĦ": 5562, "ĠØ¨ÙĩØ§": 570, "ĠØ¹ÙĦÙħÙĩØ§": 5138, "ĠØªØ¯Ø±Ø³ÙĪÙĨ": 8762, "ĠÙĪØ¥Ø°": 624, "ÙĥØŃÙĪØ§": 7176, "ĠÙĨØŃÙĬÙĬ": 5845, "Ø«Ø§ÙĨØ§": 7700, "Ø³Ø¨Ø§Ø·": 4230, "ÙĤØ±Ø§Ø¡": 3763, "ĠÙĦØ¢ÙĬØ©": 1542, "ĠÙĪØ³Ø¨Ø¹": 6389, "ĠÙĨ": 110, "ĠØªØµØ·ÙĦÙĪÙĨ": 8968, "ĠØ´Ø¹Ø§Ø¦Ø±": 5367, "ĠØ¨ÙĦÙī": 1393, "Ø§Ø±Ø¹Ø©": 4153, "ĠÙħÙĥØ±ÙĪØ§": 6664, "ØµØ±Ùĥ": 8405, "ĠÙģØ¹ÙĦÙĪØ§": 5279, "ĠØ¨Ø±Ø¨ÙĥÙħ": 4411, "ĠÙĦÙĦØ³Ø§Ø¦ÙĦÙĬÙĨ": 9874, "ĠÙĦØŃ": 1941, "ĠØªØ±Ø¬Ø¹ÙĪÙĨ": 1527, "ĠÙħØ¯ÙĥØ±": 3795, "ĠÙħØ±ØªÙģÙĤØ§": 8508, "ĠÙĪØ²ÙĦ": 5601, "ĠÙĬÙĨØ¨": 2536, "ĠØ§ÙĦØ¹Ø¯": 5584, "ĠØ·Ø§ÙĦÙĪØª": 8276, "ĠÙĤÙĪÙĦÙĩÙħ": 3045, "ĠØ¨ÙĬÙĨ": 247, "ĠØªØ¹Ø¨Ø¯ÙĪÙĨ": 1533, "ĠÙħØ±Ø¬Ø¹ÙĥÙħ": 2430, "ÙģÙĥØ§": 7400, "ĠØ¨ÙĦØºÙĪØ§": 8332, "ĠÙĪØº": 2841, "ĠØ¹ÙĤØ¨": 4018, "ĠÙħØ³Ø§Ùģ": 6314, "ĠØ¨Ø·Ø§Ø±Ø¯": 9106, "ĠÙĪÙĪÙĩ": 2844, "ÙĨÙĪÙĨ": 581, "ØªØ§ÙĩÙħ": 4266, "ĠØ«Ùħ": 189, "ĠÙĪØªÙĨ": 4213, "ĠÙĬÙħÙĬÙĨ": 4678, "ĠØ§Ø®ØªÙĦÙģÙĪØ§": 2829, "ÙĪÙĪÙĨ": 5572, "ÙĪØ´ÙĩØ§": 6881, "ĠÙĪØ§Ø¨": 1306, "Ø§Ø¦": 231, "ĠØ¥Ø®ÙĪØ§ÙĨÙĩÙĨ": 5535, "ĠØ§ÙĦØ³ÙĬØ¦Ø§Øª": 2036, "ĠÙĨØ³ÙĪØ§": 3330, "ÙĨÙĪØ±": 7085, "ĠÙĪÙĦØ¯Ø§Ø±": 9149, "ĠÙĪØ³Ø§Ø±": 6388, "ĠØªØ¯Ø¹ÙĪØ§": 6443, "ØŃÙħÙĨØ§": 4229, "ĠÙĦÙĨÙĥÙĪÙĨÙĨ": 4262, "Ø§Ø¡ÙĪØ§": 3569, "ĠØ£ÙģØ±Ø£ÙĬØªÙħ": 3391, "ĠØ¨Ø¬Ø§ÙĨØ¨Ùĩ": 10028, "ĠØ§ÙĦØ£Ø¹Ø±": 2501, "ĠØ£Ø¹ÙħØ§ÙĦÙĩÙħ": 1237, "ĠÙĬØ·Ø¹": 3114, "ĠØªØ¹Øª": 3297, "ĠØ°Ø§": 1462, "ÙĬØ±Ùī": 7691, "ĠÙħØ«ÙĦ": 846, "ĠØ¢ØªØ§ÙĥÙħ": 3822, "ĠÙĪØ·Ø§Ø¦ÙģØ©": 6653, "ĠÙĪÙĦÙĬÙĨØ°Ø±ÙĪØ§": 10093, "ĠÙħÙĬØ±Ø§Ø«": 10189, "ĠØªØ¬ÙĦÙī": 8579, "Ċ": 31, "ĠØ®Ø±Ø¯": 7790, "ĠØ£ÙħØ«Ø§ÙĦÙĥÙħ": 5471, "ÙĪØªÙĥ": 5092, "ĠØ§ÙĦØ®ÙĪØ§ÙĦ": 8421, "ĠÙĬØ²ÙĥÙĬÙĩÙħ": 9052, "ÙĨ": 48, "ĠØ¹ÙĨØ¯ÙĨØ§": 1996, "ĠØ£ÙĪÙħÙĨ": 7868, "ĠÙĬØ¬Ø§Ø¯ÙĦ": 4507, "ĠØºÙĬØ§Ø¨": 8042, "ĠØ¨Ø£Ø¹ÙĦÙħ": 8290, "Ø§ÙģÙĦÙĪÙĨ": 6221, "ĠØ§ÙĦÙħÙĥØ±": 4845, "ÙĥÙĪØ§": 7168, "ĠØ¹Ø¨Ø§Ø¯Ùĩ": 1302, "ĠÙĦØªØ£ÙĥÙĦÙĪØ§": 10306, "ĠÙĨØ²ÙĦÙĨØ§": 3158, "ĠÙĪØ£ØªØ¨Ø¹ÙĪØ§": 10081, "ĠØ§ÙĦÙģ": 537, "ĠØ§ÙĦØ¨ÙĬÙĪØª": 5331, "ĠØŃØ§ÙģØ¸": 3581, "ÙĦÙĩÙħ": 654, "ĠÙħÙħÙĨ": 1003, "ĠØªÙĨÙģØ¹": 3726, "ĠÙĬØ¹ÙĤÙĦÙĪÙĨ": 1413, "ĠÙĪØ§Ø°ÙĥØ±": 1722, "ĠÙĬØ¨ØºÙĪÙĨ": 4370, "ĠÙĪØ¥Ø«ÙħØ§": 5947, "ÙĦÙĪÙĨÙĩ": 7929, "ĠØŃÙĤØ§": 1707, "ĠÙĩÙĪÙī": 8076, "ĠØ§ÙĦØ®": 401, "Ø¨Ø§Ø·ÙĦ": 7193, "ĠÙĬÙĤ": 648, "Ø«Ùħ": 943, "ĠØ¹ÙħÙĬ": 4728, "ĠØ£Ø´ÙĬØ§Ø¡ÙĩÙħ": 7028, "ĠØ§ÙĦÙħÙģ": 2081, "ØªØ±ÙĪÙĨ": 3439, "ĠÙĪÙĦØªØ¨ØªØºÙĪØ§": 5273, "ÙĤØ§ÙĦØ§": 7344, "ĠØ§ÙĦÙĥØ¨Ø±Ùī": 3860, "ĠÙħØªØ¹ÙħØ¯Ø§": 8803, "ĠØ³Ùħ": 3560, "Ø²ÙĦÙĪÙĨ": 7571, "ĠÙĦØ¯ÙĬÙĩ": 9047, "ĠÙĪØ£ÙĬØ¯": 2492, "ĠØ¨Ø¹Ø¶ÙĩÙħ": 1077, "ĠØ§ÙĦØ²": 864, "ĠØŃÙħÙĦ": 3015, "ĠØ§ÙĦØ³ÙģÙĩØ§Ø¡": 4571, "ĠØ¨Ø¹ÙĦÙħÙĩ": 5486, "ĠÙĬÙĨØªÙĩ": 8133, "ĠÙĥØ¨ÙĬØ±Ø©": 9421, "ĠÙĪØ§ÙĦØ·ÙĬØ¨Ø§Øª": 9489, "ĠÙĤØ¯Ø±ÙĨØ§": 9499, "ĠØ¥ÙĨØ³": 4780, "ĠØ±Ø¬Ø²": 6417, "ÙģØ¹ÙĪÙĨ": 7394, "ĠÙĤØ±ÙĬØ¨Ø§": 2788, "ĠØ§ÙĦÙħØ±Ø³ÙĦÙĪÙĨ": 3361, "Ø¶ÙĬØ§": 5815, "ĠÙĩØ¶": 7647, "ĠÙĪØªØ®": 4215, "ĠÙĪØ£ÙĨØ¨ØªÙĨØ§": 6204, "ĠÙĪØ§ÙĦØ£Ø¨ØµØ§Ø±": 3251, "Ø§ÙĥÙĬÙĨ": 2256, "ĠØ¬Ø§Ø«ÙħÙĬÙĨ": 4555, "Ø³Ø§ÙĨ": 1621, "ĠÙģØ£Ø¹Ø±Ø¶ÙĪØ§": 6019, "ĠØ¨Ø¬ÙĨÙĪØ¯": 9941, "ĠØ£ÙģØ¦Ø¯Ø©": 10001, "ĠÙģØ£Øª": 2930, "ĠØ§ÙĦÙĪØ§ÙĤØ¹Ø©": 9345, "ĠØ±Ø£ÙģØ©": 8932, "Ø¨ÙĦÙĪÙĨ": 7189, "ĠÙĪØ¬Ø¦ÙĨØ§": 6974, "ÙĤØ©": 1134, "ĠÙĪÙĬØ³ØªØºÙģØ±ÙĪÙĨ": 9187, "ĠØ£ØµØ§Ø¨ØªÙĩÙħ": 9109, "ĠÙĪØ´ÙĩØ¯": 9279, "ĠÙĪØ£ÙĪØ±Ø«ÙĨØ§": 6928, "²": 20, "ĠØ¨ÙĩÙħ": 924, "ÙģØ¶ÙĦ": 7399, "ĠØ¨Ø³Ø·Ø©": 9940, "ĠØ§ÙĦÙĤØ±Ø¨Ùī": 2222, "ĠØ§ÙĦØ£ÙĦØ¨Ø§Ø¨": 1843, "ĠØ³ÙħØ¹": 1027, "ĠÙģÙĬÙĪÙģÙĬÙĩÙħ": 7541, "ĠØ§ÙĦÙĨØ¨ÙĬ": 930, "ĠÙģÙĬÙĨ": 1502, "ĠÙĨÙģÙĪØ±Ø§": 5255, "ĠØªØ¬Ø¯": 1563, "Ø¡ÙĪØ§": 4888, "ĠÙģØ¬Ø¹ÙĦÙĨØ§ÙĩÙħ": 4515, "ĠØ§ÙĦØ³ØŃØ±": 1972, "ĠØ§Ø¨": 716, "ĠØ£ØªÙĪØ§": 4640, "ĠÙħØ§ÙĦÙĥ": 6694, "ĠÙĬØ¨ÙĥÙĪÙĨ": 8862, "ĠØ´ÙĨØ¢ÙĨ": 7808, "ĠØ£Ø±Ø¨Ø¹": 6704, "ĠÙĤÙĪÙħÙĩ": 1014, "ĠØ¹Ø±Ø´": 4017, "ĠØ§Ø®ØªÙĦØ§Ùģ": 9154, "ĠÙĦØ³Øª": 3477, "Ø´ÙĪÙĨ": 1449, "ĠØ§ÙĨÙĤÙĦØ¨ÙĪØ§": 6478, "Ø§ÙĩØ¯ÙĬÙĨ": 2251, "ĠÙĤ": 91, "ĠÙĦØª": 474, "ĠÙĪØ¹Ø¯ÙĨØ§": 4327, "ĠØ§ÙĦÙħÙĨØ²ÙĦÙĬÙĨ": 8957, "ĠÙĨØ°ÙĤÙĩ": 6549, "ĠØ¹ÙĨÙĥÙħ": 1327, "ĠÙĬØ£ÙħØ±ÙĪÙĨ": 6224, "ĠÙħØ±Ø¶": 1240, "ĠØ±Ø¨ÙĥÙħØ§": 1073, "ĠÙĪØ§ÙĦØ¢Ø®Ø±Ø©": 1568, "ĠÙĥÙģØ±Ø§": 4984, "ĠØ®ÙĦØ§ÙĦÙĩ": 9665, "ĠÙģØªØŃ": 3272, "ĠÙĬØŃÙħÙĦÙĪÙĨ": 10124, "ĠÙĦØ£ÙĨÙģØ³ÙĥÙħ": 3857, "Ø§ÙĨÙĬÙĪÙĨ": 9165, "ĠÙĪØ±ØŃÙħØ©": 1337, "ĠØ£Ø¹Ø°Ø¨Ùĩ": 8605, "ĠØ§ÙĦØ¹ÙħÙĬ": 5461, "ĠÙĨÙģ": 992, "Ø±ÙĬ": 201, "ĠØ§ÙĦÙĪÙĤØª": 9243, "ĠØŃØ¨Ø©": 4091, "ĠÙģØ§Ø°ÙĥØ±ÙĪØ§": 3256, "ĠÙĬÙĪØ±Ø«": 7326, "ĠØªÙĦÙĤØ§Ø¡": 6795, "ĠØ´ÙĥØ±": 4872, "ĠÙħØ¶ØºØ©": 9804, "Ø·Ø±Øª": 6520, "ĠØ§ÙĦØ¥ÙĨØ³": 3728, "ĠÙĪÙĨÙģØ®Øª": 9727, "ĠØªØ¤ØªÙĬ": 9252, "ĠØ¹Ø¯ÙĪÙĥÙħ": 8816, "Ø·ÙĨØ§": 3567, "ĠÙĦÙħÙĬÙĤØ§ØªÙĨØ§": 10117, "ØŃØµÙĨØ§Øª": 3397, "ĠØ§Ø¬ØªØ¨Ø§Ùĩ": 9799, "ĠÙģØ¶": 782, "ĠØªÙĪÙĦÙĬØªÙħ": 3041, "Ø´Ø±Ùī": 4190, "ĠØªØŃØ±": 5080, "ĠØ§ÙĦØ£ÙĬÙħØ§ÙĨ": 7814, "ĠØªÙĨØ¸Ø±ÙĪÙĨ": 3304, "ĠÙĥÙĨ": 1696, "Ø¯ÙĨ": 3465, "ĠÙĪÙħÙĨÙĥÙħ": 3620, "ĠØ§ÙĦÙģØ¶ÙĦ": 2015, "ØªØ§ØªØ§": 7185, "ĠÙĪÙĥÙģØ±ÙĪØ§": 8022, "ĠÙģØ§Ø¯Ø¹ÙĪÙĩ": 9910, "ĠØªØŃØ¨ÙĪÙĨ": 2969, "Ø¬ÙĦ": 972, "ĠÙĬØ³Ø±Ø§": 3707, "ĠØ®ÙĦØ§": 7782, "ĠÙĬØºÙĬØ±ÙĪØ§": 8809, "ĠÙĪØ§ØªÙĤÙĪØ§": 913, "ÙĪØ¬ÙĪÙĩ": 3736, "ĠØ§ÙĦÙĪÙĦØ¯Ø§ÙĨ": 7136, "ĠØªØ¹Ø¶ÙĦÙĪÙĩÙĨ": 8538, "ĠÙĪØ§ÙĦÙĥÙģØ§Ø±": 9390, "ĠÙĦØ£ÙĥÙģØ±ÙĨ": 10141, "ÙĨØ¸Ø±": 5563, "ÙĪØ§Ùĥ": 4697, "ÙĪÙģÙĪØ§": 2952, "ÙĪØ³ÙĪØ³": 6575, "ĠÙĪÙĪØµÙĬÙĨØ§": 6644, "ĠÙĪØŃÙģ": 6471, "ĠØ£Ø®Ø±Ø¬": 1131, "ĠÙĨØ£ØªÙĬ": 10076, "ÙĪÙĦØªÙĩÙĨ": 4831, "ÙĩÙĪØ±Ø§": 8100, "ĠÙĬØ¶ÙĦÙĪÙĥ": 9021, "ĠØ£ÙĪÙĦÙĬØ§Ø¤ÙĩÙħ": 8812, "ĠØ¹Ø±Ø¨": 2661, "ĠØ¨Ø§ÙĦØ°ÙĬ": 2350, "ĠÙĪØ¢Ø¨Ø§Ø¤ÙĨØ§": 6820, "ØºÙĪÙĨ": 1638, "ĠÙĬÙħØª": 4682, "ĠØªØ³Ø¹": 6479, "ØµØ±ÙģÙĪÙĨ": 6253, "Ø§Ø¦ÙĥÙħ": 1812, "ĠÙģØªÙĬØ§ØªÙĥÙħ": 8330, "ĠØ¸Ø§ÙĦÙħÙĬÙĨ": 2740, "ĠØ¨Ø¬ÙĨ": 4709, "ĠØ®ÙĬØ±Ø§": 994, "ĠÙĦÙĦØº": 6133, "ĠØ³ÙĬØµÙĬØ¨": 6422, "ÙĦÙħÙĩÙħ": 4069, "Ø¨Ø§ØŃ": 5071, "ĠØ§ÙĦÙħ": 129, "ĠØ§ÙĦØ£ÙĨØ¹Ø§Ùħ": 2018, "ĠÙĥØ°Ø¨ÙĪÙĨ": 6333, "ĠÙĬØ¶ÙĬ": 7324, "ĠØ£ØŃØ§Ø·": 5021, "ĠÙĨÙģØ³ÙĬ": 2769, "ĠÙĦØ·ÙĬÙģ": 4671, "ĠØ±Ø¤ÙĬØ§": 5809, "ĠÙĪÙģØµØ§ÙĦ": 9277, "ĠÙĪØ¨ÙĦØº": 5606, "ÙĪÙĩÙĨ": 862, "ĠØ§ÙĦØºØ§ÙģÙĦÙĪÙĨ": 8527, "ĠÙĪÙħØ«ÙĦÙĩÙħ": 6977, "ÙĬØ¶Øª": 9918, "ĠÙĪØ§Ø¬Ø¹ÙĦÙĨØ§": 9722, "ĠØ±Øº": 4778, "ĠØ®Ø§Ùģ": 2702, "ĠÙĪØ§Ø³ØªØºÙĨÙī": 8985, "ĠÙĪØ¯": 2840, "ĠØ°Ø±ÙĬØªÙĩÙħØ§": 9395, "ĠØ£ÙĨÙĬØ¨": 7583, "Ø¹Ø§ÙĨ": 7223, "ĠØŃØ¬Ø§Ø¨": 5317, "ĠØ·Ø§Ø¦Ø±": 9097, "ĠÙĪØ§ÙĦÙħØ´Ø±ÙĥÙĬÙĨ": 5153, "Ø§Ø¯Ø¹ÙĪÙĨ": 7914, "ØµØ§ÙĦ": 2472, "ĠÙĥÙĦ": 241, "Ø¶ØªÙħ": 5813, "ĠÙĪØ§ÙĦØ¯ÙĬ": 7600, "ĠÙħØ³ØªÙĩ": 8746, "Ø³Ø·Ø§Ø³": 7268, "ĠÙĤØ§ØµØ±Ø§Øª": 6958, "ĠØºÙĦØ§": 8037, "ĠÙģØŃØ§ÙĤ": 10192, "ĠØ¬Ø§Ø¡ØªÙĥÙħ": 4228, "ĠØ¨Ø§ÙĦØ¨Ø´Ø±Ùī": 9319, "Ø°Ø±ÙĩÙħ": 1729, "ĠØ£Ø±Ø§Ø¯ÙĨÙĬ": 9275, "ĠØ§ÙĦØµØ§Øº": 8088, "ĠØ§ÙĦØ¶Ø§ÙĦÙĬÙĨ": 3875, "ĠØ¨ÙĬØ§Øª": 5710, "ĠØ±ØºØ¯Ø§": 7005, "ĠØ§ÙĦØ®Ø²ÙĬ": 4276, "ĠØµØ¨ØºØ©": 9868, "ÙĦØ§": 84, "Ø¨Ø¦ÙĥÙħ": 1601, "ĠÙĦÙĥÙĨØ§": 5062, "ÙĤÙĦØ¨": 1151, "ĠÙģØ±Ø§Øº": 6276, "ĠÙĬØ¸": 1767, "ÙĪÙĨ": 75, "Ø§Ø·ÙĦ": 1299, "ĠØµØ¨ØŃ": 7987, "ĠØ³ÙħÙĬØ¹": 1453, "ĠÙħØªØ®Ø°": 6462, "Ø£Ø³Ø§Ø¡": 4722, "ĠØ¯Ø§ÙĪ": 1979, "ĠØ£ÙĬÙĩØ§": 366, "ĠÙĬØ®Ø²ÙĬÙĩ": 6979, "ĠØªØªÙĤÙĪÙĨ": 1595, "ØªÙĨØ§ÙģØ³": 8733, "ĠÙĬØ¬Ø²Ùī": 6372, "ĠØ¨Ø§ÙĦ": 156, "ØŃ": 77, "ĠØ·ØºÙĬØ§ÙĨØ§": 5040, "ĠØ§ÙĦÙĦØºÙĪ": 7135, "ĠØ§ÙĦÙĤØªØ§ÙĦ": 2936, "ÙĨÙĬØ©": 2363, "ØªÙĥÙħ": 573, "ÙĤØ¯ÙĪÙĨ": 6072, "ĠÙģÙĦØ£": 6179, "ĠÙĦÙĦØ±Ø¬Ø§ÙĦ": 8146, "ĠØªØ·ÙĪØ¹": 9419, "ĠØ³Ø¹ÙĬÙĩÙħ": 9294, "ĠØ§ÙĦÙħØŃØ±Ø§Ø¨": 5521, "ĠÙĦÙĪ": 460, "ĠÙĦÙĩØ§": 902, "ĠØŃÙĪÙĦÙĩØ§": 6871, "ĠØªØ¸": 3521, "ĠØ§ÙĦÙħØ³ÙĦÙħÙĬÙĨ": 2404, "ĠØ¹Ø·Ø§Ø¡": 4736, "ĠØ¸ÙĩØ±Ùĩ": 9619, "ĠØ§ÙĦØ¶Ø¹Ùģ": 4604, "ĠÙĬØ®Ø±ØµÙĪÙĨ": 6950, "ÙģÙĪØ§": 939, "ĠÙħÙĨØ°Ø±": 4012, "ĠÙĪØ·ÙģÙĤØ§": 9195, "ĠÙĪÙĬÙĩØ¯ÙĬÙĥÙħ": 9400, "ĠØ³ÙħØ¹ÙĪØ§": 3794, "ĠØ¥Ø°": 338, "ÙģØ¶ÙĪØ§": 5729, "Ø¦ÙĨÙĩÙħ": 7706, "ĠØ¨Ø¸ÙĦÙħÙĩÙħ": 9756, "ÙĨÙĥ": 897, "ÙĬØ±": 120, "ĠÙħÙĤØªØµØ¯": 9473, "ĠØ³ÙĥØ§Ø±Ùī": 9774, "ĠØ±ÙĬØ¨": 1632, "ÙħØ§Ø±": 5749, "ĠØºÙĬØ±": 536, "Ø³Ø®Ø±ÙĪÙĨ": 7266, "ĠØªØ¹ÙĦÙĪØ§": 7494, "ĠØ£Ø±Ø³ÙĦÙĩ": 8643, "ĠØªØ±ÙĬÙĨ": 8224, "Ø³ÙĨØªÙĥÙħ": 6186, "ĠØªÙĩÙĪÙĬ": 10220, "ĠØ±Ø¬": 622, "Ø§Ø¡Øª": 3170, "ĠÙĪÙĬÙģØ³Ø¯ÙĪÙĨ": 7906, "ĠÙĦÙĦØºÙĬØ¨": 10123, "ĠÙģ": 65, "ĠØ°Ø±ÙĩÙħ": 9494, "ĠÙĪÙħÙĤØ§Ùħ": 8434, "ĠØŃØ±ÙħØ§": 6513, "ĠØ¢ÙĦØ°ÙĥØ±ÙĬÙĨ": 9091, "ĠØªØ£ÙħØ±": 5139, "ĠØ£Ø³Ø³": 6401, "Ø§ÙĦÙĬÙĨ": 2284, "ĠÙĪÙĤØ·Ø¹": 7975, "ĠÙĬØ³ØªÙĪÙĬØ§ÙĨ": 9436, "Ø²ÙĦ": 282, "ĠÙĬØ¯Ø®ÙĦÙĪÙĨ": 2824, "ĠØ¨Ø¹Ø«ÙĨØ§ÙĩÙħ": 9402, "ĠØªØ´": 755, "ÙĨØ«": 7083, "ÙĪØ²Ø§": 3353, "ĠÙĪÙĬØ¹Ùģ": 4901, "ĠØ§ÙĦÙĩØ¯ÙĬ": 4603, "Ø§Ø¹ÙĤØ©": 3881, "ĠÙģØªÙĨØ©": 1412, "Ø¯Ø§": 296, "ĠØ§ÙĦÙĪÙĩØ§Ø¨": 7039, "ĠÙĪØªØ¯": 8148, "ĠØ§ÙĦØŃÙĪØ§Ø±ÙĬ": 4921, "ĠÙĤÙĬÙĦØ§": 5789, "ĠØ£ÙģÙĦØ§": 872, "ĠÙĤØ¯Ø±Ø§": 8168, "ĠÙĪÙħØ«ÙĦ": 6271, "ĠÙģÙĪÙĤÙĥÙħ": 3782, "ĠØ§ÙĦÙĤÙĪÙħ": 706, "ĠØµØ§Ø¯ÙĤÙĬÙĨ": 1120, "ĠØªÙĥØ³Ø¨": 6295, "ĠØ´Ø·Ø·Ø§": 10090, "ĠØ¢ØªÙĬÙĨØ§ÙĩÙħ": 1834, "ĠÙĨØ³Ø§Ø¡": 3755, "ĠØ£Ø¬ÙĪØ±ÙĩÙħ": 5085, "ØŃØ³ÙĨ": 641, "ĠÙĪØ§ÙĦØ±Ùĥ": 5838, "ĠÙĨØ´Ø§Ø¡": 1603, "ĠØ¥Ø®ÙĪØ§ÙĨØ§": 9598, "ĠØ¹ÙĬØ´Ø©": 10217, "ĠØ£ÙĨØ§": 607, "ĠÙħØ±Ø³": 3091, "Ø³ØªØºÙģØ±": 5981, "ĠÙĥÙģØ±ØªÙħ": 3651, "ÙģÙĬÙĨØ§": 4000, "ÙĦØ¹ÙĬ": 9005, "ĠØ£Ø¹ÙĦÙħ": 764, "ĠØ¯ÙĬÙĨÙĩÙħ": 2591, "ĠØ£ÙĨØ¹Ùħ": 1787, "ĠÙĪØ§ØªÙĦ": 4312, "ÙĨØ¢ÙĨ": 7088, "ĠØ£Ø´ÙĩØ¯": 6460, "ĠÙĨÙĩÙĦÙĥ": 7628, "ĠØ§ÙģØªØ±Ø§Ùĩ": 3363, "ĠÙĪØ§ÙĦÙħÙĨØ§Ùģ": 4316, "ÙĨÙĬØ³Ø±": 6081, "ĠÙĦÙĦØµ": 8144, "ĠØ¯ÙĪÙĨÙĥ": 8390, "ĠÙĬØ¬ØªÙĨ": 8632, "ÙĨØ§Ø³": 4738, "ĠØºØ¶Ø¨": 2528, "ÙħØ£": 7091, "ĠÙħØ¤": 2178, "ĠØ¨Ø§ÙĦÙħÙĩØªØ¯ÙĬÙĨ": 5336, "ĠÙĬØ±Ø«": 6158, "Ø¹ÙĪØ¯Ø§": 6613, "ĠÙĬÙĨØ²ÙĦ": 1724, "ĠØµØ§ÙĦØŃØ§": 1020, "ĠÙĪØ§Øµ": 1495, "ĠÙĦÙĬØªÙĨØ§": 8001, "ĠØ´Ø¯ÙĬØ¯": 854, "ĠØ§ÙĦØºÙĬØ«": 8523, "ĠÙĪØ£ÙĨÙĬ": 5877, "ĠØ±Ø§ØºØ¨ÙĪÙĨ": 10231, "ĠØ§ÙĦØ±Ø¬": 1518, "ĠØ¨ÙĬÙĪ": 2249, "ĠØ§ÙĦØ³Ø¨ÙĬ": 1164, "ĠÙĪØ³ÙĬ": 4320, "Ø°ÙĦ": 4692, "ÙģØŃ": 4711, "ĠÙģØ¢": 1308, "ĠØ¹ØµØ§Ùĩ": 6621, "ĠÙħÙĨÙģ": 7425, "ĠØªØ¤ÙħÙĨ": 5756, "ĠÙĬØµ": 690, "Ø«Ø§Ø¡": 7695, "Ø±Ø³ÙĦ": 1096, "ĠØ¨Ø±ÙĩØ§ÙĨÙĥÙħ": 5480, "ĠØ£ÙĦ": 1852, "ĠØ§ÙĦØŃÙħÙĬØ¯": 2586, "ĠØ¬ÙĪØ¹": 7774, "ĠÙĬØ¹ÙĪØ¯ÙĪÙĨ": 8386, "ĠØ´ÙĤØ§": 3196, "ĠÙĬØ³ÙħØ¹ÙĪØ§": 7328, "ĠÙģÙĥØ´ÙģÙĨØ§": 8647, "ĠØ¢ÙĦÙĦÙĩ": 9089, "Ø¯Ø§ÙħØ©": 8200, "ĠÙĪÙĬØŃØ¨ÙĪÙĨ": 9396, "ØµØ±ÙĬÙĨ": 4269, "ĠØºÙĬØ§Ø¨Øª": 10280, "ĠØ¢ÙĨØ³Øª": 6963, "ĠØªÙĨØªÙĩÙĪØ§": 8616, "Ø°Ø¨ÙĩÙħ": 1810, "ĠÙĬØªØ¨Ø¹ÙĪÙĨ": 2732, "ĠØ¨ÙĤØ¯Ø±": 3497, "ĠØ¨ÙħØ¹Ø±ÙĪÙģ": 3495, "ÙĦØ¨ÙĩÙħ": 8586, "ĠØªØªØ®Ø°ÙĪØ§": 2121, "ØªØ®Ø°": 1849, "Ø¯ÙĨØ§": 774, "ĠÙĥÙģØ±ÙĪØ§": 308, "ĠÙĪØ£ÙĥÙĦÙĩÙħ": 6741, "ØµØ¯ÙĤØ§": 2127, "Ø¹Ø§ÙģØ§": 6151, "ÙģØ±Ø©": 5927, "ĠØ¨ÙĪØ¬ÙĪÙĩÙĥÙħ": 10211, "ĠÙģÙĩÙĦ": 1383, "ĠÙĬØªØ¯Ø¨Ø±ÙĪÙĨ": 8125, "ĠØ£ÙĬØ¯": 773, "ĠÙĪÙĦÙħ": 831, "ĠØ£ØºÙĨÙĬØ§Ø¡": 6614, "ĠØ§ÙĦØŃÙĬ": 2089, "ĠØ§ÙĥØª": 3220, "ĠØ£ÙĬØŃØ³Ø¨": 4986, "ĠØ§ÙĦÙħÙĦØ£": 1706, "ĠÙħØŃØ¶Ø±ÙĪÙĨ": 4412, "ĠØªØªØ¨Ø¹": 1594, "ĠÙĪØ£ÙħÙĩ": 5310, "ĠÙĪØ¯ÙĬÙĨ": 5604, "Ø¢Ùĩ": 7842, "ĠØ§ÙĦÙħØ´ØŃÙĪÙĨ": 7008, "ĠÙĪÙĬÙĤØ·Ø¹ÙĪÙĨ": 7909, "ĠÙħØ´ÙģÙĤÙĬÙĨ": 7042, "ÙĨØ§Ø±": 7454, "ĠÙģØ³ØªØ¹ÙĦÙħÙĪÙĨ": 6912, "Ø±Ø¨Ø¹Ø©": 8054, "ĠÙħØ³Ø¬Ø¯": 8515, "ĠØºÙĨ": 4959, "ĠÙĬÙĦÙĤÙĬ": 6732, "ĠÙĪØªØµØ±ÙĬÙģ": 9879, "ĠØ³Ø¨ÙĬÙĦØ§": 1167, "ØµØ§Ø¨": 5802, "ĠØŃÙĪÙĦÙĩÙħ": 9709, "ĠÙĦØŃÙĤ": 4666, "ĠØ§ÙĦØºÙĬØ¸": 6840, "ÙģØ¸": 2658, "ĠÙĪÙħØ¹": 5603, "ĠÙĪØ§ÙĦØ£Ø³Ø¨Ø§Ø·": 4999, "ÙĤÙĤ": 5695, "Ø§ÙģØ±": 389, "Ø¯ÙĬØ¯": 647, "ÙĬØ§ØŃ": 2504, "Ø²Ø±": 3546, "ĠØ§ÙĦÙģØ§Ø³": 1546, "ĠÙĪØ§ÙĦØ±": 4056, "ÙĪÙĬÙĨØ§": 7108, "ØµØ§Ø±": 704, "ĠØ®Ø³Ø§": 5924, "ĠÙĬØ·Ø§Ùģ": 9114, "ĠØ£ÙģØ±": 1936, "ĠØ¬ÙĦÙĪØ¯": 4549, "ĠØ§ÙĦØ±ÙĤØ§Ø¨": 5990, "Ø²Øª": 3547, "ĠÙģØªØ®": 8315, "ĠØ¸Ø§ÙĦÙħ": 9678, "ĠÙĪØ£ÙĦÙĤ": 1871, "ÙĦØ§ÙĨ": 5751, "ĠØ±Ø³ÙĪÙĦÙĥÙħ": 8814, "ĠØ£Ø²ÙĪØ§Ø¬Ùĩ": 8960, "ĠÙĪØ£ÙĥØ«Ø±": 3057, "ĠÙĦÙĬØ¶ÙĦÙĪØ§": 9981, "ĠÙĪÙĬØ¤Ø®Ø±ÙĥÙħ": 9544, "Ø²": 103, "ĠØ¨ÙĬÙĨÙĩÙħ": 737, "ØµÙĦØ§": 2677, "ĠÙħÙĤØ¯": 5629, "ĠØºÙħØ±Ø©": 10115, "ĠÙĨØ´ÙĪØ±Ø§": 6592, "ĠÙħØŃØµÙĨÙĬÙĨ": 10018, "ĠÙģØŃÙĤ": 4657, "ØºØ§Ø±": 4861, "ĠÙĪÙĨØŃÙĨ": 1893, "ĠØ§ÙĦØ¢Ø®Ø±ÙĬÙĨ": 2144, "ĠØ´ÙĬØ·Ø§ÙĨØ§": 8059, "ĠÙģØªÙĤØ¨ÙĦ": 8326, "Ø³Ø¨": 297, "ĠØ´ÙĬØ®Ø§": 8060, "ĠÙĥØ°Ø¨Ø§": 1900, "ĠØ§Ø®Øª": 9152, "ĠØ§ÙĦØ·ÙĪØ±": 3331, "ĠÙħØ¯ØŃÙĪØ±Ø§": 6570, "¥": 8, "ª": 13, "ĠØ±Ø´Ø¯Ø§": 3412, "Ø¸ÙĨÙĩ": 7830, "ĠØ¨ÙĦØ¯Ø©": 5057, "ÙĤØ§Ùĩ": 8219, "ÙģÙĬ": 417, "Ø¥Ø°ÙĨ": 7589, "ĠÙĨØŃØ´Ø±ÙĩÙħ": 9654, "ÙĪØ§Ø¡": 876, "ÙĥØ±ÙĬØ§": 3212, "ÙĤØ§ÙĦ": 1855, "ĠØ¥ÙĨÙĥÙħ": 1113, "Ø«ÙħÙĪØ¯": 2147, "ĠØªØ±ØŃÙħÙĪÙĨ": 2955, "ĠÙĬØ±ÙĬÙĥÙħ": 4688, "ĠØ¨Ø³Ø·": 4708, "ÙģØ³ÙĥÙħ": 2356, "ĠØ²ÙĬÙĨØ©": 3818, "ĠÙĬØ¹ÙħÙĦ": 2600, "ĠÙģÙģÙĬ": 5669, "ÙģÙĤØ±Ø§Ø¡": 5731, "ÙģØ§ÙĥÙħ": 8388, "ĠÙĪØ§Ø°ÙĥØ±ÙĪØ§": 2102, "ÙĩØ§Ø¬Ø±ÙĪØ§": 4782, "ĠØ§ÙĦØ£ÙĨÙģØ§ÙĦ": 8689, "ĠÙħØ¹Ø±ÙĪÙģ": 2229, "ĠØ£ØŃÙĦ": 2954, "ĠØ§ÙĦØ´ÙģØ§Ø¹Ø©": 4258, "ĠØ³ÙĨØ¯Ø®ÙĦÙĩÙħ": 9060, "ĠÙħÙĤØ§ÙħÙĬ": 9692, "ĠÙģØ¤Ø§Ø¯": 5679, "ĠØ°ÙĥØ±ÙĨØ§": 8750, "ĠØ¨ØºØ§ÙģÙĦ": 2776, "ĠÙĦØªØ±ÙĪÙĨ": 8567, "ĠØ§ÙĦØ±ÙĬØŃ": 2925, "Ø¨ÙĦÙĪÙĨÙĥÙħ": 5626, "ĠØ¥ÙĨÙĥ": 815, "ĠÙģØ¦ØªÙĬÙĨ": 10049, "ĠÙĬØ¯Ø§": 3482, "Ø¹ÙĦÙĩ": 2850, "Ø¨ÙĪØ§Ø¨": 7192, "ĠØ§ÙĦØ®ÙĦÙĤ": 2004, "ĠÙħÙĩÙĬÙĨØ§": 5446, "ĠÙĦØºÙĪØ¨": 9131, "ĠÙĩÙĪØ¯Ø§": 3645, "ĠÙĬÙĨÙģØ¹ÙĨØ§": 6674, "ĠÙĪØ§ÙĦÙħÙĨÙĥØ±": 6959, "ĠÙĦÙĦØ¥ÙĨØ³Ø§ÙĨ": 3872, "ÙĪÙĥÙĬÙĦ": 3719, "ĠÙĪØ£ÙĥØ«Ø±ÙĩÙħ": 3895, "ĠÙĥØ±ÙĩØ§": 4377, "ĠÙĤØ¶": 4038, "ÙĤÙĪÙĨ": 361, "ĠÙģØªØ±Ø§Ùĩ": 8323, "ĠÙĪØ¢ÙħÙĨØªÙħ": 9731, "Ø§ÙĤ": 439, "ĠÙħØ¢Ø¨Ø§": 9589, "ĠÙĦØ¨": 967, "Ø·Ø¹ÙĨØ§": 2245, "Ø³ÙħÙĪÙĨ": 8078, "ĠØ¨Ø·ÙĨÙĩ": 9104, "ÙĪØ§ØŃØ´": 7350, "ĠÙĪÙĪØ±Ø«": 7161, "ĠØ´Ø£ÙĨ": 5932, "ĠØ£ÙĤØ³ÙħØªÙħ": 9505, "ĠØ£ÙĪØ²Ø§Ø±ÙĩÙħ": 9862, "ÙĥÙħ": 89, "ÙĦÙģÙĪÙĨ": 2381, "ĠÙĦÙħØŃÙĬ": 8095, "ĠØ§ÙĦØ³ÙħØ§": 228, "ĠØ£Ø«ÙħØ±": 9283, "ĠÙĬØ®Ø§Ø¯Ø¹ÙĪÙĨ": 8469, "ĠØ§ÙĦÙħØ³": 787, "ĠÙģØ¹ÙĦÙĬÙĩØ§": 6565, "ĠØ¨ÙĦÙĤ": 3121, "ĠÙĤØ¨ÙĦØ©": 6177, "ĠÙĪØ¬ÙĨÙĪØ¯": 6800, "ÙĤØ·Ø¹ÙĪØ§": 5375, "ĠØ¹Ø´Ø±Ø§": 7446, "Ø±Ø¶ÙĪØ§": 1199, "ĠØ¹Ø±Ø¨ÙĬØ§": 3066, "ĠØ®Ø°ÙĪÙĩ": 9493, "ĠÙĦÙĬÙĤÙĪÙĦÙĪÙĨ": 4942, "Ø§Ø³": 1102, "ĠØ§ÙĦÙħÙĨÙĥØ±": 2588, "ĠÙħÙĨØ«": 7428, "ĠÙĪØ±ÙĩØ¨": 8473, "ÙĬÙĩØ§": 3072, "ØªØ§ÙĨ": 2847, "ĠØ¶ÙĦØ§ÙĦØ§": 3790, "ÙħÙĬØ¹": 931, "ÙģØ³Ø¯ÙĪÙĨ": 4939, "ĠÙĪÙħÙĤØ§ÙħØ§": 8439, "ĠØ§ÙĦØ£ÙħÙĪØ§ÙĦ": 6598, "ĠØ¸Ø§ÙĦÙħÙĪÙĨ": 3263, "ĠÙĬØ°ÙĥØ±": 2452, "ĠØ¨Ø±ÙĪØ¬Ø§": 8857, "Ø¯ØªÙħ": 4644, "Ø¦Ø§": 542, "ĠÙħÙĥÙĨØ§": 6500, "Ø§Ø¯ÙĤ": 7913, "ĠØ³Ø¨ØŃØ§ÙĨ": 1021, "ĠÙģØ¨Ø´Ø±Ùĩ": 6942, "ĠØ³Ø®Ø±ÙĩØ§": 9369, "ĠØ¨Ø±ÙĪØŃ": 5225, "ĠØ°ÙĪØ§": 5969, "ÙĬÙĦ": 285, "ĠÙĪÙĬØ²ÙĥÙĬÙĩÙħ": 6932, "ĠØ£ØŃØ³ÙĨ": 982, "ĠØŃØ°Ø±": 7756, "ĠÙĪØ¹Ø³Ùī": 8361, "ĠÙĬØªÙĬ": 5692, "ĠØ£ÙĪÙĦØ§Ø¯ÙĩÙħ": 3823, "ĠÙĪØ§ÙĦØ¥ÙĬÙħØ§ÙĨ": 9121, "ĠÙĪØ§Ø¹ÙĦÙħÙĪØ§": 1648, "Ø§Ø°Ø¨ÙĪÙĨ": 2043, "ØŃØ§Øª": 5732, "Ø¶ÙĪØ¯": 5816, "ĠØ´Ø±ÙĥØ§Ø¡ÙĥÙħ": 6573, "Ø±ÙģÙĪØ§": 3324, "ĠØ£ÙĪÙĦÙĬØ³": 8811, "ÙħØ¹Ø±ÙĪÙģ": 1260, "ĠÙĥØ§ÙĦØŃ": 7513, "ÙĩØ¯ÙĬÙĨ": 6042, "ĠÙĪÙĤÙĦÙĨ": 9107, "ĠØ¨ÙĥÙĦ": 1060, "ĠØ§ÙĦÙĤØªÙĦ": 4172, "ĠØºÙĦØ¨Øª": 7019, "ĠØ¶": 354, "ĠÙħØªØ±": 8797, "ÙĤØ·Ø¹ÙĨ": 5701, "Ø·ÙĩØ±": 1572, "ĠÙĬØ¹Ùħ": 1390, "ĠØ¨Ø°ÙĨÙĪØ¨ÙĩÙħ": 3392, "ĠÙĬØŃÙĦÙĪÙĨ": 4220, "ĠØ±ØŃÙħ": 643, "ĠÙĪØªÙģØµ": 4996, "ĠÙĤØ¨ÙĦÙĬ": 6449, "ØŃØ¨Ø§": 7407, "ĠÙĪØµÙĪØ±ÙĥÙħ": 9030, "ĠÙĬ": 67, "ØªØ±Ùģ": 7183, "ĠÙħØ®Øª": 9196, "Ø°ÙĪØ§": 4694, "ĠÙĬØµØ¯Ø±": 9450, "ĠÙħÙħØ³Ùĥ": 7214, "ĠØ¨Ø±Ø¨ÙĩÙħ": 2800, "Ø¬ÙĬØ¨ÙĪØ§": 2818, "ĠØªØ£ÙĪÙĬÙĦÙĩ": 4311, "ĠÙĪØ§ÙĦÙģ": 2891, "ĠÙĦØ£Ø²ÙĪØ§Ø¬": 6303, "ĠÙģØ§ÙĤØ±Ø¡ÙĪØ§": 10129, "ĠØ¹ÙĦÙħÙĩ": 5136, "ĠØ§ÙĦØ±Ø¨Ø§": 3206, "ĠØ³ÙĪÙĬØªÙĩ": 10244, "ĠØ§ÙĦØ®Ø§Ø³Ø±ÙĬÙĨ": 2116, "ĠÙħÙĨØ§Ø³Ùĥ": 8964, "ĠØ£ÙĬ": 271, "ĠØ±ÙĤ": 2202, "ĠØ§ÙĦØ¯Ø§Ø¹": 6991, "Ø¥": 107, "Ø¨Ø¦": 832, "ÙĦØ§Ø¦Ùĥ": 614, "ĠÙĪØ§Ø¶ÙħÙħ": 9735, "ĠÙħØŃØ¬ÙĪØ±Ø§": 9074, "Ø±Ø¨Ø§": 8052, "Ø¶ÙĪÙĨ": 1953, "ÙĤØ§ØªÙĦ": 6588, "ĠØ¹Ø§ÙĦÙħÙĬÙĨ": 7439, "ĠÙĬÙĪÙħ": 224, "ĠÙĬØ¯Ø§Ùĩ": 6918, "ĠÙģÙĪØ²Ø§": 5678, "ÙĦÙĬÙĨ": 592, "ĠÙĬØ¬ÙħØ¹ÙĥÙħ": 9892, "ÙģØ§Ùĥ": 8387, "ĠØ§ÙĦÙĪØµÙĬØ©": 9244, "ĠØ´ÙģØ¹Ø§Ø¡": 6969, "ĠØ¢Ø®Ø±ÙĬÙĨ": 3050, "ĠØŃØ§Ø¬": 2698, "ĠÙĦÙĨÙģØªÙĨÙĩÙħ": 10299, "Ø§Ø®": 1005, "ĠÙģØµØ¯ÙĪØ§": 6913, "ĠØ§ÙĦØ¹Ø§ÙħÙĦÙĬÙĨ": 6022, "ĠØ§ÙĦØ¹ÙĤØ¨Ø©": 7967, "ĠØ¸ÙĦÙħ": 678, "ĠØ´Ø§Ø¡": 759, "ĠØ£Ùģ": 348, "ĠØ£ÙħÙĪØ§ÙĦÙĥÙħ": 2410, "ĠÙĪÙĦØ¹Ø¨Ø§": 6767, "ĠØ§Ø¶Ø±Ø¨": 5458, "ĠÙħØ¯Ø¨Ø±Ø§": 9006, "Ø°ÙĪ": 1088, "ĠØªÙĩØªØ¯ÙĪØ§": 9946, "Ø°ÙĦÙĥÙħ": 7349, "ÙĪÙĥÙĦÙĪÙĨ": 2988, "ĠØ³ÙĤØ±": 4819, "Ø¸Ø©": 2346, "ĠÙĤØ§Ø¦ÙħØ§": 5353, "ĠÙĪÙĬØ¹ÙģÙĪ": 7014, "Ø§Ø¦ÙĤ": 4195, "ĠØ£Ø¹Ùħ": 809, "ĠÙĤØ§Ø¦ÙħØ©": 4466, "ÙĦÙĬÙĩÙħ": 2880, "Ø´Ø±ÙĪØ§": 4964, "ĠØ¹ÙĤØ¨Ùī": 5517, "ĠÙģØ§Øµ": 1689, "ĠÙĪÙĦÙĬØªÙĤ": 8553, "ĠÙĬØ´Ø§Ø¡": 428, "ĠÙħØµØ¯ÙĤØ§": 2297, "ĠÙĪØªÙĪÙĥÙĦ": 3249, "ĠØ§ÙĦØªÙĤÙī": 6530, "ĠÙĪÙĦÙĬØ¹ÙĦÙħ": 3717, "ĠÙĪØ¯Ø§": 4612, "Ø¨Ø§Ø±Ø§": 3281, "ĠØ¥ÙĬÙħØ§ÙĨÙĩØ§": 6636, "ĠÙģØ«": 7270, "Ø°ÙĦÙĥ": 365, "ĠØ£Ø±Ø¨Ø§Ø¨Ø§": 6705, "ĠÙĬØ´Ø¹Ø±": 8203, "ĠÙģØ¬Ø¹ÙĦÙĨØ§ÙĩØ§": 9506, "ĠØ£Ø¨ÙĪØ§Ø¨ÙĩØ§": 6821, "ĠØ°Ø±Ø©": 3604, "ĠÙĬØ³Ø¬Ø¯": 2982, "ĠÙĩØ¨Ø§Ø¡": 7651, "Ø¸ÙĨÙĥ": 4881, "Ø§Ø¨ÙĤÙĪÙĨ": 5847, "ĠÙĪÙĩ": 965, "ĠÙĪØ¥ÙĤØ§Ùħ": 7826, "ĠØ§ÙĦÙħÙĨØ°Ø±ÙĬÙĨ": 3348, "ĠÙģØ¹Ø§ÙĦ": 8994, "ĠØ²ÙĦÙģÙī": 10136, "ĠØŃØ§ØµØ¨Ø§": 5546, "ĠØ¹ÙĦÙħØ§": 2467, "ĠÙģØ¥ÙĨ": 261, "Ø³Ùĥ": 1763, "ĠØ±ØŃÙħØªÙĨØ§": 5188, "ĠÙĨØ§ÙĤØ©": 4808, "ĠÙĪÙĬØ£Øª": 5388, "ÙĦÙĪØ¨": 2617, "ĠÙĪØ§ÙĦØµÙĦØ§Ø©": 6640, "ÙĥØ¨Ø±ÙĪØ§": 1428, "ĠØ®ÙĪØ§Ø±": 7792, "ĠØ£ÙħÙħØ§": 7926, "ÙģØ³ÙĩÙĨ": 7999, "ĠÙģØ§ÙħØ³ØŃÙĪØ§": 8207, "ĠÙģØ±Ø·ÙĨØ§": 8446, "ĠØ§ÙĦÙĨ": 320, "ĠØªÙħØ³ÙĪÙĩÙĨ": 6781, "ĠÙĥØ¹": 7511, "ĠÙĬØªØ¹Ø¯": 8119, "Ø¨Ø§Ø¹": 8371, "ĠØ®Ø°": 2211, "ĠØ¥ÙĦÙĩÙĥÙħ": 3301, "ĠÙĪØŃÙĤØª": 8820, "ØªÙħØ¹ÙĪØ§": 5913, "ĠØ¶Ø±Ø¨": 1478, "ĠØ£Ø¨ÙĦØºØªÙĥÙħ": 6864, "ĠØ¬Ø¦ØªÙħÙĪÙĨØ§": 9095, "ĠÙĥØ«": 650, "ĠØ¬Ø§Ø¹ÙĦ": 9711, "ĠÙĬØ¤Ø§Ø®Ø°ÙĥÙħ": 5498, "ĠÙĪØ£ØµÙĦØŃÙĪØ§": 3847, "ĠØ±Ø§Ùĥ": 7560, "ØµØŃÙĬÙĨ": 5806, "ĠØ¹ÙĬØ³Ùī": 1779, "ĠÙģØ£ÙħØ³ÙĥÙĪÙĩÙĨ": 7061, "Ø§Ø±ÙĩÙħ": 1977, "ĠØªØŃØ²": 2001, "ĠØ¹Ø§ÙĦÙħ": 2162, "Ø¨ÙĨ": 5619, "ĠØ¨Ø£ÙĬØ¯ÙĬÙĥÙħ": 9680, "ĠÙģØ§Ø³ØªØ¹": 4381, "ĠØ£Ø±Ø§Ø¯ÙĪØ§": 5263, "ĠÙħØ¨Ø§Ø±ÙĥØ©": 6886, "ĠÙĪØªØ´": 8150, "Ø§ØºÙĬÙĨ": 8923, "ĠØªØªÙĦÙĪ": 5121, "ĠÙĪÙĩØ°Ø§": 1910, "ĠØ¨Ø¹ÙĬØ¯": 1993, "Ø§Ø±Ùĩ": 5998, "Ø´Ø±ÙĩÙħ": 2100, "ĠØ¸ÙĦÙĦ": 6191, "ĠØ§ÙħØ±Ø£Ø©": 6690, "ĠÙĪØ³ÙħØ¹": 7153, "ÙĪÙĨÙĩØ§": 3503, "ĠÙĦÙĦÙĥØ°Ø¨": 9933, "ĠØ§ÙĦØ£ÙĬØ¯": 7810, "ĠÙĬØ¬ÙħØ¹": 4314, "ĠØ¹Ø¨Ø§Ø¯ØªÙĩ": 6408, "ĠØ¹ÙħØ±": 3516, "ĠØ§ØªØ®Ø°ØªÙħ": 5286, "ĠØ§ÙĦØ·ÙĬØ¨": 4350, "ĠÙĬÙĪÙĦØ¬": 4685, "ĠØªØ³ØªØ¹Ø¬ÙĦ": 8977, "ÙĨØ³Ø§ÙĨ": 686, "ĠÙĪØ³Ø¨ØŃØ§ÙĨ": 9509, "ĠØ£Ø®ÙĬÙĩ": 2565, "ÙģØ§Ùĩ": 6245, "ĠØ§ÙĦÙħØŃØ³ÙĨÙĬÙĨ": 1139, "ĠØ£Ø¨ÙĨØ§": 6410, "ĠØ¨Ø§ÙĦØ¥ÙĬÙħØ§ÙĨ": 4519, "Ø§Ø´Ø¹ÙĬÙĨ": 9011, "ÙĪØ§ÙĥÙħ": 4699, "ĠÙĨÙģØµÙĦ": 4392, "ÙģØ«": 7392, "ĠØ£Ø¹Ø±Ø¶": 2774, "ÙĪØ§ØªØ§": 8177, "ĠØ¹ÙĦÙĪØ§": 4726, "ĠÙĪØ±Ø¨Øª": 8969, "ĠØ§ÙĦÙħØ´": 4844, "Ø±Ø³ÙĦÙĨØ§": 2101, "ĠÙĬÙħÙĬØªÙĥÙħ": 5503, "ĠØªØ¹Ø¨Ø¯ÙĪØ§": 3410, "ĠØ¬ÙĨ": 1253, "ĠØ±ÙĪØŃ": 2475, "ĠÙĬØŃÙĬÙĬ": 1602, "ĠØ®Ø±Ø¬": 2344, "ĠÙħØ±Ø³ÙĦ": 5631, "ĠÙĦØ¢": 968, "ĠÙĪÙĨØ¬Ø¹ÙĦ": 5032, "ĠÙĪØ§ÙĦÙħÙĨØ§ÙģÙĤÙĬÙĨ": 5154, "ÙĪÙĤÙĬÙĨ": 7112, "Ø¹ÙĦÙĨ": 7863, "ĠÙĪØ¨ÙĬÙĨÙĩ": 6563, "Ø¨Ø´Ø±Ø§": 5625, "ĠØ³ÙĨØ¯Ø³": 6594, "ĠØ§ÙĦÙħØ´Ø£": 5896, "ĠØ¥ØµÙĦØ§ØŃØ§": 9761, "ĠØ£ÙĨØ¹ÙħØª": 3386, "Ø£Ø®Ø°ÙĪØ§": 7421, "ĠØ§Ø³ØªØ³": 8557, "ĠØ¢ÙħÙĨÙĬÙĨ": 3227, "Ø«ÙĪÙĨ": 1573, "ĠØ£ÙĪÙĦÙĬØ§Ø¡": 1019, "ĠÙĪØºØ¶Ø¨": 5463, "ĠÙħÙĩØ·Ø¹ÙĬÙĨ": 6843, "ĠØŃØ¯ÙĬØ«": 1913, "ĠÙĥØ§ÙĨØªØ§": 5972, "ĠÙĬØŃÙĥÙħÙĪÙĨ": 5312, "ĠÙĨØ°ÙĬØ±": 1173, "ĠÙĪØ§Ø¬": 3238, "ØªÙģÙĤØ§": 7186, "ÙĤØ¨Ø©": 3986, "ÙĥÙĪÙĨÙĪØ§": 3237, "ĠØ£ØªØ§ÙĩÙħ": 4465, "ĠØ¹ÙĦÙĬØ§": 5921, "ĠØ§ÙĦÙħØµÙĬØ±": 1362, "ÙĤÙĦØ¨ÙĪØ§": 3036, "ÙĤØµ": 1440, "ĠÙĦÙĬØ¬Ø¹ÙĦ": 6056, "ØŃØ¨": 7404, "ĠØ¹Ø°Ø¨": 7436, "ÙĪÙħÙĪØ§": 7714, "ĠÙĬØ³ØªØ£Ø°ÙĨ": 4286, "ĠÙħØ¨": 1087, "ĠØ§ÙĦØµÙĬØ§Ùħ": 6099, "ĠÙĤØ§ÙĦ": 143, "ĠÙĪØ£ÙĨÙĩØ§Ø±": 6203, "ĠÙĪÙħØ³ØªÙĪØ¯": 8438, "Ø§ØºÙĬØ©": 8924, "ĠÙĨØ¬Ø¹ÙĦ": 2332, "ĠÙģØ±ÙĬ": 1150, "ÙĦÙĬÙħØ§": 3146, "ĠØªØ¨ØªÙħ": 8949, "ĠÙĦØ¢Ø¨Ø§Ø¦ÙĩÙħ": 8975, "ĠØ¨ØŃØ¨ÙĦ": 9525, "ÙĪÙħØ©": 4833, "ĠÙĪØ¹ØµÙĬÙĩÙħ": 10134, "ĠÙĥÙĩÙĬØ¦Ø©": 10228, "ĠÙĪÙĬØ¨": 2507, "Ø°Ø§": 140, "ĠÙģØ§Ø°ÙĩØ¨": 8205, "ĠØ·Ø¹Ø§Ùħ": 2110, "ĠÙĩØ§ÙĩÙĨØ§": 5544, "Ø¹Ø¯ÙĬÙĨ": 4905, "ĠÙģØ¨ÙĦØº": 7285, "ĠØ¨ÙĥÙĦÙħØ§Øª": 8744, "ĠÙģØ£Ø¬ÙħØ¹ÙĪØ§": 7958, "ĠØ£ÙģÙĬØ¶ÙĪØ§": 10000, "Ø·Ø§": 746, "ĠÙĥØ§ÙģØ±ÙĪÙĨ": 1858, "ĠØ¨ÙĨÙĬÙĨ": 7367, "ĠØ§ÙĦÙħØ¬": 3576, "ĠÙħÙĬØ«Ø§ÙĤ": 1605, "ĠÙģØ§Ø³Ø£ÙĦÙĪØ§": 8989, "ĠØ±Ø¬Ø¹ØªÙħ": 8707, "ĠØ§ÙĦØ¨Ø§Ø¨": 3715, "ĠØ¨ÙĬÙĨÙĩ": 8083, "ÙĦØ§Ø¦ÙĥØ©": 653, "ĠÙĥØ§Ø¯": 4752, "ĠØ£Ø±Ø³ÙĦØª": 3732, "ÙĪÙĨØ³": 4710, "ĠØªØ²": 1284, "ĠØ§ÙĦÙħÙĦØ¥": 7748, "ĠØŃØ¬Ø±": 7754, "ĠØ£Ø®ØªÙĩØ§": 8652, "ĠÙĬÙģØªØ±Ùī": 9024, "ĠÙĪØ§Ø³Ø¬Ø¯ÙĪØ§": 9173, "ÙĥÙĪÙĨÙĨ": 2368, "ĠÙĤØ±Ø¨": 4039, "ĠÙĪØ§Ø¹Øª": 4980, "ĠØ±Ø¨ÙĩØ§": 3172, "ĠÙĪØ£Ø¨ØµØ§Ø±": 4077, "ĠØ£Ø¬ÙĬØ¨": 6256, "ĠØ§ÙĦÙĦØ¹": 5591, "Ø§Ø®Ø°": 2797, "ĠØ§Ø´Øª": 5348, "Ø±Ø«ÙĪÙĨ": 7125, "ĠÙģÙĤØ§ÙĦÙĪØ§": 1672, "Ø§ÙĦØª": 7114, "ĠØªÙģÙĬØ¶ÙĪÙĨ": 9825, "ĠÙģØ§ÙĨØªØ¸Ø±ÙĪØ§": 6944, "ĠÙĬÙģØ±": 2187, "ĠÙĪØªÙĥÙĪÙĨ": 6140, "Ø§ÙĩÙħ": 1269, "ĠØ¨Ø£Ø¹ÙĬÙĨÙĨØ§": 5552, "ĠØ²ÙĬÙĨØ§": 5087, "ĠØ¨ÙĨØ§Øª": 7364, "ĠØªÙĨØ·ÙĤÙĪÙĨ": 8617, "Ø¯ÙĬÙĨØ§Ùĩ": 5654, "ĠØªØ±Ùī": 1589, "ĠÙĦÙħØŃÙĬØ·Ø©": 10283, "ĠØ£Ø±Ø³ÙĦ": 2564, "ĠØ²ÙĥØ±ÙĬØ§": 4273, "ĠØªÙĪØ§Ø¹Ø¯": 7498, "ĠØ§ÙĦÙĨÙħÙĦ": 8237, "ĠØ£ÙħÙħ": 2718, "ĠÙĦÙĬØ·ÙĩØ±ÙĥÙħ": 8011, "ĠÙĪØ±ÙģØ¹": 2758, "ÙĩÙĦÙĪÙĨ": 3916, "ĠØ¨Ø´Ø±Ø§": 2160, "ĠØ§Ø±Øª": 5368, "ĠÙĦÙĨÙģØ³Ùĩ": 2604, "ĠÙĪØªØ¤": 8151, "Ø¦Ø±": 7702, "ĠÙĪØªÙĪÙģ": 4995, "ĠÙĨØ³ÙĬØªÙħ": 8785, "ĠØªÙĥÙĪÙĨØ§": 8824, "ĠØ¨ÙħØ«ÙĦ": 3778, "ĠØ£ÙĪØ²Ø¹ÙĨÙĬ": 10266, "ÙħØ§Ø¡": 905, "ÙĬØ±Ø§": 274, "ĠÙĦØºÙģÙĪØ±": 3040, "ÙĦØŃÙĪØ§": 3730, "ĠÙĨØ¬ÙĬÙĨØ§": 5234, "ĠÙĪØ§ÙĦÙħÙĦÙĥ": 8633, "Ø³ÙħÙĬØ¹": 6094, "ĠØ¨Ø±Ø¨ÙĬ": 5224, "ĠÙĪØ§ÙĦØ´Ø¬Ø±": 9079, "ĠØ¯ÙĪÙĨ": 380, "ĠÙĬØ·Ø¹Ùħ": 6615, "ĠØªÙĨØª": 7477, "ĠØ§ÙħØ±Ø£Øª": 3830, "ĠØ¯Ø®ÙĦØª": 6836, "Ø²Ùħ": 2682, "Ø¹ÙħØ¯Ø§": 7917, "Ø¦Ø§Øª": 976, "ĠØªÙĤØ§ØªÙĦÙĪÙĨ": 6400, "ĠÙĪØ£Ø«": 5875, "ØŃØ±ÙĬÙĨ": 8459, "ĠÙĥØ§ÙĦØ¹": 6534, "ĠÙĥÙĦÙħØ©": 1674, "Ø§Ø²": 1315, "ĠØ¢ØªØ§ÙĩÙħ": 3048, "ĠÙĥØ¯": 4749, "ĠÙĦØ¹ÙĨ": 6436, "ĠØªØŃÙħÙĦÙĪÙĨ": 9823, "Ø¯Ø«": 3954, "Ø§Ø¦ÙĦÙĬÙĨ": 4973, "ĠØŃØ³Ø±Ø©": 5907, "ĠØªØ´Ø§Ø¡": 2402, "ĠØ§ÙĦØ±Ø´Ø¯": 5991, "ÙģØ¬Ø±": 7395, "ĠØ³Ø±Ø§ØŃØ§": 9424, "ÙĪØª": 408, "ĠÙħØ¶": 3930, "ĠØ³ÙĦÙħØ§": 7669, "ĠÙĤÙĦØ¨Ùĩ": 4151, "ĠØªØ¨Ø¯ÙĬÙĦØ§": 4482, "ĠÙĦØ¥Ø®ÙĪØ§ÙĨÙĩÙħ": 5427, "ĠÙĪÙĨØ²Ø¹ÙĨØ§": 6201, "Ø§Ø¬ÙĩØ§": 8947, "ĠØ£ÙĬØ§ÙħØ§": 5647, "ĠÙħØ±ÙģÙĪ": 6309, "ĠÙĥÙģØ§Ø±Ø©": 6812, "ĠØ¨ØŃÙģÙĬØ¸": 9526, "ĠØµÙģØ§": 3215, "ĠØŃÙĥ": 1252, "Ø³ÙĨÙĬ": 5657, "ĠØ¸ÙĩÙĪØ±ÙĩÙħ": 4487, "ĠØ¯Ø§Ø¨Ø±": 5354, "Ø§Ø¯ÙĪØ§": 1365, "ĠÙĬØ±Ø¬Ø¹ÙĪÙĨ": 1411, "ĠØ£ÙĨØ°Ø±": 3554, "ĠÙħÙĥØ±Ø§": 5223, "ĠØ£Ø±Ø§Ùĥ": 9019, "ÙĤØ¶": 7336, "ĠÙĦØ±Ø¬ÙĦ": 10058, "ĠØ§ÙĦØ±Ø´Ø§Ø¯": 10099, "ĠÙĦÙħØŃÙĬÙĬ": 8097, "¨": 11, "ĠØ£ØªØ¹Ø¨Ø¯ÙĪÙĨ": 8754, "ĠØªØ°ÙĥØ±Ø©": 3411, "ĠÙģÙĥØ£ÙĨÙħØ§": 7070, "ĠÙģÙĨØ³ÙĬ": 9810, "ĠÙĦÙĦÙĩ": 437, "ĠÙĬÙĨØ²ÙģÙĪÙĨ": 9873, "ĠÙģØ¬Ø¹ÙĦÙĩ": 5676, "ĠØ´ÙĩØ§Ø¨": 7807, "ĠÙĦÙĨÙģØ³": 1657, "ĠØ§ÙĦØ£ÙĬÙħÙĨ": 5942, "ĠØŃØ³ÙĨØ©": 1708, "ĠÙĪØ¹Ø§Ø¯Ø§": 8364, "Ø¨Ø±ÙĬÙĨ": 2531, "ÙħØ§Ø¯": 7459, "ĠÙĪØ£ØªÙĪÙĨÙĬ": 7727, "ĠÙĦÙĬÙĦØ§": 4174, "ĠÙĬØ³ÙħØ¹": 2647, "ĠØ³Ø£ÙĦØªÙĥÙħ": 10166, "ÙģØªÙĨØ©": 2972, "ĠØªØ´ØªØ±ÙĪØ§": 6484, "ĠØ¥Ø®ÙĪØ©": 5436, "ĠØ£ÙĤØª": 7237, "ĠÙĥØ§": 3142, "ĠØ¨Ø§ÙĦØ¨": 1641, "ÙĦØ¨ÙĪÙĨ": 5135, "ĠØªØ¹Ø¯ÙĦÙĪØ§": 5439, "ĠÙĨØ¹Ø§": 7619, "ĠØ£Ø³": 582, "Ø°Ø§Ø¨ÙĨØ§": 8034, "ĠØ§ÙĦÙĩØ¯Ùī": 1385, "ĠØ§ÙĦØ£ÙĦØ¨": 1799, "ĠØ§ÙĦØ±Ø§Ø²ÙĤÙĬÙĨ": 4144, "ÙĩØ§ÙĥÙħ": 5811, "ĠØªØµØ¯ÙĬÙĤ": 9826, "ÙĬÙħØ§ÙĨ": 1479, "ĠÙģØ§Ø¯": 1940, "ĠÙĨØªÙĦ": 4062, "ĠØ·ØºÙĬØ§ÙĨÙĩÙħ": 4573, "ĠÙģØ´Ø±": 7277, "ĠØ§ÙĦÙĤÙĪØ§Ø¹Ø¯": 7998, "ĠØ±Ø£Ø³Ùĩ": 6537, "ĠØ®Ø·ÙĬØ¦": 9849, "ĠÙĬÙĪØµÙĦ": 6394, "ĠØ«ÙĤÙĬÙĦØ§": 9545, "ĠØ³Ø¯ÙĬØ¯Ø§": 10243, "ĠØ§ÙĦØ±Ø¨Ø¹": 7910, "ĠÙħØŃØ¯Ø«": 9073, "ĠØ§ÙĦØ·ÙĬØ¨Ø§Øª": 2573, "Ø§ÙģÙĦÙĬÙĨ": 4249, "ĠØ¹Ø§ÙĥÙģÙĬÙĨ": 9821, "Ø±Ùī": 611, "ĠÙĬÙĨÙĩÙĪÙĨ": 6129, "ĠÙĨØ§Ø¦": 7616, "ĠÙĥØ¯Ø£Ø¨": 7003, "ĠØ§ÙĦØ£ÙĨÙĩØ§Ø±": 896, "ĠÙħØºÙĦÙĪÙĦØ©": 9447, "ĠØ§ÙĦØ¨Ø·ÙĪÙĨ": 6336, "ĠØ´ÙĩØ§Ø¯Ø©": 4112, "ĠÙĬØŃÙĥÙħ": 1370, "ĠÙĩÙĨ": 1790, "ĠØ§ØµÙĦÙĪÙĩØ§": 9439, "ĠØ¹Ø±Ø¨ÙĬ": 9763, "ĠÙģÙĦÙĬØ³Øª": 5232, "ĠØ§ÙĦØ£ÙĨ": 589, "Ø¯ÙĬ": 1618, "ĠÙģØ±Ø§Ø±Ø§": 5675, "ĠØ¬Ø§Ø¡ÙĪÙĥÙħ": 6164, "ĠØ£Ø¬Ø¹ÙĦ": 6255, "ĠÙĬÙĦØ¨Ø«ÙĪØ§": 6865, "ĠÙĤÙħÙĬ": 4040, "ÙĬØ¬": 7103, "ĠØ§ÙĦØ£ÙħÙĨ": 7809, "ĠÙĪØ£Ø¹": 4835, "ĠØ§ÙĦÙħÙĨØ§": 2697, "Ø¨Ø±Ø¦": 8082, "ĠÙĦÙĦØ¥": 2370, "ÙĤØ¹Ø¯": 5697, "ĠÙĪØªØ±ÙĥÙĨØ§": 3409, "ĠØµØ§Øº": 6038, "Ø³ÙĦØ§Ùħ": 2854, "ĠÙĬØŃØª": 6147, "ĠÙĪØ±Ø£ÙĪØ§": 6292, "ĠØªÙĨØ¨Øª": 6352, "ĠØ£ÙĤ": 822, "ĠØªÙĩØªØ¯ÙĪÙĨ": 3526, "ĠØªØ±Ø¨Øµ": 7495, "ĠØ¬ØŃÙĬÙħ": 7776, "Ø°Ø§Ø¨": 208, "ĠØ§ÙĦØ±ÙĪØŃ": 4143, "ĠÙĪØ£ØŃÙĬ": 5880, "ĠÙĦÙĤÙĪÙĬ": 6323, "ĠÙĬØ®ÙĦÙĤÙĪÙĨ": 4452, "ĠÙĪÙĪÙĬÙĦ": 6643, "ĠØ¨ÙĬØ¶": 8767, "ĠØ¨ÙħØ¬ÙĨÙĪÙĨ": 8916, "ĠÙĨÙĨÙĤØµÙĩØ§": 9652, "ĠÙĪÙĨØ³Ø§Ø¡": 3675, "ĠÙģÙĤØ§ØªÙĦÙĪØ§": 6358, "ĠØ§ÙĨØ¸Ø±ÙĪØ§": 6475, "ĠÙĪÙĦÙĬÙĥÙĪÙĨ": 8552, "ĠØ¨Ø®ÙĦØ§ÙĤÙĩÙħ": 10160, "Ø¬Ø§Ø±": 4746, "ĠØ¸ÙĨØ§": 6190, "ĠØªØŃØ²ÙĨÙĬ": 9433, "ÙĦÙĬÙħ": 446, "ĠØ¨ÙĪØ±Ø§": 7365, "ĠÙĪÙĨØ¬ÙĪØ§ÙĩÙħ": 10295, "ÙĦÙĩÙĨ": 1778, "ĠÙĪØªØ±Ùĥ": 2537, "Ø£ÙĬÙĨ": 3128, "Ø§Ø«Ø±": 9140, "ĠÙĬØ®ÙģÙĪÙĨ": 6287, "ĠÙĦÙĬØ¹ÙĦÙħ": 4175, "ĠÙĬØªØ®Ø§ÙģØªÙĪÙĨ": 10287, "Ø¶Ø±ÙĪÙĨ": 2886, "ĠÙħÙĤØ§": 3092, "Ø¹ØªÙĩÙħ": 3460, "ĠØŃÙĪÙĦÙĩ": 2910, "ĠØ£Ø³ÙĪØ©": 6404, "ĠØªÙģØ±ÙĤÙĪØ§": 6847, "Ø·ÙĦØ¹": 7690, "ĠØªÙħÙĦÙĥÙĪÙĨ": 9903, "ĠØ£Ø¨ÙĬÙĥÙħ": 5447, "ĠØºÙģÙĪØ±Ø§": 1523, "ĠØªØ®Ø§Ùģ": 3323, "ĠÙħØªØ¨Ø¹ÙĪÙĨ": 7218, "ĠØªØ°Ø±ÙĨ": 9701, "Ø§Ø¦ÙĨÙĬÙĨ": 6090, "Ø¶Ùī": 1447, "ÙĪØªÙĬÙĨ": 8431, "ÙĪØªÙĬ": 7109, "Ø¸Ø±Ø©": 8638, "ĠÙĦÙĥÙģÙĪØ±": 8344, "ĠØ¨ÙĬÙĪØªÙĥÙĨ": 9274, "ØªÙħØªØ¹ØªÙħ": 9394, "ĠØªØ±Ø¯ÙĨ": 8231, "ĠÙĪØ¹Ø¬": 8358, "Ø³ÙĦ": 2058, "ĠØ§ÙĦØ£Ø¹": 1967, "ĠÙĥØ§ÙģØ±": 4754, "ĠØ£Ø±ØŃÙħ": 5193, "ĠØ§ÙĦÙħØ´Ø±ÙĥÙĬÙĨ": 1322, "ĠÙĬØ²ÙĥÙĬ": 9054, "ĠØ¨Ø®": 1309, "Ø°Ø±ÙĬÙĨ": 1897, "ĠØ£Ø¹ÙĨØ§ÙĤÙĩÙħ": 5476, "ĠÙģØ§Ø±Ø¬Ø¹": 9348, "ØªÙĬ": 229, "ĠÙĦÙĪÙĦÙĬÙĩ": 8529, "Ø¶Ø©": 1954, "ĠÙĦØ²ÙĦ": 7303, "ĠÙĩØ¯Ø§ÙĨØ§": 4474, "ĠØ§Ø³ØªØ¬Ø§Ø¨": 5127, "ĠØ§ÙĦÙĨÙĪØ±": 2543,
[...]
