{"ĠØ£Ø¹ÙħØ§ÙĦ": 933, "Ø¶Ø§Ø¡": 2325, "ĠØ£Ø¨ÙĨØ§Ø¡ÙĥÙħ": 5392, "ĠØ¹Øµ": 1280, "ĠØ¨Ø±ØŃÙħ": 6507, "ĠÙĪØ§ÙĦØµÙĦØ§Ø©": 6639, "ĠØ¨Øª": 3118, "ĠØ¹ØµÙĬØª": 5296, "ĠÙģØ±ÙĬÙĤØ§": 2594, "ĠÙģØ£ÙĨØª": 7946, "ÙĤØ¨ÙĪØ§": 5699, "ĠØ¥Ø¹Ø±": 7382, "ĠÙĪÙĨØŃÙĬØ§": 8255, "ĠÙĪØ¹Ø°Ø¨": 8359, "ĠÙħØ¤ÙħÙĨ": 1682, "ĠØŃØ¯Ø§Ø¦ÙĤ": 9039, "ĠØªÙĩØ¯ÙĬ": 5758, "ĠØŃØ³Ø¨ÙĬ": 8818, "ĠÙĬØ¹Ø±Ø¶ÙĪÙĨ": 6243, "ĠÙĨØ¯Ø®ÙĦÙĩØ§": 9534, "ĠÙĦÙħØŃØ¶Ø±ÙĪÙĨ": 10115, "ĠÙĦÙĬØ¬Ø²ÙĬ": 2523, "ØªØ±ÙĪÙĨ": 3438, "ĠØ§ÙĦÙħØ¨ÙĬÙĨ": 1399, "ĠØ§ÙĦØªÙĤÙĪÙī": 3893, "ÙĪØª": 407, "ĠØ¨ÙħØ¨Ø¹ÙĪØ«ÙĬÙĨ": 10309, "ĠØ£Ø¨ØµØ±": 8699, "ĠÙĪØ§ÙĦØ¹Ø¯ÙĪØ§ÙĨ": 4566, "Ø¹Øª": 779, "ĠØ¨Ø°Ø§Øª": 2190, "ĠØ¬ÙħÙĬÙĦ": 7778, "Ø£ÙĦÙĪØ§": 2868, "ĠØ´ÙĩÙĪØ©": 9968, "ĠÙħØ¹ÙĦÙĪÙħØ§Øª": 10321, "ĠØªØ¹Ø¬": 4301, "ĠØ±Ø¡ÙĪØ³ÙĩÙħ": 3879, "ĠÙĬØ³ØªØ¬ÙĬØ¨": 6281, "ÙĨØ¨Ø¦ÙĥÙħ": 7086, "ĠØ±Ø¹": 7556, "ĠØ¬Ø§Ø¡Ùĩ": 3252, "ĠØªØªØ¨ÙĬØ±Ø§": 8532, "ĠØ¶Ø¹ÙĬ": 5059, "ĠØªØ³Ø£ÙĦÙĩÙħ": 5207, "ĠØ§ÙĦÙĤØ±Ø¢ÙĨ": 889, "ĠØ³Ø£ÙĨ": 7670, "Ø¯Ø®ÙĦÙĩÙħ": 3371, "ĠØªØ¤Ùħ": 7486, "ĠÙĬÙĨÙģØ¹ÙĩÙħ": 5326, "ĠÙĪØªÙĨØ³": 8152, "ĠØ§ÙĦÙħØ³Ø¬Ø¯": 1907, "ĠÙĪØ£ØŃØµ": 7725, "Ø¬ÙĪØ¯": 3529, "ĠÙĨÙĥ": 1088, "ĠØ³Ø£ÙĦØª": 6751, "ĠØ£ØªÙĬÙĨØ§": 4640, "ĠØ§ÙĦØ³ÙģÙĩØ§Ø¡": 4570, "ĠÙĪØªØ³": 4213, "ĠØ§ÙĦØ³ÙģÙĩ": 4137, "ĠÙĦØªÙĨ": 4304, "ĠÙĪÙĨØ¨Ø¦ÙĩÙħ": 8252, "ĠØ¨Ø§": 2652, "ĠØªØ·ÙĦØ¹": 6763, "ĠØ§ÙĦØŃÙĥÙħ": 2219, "ĠÙģØ¥ÙĨÙĥÙħ": 8098, "ÙĦØ§ÙĦ": 644, "ĠØªØ¬Ø¯ÙĪØ§": 3137, "ĠÙģØ·Ø±ÙĨÙĬ": 6844, "Ø±Ø¨Ø©": 8052, "ĠØªÙĥÙĪÙĨØ§": 8823, "ĠÙĪØºÙĬØ±": 3922, "ĠØªØµØ¯ÙĬÙĤ": 9825, "ĠØ¨Ø£ÙĩÙĦÙĥ": 6215, "ĠÙĦØ¯Ùī": 7307, "ÙħÙĬ": 329, "ĠÙĪØ³ÙĬÙĤ": 8662, "ĠØ§ÙĦÙħØ®": 5888, "ĠØ£ØºÙĬØ±": 5292, "ĠÙĪØ¥ÙĨÙĥÙħ": 6073, "ĠØ¨Ø§ÙĦØ®": 5957, "ĠØŃÙĥ": 1251, "ØºÙĬØ§ÙĨØ§": 4862, "ĠØ³ØŃØ§Ø¨Ø§": 5508, "ÙĬØ¬": 7102, "ĠØŃÙĦÙĬØ©": 5907, "Ø³Ø·ÙĪÙĨ": 8852, "ĠØ§ÙĦÙĬÙħ": 2837, "ĠÙĬØ¹ÙħÙĦÙĪÙĨ": 751, "ĠØ±Ø²ÙĤØ§": 1921, "ĠÙĬØ°ÙĩØ¨": 3116, "ĠØ±Ø§Ø¬Ø¹ÙĪÙĨ": 5418, "ĠÙħÙĥÙĨØ§ÙĩÙħ": 6500, "ĠØ¶Ø¹ÙģÙĬÙĨ": 6838, "ĠÙģØ§ØŃÙĥÙħ": 4232, "ÙĥØ§Ø±Ø§": 8765, "ĠÙĪØªØ²": 4993, "ĠÙĪØªÙĪÙģÙĨØ§": 9986, "ĠØ£ØµÙĨØ§": 5110, "ĠØŃØ³": 734, "ĠØ¶Ø§ÙĦÙĬÙĨ": 8337, "ĠØ§ÙĦØµØ±Ø§Ø·": 3645, "ĠØªØ¨Ø¯ÙĬÙĦØ§": 4481, "ĠØ¨Ø¥Ø³ØŃØ§ÙĤ": 8864, "ĠÙħØ³Ø·ÙĪØ±Ø§": 10141, "ĠÙģØªÙħ": 5664, "ĠÙĪÙĬØ¹Ùģ": 4900, "ĠÙĤÙĪØ§": 4036, "ØµÙĬÙĨØ§": 4048, "ĠÙģÙĬÙĤÙĪÙĦÙĪØ§": 9388, "ÙĤØ°ÙģÙĬÙĩ": 9594, "Ø±Ø¢": 625, "ĠÙĬØ¹Ø°Ø¨ÙĥÙħ": 5455, "ÙĪØ§Ø¨": 937, "ÙĬØ±Ø©": 7691, "ĠØ£ÙĩÙĦÙĨØ§": 8348, "ĠØ¬Ø§ÙħØ¹": 6893, "ĠØ£ÙħÙĩØ§": 2512, "ÙĬÙģ": 500, "ÙĬØ±Ø§": 273, "ĠØªØ±Ø¬": 5021, "ĠØ§ÙĦÙĪÙĤØª": 9242, "ÙĬÙĦØ§": 914, "ØŃØµ": 2066, "ĠÙĪÙĬØ²": 3608, "ĠØ¹ÙĦÙĬÙĨØ§": 804, "ĠØ¬Ø§Ø¡ØªÙĩÙħ": 1650, "ĠØ¨Ø¹Ø«ÙĨØ§": 3851, "ĠÙĬÙĦÙĤÙī": 6733, "ĠØ¨ØŃÙħØ¯Ùĩ": 5539, "ĠØ®ÙĦØ§ÙĦÙĩØ§": 9665, "ĠÙħØªØ§Ø¹Ø§": 3364, "ÙĨØªÙħ": 237, "ĠØ´Ø§ÙĩØ¯": 3196, "ĠÙĪÙģ": 1548, "ĠÙĤØ³Ùħ": 4758, "ĠÙħØªØ±ÙģÙĪÙĩØ§": 10147, "ĠÙĪØ§ÙĦØ°Ø§": 5835, "ĠÙģØªØŃØª": 8323, "ĠØ¸ÙĦÙħØ§Øª": 2956, "ĠØ§ÙĦØ³ÙģÙĬÙĨØ©": 5979, "Ø¦Ø±": 7701, "ĠÙģØ§ÙĨÙģ": 6509, "ĠÙĪÙĨÙĥÙĪÙĨ": 6196, "ĠØ³ÙĪ": 2483, "Ø¯ÙĪÙĩÙħ": 7252, "ĠØ³Ø¯Ø±": 7678, "ĠÙĤØ±Ø¨Ùī": 4762, "ĠØ¨ÙĦÙĤØ§Ø¡": 3416, "Ø¸Ø±Ø©": 8637, "£": 5, "ĠØ¹ÙħÙĦÙĪØ§": 1535, "ĠØ§ÙĦØ£ÙħÙĬÙĨ": 5937, "ĠØ®ÙħØ±Ø§": 7792, "Ø´ÙĪØ±": 5825, "ĠØ¸Ø§ÙĩØ±Ø§": 8233, "ĠÙģØ®Ø±Ø¬": 5666, "ĠØ¬ÙĨØªÙĥ": 9843, "ĠÙģØ§Ø¯Ø¹ÙĪØ§": 9411, "ĠØ¨Ø§ÙĦØ°ÙĬÙĨ": 3601, "ĠØ£ÙĨ": 105, "ÙĪÙģÙĪÙĨ": 5011, "ĠÙĪÙĥÙĬÙĦ": 4181, "ĠØ£Ø¬Ø±ÙĬ": 2754, "ÙĨØµØ±": 3908, "ĠÙħØ¯Ø®ÙĦØ§": 6570, "ĠØ£ÙģØ¶ØªÙħ": 8309, "ØŃØ³ÙĨ": 640, "ĠØ£Ø¨": 601, "ĠØ£Ø¬Ø±Ùĩ": 6502, "ĠÙģØ¨Ø¹Ø«": 7282, "ĠØ§Ø³ØªØŃØ¨ÙĪØ§": 9890, "Ø§ÙĩØ±Ø§": 5210, "ĠÙĬØŃÙĦÙģÙĪÙĨ": 4222, "ÙĪØ§Ø¨Ø§": 2457, "ĠØ³Ø¯Ø§": 5855, "ĠØªÙĨÙģÙĤÙĪÙĨ": 8611, "ĠØ£Ø¬ÙĬØ¨": 6255, "ĠÙĪØ±Ø§Ø¦Ùĩ": 8475, "ĠÙĩÙĪ": 235, "ĠØ§ÙĦØŃØ§ÙĥÙħÙĬÙĨ": 4571, "ĠÙĤØ¶ÙĬÙĨØ§": 9829, "ĠÙħØ³ÙĦÙħÙĪÙĨ": 2032, "ĠØ§ÙĦØ³ÙĥÙĬÙĨ": 7877, "ĠÙģØ£ÙĩÙĦÙĥÙĪØ§": 9716, "¡": 3, "ØªØ®Ø°": 1848, "ÙĪØ³Ùģ": 3909, "ĠØ¥ÙħØ§ÙħØ§": 5399, "ĠÙĪÙĤØ¹": 4161, "ØªÙĬÙĨØ§": 563, "ĠØ¶Ø±Ø¨ÙĪØ§": 6674, "ĠØ£Ø®ØªÙĩØ§": 8651, "ĠÙĬØ¬ÙħØ¹ÙĪÙĨ": 6373, "ĠÙĬÙģØªÙĬÙĥÙħ": 8740, "ÙĪØ¯Ø©": 2963, "ĠØ£ÙĤÙĦØ§Ùħ": 8877, "ĠØ³Ø®Ø±": 1791, "ÙĬÙĨØ§ÙĩÙħ": 2520, "Ø§Ø¡ÙĩÙħ": 1635, "Ø¯ÙĬÙĨØ§Ùĩ": 5653, "ĠÙĪÙĦÙĬÙĥÙĪÙĨ": 8551, "ĠØ±Ø¨ÙĬ": 513, "ĠØ§Ø¦ØªÙĨØ§": 5382, "Ø¯Ø®ÙĦÙĥÙħ": 6665, "ĠÙĪØ²ÙĪØ¬Ùĥ": 9896, "ĠØ¬Ø§Ø¡ÙĪÙĩØ§": 6162, "ĠÙĦÙħØŃ": 6101, "Ø¸Ø§ÙħØ§": 2802, "ØºÙģØ±Ø©": 1208, "Ø±Ø¨Ø¹Ø©": 8053, "Ø§ÙĦØªÙĩ": 7114, "ĠÙħØªØ¨Ø±": 8799, "ĠÙĪØ£Ø¯Ø¨Ø§Ø±ÙĩÙħ": 10082, "ĠÙĤÙĦØ¨": 7923, "ĠØªØŃØªÙĩÙħ": 4267, "Ø£ÙĪØ§": 1393, "ĠÙĪØ§ÙĦÙģØŃØ´Ø§Ø¡": 9649, "ĠÙĬØ¶Ø¹ÙĨ": 6565, "ĠÙĦÙĬØ®Ø±Ø¬": 3630, "ĠØ¹Ø§ÙĤ": 1068, "Ø§Øµ": 579, "ĠØ§Ø¹ØªØ¯Ùī": 5429, "ĠØ¨ÙĬÙĨÙĩØ§": 8084, "Ø¦ÙĨ": 587, "ĠØªÙĨØ²ÙĬÙĦØ§": 5141, "ĠØŃÙĦÙĬÙħØ§": 5908, "ĠØ³ÙħØ¹Ø§": 7677, "¶": 23, "Ø§Ø´": 1045, "ĠØ£Ø¹Ø¯Øª": 5372, "ĠÙĪÙĬØŃÙĦ": 6755, "ĠØ£Ø¨ØµØ§Ø±ÙĩÙħ": 2824, "ĠØ§ÙĦØ£Ø¹ÙĬÙĨ": 7812, "ĠØ¨Ø³ÙĪØ±Ø©": 9024, "ĠØ®Ø¨ÙĬØ«Ø©": 10257, "ĠØ§ÙĦØ´Ùĩ": 5065, "ĠÙĤØ¯Ùħ": 4216, "ĠØ®Ø§Ø´Ø¹ÙĬÙĨ": 6830, "ĠØ®": 136, "ĠØ³ÙĨÙĬÙĨ": 2692, "ĠÙģØ£Ø°ÙĨ": 6010, "ĠÙĤØ±ÙĬÙĨÙĩ": 9950, "ĠØªÙĩØªØ¯ÙĪØ§": 9945, "ĠØ´ÙĩØ§Ø¯Ø§Øª": 9971, "Ø¦ØªÙĨØ§": 4072, "ĠØ¸Ø§ÙĦÙħØ©": 5471, "ĠÙģØ£ÙĤÙĬÙħÙĪØ§": 6013, "ĠØ³ÙĬØ¬Ø²ÙĪÙĨ": 8710, "ĠÙĬÙĨØ·ÙĤÙĪÙĨ": 5494, "ĠØ¢ÙĦÙĩ": 1157, "Ø£ØªÙħ": 5736, "ĠØ³ÙĬØ¦Ø§Øª": 1486, "ĠÙĬØªÙĪØ¨": 1994, "ĠÙĪØ£ÙĦ": 4833, "Ø®Ùģ": 5794, "ĠÙģØµÙĦ": 4658, "ĠÙĨØ¨ÙĬ": 2688, "ĠØ¬ÙĦ": 3189, "ĠÙĬØ¹Øµ": 3281, "ĠÙĬØªÙĪÙĦÙĩÙħ": 6837, "ĠØ§ÙĦØ¨Ø£Ø³Ø§Ø¡": 8543, "ĠÙģÙĤØ¹ÙĪØ§": 8619, "ĠØ·ÙĦÙĤÙĩØ§": 9619, "ĠÙģØ³ÙĨÙĬØ³Ø±Ùĩ": 10308, "ĠÙĬÙĨÙĩØ§ÙĥÙħ": 8141, "ĠÙģØ§Ø¹ÙĦ": 3253, "Ø¨ÙĤ": 5619, "Ø¹ÙĨØ§": 1306, "Ø¨Ø§Ø±Ùĥ": 1736, "ĠØ£ØŃ": 312, "ĠØ¹ÙĨÙĥ": 2919, "¢": 4, "ĠØ£ÙħØ±": 506, "ĠØ£Ø®Ø±": 1345, "ĠÙĬØ³": 440, "ĠÙĪÙħÙĨ": 183, "ØŃØ¯": 1560, "Ø±Øµ": 7120, "ĠØ¬ÙĨØªÙĬÙĨ": 7777, "ĠÙģØ³Ø¨ØŃ": 2302, "ĠÙĨØ³Ø§Ø¡": 3754, "ĠÙĬØ¬Ø§ÙĩØ¯ÙĪØ§": 8630, "Ø±ÙĬ": 200, "ĠÙħÙĦ": 2293, "ĠÙĪÙĬÙĨ": 1304, "ĠØ£ÙĪØªÙĪØ§": 1093, "ĠÙħØŃØ¬ÙĪØ±Ø§": 9073, "ĠÙĪÙĬØ¤": 2351, "ĠÙĪÙĥØ±ÙĩØ§": 10181, "ĠÙĪØ§ØªÙĤÙĪØ§": 912, "ØªÙħØ¹ÙĪÙĨ": 2698, "ĠÙħØ±ÙĬØ¨": 3400, "ĠÙħØ³Ø·": 6312, "ĠØ³ÙĦØ§ÙħØ§": 3166, "Ø¨ÙĦ": 225, "ĠØ§ÙĦÙħØªÙĤÙĬÙĨ": 1362, "ÙģØ³ÙĥÙħ": 2355, "ĠÙĪØ³Ø®Ø±": 2241, "ĠØ¹Ø¬Ø¨Ø§": 5345, "ĠÙĬØ¯Ø¹ÙĪÙĨ": 1168, "Ø¬Ø²ÙĬÙĩÙħ": 6696, "ĠÙĥØªØ¨Øª": 7523, "ØªÙĬØ§ÙĨ": 8060, "ØªØ¨Ø°Øª": 8704, "ĠÙĬØµØ¯Ø¹ÙĪÙĨ": 9450, "ĠÙĪØ±Ø§Ø¡ÙĥÙħ": 8474, "ĠÙģÙĬØ¶Ø§Ø¹ÙģÙĩ": 10229, "ĠØªØ£ÙĦÙħÙĪÙĨ": 8595, "ĠÙĨÙĤØµØµ": 9654, "ĠÙĬÙħØ³ÙĩÙħ": 5332, "ĠØ£ÙģÙĦÙħ": 2235, "ĠØ£Ø¹": 501, "ĠÙĪØ¹ÙĦÙĬÙĩØ§": 6239, "ØºÙĪÙĨ": 1637, "ĠØ±Ø£ÙĪÙĩ": 8930, "ĠØ£Ø°": 1552, "ĠØ¨Ø§ÙĦØŃØ³ÙĨ": 2918, "ĠØ£Ø¸": 4636, "ĠÙģØ³Ø¬Ø¯": 8667, "ĠØ§ÙĦÙħÙĩØ§Ø¯": 4084, "ĠÙģØ£ÙĨÙĩ": 8904, "ĠÙĪØ§ÙħØ±Ø£ØªÙĩ": 9784, "ĠØ£Ø³ÙģØ§": 6401, "Ø¤ÙħÙĨÙĪÙĨ": 405, "ÙĥÙħØ§": 1846, "ĠØ³Ø§Ùĩ": 7671, "Ø§ÙĩØ¯": 722, "ĠÙĦØ¢Øª": 6555, "ĠØ¬Ø²Ø§Ø¡": 1171, "ĠÙģØµÙĦÙĨØ§Ùĩ": 9216, "ĠØ°Ø±Ø§": 7858, "ĠØ³ÙĥÙĬÙĨØªÙĩ": 7006, "ĠÙĦØ³Øª": 3476, "Ø§Ø¨ÙĩØ§": 3557, "ĠÙĪØ¥Ø¨Ø±Ø§ÙĩÙĬÙħ": 4879, "Ø§ÙĦ": 51, "ĠÙĬØµØ¯": 2060, "Ø¨Ø§Ø±": 771, "ĠØ£ØªØ¨Ø¹": 2780, "ĠØºÙĬØ¨": 3228, "ØªØ§Ùĩ": 6247, "ĠØ±ÙģØ¹": 4050, "Ø·Ùħ": 2335, "ĠØ£Ø´Ø¯Ùĩ": 4393, "ĠØ§ÙĦØ£ÙĬÙħÙĨ": 5941, "Ø¹Ø§ÙĨ": 7222, "ĠØ³ÙĪÙģ": 3163, "ØŃØ§Ø¬": 7410, "ĠÙĬØªÙħØ§Ø³Ø§": 8125, "ĠÙĪØ§ÙĨØµØ±ÙĨØ§": 9326, "ĠØªÙĦÙĤÙģ": 6793, "ĠØºØ¶Ø¨Ø§ÙĨ": 9578, "ĠÙħÙĨØ«ÙĪØ±Ø§": 10213, "ĠÙģØ£ÙĨ": 870, "ĠÙģÙĦÙĨ": 1055, "ØªÙħÙĦØª": 7766, "ĠØ¹ÙĦÙĬÙħ": 478, "ÙĩØ¯ÙĪÙĨ": 2518, "ĠÙģØ§Ø±Ø¬Ø¹ÙĪØ§": 9348, "Ø´Ø±ÙĪÙĨ": 1449, "ĠØ¹ÙĤØ¯": 4014, "ĠÙģØ®": 2301, "ĠØ§ØºÙģØ±": 3302, "ĠÙĬØŃÙĦÙĪÙĨ": 4219, "ĠØ³Ø±Ø±": 4483, "Ø¨Ø¥": 5620, "ĠÙĦÙĦÙħØŃØ³ÙĨÙĬÙĨ": 8694, "ĠØ§Ø´ØªØ±Ø§Ùĩ": 10023, "ĠÙĬØ³ÙĪÙħÙĪÙĨÙĥÙħ": 7067, "ĠØªØ°Ø±": 3135, "ĠÙĪØ¨Ø±Ø²Øª": 9626, "ĠÙĪØ§ÙĦÙħØ¤ÙħÙĨÙĪÙĨ": 3310, "ĠÙĦØ¹ÙģÙĪ": 8757, "Ø§Ø¯ÙĤ": 7912, "ÙĦÙħÙĩÙħ": 4068, "ĠØ±ÙĤÙĬØ¨": 9485, "Ø³Ø§Øª": 5654, "ĠØªØµÙĬØ¨": 3783, "ĠÙģØ´": 5659, "ĠØ§ÙĦØ®Ø§Ø³Ø±ÙĬÙĨ": 2115, "ĠØ³ÙĬØ¡": 8708, "Ø«ÙĬÙĨ": 4823, "ĠÙĪÙĨØ¬Ø¹ÙĦÙĩÙħ": 9993, "ĠÙģØ±ÙĪØ¬": 8443, "Ø³ÙĪØ©": 7262, "ĠØ³ÙĪØ¡Ø©": 8977, "ĠÙĪØ§ØŃ": 746, "ĠØ§ØªØ®Ø°": 1207, "ĠØ¹ÙĨØ¯Ùĩ": 1370, "ĠÙĤØ¨ÙĦ": 301, "ĠÙĦÙĦØ¥ÙĨØ³Ø§ÙĨ": 3871, "ÙĩØª": 662, "Ø§Ø·Ø¨ÙĨÙĬ": 8377, "ĠÙģØ¬": 1181, "ĠØ£ÙĩÙĦÙĥ": 1097, "ĠÙħØ±Ø³Ø§ÙĩØ§": 9688, "ÙĦÙĬÙħØ§ÙĨ": 1698, "Ø¨ÙĬØ¯": 3925, "ĠØ§Ø³ØªØ¬ÙĬØ¨ÙĪØ§": 8560, "ĠÙĪØªØ²ÙĩÙĤ": 9985, "Ø§Ø¦ÙģÙĬÙĨ": 8066, "ĠØŃØ§Ø¬Ø©": 6851, "ĠÙħÙĦÙĥ": 697, "ĠÙĪÙĦÙĥÙĨØ§": 6262, "Ø¬Ùħ": 7500, "ĠØ±Ø£Ùī": 2256, "ĠØªÙħÙĨÙī": 6866, "ĠØ§Ø¦ØªÙĪØ§": 9382, "ĠØªØ¨Ø¯ÙĬÙĦ": 9358, "ĠØ¨Ø³Ø·Ø©": 9939, "ÙħÙĪÙĨ": 544, "ĠÙĪÙĥÙĨ": 4949, "Ø¨Ùī": 3442, "ÙģÙĩ": 2865, "ĠØªØ°": 7466, "ĠØªØ¨ØªÙħ": 8948, "ÙĪÙħÙĩØ§": 7714, "ÙĬÙĨ": 70, "ĠØŃØ§ÙģØ¸ÙĪÙĨ": 7760, "ĠÙģØ§Ø±": 1763, "Ø¹ÙĪÙĨ": 201, "ĠÙĪØ§ÙĦÙħØ³": 1787, "Ø¬Ø§Ø±Ø©": 3530, "ĠØ§ÙĦØ®ÙĦØ¯": 3892, "ĠÙĬØ¬ØªÙĨ": 8631, "Ø§Ø²ÙĩÙħ": 9163, "ĠØ£ÙħÙĪØ§ÙĦÙĩÙħ": 1540, "ĠÙĪØ£ÙĨÙģØ³ÙĥÙħ": 5033, "ÙĤÙĬØ©": 7337, "ĠØªØ®Ø§Ø·Ø¨ÙĨÙĬ": 8731, "ØµØ¯ÙĤ": 1663, "ĠÙĪØ§ÙĦÙĨÙĪØ±": 6487, "ĠÙĨØ§Ø±": 1450, "ĠØ§ÙĩØªØ¯Ùī": 3387, "ĠØ£ØªÙħ": 3948, "ĠÙĥÙģØ±Ø§": 4983, "ĠØ£Ø®ÙģÙĬ": 8650, "ĠÙģØ§Ø¨Ø¹Ø«ÙĪØ§": 10047, "Ø°ÙĦ": 4691, "ĠÙĪÙĤÙģÙĬÙĨØ§": 6029, "ĠÙĪØ§Ø¨ÙĦ": 6629, "ĠØ£Ø¨ÙĪØ§Ø¨ÙĩØ§": 6820, "ĠÙħØ«": 395, "ĠÙĬÙĩÙĦÙĥ": 3114, "Ø²Ø¹ØªÙħ": 6710, "ĠÙĪØ·Ø¨Ø¹": 9192, "ĠØ®ÙĦÙĤÙĪØ§": 4242, "ĠØ£ØŃØ§Ø¯ÙĬØ«": 8217, "Ø£ØªÙĬÙĨ": 4010, "ĠÙĬØ£ØªÙĪÙĥ": 5391, "ĠÙģÙĥØ´ÙģÙĨØ§": 8646, "ĠØ¨Ø§Ø·ÙĦØ§": 10062, "ÙĩÙħØ§": 425, "ĠÙĤØ±ØŃ": 7532, "ĠÙħØ²Ø§Ø¬ÙĩØ§": 9920, "ĠØ¨ÙĬØ§Øª": 5709, "ĠØ£ÙĦØ³ÙĨØªÙĩÙħ": 6745, "ĠÙĪØ§ÙĦØ¬Ø¨Ø§ÙĦ": 3858, "ĠØ£Ø´ÙĬ": 5194, "ĠÙĬØ¬ÙħØ¹ÙĥÙħ": 9891, "ĠÙħØ±Ø¶": 1239, "ĠÙĬØ´ÙĩØ¯ÙĪÙĨ": 5014, "ĠÙĪØ£Ø±Ø¬ÙĦÙĩÙħ": 9707, "ĠÙĪØ§ÙĨØ¸Ø±": 5358, "ĠÙĬØªØ®Ø§ÙģØªÙĪÙĨ": 10286, "ĠÙĪÙĬØ¹ÙĤÙĪØ¨": 2420, "ĠØ¨Ø®Ø§Ø±Ø¬": 6634, "ĠØ§ÙĦØ£ÙħÙĬÙĬÙĨ": 9972, "ĠØ¨Ø¹Ø¶ÙĨØ§": 6264, "Ø´ÙĬÙĩÙħ": 5827, "ĠÙĪØ³ÙħØ¹": 7152, "Ø£Ø³": 2463, "ĠÙĦÙĤÙĪÙħ": 669, "ĠÙģÙĪØ§ÙĥÙĩ": 9927, "ĠØ·Ø§ØºÙĬÙĨ": 9996, "ÙĩÙĬÙħ": 617, "ĠÙĤØ§ØªÙĦÙĩÙħ": 10071, "ĠÙĬØ±ØŃÙħÙĥÙħ": 10292, "ĠÙĪÙĤØ§ÙĦ": 351, "ĠØ§ÙĦÙĦÙĩÙħ": 3918, "ĠÙĪÙħØ¹": 5602, "ĠÙĪÙĤØ¹Øª": 7975, "ĠÙħØ´ØªØ±ÙĥÙĪÙĨ": 9310, "ĠØ¯ÙĬØ§Ø±ÙĩÙħ": 2822, "ĠØ²ÙĪØ¬": 1528, "ĠØ£Ø®Ø¨Ø§Ø±": 6383, "ÙħÙĪÙħØ§": 7098, "ĠÙģØ±Ø§Ø±Ø§": 5674, "ÙģÙĪÙģ": 7395, "ĠØ¥Ø³Ø±Ø§Ø¦ÙĬÙĦ": 902, "ĠØªÙĦØ¨": 4023, "ĠØ§ØªÙĤÙī": 4276, "ĠØ¯Ø§ÙĪÙĪØ¯": 2040, "Ø±ÙĪØ§": 1176, "ĠÙĪÙģØªØŃ": 5609, "ØºÙģØ±ÙĪØ§": 2982, "ĠØµØ±Ø§Ø·": 963, "ĠØ§ÙĦØ´ÙħØ§ÙĦ": 3684, "ĠÙĦØ®ÙĦÙĤ": 9560, "ĠÙħÙĥØ§ÙĨØªÙĥÙħ": 5312, "ĠÙĬÙĨØ²": 4206, "ĠÙĪØ¢ÙĬØ©": 5145, "ÙĩØ¨": 1423, "ĠØ£Ø±ÙĪÙĨÙĬ": 5647, "ĠÙģÙĥØ°Ø¨": 1732, "ĠÙĪØ§Ø¹Øª": 4979, "ĠÙģÙħØ§": 531, "ĠÙĬØ³Ø£ÙĦÙĪÙĨÙĥ": 2761, "ĠØ§Ø¶": 2772, "ÙĤÙģØ§": 7338, "ĠÙĤØªÙĦÙĩÙħ": 9261, "Ø°Ø¨ÙĪÙĨ": 1467, "ĠÙħØ®ÙĦÙĤØ©": 9197, "ÙģÙĥØ±ÙĪÙĨ": 4711, "ĠÙĪØ²ÙĬÙĨ": 2577, "ĠÙĬÙĩÙĦÙĥÙĪÙĨ": 9697, "ĠÙĪØ¥ÙĬØªØ§Ø¡": 7058, "ĠÙģØ£ÙĨØ¬ÙĬÙĨØ§Ùĩ": 3775, "ĠØ£Ø´ÙĥØ±": 8791, "ĠÙĪØ¹Ø¯": 592, "ĠØ¨Ø±Ø²ÙĪØ§": 8854, "ĠÙĪØ²ÙĪØ¬ÙĨØ§ÙĩÙħ": 9897, "ĠÙĪÙĬÙĤÙĪÙĦÙĪÙĨ": 1200, "ĠØ£ÙĤØ³ÙħÙĪØ§": 9503, "ĠØŃØ¯": 1090, "ĠÙĪØ§ÙĦØ³ÙħØ§Ø¡": 2800, "ĠÙĪÙĦØ¢ÙħØ±ÙĨÙĩÙħ": 10261, "ĠÙĪØ§ÙĦÙĤØ±Ø¢ÙĨ": 4400, "ĠÙĬØºÙĨÙĬ": 2134, "ĠÙħÙĪØ¹Ø¸Ø©": 6154, "ĠÙĨÙĨØ¬ÙĬ": 6961, "ĠØ§ÙĦØ¨Ø§ÙĤÙĬÙĨ": 10178, "ĠØªÙħØ³ÙĪÙĩÙĨ": 6780, "ÙĬÙĤ": 1607, "ĠØµØ§ÙĦØŃÙĬÙĨ": 5238, "ĠØ§ÙĦØ´ÙĩØ¯Ø§Ø¡": 8355, "ĠØ¨ÙĦ": 350, "ĠØµØ¹ÙĬØ¯Ø§": 5523, "ĠØ·Ø±Ùģ": 6207, "ĠØ¨Ø§ÙĦØ¨Ø±": 7847, "ĠØ§ÙĦØµØ§Ø¯ÙĤÙĪÙĨ": 8088, "ĠÙĪÙĨØ²Ø¹ÙĨØ§": 6200, "ØªÙħØªØ¹ÙĪØ§": 3850, "ÙħØ§": 82, "Ø°Ø§Ø¨": 207, "Ø§ÙģØ§Øª": 6219, "ĠØªØ¨Ø·ÙĦÙĪØ§": 8949, "Ø·ÙĬØ¹ÙĪÙĨ": 1211, "ĠØºØ§ÙģÙĦÙĪÙĨ": 3870, "ĠØ¨ÙħØ«ÙĦÙĩ": 8913, "ĠØ¨ÙĨ": 1349, "Ø®ÙĦÙĬ": 5795, "ĠØ§Ø«": 1481, "ÙĬØ²Ø§ÙĨ": 5570, "ĠØ¨ÙĤØ§Ø¯Ø±": 6617, "ĠÙĬÙĨØ§ÙĦÙĩÙħ": 8139, "ØŃÙĬÙħ": 1278, "ĠØµÙĬØŃØ©": 3623, "Ø¬ÙĨÙĪÙĨ": 4030, "ĠØ¹Ø§Øµ": 3517, "ĠØŃÙĬÙĨ": 1139, "ĠØªØ¨ÙĪ": 8947, "ĠØ£Ø±Ø¯ØªÙħ": 6449, "Ø¨Ø¦ÙĩÙħ": 2405, "ĠÙĪØ±ÙģØ¹": 2757, "ĠØ£ÙģØ¨Ø¹Ø°Ø§Ø¨ÙĨØ§": 8312, "Ø³Ùĥ": 1762, "ĠÙĨÙĥÙĬØ±": 4405, "ÙĩØ§Ø±": 469, "ĠØªØŃÙĥÙħÙĪÙĨ": 5511, "ĠØ«ÙĤÙĬÙĦØ§": 9544, "ĠÙĦØ§ÙħØ³": 7767, "ĠØ®ÙĪÙĦ": 7782, "Ø§Ø±Ø¹ÙĪÙĨ": 2926, "ĠÙĪÙħÙĦØ§Ø¦ÙĥØªÙĩ": 4573, "Ø±ÙĬÙĥ": 2728, "ĠØªØ´Ø±ÙĥÙĪØ§": 6924, "ÙĩØ¯Ùī": 728, "ĠÙĪÙĬÙĦÙĨØ§": 3609, "ĠØ¨Ø¹Ø¨Ø§Ø¯ØªÙĩÙħ": 9497, "ĠØ§ÙĦÙħØ«ÙĦ": 7740, "ĠØ¨ÙĩÙĬØ¬": 8011, "ĠØ¥ÙĦÙĩÙĬÙĨ": 8588, "ĠØ³Ø¨Ø¨Ø§": 5267, "Ø§ÙĦÙħÙĪÙĨ": 1022, "Ø£ØªÙĪÙĨ": 2464, "ĠÙĬ": 66, "ĠÙĪØ¶Ø§": 7156, "ĠØ§ÙĦÙħÙĤØª": 7736, "ĠØ·Ø±Ø§Ø¦ÙĤ": 10296, "ÙĪØ´": 3073, "ĠØªÙĥÙĪÙĨÙĨ": 2783, "ĠÙĦÙĬØ¶ÙĦ": 4175, "ĠØŃØ´Ø±": 4853, "ĠÙģÙĬØªØ¨Ø¹ÙĪÙĨ": 7541, "ĠÙĪØ¹ØµÙī": 8365, "ĠÙĥØ¨ÙĬØ±ÙĩÙħ": 9419, "ĠÙĦØ³ÙĨØª": 10055, "ĠØ£ÙĦØŃÙĤ": 9386, "ÙĪÙĪØ¯": 7109, "Ø¹ÙĦÙħ": 171, "ĠÙĬØ±": 287, "ĠÙĪÙĩÙħ": 383, "ĠÙĪØ§Ø³ÙħØ¹ÙĪØ§": 4980, "Ø·Ø§Ø³": 6472, "ĠÙħØ³ÙĨÙĪÙĨ": 6994, "Ø§Ø±Ø©": 1464, "ĠÙĬÙĨÙĩÙĪÙĨ": 6128, "ÙĤÙĪÙĨØ§": 6233, "ĠÙĬØ´Ø§Ø¡ÙĪÙĨ": 4294, "ĠØ£Ø±Ø¨": 1615, "ÙĩØ¯Ø§Ø¡": 3624, "ĠÙħØ³Ø§Ùģ": 6313, "ĠÙĬØ¬ØªÙĨØ¨ÙĪÙĨ": 10307, "ĠØ¹Ø§": 3512, "ĠÙĪØ¬Ø§": 4974, "ĠÙĩÙĦ": 651, "ĠØ¹Ø¸Ø§ÙħØ§": 4734, "ĠÙĬÙĨØ³": 6127, "ÙĪØªÙī": 1675, "ĠØ¯ÙħØª": 6007, "ĠØ¨Ø§ÙĦÙĥØ§ÙģØ±ÙĬÙĨ": 6896, "ĠÙĪÙĬÙħ": 1608, "ĠØ§ÙĦØ£ÙĦÙĪØ§ØŃ": 7056, "ĠÙģÙĬÙħØ§": 1315, "ĠØ³Ø§Ø¹Ø©": 2898, "ĠØ®Ø§ÙĦØ¯ÙĬÙĨ": 879, "Ø³ÙħØ¹": 1011, "ĠØ§ÙĦÙĪØ§ÙĦØ¯Ø§ÙĨ": 7037, "ĠØŃØ³Ø¨Ùĥ": 9296, "ĠÙĥØ«ÙĬØ±": 1487, "ØªÙħØ±ÙĪÙĨ": 7765, "ĠØ¥ØµÙĦØ§": 3500, "ĠØ´Ø§ÙĩØ¯Ø§": 6895, "ĠØ£Ø±Ø¶ÙĨØ§": 6694, "ĠØ¶Ø§ØŃ": 8334, "ĠØ¹ÙĤØ§Ø¨": 4731, "Ø¨ÙĬÙĨØ©": 4976, "ĠÙĪÙĦÙī": 5595, "Ø³ÙĦÙĪØ§": 5655, "ĠØºÙĦØ§ÙħØ§": 8040, "ĠØ§ÙĦÙģØ¬Ø§Ø±": 8640, "ĠØ§ÙĦÙĦØ¤ÙĦØ¤": 10180, "ĠØ¨Ø¹Ø¶ÙĩÙħ": 1076, "ĠØ§ÙĨØª": 3336, "Ø°ÙĦÙĥ": 364, "ĠØ²ÙĥØ±ÙĬØ§": 4272, "ĠØ·ØºÙĬØ§ÙĨÙĩÙħ": 4572, "ĠÙĬØŃØ°Ø±": 8170, "ĠÙĪØ³ÙĬØŃ": 8660, "ĠÙĨØ®Ø±Ø¬ÙĥÙħ": 9957, "ĠÙĬØ¤Øª": 5181, "ĠØ£ÙĨØ²ÙĦØª": 2770, "ĠØ£Ø±Ùĥ": 7239, "ĠÙģØ§Ø¹Ø¨Ø¯ÙĪÙĩ": 4505, "ÙĪÙĩ": 298, "ĠØ¨Ø³Ùħ": 441, "ĠØ¢ÙĨ": 4073, "ĠØµÙĦØ§Ø©": 7987, "ĠÙĦÙĩØ¯Ùī": 7308, "ĠÙĪØ§ÙĦØ®": 2479, "ØªØ§ÙħÙī": 3688, "ÙĬØªÙĪÙĨ": 8511, "ĠØ¢Ø«Ø§Ø±ÙĩÙħ": 3888, "ĠÙĦØŃÙĤ": 4665, "Ø²Ø¹ÙĪÙĨ": 4052, "ĠÙĦØ£ÙħÙĦØ£ÙĨ": 5554, "ĠÙĬØ£ÙĥÙĦÙĩÙĨ": 9301, "ĠÙĪÙĬÙĨØ²ÙĦ": 4434, "ĠÙĬØªØ²ÙĥÙī": 8126, "ÙĦ": 44, "ĠÙģØ§Ø·Ø±": 3886, "ĠØªØ±Ø¨Øµ": 7494, "ĠÙĬÙĤØª": 4680, "ĠÙħÙĩØ·Ø¹ÙĬÙĨ": 6842, "ĠØ³Ø¨ÙĬÙĦÙĥ": 8410, "ĠØ¨Ø§ÙĦÙĦÙĬÙĦ": 3602, "ĠÙĬØ±ÙĬØ¯": 769, "ĠÙģØ§ÙĤØ±": 6174, "ĠÙĬØªÙĪÙģÙī": 5422, "ĠÙħÙĬØ«Ø§ÙĤÙĩÙħ": 5348, "ĠØ³Ø§Ø¯": 5854, "ĠØªØ³Ø¬Ø¯": 8826, "ĠÙĨØ£": 5839, "ĠÙĪØªÙĪÙģ": 4994, "ĠØ®ÙĦÙģØ§Ø¡": 6604, "ĠÙģØªÙħÙĨÙĪØ§": 8320, "ĠÙģÙĥÙĦØ§": 8643, "ĠÙģØºÙģØ±": 7280, "ĠØ¨Ø¶Ø§Ø¹ØªÙĩÙħ": 10065, "ĠØ§ÙĦØºØ§ÙĪÙĬÙĨ": 8525, "ĠÙģØ§ÙĥÙĩÙĬÙĨ": 10127, "ÙĥØ§Ø©": 1079, "ÙĬØ¶": 4581, "ĠÙĪØ¬ÙĬØ¡": 8072, "ĠØ£Ø³ÙĦØŃØªÙĥÙħ": 10145, "ĠØ°Ø±ÙĬ": 1879, "ÙĬØ§Ø©": 632, "ĠØŃÙĬØ§ØªÙĨØ§": 7008, "ĠÙĪØ§ÙĦÙģØ±": 7592, "ĠÙĬØ¤ØªÙĬÙĩÙħ": 8723, "ĠÙĪÙĤÙĩÙħ": 7971, "Ø§Ø¬Ø¯": 1748, "ĠÙģØ£ØµÙĦØŃÙĪØ§": 6606, "Ø¤": 154, "ÙĤÙī": 1043, "ĠØ¨ÙĦÙī": 1392, "Ø¹Ø¬": 1242, "ĠØªØ±Ø¬Ø¹ÙĪÙĨ": 1526, "ĠØ£ÙĤÙĪÙĦ": 2636, "ĠÙĪØ¢ØªÙĬÙĨØ§ÙĩÙħ": 5329, "ĠÙĪØ±ÙĤ": 8470, "ĠÙĬÙĤØµÙĪÙĨ": 8737, "ĠÙĦØ£Ø¨ÙĬÙĩ": 2763, "ĠØªÙĦØ¨Ø³ÙĪÙĨ": 6953, "ĠÙĦÙĬØ®Ø±Ø¬ÙĨ": 9782, "ĠØªØ¹Ø¯ÙĨØ§": 5437, "ĠØ¨ÙĬÙĪØªÙĩÙħ": 9502, "ĠØ£ØŃØ³": 6183, "ĠØ§ÙĦØ¬ÙĨØªÙĬÙĨ": 8284, "ĠØ§ÙĦØŃÙĤ": 467, "ĠÙģØ§Ø³ÙĤÙĪÙĨ": 3351, "ĠØ®ÙĦØ§Ùģ": 3588, "ĠØ§ÙĦÙħÙĬØª": 2209, "ĠÙĬÙĨØ²ÙģÙĪÙĨ": 9872, "ĠÙĥØ§ÙħÙĦØ©": 10225, "ĠØªÙħØ³ÙĨØ§": 9456, "ĠÙħÙĬØ±Ø§Ø«": 10188, "ĠÙĦÙĦØ£": 6130, "ĠØ£ØºÙĨÙī": 2807, "ĠÙģØ²Ø§Ø¯": 4545, "ĠÙħØ³ØªÙĩÙħ": 6432, "ĠÙĬØŃØ³Ø¨ÙĪÙĨ": 4999, "ĠØµØ±ØŃØ§": 8868, "ĠÙĤØ§Ø¯Ø±ÙĬÙĨ": 10228, "ĠØ¨Ø§ÙĦ": 155, "ĠÙĦØ¯ÙĨÙĩ": 9047, "ĠÙĪØ´ÙģØ§Ø¡": 10185, "ĠØ±ÙĩÙĤØ§": 9833, "ĠÙĩØ¯Ø§ÙĩÙħ": 5362, "ĠÙĪØ£Ø´ÙĩØ¯ÙĪØ§": 7730, "ĠØ¨Ø§Ø³Ùħ": 5448, "Ø±ÙĪÙĨ": 164, "ÙĦÙĬÙĩØ§": 2673, "ĠÙĪÙĬÙĤÙĪÙĦ": 2215, "ÙģØ¬Ø±": 7394, "ĠÙĪØ£Ø¨ÙĤÙī": 3386, "ĠÙĨØ±Ø§Ùĥ": 4805, "ĠØ§ÙĦØ£Ø®Ø±": 4115, "Ø´Ø§": 3550, "ĠÙĪØ´Ø±Ùĥ": 7149, "ĠÙģÙĤØ¯": 699, "ĠØ¹Ø§Ø¦": 7436, "Ø¨ÙĬÙĦØ§": 4953, "ĠÙĪÙĪØŃ": 7148, "ĠÙĪØ£ÙĨØª": 1997, "ĠÙĬØ°ÙĪÙĤÙĪÙĨ": 10202, "ĠØ§ÙĦØ³Ø¯Ø³": 5978, "ĠÙħÙģØ³Ø¯ÙĬÙĨ": 3940, "ÙħØ¯Ø§": 7093, "ĠØ·ÙĦÙĤ": 2741, "ĠÙĬØŃØ³Ø¨": 3656, "ĠÙĪØ£ÙĨØ²ÙĦÙĨØ§": 2234, "ĠØªØ£ÙħØ±": 5138, "ĠØªØ¬Ø²ÙĪÙĨ": 2771, "Ø¯ÙĬÙĨ": 401, "ØºÙĬ": 1193, "ĠÙĪØ£Ø´Ø±Ùĥ": 7720, "ØŃØ¶ÙĪØ§": 7411, "ĠÙĦÙĬÙģØª": 7999, "ĠÙħØ®ØªØ§ÙĦ": 9196, "ĠØ¨ÙĬØ§ØªØ§": 7044, "ĠØ¯Ø§Ø¨Ø©": 2038, "ĠÙĤØ±Ø¢ÙĨ": 4761, "ĠØ³ÙĬØ¯": 7659, "ĠØµØ¨Ø±ØªÙħ": 9718, "ĠØ¢Ø¨Ø§Ø¡ÙĥÙħ": 6522, "ĠÙĪØµØ§ØŃØ¨ØªÙĩ": 10157, "ĠØ£Ø´": 698, "ĠØ¢Ø¨Ø§Ø¦": 4372, "ĠØ®Ø±Ø¬ÙĪØ§": 4516, "ĠÙĬÙģØªØ±ÙĪÙĨ": 1672, "ĠØ¹Ø§Ø¨Ø¯ÙĬÙĨ": 6825, "ĠØªØ®ØªØµ": 8730, "ĠÙĪØ§ÙħØ±Ø£": 3647, "ĠÙĪØ§ÙĦØ£": 277, "Ø¨ÙĬØ±": 717, "ĠØ³ÙħÙĬ": 2897, "ĠØªØ±ØŃÙħÙĪÙĨ": 2954, "Ø¹Ø¬ÙĦ": 3460, "ĠÙĪØ£Ø¹Ø±Ø¶": 4840, "Ø³ÙĬÙĨ": 4646, "Ø¡Ø§": 5955, "ĠØ§ÙĦØ¹Ø§ÙħÙĦÙĬÙĨ": 6021, "ĠØ£ØºØ±ÙĤÙĨØ§": 4641, "Ø£ÙĬÙĨ": 3127, "ĠØªØ·ØºÙĪØ§": 6762, "ĠØ£ØŃØ³ÙĨØªÙħ": 10131, "Ø³ÙĨØ©": 1257, "ĠØ¢ÙĦ": 1191, "ĠÙĬÙĦØŃ": 3977, "ĠØ®Ø·Ø§": 4104, "ĠØ¢ÙħÙĨ": 211, "ĠØ§ÙĦØªÙĪØ¨Ø©": 5241, "ĠØ¨Ø¬Ø§ÙĨ": 5375, "ĠÙħØ·ÙħØ¦ÙĨ": 7214, "ÙĬÙĥ": 2282, "ĠØ¬Ø¹ÙĦÙĨØ§Ùĩ": 3346, "ĠÙĪÙĦØ¹ÙĦÙĥÙħ": 2826, "ĠØ§Ø³ØªØŃ": 4303, "ĠØ¨Ø¹ÙĬØ±": 8110, "ĠØªØ®ÙģÙĪÙĨ": 8728, "ĠÙħÙĪØ§Ø²ÙĬÙĨÙĩ": 3854, "ĠÙĨØ²ÙĦ": 1285, "ĠØªÙĥÙĪÙĨÙĪØ§": 1489, "ĠØ§ÙĦØªØ§Ø¨": 5584, "ĠØºØ¶": 6074, "Ø¹Ø¯ÙĩÙħ": 2713, "ĠÙĨØ±ÙĬØ¯": 5450, "ĠÙĬÙĨØ§ÙĦ": 6126, "ĠÙĪØ§ÙĦÙĨØ¨ÙĬÙĬÙĨ": 6983, "ĠÙĪØ£ÙĤÙĬÙħÙĪØ§": 2338, "ĠØ§ÙĦÙĥØ¹Ø¨Ø©": 8031, "ĠÙħÙĦÙĬÙħ": 7205, "Ø¹Ø§ÙĦÙī": 2297, "ĠØŃØ§Øµ": 4856, "ĠÙģØ§ØºÙģØ±": 3898, "ÙĤØ°": 2648, "ĠÙĪØ§ÙĦÙħØ±Ø¬Ø§ÙĨ": 9954, "ĠØ§ÙĦØ±Ø´Ø§Ø¯": 10098, "ĠÙĬØŃØ´Ø±ÙĩÙħ": 4221, "ĠØ£Ø±Ø¨Ø¹ÙĬÙĨ": 5350, "ĠØ¨ÙĬÙĨ": 246, "Ø«Ùħ": 942, "ĠØ±Ø¡": 1785, "ĠØ´ÙĥØ±ØªÙħ": 9967, "ÙĪÙĩÙħØ§": 4591, "ĠØ£ÙĥÙĦÙĩØ§": 5101, "ĠØ¢Ø¨Ø§Ø¤ÙĩÙħ": 5237, "ĠÙĬØ¦Ø³": 4682, "ĠÙĨØµÙĬØ¨": 2023, "ĠÙĬØ¶Ø±Ø¨": 3031, "ĠÙĪÙĤÙĪÙħ": 1465, "ĠØªØ³Ø¹Ùī": 6480, "ĠØ§ÙĦÙģÙĪØ§ØŃØ´": 8641, "Ø¤ÙħÙĨ": 187, "ĠØªÙĪØ¨Ø©": 9642, "ĠØ¢Ø«": 2900, "ĠÙħÙĩÙĬÙĨ": 2181, "ĠØ¢ÙħÙĨØªÙħ": 2942, "ĠØ¨Ø¯ÙĬÙĨ": 5713, "Ø£Ø¨": 4719, "ĠÙĪØ£Ø¨ØµØ±": 6752, "ÙĪÙĬÙĦÙĩ": 3012, "Ø£": 77, "ĠÙĨØ¨Ø±": 7616, "ĠÙĦÙĨØ¨ÙĪ": 8375, "ĠØ£ÙĨØ²ÙĦ": 476, "ĠØ£Ø¬ÙħØ¹ÙĬÙĨ": 1375, "Ø§Ø®Ø°": 2796, "ĠÙģØ£ØŃÙĬØ§": 4159, "ĠØªØ¹Ø±Ø¶": 8534, "ĠØ¨Ø§ÙĦÙĤØ³Ø·Ø§Ø³": 9233, "ĠÙĪØ¹Ø¯ÙĪÙĥÙħ": 8692, "ĠØ§ÙĦØ¢Ø²ÙģØ©": 9405, "ĠØ§ÙĦØ±Ø¶Ø§Ø¹Ø©": 10177, "ĠØŃØ³Ø¨": 1574, "ĠÙģÙĤØ§ÙĦ": 858, "ĠÙĤØ§ÙĦ": 142, "ĠØªØ¯Ø¹": 3008, "ĠÙĥØ±ÙĬÙħØ§": 5540, "ĠØµÙĨØ¹ÙĪØ§": 5491, "ĠØ³ÙĪÙĦ": 4817, "ĠØµØºÙĬØ±": 6038, "ĠØ²ÙĥØ§Ø©": 8412, "Ø°Ø§Ø¨ÙĨØ§": 8033, "ĠÙĬÙĥÙģØ±ÙĪÙĨ": 2262, "ĠÙĪØ¨Ø¦Ø³": 1898, "ĠØ´ÙĩØ§Ø¯": 4875, "ÙĬØ§ÙĬ": 7864, "ĠÙĤØ§ÙĦØªØ§": 7821, "ĠØ§ÙĦØ¹Ø¨Ø¯": 7962, "ØªØ§Ø¹": 8391, "ĠØ¨ØªØ£ÙĪÙĬÙĦÙĩ": 6989, "Ùī": 84, "ĠÙĦØ¹ÙĨ": 6435, "ĠØªØ³Ø¨": 7473, "ĠÙģÙĦØ¹ÙĦÙĥ": 9989, "ĠØ®ÙħØ³": 4102, "Ø§Ø¸": 4042, "ÙĦØ§Ùĩ": 7462, "ĠÙĬØ¯Ø±Ùĥ": 8448, "ĠÙĪÙĦÙĩÙĨ": 9066, "ĠØªØŃØª": 3283, "ĠÙĤØµØ§Øµ": 9483, "ĠÙĦÙĨØ®Ø±Ø¬": 5072, "ĠØ£ÙħØ±ÙĩÙħ": 2238, "ĠØ¨ÙĬÙħÙĬÙĨ": 3495, "ÙħØ±Ø£": 1230, "ĠØ³ÙĦØ³": 9079, "ĠØ£ÙĪØªÙĬ": 1404, "ĠØªØ·ÙĩØ±": 7492, "ÙĤØµÙĩØ§": 9218, "ØµÙĬ": 3539, "ĠÙĪØ±Ø¯": 6289, "ĠÙĪØµÙĬÙĨØ§": 9027, "Ø¹Ø°Ø¨": 7224, "ĠØ§ÙĦØ£ÙĪÙĦÙī": 1967, "ĠØ§ÙĦØ´ÙĩØ±": 5066, "ĠÙĪØ§ÙĦÙħ": 533, "ĠÙĪÙĬÙĦÙĥÙħ": 7893, "ĠÙģØ¬Ø¹ÙĦ": 3964, "ĠØ£ÙĥÙĦ": 8461, "ĠØ£ÙĦÙĬÙħ": 791, "ĠØ§ÙĦÙħØ±ÙĬØ¶": 7749, "ĠÙĪØ¥Ø°": 623, "ĠØ§ÙĦÙĥØ§ÙģØ±": 8027, "ĠÙĬÙĨØ¸Ø±ÙĪØ§": 8133, "ĠØ³Ø¨ÙĬ": 392, "ĠÙĨÙģ": 991, "ĠÙĪØ¬Ø§Ø¡Øª": 6625, "ĠÙħÙĤØªØ¯Ø±": 9473, "ĠØ¢ÙĬØ§ØªÙĬ": 2554, "ĠÙĦÙĨÙĥÙĪÙĨÙĨ": 4261, "ĠÙĬØ®ÙĪØ¶ÙĪØ§": 5527, "ĠØ¨Ø®Ø¨Ø±": 9158, "Ø¸Ø±ÙĨÙĬ": 6378, "ĠÙĪØ£ÙĩÙĦÙĬÙĩÙħ": 9262, "ĠÙĪØ¬ÙĨÙĪØ¯": 6799, "ØµØ¯ÙĤØ§Øª": 8658, "ĠØ¨Ø£Ø±Ø¨Ø¹Ø©": 8293, "ĠÙĪØ§ÙĦØ¯Ùħ": 4794, "Ø²ÙĤÙĪÙĨ": 7571, "Ø¦ÙĪØ§": 5866, "ĠØ£ÙĨØ°Ø±ÙĪØ§": 5833, "ĠÙĥØ§ÙĨØ§": 7517, "ĠÙĬØ´ÙģØ¹": 6168, "ĠÙĬØ¤Ø®Ø±ÙĩÙħ": 6981, "ĠØ£Ø«ÙĬÙħ": 4459, "ĠØªØµØ¨Ø±ÙĪØ§": 4386, "ĠØ§ÙĦØ£Ø®Ø±Ùī": 4567, "ĠÙĬØªÙĪÙĦ": 2534, "ĠÙĨØ¹Ø¯": 7612, "ĠÙĥÙģØ±": 268, "ĠØ¨Ø±Ø³ÙĦ": 5718, "ĠÙĨÙĥÙĪÙĨ": 7617, "º": 27, "ĠÙĬØªØ±ÙĤØ¨": 8123, "ÙĥØ±Ø©": 2517, "ĠÙĬØ¹Ø±ÙģÙĪÙĨ": 3687, "ĠØªÙĨØ¸Ø±ÙĪÙĨ": 3303, "ĠØµØ¯ÙĪØ±ÙĥÙħ": 5180, "ĠÙħÙĥÙĬÙĨ": 5221, "ĠÙĪØ£Ø´Ø¯": 5883, "ĠÙĪÙħØ³Ø§": 5093, "ĠÙĩØ¯Ø§ÙĬ": 9332, "ĠÙĪÙĤØ¶": 6026, "ĠÙĥØ§ÙĨÙĪØ§": 267, "ĠÙĦÙĦÙĨØ¨ÙĬ": 8146, "ĠÙģØ´Ø§Ø±Ø¨ÙĪÙĨ": 10195, "ĠÙĪØµØ¯ÙĤ": 3921, "Ø³ÙħØ¹ÙĪØ§": 3232, "ĠÙĬØ£ÙĥÙĦÙĩ": 9300, "ĠØ§ÙĦØ¯Ø¹Ø§Ø¡": 4233, "ĠÙĦÙĦÙħ": 593, "ĠØªØ£": 493, "ĠØ§ÙĦØªÙĤ": 3023, "ĠØ£ÙĬÙĩØ§": 365, "ĠØ§Ø°ÙĩØ¨Ø§": 8017, "ĠØ¹Ø§ÙĥÙģÙĪÙĨ": 9819, "ĠØªØªÙĦÙĪ": 5120, "ĠÙħØªØ¨Ø¹ÙĪÙĨ": 7217, "ĠØ³Ø£": 1867, "ĠÙģØ§ÙĨØ·ÙĦÙĤ": 5225, "ĠØ²ÙĬÙĨØ§": 5086, "ÙĨ": 47, "ĠØ§ÙĦØ±Ø³": 668, "ĠÙĪØ¥ÙĨÙĥ": 3636, "ĠÙĬØ¤ØªÙĪÙĨ": 5185, "ĠÙĤÙĬÙĦØ§": 5788, "Ø±Ø³ÙĪÙĦ": 1585, "ĠÙĩØ§Ø±": 7648, "ĠÙĪÙĤÙĨØ§": 7972, "Ø§ÙĩØ§": 1747, "ĠØ§ÙĦØ¨ØŃØ±ÙĬÙĨ": 5286, "ĠÙĥÙĨØªÙħ": 308, "ĠÙĪØªØ±ÙĥÙĨØ§": 3408, "ĠØºØ§Ùģ": 2361, "ĠÙģØ¥ÙĨ": 260, "Ĥ": 33, "ĠØ£ÙģØª": 3270, "ÙģØ¦Ø¯Ø©": 3887, "ĠØ¯ÙĬØ§Ø±ÙĥÙħ": 5403, "ĠØªØ¯Ø¹ÙĪÙĩÙħ": 5477, "ĠÙħØ³ØŃÙĪØ±Ø§": 6315, "ĠÙĬØ¤Ø¯Ùĩ": 8722, "ĠØ¨ÙħØ¹": 2310, "ĠÙĪÙĤØ¯Ø±": 6508, "ĠÙĨØ³ÙģØ§": 8783, "Ø§ØŃ": 1383, "ĠØ§ÙĦÙħÙĨØ´": 8954, "ĠÙĦÙĥØ§ÙĨ": 3683, "ĠÙĪÙħÙĦØ§Ø¦Ùĥ": 4279, "Ø¹ÙĦÙĨØ§": 429, "ĠÙĪØ£Ø¹ÙĨØ§Ø¨": 5884, "ĠØ¬ÙĦØ¯Ø©": 9711, "ĠÙĬÙĨÙĤÙĦØ¨": 4207, "ÙĦÙĪÙĨÙĥÙħ": 3614, "ÙĤÙĥÙħ": 7333, "ĠÙĪØµ": 1084, "ĠØ§Ø³Øª": 470, "ĠÙģØªÙĬØ§ØªÙĥÙħ": 8329, "ĠØ¬Ø¦Øª": 3805, "ĠÙĦÙĥØ¨ÙĬØ±": 5062, "ĠÙģØ£ÙĪØŃÙĬÙĨØ§": 9865, "ĠØ²Ø®Ø±": 6259, "ĠØ§ÙĦØ¨Ø§Ø·ÙĦ": 2560, "ĠÙĬÙĪØ¹Ø¯ÙĪÙĨ": 2565, "ĠØŃØ¬Ø©": 6657, "ĠØ¢ÙĦÙĩØ©": 1741, "ÙģÙĪØ±Ø§": 1188, "ĠØŃØ±ÙħØ§": 6512, "ĠØ®Ø§ÙĦØ¯ÙĪÙĨ": 1338, "ĠØ³ÙħØ¹ØªÙħÙĪÙĩ": 8999, "ĠÙĨØ²ÙĦØ§": 3844, "ĠØŃØ¯ÙĬØ«Ø§": 4494, "ĠÙħØ³Ø§Ùĥ": 3713, "ĠÙĪØ¥Ø³ØŃØ§ÙĤ": 2704, "ĠØ£ÙĪÙĦØ§Ø¯ÙĩÙĨ": 9235, "Ø¶ÙĬØ§": 5814, "ĠÙĥØ³Ø¨": 972, "ĠØ£Ø±Ø³ÙĦÙĩ": 8642, "ĠØªÙĨÙĤØµ": 8612, "ĠÙĪÙħÙĨØ°Ø±ÙĬÙĨ": 4928, "ĠØ§ÙĦÙĪØ§ÙĤØ¹Ø©": 9344, "Ø§Ø±ÙĩÙħ": 1976, "Ø§ÙĩØ±ÙĪÙĨ": 4357, "ĠÙĬÙĤ": 647, "ØªÙĩÙĪØ§": 2743, "Ø¹Ø«ÙĪØ§": 7230, "ĠÙģØ³ÙĤÙĪØ§": 8666, "ĠÙĨÙĪØ¯ÙĬ": 4808, "ĠØªÙĨÙģÙĤÙĪØ§": 2994, "Ø°Ø§Øª": 2189, "ĠÙĪÙĬØµ": 2923, "ĠÙĬØŃÙĬØ·ÙĪÙĨ": 9003, "ĠÙĦØ´": 2644, "ÙĪØ¯ÙĬ": 4243, "ĠÙĬØºØ±": 5196, "ÙĥØ±": 189, "ĠØ£ØµØ¨": 8491, "ĠØ§ÙĦØ£Ø³Ùģ": 5939, "ĠÙĪÙĦØ£ØµÙĦØ¨ÙĨÙĥÙħ": 9335, "ĠØµÙģØ±": 7983, "ĠØ«ÙĦØ§Ø«": 1581, "ĠØ§ÙĦØ³ØŃØ±": 1971, "ĠÙĬØ£Ø®Ø°": 3269, "ĠØ®Ø§Ø¦": 3584, "ĠØ£Ø´ÙĩØ¯": 6459, "Ø¨Ø´Ø±ÙĪÙĨ": 3447, "ĠÙĪØºØ±ØªÙĥÙħ": 9628, "ĠØ§ÙĦØ¢Ø®Ø±": 897, "ĠÙģØ³": 566, "ĠØªØ±ÙĪÙĨ": 3521, "ĠØ£ÙĨØµØ§Ø±": 2886, "ĠØ£ÙĪØªÙĬØªÙħ": 4445, "ĠØ£Ø³ÙħØ§Ø¡": 6404, "ÙĪØªÙĬ": 7108, "ĠÙĪÙĬØ¹Ø¨Ø¯ÙĪÙĨ": 4902, "ĠÙĬØªÙĪØ¨ÙĪØ§": 9431, "Ø§ÙĨÙħ": 4786, "ĠÙĬØ¤Ø°ÙĨ": 5183, "ĠÙĤØ¨ÙĦØ©": 6176, "ĠÙĬÙĨØµØ±Ùĩ": 6815, "ĠØ§ÙĦØ¯ÙħØ¹": 8207, "ĠÙĬÙĦØ¨Ø«ÙĪØ§": 6864, "ĠØªØ¨Ø¯ÙĪØ§": 5377, "ÙģÙĤØ§": 4000, "ÙĦÙĬÙĦØ§": 702, "ØŃ": 76, "ĠØ§ÙĦØ®ÙĪÙģ": 5090, "ĠÙĪØ«Ø¨Øª": 7159, "ĠØ¥Ø·Ø¹Ø§Ùħ": 7385, "ĠÙĬØ¬Ø¯ÙĪØ§": 3981, "ĠØ£ÙģÙĨ": 8303, "ĠÙĪØ£ÙĤØ¨ÙĦ": 9230, "ÙĪÙĩÙħ": 545, "ĠØ³ÙĦØ·Ø§ÙĨ": 1915, "ĠØ¨Ø±ÙĪØ¬Ø§": 8856, "ĠÙĥÙĦØ§Ùħ": 5780, "ĠÙĬÙĤØ¯Ø±": 4683, "ĠØ£ÙĪØ²Ø§Ø±ÙĩÙħ": 9861, "ĠØ³Ø¨ÙĬÙĦ": 543, "ĠØ£ÙĪØ²Ø¹": 7871, "ĠØ¶ÙĦÙĪØ§": 2748, "ĠØ§ÙĦØ¥ØŃØ³Ø§ÙĨ": 8624, "ĠØŃØ·Ø§": 5904, "ĠØ¨Ø§Ø·": 5712, "ĠØ²Ø¹Ùħ": 2972, "ĠØŃÙĤ": 957, "ĠØ£ÙĬØ¯ÙĬ": 3761, "Ø«ÙĪØ§": 1320, "ĠØ§Ø®Ø±Ø¬": 6628, "ĠÙĪØ¢Ø«": 6359, "ĠØ§ÙĦØŃÙĪØ§Ø±ÙĬÙĪÙĨ": 7014, "Ø´Ø±": 215, "ĠÙģØ¥ÙĨÙĥ": 2730, "ĠÙĪØ¬ÙĨÙĪØ¯Ùĩ": 3403, "ĠÙģÙĪØ¬Ø¯": 9808, "ĠØ£Ø®Ø±ÙĨØ§": 9177, "Ø¶Ø±": 733, "ĠØ§Ø¨Øª": 4351, "ĠØ¨Ø§ÙĦØ¨ÙĨÙĬÙĨ": 9317, "Ø¯ÙĨÙī": 7256, "ĠÙĬØªÙĪÙĥÙĦÙĪÙĨ": 4202, "ĠÙĪØ§ÙĦÙħØ±": 4793, "ĠÙĦÙĥÙĬÙĦØ§": 5063, "Ø¹Ø©": 452, "Ø°": 68, "ĠØ³Ø£ÙĦØªÙĩÙħ": 3405, "ÙģØŃØ´Ø§Ø¡": 5729, "ÙĪØ§ØªØ§": 8176, "Ø°ÙĪ": 1087, "ĠÙĦØ£Ø¸ÙĨÙĥ": 8498, "ĠØ¸ÙĦÙħÙĪÙĨØ§": 8764, "ĠØ§ÙĦØ®Ø§ÙĦÙĤÙĪÙĨ": 9583, "ĠÙĪØ¢Øª": 3305, "Ø¢Ø¨": 5956, "ĠØ£ÙĦÙĬØ³": 2155, "ĠÙħØ·Ø±Ø§": 6883, "ĠØªØ±ÙĥØª": 9187, "ĠØ§Ø³ØªØ¶Ø¹ÙģÙĪØ§": 4559, "ĠØ¨Ø§ÙĦÙĨÙģØ³": 9859, "ĠØ·ØºÙĬØ§ÙĨØ§": 5039, "ĠØ§ÙĦØ±Ø§ÙĥØ¹ÙĬÙĨ": 10037, "ĠÙĬØ£": 344, "ĠØ³Ø±Ø§": 1961, "ĠØ¨ÙħØ¹Ø¬Ø²ÙĬÙĨ": 3404, "ĠØ³Ø¨ØŃØ§": 8926, "ĠØ§ÙĦØµÙħ": 3234, "Ø¬Ø¹ÙĪÙĨ": 834, "ĠØ¥ÙĦÙĬÙĩÙħ": 945, "ĠÙĬØªÙĪÙĦÙĪÙĨ": 9579, "ĠÙĬÙĪÙħ": 223, "ÙĦÙĪ": 1421, "ÙĪØ¨ÙĩÙħ": 1722, "Ø¹Ø§Ø¡": 3097, "ĠÙĪØ£ÙĩÙĦÙĩØ§": 5334, "Ø²ÙĦ": 281, "ÙĬØ¯Ùĩ": 1973, "ĠØ³Ø¬Ø¯Ø§": 2427, "ĠØ§ÙĦØ£Ø³": 3593, "ĠÙģØ¨ÙħØ§": 3739, "ĠÙĪÙħØ£ÙĪØ§": 4281, "ĠÙĦÙĬØ¬Ø¹ÙĦ": 6055, "Ø§Ø¦ÙĦ": 6087, "ĠØ¹Ø¨Ø§Ø¯ØªÙĩ": 6407, "ĠÙĤØ±Ø§Ø±Ø§": 7533, "ĠÙģØ¢ÙħÙĨÙĪØ§": 3809, "Ø§Ø¯ÙĦÙĪØ§": 7914, "ĠØ¥ØµÙĦØ§ØŃØ§": 9760, "ĠÙĪØ´Ø±": 4610, "Ø¶Ø¹Ùĩ": 6686, "ĠÙĪÙĦØªØµ": 9062, "ĠØŃØ²Ø¨": 3183, "ÙĨØ§Øª": 426, "ĠÙĪØ¹ÙħÙĦ": 2397, "ĠÙĪØ£Øº": 7715, "Ø¨": 58, "ĠÙĬØ¬Ø±": 4678, "ĠÙħÙĩÙĬÙĨØ§": 5445, "ĠÙģØ±Ø¯Ø§": 6274, "ĠÙħÙĩØªØ¯ÙĪÙĨ": 3937, "ĠØŃØ±ÙħÙĨØ§": 3770, "ØŃØ²Ø§Ø¨": 2428, "ĠØ¬ÙĨÙĪØ¨ÙĩÙħ": 9125, "ĠØªÙĤØ¯ÙĬØ±": 6795, "ĠØ§ÙĦÙħØ¤ÙħÙĨÙĪÙĨ": 1400, "ĠÙħØ±Ø¶Ø§Øª": 4424, "ĠØ¸ÙĦÙħÙĨØ§ÙĩÙħ": 6445, "ĠØ§ÙĦÙħØª": 1872, "Ø«ÙħØ§": 2206, "Ø¸Ø§Ùħ": 5950, "ĠÙĪØ°ÙĪÙĤÙĪØ§": 5607, "ĠØ§ÙĦÙģØ±ÙĬÙĤÙĬÙĨ": 6774, "Ø£Ùī": 5735, "ĠØ§ÙĦÙģÙĪØ²": 1828, "ĠÙĪØ§ÙĦØ¶": 7590, "ÙĨØªÙĬÙĨ": 2980, "ĠØ¹Ø§ØµÙģ": 9765, "ĠØ£Ø¥": 1217, "ĠØ§ÙĦÙĨÙĪØ±": 2542, "ĠØ§ÙĦØ¨Ø±ÙĬØ©": 8541, "ĠØªØŃÙĬØªÙĩÙħ": 8398, "ĠØ§ÙĦÙģØ§": 1271, "ĠÙĪØ¨ÙĨ": 6295, "ĠÙĦÙĦÙĤÙĪÙħ": 6916, "ĠØ£Ø¯ÙĨÙī": 2784, "ĠÙĦØŃØ§ÙģØ¸ÙĪÙĨ": 6760, "ĠÙĪÙĦÙĨØ³": 7837, "ĠÙĥØ§Ø´Ùģ": 9826, "ĠØ¨Ø§ÙĦÙħÙĩØªØ¯ÙĬÙĨ": 5335, "ĠÙĥØ£ÙĨÙĩØ§": 6637, "ĠÙĦØ¹ÙĦ": 484, "ĠÙĪØ£ØŃØ³ÙĨ": 2903, "ĠØ§ÙĦÙħÙģÙĦØŃÙĪÙĨ": 2279, "ĠÙģØ¯ÙħØ±": 9516, "ĠÙħØ¬ÙĬØ¯": 9407, "ĠÙĤØ±ÙĬØ¨": 2024, "ĠØ§Ø°ÙĩØ¨": 4178, "ĠØŃÙĬØ§Ø©": 4857, "ĠÙģØ¹Ùħ": 7273, "ĠØ§ÙĦØ¸Ø§ÙĦÙħÙĬÙĨ": 684, "ĠÙĪØ¯": 2839, "ĠÙĪÙĬØªÙħ": 7889, "ĠÙĬØªØ¹Ø¯": 8118, "ĠÙĬØ¹Ø±ÙģÙĪÙĨÙĩ": 10006, "Ø¤ÙĦØ¤Ø§": 7012, "ĠØ±Ø¢ÙĩØ§": 9703, "Ø±Ø¨Øµ": 1718, "Ø·Ùī": 4820, "ĠÙĨÙĨØ²ÙĦ": 9650, "ĠÙĬÙĨØ¨": 2535, "ĠÙĪØ¹ÙĦÙħ": 2841, "ĠÙĪØ¬ÙĩÙĥ": 3354, "ĠÙĪØ¬Ø§Ø¡ÙĩÙħ": 6627, "ĠØ£Ø¬ÙĦØ§": 6253, "ÙĪØ´ÙĩØ§": 6880, "ĠÙĪØ¬ÙĪÙĩ": 1120, "ÙĦÙĪØ¨": 2616, "Ø¯Ùĩ": 1180, "ĠÙĨØµØ±ÙĩÙħ": 6655, "ĠØ§ÙĦÙħØºØ±Ø¨": 7745, "ĠÙĪØ¬ÙĬÙĩØ§": 8071, "ĠØ°ÙĥØ±ÙĪØ§": 3007, "ĠØ§Øµ": 2012, "ĠØ°ÙĨ": 1641, "Ø¹ØªÙĩÙħ": 3459, "ÙĥÙĦÙĪÙĨ": 5611, "ĠØŃÙħØ¥": 6492, "ĠØ§ÙĦØµØ§ÙĦØŃÙĬÙĨ": 1597, "ĠÙĪÙĩØ¯": 4609, "ĠØ®Ø²Ø§Ø¦ÙĨ": 3407, "ĠØ£Ùģ": 347, "Ø¬ÙĨ": 1312, "ĠÙĪØ£ÙĪØ±Ø«": 3573, "ÙĪØ¯Ùĩ": 2545, "ĠÙĬÙģØ¹ÙĦ": 1098, "ĠØ§ÙĦÙĤØµØµ": 5493, "Ø³ÙĨØªÙĥÙħ": 6185, "ĠØªÙĪÙĦ": 5753, "ĠØ¨Ø¯ÙĦÙĨØ§": 6654, "ĠÙģØ£ØªØ§ÙĩÙħ": 7953, "ĠÙĬÙĨØªÙĩÙĪØ§": 8138, "ĠÙħÙĪØ¹Ø¯ÙĩÙħ": 8182, "ÙĤÙĪÙĨÙĩ": 8345, "ĠÙĦØªÙģØª": 8567, "ĠÙĪØ²ÙĬÙĨØ§ÙĩØ§": 8875, "ĠÙĬØªÙĨØ§Ø²Ø¹ÙĪÙĨ": 10117, "ĠØªÙĥÙĦÙģ": 8478, "ĠÙĪØ±Ø²ÙĤÙĨØ§ÙĩÙħ": 6786, "ĠØ£Ø±ØŃØ§ÙħÙĥÙħ": 9893, "ĠØ£ÙģØªÙĪÙĨÙĬ": 8307, "Ø¯Ùĥ": 7248, "Ø¨Ø¹ÙĪ": 2729, "ĠÙĪØ²ÙĬÙĨØ©": 9586, "ĠØ¸ÙĨ": 1817, "ĠÙħØ«ÙĪÙī": 2755, "ĠØ¥Ø®ÙĪØ§ÙĨÙĩÙĨ": 5534, "ĠØ¨ØºØ§ÙģÙĦ": 2775, "ĠÙĦÙĦÙĥØ§ÙģØ±ÙĬÙĨ": 1348, "ĠÙĦØ±Ø¨ÙĩØ§": 9352, "ĠÙĪÙĥØ±": 7139, "ÙĥØ±Ø§": 1609, "ĠÙħØºØ±ÙĤÙĪÙĨ": 6909, "ĠØ§ÙĦØŃÙĬØ§Ø©": 693, "ÙĨØ¹": 3907, "Ø´ÙĩØ¯ÙĪØ§": 3551, "Ø§Ø¦ÙĨÙĬÙĨ": 6089, "ĠØ¹ØµØ§Ùĥ": 6621, "ĠÙĦØ°": 3966, "ĠÙħØ®ØªÙĦÙģØ§": 5459, "ĠØ±ØµØ¯Ø§": 7565, "ĠØ³ÙĪÙĬØªÙĩ": 10243, "ĠÙĬØ®ØªÙĦÙģÙĪÙĨ": 2557, "ĠÙĦÙħØ¬ÙĨÙĪÙĨ": 6103, "ÙĥÙĪÙĨ": 256, "ĠÙĦÙĤØ¶ÙĬ": 2985, "ĠÙĪØ£Ø±Ø³ÙĦÙĨØ§": 4078, "ĠØ´Ø§ÙĩØ¯ÙĬÙĨ": 7803, "Ø¨ÙĬØ±Ø§": 1085, "ĠØ§ÙĦØ¥ÙĨØ¬ÙĬÙĦ": 5147, "ĠØŃÙĪÙĦÙĩØ§": 6870, "ĠÙĩØ¶": 7646, "ĠØ±Ø£ÙģØ©": 8931, "ĠÙĪØ¢Ø¨Ø§Ø¡ÙĩÙħ": 6818, "ĠØ£ÙĥØ±Ùĩ": 7247, "ĠÙĬÙĪØŃÙī": 2036, "ĠØ£ÙĥØ±": 5641, "ĠÙĪØ£Ø²ÙĪØ§Ø¬ÙĩÙħ": 5465, "ÙĦØ§ÙħØ§": 2193, "ĠØ¹Ø¨Ø§Ø¯ÙĬ": 2242, "ĠÙĪØ¥Ø³ØªØ¨Ø±ÙĤ": 5948, "ÙĦØ§Ø¦Ùĥ": 613, "ĠØ§ÙĦØ³ÙĬ": 1463, "ĠÙĪÙĪØ±Ø«": 7160, "ĠØµØ§ØŃØ¨Ø©": 9672, "ÙĬÙħÙħÙĪØ§": 5927, "ĠØ¨ÙĬÙĨØ§Øª": 1812, "ĠØ§ÙĦØ¨ØŃØ±": 1210, "ĠØ¬ÙĨØªØ§ÙĨ": 6966, "ÙģØ«": 7391, "ĠÙĪØ£ÙĤØ§ÙħÙĪØ§": 2905, "ĠØ§ÙĦÙħÙĨÙĬØ±": 8955, "ĠØ¹ÙĬÙĨØ§ÙĨ": 9312, "ĠÙħØµØ±": 3932, "ØªÙĦ": 916, "ÙĪÙĨÙĩ": 1350, "ĠÙĪØ³ÙĬØ¹ÙĦÙħ": 9892, "ØªÙĦÙĪØ§": 3923, "ĠÙħØ¨ØµØ±Ø©": 6581, "ĠØ·ÙĦÙĪØ¹": 9994, "ĠØªØ±ÙĥÙĨ": 8226, "ĠÙĪØ§ÙĦÙĥÙģØ§Ø±": 9389, "ĠØ§ÙĦØ®Ø¨ÙĬØ«": 2976, "ĠÙĬØªØ°ÙĥØ±ÙĪÙĨ": 3242, "ÙĩØ§Ø¬Ø±ÙĪØ§": 4781, "ĠØ¹Ø§ÙħÙĦ": 5409, "Øª": 57, "ĠÙĬÙĨØ·ÙĤ": 6899, "ĠÙĪÙĦØ¤ÙĦØ¤Ø§": 7840, "ĠÙĦÙĪØ¬Ø¯ÙĪØ§": 8529, "ĠÙĪÙĬØ³ØªØŃÙĬÙĪÙĨ": 6648, "ĠÙĥÙģØ§Ø±Ø§": 7522, "ĠÙĨÙĨØ¬": 4063, "ĠØ£Ø¨ÙĨØ§Ø¡ÙĩÙħ": 4493, "ĠØªØ¹Ø¯ÙĪÙĨ": 7484, "ĠØ£ÙĪØ¢Ø¨Ø§Ø¤ÙĨØ§": 10266, "Ø±Ø³": 222, "ĠØ«ÙĤ": 2352, "ĠØªÙģØªØ±ÙĪÙĨ": 9768, "ĠØ®ÙĦÙģÙĩÙħ": 2264, "ĠÙĬØ±Ø«": 6157, "ĠØ¨Ø´Ø±Ø§": 2159, "ĠÙĪÙĦÙĬØ³Øª": 8550, "ĠÙħØªØ´": 3332, "ĠÙħØ«ÙĦØ§": 1529, "ĠØ£ÙĬØ¯ÙĬÙĨØ§": 8838, "Ø´ÙĤÙī": 7581, "Ùħ": 48, "ĠÙĬÙģØ³ÙĤÙĪÙĨ": 4524, "Ø§Ø´Ø§": 9008, "ÙĬÙĤØ§Øª": 3072, "ÙģÙī": 848, "ĠÙħÙĬØ«Ø§ÙĤØ§": 6653, "ĠÙħØ±ÙĬØ¶Ø§": 6791, "ĠÙģØªÙĨØ§": 3272, "ĠØ£ÙħØ±Ø§": 1714, "ĠÙĦÙĦØ¥": 2369, "ĠÙĪØ§ÙĦØŃØ¬Ø§Ø±Ø©": 9569, "ĠÙĦØ¢ØªÙĬØ©": 8972, "ĠØ£ÙĦÙĪØ§ÙĨÙĩ": 5482, "ĠØªÙģ": 884, "ĠØ§ÙĩØ¨Ø·ÙĪØ§": 5524, "ÙĦØ§Ø¦Ø¯": 9598, "ĠÙģÙħØªØ§Ø¹": 9592, "ĠÙģØ§Ø³Øª": 910, "ĠØ§ÙĦØ®Ø¨Ø§Ø¦": 8422, "ĠÙĪØ§ÙĦØµØ§ÙĦØŃÙĬÙĨ": 9167, "ĠÙĪØ§ÙĦØ¹Ø´ÙĬ": 9646, "ĠØ«ÙħØ±Ø§Øª": 4933, "ĠÙĥØ§Ø°Ø¨": 3900, "ĠÙĪÙĬØ³Ø¹ÙĪÙĨ": 9374, "ĠØµØ§Ø¯ÙĤÙĬÙĨ": 1119, "ĠÙħÙģØª": 3931, "ĠÙĥØ§ÙĦØŃ": 7512, "ĠØŃÙħÙĬÙħØ§": 7009, "ĠØ§ÙĨØ¸Ø±": 2400, "ĠØ¹ØµØ¨Ø©": 6619, "ĠØ¨ÙĪÙĥÙĬÙĦ": 3995, "Ø±ÙĪÙĨØ§": 4897, "ĠÙĥØ´": 4750, "ĠÙĨÙģØ³Ùĩ": 1260, "ĠØ¥Ø¨ÙĦÙĬ": 2312, "ĠØ¨Ø§ÙĤ": 5715, "ĠØ§ÙħÙĥ": 8016, "ĠØ§Ø¨ÙĨÙĬ": 8805, "ĠØ§ÙĦØ·Ø±Ùģ": 6457, "ĠØ£Ø¹Ø¸Ùħ": 8603, "ĠØ§ÙĦØ¯ÙĨÙĬØ§": 446, "ĠÙĪÙĥÙģÙī": 1466, "Ø¨Ø³": 4617, "Ø·ÙĬØ¹ÙĥÙħ": 9584, "Ø³Ùģ": 918, "ĠØ³Ø±ÙĬØ¹": 2693, "ĠÙħØºØ±Ùħ": 9747, "ĠØ§ÙĦØŃÙĪØª": 6001, "ØªÙħÙĪÙĩØ§": 3187, "ĠÙĦØ§ØªØ®Ø°": 6914, "ĠØ³ÙĬØ¹ÙĦÙħÙĪÙĨ": 6420, "ÙĦØ§Ø¦": 2662, "ĠØ£Ø¹Ø¬Ø§Ø²": 9500, "ÙĤØ·Ø¹ÙĪØ§": 5374, "ĠÙĨÙĥØ«ÙĪØ§": 9035, "ĠÙħÙĨØªÙĤÙħÙĪÙĨ": 7045, "ÙĤØµ": 1439, "ĠØ¬ÙĨØ¨Ø§": 9124, "ĠÙĪØ§Ø¶": 3337, "ÙĪÙĬÙĥÙħ": 5202, "Ø§Ø¦ÙĩÙħ": 1586, "ĠØ¹Ø´Ø±Ø©": 4515, "ĠÙģÙĨØªØ¨Ø¹": 10050, "Ø«Ø©": 7693, "ĠØ§ÙĦØ´ÙħØ³": 1527, "ĠÙĦØ¬": 1764, "ĠÙģØªØ±Ø§Ùĩ": 8322, "ĠØ§ÙĦØ¹Ø¸ÙĬÙħ": 1010, "ĠÙģØ§ÙĦØªÙĤ": 8900, "ĠØ·Ø±ÙĬ": 6204, "ĠÙĪØ§ÙĦØ³Ø§Ø¨ÙĤÙĪÙĨ": 9057, "ĠØªØ¬Ø±ÙĬ": 828, "Ø¸ÙĦÙĦ": 7830, "¦": 8, "ĠÙĨØ¨Ø§Øª": 3779, "ĠÙģÙĨÙģØ®": 9019, "ĠÙĪÙĦÙĦÙĨØ³Ø§Ø¡": 9541, "ĠØ®ÙĬØ±Ø§": 993, "ĠÙĥØ«Ø±": 4754, "§": 9, "ĠÙĪÙħÙĥØ±": 5092, "ĠÙĪÙĬÙĨØ°Ø±ÙĪÙĨ": 9154, "ĠØ¥ØŃØ³Ø§ÙĨØ§": 3842, "Ø±Ø§Ø±": 2915, "ĠØ¸ÙĦÙĦ": 6190, "ĠÙĪØ¹ÙĨØ¯ÙĩÙħ": 6721, "ĠØ¨ÙħØ³Ø¨ÙĪÙĤÙĬÙĨ": 8919, "ĠØ¶Ø±Ø¨Ø§": 9239, "ĠÙĪØ£ÙĬØ¯ÙĬÙĥÙħ": 5441, "ĠÙĬÙĤØ§ØªÙĦÙĪÙĥÙħ": 4338, "ĠÙģØ£ÙĨØ²ÙĦ": 6526, "ĠØ±ØºØ¯Ø§": 7004, "ĠÙĦØ£ÙĩÙĦÙĩ": 6306, "ĠÙħØ¯ØŃÙĪØ±Ø§": 6569, "ĠÙĪØ§ÙĦÙģÙĪØ§": 7598, "ÙĬØªÙĩÙħ": 4586, "ĠØ¹ØµÙĬØ§": 9133, "ĠÙĨØµ": 784, "ĠØ§ÙħØ±Ø£ØªÙĥ": 9272, "ĠØ¨Ø§Ø±ÙĥÙĨØ§": 3996, "ØŃÙĥÙħ": 903, "ĠØ±Ø¢Ùĩ": 5488, "ĠÙģÙĥØ£ÙĨ": 6380, "ĠØ£ÙĪØ§Ø¨": 3951, "ĠÙĬØ¸": 1766, "ĠØ¢ØªÙĬØªÙħÙĪÙĩÙĨ": 5300, "Ø³ÙĥÙħ": 3468, "ĠØ§Ø®Øª": 9151, "ĠÙĨØ¹ÙħØªÙĬ": 3765, "ÙĥØ´Ùģ": 7177, "ĠØ¨Ø§ÙĦÙĥ": 3200, "ĠØ¨Ø¨Ø§ÙĦ": 7368, "Ø¹ÙĨ": 3944, "ĠØ³ÙĦÙħØ§": 7668, "ĠÙĪØ§ÙĦØ¥ÙĬÙħØ§ÙĨ": 9120, "ĠÙĬÙĨØµØ±ÙĨÙĬ": 9551, "ĠØ§Ø³ØªÙħØª": 6688, "ĠØŃØ§Ùģ": 7754, "ØªÙĨÙĬ": 1610, "Ø§Ø¬Ø¯ÙĬÙĨ": 2605, "ÙĪØ§ÙĦ": 558, "ĠÙĤÙĪÙĦ": 1356, "ÙĩØ§Ø¬Ø±ÙĬÙĨ": 4541, "Ø®ÙĪØ§": 1357, "ĠÙĬØ³Øª": 414, "ĠØ¥ØŃ": 1774, "ĠÙĨØ³ÙĬØ§": 6451, "Ø§ÙĦÙĦÙĩ": 2439, "ĠÙħÙĦÙĪÙħØ§": 7218, "ÙģØ±Ø©": 5926, "ĠØ±Ø¬Ø§ÙĦØ§": 3004, "ĠÙĪØ§Ø¬Ø¹ÙĦ": 3238, "ĠÙħØ®ÙĦØ¯ÙĪÙĨ": 7220, "ĠÙģØ£Ø±": 7941, "ĠØ³Ø±Ø§Ø¹Ø§": 9422, "ĠØªÙĪÙģÙī": 9600, "ĠÙĬÙĤÙĦØ¨": 8735, "ĠÙĬØ´Ø¹Ø±ÙĪÙĨ": 1472, "ĠØ°ÙĦ": 5967, "Ø³ÙħÙĪÙĨ": 8077, "ĠÙĪØ£Ø®Ø°": 2492, "ĠÙĬÙĨÙĤØ°ÙĪÙĨ": 10287, "Ø§ØªÙĦÙĪÙĩÙħ": 5364, "ĠÙĪÙĨØ¬ÙĨÙĬ": 7020, "ĠÙĪØ°Ø±ÙĬØ§ØªÙĩÙħ": 7034, "ĠØ·Ø§ÙĦÙĪØª": 8275, "ĠÙĥØªØ§Ø¨Ø§": 2246, "ĠØ³ÙĦÙģ": 3564, "ĠÙĨÙĪÙħ": 7610, "Ø°ÙĩØ¨": 1261, "ĠØ§ÙĦÙĥÙĪØ§Ùĥ": 8030, "ĠÙĪÙħØ£ÙĪØ§ÙĩÙħ": 3698, "ĠÙĪØªÙĥ": 4992, "Ø²Ø§": 1954, "ĠØ§ÙĦÙħÙĩØ§Ø¬Ø±ÙĬÙĨ": 7746, "ĠÙĨØ¯": 2330, "Ø¨Ø±Øµ": 8080, "Ø¦Ø°": 631, "ĠØ§ÙĦÙħØ¯ÙĬÙĨ": 1965, "ĠØ³Ø¨ØŃØ§ÙĨ": 1020, "ĠØ¯Ø§ÙĪ": 1978, "ĠØªØ²Ø±": 3366, "ĠÙģØ§ÙĨØª": 3769, "ĠÙĬØ£Ø°ÙĨ": 6222, "ĠØŃØ¬Ø§Ø¨Ø§": 9208, "ĠÙħØ³ÙĦÙħ": 1234, "ĠØªØ¨Ø¹Ø§": 9528, "ĠÙĬØº": 718, "ĠÙĤØªÙĦØª": 6683, "ĠÙĪØ«": 3431, "ĠØ³Ø§Ùħ": 5858, "ĠØºØ´ÙĬÙĩÙħ": 8044, "ĠØ³ÙĤÙģØ§": 7681, "ĠØ´ÙĬØ§Ø·ÙĬÙĨ": 8057, "ĠÙĪÙĬÙĨØ°Ø±ÙĪÙĨÙĥÙħ": 10317, "ĠØ±Ø´": 2678, "ĠÙģÙĩ": 1105, "ÙĬÙĨÙĩÙħ": 3988, "ĠØªØ³Ø±ÙģÙĪØ§": 9943, "ĠÙĤØ¨": 682, "Ø§Ø³Ø±ÙĪÙĨ": 2028, "ĠØ¥ÙĦÙī": 179, "ÙĪÙĬÙĦØ§": 3334, "ĠÙħÙĬØªØ§": 3942, "ĠÙĦÙĬØ¯": 3477, "ĠØ³ÙĨÙĥ": 7674, "ĠÙĪØªØ¸ÙĨÙĪÙĨ": 8161, "ĠÙħØ§Ø¦Ø¯Ø©": 9469, "ĠØ¹Ø§Ø¯": 1440, "ĠÙĦÙĩØ¯": 4662, "Ø¡ÙĪØ§": 4887, "ĠØ´Ø±": 1141, "ĠÙħÙħØ¯": 6862, "ĠØ£Ø¬ÙĦÙĩ": 8405, "Ø¯ØªÙħ": 4643, "ĠØ§ÙĦØµØ§Ø¨Ø±ÙĪÙĨ": 8090, "ÙĦÙħÙĬÙĨ": 2077, "ĠØ§ÙĦØ£ÙĨÙģØ³": 4325, "ĠÙģØ¤Ø§Ø¯": 5678, "ĠÙĬØ¨Ø¹Ø«": 1437, "ĠØ§ÙĦÙĤÙĦÙĪØ¨": 3628, "ĠÙĩØ²ÙĪØ§": 2332, "ĠØ£Ø°ÙĤÙĨØ§Ùĩ": 9280, "ĠØ¨Ø¬Ø§ÙĨØ¨Ùĩ": 10027, "ĠÙĪØ§ÙĦÙĨØ¨ÙĪØ©": 6489, "ĠÙĤÙĦÙĪØ¨ÙĩÙħ": 678, "ĠÙĥØ³Ø§ÙĦÙī": 9601, "ĠÙĪØªÙħØª": 5608, "ĠØŃØ±": 815, "ĠÙĬØ¨Ø¹Ø«ÙĪÙĨ": 3046, "ĠÙħÙĨÙĤ": 7423, "ĠÙĬØªÙħÙĨ": 8117, "ĠØªØ£Ø°ÙĨ": 8593, "ĠØŃØ³Ø§Ø¨ÙĬÙĩ": 9341, "ĠÙĪØ®ÙĬØ±": 6596, "ĠÙĪØ§ÙĦØ°ÙĬ": 1865, "ĠØªØŃØµ": 4266, "ĠØŃÙĪÙĦ": 3180, "ĠØ¹Ø±Ùģ": 5746, "ÙĪØ§Ø±": 2456, "ĠØµØ¹": 4168, "ĠÙĪØ£Ø´Ø±": 7716, "ØªÙĩ": 327, "ÙĪÙĥÙĦ": 1416, "ĠÙĥØ§Ùħ": 7513, "ĠÙģØº": 3959, "ĠØŃØ¸": 4851, "ĠÙĪØ²": 820, "ÙĪÙĪÙĨ": 5571, "ĠÙĪÙĤØ¯": 797, "ĠØ£Ø´ÙĩØ±": 4350, "Ø®Ø°": 253, "ÙĤØ·Ø¹ÙĨ": 5700, "ÙĦÙĤ": 184, "ÙĥØ¨Ø±Ø§": 7173, "ĠØ´ÙĩØ¯Ø§Ø¡ÙĥÙħ": 9146, "Ø·Ùģ": 2079, "ĠÙĪØŃØ±Ùħ": 6882, "ĠÙģØ§Ø¶Ø±Ø¨": 10052, "ĠØŃÙħÙĦÙĩØ§": 8842, "ĠÙģØ§ÙĨØªØ´Ø±ÙĪØ§": 9793, "Ø±Ø©": 1023, "ĠØŃØ§": 5901, "Ø³Ø±Ø§ÙĨ": 8214, "ĠÙħÙĬØªØ©": 9746, "ĠØ¨Ø®ÙĦÙĤ": 6632, "ĠÙĦØ®Ø§Ø³Ø±ÙĪÙĨ": 6822, "ÙĬÙĩÙħ": 616, "ĠØ§ÙĦØ¨ØµØ±": 3715, "ÙĪØ§ÙĨ": 5704, "ĠÙĪÙĬØ£": 1881, "ĠÙĦÙĪÙĨÙĩØ§": 7316, "Ø¸ÙĩØ±Ùĩ": 4881, "ĠÙĬØºØ´": 6464, "ĠÙĬÙĩØªØ¯ÙĪÙĨ": 2454, "ĠÙĥØ±": 867, "Ø§ÙħÙĦÙĬÙĨ": 4327, "ĠÙĪÙĦÙĩÙĪ": 6595, "ĠØ¨ØŃÙĪØ±": 9523, "ÙĦØ§Ø«": 1354, "ĠÙĦØ¥": 2306, "ĠÙĩØ°Ø§": 304, "ĠØªØ²ÙĥÙī": 5297, "ĠØ§ÙĦÙħØ¬Ø§ÙĩØ¯ÙĬÙĨ": 6928, "ĠÙĦØ²Ø§ÙħØ§": 10198, "ĠÙĪÙĬØ³Ø£ÙĦÙĪÙĨÙĥ": 3845, "ØªÙĥÙħ": 572, "ĠÙĪÙĨØ§Ø¯Ùī": 3867, "ĠØ§ÙĦÙħØ¤ÙħÙĨØ§Øª": 3177, "ĠØ±Ø¬ÙĦØ§": 3003, "ĠÙģØ£ÙĪØŃÙī": 6971, "ĠØ§ÙĦÙģØ±Ø¯ÙĪØ³": 9442, "ĠÙĪÙĤØ°Ùģ": 7978, "ĠÙĬÙĪÙĦ": 7320, "ĠØ¨ÙĤØ±": 3493, "ĠÙħØªÙĥØ¨Ø±": 8800, "Ø¹ÙĪØ¯": 4632, "ĠÙħØ·ÙĩØ±Ø©": 4561, "ĠÙģØªØ¹Ø§ÙĦÙī": 5054, "ĠØ´Øº": 5930, "ĠÙģÙĦÙĬØµ": 8881, "ĠÙĬØ¹ÙĬØ¯Ùĩ": 3282, "ĠÙĩØ¯Ùī": 973, "ĠÙĬØ·ÙĩØ±": 9114, "ĠÙĪÙĬØªØ¨Ø¹": 7897, "Ø«ÙħÙĪØ¯": 2146, "ĠÙħØ®Øª": 9195, "ĠØªÙĩÙĨÙĪØ§": 5767, "ĠÙĤØ¶ÙĬØª": 6956, "ĠÙĬÙģØªØ±Ùī": 9023, "ĠØ§Ø¦ØªÙĪÙĨÙĬ": 4489, "ĠØªÙĤÙĦØ¨ÙĩÙħ": 9789, "ĠØ¨Ø§ÙĦØŃØ³ÙĨÙī": 6871, "ÙĬØ¯ÙĥÙħ": 7915, "ĠÙĪØ³ÙĦØ§Ùħ": 6389, "ĠÙĥØ§ÙĦÙħÙĩÙĦ": 6535, "ĠØ¢Ø¨Ø§Ø¤ÙĨØ§": 3345, "ĠÙĪØ£ÙĩÙĦÙĥ": 4838, "ĠØŃØ³Ø±": 4854, "ĠÙģØ§ÙĨØ·ÙĦÙĤØ§": 7029, "ĠØªØŃØ²ÙĨÙĬ": 9432, "ĠÙĪÙĦØ£ÙĨØ¹Ø§ÙħÙĥÙħ": 10262, "ĠØ®Ø¨ÙĬØ±Ø§": 2211, "ĠÙĪÙħÙĨØ§": 3696, "ĠØ¨ÙħØ«ÙĦ": 3777, "ĠØ®Ø·Ø§ÙĬØ§": 6967, "ĠØ¨Ø¹Ø¯Ùĩ": 1471, "Ø´ÙĬØ©": 7579, "ĠÙĦØŃÙħØ§": 5397, "ĠØ³Ø¨ÙĤÙĪÙĨØ§": 9038, "ĠÙĬÙĩØªØ¯ÙĬ": 6951, "ĠØ£Ø³Øª": 3949, "ĠÙĪÙĦØŃÙħ": 4124, "ĠØ¨ÙĨÙĬÙĨ": 7366, "ĠØ²ÙģÙĬØ±": 8417, "Ø«Ø±ÙĪÙĨ": 7697, "ĠØªØŃØ±": 5079, "ĠØ£Ø³ÙģÙĦ": 6405, "Ø¹Ø±": 1104, "ĠØ§ÙĦØ£Ø±ØŃØ§Ùħ": 3595, "ĠØ§ÙĦØ®ÙĪØ§ÙĦ": 8420, "ĠÙĥÙģÙī": 4033, "ĠØŃØ±ÙĤÙĪÙĩ": 8867, "Ø§ØºÙĬÙĨ": 8922, "ĠÙĬÙĨÙģØ¹ÙĥÙħ": 5327, "ĠØ§ÙĦØ¸Ø§ÙĦÙħÙĪÙĨ": 1335, "ĠØ¨ÙĨÙĬØ§ÙĨÙĩÙħ": 8821, "ĠÙĬØ®Ø±ØµÙĪÙĨ": 6949, "ĠØ§ÙĦØ¨ÙĨØ§Øª": 5122, "Ø±Ø¬": 520, "ĠØªØ³Ø¨ØŃ": 7480, "ĠØ®ÙĦÙĬÙģØ©": 7797, "ĠØµØŃÙģØ§": 7989, "ĠØ¥Ø«ÙħØ§": 3123, "ĠØ¯Ø±Ø¬": 1803, "ĠÙĨØ¹ÙĬÙħ": 4064, "ĠØ±Ø·": 7557, "ĠÙĪÙĥØ±ÙĩÙĪØ§": 7164, "ĠÙĦØ¹ÙĨÙĩ": 8756, "ĠÙĦÙĦØ¨Ø´Ø±": 6135, "ĠÙĤÙĦÙĬÙĦØ§": 765, "ĠÙĪÙĦÙĦÙĩ": 1225, "ĠÙĬØ®ÙĦÙģ": 3289, "ÙģÙĪ": 1945, "ĠØ¯": 180, "ĠÙģÙĬÙĤÙĪÙĦ": 1858, "ĠÙĬÙĪØ§Ø±ÙĬ": 7326, "ĠÙĥØ§Ø±ÙĩÙĪÙĨ": 4551, "ĠØ§ÙĦØ¨ÙĬØ¹": 6678, "ĠØ¨ÙĤØ¯Ø±": 3496, "ĠØ£Ø®Ø¯Ø§ÙĨ": 8653, "ĠØ¯Ø¹Ø§ÙĨØ§": 9610, "ĠØ±Ø¶ÙĪØ§": 2680, "ĠÙģÙĬÙĤØ³ÙħØ§ÙĨ": 7544, "ĠÙĪØ¹ÙĦÙħÙĨØ§Ùĩ": 9624, "ĠØ¯Ø¹ÙĪØªÙĩÙħ": 10271, "ĠÙħØªØ§": 1240, "ĠÙĬØ³Ø±": 2188, "ÙĥÙĨØ©": 7172, "ĠØ¨ÙĬØªÙĬ": 6447, "Ø³ØŃØ§Ø±": 9214, "ĠÙĬØ¤ÙģÙĥÙĪÙĨ": 3741, "ÙĨØ§ØŃ": 1111, "ĠØŃØ¬": 1401, "ĠØ§ÙĦÙĪØ±": 7128, "Ø³ØªÙĪØ¯": 7881, "ĠØ£ÙĪØªÙĬØªÙĩ": 9209, "ĠØ±Ø¢": 3149, "ĠÙģÙĪØ¬": 4657, "ĠÙĨØ³Ø¨": 7619, "ĠÙĪØ¬Ø¹ÙĦÙĨØ§": 818, "ĠØŃØ¬ØªÙĩÙħ": 9207, "ĠÙĥØ§ÙĨ": 159, "ĠÙĪØ§ÙĨ": 1679, "ĠÙģØ§Ø³ÙĤÙĬÙĨ": 3791, "ĠÙĪØ§": 263, "ĠÙĦÙĪØ·": 1731, "ĠØªØ®Ø§Ùģ": 3322, "ĠØŃÙĪÙĦÙĩ": 2909, "ĠÙĬØ¨ÙĥÙĪÙĨ": 8861, "ĠÙĬØ³ØªØ®ÙģÙĪÙĨ": 8456, "ĠØ£Ø±Ø£ÙĬØª": 2781, "ĠØ¨Ø§ÙĦÙĩÙħ": 7843, "ĠÙĪØªØ¯": 8147, "ĠØ§ÙĦÙħØ¬Ø±ÙħÙĬÙĨ": 1573, "ĠÙĤØ§ÙħÙĪØ§": 5517, "Ø®ÙģÙĪÙĨ": 5798, "ĠØ§ÙĦÙĥØ§Ø°Ø¨ÙĬÙĨ": 2525, "ÙĤØ§ÙħØ§": 8220, "ĠØµÙĨÙĪØ§ÙĨ": 7991, "ĠØ±ÙĪØŃÙĨØ§": 6827, "Ø¬": 86, "ĠÙĪØªØ®": 4214, "ĠØ¶ÙĦØ§ÙĦ": 998, "ĠÙĬØ¹Ø°Ø¨ÙĩÙħ": 3686, "ĠÙģØªÙĨØ©": 1411, "ĠØ®ÙĦÙĤØªÙĨÙĬ": 8280, "ĠÙĬØŃÙħÙĦÙĪÙĨ": 10123, "ÙģØªÙĪÙĨÙĥ": 8403, "ĠÙĩÙĨØ§ÙĦÙĥ": 2820, "ĠÙĪØ£ÙĪÙĦÙĪ": 5518, "ĠØ°ÙĦØ©": 4893, "ĠÙĦÙĤØ§ÙĦÙĪØ§": 6324, "ĠØ±Ø¬Ø²": 6416, "ĠÙĬØ³ØªÙĨÙĥ": 6280, "ĠÙĦØ¨Ø§Ø³Ø§": 6887, "ĠØ³ØªØ¬Ø¯ÙĨÙĬ": 7036, "ĠÙģÙĦÙĬÙħ": 5670, "ĠÙĪØ¹ÙĬØ³Ùī": 3279, "ĠÙĪØ¯Ø¹": 7158, "Ø¨ÙĤØ§": 7189, "ĠÙĪØ±Ø¨Ùĥ": 2411, "ĠÙħÙĨÙĨØ§": 7425, "ĠØ¯ÙĬÙĨÙĩÙħ": 2590, "ĠØ£ÙĪÙĦÙĬ": 719, "ĠØ¨ØŃÙħØ¯": 2311, "ĠØ§ÙĦØ¶Ø§ÙĦÙĪÙĨ": 6821, "ĠØŃÙĤØª": 4089, "ĠØ¨ÙĬÙħÙĬÙĨÙĩ": 5505, "ĠØ±Ø³ÙĪÙĦØ§": 1373, "ĠØ§ÙĦÙĪØ¹ÙĬØ¯": 7137, "ĠØ£ÙĤØ±": 7240, "ĠÙĪÙĬÙĩØ¯ÙĬ": 1882, "ĠØ´ÙĤØ§ÙĤ": 4549, "ĠØªØµÙĦ": 8964, "ĠÙĬÙħÙĪØª": 3766, "ĠØ£ØµØ§Ø¨Ø¹ÙĩÙħ": 9110, "ĠØªÙĥØ°Ø¨": 911, "ĠØºØ¯": 4959, "ØºÙĬØ«": 5910, "ĠÙģØµØ¨Ø±": 9215, "Ø§ÙĦÙĬÙĨ": 2283, "ĠÙĪØ¬ÙĨ": 2225, "ØªÙħÙĨ": 7178, "ĠØ§ÙĦØ£ØŃ": 4113, "ĠØªÙĨÙģØ±ÙĪØ§": 8613, "Ø£Ø®Ø°": 2869, "ĠØ±Ø¬Ø¹": 6415, "ĠØ£Ø¯Ø¹ÙĪÙĥÙħ": 8846, "ĠÙĨØ¯Ø¹": 7631, "ØªÙħØ¹": 3186, "ĠÙģØ§ÙĦÙħ": 4375, "ĠÙĦÙĬØ¤ÙħÙĨÙĪØ§": 4943, "ĠÙĬØªØ°ÙĥØ±": 3240, "ĠØªØ¹Ø§ÙĦÙī": 6331, "ĠÙĤØ¯ÙĬØ±Ø§": 3655, "ØªÙĦØ·": 6540, "ĠØŃØ§ÙģØ¸ÙĬÙĨ": 6929, "ĠØ§ÙĦØŃØ¯ÙĬØ«": 3616, "Ø§Ø¯Ø±ÙĪÙĨ": 4146, "ØªØ§Ø¨Ø¹ÙĬÙĨ": 8074, "ĠÙĪØ£ÙĨÙĩØ§Ø±Ø§": 8265, "ĠØ¶ÙĦØ§ÙĦØªÙĩÙħ": 8985, "ĠÙĨØ§ØµØ±": 9421, "ĠÙĨØ³Ø¨Ø§": 10238, "¥": 7, "ĠÙĪÙĩÙĪ": 330, "ÙĦØ©": 723, "ĠØ§ÙĨØµØ±": 5203, "ĠÙħØ±Ø¶Ùī": 5290, "Ø±Ø¡ÙĪÙĨ": 5394, "ĠÙĬØ®ÙĦÙĤ": 1480, "ĠØ¥ÙĨÙĨÙĬ": 3543, "ĠØ³ÙĪØ¢ØªÙĩÙħØ§": 5533, "ÙģÙĤÙĪÙĨ": 1003, "ĠÙĪØ¥": 143, "ĠÙĥØ±Ø³": 7511, "ÙģØ§ÙĥÙħ": 8387, "ĠØºÙĨ": 4958, "ĠØ§ÙģØªØ±Ø§Ø¡": 9082, "ĠÙĩØ¨": 4812, "Ø³ØŃØ§ÙĤ": 1745, "ĠØ¸ÙĦÙħ": 677, "ĠØ¨ÙĬØªØ§": 8767, "ÙĦÙĩ": 78, "ÙĬØ§ÙĦ": 7100, "Ø¸": 145, "ĠÙĨÙĤÙĪÙĦ": 2893, "ĠØ£ÙĦÙĪØ§ÙĨÙĩØ§": 9692, "ĠØ§ÙĦÙĥÙģØ§Ø±": 2096, "ØµÙī": 3147, "ÙĤØ§ÙħÙĪØ§": 1996, "ØµØ¯Ø©": 5802, "ĠØ¥ÙĨÙĥ": 814, "ĠÙĩØ§Ø¯": 3160, "Ø¹ÙħÙĪØ§": 4907, "ĠØ·Ø§Ø¹Ø©": 6208, "ĠÙĩÙĨ": 1789, "ĠØ§ÙĦØ¥Ø«Ùħ": 2995, "ÙĦÙĬÙģØ©": 7538, "ĠÙĬØ³Ø£ÙĦÙĪÙĨ": 5109, "ĠØ¹Ø°Ø§Ø¨ÙĩØ§": 8190, "ĠØ£ØªÙĪÙĥ": 8750, "ĠØ¨ÙħÙĨ": 2309, "ĠÙħÙĥØ§": 2630, "ĠÙģØ±Ø§Øº": 6275, "ĠØªÙħØ´ÙĬ": 9136, "Ø¬Ø±ÙħÙĬÙĨ": 1054, "ĠØ§ÙĦØ¬ÙĨ": 1475, "ĠÙĬØ³ÙħØ¹": 2646, "ÙĬÙħØ§ÙĩÙħ": 3693, "ĠÙĤØ±ÙĬÙĨ": 4760, "ĠÙģÙĤÙĬØ±": 8617, "ĠØªÙĦÙĤÙĬ": 9479, "ÙħØŃÙĪÙĨ": 7095, "ĠØ¢ØªÙĬ": 1287, "ĠØŃØ¨ÙĦ": 7752, "ĠÙĬØ¦": 5689, "ÙĦØ§ÙĦØ©": 6428, "ĠØ§ÙĦÙĦØ¤": 7132, "ĠØ§ÙĦØŃØ·": 6000, "ĠÙģØªÙĦÙĥ": 8315, "Ø°ÙĥØ±Ø©": 8428, "ĠØ£Ø±Ø³ÙĦØª": 3731, "ĠØ§ÙĦÙĤØ§Ø±Ø¹Ø©": 6048, "ĠØ£ÙģØ±Ø£ÙĬØªÙħ": 3390, "ĠÙĤÙĦÙĬÙĦ": 2322, "ĠÙĨÙĩÙĪØ§": 4065, "ĠØ¹Ø·Ø§Ø¡": 4735, "ĠÙģØª": 349, "ĠØ§ÙĦØ£ÙħÙĬ": 4876, "ĠÙģØªØŃÙĨØ§": 5496, "ĠÙħÙħÙĨ": 1002, "ĠØ§": 199, "ĠØ§ÙĦÙħÙĨØ§ÙģÙĤÙĪÙĨ": 3413, "ĠÙĪØ§ÙĦÙħØª": 6375, "ĠÙħØ¹Ø¯ÙĪØ¯Ø©": 6884, "ĠÙħØ«ÙĤÙĦÙĪÙĨ": 8419, "Ø²Ø§ÙĨ": 2475, "ĠÙħØ±ØªÙĬÙĨ": 4299, "ØŃØµÙĨØ§Øª": 3396, "ÙĬØ¶Øª": 9917, "Ø±Ø¶": 153, "ĠØ¨Ø¯": 1391, "ĠÙħÙĪØ³Ùī": 410, "Ø£ÙĨ": 752, "ĠÙģÙĬÙĥÙħ": 2323, "ĠØ¨Ø§ÙĦØ°ÙĬ": 2349, "ĠÙĦØ£ÙĨÙģØ³ÙĥÙħ": 3856, "ĠÙĤØ¶ÙĬ": 2878, "ĠÙĬØ³Ø±ÙĪÙĨ": 5108, "ĠØ¯Ø¹ÙĪØª": 6649, "ĠÙĪØ£ÙĥÙĪØ§Ø¨": 6741, "ĠÙĨØ¨Øª": 7622, "Ø¶Ø¹ÙģÙĬÙĨ": 5323, "ĠÙģØªØ«ÙĬØ±": 8324, "ĠÙħÙĨØ§Ø³Ùĥ": 8963, "ĠÙĪØ¬ÙĩÙĬ": 9014, "ĠØ§ÙĦÙģØ§ØŃØ´Ø©": 4427, "ĠÙģØ§Ø¬": 6170, "ĠÙĨÙĪØ±ÙĩÙħ": 7630, "ĠØ§ÙĦØ·ÙĦØ§ÙĤ": 8788, "ĠÙģÙĦÙĬÙĨØ¸Ø±": 5526, "ÙĦÙĬÙĦ": 527, "ĠØ¨Ø¹Ø¶": 399, "ĠÙĨØ¹Ø¯ÙĩÙħ": 4067, "ĠÙģÙĥØ§ÙĨØª": 4468, "ĠØ¨Ø§ÙĦÙĨØ°Ø±": 4892, "ĠÙĦÙĬØ²": 6052, "ĠÙĦØ¶Ø§ÙĦÙĪÙĨ": 10196, "ĠÙĦÙĨØ§": 556, "ĠØ£ÙĬÙħØ§ÙĨÙĥÙħ": 1914, "ĠØ´Ø±ÙĥØ§Ø¤ÙĩÙħ": 9013, "ĠÙĪØ§Ø²": 3013, "ĠÙģØ£ØŃØ¨Ø·": 6017, "ĠØ§ÙĦØ±ØŃÙĬÙħ": 374, "ĠÙĪØ§ÙĦØ·ÙĬØ¨Ø§Øª": 9488, "ĠØ®Ø³Ø§": 5923, "ĠÙĬØ³ØªØ£Ø°ÙĨÙĥ": 9887, "ĠØ¹Ø¸ÙĬÙħ": 825, "ĠØ£Ø®Ø°ÙĨØ§": 2260, "ĠÙĪØ±Ø¶ÙĪØ§ÙĨ": 4503, "ĠÙĪØ§ÙĦÙħØŃØ±ÙĪÙħ": 8636, "ĠØ·Ø§Ø¦ÙģØ©": 1743, "ĠØ¬ÙĪØ§Ø¨": 4863, "ĠÙĬØ³Ø¨ØŃÙĨ": 9814, "ĠØ£Ø°ÙĨ": 2447, "ĠØ¹Ø¯ÙĨ": 2399, "ĠØ²ÙĦÙģ": 6260, "ĠÙĨÙģØ³": 475, "ĠØ«": 173, "ĠØ¯Ø¹ÙĪØ§": 1977, "ĠØ§ÙĦÙħØ¤ÙħÙĨÙĬÙĨ": 583, "ĠØ¨Ø¹Ø¯Ø§": 5004, "ÙĬØªÙĨØ§": 6309, "ĠÙĪØ¬Ø¹ÙĦÙĨØ§ÙĩØ§": 6515, "Ø´": 104, "ĠÙĤØ¨ÙĦØªÙĩÙħ": 8211, "ĠØ°Ø±Ø¹Ø§": 9494, "ØŃÙħÙĦ": 2104, "ĠÙĪØ®": 1128, "ĠÙĥØ±ÙĬÙħ": 1538, "ĠÙĪÙĬØ¬Ø¹ÙĦ": 2216, "ĠÙĬØ¯Ø§Ùĩ": 6917, "ĠÙħØ²ÙĬØ¯": 7211, "ĠØ¨Ø´Ø±ÙĥØ§Ø¦ÙĩÙħ": 10064, "Ø¨Ø±Ø©": 3233, "ĠØ´ÙĥØ±": 4871, "ĠØ£ÙĪØ«Ø§ÙĨØ§": 7873, "Ø¨Ø§Ùĩ": 5069, "Ø§Ø¡": 120, "ĠØ§ÙĦØµØ§Ø¹ÙĤØ©": 6100, "Ø§Ø¦": 230, "ĠØ£ÙħØ§": 1759, "ĠÙĨØªÙĦÙĪÙĩØ§": 6960, "ØŃØ¨Ø§": 7406, "ĠÙĪÙĬØŃØ±": 7892, "Ø¨ÙĦÙĪÙĩÙħ": 8055, "Ø§Ø¨Ø±ÙĬÙĨ": 1397, "ĠÙĪØ¢ØªÙĬØªÙħ": 8621, "ĠØ¨Ø¯Øª": 9201, "ĠÙģØ§ÙĦ": 865, "ĠØ¹ÙĪÙĤ": 7442, "ĠÙĪØ«ÙĦØ§Ø«": 9739, "ĠÙĦØ¬Ø¹ÙĦÙĨØ§Ùĩ": 10025, "ĠÙĦÙĦØ±ØŃÙħÙĨ": 2732, "Ø¤ÙħÙĨÙĨ": 4932, "ĠØ§ÙĦØ£Ø³ÙĪØ§ÙĤ": 10259, "ĠÙĪØ£ØµÙĦØŃÙĪØ§": 3846, "ĠÙĪØ³ÙĦØ·Ø§ÙĨ": 6390, "ĠÙĪÙĤÙĬÙĦ": 1883, "ĠÙĩÙĪØ¯Ø§": 3644, "ĠÙĥÙĦÙĪØ§": 1856, "ĠÙĪØ£Ø¨": 1869, "ĠØ±Ø¶ÙĬ": 3542, "ĠÙĥØ´ÙģÙĨØ§": 4756, "ĠØŃØ±Øµ": 8865, "ÙĬØ§Ùĩ": 7865, "Øº": 130, "ĠØªØ±": 317, "Ø¹Ø¸Ø©": 5639, "ĠÙĥÙĦÙĩØ§": 4032, "ĠÙĪØªØ±": 6137, "ĠÙħÙĪØªØªÙĨØ§": 8183, "ĠÙĬØ£ØªÙĪØ§": 4249, "ÙĪÙģØ§ÙĩÙħ": 8197, "ĠØ¨Ø£Ø³Ø§": 8290, "ĠÙĪÙĦ": 147, "ĠØ§ÙĦØ±ÙĬØŃ": 2924, "ĠØ·ÙĪÙĦØ§": 8268, "ĠØ§ÙĤØªØªÙĦÙĪØ§": 9614, "ĠÙħØ¨ÙĬÙĨØ§": 2151, "ĠØµÙĨ": 3212, "ĠÙĨØ®ÙĬÙĦ": 5411, "ÙĤØ§Ùĩ": 8218, "ĠØªØ¹ÙģÙĪØ§": 6329, "ĠÙĬØ³ÙĬØ±ÙĪØ§": 3293, "ĠØ§ÙĦÙĥØ§ÙģØ±ÙĬÙĨ": 798, "Ø³ÙħÙī": 1407, "ĠÙĤØ¨ÙĦÙĥ": 1080, "ĠÙĪØ£Ø¨ÙĨØ§Ø¤ÙĥÙħ": 10081, "ĠØ±ÙĪØŃ": 2474, "ĠØ§ÙĦÙħÙĤØ³Ø·ÙĬÙĨ": 7053, "ĠÙĬØ£ÙħØ±": 2378, "ÙĥÙĪÙĨÙĪØ§": 3236, "Ø±Ø³ÙĪÙĦÙĩ": 4967, "ĠÙħÙĨØ³": 4722, "ĠÙĩØ¯Ø§ÙĥÙħ": 5363, "ĠÙĦÙģØ§": 5683, "Ø§Ø¦Ø·": 8063, "ĠØŃØ³Ø§Ø¨": 1735, "Ø¶ÙĪØ¯": 5815, "ĠØ§ÙĦÙĨÙĥØ§ØŃ": 7065, "ĠÙĪÙĬØ£ÙħØ±ÙĪÙĨ": 5388, "ĠØ°ÙĨÙĪØ¨": 2274, "ĠØ¹ÙĬÙĨÙĬÙĥ": 9313, "ĠØ§Ø®ØªÙĦØ§Ùģ": 9153, "ĠØ§ÙĦØ£ØµÙĪØ§Øª": 10090, "ĠØ£Ø«Ø±": 7237, "ĠÙĬØ´Ø§Ø¡": 427, "ĠØ£ÙĥØ¨Ø±": 1592, "ĠÙĪØ£ÙħØ§": 1192, "ĠÙĪØ§ÙĦÙĦÙĩ": 258, "Ø¯Ø³": 3466, "ĠØ®Ø´": 2498, "ĠØ¹ÙĤØ¨Ùī": 5516, "ÙĪÙĤØ¯": 5572, "ĠØ¨Ø§ÙĦØ¨Ø§Ø·ÙĦ": 2815, "ĠÙĪÙĦØ¹ÙĦÙĩÙħ": 6796, "ĠØ°": 156, "ĠØªØ³Ø±": 4741, "ĠÙģØ§Ø¬Ø¹ÙĦ": 6172, "ĠÙĬØ°ÙĪ": 7324, "ĠØ§ÙĦÙħØ®ÙĦÙģ": 5896, "ĠØªÙĤØ¹Ø¯ÙĪØ§": 8678, "Ø¹": 60, "ĠÙĨÙĥØ§ÙĦØ§": 9034, "ĠÙĪØ£Ø¬ÙĦ": 4837, "ĠØ§ÙĦÙħÙĦØ£": 1705, "ĠÙħÙĦÙĤÙĪÙĨ": 7216, "ĠÙĪØ¨ÙĬÙĨÙĩ": 6562, "ĠØ®ØµÙħØ§ÙĨ": 9713, "ĠØ´ÙĩØ±ÙĬÙĨ": 9780, "ĠÙĪÙħØ¹ØµÙĬØª": 10040, "Ø³Ø±ÙģÙĬÙĨ": 2541, "ĠÙħØ§ÙĦÙĥ": 6693, "ĠØ¢ÙħÙĨÙĪÙĨ": 8035, "Ø¨Øª": 515, "ĠØ£ÙħÙĩØ§ØªÙĩÙħ": 6834, "Ø³ØªØŃÙĬÙĬ": 7884, "ĠØ£Ø¨Ø¯Ø§": 1179, "ĠÙĪÙĬØ¯Ø®ÙĦÙĥÙħ": 7907, "ĠØ¨ØºØªØ©": 2125, "ĠÙĨÙģØ³Ø§": 2010, "ĠØ§ÙĦØ¹Ø¯": 5583, "ĠÙĦÙĤÙĪØ§": 7303, "ĠØ±Ø²ÙĤÙĩØ§": 6520, "ĠØ¨Ø§ÙĦØ¹Ø¨Ø§Ø¯": 4460, "ÙģÙģ": 2656, "ĠØ±Ø²ÙĤÙĩ": 5232, "ĠØ³Ø±Ø§Ø¬Ø§": 6765, "ĠØ£ÙĪÙĦÙĬØ§Ø¤ÙĩÙħ": 8811, "ĠØ³ÙĥØ§Ø±Ùī": 9773, "ĠØ§Ø´ØªÙħÙĦØª": 9305, "ĠØªÙĤØ¯ÙħÙĪØ§": 5417, "ĠÙĪØ£Ùĩ": 1513, "ĠØ®ÙĦ": 7780, "ĠÙĦØ¶": 7297, "ĠÙħØ´Ø±Ø¨ÙĩÙħ": 9922, "ĠØ°Ø±ÙĬØªÙĩ": 5385, "ÙĪØ¯ÙĪØ§": 3266, "ĠÙĨØ§Ø±Ø§": 1568, "Ø£Ø®Ø±": 7418, "ĠØªÙĤÙĬÙĥÙħ": 8677, "ĠØ§ÙĦØ£Ø¹Ø±Ø¬": 9425, "ĠØ£Ø²ÙĥÙī": 5481, "ĠÙĬÙĦØ¨Ø³ÙĪÙĨ": 9638, "ĠØ¬Ø³Ø¯Ø§": 4864, "ĠÙħØ³ÙĨÙĬ": 5114, "ĠØ§ÙĦÙħØ³Ø¨ØŃ": 7739, "ĠØ¥Ø«Ùħ": 3122, "ĠÙħÙĥØ±ÙħÙĪÙĨ": 6664, "ĠØ§ÙĦØ¶Ø¹ÙģØ§Ø¡": 6991, "ĠØ¢ÙĬØªÙĥ": 10078, "ĠÙĬØ³ØªÙĪÙĬ": 2005, "ĠÙħØ¹Ø°Ø¨ÙĩÙħ": 8102, "ĠÙĬØªØ±Ùĥ": 8119, "ĠÙĪÙĨØ¬ÙĬÙĨØ§Ùĩ": 5032, "ĠØ§ÙĦÙĨÙĩØ§Ø±": 1297, "ĠØ¨ÙĬÙĪØªØ§": 2827, "ĠØ¨Ø§ÙĦØ³ÙĪØ¡": 5468, "ĠØ¨ØªØ§Ø¨Ø¹": 10205, "ĠØ§Ø³ØªÙħØ¹": 9269, "Ø¨ØŃÙĬÙĨ": 4318, "ĠØ§ÙĦÙĤØ§ÙĩØ±": 9612, "ĠÙĬØ°ÙĩØ¨ÙĨ": 9698, "Ø°Øª": 4692, "ĠØ£Ø¬Ø±Ø§": 1413, "ĠØ¹Ø¨Ø§Ø¯Ùĥ": 3317, "ĠÙĨØµÙĬØ¨ÙĩÙħ": 6773, "ÙĨØ¨Ø¦": 7085, "ĠØ§ÙĦØ°ÙĥØ±Ùī": 3808, "ĠÙĪÙĬØ³Ø¨ØŃ": 7894, "ĠØªØµØ¯ÙĪÙĨ": 8965, "ĠØ§ØµØ·": 3857, "ĠØ¬ÙħØ§ÙĦ": 7776, "Ø¶": 101, "ĠØ£ÙĬÙħØ§ÙĨÙĩÙħ": 1913, "ĠØ§ÙĦÙĦØ§ØªÙĬ": 3060, "ĠØ§ÙĦØ¬": 325, "ĠÙĤØ§Ø±ÙĪÙĨ": 9827, "ĠÙĪØ³Ø¨ØŃ": 2287, "Ø«": 121, "ĠØ¬Ø±Ùħ": 4099, "ĠØ¶Ø±Ø§": 2747, "Ø±Ø§ÙģÙĩØ§": 7834, "ĠØ®Ø²": 2342, "ĠÙĨØ¹Ø§": 7618, "ĠÙĬØ¶ÙĦÙĪÙĥ": 9020, "ØºØ±": 977, "ĠØ¬Ø§Ø«ÙħÙĬÙĨ": 4554, "ÙĩÙĦØ§": 7115, "ĠÙĪÙĥØ°Ø¨": 1808, "ĠÙģØ±ÙĪØ¬ÙĩÙħ": 8446, "ĠØ¨Ø§ÙĦØ¥Ø«Ùħ": 4517, "ĠØ¨Ø§ÙĦØ¸Ø§ÙĦÙħÙĬÙĨ": 4132, "ĠÙĦÙĦÙĤ": 3478, "ĠÙĪØ£ØªÙĪØ§": 7719, "Ø°ÙĨÙĬ": 4695, "ÙĪÙĤÙĬÙĨ": 7111, "ĠØ¨Ø§ÙĦÙħØ¬Ø±ÙħÙĬÙĨ": 9263, "ĠØ¹ÙĨØªÙħ": 7861, "ÙģØ¹": 574, "ĠØªÙĨÙĥ": 2774, "ĠØ¨Ø¯Ø£": 9202, "ĠØ§Ø³ØªØ¹ÙĬÙĨÙĪØ§": 8564, "ĠÙĦÙĬØ¸ÙĦÙħ": 6054, "ĠÙĬÙĨØ¬ÙĬÙĥÙħ": 8140, "ĠØ¹Ø¨Ø¯Ø§": 3518, "ÙĦØ§Ø¦ÙĥØ©": 652, "ĠÙģØ§ÙĦÙĨØ§Ø±": 8901, "ĠÙħØ«ÙĦÙĩ": 2384, "ĠÙĦÙħØŃÙĬØ·Ø©": 10282, "ĠØªÙħØ³ÙĪÙĩØ§": 6779, "ĠÙĪØ£ÙĨØ¬ÙĬÙĨØ§": 8264, "ÙĪÙĦÙĩØ§": 8599, "ĠÙĪØ£Ø®Ø§Ùĩ": 6742, "ĠÙĦØ£ÙĪÙĦ": 8496, "ĠØ¢": 124, "ĠÙĤØµ": 2198, "ĠØ¬Ø§Ø«": 3583, "ĠÙĬØ¯Ø¨Ø±": 5095, "Ø¯ÙĦÙī": 7249, "ĠÙģØ§Ø³ØªØºÙģØ±ÙĪØ§": 8935, "ĠØŃØ³Ø±Ø©": 5906, "ĠØ§ØªØ¨Ø¹Ùĥ": 5249, "Ø³ÙĬ": 1347, "Ø¯ÙĥÙħ": 1618, "Ø±ÙĬØŃ": 6065, "ĠÙģØ§Ø®": 2059, "ĠÙĬØ®ÙĦÙĤÙĪÙĨ": 4451, "Ø´ÙģÙĤ": 9184, "ĠØ®ÙĦÙģÙĩ": 5283, "ÙĩØ¯ÙĬÙĨ": 6041, "Ø§Ø¬Ø§": 5244, "ĠØ¨Ø§ÙĦÙĪØ§Ø¯": 5964, "Ø´Ø±Ùī": 4189, "ĠÙĪØ§ÙĦÙħÙĨÙĥØ±": 6958, "ĠÙĪÙĨØ¹ÙħØ©": 8253, "Ø¯Ø¨Ø§Ø±": 2640, "ØµÙĦØ§": 2676, "ĠÙĪÙĬÙĩØ¯ÙĬÙĩÙħ": 9398, "ÙĤÙĩÙħ": 1768, "ĠØŃØ¨Ø·": 3182, "ĠØ§Ø³ÙĥÙĨ": 9267, "ÙĬØ³Ø±": 4585, "Ø·Øª": 5859, "Ø¹ÙĪØ¯Ø§": 6612, "ĠØºÙħØ±Ø©": 10114, "ĠÙģÙĦÙĬØ³Øª": 5231, "ĠÙĦØ¹ÙĦÙĥ": 8755, "ØŃØ³ÙĨÙĬÙĨ": 1078, "ĠÙĦØ¬Ø¹ÙĦÙĨØ§": 5373, "ĠÙĦÙĨÙģØ³": 1656, "ĠØ§ÙĦÙĥÙģØ±": 2223, "ĠÙĪØ£Ø¨ÙĨØ§": 5881, "Ø¬Ø±ÙĨØ§": 6152, "ĠÙħØªØ®Ø°": 6461, "ĠÙĦØµØ§ØŃØ¨Ùĩ": 9636, "ĠÙĬÙĥÙĨ": 1075, "Ø§Ø¨Ø±ÙĪÙĨ": 7642, "ĠØ£ÙĤØ·": 8876, "ÙĪØ±Ø«": 2526, "ĠÙĦØ¨ÙĨÙĬ": 3785, "ĠÙĬØ³ØªØ¨Ø´Ø±ÙĪÙĨ": 4287, "Ø®Ø±Ø¬ÙĬÙĨ": 8369, "Ø¨Ø§Ø¯": 472, "ĠØ°Ø±ÙĬØªÙĩÙħ": 5386, "ĠÙĦÙĬØª": 3629, "ĠØ¹ØµØ§Ùĩ": 6620, "ĠØ³ÙħØ§": 2484, "ĠÙĥØ´Ø¬Ø±Ø©": 9946, "Ø²Ø±Ø¹": 9770, "ĠÙģØ£Ø®Ø°ÙĩÙħ": 2803, "ĠØ·Ø¹Ø§Ùħ": 2109, "ĠÙĤØ§Ø¦ÙħØ©": 4465, "ĠÙĪÙĬØ³Ø®Ø±ÙĪÙĨ": 9375, "ĠÙĦÙĨÙģØ³Ùĩ": 2603, "ÙĨØ§": 81, "Ø§Ø³Ø±ÙĬÙĨ": 1605, "ĠÙĥØ§Ø¯": 4751, "ĠÙĬØ³Ø¬Ø¯ÙĪÙĨ": 5473, "ÙģÙĪØ±": 570, "ÙĤ": 67, "ÙĩØ¯ÙĪØ§": 1805, "ÙĬØ©": 336, "ĠØ£ÙĪØŃÙĬÙĨØ§": 2037, "ĠØ£Ø¹Ø¨Ø¯": 2122, "ĠØªØ±ÙĬØ¯": 6186, "ĠÙĬÙĥØ³Ø¨": 6235, "ĠØ§ÙĦÙħØ´ØŃÙĪÙĨ": 7007, "ÙĤÙĬØ§": 3984, "ÙĩÙĬØ©": 7116, "Ø¦ÙĨÙĩÙħ": 7705, "Ø®ÙĦØµ": 1376, "Ø§ÙģÙĦÙĪÙĨ": 6220, "ĠØ¯ÙĬÙĨ": 1031, "ĠØ³Ø¨ØŃØ§ÙĨÙĩ": 2027, "ĠØ´ÙģØ§Ø¡": 7805, "ĠØªÙĦÙĩ": 5751, "ĠÙĬÙħØ³Ùĥ": 4455, "ĠÙĪØªÙģ": 8148, "ĠÙĪÙĨØµØ±ÙĪØ§": 8254, "ĠØ§ÙĦÙħØ´": 4843, "ĠØ·Ø³Ùħ": 8267, "ĠØ§ÙĦØ¬Ø§ÙĩÙĦÙĪÙĨ": 9464, "ĠØ£ØŃØ¯ÙĩÙħØ§": 5229, "ĠÙģØ§ÙĤØ±Ø¡ÙĪØ§": 10128, "ØªÙħØ³Ùĥ": 5913, "ĠÙĪØ¨ÙĨØ§Øª": 2758, "ĠØ¨Ø§ÙĦØ³Ø§Ø¹Ø©": 9666, "ĠÙĦÙĬØ¨ÙĬÙĨ": 6053, "ĠØ§Ø®ØªÙĦÙģ": 2267, "ØªØºÙĪØ§": 3440, "Ø¦Øª": 7702, "ĠØ¹ÙĦÙħÙĥÙħ": 5136, "ĠÙĬØ³ÙħØ¹ÙĪÙĨ": 1438, "ĠØ£ØŃØ¯ÙĩÙħ": 3340, "ĠÙĪØ£ÙĦÙģ": 7717, "ĠÙĪØ§Ø¹Ø¨Ø¯ÙĪØ§": 6110, "ĠØ¹ÙĦÙĬ": 135, "ĠÙĬØ·ÙħØ«ÙĩÙĨ": 10316, "ĠØ¯ÙĬÙĨØ§": 4921, "ĠØ´": 140, "ĠÙĪØ£ÙĪØªÙĬÙĨØ§": 10247, "ĠØŃÙģÙĬØ¸": 3875, "ĠØ¸ÙĨÙĨØªÙħ": 4485, "ĠÙĪØ£ØµØ¨ØŃ": 9000, "ĠØ§ÙĦØ³Ø§Ø¬Ø¯ÙĬÙĨ": 4136, "ĠØ£Øµ": 443, "ĠØµØ§Ø¨Ø±Ø§": 9979, "ÙħØ¹ÙĬÙĨ": 1334, "ĠØªØ´Ø±Ø¨ÙĪÙĨ": 10218, "ĠØ±Ø§ØºØ¨ÙĪÙĨ": 10230, "ĠØ¹Ø¸": 1352, "ĠÙĪÙĬØµØ¯ÙĪÙĨ": 5469, "ĠÙĬÙĦÙĤÙĬ": 6731, "ĠØ¹ÙĨÙĩÙħ": 605, "ĠÙģØ§Ø³ØªØ¬Ø§Ø¨": 6538, "ĠØ®ÙĦØ§": 7781, "ĠØ¨ØŃÙģÙĬØ¸": 9525, "Ø¯Ùī": 627, "ØµÙĬØ¨": 3148, "ÙĤØ±Ø¨": 1623, "ĠÙĦØ£ØŃØ¯": 6304, "ĠØ¬Ø§Ø¡": 288, "ĠØªÙģØª": 3522, "Ø°Ø¨ÙĬÙĨ": 960, "ĠØ±Ø¬Ø§ÙĦ": 3002, "ĠÙħØŃ": 1129, "ĠØ£ØªØªØ®Ø°": 8751, "ĠÙĦÙĬØ£Ùĥ": 6058, "ĠØ°Ø±": 2213, "ĠØ£Ùĥ": 418, "ĠØªØ£ÙĥÙĦÙĪØ§": 3037, "Ø¨ÙĦÙĪÙĥÙħ": 3640, "ĠÙĦÙĦØ®": 6131, "ĠÙĪÙĦØ¹ÙĦ": 2212, "ĠØªØ·ÙĬØ¹ÙĪØ§": 4027, "ĠØ£ÙħØªÙĥÙħ": 7926, "ĠÙħØ¹Ø±Ø¶ÙĪÙĨ": 1991, "ĠØ§ÙĦÙĥØ±": 3428, "ĠØ£Ø¬ÙħØ¹ÙĪÙĨ": 6257, "ĠØªØ¯Ø±Ø³ÙĪÙĨ": 8761, "ÙģØµ": 3503, "ĠÙģØ£ÙĬ": 7940, "ĠØªÙĨØ°Ø±ÙĩÙħ": 8614, "Ø±ÙĬØ§Øª": 3223, "ĠØ§ÙĦØ£Ø¹Ø±Ø§Ùģ": 9426, "ĠØªÙĥØ³Ø¨": 6294, "ĠØ£ØŃØ¯": 819, "ĠÙĪØ§ÙĦÙħÙĨ": 4056, "ĠÙĪÙĦØ£ÙĨØ¹Ø§Ùħ": 7839, "ĠÙħÙĪÙĦØ§Ùĩ": 9553, "ØŃØ§Ø¨": 547, "ĠØ§ÙĦÙħØ§Ø¡": 1677, "ĠÙĦÙĦØ´": 4989, "Ø°ÙĪÙĤ": 5702, "ĠÙģØ§Ø±ØªÙĤØ¨": 10164, "ĠÙħÙĨØ³ÙĥØ§": 9941, "ĠØ°Ø§ÙĤÙĪØ§": 9234, "ĠÙĥÙģØ±Ùĩ": 6123, "ÙħÙĬØ±Ø§": 7092, "ØŃØ±ÙĬÙĨ": 8458, "ĠØ¨ÙĩÙħØ§": 5714, "ĠÙĤØ¨ÙĦÙĨØ§": 8770, "Ø²ÙģØ©": 7574, "Ø¬Ø¹ÙĦ": 666, "Ø¹Ùī": 1850, "Ø®ÙĪØ§ÙĨÙĩÙħ": 3815, "ØªÙĤÙī": 7183, "ĠÙĨØµÙĬØ¨Ø§": 3016, "ĠØ²ÙĬÙĨ": 1414, "ĠØ¨Øº": 539, "ÙĬØªÙĩ": 7104, "Ø¨Ø§Ø¦ÙĩÙħ": 7193, "ĠÙĬÙĥÙĪÙĨ": 811, "ĠÙĬÙĨØ§ÙĦÙĪØ§": 8136, "ĠØ£ØŃØµÙĨØª": 9616, "ĠÙĦØ¹Ø¨Ø±Ø©": 4344, "ĠØ¶Ø±Ø¨": 1477, "ĠÙĪÙĩÙĦ": 6552, "Ø§Ø±Ùĥ": 1406, "ĠÙĪÙĬØ¯Ø¹ÙĪÙĨ": 7903, "ÙĩØ±ÙĪÙĨ": 3914, "Ø¦Ø§Øª": 975, "ĠØªØªÙĦÙī": 1822, "ĠÙĬÙĤØ§ØªÙĦÙĪÙĨ": 2570, "ĠÙĪØ§Ø®Ø´ÙĪÙĨ": 6788, "Ø§Ø¨ÙĬÙĦ": 4811, "ĠÙģØ¥Ø°Ø§": 549, "ĠØªØ°ÙĥØ±ÙĪØ§": 7483, "ĠÙĬØ®Ø§ÙģÙĪÙĨ": 2979, "ĠØªÙĥÙĨ": 1415, "ĠØ®Ø§Ø´Ø¹Ø©": 4529, "ĠØ£ÙĩÙĦ": 761, "ĠÙģØ°ÙĥØ±": 4655, "ĠØ¨ÙģØ§": 3491, "ĠØ§ÙĦÙĬÙĤÙĬÙĨ": 3823, "ĠÙĤØ±Ø¨": 4038, "ÙĦÙĪÙĨØ§": 4916, "ĠØ£ÙĤØ¯Ø§ÙħÙĨØ§": 6996, "ĠØªØ¯Ø±ÙĬ": 5191, "ĠØ¨ÙħÙĬ": 7361, "Ø³ØªØ®Ø±Ø¬": 7882, "ÙĤÙĤ": 5694, "ĠØ§ÙĦØ¹Ø²ÙĬØ²": 683, "ĠØ£Ø®ÙĬÙĩ": 2564, "ĠÙĥØ¨Ø§Ø¦Ø±": 5782, "ĠÙĪØ¢ÙĦ": 6358, "ĠÙĪÙģØ§ÙĥÙĩØ©": 6993, "ĠÙĪØ¥ÙĤØ§Ùħ": 7825, "ĠÙħØµÙĬØ±Ø§": 6584, "ĠÙĬØ£ÙģÙĥÙĪÙĨ": 8299, "ĠÙĪØ¨Ø±Ø§": 8481, "ĠØªØ¶Ø§Ø±": 9526, "ØŃØ³Ø¨": 2659, "ĠØ²Ø¯ÙĨØ§ÙĩÙħ": 10007, "ĠÙĪØ³Ø¨Ø¹": 6388, "ØªÙĤÙĪØ§": 2290, "ÙĩØ±Ø©": 3299, "ĠÙĥØ§Øª": 3531, "ĠØ§ÙĦØ¨Ø£Ø³": 8542, "ĠÙģØ¥ÙĬØ§ÙĬ": 7995, "Ø³Ø·ÙĪØ§": 6504, "ØµØ§Ùĥ": 5804, "ĠÙĪÙĨØ§Ø¯ÙĪØ§": 9506, "ĠÙĦÙĦØ¯ÙĬÙĨ": 6133, "ĠØºØ±": 2224, "ĠÙĬØ¹ØªØ¯ÙĪÙĨ": 6975, "Ø°Ùģ": 3987, "ĠØ£Ø±Ùī": 3950, "ĠØ®ÙĦØ§Ø¦Ùģ": 5546, "ĠÙĥØ¹": 7510, "Ø³Øª": 163, "ĠØ¥ØµÙĦØ§ØŃ": 9759, "ĠØªØ¬Ø²ÙĬ": 8579, "Ø¹Ø§ÙħØ§": 5002, "ÙĩØªØ¯ÙĬÙĨ": 2779, "ÙĩØ±ÙĪØ§": 2990, "ĠØ³ÙĬØ¬Ø²ÙĬÙĩÙħ": 8711, "ĠÙĩÙħ": 244, "ĠØ´ÙĥÙĪØ±": 3036, "ĠÙģØ³ÙĬØ¹ÙĦÙħÙĪÙĨ": 9682, "Ø·ÙĬØ¹": 2567, "ĠØ®Ø²ÙĬ": 3586, "ĠÙĥÙĬØ¯ÙĥÙĨ": 9258, "ĠØ£ÙĤÙĬÙħÙĪØ§": 7243, "ĠØ£Ø¹Ø¬Ø¨ØªÙĥÙħ": 9501, "ĠØ£ØªØ¹Ø¨Ø¯ÙĪÙĨ": 8753, "ĠØ£ÙĨÙĩ": 1318, "Ø§Ø¹Ùģ": 3068, "ĠÙĦÙĩÙĪØ§": 6079, "ĠØ£ÙĪØŃÙī": 6711, "ĠÙģØ³ØªØ¹ÙĦÙħÙĪÙĨ": 6911, "ĠÙģÙħÙĨ": 479, "ĠÙĪÙĤØªÙĦÙĪØ§": 7977, "ĠÙĬØ¤ÙħØ±ÙĪÙĨ": 8724, "ĠÙĬÙĨØµØ±ÙĪÙĨÙĩÙħ": 9323, "ĠÙĦØªØ£ÙĥÙĦÙĪØ§": 10305, "ĠÙģÙĦÙĬÙĨ": 4234, "ĠØ´Ø±ÙĥØ§Ø¡ÙĥÙħ": 6572, "ĠÙħØªÙī": 2629, "Ø§ØŃØ±": 2613, "Ø³Ø§Ø¡": 900, "ĠÙĬØ³Ø±Ø§": 3706, "ĠÙĬØ®ÙģÙĪÙĨ": 6286, "Ø§ÙĦØª": 7113, "ĠÙĤØ§": 4035, "Ø±Ø³ÙĪÙĨ": 8054, "ĠØ§ÙĦØµÙĬØ¯": 6097, "ĠÙĦØ³": 2304, "ĠØ§ÙĤØªØ±Ø¨": 6854, "ĠÙģÙħØ§ÙĦØ¦ÙĪÙĨ": 9931, "ĠÙģØ¶ÙĦÙĨØ§": 4363, "ĠØªØ±Ø¯ÙĪÙĨ": 8225, "ĠØ¬Ø§Ø¡ÙĨØ§": 3662, "ĠÙĪÙĨØµØ±": 6197, "ĠØ¹ÙĨØ¯ÙĩØ§": 6182, "ĠÙĬØ£ØªÙĬÙĨ": 2379, "ĠØªØ£ÙĪÙĬÙĦØ§": 8596, "ĠÙĬØºÙĬØ±ÙĪØ§": 8808, "ĠÙĬØ®Ø´Ùī": 3701, "ØŃØ´Ø©": 2157, "ĠØ·ÙĪØ¹Ø§": 5038, "ĠÙħØºØ§ÙĨÙħ": 6776, "ĠÙĬØªÙĦÙĪÙĨ": 3649, "ĠØ¨Ø§Ø¡": 7353, "ĠØ¹ÙĬØ´Ø©": 10216, "ĠÙĪØ´ÙĩØ¯ÙĪØ§": 6692, "ĠÙħØ³ØªÙĥØ¨Ø±Ø§": 8747, "ÙĤÙĪØª": 7339, "ĠØ´ÙĬ": 226, "ĠØ±Ø³ÙĦ": 2381, "ĠÙħØ¹Ø´Ø±": 6107, "ĠØªØªÙĪÙĦÙĪØ§": 5119, "Ø§ÙĤØ©": 2759, "ĠÙĦÙĦØ¸Ø§ÙĦÙħÙĬÙĨ": 2370, "ĠÙģÙħØªØ¹": 7294, "ĠØ±Ø§Ø¶ÙĬØ©": 4778, "ĠÙĥØ±Ø§ÙħØ§": 7521, "ĠÙĥØ°Ø¨": 464, "ĠÙħÙĤØ·": 7208, "ĠØ§ØªÙĤÙĪØ§": 1167, "ĠØŃÙħ": 777, "ĠØ§ÙĦØ£ÙĦÙĬÙħ": 3594, "ĠØµØ§ØŃØ¨ÙĥÙħ": 9673, "ĠÙħØ´Ø±ÙĥÙĬÙĨ": 4626, "ĠÙĬÙĪÙĨØ³": 7330, "ĠÙĬÙĥÙĪÙĨÙĪØ§": 2141, "ĠÙħÙĥØ±ÙĪØ§": 6663, "ĠØªØµÙĬØ¨ÙĩÙħ": 6944, "Ø¶ÙĦÙĪÙĩÙĨ": 8400, "ĠØ£Ø³ÙĦÙħØª": 9439, "Ø§Ø¯": 168, "ĠØ¥ÙĬÙħØ§ÙĨÙĥÙħ": 3812, "ØŃØªÙħ": 5732, "Ø§Ø¦Ø²ÙĪÙĨ": 4973, "ĠÙĪØ®Ø°": 7142, "ĠÙĪØªÙĥÙĪÙĨÙĪØ§": 8157, "ĠÙĬÙģÙĤÙĩÙĪÙĩ": 6722, "Ø¬Ø©": 7502, "ĠØªØ¨Ø¯": 1779, "Ø³Ø±ÙĪÙĨ": 4648, "ĠØ´ÙĩØ±Ø§": 8987, "ĠØ¨ÙĬÙĪØªÙĥÙĨ": 9273, "ÙģØ±ÙĪÙĨ": 2082, "Ø": 28, "ĠØ§ÙĦÙħØŃØ³ÙĨÙĬÙĨ": 1138, "ĠÙĪÙĬØºÙģØ±": 2508, "ĠØ¨Ø§ÙĦØ£ÙĨØ«Ùī": 10094, "ĠÙħØ±Ø©": 2009, "ÙĬÙħØ©": 4107, "ÙĪØ§ÙĦØ¯ÙĬÙĨ": 3315, "ĠÙĤÙĪØ§ÙħÙĬÙĨ": 9828, "ĠÙĦØ¨": 966, "ĠØ¯Ø§Ø¦": 3617, "ĠØ§ØªØ®Ø°ØªÙħ": 5285, "ĠÙĪØ§ÙĦØ¹Ø§": 4058, "ĠÙĪØ£ÙħÙĩ": 5309, "ĠÙĪÙĨØ¬ÙĪØ§ÙĩÙħ": 10294, "ĠÙģØ§Ø°ÙĩØ¨": 8204, "ĠÙĨØ¸": 7611, "ĠÙĥØ§ÙģØ±": 4753, "ĠØªÙĪÙĥÙĦÙĨØ§": 5410, "ĠÙĤØ¯": 278, "Ø¸Ø§ÙĦÙħÙĬÙĨ": 1639, "Ø¯Ø¹": 1852, "ĠÙģÙĦÙĪÙĦØ§": 2107, "ĠØ§ÙĦØºÙĬ": 2558, "ĠÙħØ§ÙĦØ§": 3093, "ÙĥØ±ÙĬÙĨ": 2091, "ĠÙĪØ±Ø¶ÙĪØ§ÙĨØ§": 6775, "ĠØªÙĦÙĥ": 1153, "ĠÙĬÙĩØª": 3980, "Ø¹ÙĬØ±": 2633, "ĠØªØ¬Ø¹ÙĦ": 2988, "ĠØ§ÙĦÙĥØ¨ÙĬØ±": 2941, "ĠØ§ÙĦØ²ÙĤ": 7130, "ĠÙĪÙĦØ§": 149, "ĠÙĪÙĥÙĬÙĦØ§": 2093, "ĠÙĪÙĤÙĦÙĬÙĦ": 6028, "ĠØ®Ø§Ø¶": 7788, "ÙĬÙħØ§ÙĨ": 1478, "Ø¨Ø°": 3084, "ĠÙĨØ·Ø¹Ùħ": 9331, "ĠÙĥØ³Ø¨ØªÙħ": 6559, "ĠØºØ§ÙĦØ¨": 6078, "ĠÙĦÙĬØ£ÙĥÙĦÙĪÙĨ": 10111, "Ø¯ÙĪØ§": 612, "ĠØ¬Ø§Ø¡ÙĪØ§": 3661, "ĠØ§ÙĨØ·ÙĦÙĤÙĪØ§": 10150, "ĠÙħÙĨÙĬØ¨": 4723, "ĠÙĪØ¬Ø¹ÙĦÙĪØ§": 3026, "ĠÙĪÙĬÙĤØ¯Ø±": 2712, "ĠØŃØ¨Ø·Øª": 3901, "ĠÙĪØµØ±ÙģÙĨØ§": 10187, "ÙħØ³Ø©": 6317, "ĠØ¶Ø¹Ùģ": 2548, "ĠÙĬØ±ÙĬØ¯ÙĪÙĨ": 2136, "ĠØ±Ø²ÙĤÙĥÙħ": 3021, "ĠÙĪØ¬Ø¹ÙĦ": 891, "ĠÙģÙĪÙĤÙĥÙħ": 3781, "ĠÙĦÙĥØ¨ÙĬØ±Ø©": 10005, "ĠÙģØ£ØªØ¨Ø¹": 2930, "ĠÙĬØŃØ§Ø³Ø¨": 8175, "ĠÙĦØ£ÙĥÙģØ±": 6303, "Ù": 29, "ĠØªØºÙĦÙĪØ§": 9314, "ĠØ±Ø³Ø§ÙĦØªÙĩ": 8332, "ĠÙĪÙĬØ¯Ø±Ø¡ÙĪÙĨ": 10096, "ĠÙģØ±Ø¶": 3106, "ĠØ®Ø§Ø¨": 5921, "ĠÙĬØ¹ÙĦÙħÙĩÙħ": 6217, "ĠØ§ØµØ·ÙģÙī": 6945, "ĠÙģØ¨Ø¥Ø°ÙĨ": 8714, "ĠØ§ÙĦØºÙģØ§Ø±": 6320, "ĠÙĤØ§ÙĨØªÙĪÙĨ": 9701, "ĠØ¨Ø¹Ø«Ø±": 8112, "ĠÙĥØ°Ø¨ØªÙħ": 8538, "ĠÙĬØªÙĪÙģØ§ÙĥÙħ": 5423, "ĠÙħØ´": 1613, "ÙĪØ¨ÙĪØ§": 6124, "ĠØ£Ø³Ø§Ø·ÙĬØ±": 2776, "Ø§Ø«": 1284, "ĠØ³Ø§ØŃØ±": 3167, "ĠØ¹ÙħÙĦØª": 4332, "ĠÙģØ£ÙĦÙĤÙĬ": 9429, "ĠØŃØ¶Ø±": 3579, "ĠØ£ÙħØ¯Ø§": 5999, "ĠÙĤÙĬØ§Ùħ": 7531, "Ø·Ø±": 835, "ĠØ¨Ø§ÙĦØ¹Ø¯ÙĦ": 3890, "ĠÙĪØ£ÙĨ": 321, "ĠØ¬Ø¨ÙĦ": 5916, "ĠØ§ÙĦØŃÙĨØ§Ø¬Ø±": 7933, "ĠØŃÙĦ": 4086, "ÙĬØ§": 160, "ÙĪØ§Ø¯": 4697, "ĠØ£ÙĥÙĨØ©": 5100, "ĠØ§ÙĦØ¬Ø¨": 8281, "ĠÙĪÙĤÙĦ": 1226, "ĠØ®ÙĪØ¶": 7793, "ĠÙĦÙĦÙħØ¤ÙħÙĨÙĬÙĨ": 1902, "ĠÙĪØ²Ø±": 2576, "ĠÙģØ¹ÙĤØ±ÙĪÙĩØ§": 6986, "ĠØ§ÙĦØ³ØŃØª": 7878, "Ø¨Ø§Ø±Ø§": 3280, "ĠÙĨØ°Ø±Øª": 9958, "ĠØ¨Ø§ÙĦØŃÙĤ": 609, "ĠØ§ÙĦØ£ÙĪÙĦ": 959, "ĠØ§ÙĦØºØ±": 2765, "ĠØ£Ø£ÙĨØªÙħ": 3379, "ĠØ§ÙĦÙħØ±Ø¡": 4846, "ĠÙģØ§ÙĦØŃ": 5667, "ĠÙĪØŃØ´Ø±": 6471, "ĠÙĬØ²ÙĥÙĬÙĩÙħ": 9051, "ĠÙģØ£Ø¨Ùī": 6016, "ĠÙĬÙĤØ¯Ø±ÙĪÙĨ": 6998, "ÙĬØ±": 119, "ĠÙģÙĦÙĥ": 5661, "ĠØ¨Ø±Ø³": 7357, "ĠØ¯Ø¹ÙĪØ©": 5310, "ÙĦÙĨØ§": 218, "ĠÙĨ": 109, "ĠØ§ÙĦØ¯ÙĬÙĨ": 844, "ĠÙĪÙħÙĨÙĩØ§": 2722, "ĠÙĨÙģØ¹": 5841, "ĠÙĤØ±Ø£Øª": 9224, "ĠÙģØ§Ø±ÙĩØ¨ÙĪÙĨ": 9349, "ĠÙĪØ§ÙĦÙĨ": 766, "ĠØªÙģÙĬØ¶ÙĪÙĨ": 9824, "ĠÙĦÙħÙĬÙĤØ§ØªÙĨØ§": 10116, "ĠØ¨ÙħØµØ§Ø¨ÙĬØŃ": 10310, "ĠØ§ÙĦÙħØ´Ø±ÙĥÙĪÙĨ": 5894, "ĠÙĬØ¯Ùĩ": 6278, "ĠÙħÙģØ§ØªØŃÙĩ": 10170, "ĠÙĦØ³Ø§ØŃØ±": 5538, "ĠØ£ÙħØ±ÙĬ": 2927, "ĠØªÙĪÙĦÙĬØªÙħ": 3040, "ĠÙģØ§Ø³ØªØºÙģØ±": 6537, "ĠÙĥØ§ÙĦØ£Ø¹ÙĦØ§Ùħ": 10156, "ÙĪØ±ÙĩÙĨ": 3634, "ĠÙĦÙħØ¨Ø¹ÙĪØ«ÙĪÙĨ": 4198, "ĠØ£ÙĨØ´Ø£": 1957, "ÙĦÙĪÙĥ": 7078, "ÙĪØ¬Ø³": 6406, "ĠÙĨØŃØ´Ø±ÙĩÙħ": 9653, "ĠÙĪÙĥØ°ÙĦÙĥ": 979, "ĠÙĪØ§ØªÙĤÙĪÙĩ": 5149, "ĠÙħØ§Øª": 7196, "ĠÙĬØµÙĦØŃ": 6450, "ĠÙĨØ§Ø¬": 7626, "ĠØ£Ø¨Ø§ÙĨØ§": 3401, "ĠÙħØ¨Ø§Ø±ÙĥØ§": 5536, "Ø³ÙĪÙĩ": 7260, "ĠØ±Ø³ÙĪÙĦ": 720, "ĠÙģÙĬØ¹Ø°Ø¨Ùĩ": 7543, "ĠØ¨ÙģØ§ÙĥÙĩØ©": 9754, "ĠØ§ÙĦØ£Ø®ÙĬØ§Ø±": 9538, "Ø¸ÙĨÙĥ": 4880, "ĠÙĦØªØ±ÙĪÙĨ": 8566, "ĠØŃØ¯ÙĬØ¯": 5903, "ĠÙĬØ±ØªØ¯": 5009, "ĠØ£ÙħØ«Ø§ÙĦÙĩÙħ": 9668, "ĠØ§ÙĦÙħÙĨØ²ÙĦÙĬÙĨ": 8956, "ĠØ£Ø®Ø°Øª": 8978, "ĠÙĬÙĩØ¯ÙĬÙĨ": 6715, "ĠØ´Ø£ÙĨ": 5931, "ĠØ¹Ø³Ø±": 7437, "ĠÙĪÙĪØ§Ø¹Ø¯": 7162, "ĠÙĩØ§Ø±ÙĪÙĨ": 2265, "Ø¹ÙĨÙĥÙħ": 7227, "ĠØ³Ø¢": 7658, "ĠÙħØ¬Ø±": 7202, "Ø±ÙĬØ©": 1204, "ĠØ¬Ø¨Ø§Ø±Ø§": 5918, "ÙħØªØ¹": 6460, "ĠØ³ÙĨØ¨": 6592, "ĠÙĪØ®ÙĦÙĤØªÙĩ": 9559, "ĠØ¨Ø¬ÙĨÙĪØ¯": 9940, "ĠÙħÙĨØ°Ø±ÙĬÙĨ": 5743, "ĠØªØ®Ø±": 7467, "ĠÙĨÙĤØ§ØªÙĦ": 7638, "ĠØ§ÙĦÙģØªÙĨØ©": 3430, "ĠÙĪÙħÙĤØ§Ùħ": 8433, "ĠØ´ÙĬØ¦Ø§": 589, "ĠØªÙģÙĬØ¶": 9823, "ĠÙĦÙģØ±": 3475, "ÙĨØ§Ùĩ": 924, "ĠØ¹Ø³Ùī": 1442, "ĠÙĪØ¹Ø°Ø§Ø¨": 4258, "ĠÙĪØ§ÙĦØ£Ø³Ø¨Ø§Ø·": 4998, "ĠÙĦØ¦ÙĦØ§": 5686, "ÙĥÙĦÙħØ§": 7174, "ÙĬÙħØ§ÙĨÙĥÙħ": 8418, "ÙĪØ§ØªÙĩÙĨ": 8177, "Ø¨Ø±ÙĬÙĦ": 6947, "ĠÙģØ®ÙĦÙĤ": 6806, "ĠÙĪØ§ÙĦÙĤ": 1047, "ĠØ±Ø§Ùĥ": 7559, "Ø§ÙĪØ±": 2612, "ĠÙĦØªØ³": 2986, "ĠÙĪÙĬÙĪÙĦØ¬": 4901, "ĠØ£ÙĪØ¹Ø¬Ø¨ØªÙħ": 10264, "ĠÙħÙĨÙĩ": 540, "ĠØ¹ÙĦÙĬÙĩ": 373, "ĠØ£Ø±Ø¨Ø¹Ø©": 3382, "ĠØ§ÙĦÙħÙĪØª": 1007, "Ø´Ø£": 1317, "ĠÙģÙĦÙĩ": 2448, "ĠÙĬØ¹ÙĦÙħÙĩ": 4246, "ĠØ¨Ø¶Ø§": 5721, "ĠØŃØ³Ø§Ø¨Ùĩ": 9340, "ĠÙĬØ®ÙģÙģ": 3290, "ĠØ£Ø¸ÙĨ": 6995, "ĠØ¹ÙĤÙĬÙħ": 7441, "ĠÙĬØ±Ø¯ÙĪÙĨ": 6158, "«": 13, "ĠØ¨Ø£ÙĨÙĩ": 8291, "ĠÙĪÙħØªØ¹": 8435, "ĠØ²ÙĦØ²": 9884, "ĠÙĦÙĩØ¯Ø§ÙĥÙħ": 9933, "ĠÙħØ³Ø±ÙĪØ±Ø§": 9743, "ĠØµÙĬØ¯": 7984, "ĠÙĪÙĦÙĤØ¯": 409, "ĠÙĬÙĤØµ": 8733, "ĠØªØ¬": 482, "ĠØ£Ø±Ø¨Ø§Ø¨Ø§": 6704, "ÙĥÙĩ": 1930, "Ø²ÙĬØ²": 508, "ÙĥÙĨ": 788, "Ø±Ø«ÙĪÙĨ": 7124, "ĠÙĤØ±ÙĬØ¨Ø§": 2787, "ĠØ³Ø¹ÙĬÙĩÙħ": 9293, "ĠØ£ÙħÙĪØ§ØªØ§": 9976, "ĠÙģØ§Ø¯Ø®ÙĦÙĪØ§": 9412, "ĠØ£Ø¨ÙĪÙĬÙĩ": 8703, "ĠÙĤØ§ÙĦØ§": 7820, "Ø¨Ø¹Ø«ÙĨ": 8982, "ĠÙĦØ¸": 4661, "ĠØªØ³Ø£ÙĦÙĪÙĨ": 4356, "ØªÙħÙĪÙĩÙĨ": 2700, "ĠÙĨØ¶Ø±Ø©": 7637, "ĠÙĤÙĦÙĪØ¨ÙĥÙħ": 2011, "ĠÙĪÙĬØ¤Øª": 9542, "ÙĦÙģ": 348, "ĠÙģØ°Ø±ÙĪÙĩØ§": 9929, "ĠØŃØ³Ø¨ØªÙħ": 6700, "ĠØ±Ø¨ÙĨØ§": 477, "ÙĪÙĦØ¦Ùĥ": 289, "ĠØ°ÙĥØ±ÙĬ": 4342, "ĠÙģØ¥Ø®ÙĪØ§ÙĨÙĥÙħ": 6043, "ĠÙĦØªØ¨ÙĬÙĨ": 6340, "ĠØŃØ±ÙħØª": 6513, "ĠÙĪØ¥Ø«ÙħØ§": 5946, "ĠØ§ÙĦØ£Ø¹Ø±Ø§Ø¨": 2610, "ĠÙĪØ§ÙĦØ¯ÙĪØ§": 7597, "ØŃÙħØ¯": 1651, "ĠØ§ÙĦÙĪØ¬ÙĪÙĩ": 7133, "ĠØªØ³Ø¹": 6478, "ĠØºÙĦØ§": 8036, "ĠØ¨ÙĬØª": 2863, "ĠØªØª": 461, "ÙĨÙĥ": 896, "ĠØ¨Ø¬ÙĨ": 4708, "ØºØ§": 3581, "ÙģØ§Ø±Ø§": 5077, "ĠØŃØ¬Ø§Ø¨": 5316, "ĠØ§ÙĦØ£ÙĬÙĥ": 4878, "ĠÙĦÙĦØº": 6132, "ÙĬÙħÙĨ": 3070, "ĠØ¨Ø§ÙĦÙĤ": 1459, "ĠØ§Ø±Øª": 5367, "ĠØ¹ÙĦÙħØ§": 2466, "ĠÙħØ³ØªÙĤ": 2398, "ĠØ¨Ø®ÙĬØ±": 3810, "ĠÙĨØ°Ø±": 4800, "ĠÙħØ¯Ø±Ø§Ø±Ø§": 6568, "ĠØ®ÙģØª": 3587, "ĠØ§ÙĦÙĨÙģ": 8234, "ĠÙĤØ¶ÙĬØªÙħ": 9643, "ĠÙģØ§Ø³ØªÙĥØ¨Ø±ÙĪØ§": 4382, "ĠØ¨Ø£ÙĨÙĩÙħ": 1258, "Ø¨ÙĨÙĬ": 3086, "ØµØ±Ø®": 6251, "ĠÙĦØ¢Ø¨Ø§Ø¦ÙĩÙħ": 8974, "ĠØ§ÙĦØ±Ø´Ø¯": 5990, "ĠÙĪØ¥ÙĦÙĩÙĥÙħ": 9854, "ĠÙĦØ¹ÙĦÙī": 6438, "ĠÙĥØ£ÙĨÙĩ": 4438, "ĠÙĩÙĬÙĩØ§Øª": 8884, "ĠÙĪØ¹Ø¯Ø§": 3318, "ĠØ£ØµØ§Ø¨ÙĥÙħ": 5288, "ØŃÙħÙĪÙĨ": 2950, "ĠÙĪØ·Ø¹Ø§Ùħ": 6651, "ĠØ§ØªØ¨Ø¹Øª": 6550, "ĠÙĬØ¹ÙĤØ¨": 8380, "ĠÙħØ±ÙĬØ©": 3936, "ĠØ£ÙĤØ±ÙĬØ¨": 8880, "ĠÙĪØ¬Ø¯ØªÙħ": 9549, "Ø¦ÙĪÙĨ": 1250, "ĠÙĦÙĦØ°ÙĥØ±": 4211, "ĠÙĪØ¥ÙĦÙĬ": 7823, "ĠÙģÙģØ³": 7275, "ĠØ¨Ø§Ø®Ø¹": 10207, "Ø±Ùĩ": 1303, "ĠØ³ØŃØ±": 1868, "ĠØ§ÙĦÙħØŃÙĬØ¶": 7049, "ĠÙĬÙĦØªÙģØª": 9816, "ĠØ´Ø§Ø¹Ø±": 6894, "ĠØ£Ø±Ø§Ø¯ÙĪØ§": 5262, "ÙģÙĥ": 2064, "ØŃÙĬ": 673, "ĠØ§ÙĦÙħÙĦØ§Ø¦ÙĥØ©": 976, "ĠØ§Ø°ÙĥØ±ÙĪØ§": 2727, "ĠÙĪØ§ÙĦØ¨Ø§": 7594, "Ø³ÙĨÙĬ": 5656, "ĠØ¹ÙĤØ¨": 4017, "ĠØ®Ø´ÙĬ": 4868, "ĠØ£ÙĩÙĪØ§Ø¡": 1820, "ĠÙĨØ¶Ø±Ø¨": 7635, "ÙģØªØŃÙĨØ§": 9434, "Ø©": 89, "Ø§Ø¯ÙĦ": 4144, "Ø¯ÙĪ": 5648, "Ø¹ÙĦÙĨ": 7862, "¬": 14, "ĠÙĪÙĨØ£Ùī": 8259, "ĠØ§ÙĦØª": 881, "ĠÙģØ®ÙĦÙĤÙĨØ§": 10169, "ĠØ¨ÙĪØ£": 7377, "ĠØ£Ø®ÙĪÙĩÙħ": 5160, "ĠØŃØ³Ø§ÙĨ": 8817, "Ø´ÙĪØ§": 4787, "ĠØ¯Ø¹Ø§ÙĥÙħ": 9611, "ĠÙĦÙĦØ³Ø§Ø¦ÙĦ": 9874, "ĠØ§ÙĤØ±Ø£": 7017, "ĠØ¨Ø§ÙĦØ³ÙĬ": 4131, "ĠØ³Ø±ÙĤ": 9364, "ÙĥØ©": 7169, "ĠÙĪØ§ÙĦØª": 4792, "Ø§ØªØ§": 2333, "ĠÙĪØ§Ø¨ØªØºØ§Ø¡": 9904, "ĠÙĥØ£Ø³Ø§": 9330, "ĠÙĪØ¥ÙĦÙĬÙĩ": 1403, "ĠØ§ÙĦÙĨØ³Ø§Ø¡": 1331, "ĠØªØŃØ²": 2000, "ĠÙĪØ§ÙĦÙĦÙĬÙĦ": 3152, "ĠØªØ±Ø§Ø¶": 5022, "ĠØ§ÙĦØ£ØµÙģ": 7816, "ĠØ¨ÙĬÙħÙĬÙĨÙĥ": 9757, "ĠÙħØ¤ÙħÙĨØ©": 3839, "ĠÙģØ¬Ø¹ÙĦÙĩ": 5675, "ĠØªØ°ÙĥØ±": 2665, "ĠØ§ÙĦØ³Ø§Ùħ": 7875, "ĠØ§ÙĦØ±Ø³ÙĦ": 1666, "ĠÙģÙĪØ§": 4651, "Ø¯ÙĨØ§ÙĩØ§": 8839, "ĠØ¹ØªÙĬØ§": 9763, "ĠØ§ÙĦØ´Ø§ÙĩØ¯ÙĬÙĨ": 3685, "ĠÙĬØ¹Øª": 4262, "ĠÙģØ¨ÙĦØº": 7284, "ĠØ£Ø®Ø§Ùģ": 1534, "Ø§Ø±ÙĤ": 4910, "ØŃÙĪØ§": 1152, "ĠÙĬØ±ÙģØ¹": 6160, "ĠØŃÙģÙĬØ¸Ø§": 6829, "ĠÙģØ£ÙħÙĦÙĬØª": 9978, "ĠÙĪÙĦÙĤØ§Ø¡": 9857, "ĠØ¬ÙĨØ¯": 4426, "ĠØ¥Ø³ÙħØ§Ø¹ÙĬÙĦ": 5723, "ØŃÙħØªÙĩ": 2539, "ĠÙĪØ§Ø¯Ø¹ÙĪØ§": 5371, "ÙĤØ¯Ø³": 4957, "ĠÙĦÙĬØ¶ÙĦÙĪØ§": 9980, "ĠØªØ¬Ø²Ùī": 8581, "ĠÙģØ§Ø¹ÙĦÙħ": 6171, "ĠØ£Ø¹ÙĬÙĨÙĩÙħ": 3853, "ĠØ¨Ø¢ÙĬØ§ØªÙĨØ§": 747, "ĠØ§ÙĦÙħØ³": 786, "ĠÙħØµØ¯ÙĤ": 3941, "Ø¬Ø¹ÙĦÙĩ": 3020, "ĠÙĪØ£Ø¬Ø±Ø§": 7728, "ĠÙĪÙĦÙĥ": 398, "ĠÙĥØ§ÙĦØ¹": 6533, "ĠÙĦØ¨Ø«Øª": 5393, "Ø²ÙĪØ§": 629, "³": 20, "ÙĦØ§Ø³ÙĦ": 7465, "ĠØ£Ø±": 688, "ĠÙģØ£Ø°Ø§": 7945, "ĠÙĦØ¹Ø¨Ø§Ø¯Ùĩ": 6903, "ĠÙĦØ°ÙĩØ¨": 7312, "ĠÙĤÙĪÙĦÙĪØ§": 7529, "ĠØ¹ÙĤØ¨Ø§": 9699, "ĠÙĪØ§ÙĦÙĬØªØ§": 3153, "Ø·ÙĤÙĪÙĨ": 7687, "ĠØ§ÙĦØ´": 363, "ĠØ£ÙĨÙģØ³": 450, "ĠØ§ÙĦÙħØ¶": 7732, "Ø¹ÙħØ©": 2511, "ĠÙħÙĨÙĬØ±": 7426, "Ø¨ÙĥØ§Ø±": 9100, "ÙĦÙħÙĪÙĨ": 2691, "ĠÙĬØ£ØªÙĬÙĨÙĬ": 9556, "ĠÙĪÙĬÙĤØªÙĦÙĪÙĨ": 4141, "ĠØ§ÙĦÙħÙĬØ²Ø§ÙĨ": 5900, "Ø¤ÙĥÙħ": 4888, "Ø§Ø«Ø±": 9139, "ĠØ¨Ø§ÙĦØ³ÙĬØ¦Ø©": 4569, "ĠÙĨÙģÙĪØ±Ø§": 5254, "ĠÙĨØ³Ø§Ø¦ÙĩÙħ": 6453, "ĠÙĪØ£Ø®Ø°ÙĨØ§": 6828, "ØªØ±ÙĬ": 7179, "ĠØ£Ø³Ø§ÙĪØ±": 5169, "ĠÙģÙĪÙĤÙĩØ§": 6542, "ĠØ£ÙĩÙĦÙĩ": 1998, "ĠÙĬØ¤Ø§Ø®Ø°ÙĥÙħ": 5497, "ÙĩØ§Øª": 5809, "ĠØªÙĪØ¬": 7479, "Ø±Ø¨Ùī": 1810, "ÙĦÙĩØªÙĨØ§": 5738, "ĠÙĪØ±Ø¨ÙĬ": 6290, "ØµØŃØ§Ø¨": 5803, "ĠØ£ÙĨØ²ÙĦÙĩ": 5834, "ĠÙģØ§ÙĤØªÙĦÙĪØ§": 8205, "ĠØªÙģØ¹ÙĦÙĪØ§": 2790, "ĠØ§ÙĦØ±Ø³ÙĪÙĦ": 872, "ÙħØ±ÙĪÙĨ": 1750, "ĠÙĪÙĨØ²Ø¹": 8251, "ĠÙħØ±ØŃØ§": 8505, "Ø¯Ø§Ø±": 4644, "ĠØ¨ÙħØµØ±Ø®": 8917, "ĠØ£Ø³ÙĦÙħ": 2016, "ĠÙĪØ¨Ùĩ": 8480, "ĠÙĦÙĤÙħØ§ÙĨ": 8530, "ĠÙĦÙĦÙĥ": 4660, "ĠÙĪØ±Ø¨Ø§Ø¹": 8969, "ĠØ§Ø±ØªØ¨ØªÙħ": 9343, "ĠØ£ØŃÙĬØ§Ø¡": 5495, "Ø§ÙĦØ§Øª": 2834, "ĠÙĪØ§Ø²Ø±Ø©": 4544, "ĠÙħØ¤ÙħÙĨÙĪÙĨ": 3451, "ĠØªØ±ÙħÙĬ": 8224, "Ø¹ÙĩÙħ": 2056, "ĠÙĪØ§Ø¬Ø¹ÙĦÙĨØ§": 9721, "ÙģØ±ÙĤÙĪÙĨ": 7799, "ĠØŃØ·Ø§ÙħØ§": 7054, "ĠØ¨ÙĬÙĨÙĩÙħ": 736, "ĠÙĪØ¢ÙĬØ§ØªÙĩ": 10183, "ĠØ¨ÙĥÙĦÙħØ§ØªÙĩ": 6431, "ĠÙĬØ¹Ø¯ÙĥÙħ": 4498, "ĠØ£ØºÙĪ": 5291, "ĠÙĬØ¬Ø²Ùī": 6371, "Ø°ÙĦÙĥÙħ": 7348, "ĠÙĥØ°Ø¨ÙĪÙĨ": 6332, "ĠÙĨÙģØµÙĦ": 4391, "ĠÙĪØ¸ÙĨ": 5320, "Ø¦Ø³": 1005, "ĠÙĬØ¬Ø§Ø¯": 2123, "ĠÙĥÙĦÙħØ§": 1887, "ĠÙĪØ§ÙĨØª": 6712, "ĠÙĦÙĬØ¬Ø²ÙĬÙĩÙħ": 9577, "ĠÙĪÙĦÙĨØ¨ÙĦÙĪÙĨÙĥÙħ": 8951, "ÙħØ¹": 346, "ĠØ¨ØµÙĬØ±Ø©": 9076, "ĠÙħÙĪØ¹Ø¯": 3660, "ØªÙī": 306, "ĠÙĤØªÙĦ": 1629, "ĠÙĨØ§Ø¯ÙħÙĬÙĨ": 5361, "ĠØ¨Ø§ÙĦÙħØ¹Ø±ÙĪÙģ": 1515, "Ø¯Ø®ÙĦÙĪØ§": 7253, "ĠØ§ÙĦØ¨Ø´Ø±": 8539, "ĠØ£ØµØ§Ø¨ØªÙĥÙħ": 9109, "ĠÙĤÙĨ": 5783, "ĠØ§ÙĦØ°ÙĬÙĨ": 134, "ĠØ¨Ø±Ø¨": 1109, "Ø¹ÙħÙĦÙĪØ§": 2715, "ĠØ¬ÙĦÙĪØ¯": 4548, "ĠØ¹ÙĦÙĪØ§": 4725, "ĠØ£Ø¬ÙĪØ±ÙĥÙħ": 8408, "ĠØ§Ø´ØªØ±ÙĪØ§": 3834, "ĠÙĪÙħÙħØ§": 2116, "ĠØ³Ø¦": 5853, "Ø¸Ø±ÙĪÙĨ": 978, "ÙħØ¹ÙĪÙĨ": 3069, "ĠØºØ±ÙĪØ±Ø§": 4513, "ĠØ§ÙĦØµØ¨ØŃ": 8086, "ĠØ§ÙĦÙħØ´Ø§Ø±": 7743, "ØµØ±ÙĨØ§": 5082, "ĠÙĪÙħØ¨Ø´Ø±Ø§": 6273, "ĠÙĬØ±Ø²ÙĤ": 2537, "ĠØ¹ÙħÙĦØ§": 3005, "ÙĪÙģØ§": 8194, "ĠÙħÙĪÙĦÙĪØ¯": 7219, "Ø¨Ø±ÙĪØ§": 768, "ĠØ´ÙĩØ¯": 1290, "ØªÙĪÙĨ": 708, "ĠØ®Ø±Ø¬Ø§": 9536, "Ø¨ÙĦØºÙĪØ§": 3641, "ĠÙĤØ¯Ø±ÙĨØ§": 9498, "ÙĨØ©": 370, "ÙģØ¶ÙĦ": 7398, "ĠØªØ¹ÙĦÙĨÙĪÙĨ": 5764, "ĠØŃØ¨Ø§ÙĦ": 7756, "ĠØŃØ±Ø«ÙĥÙħ": 9735, "ĠØªÙĪÙĦÙĪØ§": 1355, "¹": 26, "Ø§ÙĦØ§": 1214, "ĠØ¨Ø£ÙģÙĪØ§Ùĩ": 3067, "ĠØºÙĦÙĬØ¸": 4543, "Ø°ÙĩØ¨Ø§": 5163, "ĠÙģØ®Ø°ÙĪÙĩÙħ": 9635, "ĠØ£Ø·ÙĬØ¹ÙĪØ§": 3952, "ĠØ¨": 71, "ĠØ¨ÙĦØ§Øº": 10061, "ĠØ°ÙĪÙĤÙĪØ§": 3033, "Ø¨ÙĨØ§": 1611, "ĠÙħØ³Ø¬Ø¯": 8514, "ÙĪØ¨Ø§": 4203, "ĠØ·Ø±ÙĬÙĤØ§": 10132, "ĠØ¶Ø±Ùĩ": 6230, "ĠÙĪÙĬÙĪÙħ": 869, "ĠÙĥÙħØ§": 710, "ĠÙģÙħØ§ÙĦ": 4659, "ĠØ¹ÙĬÙĨ": 1625, "ĠÙĪØŃÙĬÙĨ": 4353, "ĠÙĬØ¯Ùĥ": 4284, "ĠÙģÙĬÙĪÙħ": 4766, "ĠØ£Ø±Ø¶ÙĥÙħ": 6695, "ĠØªØ±Ø¶Ùī": 7496, "ĠÙĤÙħÙĬØµÙĩ": 4564, "Ø§Ø¨Ùĩ": 2895, "ĠØ®Ø§Ø³": 5924, "ØªÙĬÙĨ": 936, "ĠØªØ¬Ø¹ÙĦÙĨÙĬ": 9681, "ĠÙħÙĦØª": 3933, "Ø´Ø±ÙĥØ§Øª": 6355, "ĠØ£ÙĪØ²": 4133, "Ø£Ø®Ø±ÙĪÙĨ": 3509, "ØªØ§ÙĨÙĪÙĨ": 9629, "ÙĪÙĬ": 740, "ĠÙħØ³ØªÙĤØ±": 3747, "ĠØºÙĬØ±": 535, "ĠÙģØ¸": 3960, "ĠÙĨØ¤ØªÙĩ": 6850, "ĠØ±Ø³ÙĪÙĦÙĩ": 1895, "ĠØ¨ÙĬÙĨÙĨØ§": 1719, "ĠÙĪÙĤØª": 6025, "ÙĦÙĬÙħØ§": 3145, "ĠØ£ÙħÙĨØªÙħ": 5331, "ĠÙĦÙĬ": 196, "Ø·Ø¹ÙĨØ§": 2244, "ĠÙĬØ´ØªÙĩÙĪÙĨ": 4230, "ĠØ³ÙħØ§Ø¹ÙĪÙĨ": 5440, "ĠÙĪØŃÙĬØ«": 8820, "Ø¢ÙĬØ§Øª": 341, "ÙĩÙĪÙī": 2945, "Ø°Ø¨ÙĩÙħ": 1809, "ĠÙĪØªØµ": 4215, "ĠØ¨Ø£ÙĨØ§": 8287, "ĠØ³ÙĬØ±ÙĪØ§": 4070, "ĠØ£ÙĥØ«Ø±": 633, "ÙĨØ§ÙĥÙħ": 1626, "ĠØ¨ÙĥÙģØ±ÙĩÙħ": 5529, "ĠÙģØ£ÙħØ³ÙĥÙĪÙĩÙĨ": 7060, "ĠÙĦÙĬÙĪØ³Ùģ": 4945, "ĠØ§ÙĦÙĥØ§ÙģØ±ÙĪÙĨ": 1717, "ĠØ¹ÙĪØ¬Ø§": 3133, "ĠÙħØ«ÙĦÙĨØ§": 3694, "ĠÙħØªØ´Ø§Ø¨ÙĩØ§": 5498, "ĠØ§ÙĦØ®Ø·": 6266, "ĠÙĬÙĨØª": 4986, "ĠØ¬Ø¹ÙĦÙĨØ§ÙĩØ§": 6525, "ĠØªÙĤØ·Ø¹": 6398, "ĠØ®Ø¨ÙĬØ«": 7790, "ĠÙĪØ£ØŃÙĦ": 9657, "ĠØ£ÙĦØ§": 504, "ÙħÙĨÙĪØ§": 1445, "ĠÙĬØ¨ÙĬÙĨ": 1621, "ĠÙħØ§Ø¦": 2179, "ĠÙģØ³ÙĨÙĬØ³Ø±": 8673, "ĠØ¨Ø§Ø±Ø¦ÙĥÙħ": 9753, "ĠÙħÙĪÙĤÙĨÙĬÙĨ": 9879, "ĠØ§ÙĦØ³ØŃØ§Ø¨": 7874, "Ø§ÙĩØ¯ÙĬÙĨ": 2250, "ĠÙĪØ§ÙĦÙĨÙĩØ§Ø±": 1265, "ĠÙĪØ±Ø¨ÙĥÙħ": 2588, "ĠØ¢Ø¨Ø§Ø¦ÙĨØ§": 9898, "ĠØ¨Ø£": 332, "ĠØ§ÙĦØµ": 250, "ĠØªÙģØ¹ÙĦÙĪÙĨ": 3778, "ĠØºÙĦ": 4187, "ĠØ³ÙĥÙĨ": 7672, "ĠÙĪØºØ¶Ø¨": 5462, "ĠØ£ØŃÙĬØ§ÙĩØ§": 9881, "Ø³Ø¨ØŃ": 878, "ĠÙĪØµÙĦÙĪØ§Øª": 9030, "ØŃÙĥ": 4714, "ĠÙĬÙĪÙģÙĪÙĨ": 9637, "ĠØ«ÙħØ§ÙĨÙĬØ©": 6970, "Ø§ÙģØ¸ÙĬÙĨ": 9324, "ĠØ§ÙĦØŃØ¬Ø±": 4918, "ĠØ¨ÙĬØ¯Ùĩ": 3993, "ÙĪØ¨Ø©": 3651, "Ø²ÙĥÙī": 7575, "ÙģØ§ÙĤØ§": 8388, "ØªÙĤÙħ": 9075, "ĠØ¨Ø§ÙĦØ£ÙģÙĤ": 9428, "ĠØªÙĤØªÙĦÙĪÙĨ": 4744, "Ø¶ÙĬØ¹": 2786, "ĠÙĪØ£Ø²ÙĪØ§Ø¬": 2904, "Ø¦ÙĥÙħ": 3170, "ĠÙģÙĦÙĦÙĩ": 3669, "Ø¨Ø¹ÙĬØ¯": 4196, "ÙĦÙĪÙĩØ§": 5559, "ĠØ±Ø¨": 123, "ĠÙĥØ«": 649, "ĠÙĬØ±Ø¯": 1587, "ÙĪÙħÙĪÙĨ": 3172, "ĠÙĬÙħÙĬØªÙĥÙħ": 5502, "ĠÙĬÙĥØªÙħ": 8349, "ØµØ¯": 555, "ĠÙĨØ¬Ø§ÙĩÙħ": 8889, "ĠØ³Ø¨Ø§ØªØ§": 9037, "ĠÙĥØ°Ø¨ÙĪØ§": 894, "ĠØ¨ÙħØ¹Ø±ÙĪÙģ": 3494, "ÙĬØ´": 4582, "ĠØ£Ø²ÙĪØ§Ø¬ÙĥÙħ": 3782, "ĠÙĦØ¬Ø¹ÙĦ": 4667, "ĠØ¢ØªØ§": 1454, "ĠØ·Ø¨Ø§ÙĤØ§": 10295, "ĠÙĦÙĬØ±": 3110, "ĠØªØ£ØªÙĬÙĨØ§": 5139, "ĠØ§ÙĦÙħØŃ": 5887, "ÙĨÙĬØ©": 2362, "ĠØ§ÙĦØ£Ø³ÙģÙĦÙĬÙĨ": 10091, "ĠØ£ÙħØ«Ø§ÙĦÙĥÙħ": 5470, "ĠØ¨ÙĬØ¶": 8766, "Ø¨Ø¯ÙĪÙĨ": 1033, "ĠÙĪØ£Ùĥ": 1794, "ĠØ§Ø³ØªÙĬØ³Ø±": 8563, "ĠØ¥Ø®ÙĪØ§": 2654, "ĠÙħØ¨Ø§Ø±": 4623, "ĠÙĤØµØµÙĨØ§": 9910, "Ø¨ÙĦÙĪÙĨ": 7188, "ĠØ£Ø£ÙĨØ°Ø±ØªÙĩÙħ": 10044, "ĠØ¬ÙĨ": 1252, "ĠÙĨØµØ±Ùģ": 5315, "ĠÙĬØ±Ø³ÙĦ": 2453, "ĠØ§ÙĦØ¬Ø§ÙĩÙĦÙĬØ©": 5412, "ĠØŃÙĥÙĬÙħØ§": 1841, "Ø¬ÙĪØ§": 3139, "ĠÙħØ·ÙĩØ±": 3939, "ĠÙĬÙĤØ§ØªÙĦÙĪÙĨÙĥÙħ": 5444, "ĠØªÙĦÙĪ": 5760, "ÙĤØ¨ÙĦÙĪØ§": 9200, "ĠØ§ÙĦÙħÙħØª": 4845, "ĠÙģØŃÙĤ": 4656, "ĠØ¹ÙĦÙĬØ§": 5920, "ĠØµØ¯ÙĤØ©": 5179, "ĠÙĬØ±Ø¬ÙĪ": 5010, "ĠØºÙĦÙĬØ¸Ø§": 6873, "ĠØªÙħØ±": 7472, "ĠÙĪÙĦÙĬØ¹ÙĦÙħ": 3716, "ĠÙħÙģØ±ÙĪØ¶Ø§": 10042, "ĠØ¥ØŃØ¯Ùī": 5376, "ĠØ£Ø³Ø£ÙĦÙĥÙħ": 2394, "ĠØ§ÙĦÙĪØµÙĬØ©": 9243, "ĠÙĪÙĦÙĤØ§Ø¦Ùĩ": 9858, "ĠÙģØ§Ø³ØªÙĪÙī": 8933, "ĠØ«ÙĬØ§Ø¨": 3613, "ĠØ¨ÙĨØ§ØªÙĬ": 9596, "ĠØ¨Ø¬Ø§ÙĨØ¨": 10026, "ĠÙĪÙĬØ¹ÙħÙĦ": 7898, "ĠÙĪØ§Ø±Ùĥ": 7155, "ĠØ¯ÙĪÙĨÙĩ": 982, "ĠÙģØ§Ø¬ÙĦ": 8203, "ØµØ±ÙģÙĪÙĨ": 6252, "ĠØªØ²Ø±Ø¹ÙĪÙĨ": 9736, "Ø³ØªØ¨Ø±ÙĤ": 5548, "ĠØ§ÙĦÙħÙĩØª": 5891, "ĠØ§ÙĦØ¨ÙĦØ¯": 4607, "ÙĦÙħÙĪØ§": 5850, "Ø§Ø¨Ø¯ÙĬÙĨ": 7643, "ĠÙģØ¹ÙĦØªÙħ": 9087, "ÙĪØ±ÙĥÙħ": 2097, "Ø¹ÙĤ": 4630, "ĠÙĨØ³ÙĬØªÙħ": 8784, "ĠØ§Ø³ØªØ·Ø§Ø¹ÙĪØ§": 5127, "ÙĨÙĬÙĨ": 724, "ĠÙĦØ¢": 967, "ĠØ£ÙħØ±ÙĥÙħ": 5144, "ĠØ¨ÙĨØ§ÙĩØ§": 7374, "ĠØ§ÙĦØ¹ÙĨÙĥØ¨ÙĪØª": 10273, "ĠÙĦØ¹ÙĨØ©": 3325, "ÙĬØªÙħ": 1751, "ĠØ¬Ø¹ÙĦÙĥÙħ": 3760, "ĠÙĨÙģØ³ÙĬ": 2768, "ĠÙĪØ±Ø³ÙĦØ§": 8656, "ĠÙģØ¹Ø¯": 4652, "ĠÙģÙĦÙĩØ§": 5671, "ĠÙĪØ£ØŃØ³ÙĨÙĪØ§": 9659, "ÙĪÙī": 655, "ĠÙģØ£Ø®Ø±Ø¬": 2354, "ĠÙĥÙĩÙĬ": 7519, "ĠØ§ÙĦØ¨ÙĦØ§": 1824, "ĠØ§Ø°ÙĥØ±": 8012, "ĠØ£ÙĬØ¯": 772, "Ø±Ø§ÙĥÙħ": 4883, "ĠÙĩÙĪØ¯": 4975, "ØªØªÙĨØ§": 7181, "ĠØ§ÙĦØ¬ÙħØ¹": 2962, "ĠØ£ÙĬÙĥÙħ": 4984, "Ø¶ÙĬØ§Ø¡": 8859, "ĠÙĪØ§Ø¯Ø¹ÙĪÙĩ": 10024, "Ø«ÙĬ": 2899, "Ø·ÙĪØ§": 2486, "ĠØ¨ÙĬØ¯": 3990, "Ø´Ø¦": 7578, "ĠØ³ÙĬÙĩØ¯ÙĬÙĨ": 6422, "ĠØ¥ÙĦÙĬÙĥÙħ": 1096, "ĠÙĪÙĬÙĤØ°": 7899, "ĠØ¨ÙĦØ§": 5707, "ĠØºÙĦÙģ": 8038, "ĠÙĪØ¹ÙĦÙħØ§": 4550, "ĠÙĪØ¹ØµÙĪØ§": 8364, "ĠØ¨ÙĥØªØ§Ø¨": 4341, "ĠÙĨØ¬ÙĬÙĨØ§": 5233, "ĠØ¬Ø¦ØªÙħÙĪÙĨØ§": 9094, "ÙģØªØŃÙĪØ§": 8402, "ĠØ§ÙħØ±Ø¦": 4557, "ÙĨÙĬØ³Ø±": 6080, "ÙħÙĪÙħ": 4580, "ĠØ§ÙħØ±Ø£ØªÙĬ": 9271, "ĠØ£ÙĪØ±Ø«": 5975, "ĠÙĪØ£ÙĤÙĪÙħ": 6672, "ĠØ´Ø·Ø·Ø§": 10089, "ĠØªÙĬØ³Ø±": 7498, "ĠÙĪØ£ØµÙĦØŃ": 1837, "ĠÙģÙĤØ§ØªÙĦÙĪØ§": 6357, "ĠÙĪØ¨Ø±ÙĥØ§Øª": 9627, "Ø¸Ø§": 1162, "ĠØ´ÙĩØ¯ÙĪØ§": 9145, "ĠØ¨Ø±ÙĬ": 2062, "ĠÙĪØ£Ø¨ØµØ§Ø±": 4076, "Ø¹ÙĪÙĥÙħ": 7229, "ĠÙħØ¯ÙĥØ±": 3794, "ĠÙĪØ¢Ø¨": 2391, "ĠÙĪÙĥÙĩÙĦØ§": 8022, "ĠØªØ¯Ø¹ÙĪØ§": 6442, "ĠÙģØ£ÙĨØ³Ø§ÙĩÙħ": 10101, "Ø¤ÙħÙĨØ§Øª": 1419, "ĠØ¨ÙĬÙĪÙħ": 3992, "ĠØ§ÙĦØºØ±ÙĪØ±": 4537, "ĠØ®ÙĬÙģ": 4866, "ĠØ¹Ø¨Ø¯ÙĨØ§": 3820, "ĠØ£Ø®Ø°ÙĨØ§ÙĩÙħ": 8980, "ĠØº": 212, "ĠÙĨÙħ": 2685, "ĠÙĨØ±Ùī": 3556, "ĠÙģÙĨØ¨Ø°": 4403, "ĠÙĬØºÙĦØ¨ÙĪØ§": 5198, "ÙĬØ·": 5566, "ÙĪØ§Ø¹ÙĤ": 7351, "Ø¤ÙĩÙħ": 7842, "ĠÙģØ³ÙĬØŃ": 8670, "ĠÙħÙħØ²ÙĤ": 9630, "ĠØ§ÙĦØ£Ø¯Ø¨Ø§Ø±": 4116, "Ø¯Ùħ": 1041, "ØŃÙĦ": 4712, "ĠØªÙĤÙĬØ§": 6397, "ĠØ£Ø²ÙĪØ§Ø¬": 951, "ĠÙģØ¬Ø¹ÙĦÙĩÙħ": 9810, "ĠØŃØ§ÙģØ¸": 3580, "ĠØ³Ø±Ø§Ø¨ÙĬÙĦ": 9366, "ĠÙĬØ³ØªØ¬ÙĬØ¨ÙĪØ§": 4286, "ĠØ§ÙĦÙĨØ§Ø³": 313, "ĠØ¨Ø§ÙĦÙĬÙħÙĬÙĨ": 7854, "ĠÙĪÙĦÙĬÙĤÙĪÙĦÙĪØ§": 8554, "Ø§Ø¯ÙĪØ§": 1364, "ĠØªØ¬ÙĩØ±": 8580, "ĠØ§ÙĦØ¹Ø¬ÙĦ": 3618, "ĠØ¬Ø§ÙĩØ¯": 4096, "Ø¨Ø±Ø§": 524, "ĠÙĪØªÙĥÙĪÙĨ": 6139, "Ø¯Ø®ÙĦ": 1432, "Ø¨ÙĬØªØ§": 8025, "ĠØ¨Ø§ÙĦØ¹Ø´ÙĬ": 5346, "ÙĬÙĤØ§": 2168, "ĠØ£ÙĪØŃÙĬ": 2711, "ÙģÙĪÙĨØ§": 8902, "ĠÙĪÙĪÙĤØ§ÙĩÙħ": 9176, "ĠØ§ÙĦØ¶ÙĦØ§ÙĦØ©": 3882, "ĠØµØ¯ÙĤÙĪØ§": 4334, "ÙĥÙĪØ±Ø§": 5613, "ĠØ£Ø¨ÙĪØ§Ø¨": 2396, "ĠÙģØ±Ø·ÙĨØ§": 8445, "ÙĨØ§Ø³": 4737, "ĠÙĪØ¥ÙĬØ§ÙĬ": 6852, "ĠØªØ·": 1950, "ĠÙĬØ²ÙĥÙĬ": 9053, "ĠØ§ÙĦÙħÙĨØ§": 2696, "ÙĥÙĬÙħ": 568, "ĠÙĬØ¸ÙĨ": 9353, "Ø£Ø¬ÙĪØ¬": 7421, "ĠØ§ÙĦØ£Ø²ÙĪØ§Ø¬": 7811, "ĠØ£Ø®Ø°ØªÙĩÙħ": 6560, "ĠØ¨Ø£Ø®": 8288, "ĠÙĨØ®": 2076, "ĠÙĨÙģØ±Ø§": 9705, "ĠÙĬØ±Ø¯ÙĪÙĥÙħ": 6702, "ĠØ£ØŃÙĤ": 2376, "ÙĪÙħÙĪØ§": 7713, "ĠÙĪÙĦØ³": 4120, "Ø³Ø¯Ø§": 4649, "ĠÙĪØ¥ÙĨØ§": 1050, "ĠØ¨Ø¥Ø°ÙĨ": 1100, "Ø¬Ø¨": 5769, "ĠÙģÙĬØµÙĬØ¨": 7539, "ĠØ¹ÙĦÙĬÙħØ§": 1402, "ī": 40, "ØŃØ¯ÙĪÙĨ": 3125, "ĠÙĬØªØ®Ø°": 1814, "ĠÙĨØ§ÙģÙĤÙĪØ§": 9955, "ĠÙģØ¥ÙĨÙħØ§": 1144, "ĠÙĪØ§Ø±": 1680, "ĠØªØµ": 954, "ÙĦØŃÙĪØ§": 3729, "Ø³Ø¨ÙĪÙĤÙĬÙĨ": 8200, "ĠÙĬØ®": 424, "ĠÙħØ´Ø±": 4620, "ĠØ¨Ø¹ÙĦÙħÙĩ": 5485, "ĠØ¨Ø§ÙĦØµÙĦØ§Ø©": 6853, "ĠØ¹ØµÙĪØ§": 6618, "ĠØ§ÙĦØ³ÙĦØ§Ùħ": 4135, "ĠØŃÙĬØ§": 4087, "ÙĬÙĪÙĨ": 2167, "ĠØ±Ø³ÙĦÙĩ": 4252, "ĠØ§ÙĦØ®Ø§ÙĦ": 2553, "ĠÙħÙĨÙĩÙĨ": 3129, "Ø·Ø§Ø¹ÙĪØ§": 4354, "ĠÙĪØ³Ø¹ÙĩØ§": 4523, "ĠØ£ÙģØºÙĬØ±": 5050, "ĠÙĪØ£ÙĥÙĦÙĩÙħ": 6740, "Ø³ÙĩÙħ": 3103, "ĠØ¨ÙĤ": 1245, "ĠØ§ÙĦÙħÙĬØªØ©": 5419, "ĠÙģØ¹ÙĦÙħ": 7274, "ĠØ§ÙħØ±Ø£Ø©": 6689, "ÙĪÙĦÙĩ": 496, "ĠØ§ÙĦÙĥØ±Ø¨": 6905, "Ø¹Ø°Ø¨ÙĩÙħ": 3947, "ĠÙģØ£ØŃØ³ÙĨ": 7947, "ĠØ±Ø¯ÙĪÙĩØ§": 9565, "ĠØ¬Ø§ÙĨ": 2497, "ÙĦØ¨ÙĪØ§": 2989, "Ø®Ø§Ùģ": 4767, "ĠÙģØªØµØ¨ØŃ": 6226, "Ø¬Ø¯ÙĪØ§": 1074, "ĠØ¨Ø¹Ø¯ÙĬ": 5005, "Ø³ÙĨØ§": 7259, "ĠÙĪÙĦÙĬØ§": 2121, "ĠØ¹Ø§Ùħ": 2068, "Ø§ÙĤÙĪÙĨ": 7074, "ĠÙĬØ®ÙĪÙģ": 8466, "ĠÙĬØ¹ÙĦÙĨÙĪÙĨ": 3484, "ĠØ£ÙģØ£ÙħÙĨ": 6784, "ĠØªØ®Ø²ÙĪÙĨ": 8729, "ĠØ§ÙĦØ¬Ø¨ÙĦ": 8282, "Ø´Ø±ÙĩÙħ": 2099, "ĠÙĪØ£ÙĪØ°ÙĪØ§": 10248, "ĠØ§ÙĦØµØ§ØºØ±ÙĬÙĨ": 10281, "Ø¨Ø´Ø±": 3445, "ĠÙĦÙĬØ·ÙĩØ±ÙĥÙħ": 8010, "ĠØ£ÙĨÙģØ³ÙĥÙħ": 983, "ĠØªØ±Ø¬Ø¹": 3260, "ÙĬØ§ØªÙĥÙħ": 8048, "ĠÙĥØ¯": 4748, "ĠÙĬØ£Ùĥ": 1589, "ĠÙģÙħØ«ÙĦÙĩ": 9591, "ĠÙĨØµØ±ÙĥÙħ": 6656, "Ø¹Ø±ÙĪÙĨ": 1273, "ĠÙĥØ³Ø¨Øª": 1835, "ĠØªÙħÙĪØ±": 9135, "ØµÙĦ": 1223, "ĠØ§ÙĦØŃØ¬": 2718, "ĠØ§ÙĦØŃÙĬ": 2088, "ĠÙĪØ¹Ø¯ÙĩÙħ": 8689, "Ø¯Ø¯ÙĨØ§": 4645, "ĠØ£Ø±Ø¬": 2639, "ĠÙĪØ±Ø£ÙĪØ§": 6291, "ĠÙģÙĥÙĬØ¯ÙĪÙĨ": 8645, "ĠØ´Ø·": 5929, "ĠØ§ÙĦØ¹ÙĦ": 7127, "ĠØ§ÙĦÙħØ³ÙĬØŃ": 2574, "ĠÙĤØ·Ø¹Øª": 9949, "ĠÙĪÙĩÙħÙĪØ§": 8399, "ĠØ«ÙĦØ§Ø«Ø©": 2423, "ĠÙħØ³Ùĥ": 3712, "Ø±ÙĬØªÙĩ": 6067, "ĠØ§ÙĦÙĪØ§ÙĦ": 5586, "ĠØªØ´ÙĩØ¯ÙĪÙĨ": 6484, "ĠØ£Ø®Ø±Ø¬ÙĪØ§": 4412, "ĠØ¥Ø³ØŃØ§ÙĤ": 3498, "ĠÙĪØ¹ÙħÙĦÙĪØ§": 787, "ÙĨØ³Ø§Ø¡": 5115, "ĠÙĪØ¨Ø¯Ø§": 3920, "ĠØªÙĥ": 432, "ØŃØ±": 415, "Ø¯ÙĪÙĨ": 430, "ĠØ°ÙĥØ±": 667, "ĠØªØ¶Ø±Ø¹Ø§": 6954, "ĠÙĬÙĨÙĤ": 4205, "ÙĪÙĥÙĬÙĦ": 3718, "ĠØ£Ø¯Ø¹ÙĪ": 5215, "ĠØ¨Ø¹Ø´Ø±": 8111, "ĠÙĤØ¨ÙĦÙĥÙħ": 1652, "ĠØªÙħÙĬÙĦÙĪØ§": 10069, "ĠØ£ÙĬÙĨ": 1684, "ØªÙħØªØ¹ØªÙħ": 9393, "ĠØªØ¹ÙĦÙħÙĪÙĨ": 739, "ĠÙĨØ±Ø²ÙĤ": 6849, "Ø¬Ø±Ùĩ": 6151, "ĠÙĪØ±Ø§Ø¡ÙĩÙħ": 8473, "ĠØ¬ÙĬØ¨Ùĥ": 10253, "ĠÙĬÙģØ±ÙĤÙĪÙĨ": 9475, "ØºÙĪØ§": 1008, "ĠØ§Ø¬Øª": 3869, "Ø´ÙĬØ±": 3151, "ĠÙĪÙĬØ²ÙĬØ¯": 3610, "ĠØ§ÙĦØ¨Ø§Ø¨": 3714, "Ø³ÙħÙĬØ¹": 6093, "ĠØ±Ø¦Ø§Ø¡": 7564, "ĠØ£ÙĪÙģÙĪØ§": 4895, "ĠØ¥ÙħØ§": 1943, "ĠÙģØ£ÙĨØ¨ØªÙĨØ§": 5240, "Ø§ÙģØ¹": 3268, "Ø¸Ø§ÙĩØ±": 9081, "ĠØ¹Ø¬Ø§Ùģ": 9288, "ĠØ³ÙĬØ¦Ø§ØªÙĩ": 9240, "ĠØ¨Ùħ": 882, "ØºØ±Ø¨": 3185, "ĠØ§ÙĥØªØ³Ø¨": 6898, "Ø±Ùģ": 663, "ĠØ§ÙģØª": 1164, "ĠØ£Ø³Ø±Ø¹": 9513, "ĠÙĪÙĬØ¹ÙĦÙħÙĩÙħ": 6658, "ÙģÙĨØ§": 7388, "ĠÙħØ«ÙĦÙĥÙħ": 3286, "ĠØ®ÙĦØ§ÙĦ": 2913, "ÙĩØ§Ø¨": 4780, "ÙģØªÙĬÙĨ": 6249, "ĠØ£ØµØ¨ØŃ": 8492, "ĠØ§ÙĦÙĥÙĩÙģ": 4955, "Ø±ÙĥÙĩ": 4322, "Ø£ÙĦÙĪÙĨ": 1279, "ĠÙĪØ¹Ø³Ùī": 8360, "ĠÙĪØ£ÙĦÙĤÙī": 6753, "Ø¨ÙĪØª": 5622, "ĠØ¢ØªÙĬÙĨØ§Ùĩ": 4374, "ĠØµØº": 6035, "ĠØ£ÙĬØ¯ÙĬÙĥÙħ": 2573, "Ø·Ø§ÙĨØ§": 2135, "ĠÙħØ§Ø¦Ø©": 3063, "ĠØ§Ø«ÙĨØªÙĬÙĨ": 5328, "ÙĬØ¯": 169, "ÙĨÙĪØ§": 1174, "ÙĩØ§ÙĥÙħ": 5810, "ĠØ§ÙĦØ®Ø¨Ø§Ø¦Ø«": 10302, "ĠØªØŃØ¨ÙĪÙĨ": 2968, "ĠØ§ÙĦØ³Ø§ÙħØ±ÙĬ": 10267, "ĠÙĪÙĬÙĦØ¹": 4140, "ĠØ§ÙĦØ±Ø¬Ø¹": 7910, "ĠÙĦØ¹ÙĦÙĬ": 3324, "ĠØ£Ø¶": 1934, "ĠØ®Ø±": 4101, "ĠÙħØŃÙģÙĪ": 9071, "ĠØ°Ø±ÙĬØªÙĩÙħØ§": 9394, "ĠÙģØªÙĪÙĦ": 6225, "Ø«ÙĦÙĩ": 2694, "ĠÙħÙĨØ²": 5739, "ÙģÙĬØ©": 7397, "ĠØ£Ø¨ÙĪÙĩÙħ": 8700, "ĠÙħØ¨Ø¯ÙĦ": 5633, "ĠØ§Ø®ØªÙĦÙģÙĪØ§": 2828, "ĠÙĦØªØ¹ÙĦÙħÙĪØ§": 6344, "ĠØ§ÙĦØ¨Ø¹Ø«": 5589, "ĠØ¨ÙĬØªÙĥ": 9639, "ĠÙħØŃØ±ÙĪÙħÙĪÙĨ": 9745, "ĠÙĪÙĦÙħÙĨ": 4122, "ĠØ£Ø®Ø§ÙĨØ§": 8652, "ĠØ£Ø¨Ø±": 4637, "ĠØºÙĪØ±Ø§": 8039, "Ø°Ø±ÙĬÙĨ": 1896, "ĠÙģÙĦÙĪ": 6177, "ÙĪØ¡": 656, "ĠÙĪØ§ÙĦÙĥ": 1864, "ĠØ§ÙĦÙħØªÙĥØ¨Ø±ÙĬÙĨ": 6964, "ĠØ¬ÙĩØ²": 7774, "ĠÙĬØ¨Ø³Ø·": 2575, "Ø°ÙĬÙĨ": 236, "ÙĬÙĨØ§ÙĩØ§": 4169, "ĠÙĪÙĤØ¹ÙĪØ¯Ø§": 7980, "Ø§Ø¡Øª": 3169, "ØºÙĪÙĬÙĨÙĩÙħ": 9662, "ĠØ®Ø·": 1797, "ÙĪÙĩØ§": 600, "ĠØ³Ø±ÙĩÙħ": 9365, "ĠØ¨ÙĬÙĨÙĥÙħ": 1165, "ĠØ§ÙĦÙĨØ´Ø£": 6193, "ÙĦÙĥ": 118, "Ø¶ÙĬ": 796, "ĠØ§ÙĦØ¬ÙĦØ§ÙĦ": 8283, "ĠÙģØ§Ø³ØªØ¬Ø¨ÙĨØ§": 5531, "ĠÙĦÙĬÙĥÙĪÙĨÙĪØ§": 8005, "ÙĬØ±ÙĪØ§": 1634, "ĠØ§ÙĦØ³ÙħÙĪÙħ": 7880, "ĠÙĨØ±Ø¯": 7632, "ĠÙĬØ¶Ø§Ø¹Ùģ": 3353, "ĠØ¹ÙħØ±": 3515, "Ø¶Ø©": 1953, "ÙĤØ¨Ø©": 3985, "ĠÙĬØ¬": 532, "ØªØ¨ÙĩØ§": 6412, "ĠÙģØ®ÙĪØ±": 6807, "ĠØªÙħØªØ¹ÙĪØ§": 6826, "ĠØ£ØŃÙĬØ§": 4236, "ĠØ§ÙĦÙħØ¯": 4081, "Ø¹ÙħØ±Ø©": 7917, "ĠØ«Ø§ÙĨÙĬ": 7921, "ĠÙĪÙĦÙĬÙĩÙħ": 8547, "ĠØ¨Ø¢ÙĬØ©": 2273, "ĠØ±ÙĥØ¨Ø§": 9644, "ÙĩØ§": 100, "ĠÙĨØ§ÙģÙĦØ©": 9956, "ĠØµØ±": 817, "ĠØ®Ø±ÙĪØ§": 7787, "ĠØ³Ø¨Ø¹Ø§": 9225, "Ø§Ø¦ÙģØ©": 6090, "Ø²ÙĦØ§Ùħ": 7573, "ĠÙĬØ³Ø£ÙĦÙĥÙħ": 6297, "ĠØ§ÙĦØ£ÙħØ±": 1091, "ĠØ¨Ø§ÙĦØ·": 5958, "ĠÙĬØ·": 1244, "ÙĪØªÙĩÙħ": 5573, "ĠØ§ÙĨØ´ÙĤØª": 8825, "ĠØ®Ø§ÙĦØ¯Ø§": 6384, "ĠØªØŃÙĪÙĬÙĦØ§": 6248, "ĠØªØ£Ùĥ": 1235, "ĠØ£ÙģÙĬØ¶ÙĪØ§": 9999, "ĠÙĨØ±": 2686, "ĠØ§ÙĦØ´ÙĬØ§Ø·ÙĬÙĨ": 2128, "ĠØ¯ÙħØ§": 7934, "ĠØ±Ø§Ø¯": 7558, "ĠÙĪÙĬÙĤØ°ÙģÙĪÙĨ": 10269, "ĠÙĥØ±ÙĩÙĪØ§": 8903, "ĠÙĪØ§ÙĤØª": 8106, "ØŃØ¯Ø©": 7407, "ĠØ£ÙĨØ¬ÙĬÙĨØ§": 4791, "ĠØªØ¶ÙĦÙĪØ§": 9527, "ĠØ¶ÙĬÙĤØ§": 8336, "ÙĥØ¨Ø±ÙĬÙĨ": 9245, "ĠÙĬØµÙĦÙĬ": 8778, "Ø±Ø§Ø¦": 2836, "ĠØ¹Ø¯ÙĪØ§": 1949, "ĠÙģØ³Ø¬Ø¯ÙĪØ§": 4321, "ĠØ¹Ø³": 5744, "ĠÙĪØ§ØŃØ¯Ø©": 1170, "ĠØªÙĨØ²ÙĦ": 2993, "ĠØ§ÙĦØ°ÙĥØ±": 1248, "ĠØ¢ÙĦÙĩØªÙĥÙħ": 5276, "ĠÙĥØ°Ø¨Øª": 1823, "ĠÙĪØ§ÙĦÙĦØ§ØªÙĬ": 7609, "Ø·ÙĬÙĨ": 7684, "ØºØ¶Ø§Ø¡": 4093, "Ø§Ø¶": 1222, "ĠØ¨Ø§ÙĦØŃÙĥÙħØ©": 7856, "ÙĪØ±Ø©": 1885, "ĠØ±Ø¯Ø¯ÙĨØ§": 9566, "ĠÙħØ³Ø®Ø±Ø§Øª": 6316, "ĠÙĬØ¹Ø¸Ùħ": 8384, "ĠÙģÙĦÙħØ§": 498, "ĠÙĬØ¹ÙĦÙħÙĪØ§": 4247, "ĠÙĦÙĦØºÙĬØ¨": 10122, "ÙħØ±Ø§": 3422, "ĠØ¨Ø°ÙĥØ±": 4705, "ĠØ¨ÙħØµØ§Ø¨": 8916, "ĠÙħÙĦØªØŃØ¯Ø§": 9806, "ĠÙĪØ¸ÙĦÙħÙĪØ§": 7165, "ÙĩØªØ¯ÙĪÙĨ": 1339, "ĠØ£ÙĤØ±Ø¨": 2578, "ĠÙĬØ¤Ø®Ø°": 5182, "ĠÙĨØªÙĦ": 4061, "ĠØªØ¬Ø¯ÙĪÙĩ": 9291, "ĠØ§ÙĦÙĥÙĦÙħ": 4954, "ÙģØ¶ÙĪØ§": 5728, "ĠÙģØ£ÙĩÙĦÙĥÙĨØ§ÙĩÙħ": 6897, "ĠØ¹Ø§ÙĦÙħÙĬÙĨ": 7438, "ĠÙĪÙĨØ§": 2285, "ĠØ¹ÙĦÙĬÙĩÙħ": 274, "Ø¦ÙĩÙĨ": 7703, "ĠÙĪØ£ØŃØ§Ø·": 9658, "ĠØªØ´ÙĩØ¯": 6482, "ĠÙĪØ¨ÙĬÙĨÙĩÙħ": 3790, "ĠÙģØ²ÙĬÙĨ": 7283, "ĠÙĪÙĬØ±Ø³ÙĦ": 5318, "ĠØªÙĪØ¹Ø¯ÙĪÙĨ": 2158, "ÙĪØ¡ÙĪØ§": 8742, "ØµÙĬØª": 4772, "ÙĦÙĬÙĨ": 591, "ĠÙģØ¶ÙĦ": 1042, "ĠÙĬÙĤØ±Ø¶": 8734, "ĠØ£Ø£": 1553, "ĠØ¢ÙĪÙĪØ§": 7712, "ĠØ§ÙĦØ¹ÙĦÙĬ": 3210, "ĠÙĪØ£Ø·ÙĩØ±": 7724, "ĠØªØ¨ØªØ¦Ø³": 9529, "ĠÙģÙĥÙģØ±ÙĪØ§": 6381, "ĠØ´ÙĤÙĬØ§": 5933, "ĠÙĬÙħÙĬÙĨÙĥ": 6999, "ĠÙĦÙĦØªÙĤÙĪÙī": 4991, "ĠÙĥØ§": 3141, "ĠØ§ÙĦØ¨Ø´Ø±Ùī": 6336, "ĠØ§ÙĦØµØ§Ø¯ÙĤÙĬÙĨ": 1720, "Ø²Ùī": 2202, "ĠÙĤØ±ÙĨ": 4449, "ÙħØ¹ÙĪØ§": 8301, "ĠØ¥Ø°": 337, "ĠØ£ØªØ§Ùĥ": 3836, "ÙĪØ©": 860, "ÙĬØ³": 3423, "ØªØ¨ØªÙħ": 6413, "ĠÙĪØ±ØŃÙħØ©": 1336, "Ø¨ÙĪØ§Ø¨": 7191, "ĠØ·Ø±ÙĬÙĤ": 8273, "ĠÙħØ³ÙĦÙħÙĬÙĨ": 2806, "Ø§ÙħØ³Ø©": 7076, "ĠÙħÙĬÙĤØ§Øª": 4628, "Ø§Ø±Ø¹Ø©": 4152, "ĠÙĪÙģÙĬÙĥÙħ": 8958, "ĠÙħØ¢Ø¨": 3883, "ĠÙĦØ³ÙħÙĬØ¹": 7317, "ĠØ§Ø¯Ø®ÙĦÙĪÙĩØ§": 8944, "ĠÙĪØ§ØŃØ¯Ø§": 4355, "ĠÙĬØªØ¨Ø¹": 2947, "ĠÙħÙĥØ±Ø§": 5222, "ĠØ§Ø°ÙĩØ¨ÙĪØ§": 8015, "ĠØ«Ùħ": 188, "ĠÙĨØªØ±Ø¨Øµ": 9704, "ĠØ¬Ø¦": 1194, "ĠØ£ÙĦÙĨ": 6744, "ĠØ³ÙĪØ¢": 4526, "ĠØªØ¹Ø¶ÙĦÙĪÙĩÙĨ": 8537, "ĠÙħÙĬØ«Ø§ÙĤ": 1604, "ĠÙĪÙĪ": 1343, "ÙģØ§Ø±": 989, "ĠØ§ÙĨÙĤÙĦØ¨": 6473, "ĠÙĪØ¥ÙĦØ§": 7822, "ĠÙĦÙĨÙģØª": 8373, "ĠØªØ§ÙĦÙĦÙĩ": 2874, "ĠØªØ£ÙĥÙĦ": 3363, "ĠØ§ÙĦØŃÙħÙĬÙħ": 4379, "ĠÙĪÙĬÙĪÙĨØ³": 7904, "ÙĬØ³Ùī": 1270, "ĠÙĪØ§ÙĦÙĨØ§": 2478, "ĠÙģØ°Ø±ÙĩÙħ": 3473, "ĠÙĪÙħÙĤ": 8431, "ĠØŃÙĬ": 4850, "ĠÙĪØ£Ø·ÙĬØ¹ÙĪÙĨ": 2337, "ĠÙĦØ°Ø©": 9811, "Ø±Ø§Ùĩ": 2083, "ĠÙħØ¨Ø¹ÙĪØ«ÙĪÙĨ": 7215, "ĠØ³Ø¨ØŃ": 887, "ØªØ§Ø¨ÙĪØ§": 6091, "ĠÙĥØ£ÙĨ": 1313, "Ø·ÙģÙī": 7688, "ĠØ¨ÙĩØ§": 569, "ØªÙĥ": 838, "ØµØ§ÙĦ": 2471, "ĠÙĦØ¯ÙĨ": 9045, "ĠÙĬØ´Ø£": 2952, "ĠÙħØ±ÙĤÙĪÙħ": 8506, "ĠÙĪØ§ÙĦÙģÙĪØ§ØŃØ´": 10234, "ĠÙĪÙģØ¶ÙĦ": 5340, "ĠØ¨Ø°ÙĨÙĪØ¨": 5398, "ĠØ¨Ø£Ø³": 1333, "Ø¬Ø¹": 795, "ĠÙħØ¹Ø§Ø¬Ø²ÙĬÙĨ": 7063, "ĠÙĦÙĬØ¯ØŃØ¶ÙĪØ§": 9751, "ĠÙĬØ¯ÙĬ": 2386, "ĠØ¢Ø¨Ø§Ø¦ÙĩÙħ": 6521, "ÙĨØ¨ÙĬ": 7083, "ĠÙĪØ¹ÙĦÙĬÙĩ": 8362, "Ø±Ø§Ø¯ÙĪØ§": 7832, "ĠÙĥØ±Ø©": 5239, "Ø¨Ø±": 245, "ĠÙĬØ²ÙĥÙī": 9049, "ĠØ£Ø¨ØµØ§Ø±": 2018, "ĠÙĬØ¤Ø§Ø®Ø°": 3321, "ĠÙĪØ§ÙĦÙħØ³ØªØ¶Ø¹ÙģÙĬÙĨ": 8635, "ØªØ¨ÙĪÙĨ": 3001, "ĠØŃÙĨÙģØ§Ø¡": 7763, "ĠØ°Ø§Øª": 1711, "ĠÙĥØ°Ø¨Ø§": 1899, "ÙĥÙĦØ§": 7168, "ĠØ¬Ø¹ÙĦÙĨØ§": 851, "ĠØ®Ø·Ø§ÙĬØ§ÙĥÙħ": 10172, "ÙĪØ±": 208, "ÙĩØ¯": 191, "ÙĥØª": 2288, "Ø§Ø¤ÙĥÙħ": 1669, "ØŃÙĩØ§": 4002, "Ø¦Ø§Ø¡": 5867, "ĠØªÙħÙĨÙĪØ§": 7488, "ĠÙĪØ§Ø³Øª": 996, "ĠÙĪØ¢Ø®Ø±ÙĬÙĨ": 6881, "Ø§ÙĤØ¨": 8488, "ĠÙĪØ§Ø¯": 1755, "ĠÙĥÙĪÙĥØ¨Ø§": 10070, "ĠÙģØ£ØªÙĨØ§": 6011, "ĠØ¨Ø±ÙĩØ§ÙĨ": 6877, "ĠÙĬØ³ØªÙĤØ¯ÙħÙĪÙĨ": 6282, "ĠØªÙĤ": 578, "ĠØ¨Ø§ÙĦØ£": 1970, "ĠØ§ÙĦØ£Ø¹ÙĦÙĪÙĨ": 7815, "ĠØªÙģÙĦØŃÙĪÙĨ": 2408, "Ø¯Ø§ÙĩÙħØ§": 3663, "ĠØ¹Ø±ÙĪØ´ÙĩØ§": 6920, "ĠÙĨØ³Ø§Ø¡ÙĥÙħ": 6455, "ĠØ§ÙĦØ¢": 1928, "Ø³Ø§ÙĨØ§": 2789, "ĠÙĪÙħØ«ÙĦÙĩ": 6272, "©": 11, "ĠÙģÙĬÙħ": 5790, "ĠØ¨Ø±Ø¨ÙĬ": 5223, "ĠØ´ÙĬØ¡": 305, "ĠÙħÙĤØªØ§": 6804, "ĠÙĪÙģØ±ØŃÙĪØ§": 9346, "ĠØ£ÙħÙĦÙĥ": 4153, "ĠØ£Ø·Ø¹": 5643, "ĠÙħÙĨØª": 3511, "Ø´ÙĤØª": 5826, "ĠÙĪØªÙĨØŃØªÙĪÙĨ": 9877, "ĠØ£ØµØ§Ø¨": 1233, "ĠÙĪØªÙĤØ·Ø¹ÙĪØ§": 8160, "ĠÙĪØ±Ø§Ø¡": 2118, "Ø§ØŃØ¨": 4443, "Ø§ÙĨÙĪØ§": 5822, "ĠÙĦÙĬØ¨ÙĦÙĪÙĥÙħ": 4944, "ĠØ£ÙĪÙģÙī": 5974, "ĠÙģØ¦Ø©": 3108, "ĠÙĬØ¹Ø¯": 1941, "ĠØ¹Ø§ÙĩØ¯": 3132, "ĠØ§Ø¶Ø·Ø±": 4539, "ĠÙħÙĦØªÙĩÙħ": 9509, "ĠØŃÙĦÙĬÙħ": 2496, "ĠØ¨Ø¹Ø«": 1889, "ØŃØ´Ø±": 4003, "ĠÙĬÙĥÙģØ±": 1123, "ĠÙĪØ¹ØµÙĬÙĩÙħ": 10133, "ĠØ®Ø¨Ø§ÙĦ": 7786, "ĠÙħØ¹Ø±ÙĪØ´": 8105, "ĠÙĪÙĤÙĪØ¯": 6027, "ĠØ°ÙĪ": 1070, "ĠÙĥØ¨ÙĬØ±": 1951, "ĠÙĪÙĨØ¬": 5027, "ĠÙĬØ²ÙĬØ¯": 3799, "ÙģØ§Ø¹Ø©": 2383, "ĠØ¯ÙĬØ§Ø±": 1979, "ĠÙĬØ³ØªØ¹Ø¬ÙĦÙĪÙĨ": 5097, "ĠÙĬÙħØ³Ø³Ùĥ": 6681, "Ø¬Ø§Ø©": 9457, "ĠÙĪØ¬Ø¹ÙĦÙĨÙĬ": 5242, "ÙĪØ§ÙĥÙħ": 4698, "ĠØ£ØªØ±ÙĬØ¯ÙĪÙĨ": 9792, "Ø§Ø±Ùĩ": 5997, "ĠØ¹Ø¨Ø¯Ùĩ": 3819, "Ø°Ø±ÙĪÙĨ": 1691, "ĠÙĪØŃØ¯Ùĩ": 3758, "Ø®Ø·": 5796, "ĠØªØ¹Ø¯ÙĦÙĪØ§": 5438, "ĠÙĪØ§Ø¨ÙĨ": 3041, "ÙĤÙĪÙĦÙĪØ§": 4197, "ĠØ®Ø¨Ø±Ø§": 7784, "ÙĨØª": 433, "ĠÙĪØªØ¨": 6138, "ĠØ¨Ø§ÙĦØµØ¯ÙĤ": 7855, "ĠØºÙģØ±": 8037, "Ø¯ÙĩÙħ": 1761, "ĠØªØ´ØªÙĩ": 8832, "ĠÙģØ¬Ø¹ÙĦÙĨØ§Ùĩ": 6802, "ĠØ£Ø±Ø¶": 1555, "ĠØ§Ø¨ÙĨÙĪØ§": 9041, "ĠÙģØ£Ø®ÙĦÙģ": 7949, "ĠÙĪØ§ÙĦÙģØ±ÙĤØ§ÙĨ": 10231, "ĠÙģØ³Ø¨ØŃØ§ÙĨ": 6808, "ĠÙĦØ¨Ø«ÙĪØ§": 5251, "ĠØªØ¯": 674, "ĠÙģØ§Øµ": 1688, "ĠÙĪØ§ÙĦØ±": 4055, "ĠØ¬Ø§Ø¡ÙĪÙĥ": 4226, "ĠÙĪØ¹ÙĬÙĪÙĨ": 2967, "ĠÙĬÙģØµÙĦ": 4339, "ĠÙĪØ±Ø¨ÙĨØ§": 6554, "ĠØ¹Ø°Ø±Ø§": 7452, "ĠØ£": 61, "ĠØªÙĪÙģ": 2664, "ĠØ§ÙĦØ£ÙĨØ¨Ø§Ø¡": 8687, "ĠÙĨØ¹": 2480, "ĠØ§ÙĦØ°ÙĬ": 243, "ĠØ£Ø¨Ø¹Ø«": 7241, "ĠÙĬØ¨ØºÙĪÙĨ": 4369, "ĠØ§ÙĦÙħÙĪÙĦÙī": 5893, "ĠØ§ÙĦÙĤØ¯Ø±": 6798, "ĠÙħØ³ÙĥÙĬÙĨ": 8516, "ÙĩØ§Ø¯": 1860, "Ø¨Ø±ÙĬÙĨ": 2530, "ĠÙĤØ¯Ø±": 2232, "Ø¨Ø«": 3085, "ĠÙĪÙĤØ·Ø¹": 7974, "ĠÙģØ£ÙĨØ°Ø±": 8905, "Ø§Ø¤Ùĩ": 3763, "ĠÙĪØ±Ø¨Øª": 8968, "ĠØ£Ø®Ø°ØªÙĩ": 8979, "ĠÙĬØ¹Ø±Ø´ÙĪÙĨ": 10300, "ĠØ§ÙĦØ³ÙħÙĬØ¹": 1580, "ĠØ§ÙĦÙĬÙĪÙħ": 915, "ÙĬØ§Ø¨": 2437, "ĠØ£Ø±Ø³ÙĦÙĨØ§Ùĥ": 2249, "ĠÙĪÙĦÙĦÙħ": 4123, "ĠØªØ¨Ø¯ÙĪÙĨ": 4743, "ĠÙĬÙĥØ³Ø¨ÙĪÙĨ": 1999, "ĠØ¨Ø§ÙĦÙĨØ§Ø³": 5965, "ĠØ§Ø³ØªÙĩØ²Ø¦": 5128, "ÙĨØ²ÙĬØ±": 4578, "ĠØªØ°Ø±ÙĨ": 9700, "ĠØ²Ø§ØºØª": 10008, "ĠØ¯ÙĪÙĨ": 379, "ĠÙģÙĦÙĬØªÙĪÙĥÙĦ": 2788, "ĠØ£Ø¦ÙħØ©": 4532, "ĠØªØ®ØªÙĦÙģÙĪÙĨ": 3744, "ĠÙĪÙĥØªØ§Ø¨": 6068, "ĠÙģØ¢ÙħÙĨØ§": 9157, "ĠØ¢Ø¨Ø§Ø¡ÙĨØ§": 2581, "ĠØ£ÙģØ±": 1935, "ĠØ¢ÙĬØ©": 843, "ÙĬØªØ§": 2044, "ĠØ§ÙĦÙĤØ±ÙĪÙĨ": 2521, "ĠØ§ÙĦÙĤØ±ÙĬØ©": 2522, "ĠØ¨Ø±ØŃÙħØ©": 3338, "ĠØ§ÙĦØ³ÙħØ¹": 2350, "ĠØ§ÙĦØŃÙħÙĬØ¯": 2585, "ĠØ£Ø´Ø±ÙĥÙĪØ§": 2269, "ĠÙģØ¶": 781, "ĠÙĪØ¯Ø§": 4611, "ÙĤØ§Ø¨": 1066, "ĠÙĬØ¶ÙĦÙĦ": 2261, "ĠÙĪÙĦÙĩÙħ": 888, "ĠØ§ÙĦØ±ÙĬØ§ØŃ": 2509, "ĠÙĨØ¸Ø±": 4802, "ØŃÙĥÙħØ©": 6531, "ĠØ§ÙĦ": 54, "ĠÙħØª": 709, "ĠÙĩÙħØ§": 7645, "ĠØ³ÙĤÙĬÙħ": 7666, "Ø³ÙħÙĬÙĨ": 8076, "ĠÙĬØµØ¯ÙģÙĪÙĨ": 6777, "Ø²ÙĦÙĨØ§": 660, "ĠØ§ÙĦØ±ÙĪØŃ": 4142, "ĠÙĥØªØ¨": 1221, "ĠØ§ÙĦÙħØ´Ø±ÙĥÙĬÙĨ": 1321, "ĠÙĪØ£ÙĤØ³ÙħÙĪØ§": 5324, "ØµÙĬØ©": 4771, "ĠØ§ÙĦÙħØ±": 5886, "ĠÙĦØ¹Ùħ": 7299, "ĠØ£Ø¹ÙĬÙĨÙĥÙħ": 9403, "ĠØ§ÙĦØ¹Ø¯Ø§ÙĪØ©": 5535, "ĠØ§Ø·": 4575, "ĠØ¶Ø±": 2746, "ÙĪØ±Ø§": 434, "¯": 16, "ĠØ³ÙĨÙĥØªØ¨": 10245, "ĠÙĪØ·": 1385, "ĠØ§ÙĦÙħØªÙĤÙĪÙĨ": 3849, "ĠØ£ÙĨØ¨": 5828, "ĠÙĪÙģØ±": 1754, "Ø¢Ùĩ": 7841, "ĠØ¬Ø§Ø¡Ùĥ": 2375, "ĠØ§ÙĦØªØ§Ø¨ÙĪØª": 10034, "ĠØ§ÙĦØ£ØŃØ²Ø§Ø¨": 2501, "ĠÙĬØ³ÙĬØ±Ø§": 3292, "ĠÙĥÙĬØ¯ÙĬ": 9255, "ĠØ¨Ø§ÙĦØºØ©": 9168, "ĠÙĪØ¶Ø§ÙĤØª": 10186, "ĠØ£Ø¬Ø¹ÙĦ": 6254, "ĠØ§ÙĦÙħÙĦØ¥": 7747, "ĠÙħØ±ØªÙģÙĤØ§": 8507, "ĠÙĪØ§Ø³Ø¬Ø¯": 9170, "ĠÙĦÙĦÙħØ¬Ø±ÙħÙĬÙĨ": 8693, "ĠØ´ÙĬØ·Ø§ÙĨØ§": 8058, "ĠÙĪØ§ÙĦÙģÙĦÙĥ": 9647, "ĠØ¬ÙĩÙĨÙħ": 622, "ĠÙĪÙĤØ§ØªÙĦÙĪÙĩÙħ": 7979, "ĠØ§Ø³ÙħÙĩ": 4461, "ĠÙĬÙĤØ±Ø¡ÙĪÙĨ": 8738, "ĠØ§ÙĦØºØ§ÙĦØ¨ÙĪÙĨ": 4536, "ĠØ§Ø³ØªÙĪÙī": 2767, "ĠØ¢ØªÙĬØª": 9143, "ĠØ¨Ø¬": 1772, "ĠÙĪØ£Ø¯Ø®": 6926, "ĠÙĪÙĥØªØ¨": 4183, "ĠÙĪØªÙĨØ°Ø±": 8155, "ĠØ¨Ø§ÙĦØ¨Ø´Ø±Ùī": 9318, "ĠÙĬÙĨÙģÙĤ": 4208, "ĠÙħÙĦÙĥÙĩ": 6458, "Ø§ÙģØ±ÙĪÙĨ": 1015, "ØµØ¨ØŃ": 4774, "ĠÙħØ³ØªÙĩ": 8745, "ÙĥØ±ÙĬØ§": 3211, "ĠÙħØ¹Ø¯ÙĪØ¯Ø§Øª": 7035, "ĠØ¥Ø³": 7381, "ĠØ£ÙĪÙĦÙĬØ§Ø¡": 1018, "Ø§Ø«Ø§": 6623, "ĠÙĪØ¢ØªÙĪØ§": 1901, "ĠÙĦÙĦØ®ÙĬØ±": 8144, "ÙĬÙħÙĬÙĨ": 1457, "ĠØµØ¯": 637, "Ø¬ÙĪØ±Ø§": 5773, "²Ø¯Ø§Ø¯ÙĪØ§": 7071, "ĠØ§ÙĦØ¬Ø¨Ø§ÙĦ": 1332, "ĠØ®Ø§ÙĦØµØ©": 5162, "Ø¯Ø¹ÙĪÙĩÙħ": 6746, "ĠÙĪØ§ÙĦØ£ÙĪÙĦÙī": 6143, "ĠØªÙĪØ§Ø¨": 7481, "Ø¬Ø§Ø¯ÙĦ": 7507, "ÙĪØªÙĥ": 5091, "Ø¨Ø±Ø¦": 8081, "ĠÙĪØ·Ø±Ø§": 9191, "ĠØªØªÙĤÙĪØ§": 8531, "ĠØªØ¸Ø§ÙĩØ±ÙĪÙĨ": 9766, "ĠÙħÙĩØ§": 5626, "ĠÙħÙĨØ§Ø²": 7429, "ĠÙĪØ¹Ø¸Ø§ÙħØ§": 4259, "ĠÙħÙĬØ«": 1387, "ĠØŃØ³Ø§Ø¨Ø§": 5200, "ĠÙĪØ³Ø§Ø¡": 6386, "ÙĩÙĪØ¯": 2226, "ĠØ¹Ø¯Ø¯Ø§": 6468, "ĠØ£Ø±Ø°ÙĦ": 8776, "ĠÙĪØ§Ø¬ØªÙĨØ¨ÙĪØ§": 9723, "ĠØ§ÙĦØºØ±Ùģ": 8523, "ĠØ§ÙĦØ£Ø±Ø¶": 229, "ĠØ¨Ø§ÙĦØºØ¯Ø§Ø©": 9169, "ĠØ§ÙĦØ¹ÙĦÙī": 7958, "ĠØ¹ÙĤØ¨ÙĬÙĩ": 6889, "ÙĤØ§Ùħ": 1474, "ĠÙĬØªÙĦÙĪ": 3243, "ĠÙĪÙĥÙģØ±Ø§": 5430, "ĠØªÙĤØ§": 7474, "ĠØµØ¨Ø±ÙĨØ§": 9717, "ĠÙĦØ´Ø±Ùĥ": 7306, "ÙģØ³ÙĩÙħ": 1582, "ĠÙĪØ¬ÙĨÙĪØ¯ÙĩÙħØ§": 10167, "Ø®ÙĪØ§ÙĨ": 9183, "ĠØ§ÙĦÙħÙĨÙĥØ±": 2587, "ĠÙĨÙĤÙĬØ±Ø§": 9459, "ĠÙĪÙĬØ®Ø±Ø¬": 4139, "ØµÙĬØ±": 608, "ĠÙģØ¨Ø´Ø±": 3740, "ĠØ¨Ø§ÙĦØºØ¯ÙĪ": 6640, "Ø§ØªÙĦÙĪÙĨ": 2078, "ĠØ§ÙĦÙĩÙĪÙĨ": 5588, "ĠØªØ®Ùģ": 2131, "ĥ": 34, "ĠÙħÙĨÙĥØ±ÙĪÙĨ": 4012, "ÙĪÙĨ": 74, "ĠÙģØªØŃØ±ÙĬØ±": 6227, "Ø´ÙĩØ¯": 4788, "ĠØªØ¨Ø®Ø³ÙĪØ§": 6544, "ĠØ±Øº": 4777, "ĠØ£ÙģØ±Øº": 6759, "ĠÙĬØ¶Ø±ÙĪØ§": 6747, "Ø³Ø³ÙĪØ§": 7264, "ĠØ¨Ø¯ÙĦÙĪØ§": 9204, "ĠÙĬØ¨Ø¯Ø£": 3818, "ĠÙħØ§ØªÙĪØ§": 5635, "ÙĬÙĤÙĬÙĨ": 4587, "ĠÙĨØ¤ØªÙĬÙĩ": 9607, "ĠÙĦØ¹Ø¨Ø§Ø¯ÙĬ": 9731, "Ø¨Ø§Ø¡": 2176, "ĠØ£ØŃØ³ÙĨ": 981, "ÙĨØ³": 455, "ĠÙĥØ§Ø¯ÙĪØ§": 4755, "ĠØªØ³Ø¹Ø©": 8827, "ĠÙĩØ§Ø¬Ø±ÙĪØ§": 4433, "ĠØ§ÙĦÙĪØ§": 1753, "ĠØ§ÙĦÙģØ±ÙĤØ§ÙĨ": 5406, "ĠØ§ÙĦØ³ÙĬØ¦Ø§Øª": 2035, "ĠÙĪØŃÙĤØª": 8819, "ĠØ³Ø¨ÙĬÙĦØ§": 1166, "Ø°Ø±ÙĥÙħ": 2970, "ĠÙģÙĬØ¶Ø§Ø¹Ùģ": 7542, "ĠØ§ÙĦÙħØŃØ¶Ø±ÙĬÙĨ": 10083, "ĠÙĦÙĨ": 369, "ØŃØ¯Ø§": 7404, "ĠÙĪØ¹Ø¯ÙĩØ§": 8691, "ĠØ³Ø§Ø¨ÙĤ": 9774, "ĠÙģÙĦ": 303, "ĠØ§ÙĦØ¢ÙĬØ§Øª": 1102, "ĠØ¨Ø·Ø´": 5287, "ĠØªØ±ÙĪÙĨÙĩØ§": 6923, "ĠØ§ÙĦÙĩØ¯ÙĬ": 4602, "ĠÙĪÙĥÙĦÙħ": 4950, "ĠÙĬØŃØ±ÙģÙĪÙĨ": 6148, "ĠØ¢ÙĬØ§ØªÙĥ": 6269, "ĠÙĪØ§ÙĦÙħØ³ÙĥÙĬÙĨ": 9361, "ĠØ¨Ø§ÙĦÙĨÙĩØ§Ø±": 9860, "ĠØ£ÙĪØ±Ø«ØªÙħÙĪÙĩØ§": 10095, "ÙĪÙĥ": 481, "ĠØ§Ø´Øª": 5347, "ĠØ¹Ø§ÙĩØ¯ØªÙħ": 5486, "ĠÙĬÙģÙĦØŃ": 2778, "ĠØ¥": 73, "Ø³ÙĦÙħ": 3469, "ĠÙĪØ°Ø±": 7147, "ØŃØ±ÙĬØ±": 5098, "Ø£ÙĨØ³": 7419, "ĠØŃØ§Ø³": 7757, "ĠÙĬÙĦÙħ": 7319, "ĠØ§ÙĦØ¸": 421, "ĠØ¢ÙĦØ§Ø¡": 1048, "ĠØ£ÙĪÙħÙĨ": 7867, "ĠÙģØ£ÙĨØ¨Ø¦ÙĥÙħ": 8906, "ĠÙĦØ£ÙĨ": 2008, "ĠØªØ³ÙħØ¹": 2196, "ĠÙħØ³Øª": 664, "ĠØ¢ÙħÙĨÙĬÙĨ": 3226, "ĠØ°ÙħØ©": 7859, "ĠÙĤØ±ÙĬ": 805, "ĠÙĥØ£": 1696, "ĠÙĬÙħØ³ÙĨØ§": 9247, "Ø±ÙģÙĪÙĨ": 2247, "ĠØ¬Ø¦ØªÙĨØ§": 9093, "ØºÙī": 2340, "ĠÙĪØ£Ø·Ø¹ÙħÙĪØ§": 9962, "Ø§Ùĩ": 762, "ĠÙĬÙĦÙĤ": 1767, "ĠÙģÙĥØ°Ø¨ÙĪØ§": 9338, "Ø§ÙĦØŃÙĬÙĨ": 5073, "Ø¯ÙĩÙĨ": 3956, "ĠÙģØ§Ø³ØªÙħØ¹ÙĪØ§": 8989, "ĠÙĦØ±Ø¨": 1765, "ĠØ±Ø§Ø¨Ø¹ÙĩÙħ": 9951, "ĠØ§ÙĦØ£Ø±Ø§Ø¦": 4117, "ĠÙģØ²Ø§Ø¯ØªÙĩÙħ": 9913, "ĠÙĪÙĤÙĪÙħÙĩ": 3373, "ĠØªÙĩØª": 4742, "ĠØ§ÙĤØªÙĦÙĪØ§": 6063, "ĠØ§ÙĦÙħØ±Ùģ": 7738, "Ø¨ØªÙĨØ§": 2996, "ĠØ¶Ø±Ø§Ø±Ø§": 8338, "ĠØ¯Ø§Ø¨Ø±": 5353, "ĠØªØ¯ÙħÙĬØ±Ø§": 8760, "ĠØ§Ø¹Øª": 2357, "Ø¶ØªÙħ": 5812, "ĠÙĪÙĬØ®": 2507, "ĠØŃØ³Ø¨ÙĩÙħ": 9297, "ØŃÙĦÙģÙĪÙĨ": 7413, "ĠÙģØ£ÙħØ§": 1367, "ĠÙĦÙĦØ°ÙĬ": 4990, "ÙĦØªÙĨØ§": 6365, "ĠØ§ÙĦØ¶ÙĦ": 2623, "ĠÙĬØµØ¹Ø¯": 8779, "ĠØ±Ø§ÙĪØ¯ØªÙĩ": 9911, "ĠØ¢ØªÙĬÙĨØ§Ùĥ": 8893, "ĠØ°ÙĦÙĥÙħ": 877, "ĠØªÙģØ³Ø¯ÙĪØ§": 5487, "ĠØªØ¨ØªØºÙĪØ§": 9530, "ĠØ§ÙĦØ¨Ø¹ÙĬØ¯": 5593, "ĠØ§ÙĦÙĪØ«ÙĤÙī": 9244, "ĠÙĪØªØ¹Ø§ÙĦÙī": 3249, "ĠØ¯Ø§ÙģØ¹": 7937, "ĠØ¸ÙĩØ±Ùĩ": 9618, "ĠÙģÙĦÙĨÙģØ³Ùĩ": 5260, "ĠÙĬÙĦØ¬": 6948, "ĠØ¹ÙĨØ¯ÙĩÙħ": 3257, "ĠØ£Ø±Ø£ÙĬØªÙħ": 2020, "ĠØªØ¹Øª": 3296, "ĠØ·Ø§Øº": 5036, "ĠØ¢Ø¨Ø§Ø¦ÙĥÙħ": 5236, "ĠÙĨØµØ¨": 5218, "ĠÙĬØ®Ø±Ø¬ÙĥÙħ": 6556, "ĠØ£Ø¹ÙĬØ¯ÙĪØ§": 8606, "ÙĨØ°Ø±": 2165, "ĠÙģØªÙĥÙĪÙĨ": 2547, "ĠÙģØ£ÙĪØŃ": 4157, "ĠØ£Ø¹Ø¯": 1760, "Ø§Ø¡ÙĪØ§": 3568, "ĠÙģÙĬÙĨØ¨Ø¦ÙĥÙħ": 3376, "ĠØ±Ø´Ø¯Ø§": 3411, "ĠÙĪÙĥÙĦÙĪØ§": 4180, "ĠÙĤØ·": 4757, "ĠØ¨ÙĨØ¨Ø¥": 9180, "ÙĥÙħ": 88, "ÙĪØ§Ø±ÙĬ": 3117, "Ø°ÙĩØ¨ÙĪØ§": 3732, "ĠÙĬØ£Ø¨": 8296, "ĠÙĥÙģÙĪØ±": 4031, "ĠØ§ÙĦØ¹ØªÙĬ": 7961, "ĠØ¸ÙĦÙħØª": 6443, "ĠÙĪØ£Ø¯": 3569, "ĠÙĪÙĦÙĬØ¹ÙĦÙħÙĨ": 6337, "Ø§Ø¹": 2611, "ĠØ§ÙĦØ£Ø¨Ø±Ø§Ø±": 4118, "ÙĪÙĬÙĩ": 5575, "ØŃØ¨Ø·": 4007, "ĠØ³Øª": 3561, "ĠÙħØ¹ÙĬ": 1989, "ĠÙħØ¨Ø§Ø±Ùĥ": 3094, "ĠØ£Ø¨ÙĦØºØªÙĥÙħ": 6863, "ĠÙĦÙħÙĨ": 510, "ĠÙĪØ§ÙĦØ£ÙĨ": 1890, "ĠØ¨Ø§ÙĦÙĬÙĪÙħ": 7850, "ĠØ§ÙĦØ³ÙĪØ¡": 1972, "ĠÙħÙĩ": 2627, "ĠØ§ÙĩØªØ¯ÙĪØ§": 5389, "ÙħØ§Ùħ": 2870, "ĠÙĤÙħ": 5784, "ĠØªØµØ±ÙģÙĪÙĨ": 7499, "ĠÙĥØªØ§Ø¨": 635, "ÙĬÙĥÙħ": 880, "ĠØ§ÙĦØ®Ø§Ø¦ÙĨÙĬÙĨ": 8424, "Ø³Ø±Ø©": 2540, "ĠØ¬ÙĨØ§ØŃ": 1140, "ĠØ³ÙĪÙĬ": 7669, "ĠØ§ÙĦØºØ§ÙģÙĦÙĪÙĨ": 8526, "ĠØ¶ÙĬÙģ": 6229, "Ø´ÙģÙĨØ§": 3368, "ĠÙĬØ³ØªÙĥØ¨Ø±ÙĪÙĨ": 3288, "ĠÙĪÙĤØ±Ø¢ÙĨ": 4931, "ĠÙĦÙĪØ·Ø§": 5116, "ĠØ§ÙĦØµØŃÙģ": 6099, "ĠÙĬÙĪØµ": 8674, "ĠÙĬÙĨÙģØ¹": 1469, "ĠÙħØ§Ø¦ØªÙĬÙĨ": 9470, "ĠÙĦÙĤÙĪÙĬ": 6322, "ĠØŃÙĪÙĦÙĥÙħ": 9709, "ĠÙĥØªØ§Ø¨ÙĬÙĩ": 8715, "ĠÙĪÙħÙĬ": 7145, "ĠÙĪØ¢ØªÙĬÙĨØ§": 1482, "ÙĩÙī": 3077, "ĠØ³Ø§Ùģ": 7662, "ĠÙħØªØ§Ø¹ÙĨØ§": 9111, "ÙĪØ¬ÙĬÙĨ": 8684, "ĠØ¨Ø¢": 1558, "ĠÙģØ§ÙĦÙĬÙĪÙħ": 3022, "ĠØ£Ø¬ÙĦÙĩØ§": 6256, "ĠÙħØ±Ø³ÙĦÙĬÙĨ": 9687, "ĠØ³Ø¨ÙĤØª": 3356, "Ø¶Ø¹": 1510, "ĠØ¹Ø¨Ø§Ø¯ÙĨØ§": 2395, "ĠÙĪØ°ÙĦÙĥ": 2051, "ĠÙĪØ¶Ø±Ø¨": 3394, "ĠÙĪØ§ÙĦØ¨ØºÙĬ": 9119, "ĠØ´Ùĥ": 1196, "ĠØ¹Ø¬ÙĬØ¨": 9287, "ØŃÙĬØ§": 2658, "ĠØ¹": 80, "ĠÙħØªÙĨØ§": 3935, "ĠØ§ÙĦØŃØ§ÙĥÙħ": 4154, "ĠØµØ¯ÙĤÙĩÙħ": 8719, "ĠØµØ¯Ø±Ùĥ": 5178, "ĠØ£ÙģØ£ÙħÙĨÙĪØ§": 9465, "Ń": 42, "ĠÙģØ¹ÙĦÙĨ": 9086, "ĠØ´Ø§ÙĥØ±Ø§": 7011, "ĠØ§Ø¬ØªÙĨØ¨ÙĪØ§": 9547, "ĠØ®Ø¶Ø±Ø§": 7795, "ĠÙĦØ¯ÙĬÙĩÙħ": 3357, "Ø¹ÙĨØ§ÙĤ": 9156, "ÙĪÙĦÙī": 847, "ĠÙĤØªÙĦÙĪÙĩ": 9315, "ĠØ³Ø§Ø¨": 3562, "ĠÙĬÙģØ±ØŃÙĪÙĨ": 9476, "ÙģØ§Ùĥ": 8386, "ĠÙĪØ±Ø§": 5598, "Ø®ÙĦØµÙĬÙĨ": 1920, "ĠÙĦÙĦØŃÙĤ": 3246, "ĠÙĥØ§Ø´": 4034, "ĠÙĬØ´ØªØ±ÙĪÙĨ": 5015, "Ø·ÙĩØ±ÙĬÙĨ": 9295, "Ø¯Ø§Ø©": 8198, "ĠÙĬØ¬Ø²ÙĪÙĨ": 6369, "ĠØ£ØªÙĤÙĪÙĦÙĪÙĨ": 6433, "Ø¹ÙħÙĦÙĪÙĨ": 385, "ĠØ§ÙĦØ£ÙĨØ¹Ø§Ùħ": 2017, "ĠÙĨØ¹ÙĦÙħ": 3156, "ĠÙģØ§Ø¯Ø¹": 4497, "Ø±Ø¬ÙĪÙĨ": 8627, "ĠÙĪØ§ÙĦØµØ§Ø¯ÙĤÙĬÙĨ": 9166, "ĠØ§ÙĦÙħØµØ¯ÙĤÙĬÙĨ": 7748, "ĠÙĪØ±ØŃÙħØªÙĩ": 3291, "ĠØ£ÙħÙĨ": 1498, "ĠÙħØ¯ÙĬÙĨ": 2445, "Ø¬Ø§Ø¬": 7505, "ĠÙĨØ±ÙģØ¹": 9606, "ĠØ£Ø³Ø§Ø¡": 8681, "ĠØªØ¤ÙħØ±": 9252, "ĠÙĪØ£Ø²ÙĪØ§Ø¬ÙĥÙħ": 9660, "ĠÙĪØªÙĪÙĦÙī": 3247, "ØªÙĦØ§Ùģ": 3441, "Ø¢Ø®Ø±Ø©": 447, "ĠÙĪÙĤØ§ØªÙĦÙĪØ§": 4164, "ÙĪÙħØ©": 4832, "ĠÙĤØ¨ÙĦÙĬ": 6448, "ĠÙģØ£ÙĪØ¬Ø³": 7956, "Ø²": 102, "ĠÙĥÙģÙĬÙĩ": 7520, "ĠÙĨØ±ÙĬÙĨÙĥ": 4809, "ĠÙĬÙħØ³ÙĥÙĩÙĨ": 9907, "ĠÙĨÙħÙĥÙĨ": 9605, "ĠØ®ÙĬØ§ÙĨ": 7796, "ĠØ³ÙĨØ¯Ø³": 6593, "ĠØªØ³ØªØ¹Ø¬ÙĦ": 8976, "ÙĨØ§ØªÙĩÙħ": 7456, "Ø£Ùĥ": 2191, "ĠÙĪØ£ÙĪÙĦØ§": 3174, "ĠÙĪØ³ÙĪÙģ": 4320, "ĠÙĬØ¨Ø®": 4368, "ØŃØ¨Ø§Ø±": 7409, "ĠØ£ÙĨÙĩÙħØ§": 7583, "ĠÙĬØ¹ÙĬØ¯ÙĥÙħ": 9882, "ĠØ§ÙĨØªÙĤØ§Ùħ": 5499, "Ø²Ø¨": 2682, "Ø®Ø±Ø¬": 367, "Ø²Ø§Ø¡": 5819, "ĠØ¹Ø§ÙĩØ¯ÙĪØ§": 4732, "ĠÙħØ³ÙĨ": 4621, "ĠÙĪØ²ÙĬØ±Ø§": 8871, "ØŃØª": 2462, "ĠÙĪØ§ÙĦØ¨ØŃØ±": 2808, "Ø³Ùī": 302, "ĠØ£Ø¨ÙĨØ§": 6409, "ĠÙĬØ®Ø±Ø¬ÙĪØ§": 3786, "ĠØ¥Ø®": 2458, "Ø¨ÙĬÙĪØªÙĩÙħ": 8026, "Ø£ÙĬØªÙħ": 1418, "ĠØ¥Ø®ÙĪØ©": 5435, "ĠÙħØ¨ÙĬÙĨØ§Øª": 6364, "ĠÙĨÙģØ¹ÙĦ": 6561, "ĠÙĦØ¬Ø¹ÙĦÙĥÙħ": 9935, "Ø¹Ø°Ø¨Ùĩ": 7231, "ĠÙĨØªØ¨Ø¹": 3159, "ĠØªØ®Ø±Ø¬": 1780, "ĠØ§Ø³ØªØ¬Ø§Ø¨": 5126, "ĠÙģØ£ÙĪÙĦÙī": 6012, "ĠØ®Ø·Ø¨ÙĥÙħ": 9373, "ĠØ¹ÙĨÙĩØ§": 1327, "ĠØ³ÙĬØ¦Ø§ØªÙĥÙħ": 4452, "ĠØ£Ø¨ÙĦØºÙĥÙħ": 9633, "ĠØ±Ø£ÙĬ": 3541, "ĠØ§ÙĦØŃØ³ÙĨØ©": 3615, "ĠÙĪØ¨Ø§Ø·ÙĦ": 8483, "ĠÙĪÙĬØŃØ°Ø±ÙĥÙħ": 9397, "ĠØ´Ø§ÙĤÙĪØ§": 9714, "ĠÙĪØ³": 562, "ĠÙĪØ§ÙĦØ¥ÙĨØ¬ÙĬÙĦ": 3038, "ĠØ®Ø§Ø·": 4865, "ĠÙĬØ¹ÙĦÙħ": 335, "ĠÙĤÙĪÙħÙĩÙħ": 3256, "ĠØ¬Ø¹ÙĦÙĪØ§": 6485, "ĠØ®ÙĦÙĬÙĦØ§": 5922, "ĠØªØ³ÙĦÙĬÙħØ§": 8830, "ĠÙĪØ§ÙĦØ²": 4057, "ĠØ§ØµØ·Ùģ": 9437, "ĠØ¬Ø²Ø¡Ø§": 8910, "ĠØ±Ø¡ÙĪØ³ÙĥÙħ": 9587, "ĠØ£ÙĩÙĦÙĥÙĨØ§": 1838, "ĠÙĬØºØ±ÙĨÙĥÙħ": 10014, "Ø·ÙĪÙĨ": 2487, "ĠØ¨Ø³ÙĬÙħØ§ÙĩÙħ": 4404, "ĠÙģØ±ØŃ": 8439, "ÙģÙĦ": 2655, "ĠÙģØ®Ø°": 2855, "ĠØ£ØªØ±": 3749, "ĠØµØŃÙģ": 6039, "ÙĨÙĩØ§": 2617, "ĠØ¢ØªØ§ÙĥÙħ": 3821, "ĠØ£Ø¥Ø°Ø§": 2416, "ĠÙĬØ£ØªÙĩÙħ": 6221, "Ø¸ÙĨÙĩ": 7829, "ĠÙĦØ´ÙĬØ¡": 3971, "ĠØ®ÙĦÙĤÙĩÙĨ": 8279, "Ø¯Ø¬Ø±": 7250, "ÙĩÙĦÙĪÙĨ": 3915, "ĠØ¥ÙĬØ§ÙĥÙħ": 9454, "ĠØ¢ÙĦÙĦÙĩ": 9088, "ĠÙĥÙĬØ¯": 1506, "ĠÙĪØ¨Ø´ÙĬØ±": 8484, "ĠØªØ¬Ø¯": 1562, "ĠÙĦÙĦÙħÙĥØ°Ø¨ÙĬÙĨ": 2243, "ĠØ£ÙĨÙģØ³ÙĩÙĨ": 8510, "ĠÙĨØ§Øµ": 1960, "ĠÙģØ³ÙĪÙģ": 1262, "ĠØ£ÙĩÙħ": 4635, "ĠØ§ÙĦØ®": 400, "ĠØ£Ø³Ø±": 2298, "ĠÙĦÙĦØ±Ø¬Ø§ÙĦ": 8145, "ĠÙĪÙĬØ·ÙĪÙģ": 9975, "ĠÙĨØ¹ÙħØªÙĩ": 5219, "ĠÙĬØ¯Ø§": 3481, "ĠÙĪØ£ÙĥÙĨ": 7721, "ĠÙģ": 64, "ĠØ¬Ø²Ø§Ø¤ÙĩÙħ": 4377, "ĠØ£ØªØ£ØªÙĪÙĨ": 6434, "Ø«ÙĪÙĨ": 1572, "ĠØ£ÙģÙĪØ§Ùĩ": 5049, "ØªØ§": 380, "ÙĩØ§Ø¯Ø©": 1508, "ĠÙĪØ¹ÙĬØ¯": 6238, "ĠÙĪØ°Ø±ÙĬØ§Øª": 5407, "ÙĦØ·Ø§ÙĨ": 2281, "ÙĤØªÙĦÙĪØ§": 2117, "ĠÙĪØ§ÙĦÙħÙĦÙĥ": 8632, "ĠÙĪÙĦÙĬØ®": 8548, "ĠÙĪØ±Ø³ÙĦÙĩ": 2240, "Ø¬Ø²ÙĪÙĨ": 5775, "ĠÙĪØ£ÙĪØŃÙĬÙĨØ§": 3064, "ĠÙĪÙĬÙĥÙĪÙĨ": 4899, "ØµØŃÙĬÙĨ": 5805, "ĠØ§ÙĦØ£ÙĦÙĪØ§": 5936, "ĠØŃØ¬Ø±": 7753, "ĠÙĪÙĪÙĩØ¨ÙĨØ§": 3066, "ĠÙĪÙĩÙĬ": 2410, "ĠÙĪÙħØªØ§": 3697, "ĠØ¨Ø§ÙĦÙħÙĨ": 7845, "ĠÙĬØµÙģÙĪÙĨ": 3328, "ĠÙĨØ§Ø¯": 1700, "ĠÙĪØ§ÙĤØªØ±Ø¨": 10284, "ÙĦØ¨ÙĩÙħ": 8585, "Ø¨Ø¹Ø°Ø§Ø¨ÙĨØ§": 8078, "ÙĬÙĨØ§Ùĥ": 7996, "ĠÙĦÙĨØ¨ÙĬ": 6240, "ĠÙĬÙĦØª": 3978, "ĠÙĦØ²Ø§": 7314, "ĠÙĪØ¥ÙĨÙĩØ§": 8034, "ĠØŃÙħÙĦØ§": 8840, "ÙĩØ¯ÙĬ": 565, "ĠÙĬØ³ØªÙĩØ²Ø¦ÙĪÙĨ": 2006, "ĠÙģØ±": 411, "ĠØªØŃØµÙĪÙĩØ§": 9883, "ĠÙģØ°ÙĦÙĥ": 4653, "ĠÙģØ´Ø§Ø±": 7289, "Ø®": 96, "ĠØ³Ø¬ÙĬÙĦ": 6717, "ĠØŃØ³Ø¨ÙĨØ§": 6699, "ĠÙģØ£ØµØ¨ØŃÙĪØ§": 2818, "ĠØ£Ø²ÙĪØ§Ø¬Ø§": 2026, "ĠÙĦÙĦØ¹": 1409, "ĠØ§ÙĦÙĤÙĬÙħ": 4936, "ĠÙĤØ±Ø¨Ø§ÙĨØ§": 9830, "ÙģØ§Ø²": 7400, "ĠÙĪÙĬÙģØ³Ø¯ÙĪÙĨ": 7905, "ĠØªÙĤÙĪÙī": 8676, "Ø±ÙĪØ´": 7125, "ĠØ§ÙĦØ£ÙħØ§": 5934, "ĠØ£Ø³ØªØºÙģØ±": 9807, "ĠÙĥØ³Ø¨ÙĪØ§": 1911, "ÙħØ³ØŃÙĪØ§": 6318, "ĠØ¨Ø§ÙĦØ¢ÙĬØ§Øª": 7849, "ĠØ®Ø·Ø¨Ùĥ": 9372, "ÙĬÙĩØ§": 3071, "ÙģØ¸": 2657, "ĠÙĬØ³ØªØ£Ø®Ø±ÙĪÙĨ": 4288, "ÙģÙĩÙħ": 7387, "ØªÙĩÙĪÙĨ": 3267, "ØµØ±Ø§": 3540, "ĠÙĪÙģØ¬Ø±ÙĨØ§": 6691, "ĠÙģØ£ÙĥØ«Ø±": 7950, "ĠÙĪØ§ÙĦÙģ": 2890, "ĠØ¨Ø·ÙĪÙĨÙĩØ§": 9623, "Ø§Ø¤": 776, "ĠØªÙĪÙĥÙĦØª": 3397, "ĠØ¥ÙĦÙĩÙĩ": 8586, "ĠØ°Ø§Ø¦ÙĤØ©": 7059, "ĠÙħÙģØªØ±Ùī": 9804, "ĠØ£Ø¯Ø¨Ø§Ø±": 4362, "ĠÙħØ´Ø±ÙĤÙĬÙĨ": 9921, "ĠØ¹ÙĨÙĩÙħØ§": 4894, "ĠÙĪØ§ÙĦÙħÙĬØ³Ø±": 6848, "ĠÙĦØ§ØªØ¨Ø¹": 6913, "Ø²ÙĨÙĬ": 5821, "ĠÙģØ£Ø¬Ø±Ùĩ": 7955, "ĠÙĪØ§ÙĦØ¶Ø±": 4059, "ĠØ§Ø³ØªØ·Ø¹ØªÙħ": 4538, "ĠØ²ÙĪØ¬ÙĩØ§": 5339, "ĠØ¨Ø±Ùĥ": 7365, "ĠØ³ÙĨØ³ØªØ¯Ø±Ø¬ÙĩÙħ": 10315, "ĠÙĬØ±Ø§Ø¡ÙĪÙĨ": 8188, "ĠØ§ÙĦÙĤÙĪØ§Ø¹Ø¯": 7997, "ĠØªØ¹Ø¨Ø¯": 2559, "ÙĪØ¹": 1175, "ÙĤØ§": 316, "ĠÙģØ°ÙĪÙĤÙĪØ§": 2303, "ĠØ´ÙģØ§": 4873, "ĠØ£ÙĦÙĬ": 1216, "Ø·ÙħØ¹": 5860, "ĠØªØ³Ø±ÙĪÙĨ": 6479, "ĠÙģÙĪØ¬Ø¯Ø§": 9930, "ĠØªØ¨ÙĬ": 7468, "ĠØ§ÙĦØ±Ø¬": 1517, "ĠØ¥Ø®ÙĪØ§ÙĨ": 4533, "Ø±Ø³ÙĦÙĨØ§": 2100, "ĠÙħØ³": 454, "ĠÙĬÙĪØ±Ø«": 7325, "ĠØ§Ø³ØªÙĥØ§ÙĨÙĪØ§": 10013, "ĠØ£ÙĨÙĬØ¨": 7582, "Ø£ÙĬØª": 1946, "ĠÙĥØ±Ùĩ": 2583, "ĠØ³ÙĦ": 1156, "ĠÙĬÙĩØ¯ÙĬÙĩ": 8883, "ĠÙĦÙĬØ§ÙĦ": 6051, "ĠØªØ³ØªÙĥØ¨Ø±ÙĪÙĨ": 6558, "ĠÙĪÙĬÙĥØ£ÙĨ": 9715, "ĠØ£ÙģØ¦Ø¯Ø©": 10000, "ĠÙĬØŃÙħÙĦ": 4220, "ĠØ£ÙħØ±ÙĪØ§": 6353, "ĠÙĪØ¶": 2050, "ĠØªØªØ®Ø°ÙĪÙĨ": 7025, "Ø¯ÙĪØ³": 7255, "ĠÙĦØ¹": 672, "ĠÙĪØºØ±": 2845, "ĠÙĨØ§Ø¦ÙħÙĪÙĨ": 10237, "ĠØ§ÙĦØŃ": 178, "ØŃÙĪÙĩÙĨ": 4717, "ØºØ±ÙĤ": 3349, "ĠØ£ÙĪÙĦÙĬØ§Ø¡Ùĩ": 8990, "ÙĦÙĬÙĩ": 1046, "ĠÙĪØ§ÙĩØ¬Ø±": 6113, "Ø§Ø´ÙĬØ©": 9009, "ĠØ£ÙĪÙĦØ§Ø¡": 7868, "ĠÙĪÙĪØŃÙĬÙĨØ§": 10184, "ĠÙĦÙĦØ®Ø¨ÙĬØ«": 10121, "ĠØ§ÙĦØ±Ø¬Ø³": 5336, "ĠÙħØ³Ø±Ùģ": 9742, "Ø¹ÙĦÙħÙĪÙĨ": 1974, "±": 18, "ĠÙĪØ£ÙĨÙĬ": 5876, "ĠØ§ÙĦÙĤÙĬØ§ÙħØ©": 638, "ĠØ§ÙĦØ³Ø¬ÙĨ": 3606, "ÙĨÙĩÙħ": 439, "ĠÙģÙĬÙĨØ¸Ø±ÙĪØ§": 3824, "ĠÙĬØ¹Ø¯ÙĦÙĪÙĨ": 4499, "ĠØªÙħÙĬ": 5756, "ÙĬÙħØ§": 394, "ĠÙģØ±ØŃÙĪÙĨ": 6277, "ĠØ£Ø±Ø§Ùĥ": 9018, "ĠÙĬØ¬Ø§Ø¯ÙĦÙĪÙĨ": 3398, "ĠÙĬØ¹ÙħØ±": 5314, "ĠØ¹Ø¬ÙĦØ§": 9286, "ĠÙĬØ¬Ø¹ÙĦÙĪÙĨ": 9306, "ĠØ§ÙĦØ£ÙĨÙĩØ§Ø±": 895, "ĠØ³Ø§Ø¡": 2204, "Ø¨Ùĩ": 1497, "ĠØ´Ø¯ÙĬØ¯Ø§": 2406, "ĠØªÙĪÙĦÙī": 2666, "Ø²ÙĬØ¯": 1955, "ĠØ¨Ø£ÙħÙĪØ§ÙĦÙĩÙħ": 3062, "ÙĪØ³Ùī": 3075, "ĠØ¨Ø§ÙĦØ¹Ø¯ÙĪØ©": 9667, "ĠÙħÙĤØ§ÙĦÙĬØ¯": 10190, "ØªØµ": 2289, "ĠÙĪØ£ÙĬÙĪØ¨": 5885, "ĠØ·ÙĪÙĬÙĦØ§": 8274, "ĠÙĪØ§ØºÙĦØ¸": 10151, "ĠØ§ÙĦØŃØ³ÙĨÙī": 2164, "ĠØ§ÙĦÙĪØ³ÙĬÙĦØ©": 10036, "ĠÙģÙĩÙĪ": 1183, "ĠØ§ÙĦÙĨØ¨ÙĪØ©": 8238, "ÙĪÙĨÙĩØ§": 3502, "ĠØ¹ÙĬØ³Ùī": 1778, "ÙĦØ§Ø«Ø©": 9181, "ĠÙĬØ³Ø¨": 3975, "ĠÙĪÙĬØ¹ÙģÙĪ": 7013, "ĠÙģØ°Ø±": 4654, "ĠÙĪØ³Ø¹Ø±": 8661, "ĠÙĤÙĦØª": 4149, "ĠØ§ÙĦØ¥ÙĨØ³Ø§ÙĨ": 738, "ĠÙĪØ¥ÙĨÙĩÙħ": 2360, "Ø¬Ø±ÙħÙĪÙĨ": 1816, "ĠØ¥ÙĦÙĩ": 491, "ĠÙĬØ¨Ø¯ÙĦ": 4448, "ĠØ£ÙĨØ¨ÙĬØ§Ø¡": 7585, "ĠÙĪØ§ÙĦØ£ÙħØ±": 6142, "ÙĥØ±Ùĩ": 3622, "ĠÙĬØ°ÙĥØ±": 2451, "ĠÙģØ§Ø·": 2856, "ĠØ§ÙĦÙħÙĦÙĥ": 1159, "ĠØ«ÙĤÙģØªÙħÙĪÙĩÙħ": 10322, "ĠÙģØ§Øª": 920, "ØŃÙħÙĬÙĨ": 3506, "ĠØªÙĤØ±Ø¨ÙĪØ§": 4323, "ĠØªÙĦÙĤØ§Ø¡": 6794, "Ø¨Ø§ÙĦ": 898, "ĠÙĪÙĦÙĨØ¬Ø²ÙĬÙĨÙĩÙħ": 7030, "ĠÙĪÙĦÙĩØ§": 7150, "Ø±Ø¬Ø§ÙĦ": 5150, "ĠÙĦØ¨Ø³": 8970, "Ø«Ø§ÙĨØ§": 7699, "ĠØªØ³Ø£ÙĦ": 8828, "ĠÙĬØ£ÙĥÙĦÙĪÙĨ": 3381, "ĠØ¬ÙħÙĬÙĦØ§": 5209, "ĠØŃÙĬØ«": 1160, "Ø§Ø¦ÙĥÙħ": 1811, "ĠØ¨Ø¹Ø¯ÙĩØ§": 3659, "ĠØªØ¬Ø¹ÙĦÙĪØ§": 4306, "ĠØºØ´Ø§": 8043, "ĠØ¥ÙĨØ§": 345, "ĠØ§ÙĦØ±Ø¬ÙģØ©": 5337, "ĠÙĦØŃ": 1940, "ĠÙĬØ³ØªÙħØ¹": 6299, "Ø¹Ø±Ø¶": 2182, "ÙĬØ¨Ø§Øª": 1408, "ĠÙĦÙĤØ¯": 764, "ĠÙĪØ£ÙĪÙĦØ¦Ùĥ": 1288, "ĠØ§Øº": 8600, "ĠÙģØ¤Ø§Ø¯Ùĥ": 10053, "Ø±Ø¯": 2170, "Ø°Ùĩ": 552, "ĠØ±Ø¬ÙĦ": 2129, "ĠÙģØ§Ø³Ø£ÙĦ": 3792, "Ø²ÙĬÙĨ": 1136, "ĠÙĪØ§ÙĦØ¬": 2074, "ĠØ§ÙħÙĥØ«ÙĪØ§": 10276, "ÙĥÙĩÙħ": 5610, "ĠØ¢ØªÙĬÙĨØ§ÙĩÙħ": 1833, "ĠØªÙĥØ§Ø¯": 6293, "ĠØ§Ø³ØªÙĥØ¨Ø§Ø±Ø§": 10012, "ĠÙĥÙģØ§Ø±Ø©": 6811, "ĠØªØºØ±ÙĨÙĥÙħ": 10221, "ĠÙĬØ¹Ùħ": 1389, "ÙĪÙģÙĬÙĨÙĥ": 6165, "ĠØ¯Ø¹": 1366, "ĠØ¨Ø´Ø±": 1186, "ĠØ³ÙĦÙħ": 5852, "Ø°ÙĥØ±ÙĬÙĨ": 8427, "ĠØ£Ø±Ø¨Ø¹": 6703, "ÙĨØ¸Ø±": 5562, "ĠÙģÙħØ§Ø°Ø§": 6366, "Ø¬ÙĬ": 4028, "ĠÙĬØ¶": 1025, "ĠÙĨÙĪØ±": 1959, "ĠØ£Ø¹ÙĦÙħ": 763, "ÙħÙĩÙĦ": 5414, "ĠÙħØ³ÙĪÙħØ©": 8519, "ĠÙĬØ±Ø¬Ø¹": 4225, "ÙĦØ¹": 1037, "Ø´ÙĤ": 7577, "ĠÙĨØ²Ø¯": 9362, "ĠØ§ÙĦØ³": 162, "ĠÙĪÙħÙħÙĨ": 4277, "ĠØ®Ø·ÙĪØ§Øª": 4484, "ĠØ£ÙĨØ¬": 4790, "ĠÙĦØ£Ø²ÙĪØ§Ø¬": 6302, "ĠØ¹ÙĩØ¯Ø§": 5360, "ĠØ¹Ø¯Ø§": 4726, "ĠÙĪØ§ÙĦÙħØ¤ØªÙģÙĥ": 6980, "ĠØ²Ø§Øº": 5087, "ĠØ®Ø§Ø³Ø¦ÙĬÙĨ": 10088, "ÙĦÙĬØ§": 7537, "ĠØ£Ùĩ": 361, "ĠÙĬØ®Ø§Ø¯Ø¹ÙĪÙĨ": 8468, "ĠØ¨Ø£Ø³ÙĥÙħ": 9174, "ĠÙĥØ£ÙĨÙĩÙĨ": 9162, "ĠØ£ØªØ§ÙĥÙħ": 6705, "ĠÙĬÙĩØ±Ø¹ÙĪÙĨ": 10201, "ĠÙħØ¹ÙĤØ¨": 8100, "ĠÙĬØªØ¨": 8116, "Ø§ÙĩØ¯ÙĪØ§": 1488, "ĠÙĪÙĦÙĥÙĨ": 448, "ĠØ¹Ø±Ø¨ÙĬØ§": 3065, "ĠØ§ÙĦØ¢Ø®Ø±Ø©": 626, "ÙģÙĬÙĩØ§": 6284, "ĠØ§ÙĦØ¨ØŃØ§Ø±": 8544, "ĠÙħØ®": 1386, "ĠÙĬØ³Ø§Ø±Ø¹ÙĪÙĨ": 3709, "ĠÙĨÙĥØ§": 7623, "ĠØŃÙĥÙħØ§": 2597, "ĠÙħØ¶": 3929, "ĠÙģØ±Ø§": 7272, "ĠØ¨Ø§ÙĦØ³": 2916, "Ø¬Ø¹ÙĪØ§": 3140, "¤": 6, "ĠÙĬØŃØ¨": 892, "Ø°Ø±ÙĪØ§": 2001, "ĠØ£Ø«ÙĤØ§ÙĦ": 5343, "ÙĩØ¬Ø±": 4593, "ĠØ£ÙĪÙĦØ§": 1462, "ĠÙĬØªÙĥ": 6115, "ĠÙĨØ¨Ø´Ø±Ùĥ": 8924, "ĠØ§ÙĦÙĦØ¹ÙĨØ©": 7039, "ĠØªØ¬ÙĩÙĦÙĪÙĨ": 5131, "ĠØŃØµ": 3578, "ĠÙĪÙĨØ¹Ùħ": 5029, "ØªØ¨ÙĬ": 5616, "Ø®ÙĨ": 7545, "ÙģØªØŃ": 2002, "ĠØ£ÙĨÙī": 1863, "ĠÙĬØ¶ÙĦ": 1064, "ĠØ¨Ø¨ÙĬÙĨØ©": 7380, "ĠØ°Ø±ÙĩÙħ": 9493, "ĠÙĦØ§Ø¹Ø¨ÙĬÙĨ": 7768, "ĠÙĤÙĪ": 650, "ĠÙĬÙĦØ§ÙĤÙĪØ§": 7042, "ĠÙĪØ¶Ø¹": 4614, "ĠÙĪÙĦØ¯Ø§ÙĨ": 9147, "Ø§Ùħ": 597, "ĠÙĦÙĨÙģØªÙĨÙĩÙħ": 10298, "ĠÙĪØ§Ø¨ØªØºÙĪØ§": 6630, "ĠØ£Ø¨ÙĪØ§Ùĩ": 8701, "ĠØ£ÙĤØ§ÙħÙĪØ§": 7245, "Ø·ÙĦØ¹": 7689, "ĠÙĦØ£ÙĤØ·Ø¹ÙĨ": 8499, "ĠÙħØ¬ÙħØ¹": 9408, "Ø³ØªÙĤØ±": 7883, "ĠØ£ÙĥÙĦÙĩ": 8462, "ĠÙħÙģØµÙĦØ§": 9741, "Ø¨Ø·": 1038, "Ø·Ø©": 4821, "ĠØ¨Ø§ÙĦÙĥØªØ§Ø¨": 5490, "ÙĤØ±": 775, "ĠØ´ÙĤØ§": 3195, "ĠÙģØ±ÙĬØ¶Ø©": 4414, "ĠØ¯Ø§Ø¦Ø±Ø©": 6932, "ØªØ§ÙĦ": 2174, "ĠØ¨ÙĬÙĨÙĥ": 8083, "ĠÙĬØ±Ø«ÙĩØ§": 10125, "ĠØ³Ø¹ÙĬØ±Ø§": 3380, "ĠØ£ÙĨÙģÙĤÙĪØ§": 2329, "ÙħØ¹Ø§": 2618, "ĠÙĬÙĨÙģØ¹ÙĨØ§": 6673, "ĠÙĦÙĬÙĨ": 2305, "ĠÙħÙĤÙĬÙħ": 2848, "ĠÙĬÙħØ´ÙĬ": 3768, "ĠØªØ£Ø®Ø°": 3721, "ĠØ§ÙĦÙħØ±Ø³ÙĦÙĪÙĨ": 3360, "Ø°Ø¨Ùĩ": 4185, "ĠÙĪØ§Ø¨Ø¹Ø«": 9155, "ĠÙĬØªÙĬ": 5691, "ĠÙĪØŃÙħ": 3433, "ĠØ£ÙģØ§Ùĥ": 8305, "ĠÙĪØ£ÙĪÙĦØ§Ø¯ÙĥÙħ": 6892, "ĠØ¨ÙĨØ¹ÙħØª": 9179, "Ø°Ø¹": 7346, "ĠÙĬØ³Ø±ÙĨØ§": 5416, "ĠÙĪØ£ÙĨÙģØ³ÙĩÙħ": 2544, "ĠÙģØ§ÙĥÙĩØ©": 3667, "ĠÙĦØ¯ÙĨØ§": 3479, "ĠØªØ¹Ø«ÙĪØ§": 4302, "ĠØ§Ø³ØªØ¬Ø§Ø¨ÙĪØ§": 5555, "ĠØ§Ø³ØªÙħØªØ¹": 10162, "ĠØ¨ÙĥÙģØ±": 4340, "ÙĪØ§ÙĦØ¯": 3314, "ĠØ´ÙĩÙĪ": 4872, "Ø°ÙĤØ§ÙĨ": 5703, "Ġ": 31, "ĠÙĪÙĥÙĦØ§": 2524, "ÙĤÙħ": 3983, "ĠØªØºØ±": 7482, "Ø¬Ø±ÙĬ": 5772, "ØŃÙĬØ§Ø¡": 8759, "ĠÙģØ§Ø±Ø¬Ø¹": 9347, "ĠØ§ÙĦØªÙĪØ±Ø§Ø©": 1908, "ĠÙĦÙĬØŃÙĥÙħ": 4177, "ĠØ§Ø±Ø¬Ø¹ÙĪØ§": 6723, "ĠÙħÙĤØ§": 3091, "ĠØ§ÙĦÙĪÙĩØ§Ø¨": 7038, "ĠØ¢ØªÙĪÙĨÙĬ": 7711, "ĠÙħØºØ±": 3455, "ØªÙĩØª": 6211, "ĠØ§ÙĦÙĤÙĪØ©": 6046, "ĠÙħÙĤØ§ÙħÙĬ": 9691, "ĠÙĬÙĦØŃÙĤÙĪØ§": 9815, "ĠÙĪÙĬØª": 2505, "ĠØ¯Ø¹Ø§Ø¡": 3045, "ĠÙĪØ§ÙĦØ¢Ø®Ø±Ø©": 1567, "ĠÙĪØµØ§ÙĥÙħ": 5264, "ĠØ£Ø±Ø³ÙĦ": 2563, "ĠØ¨Ø§ÙĦØ´Ø±": 7846, "ĠØ¥ÙĬÙħØ§ÙĨØ§": 3367, "ĠØ§Ø¹ÙħÙĦÙĪØ§": 3220, "ĠÙĪÙĦÙĪØ§ÙĦØ¯ÙĬ": 6288, "ĠÙĦØ°ÙĨØ¨Ùĥ": 6997, "ĠØ£Ø¹ÙĤØ§Ø¨ÙĥÙħ": 7026, "ĠØ¨ÙĤØ±Ø§Øª": 9756, "ĠØ±Ø¬ÙĦÙĬÙĨ": 4331, "ĠØ§ÙĦÙģØ¶ÙĦ": 2014, "ĠÙĪØ§Ø´Ø±Ø¨ÙĪØ§": 3838, "ØªÙħÙĪÙĨ": 1575, "ĠØ§Ø³ØªÙĥØ¨Ø±ÙĪØ§": 2389, "ĠØ°Ø±ÙĬØªÙĬ": 5384, "ĠØ£ÙħÙĬÙĨ": 2353, "ĠÙĤØ·Ø¹": 4759, "ĠØ§ÙĦÙħØ«": 5889, "ĠÙĥÙĨØªÙĨ": 8847, "Ø§Ø°Ø¨ÙĬÙĨ": 2041, "ĠÙĪØ§Ø¹ØªØµÙħÙĪØ§": 5550, "ÙĦÙĤÙĬÙĨ": 7970, "ĠØ£Ø¹ØªØ¯ÙĨØ§": 3724, "ÙĪØŃÙĬ": 8465, "ĠØ³ÙĥÙĨØ§": 9772, "ÙħÙĨÙĥÙħ": 4045, "Ø£ÙĪÙī": 4720, "ĠØ£ÙĨÙģÙĤØªÙħ": 5506, "ĠÙģÙĤÙĦ": 1661, "ÙħØ§Øª": 4738, "ĠØ¨ÙĩÙħ": 923, "ĠÙĬØ³ØªØ·ÙĬØ¹ÙĪÙĨ": 1897, "ĠØ¥ÙĦÙĬÙĨØ§": 1559, "ĠÙĬØ³Ø¹Ùī": 3707, "ĠÙĬÙĬØ£Ø³": 7332, "ĠÙĪØ¬Ø¨Ø±ÙĬÙĦ": 8073, "ĠÙĪÙĤØªÙĦÙĩÙħ": 10103, "ĠÙĪÙĬÙħÙĨ": 7888, "ĠØ£ØµØºØ±": 8493, "ĠØ¨Ø®Ø§Ø±Ø¬ÙĬÙĨ": 10160, "ĠÙħÙĪÙĤ": 4223, "ĠÙģØ§ÙĨØªØ¸Ø±ÙĪØ§": 6943, "ĠØªØ¹": 463, "ĠØ£ÙģÙĪØ§Ø¬Ø§": 8310, "Ø¬Ø§Ø¬Ø©": 10223, "Ø®ÙĦÙģ": 1783, "ĠØ£Ø±ÙĨØ§": 8773, "ĠÙĪÙĤÙĪÙħÙĩÙħØ§": 9237, "ĠØ¨Ø¸ÙĦØ§Ùħ": 4563, "ĠÙħØ¬": 1932, "ĠÙħØ¬Ø±ÙħÙĬÙĨ": 2446, "ĠÙĬØ¨Ø§ÙĬØ¹ÙĪÙĨ": 7001, "ĠØ¢Ø¯Ùħ": 1512, "ÙĩØ§ÙĨ": 7566, "ĠÙĥØ§ÙĦØ°ÙĬÙĨ": 2791, "ĠØºÙģÙĪØ±": 799, "ĠÙĪÙħØ±": 7143, "ĠØ¸Ø§ÙĩØ±ÙĬÙĨ": 10031, "ĠÙĪØ§ÙĦØŃÙĥÙħØ©": 2432, "ĠÙĬØ¸ÙĦÙħ": 3979, "ĠØ§ÙĦØ£": 141, "ĠØ§ÙĦØ¹ÙĤØ§Ø¨": 1804, "ĠØŃÙģÙĬ": 2495, "ĠØ¢ÙĨØ³": 7708, "ĠØ´Ø¯Ø§Ø¯": 7804, "ĠÙģØ§ÙĨ": 802, "ĠÙĪØ£ÙĨØ§": 1158, "ĠÙģØ£ÙĨØ²ÙĦÙĨØ§": 6527, "ĠØ§ÙĦØ®ÙĪØ§ÙĦÙģ": 10301, "ĠØ£ØªØ§ÙĩØ§": 6706, "ĠÙģØ£ØµØ¨ØŃ": 1742, "ĠÙĬØ£ØªÙĬÙĨØ§": 8298, "ĠÙĬØµÙĦØŃÙĪÙĨ": 8781, "ÙħØ¹Ø±ÙĪÙģ": 1259, "ĠÙĦÙĦØ·": 4210, "ĠÙĨÙĨÙĤØµÙĩØ§": 9651, "ĠÙĪÙĦÙĬØ²ÙĬØ¯ÙĨ": 10304, "ĠØ¨Ø§ÙĦØµØ¨Ø±": 5452, "ĠÙĦØ±Ø¬ÙĦ": 10057, "ĠØ§ÙĦÙĬØª": 3917, "ĠÙģÙĪ": 3958, "ĠØ£Ø´Ø±": 5642, "ĠØ®Ø§Ùģ": 2701, "Ø§Ø¦ÙĨ": 2363, "ĠÙĪÙĦØªØ¹ÙĦÙħÙĨ": 9063, "ÙĪÙĦÙĪØ§": 836, "Ø·Ø´": 4822, "Ø§Ø¦ÙħÙĬÙĨ": 8065, "ĠÙĬØ±Ø¶Ùī": 4685, "ĠÙĪØ§ÙĦØ¥": 1247, "ĠÙĬÙĥØ°Ø¨ÙĪÙĨ": 3275, "ĠØ¨ÙĨØ¹ÙħØ©": 5308, "ÙĪÙĬÙĦ": 1674, "ĠÙĪÙĦÙĨ": 943, "ĠØ£Ø¦ÙĨÙĥÙħ": 5501, "ĠÙĦØ£ÙĪÙĦÙĬ": 2762, "ĠÙģÙĤÙĪÙĦÙĪØ§": 7292, "ĠÙĬØ£ØªÙĬÙĥÙħ": 3015, "ĠÙĬØ¹Ø±Ø¶": 6242, "ĠÙĪØ²ÙĦØ²ÙĦÙĪØ§": 10039, "ĠØ§ÙĦÙĤØ±Ø§Ø±": 6047, "ĠÙĪØ¢Ø¨Ø§Ø¤ÙĨØ§": 6819, "ĠÙħØ®ÙĦØµ": 3938, "ĠØ®Ø§Ùħ": 7785, "ĠÙĪØ£ÙħÙĪØ§ÙĦÙĩÙħ": 6987, "ĠØªØ£ÙĪÙĬÙĦ": 4308, "ĠÙĨÙĪØŃÙĬÙĩ": 8892, "ĠÙĥÙĬØ¯Ø§": 3535, "ĠÙĪØ§ÙĦØ¨ØµÙĬØ±": 4425, "ĠØ¸ÙĩÙĪØ±": 5380, "ĠØ¯ÙĬÙĨÙĩ": 9002, "Ø±Ùī": 610, "ÙĩÙħ": 72, "ĠØ§ÙĦØ£Ø¨ØµØ§Ø±": 2702, "ĠÙĪØªØ°Ø±ÙĪÙĨ": 6141, "ĠÙģØ£ØºØ±ÙĤÙĨØ§ÙĩÙħ": 7015, "ĠÙĬÙĨØµØ±ÙĪÙĨÙĩ": 9322, "ĠØ§Ø": 499, "ĠÙĬÙĥØªØ¨": 8351, "ĠØ¸Ø§ÙĦÙħÙĬÙĨ": 2739, "ĠØªØ³ÙĤØ·": 8829, "ĠÙĦØ§ÙģØªØ¯ÙĪØ§": 10086, "ĠØ¨Ø§ÙĦØº": 1324, "ØŃÙĬÙī": 6441, "ĠÙĤØ§ÙĨ": 3144, "ĠÙģÙĨØ¹Ùħ": 4402, "ĠØªÙĨØªÙĩ": 6350, "ĠØªÙĤØ±": 6396, "ĠÙĥÙģØ±ÙĨØ§": 8129, "ĠÙĪØº": 2840, "ĠØ¨Ø§Ø®": 7370, "Ø°Ø¨ØŃÙĪÙĨ": 8032, "ĠÙĬØŃÙĦ": 4218, "ĠØ¬Ø¯ÙĬØ¯Ø§": 9663, "ĠØµØ¨ÙĬØ§": 9866, "ĠØ·Ø§Ø¦": 1206, "ØµÙħ": 4769, "ĠØ¹Ø·": 7434, "Ø¹Ø¨ÙĬÙĨ": 4631, "ĠØ§ÙĦØ£Ø´ÙĤÙī": 9852, "ĠÙĪØ³Ø§Ø¡Øª": 5166, "ĠØ§Ø´ÙĥØ±": 9304, "ĠØ£ÙĤÙĦ": 3771, "ĠÙĬØ§": 198, "ĠÙģÙĨØ§": 3104, "ĠØ¢ÙĬØ§ØªÙĩ": 1124, "ĠØŃØ³ÙĨ": 4088, "ĠØ§ÙĦØ¸ÙĦÙħØ§Øª": 2007, "ĠØªØ´Ø¹Ø±ÙĪÙĨ": 5208, "ĠØ¹Ø¯ÙĪÙĩ": 8814, "ĠØ¨Ùĩ": 197, "ĠØ§ÙĦØµØ§ÙĦØŃ": 560, "ĠØ±ÙĬØŃ": 2679, "ĠÙĦÙĦ": 272, "ĠØªØŃØ²ÙĨÙĪÙĨ": 9433, "ĠÙĪÙĨØ¬Ø¹ÙĦ": 5031, "Ø¬Ø¯ÙĨ": 6232, "ĠØ¨ÙĬØ¹": 6446, "ĠÙĦØºÙĨÙĬ": 9129, "ĠØ§ÙĦØ°ÙĩØ¨": 7652, "ĠØ¨Ø§ÙĦØŃÙĬØ§Ø©": 6930, "ĠÙĬÙĥØ°Ø¨ÙĪÙĥ": 6857, "ÙħØ±ÙĨÙĩÙħ": 8193, "Ø¹Ø¨": 3096, "ØŃÙĥÙĪÙĨ": 4004, "ĠÙģØ£Ø±Ø³": 6008, "ĠÙħÙĪØªÙĪØ§": 8181, "Ø§Ø·": 371, "ĠÙĪØ¥Ø³ÙħØ§Ø¹ÙĬÙĦ": 2705, "ĠÙĪØµÙĪØ±ÙĥÙħ": 9029, "ĠØ¢ÙĦÙĩØªÙĩÙħ": 9080, "Ø®ÙĬÙĦ": 5797, "ĠØ´Ø¦ØªÙħ": 4492, "ĠØ³Ø¨ÙĬÙĦÙĩ": 2114, "ĠØ£ÙħØ±Ùĩ": 2562, "ĠØ§ÙĦÙĨØ¬ÙĪÙī": 5433, "ĠÙĦÙĩÙħØ§": 2515, "ĠØ¨Ø£ÙħÙĪØ§ÙĦÙĥÙħ": 6783, "Ø°ÙĪÙĤÙĪÙĩ": 10060, "ĠÙĬØŃØ²ÙĨÙĪÙĨ": 2162, "ĠÙĪÙĥØ£ÙĬÙĨ": 3633, "ÙĥØ±ÙĪØ§": 1981, "ĠØ¬Ø¹ÙĦÙĩ": 4100, "ĠÙĪÙĥÙĬÙģ": 4182, "ĠÙĬÙĥØªÙħÙĪÙĨ": 4255, "ĠÙĬÙĪØ¯": 3976, "ĠØ®Ø§Ø³Ø±ÙĬÙĨ": 4105, "Ø£Øª": 3508, "ĠØ£Ø¬Ø±ÙĩÙħ": 2252, "ĠÙĬØŃÙĬÙĬÙĥÙħ": 4398, "ĠÙĦØ¹Ø¨": 6436, "ĠÙĩØ§Ø¯ÙĪØ§": 2482, "ÙĦÙĪØ§Øª": 4964, "ĠØ¨Ø¹Ø¶ÙĥÙħ": 1530, "ĠØ§ØŃÙĥÙħ": 8014, "ĠØ·Ø§Ø¦Ø±": 9096, "ĠØ³ÙĪØ¡Ø§": 3788, "ĠØ£ØµØ§Ø¨ÙĩÙħ": 4422, "Ø´Ùģ": 1358, "ĠØ³ÙħØ§Ø¡": 7675, "ĠØ¯ÙĬÙĨÙĥÙħ": 2591, "Ø¯Ø®ÙĦÙĨÙĩÙħ": 9213, "ĠØ²ÙĦ": 4271, "Ø¬ÙĦØ§": 7501, "ĠØ§ÙĦÙħÙĬØ¹Ø§Ø¯": 4085, "ĠÙĪØ£": 127, "Ø·Ø¹ÙĨ": 3738, "ĠÙĪÙĦÙĨØ¬Ø²ÙĬÙĨ": 5245, "ĠØ¨ØŃØ¨ÙĦ": 9524, "ĠÙĬØ¨Ø§": 4679, "ĠÙĦØªØ¹ÙĪØ¯": 8572, "ĠÙĥ": 87, "ÙĦØ§Øª": 3519, "ÙĪÙĦØ©": 4828, "ĠÙģØ£ØºØ±ÙĤ": 4927, "ĠØ°Ø±Ø£ÙĥÙħ": 10030, "ĠØ§ÙĦÙħ": 128, "ĠÙĤÙĦØ¨Ùĩ": 4150, "ĠÙĬÙĩÙĬ": 7329, "ĠØ¨Ø¹Ø¨Ø§Ø¯ÙĬ": 6800, "Ø·ÙĦÙĪÙĨ": 7685, "ĠØ³Ø£ÙĦ": 2334, "ĠØ£Ø¨ÙĨØ§Ø¡": 1903, "ĠÙĥØ³": 2668, "ĠØ£Ø¬ÙĦÙĩÙĨ": 4269, "Ø´ÙĬØ¡": 2257, "ĠØ´Ø§": 3194, "ĠÙĪØªÙģØµÙĬÙĦØ§": 9988, "ĠØ£Ø¬Ø¯": 4638, "ĠÙĪØ£ÙĪØŃÙī": 9491, "ĠÙĪØ§ÙĦØ£Ø±Ø¶": 356, "ĠÙĪØ§ØªØ®Ø°ÙĪØ§": 3728, "ÙĪÙĦØ¯Ø§ÙĨ": 4829, "ÙģØŃ": 4710, "ĠÙĬØ¹ÙĦÙħÙĪÙĨ": 567, "ĠØ§ÙĦÙĤÙĪÙĦ": 1203, "ĠÙĥÙĦÙħØ©": 1673, "ĠÙģØ£Ø®Ø°ÙĨØ§ÙĩÙħ": 5284, "ĠØ¨Ø£ÙĬ": 6214, "ĠØ¸ÙĦÙħØªÙħ": 8763, "ĠØ§ÙĦÙħÙĤØ±Ø¨ÙĬÙĨ": 5466, "ĠÙĬØ±Ø§ÙĥÙħ": 7331, "ĠØªÙĪØ§Ø¨Ø§": 5763, "Ø³Ø±Ùī": 5019, "ĠÙĦÙĦÙħØ³ÙĦÙħÙĬÙĨ": 8696, "ĠØ§ÙĦØ³Ø¨ÙĬÙĦ": 1213, "ÙĬØ£": 7101, "ĠÙħØ¹Ø¬Ø²ÙĬÙĨ": 8103, "ĠÙĬØ®ÙģÙī": 5103, "ĠÙģØ±Ø¬Ø¹": 8444, "ĠØªØ±ÙĪØ§": 8222, "ĠÙħØ³Ø±": 3450, "ĠØ¨ØŃÙħ": 4704, "ĠØŃÙĬØ§Øª": 4852, "ĠÙĨØ¹ÙħØ©": 1832, "ĠÙģØ±Ø¹ÙĪÙĨ": 661, "ĠÙĪØ£Ø·Ø¹ÙĨØ§": 3572, "ĠØ§ÙĦØºÙĬÙĪØ¨": 5443, "ĠÙĪØ§Ø": 770, "ĠØªØ¤ÙħÙĨ": 5755, "ĠÙĦØ¹ÙĨØª": 6439, "ĠÙĪØ§ÙĦØ´ÙĬØ§Ø·ÙĬÙĨ": 7608, "ĠØªØ¤Ø§Ø®Ø°": 9254, "ĠÙĬØ³ÙħØ¹ÙĩØ§": 9593, "Ø§Ø´Ø¹ÙĬÙĨ": 9010, "ĠØ³ÙħØ¹": 1026, "ĠÙĦÙĬØŃØ²": 6057, "ÙĪØ§Ø¹Ø¯": 3488, "ĠÙĪØ§ÙĦØªÙĬ": 7593, "ĠØ§ÙĦØ¹Ø°Ø§Ø¨": 557, "ĠÙĬÙģ": 648, "ÙħÙĪØ§": 873, "ĠÙĪØ§ÙĦÙħØ´Ø±ÙĥØ§Øª": 8634, "ÙĥÙĬ": 7166, "ĠØ¹ÙĦÙħÙĩØ§": 5137, "ĠØ¨ÙĬÙĨØ§": 5708, "ÙģÙĪØ§": 938, "ĠÙĬÙĪØ¹Ø¸": 6394, "Ø±Ø¢ÙĨØ§": 2568, "ĠØ¹Ø±Ø¶ÙĩØ§": 9415, "ĠØ¸Ø§ÙĩØ±Ø©": 9786, "ĠØ§Ø±": 1746, "ĠØ£Ø´ØŃØ©": 8792, "ĠÙĥØ§ÙĦØ¬": 8928, "ĠØ²Ø¯": 5085, "ĠØ¨Ø°ÙĨØ¨ÙĩÙħ": 9413, "ĠÙģÙĦØ£ÙĨ": 8213, "ĠÙĪÙĨØŃÙĨ": 1892, "Ø¯ÙĬØ«": 3467, "ĠØ¹Ùħ": 628, "ĠÙĪØ§ÙĦÙĩØ¯ÙĬ": 7596, "ĠÙĬØ±ÙĪÙĨ": 2187, "ĠØŃØ³ÙĬØ¨Ø§": 5201, "ĠÙĬØ·ÙĪÙģ": 9112, "ĠÙħÙĪÙĦØ§ÙĨØ§": 9555, "ĠØ£Ø¥ÙĨØ§": 2804, "ĠÙĦÙĦØ¥Ø³ÙĦØ§Ùħ": 9552, "ĠÙĨØ³Ø§Ø¦ÙĥÙħ": 4348, "ØªÙħØª": 1876, "Ø£ÙĦÙĨ": 3350, "ĠÙĤÙĪÙħÙĨØ§": 5018, "ĠØŃÙħÙĬÙħ": 2402, "Ø±Ø³ÙĦ": 1095, "ĠØ£ÙĪ": 161, "ĠÙĩØ§": 1286, "ĠØ¹ÙĦØ§Ùħ": 4729, "ĠÙģØ§Ø¶": 5673, "ĠÙĪØ£Ø³Ø±": 5878, "ĠØ°ÙĥØ±Ùĩ": 8748, "ĠÙĪØ¥Ø°Ø§": 396, "ĠÙĪØ§Ø³ØªØºÙĨÙī": 8984, "ĠØ¹ÙħÙĬ": 4727, "Ø§Ø±": 175, "ÙĤÙĬÙħÙĪØ§": 1485, "ĠÙĦÙĬØ³Ø¬ÙĨ": 8836, "ĠØºÙĦØ¨": 4961, "ĠØ§ÙĦØŃØ³ÙĨ": 2089, "ĠÙģØ£ØªØ¨Ø¹ÙĩÙħ": 9670, "ĠØ¨Ø§Ø±Ø¯": 9752, "ĠÙĪØ¢ÙħÙĨØªÙħ": 9730, "ĠØ§Ø«ÙĨØªØ§": 10161, "ĠÙĥÙĦÙĩ": 3142, "Ø±Ø§Ùħ": 1197, "ÙĬÙĨÙĩ": 5706, "ÙĪØªÙĩ": 7110, "ĠÙĪÙĩØ¨": 6553, "ĠØ£Ø±Ø§ÙĨÙĬ": 8775, "ØŃÙĥÙħÙĩ": 8927, "ĠØ³Ø¬ÙĬÙĨ": 9333, "Ø§ÙĪÙĬØ©": 3803, "ÙĨØ§ÙģÙĤÙĬÙĨ": 1603, "ĠÙħØ«ÙĤØ§ÙĦ": 2973, "Ø²ÙĬÙĦ": 2326, "Ø§Ø¦ÙĩÙĨ": 8064, "ĠÙģØ³Ø¨ØŃÙĩ": 9517, "ĠØ¢Ø«Ø§Ø±": 9656, "ĠÙĤØ§ÙĨØªØ§Øª": 9702, "ĠÙģÙģ": 5658, "ĠÙĬØ·Ø¹": 3113, "ĠÙĬÙĤÙĪÙĦÙĪÙĨ": 803, "ØªÙĩÙī": 6212, "ĠÙĪÙĦÙĥÙĨÙĬ": 5089, "ĠØ¥ÙģÙĥÙĩÙħ": 9758, "ĠÙģÙĩÙħ": 919, "ĠØ§ÙĦØŃÙĥÙħØ©": 4512, "ĠØµØ§Ø¨": 4934, "ĠÙĪÙħØ³Ø§ÙĥÙĨ": 7023, "ĠØ¹Ø´Ø±": 2314, "ĠØ§ÙĦØ¹Ø§Ø¬": 6020, "ĠÙĪØªØ·ÙħØ¦ÙĨ": 8158, "ĠÙĪØªØµØ±ÙĬÙģ": 9878, "ĠÙģÙĦØ§": 354, "ĠØ¶ÙĬÙģÙĬ": 10003, "ĠØªÙģØ³": 3134, "ĠØ£ØŃØ¨Ø¨Øª": 9785, "Ø§ÙĦÙħ": 5577, "ĠØ£ÙĤØ³Ø·": 8878, "ĠØ§ÙĦÙħØ¬": 3575, "ĠØ³ÙĥÙĬÙĨ": 4819, "ĠØ§ØªØ¨Ø¹ÙĪØ§": 2259, "ĠØ§ÙĦØ·Ø¹Ø§Ùħ": 3755, "ĠÙĪØ§ØµØ·Ø¨Ø±": 6988, "ÙĤÙĦØ¨": 1150, "ĠØ³ÙĬØ±Øª": 9839, "ĠØ§ÙĦÙħØŃØ±": 4082, "ĠØ§ÙĦØŃØ·ÙħØ©": 10099, "ĠØ¨ÙĨÙĬØ§ÙĨØ§": 10206, "ĠÙĤÙĪÙĦØ§": 1564, "ĠØ¨ÙĤÙĦØ¨": 5719, "ĠÙĪØ¬ÙĨØ©": 8068, "ĠÙĪØ§Ø³ØªØºÙģØ±ÙĪØ§": 6790, "ĠØ§ÙĦØ´ÙĩØ§Ø¯Ø©": 8354, "ĠÙĪÙĦÙĬÙĬ": 8545, "ØŃØ§Øª": 5731, "Ø§ÙĦØ¨": 4592, "ĠÙĪØ£Ø²ÙĦ": 5877, "ºÙģØ±": 2280, "ĠØªÙĨØ¨Øª": 6351, "Ø¹Ø¯ÙĪÙĨ": 1143, "ĠÙĥØ§ÙĦÙħ": 6532, "ĠØ£Ø±Ø£ÙĬØªÙĥÙħ": 9622, "ĠØ¨Ø§ÙĦØ¬": 7844, "ĠØ¹Ø±Ø´": 4016, "ĠØ±Ø¬ÙĬÙħ": 5173, "ĠØªÙĤÙĪÙĦÙĪØ§": 1916, "ĠØ£ÙģØ§Ø¡": 6224, "ĠØ§ÙĦÙģØŃØ´Ø§Ø¡": 8639, "Ø³ØªØºÙģØ±": 5980, "ĠØ´ØªÙī": 7801, "ĠØ§ÙĦÙħÙĩØªØ¯": 10084, "ĠÙĤÙĦ": 174, "ĠØ¨Ø¦Ø³": 2864, "ĠÙĪØ§ÙĦØ¢ØµØ§ÙĦ": 7047, "ĠØªØ¨ØªØºÙĬ": 9531, "ĠÙĪØ§ÙĦØ±ÙĪØŃ": 9834, "ĠØ¨Ø±Ø²Ø®": 10152, "Ø§Ø·ÙĦ": 1298, "ĠÙĬÙĨØªÙĩ": 8132, "ĠØ±Ø³": 352, "ĠØ§ÙĦØ³Ø§Ø¹Ø©": 1030, "ĠØ§ÙĦÙĤØ±Ø¨Ùī": 2221, "ĠØ¨ÙĦØºÙĪØ§": 8331, "ĠØ£ØªÙĬÙĨØ§ÙĩÙħ": 9925, "ĠØ§ÙĦØ¨ÙĦØ§Ø¯": 4488, "Ø²ÙĦÙĩ": 4783, "ÙĬÙħ": 138, "ĠØ£ÙĨØ¹ÙħØª": 3385, "Ø³ÙħØ§ÙĨ": 7263, "Ø¨ÙĬØ¨": 8023, "ĠØ¥ÙĬÙħØ§": 1310, "ÙĤØ§ÙĦØ§": 7343, "ĠÙĪÙĦØ³ÙĦÙĬÙħØ§ÙĨ": 9856, "ÙĪØ§Ùĩ": 1771, "ĠÙĩØ¯ÙĬÙĨØ§": 6867, "ÙĬØ¹Ø§Ø¯": 3835, "ĠØ£ÙħÙħØ§": 7925, "Ø§Ø°Ø¨ÙĪÙĨ": 2042, "ĠÙģØ§ØµÙģØŃ": 9328, "ĠØ¹ÙĦÙħÙĩ": 5135, "ĠØ§Ø±Ø¬Ø¹": 5368, "ĠÙħØ³ØªÙĤØ±Ø§": 5434, "ĠÙħØ¤ÙħÙĨÙĬÙĨ": 1040, "Ø¨Ø¯Ø§": 909, "ÙĤØ§ÙĬØ©": 8221, "ĠØªØ³ØªØ¹Ø¬ÙĦÙĪÙĨ": 3348, "ĠÙĨØ¹ÙħÙĦ": 4364, "ĠØ£Ø°ÙĩØ¨": 7242, "ĠØ£Ø°Ø§": 5640, "ĠØŃÙĤØ§": 1706, "ĠÙĬÙħØ´ÙĪÙĨ": 4365, "ĠØ«ÙĤÙĦØª": 5428, "ÙĦØ§ØªÙĬ": 7463, "ØµÙĪØ§": 2675, "ĠØ±Ø¬Ø²Ø§": 6417, "ĠØ£Ø¨ÙĬÙĥÙħ": 5446, "ĠØ§ÙĨ": 748, "ĠØ£Ø¯": 780, "ĠØ£Ø²ÙĪØ§Ø¬Ùĥ": 8960, "ĠÙħØŃÙĬØµ": 4496, "Ø®Ø°ÙĪØ§": 806, "ĠÙħØ¯Ø§": 7203, "ĠÙĪØ¹Ø§Ø¡": 8358, "ĠÙĪØ§ÙĦØ£ÙĨØµØ§Ø±": 9402, "Ø¨Ø±ÙĪÙĨ": 1612, "ĠØªØ¸Ø§ÙĩØ±Ø§": 9767, "ĠÙĥÙĬÙĦ": 5777, "ĠØ¨ÙĤØ·Ø¹": 9118, "ĠÙĥØ¯Ø£Ø¨": 7002, "ĠØ§ÙĦØŃØ³Ø§Ø¨": 1802, "ĠÙĪØ¨Ø§Ø·": 8482, "ĠØ§ÙĦØ±Ø§ØŃÙħÙĬÙĨ": 3881, "ĠÙģÙĦÙĬØ³ØªØ¬ÙĬØ¨ÙĪØ§": 10016, "ĠÙģØ§Ø²": 7285, "ĠØ£Ø¶Øº": 5395, "ĠÙĬØµ": 689, "ĠÙĬÙĨÙĤØµ": 8134, "ĠÙĦÙĦÙģÙĤØ±Ø§Ø¡": 6136, "ØµØ§Ø±Ùī": 2021, "ĠÙģØ¨Ø¯": 7277, "ĠØ§ÙĦØ³ÙĨÙĬÙĨ": 7876, "ĠÙĤØ¯Ø±ÙĪØ§": 6144, "Ø®ÙĦØ¯ÙĪÙĨ": 6347, "ĠØ¨Ø£ÙĨÙģØ³ÙĩÙĨ": 9107, "ĠÙĪÙĨÙĤÙĪÙĦ": 8246, "ĠÙĪØ£ÙĨØ²ÙĦ": 2233, "Ø«Ø±": 480, "Ø§ÙĤØ§": 5557, "Ø²Ø©": 1861, "ĠÙħÙĤØ±": 4624, "ĠÙĪÙĨØµØŃØª": 9992, "ĠÙĬÙĦØŃØ¯ÙĪÙĨ": 6950, "ĠÙĥØªØ¨ÙĨØ§": 6609, "ĠØªØ³ØªÙĪÙĬ": 8975, "Ø±Ø´": 1177, "ĠÙĦÙģ": 3967, "ĠØªØŃØ³Ø¨ÙĨ": 4531, "Ø¸ÙĦÙħ": 604, "ĠÙĪØ¢ØªÙĪÙĩÙħ": 9728, "ĠØ£ÙĦÙĤÙī": 3814, "ĠØ£ÙĩØ¯Ùī": 3463, "ĠÙĪØªÙĪØ§ØµÙĪØ§": 4996, "ĠÙĬØ¤ØªÙĬ": 6426, "ĠØ£ÙģØ±Ø£ÙĬØª": 5396, "Ø¹Ø¨Ø¯ÙĪØ§": 1340, "ĠÙĬØ°ÙĩØ¨ÙĥÙħ": 5484, "ĠØ¬Ø«ÙĬØ§": 7779, "ĠÙĦÙģØ±Ø¹ÙĪÙĨ": 9749, "ÙĥÙĬØ§": 7171, "ĠÙĥØ§Ø±": 3532, "ĠØ±Ø³ÙĦÙĩÙħ": 2382, "ĠØŃÙħÙĦÙĨØ§": 4361, "ĠÙģØ§Ø³ØªØ¹": 4380, "ÙĨØ¯": 7080, "ĠØ£Ø¹Ø°Ø¨Ùĩ": 8604, "ĠÙĬØµÙĦÙĪÙĨÙĩØ§": 5478, "ĠØ±Ø¨ÙĥÙħØ§": 1072, "Ø¨Ø¹Ø«ÙĨØ§": 8983, "ĠÙģØ§Ø³ØªÙģØªÙĩÙħ": 8936, "Ø§Ø¤ÙĩÙħ": 2138, "Ø§Ø¡ÙĨØ§": 1792, "ĠÙĥÙħ": 1220, "ĠÙĪÙģØ¶": 6690, "ĠÙĦØ¹ÙĨØ§": 8754, "ĠÙĥØ§ÙģØ±ÙĪÙĨ": 1857, "ĠØ´Ø±Ø§Ø¨Ø§": 9074, "ÙĥØ±ÙĩÙĪØ§": 4165, "ĠØ§ÙĦØ¶Ø¹Ùģ": 4603, "ĠØ¨ÙĬØ¯Ùĥ": 9818, "ĠÙĨØ³ÙħØ¹": 7628, "ÙħÙĨ": 95, "ĠÙĪØ¨": 435, "ĠÙģØ¬Ø¹ÙĦÙĨØ§ÙĩÙħ": 4514, "ĠØ£ÙħÙĩ": 4913, "ĠØ§ÙĦÙĨØ§Ø±": 495, "ĠØ§ÙĦØ¨ÙĬ": 1493, "ÙĤÙĦ": 5693, "ĠØ§ÙĦÙĤÙĪÙħ": 705, "ĠØªÙħÙĦÙĥÙĪÙĨ": 9902, "ØºÙģØ±ÙĪÙĨ": 4298, "Ø²ÙĬØªÙĪÙĨ": 4241, "ĠØ§ÙĦÙĦØ·ÙĬÙģ": 10032, "ĠØªØ¹ÙĤÙĦÙĪÙĨ": 1337, "ĠÙģØªÙĬÙħÙħÙĪØ§": 8328, "Ø¬Ø¹ÙĦÙĩØ§": 8857, "ØºØ±ÙĤÙĨØ§": 3030, "ÙĤØ§ÙĩÙħ": 4237, "ĠØ±ØŃÙħØ©": 1058, "ĠØ¹ÙħÙĦ": 1665, "ĠØ³Ø¨ÙĤÙĥÙħ": 9795, "ÙģÙĬ": 416, "ĠÙĨÙħÙĪØª": 9604, "ĠÙĦÙĬØ¹Ø¨Ø¯ÙĪØ§": 8002, "ĠÙģØ±Ø¬ÙĩØ§": 10009, "ĠÙĦÙĬÙĩØ¯ÙĬÙĩÙħ": 8009, "ĠÙĬÙģØªØŃ": 9022, "ĠØ§ÙĦØ¹ÙĦÙĬÙħ": 1094, "Ø¨Ø©": 726, "ĠÙĦÙĬÙĤÙĪÙĦÙĨ": 1922, "ĠØ®Øµ": 3191, "ĠØªØ±Ø§Ø¨": 3259, "ĠØ£ÙĨØ«Ùī": 2887, "ĠØ¢ØªÙĬØªÙħ": 6624, "ĠØ§ÙĨØµØ±ÙĨÙĬ": 7028, "ÙĨØ§Ùĥ": 2661, "ĠØ²": 393, "ĠÙħØ·ÙĦØ¹": 9686, "ĠØ¨Ø¥": 812, "ĠÙģØ§ÙħØ³ØŃÙĪØ§": 8206, "ĠØ£ÙħØ±ÙĩØ§": 6354, "ĠØ£ÙĨØ²ÙĦÙĨØ§Ùĩ": 2025, "ĠØ§ÙĦÙĤØªØ§ÙĦ": 2935, "ĠØ§ÙĦØ£ÙħÙĪØ§ÙĦ": 6597, "ĠÙĬØ³ØªØ¹": 5096, "ĠØ¶Ø±Ø§Ø¡": 6855, "ĠØªØªØ¨Ø¹": 1593, "ĠØ®Ø§ÙĦ": 548, "ĠØ§ÙĦÙħÙĤØ¯Ø³": 5899, "ĠØ¨Ø¹Ø¯": 285, "ĠØ±Ø§ÙĪØ¯": 4509, "ĠØ£ÙħÙĪØ§Øª": 4914, "ĠØªÙĤØ§ØªÙĦÙĪØ§": 8679, "ĠØªØŃÙĦ": 8393, "ĠØ¬Ø¹ÙĦÙĨØ§Ùĥ": 6524, "ÙĬØ§Ø¯Ø©": 7866, "ĠØªØ¹ÙħÙĦÙĪÙĨ": 564, "ĠÙĪØ¹ÙħØ§": 8356, "Ø¬ÙĬÙĨØ§Ùĩ": 2073, "ĠØ³Ø¨ÙĦÙĨØ§": 9036, "ÙĦØ¸": 4577, "ĠÙĥØ«ÙĬØ±Ø©": 2419, "ĠÙħÙĥÙĨØ§ÙĥÙħ": 8851, "ĠØ¹Ø¯Ø§ÙĪØ©": 9942, "ĠØ³ÙĨØª": 5856, "ĠÙĬØªÙģÙĥØ±ÙĪØ§": 9376, "Ø³Ø·Ø§Ø³": 7267, "ĠØŃÙĪÙĦÙĩÙħ": 9708, "ĠÙĬÙĨØ¨ØºÙĬ": 3878, "ĠÙħØ¹Ø¯ÙĪØ¯": 5480, "ĠØ¨Ø¹Ø¬ÙĦ": 8113, "ĠÙĬØ³ØªØ£Ø°ÙĨÙĪÙĨÙĥ": 9888, "ĠØ§ÙĦØ³ÙħØ§ÙĪØ§Øª": 314, "ĠÙħØµÙģÙĪÙģ": 9044, "ĠØ¬Ø§Ø¡ÙĨÙĬ": 6161, "ĠÙģØµÙĦÙĨØ§": 6666, "ĠÙħÙĦÙĪÙħÙĬÙĨ": 9510, "ĠÙĪØ§ÙĦÙĨØ¬": 4358, "ĠÙĪØ§ÙĦÙĨØ§Ø³": 4525, "ÙĨÙĪÙĨ": 580, "ĠÙĤØ¯ÙħØª": 1815, "Ø§ØºÙĬØ©": 8923, "ĠØ§ÙĦÙħØµÙĦÙĬÙĨ": 9573, "Ø±Ø§ÙĩÙħ": 3598, "ĠÙģØ¹Ø¯Ø©": 9928, "ĠØ®ÙĦÙĤÙĨØ§": 1146, "ĠÙĬØ¤Ø°ÙĪÙĨ": 5186, "ĠÙĪØ§ÙĦÙĥØªØ§Ø¨": 3057, "Ø¶Ø§": 1509, "Ø¨ÙĬÙĨ": 238, "ĠØ¨Ø£ÙħØ±": 1725, "ĠØ«ÙĪØ§Ø¨Ø§": 4908, "ĠÙĦØ±Ø¡ÙĪÙģ": 4562, "ĠØ´ÙĥÙĪØ±Ø§": 6605, "ĠØ¬Ø¯Ø§ÙĦ": 9841, "ĠÙĦÙĬÙĦØ§": 4173, "ĠØ§ÙĨÙģØ±ÙĪØ§": 6475, "ĠÙĬØ¬ØŃØ¯ÙĪÙĨ": 3309, "ĠÙĦØºÙĬØ±": 5295, "Ø£ÙĨØ§": 4008, "ĠÙĦÙĪÙĦÙĪØ§": 7309, "ĠØ³Ø¨Ø¹Ø©": 6670, "ĠÙĪØ§ÙĦØµØ¨ØŃ": 9165, "ĠÙĨØ¨Ø¦": 5842, "ÙĦÙĬØ©": 2672, "ĠØªØ´": 754, "ĠØ¹Ø§ÙĥÙģÙĬÙĨ": 9820, "ĠÙĪÙĬØ³ØªØºÙģØ±ÙĪÙĨ": 9186, "ĠÙģÙĥØ§ÙĨ": 1662, "Ø£ÙĦÙĪÙĨÙĥ": 1918, "Ø§ØªÙĪØ§": 3161, "ĠÙĤØµØµ": 4508, "ĠÙģÙħÙĨÙĩÙħ": 2390, "ĠÙĬØ¤ÙħÙĨÙĪØ§": 2258, "ĠØ°ÙĩØ¨": 2214, "ĠØŃØªÙī": 382, "ĠØ§ÙĦØ¥Ø¨ÙĦ": 8623, "ĠÙģØ·Ø±": 2642, "ÙĨÙī": 1082, "ĠÙģÙĥ": 538, "ĠÙĨØ¬ÙĪÙī": 8888, "ĠÙĦØ¨Ø§": 3111, "ĠØ¬ÙĨØ©": 1638, "ĠÙħØ®ØªÙĦÙģ": 2810, "ÙĪØ²": 1021, "ÙĪÙĦÙĬ": 1925, "ĠÙĦÙĦÙĨØ§Ø¸Ø±ÙĬÙĨ": 6491, "Ø±Ø¶Ø§": 2707, "ĠÙĪÙĥ": 202, "ĠØ¨Ø§ÙĦÙħØªÙĤÙĬÙĨ": 10263, "ĠØ£Ø°ÙĤÙĨØ§": 5342, "ĠÙģÙĪÙĤÙĩÙħ": 2144, "ĠØ§ÙĦØŃØ±ÙĬÙĤ": 4155, "ĠÙĪÙħÙĨÙĥÙħ": 3619, "ĠØ¨ÙĥÙĦÙħØ§Øª": 8743, "Ø®ÙĦÙģÙĬÙĨ": 9359, "ĠØ¯ÙĪÙĨÙĩÙħ": 5078, "ĠØŃØ³Ø§Ø¨ÙĩÙħ": 4475, "ĠÙĦÙĤØ§Ø¯Ø±ÙĪÙĨ": 6325, "ĠÙĪÙħØ³ØªÙĪØ¯": 8437, "ĠØ¨Ø±": 794, "ĠØ´ÙĩØ§Ø¯Ø©": 4111, "ĠÙħÙĨÙĬØ¨ÙĬÙĨ": 9455, "ĠØ¨Ø§ÙĦØ¹Ø°Ø§Ø¨": 3832, "Ø§Ø¬ÙĪÙĨ": 4384, "ĠÙħØ³Ø¦ÙĪÙĦØ§": 5528, "Ø§ÙĨØªÙĬÙĨ": 5823, "Ø¨ÙĪØ±Ø§": 3087, "ĠÙħÙĤØ¯": 5628, "ĠÙĦÙĬØ¸ÙĩØ±Ùĩ": 6059, "ĠØªØŃØ²ÙĨÙĪØ§": 6771, "ĠØ£ÙĬÙĩÙħ": 3652, "ĠØ¹Øª": 3514, "ĠÙĪÙħØºÙģØ±Ø©": 4280, "ĠÙĪÙģØ§": 4613, "ĠØ£ØªØ§": 1616, "ĠÙĨØ±Ø³ÙĦ": 4804, "ÙĨØ§Ø±": 7453, "ĠÙĦÙĬØªÙĨÙĬ": 2939, "ĠØ¢Ø®Ø±": 1511, "ÙģØ³Ø¯": 6050, "ĠÙĪÙĦÙĥÙħ": 1576, "ĠØªÙħÙĦÙĥ": 4431, "ØŃØ§Ø±": 5733, "ĠÙĦÙĨØ¹ÙĦÙħ": 5071, "ĠØªØ¹Ø±Ùģ": 6328, "ĠÙģØ£Ø®Ø°ÙĨØ§Ùĩ": 6607, "ÙĬÙĨØ§Ùĩ": 1255, "ĠØ§ÙĦÙħÙĪØ¬": 7737, "ĠÙĬØ´Ø±Ø¨": 9936, "ĠÙĨØªØ®Ø°Ùĩ": 9959, "ÙĪÙħ": 126, "ĠÙĬØªØ±Ø¨ØµÙĨ": 10118, "ĠÙĬÙĨØ·": 3245, "ĠÙĨØ³": 692, "ĠÙĪØµØ¯ÙĪØ§": 3862, "ĠÙĬØ³ØªØ£Ø°ÙĨ": 4285, "ĠØ§ÙĦØ±ØŃ": 217, "ĠØªØ®Ø§ÙģÙĪÙĨ": 4336, "ĠÙĪØ¥ÙħØ§": 1968, "ĠØ³ÙĦØ·Ø§ÙĨØ§": 2415, "ĠØ¹Ø¬ÙĪØ²": 9289, "ĠØ³ÙĨÙĨ": 9058, "ĠØªÙĪÙĥ": 2070, "ĠØªØªÙĤÙĪÙĨ": 1594, "ĠÙĨÙĩØ§Ø±Ø§": 7634, "ĠÙĬØ³ØªØ¹Ø¬ÙĦ": 8454, "Ø³ÙĦØ§Ùħ": 2853, "ÙģØ³Ø¯ÙĪÙĨ": 4938, "ĠÙĨØ¹ÙħØª": 3017, "ĠÙĬØ³ÙĤÙĪÙĨ": 8489, "ÙģØ§Øª": 5726, "ĠØ£ÙĬØŃØ³Ø¨": 4985, "ÙĬØ§Øª": 214, "ĠÙĪÙħÙĪØ¹Ø¸Ø©": 4283, "ĠÙĬØ¨Ø®ÙĦÙĪÙĨ": 6985, "ĠØ£Ø¹ÙħÙī": 4367, "ĠØ³Ø¨": 1089, "ĠÙĪÙĬØ¹ÙĦÙħÙĥÙħ": 6659, "ĠÙĪÙĬÙĤØ·Ø¹ÙĪÙĨ": 7908, "ĠÙģØ¯Ø¹Ø§": 9515, "ĠØ§ÙĦØªÙĨÙĪØ±": 8912, "ĠØ§ÙĦØ¹Ø±Ø´": 1518, "ĠÙĪÙĨØ¹ÙĦÙħ": 8244, "ĠÙģØªØŃØ§": 5053, "ÙĪÙĦ": 125, "ĠØ§ÙĦØ·ÙĬØ¨Ø§Øª": 2572, "ĠØŃØ¯ÙĪØ¯": 2152, "ĠØ´ÙĬØ·Ø§ÙĨ": 4970, "Ø³Ø±ÙĪØ§": 1891, "ĠÙĪØ§ÙĦØŃÙħØ¯": 7600, "ØŃØ§": 1276, "ÙĤØ¶ÙĪØ§": 7342, "ĠÙĦØ³Ø§ÙĨÙĬ": 9519, "ĠØ§ÙĦÙħØ¨Ø·ÙĦÙĪÙĨ": 4848, "ĠØ¨ÙĨÙĬØ§ÙĨÙĩ": 8822, "ĠÙĪÙĦÙĬÙĨØ°Ø±ÙĪØ§": 10092, "ĠØ§ÙĦØ®Ø·Ø§Ø¨": 10136, "Ø¨ÙĪØ§": 985, "ĠÙħØ¬ÙĨÙĪÙĨ": 3855, "ĠØ¥ÙĬØ§Ùĩ": 3061, "ĠÙĪÙĤÙģÙĪØ§": 7976, "ĠÙģØªÙĨØª": 8317, "ĠÙĩØ¨Ø§Ø¡": 7650, "ĠØ®Ø°ÙĪØ§": 4511, "ĠØ£Ø·ÙĩØ±": 7244, "ĠØªØº": 1627, "ĠÙĬØ¨ÙĦØº": 2861, "ÙĤÙĬØ§Øª": 7336, "Ø¹Ø¬ÙĦÙĪÙĨ": 2033, "Ø²ÙĬÙĦØ§": 5040, "ĠØªØ±Ùī": 1588, "ĠÙĬÙħØ³": 1503, "ĠÙĪØ§Øª": 517, "ĠØ§Ø³ØªÙħØ³Ùĥ": 9270, "ĠÙĤØ§ØªÙĦÙĪÙĥÙħ": 7535, "ÙĩØ±": 490, "ĠØ§ÙĦÙĨØ¬": 2377, "ĠÙĪØ§ÙĦØ¥ÙĨØ³": 2809, "ĠÙĤÙĪÙħÙĩ": 1013, "ĠÙĬØ·ÙħØ«": 9116, "ĠÙĬØ¬ØªØ¨ÙĬ": 6374, "ĠÙĬØ¨ØªØºÙĪÙĨ": 3899, "ĠÙĬÙĪÙħÙĬÙĨ": 6082, "ĠØ§ÙĦØ³Ø¨ÙĬ": 1163, "ĠØ¨ÙĬØ¶Ø§Ø¡": 3752, "ĠØ£ÙĨØµØ§Ø±ÙĬ": 9645, "Ø¶ÙĪÙĨ": 1952, "ØªÙĦÙĪ": 8937, "ĠØ´Ø¯ÙĬØ¯": 853, "ĠØ°Ø§Ø¦": 5969, "ĠÙĤÙĪÙħÙĥ": 2735, "Ø±ÙĬÙĤ": 3221, "ĠØ§ÙĦØ¹Ø§ÙĦÙħÙĬÙĨ": 711, "Ø¹ÙħÙī": 2218, "ĠÙĪØ£ÙĦÙĤÙĬÙĨØ§": 5383, "ĠÙĬÙĨØµØ±ÙĥÙħ": 5432, "ĠØ§ÙĦØ®ÙĬØ±Ø©": 9303, "ĠØµØ§ØŃ": 2934, "ĠÙĨØ·": 1699, "ĠÙĪÙĨÙĤÙĦØ¨": 8248, "Ø¦": 122, "ÙĪÙģ": 294, "ĠÙĬÙĨØ¸Ø±ÙĪÙĨ": 1295, "ĠØ§Ø¨ØªØº": 2022, "ĠØ®ÙĦÙĤÙĨØ§Ùĩ": 5042, "ĠØ¨Ø¹ÙĩØ¯Ùĩ": 9676, "ĠØ§ÙĦÙĥØ¨Ø±ÙĬ": 8029, "ĠÙģÙĨØ§Ø¯Ùī": 9695, "ĠÙĬØ²Ø§ÙĦ": 6586, "ĠØªØ±Ùĥ": 1371, "ĠØ§ÙĦØ±Ø¤ÙĬØ§": 5991, "Ø§Ø¬ÙĩØ§": 8946, "ÙĬØ§Ùħ": 1028, "ĠÙĬØŃØ°Ø±ÙĪÙĨ": 8171, "Ø§Ø¯Ø§": 1800, "ĠÙģØ£Ø«": 7944, "ÙĤØ±Ø§Ø¡": 3762, "ĠØªØ¹ØªØ¯ÙĪØ§": 6901, "ÙħØ§Ø¯": 7458, "ĠØ¬Ø§ÙĩØ¯ÙĪØ§": 4098, "ĠÙĪØ°Ø±ÙĪØ§": 4615, "ĠÙħØ·Ø±": 4625, "ĠØªØ¯Ø¹ÙĪÙĨ": 1264, "ĠØªØºÙģØ±": 5757, "Ø¹ÙĬÙħ": 1614, "Ø£ÙĪØ§ÙĩÙħ": 2270, "ĠÙģØ§Ø³ØªØ¨ÙĤÙĪØ§": 6539, "ĠØ£Ø®Ø¨Ø§Ø±ÙĥÙħ": 10144, "ÙĪØ¨": 269, "ĠØ§ÙĦØ¶Ø±": 2624, "ĠØ¹ÙĦÙħØª": 2991, "ĠØ¨Ø³ÙĦØ·Ø§ÙĨ": 3032, "ĠØ§ÙĦØŃØ¯ÙĬØ¯": 6002, "ĠÙĤØ¶": 4037, "ÙĪÙĦØªÙĩÙĨ": 4830, "ĠÙĬÙĪÙħÙĥÙħ": 4192, "ĠØ¬Ø§Ø±": 7770, "ĠÙĬØ±Ø²ÙĤÙĪÙĨ": 8187, "ĠÙģÙĥØ°Ø¨Øª": 9337, "ĠØ·ÙģÙĦØ§": 8276, "ĠÙĨÙģØ³Ùĥ": 2769, "ĠÙĦÙĥ": 357, "ĠØ´Ø¦ÙĨØ§": 4491, "ĠØ¨ÙĨØ§Øª": 7363, "ĠÙħØ§Ùĥ": 7655, "Ø£ÙĦÙĥ": 7416, "ĠÙħÙĨØ§Ø¹": 8962, "ĠÙĪØ§ÙĦØ¢": 5836, "ĠÙħÙģØ§Øª": 6908, "ĠÙĬØ¹Ø¯ÙĩÙħ": 6761, "ĠØ¥ÙĦÙĬÙĩÙĨ": 8091, "ĠÙĦÙĤØ§Ø¡": 2984, "ÙģØ³Ùĩ": 4937, "Ø°ÙĬÙĤ": 5217, "ĠÙģÙĪÙĦ": 5663, "ĠÙĪÙĤÙĪØ¯ÙĩØ§": 10105, "ĠØ§ÙĦÙħØ´Ø±": 2906, "ĠÙĪØ¹Ø²Ø±": 8366, "ĠØ§Ø¹ÙĦÙħÙĪØ§": 6062, "ÙĪÙħÙĬÙĨ": 4831, "ĠØºØ¯Ø§": 4960, "ĠÙĥÙĬÙģ": 701, "ĠÙĪØ§ØµØ¨Ø±ÙĪØ§": 6679, "ÙĥØ§": 680, "ĠÙĪØ®Ø±": 4608, "ĠÙĬØ¯Ø¹ÙĪÙĥÙħ": 5442, "ĠÙĪØ§ÙĦÙĨØ³Ø§Ø¡": 7607, "ĠÙĪØ¨ÙĬÙĨ": 1001, "Ø¯ÙĬ": 1617, "ĠØ¨Ø³ØŃØ±": 3796, "Ø²ÙĦØª": 8178, "®": 15, "ĠÙĦÙģØªØ§Ùĩ": 9812, "ĠØ¹Ø³ÙĬØªÙħ": 10215, "Ø¹Ø¯ÙĪØ§": 1713, "Ø·Ø§": 745, "ĠØºØ±Ùģ": 6077, "ĠÙĦØ£Ø¬Ø±Ø§": 6305, "ĠØ£ÙģÙĦØ§": 871, "ĠÙĤØ§Ùħ": 4041, "ĠØ®ØµÙĬÙħ": 9712, "ĠØ£ÙģØ¦Ø¯ØªÙĩÙħ": 10001, "ĠØ§ÙĦØ¥": 514, "ĠØ§ÙĦØ¨ÙĦØ§Øº": 2430, "ĠØ±Ø¤ÙĬØ§": 5808, "ĠÙĪØ¥ÙĦÙĬÙĥ": 5947, "ĠØ¨Ø¸ÙĦÙħÙĩÙħ": 9755, "ĠÙĦØªÙĨØ°Ø±": 4305, "ĠØ§ÙĦØ²ÙĤÙĪÙħ": 10179, "ØºÙĩ": 5909, "ĠØ§ÙĦØªÙĤÙī": 6529, "ĠØµØ§ÙĦØŃ": 857, "Ø¬Ø§Ø±": 4745, "ĠØµ": 190, "ĠÙĪÙĥØ§ÙĨ": 420, "ĠØ§ÙĦØ·ÙĬÙĨ": 6456, "ĠÙĪØŃØ§ÙĤ": 3335, "ÙĥÙĬÙĩÙħ": 3436, "ĠÙĤØ§Ø¦Ùħ": 6708, "Ø³ÙĨ": 315, "ĠÙĥÙĨ": 1695, "ĠØ¹Ø°Ø¨": 7435, "Ø°ÙĬØ±Ø§": 2651, "ĠØŃÙħÙĦØª": 8841, "Ø§ÙĪÙĪÙĨ": 9084, "ĠÙĪÙĬØ¹ÙĦÙħÙĪÙĨ": 9210, "ĠØ§ÙĦØ£Ø¹": 1966, "ÙħÙĬØ¹": 930, "ĠØ¹ÙĩØ¯ÙĩÙħ": 6716, "ĠÙĪÙĬØŃ": 1880, "ĠØ§ÙĦØ²ÙĪØ±": 8896, "ĠØ¬ÙĦÙĪØ¯ÙĩÙħ": 9915, "ĠÙģØ¥ÙĨÙĩÙħ": 2533, "ĠØªØŃÙħ": 4020, "ĠÙĥØ§ÙĨØªØ§": 5971, "ĠÙģÙĦÙĦ": 8212, "ĠÙĪØ¨ÙħØ§": 3704, "ĠØ§ÙĦÙħÙĥØ±": 4844, "´": 21, "ĠÙĬÙĪØµÙĦ": 6393, "ĠÙģØ§Ø®ØªÙĦØ·": 9448, "ĠØ¬ÙħÙĬØ¹Ø§": 829, "ĠÙĪÙĪØµÙĬÙĨØ§": 6643, "Ø¹ÙĦ": 158, "ĠÙĪÙĬØ¤Ø®Ø±ÙĥÙħ": 9543, "ÙĤØ©": 1133, "ĠÙĬØ¤ØªÙĬÙĩ": 3742, "ĠØ§ÙĦØ³ÙĬØ¦Ø©": 4450, "Ø¥Ø°ÙĨ": 7588, "ĠÙĨØªÙĤ": 7629, "ĠØ§ÙĦÙħÙĤØ±Ø¨": 2907, "ĠÙĤØ§Ø¦ÙħØ§": 5352, "ĠØ¹ÙĨØ¯ÙĨØ§": 1995, "ĠÙģØ¶Ø±Ø¨": 6495, "ÙħÙĬØª": 3679, "ĠØºÙĬØ±ÙĬ": 8638, "ĠØ§ÙĦØ³ÙĥÙĬÙĨØ©": 10268, "ĠØ¨ÙħØ§Ø¡": 4966, "ĠÙħØ£": 7195, "ĠØ¬Ø¨Ø§ÙĦ": 7772, "ĠÙĪÙĥÙĦ": 1983, "ĠØ®Ø·ÙĬ": 4103, "ĠÙĨÙĨ": 2891, "ĠÙħØµØ¯ÙĤØ§": 2296, "ĠÙĪØ§ÙĦØ¹Ø¯ÙĪØ§": 4060, "ĠÙĦØµ": 2857, "Ø±ÙĬÙĩÙħ": 6064, "ĠØªØ¸ÙĦÙħÙĪÙĨ": 4026, "ÙģØ¯": 3997, "ĠÙĤÙĪÙĦÙĩÙħ": 3044, "ĠÙĦÙĦØ¹Ø¨ÙĬØ¯": 4446, "Ø£ÙĨØ¹Ø§Ùħ": 5206, "ĠÙħØ¨ØµØ±Ø§": 6580, "Ø¨ØªÙĦÙĬÙĥÙħ": 8625, "ĠÙĪÙĥØªØ¨ÙĨØ§": 9868, "ĠØ³Ø§ÙĩÙĪÙĨ": 10244, "ĠÙģØ³ÙĬ": 3000, "ĠÙĪØ§ÙĦØ´": 1155, "Ø¹ÙħÙĪÙĨ": 2925, "ĠØ§ÙĦØ¹Ø³Ø±": 6019, "ÙĦØŃÙĪÙĨ": 1169, "ĠÙĨØµÙģ": 6497, "ĠÙģØ¢Øª": 4437, "ĠØ¨ØªØ£": 4547, "ĠÙģÙĤÙĪÙĦØ§": 6356, "ĠÙĥÙĬØ¯ÙĩÙħ": 6682, "ĠØ¨ÙĦØ³Ø§ÙĨ": 5057, "ĠØ§ÙĦØ£ÙħÙĪØ±": 2154, "ĠØ£Ø¯Ø¨Ø§Ø±ÙĩÙħ": 6984, "ĠØ§ÙĦØ±Ø¨Ø§": 3205, "ĠÙĪØªÙĨ": 4212, "ÙħÙĨÙĬ": 5792, "ĠØ¨Ø·ÙĨ": 9102, "ĠÙ": 45, "ØŃÙĪØ±Ø§": 3126, "ĠØ£ØŃØµ": 2737, "ĠØ¢ØªÙĬØ©": 9144, "ĠØ§ÙĦÙĪØ§Ø±Ø«ÙĪÙĨ": 9345, "ĠØ£ÙĩØ°Ø§": 8347, "ĠÙħØ´Ø±ÙĥØ©": 9923, "ĠÙģÙĦÙĬØ£ØªÙĪØ§": 10015, "ĠØ¨ÙĤÙĪÙħ": 6616, "ĠØ³ÙĦØ§ÙĦØ©": 7680, "ĠÙĥØ§Ø°Ø¨Ø©": 9800, "ĠØ³ÙĪØ±Ø©": 3165, "ĠÙĪÙĬÙģØ¹ÙĦÙĪÙĨ": 10097, "ĠÙĪÙĦÙĨØ°ÙĬÙĤÙĨÙĩÙħ": 10312, "ĠØ±": 98, "ĠÙĦØ°ÙĪ": 2858, "ĠÙĪÙĦÙĨØ°ÙĬÙĤ": 8950, "ĠØªÙħØ¯ÙĨ": 9137, "Ø¹Ø¯ÙĦÙĪØ§": 7911, "ĠÙĬÙĨÙĥØŃ": 9724, "ĠØ¥ÙĦÙĬÙĩØ§": 4978, "ÙĥÙĪØ§": 7167, "Ø¶Ø±Øª": 8816, "Ø±ÙĬØ¹": 2358, "ĠØ¨Ø§Ø³Ø·": 9595, "Ø§Ø³ÙĬØ©": 9042, "Ø«ÙĤÙī": 7698, "ĠÙħØ³ØªÙĥØ¨Ø±ÙĪÙĨ": 8746, "ÙĩÙĦÙĥ": 1000, "Ø«ÙĦØ«": 5271, "ØªÙĪØ§": 483, "ĠÙĪØ³ÙĦÙĬÙħØ§ÙĨ": 5165, "ĠÙģØ¢": 1307, "ĠÙħÙĦÙĥÙĪØª": 5193, "ĠÙĪØ¨Ø´Ø±": 1660, "ĠÙĪÙĦØ¯ÙĬÙĨØ§": 9149, "ĠØ§ÙĦØ¹Ø¯Ø§": 4605, "ĠÙħØ¯Ø¨Ø±ÙĬÙĨ": 3795, "ĠØªØµØ·ÙĦÙĪÙĨ": 8967, "ÙģÙĦØ§": 7389, "ĠÙĪØ§Ø³Ø¬Ø¯ÙĪØ§": 9172, "ĠØ³ÙĨØ³ØªØ¯Ø±Ø¬": 9061, "ĠØŃÙħÙĦØªÙĩ": 6876, "Ø¯Ø±ÙĬ": 5651, "Ø³ÙĪÙĨ": 1938, "ĠÙĬØºÙģØ±": 1502, "ĠÙĬØ¨ØµØ±ÙĪÙĨ": 2253, "ĠÙħØ§ÙĦÙĩ": 3831, "ĠØ¬Ø¦ØªÙħ": 9091, "ĠÙĩØ¯Ø§ÙĨØ§": 4473, "ØªÙĩÙĦÙĥÙĨØ§": 8286, "ĠÙĬØ®ØµÙģ": 8467, "ĠÙĥÙĦ": 240, "ĠØ´ÙĩØ¯ÙĨØ§": 5301, "ĠØ¹ÙĦÙĤØ©": 4736, "ĠØ¢ÙħÙĨÙĪØ§": 247, "ĠÙģÙĩÙĬ": 4407, "ĠÙĬÙĨØ²ÙĦ": 1723, "ØªØ§ÙĩÙħ": 4265, "ĠØ¨Ø£Ø¹ÙĬÙĨ": 5045, "ĠÙħÙģØ±": 5627, "ĠØ£ØªØ§ÙĩÙħ": 4464, "ĠØ§ÙĦØ¯Ø§": 4601, "ĠÙģÙĩÙĦ": 1382, "ĠÙģÙĦØ¨Ø«": 6180, "ÙĦØ§ÙĤ": 1443, "ĠØ£ÙĨÙģØ³ÙĩÙħ": 624, "ÙģÙĥÙĪÙĨ": 2065, "ĠØ®Ø±Ø¬": 2343, "ĠØµØ¨Ø±ÙĪØ§": 2092, "Ø¶Ø±ÙĬÙĨ": 7569, "ĠØ£Øº": 1243, "ĠØ¢ØªØ§ÙĩÙħØ§": 9228, "ĠÙĨØ®Ø§Ùģ": 9461, "ĠÙĬØ¬Ø±ÙħÙĨÙĥÙħ": 7000, "ĠØ§ÙĦØ°Ø¦Ø¨": 7048, "ĠÙĪØ§ÙĦØ£ÙĤØ±Ø¨ÙĬÙĨ": 6933, "ĠØ³ÙĦÙĥ": 7657, "ĠÙħØ³ÙĦÙħØ§": 8515, "ĠØ¨Ø£ÙħØ±ÙĨØ§": 9336, "ĠÙĬÙĤØ¯": 4675, "ĠØ£Ø¯Ø±ÙĬ": 5213, "ĠØªØ²Ø¯": 9138, "ĠØ§ÙĦØ¨ÙĨÙĪÙĨ": 8540, "ĠÙģØ³Ø§Ø¡": 5167, "ĠØ§Ø³Ø¬Ø¯ÙĪØ§": 3828, "ĠØµÙĦØµØ§ÙĦ": 5522, "ĠØ¨Ø·ÙĪÙĨ": 2805, "ĠØ§ÙĦØµÙĬØ§Ùħ": 6098, "ĠØªØ¨ÙĬÙĨ": 2316, "ĠØ¨Ø°ÙĦÙĥ": 5711, "ĠØ§ÙĦØ®ÙĬØ·": 8423, "ĠÙĥÙĨØª": 783, "ĠÙĬÙĦØ¹Ø¨ÙĪÙĨ": 4546, "ĠØ£ÙĪØ³Ø·": 7869, "ĠÙĬØªÙĬÙħØ§": 10059, "ĠÙĪØ£Ø®ÙĪØ§ØªÙĥÙħ": 9370, "ØŃØ¨": 7403, "ĠØ§Ø®": 1299, "ĠÙģØ±Ø´": 8440, "ĠÙĤÙĬÙĦ": 1044, "ĠØ§ÙĦÙħØŃÙĬ": 5892, "ØµØŃ": 5800, "ĠÙĦØ£ÙħØ§": 6300, "ĠÙĦØ¨Ø¦Ø³": 3972, "ĠØ§ÙĦØ®ÙĬØ±Ø§Øª": 3051, "ĠÙĦÙĤÙĬØªÙħ": 6323, "Ø·Ø¹ÙĬÙĨ": 6414, "ĠÙĬØ²ÙĬØ¯ÙĩÙħ": 9796, "ĠÙĦØ¹Ø¨Ø§Ø¯": 3326, "ĠÙĬÙĥÙĦÙħÙĩÙħ": 6236, "ĠØ¨Ø·Ø´ØªÙħ": 10018, "Ø±ÙĬÙģ": 8019, "ĠÙģØ¶Ø©": 5216, "ĠÙĦÙĬØ³Øª": 3218, "Ø§ÙģÙĦÙĬÙĨ": 4248, "ĠØ¬Ø§Ø¡Øª": 2538, "ĠÙģØ£ÙĦÙĤÙĪØ§": 6767, "ĠØ¬ÙĩØ§": 5915, "ĠÙĪØ§Ø´": 1668, "Ø¬Ø±Ø§": 2320, "Ø¹ÙĬÙĩ": 5638, "ĠÙĪØ¬Ø§Ø¡ØªÙĩÙħ": 9150, "Ø±Ø§ÙħØ§": 4882, "ÙĩÙĤÙĩÙħ": 7118, "ĠÙĬØŃÙĥÙħ": 1369, "ĠÙĪÙĤØ±": 6024, "Ø±Ø§": 146, "ĠØ¨Ø§ÙĦØ¹Ø¯": 2917, "ĠÙħØ³ÙĦÙħØ©": 5289, "ĠÙĪÙĬØŃØ³Ø¨ÙĪÙĨ": 6756, "ĠØ¢ØªÙĬÙĥ": 9142, "ĠÙĦÙĦØ´Ø§Ø±Ø¨ÙĬÙĨ": 7064, "ĠÙĦÙĪÙĦØ§": 968, "ĠØ¬Ø¯": 4094, "ÙĦÙĪÙī": 5560, "ĠØ«ÙĦØ©": 7920, "ĠØ³ÙĨØ¯Ø®ÙĦÙĩÙħ": 9059, "ĠØªØ·Ø¹ÙĩÙħØ§": 9532, "ĠØ£ÙĩØ¤ÙĦØ§Ø¡": 5064, "ĠÙĪÙĪÙĩ": 2843, "Ø¨ÙĦØ¯": 3639, "ĠØ¨Ø§ÙĦØ¢Ø®Ø±Ø©": 1460, "Ø³ÙĪØ§": 1619, "ĠÙħØ³ØªÙħ": 5113, "ĠÙħÙĪØªÙĩØ§": 2373, "ĠØ§ÙĨÙĤÙĦØ¨ÙĪØ§": 6477, "ĠÙģØ¹ÙĦØª": 6602, "ĠØ§ÙĦØ£ØºÙĦØ§ÙĦ": 5942, "ĠÙģØªØ±Ø¨ØµÙĪØ§": 5055, "ĠØªØ±ÙĥÙĪØ§": 9188, "ĠÙħÙĥ": 789, "Ø¸Ø©": 2345, "ĠÙĦØ£ØµØŃØ§Ø¨": 8500, "ĠÙģØ§": 299, "ĠÙĬØ±ÙĩÙĤ": 8186, "ĠØ³Ø¨Ø¹ÙĬÙĨ": 9226, "ĠÙħØ±Ø¬Ø¹": 1821, "ÙĩØ²Ø¦ÙĪÙĨ": 1840, "ĠÙĨØŃ": 2892, "ĠØ«ÙħØ±Ùĩ": 6032, "ØµØ¨": 4770, "Ø°Ø¨ØŃ": 6070, "ĠÙĥÙģÙĪØ§": 7514, "ĠÙģØ§ÙĦØ°ÙĬÙĨ": 2582, "ĠÙĦÙĬÙĪÙħ": 2937, "ĠÙĥØ§ÙģØ±ÙĬÙĨ": 2877, "ĠÙĪØ¹Ø¬": 8357, "Ø´ÙĬØ§": 4053, "ĠØªÙĤÙĪÙĦÙĪÙĨ": 3523, "ĠØ·Ø¨Ø§": 8269, "ĠØ¨Ø²Ø¹ÙħÙĩÙħ": 10204, "ØŃØ©": 3505, "ÙĥÙĪÙĨÙĨ": 2367, "ĠØ¨Ø£ÙħÙĪØ§ÙĦ": 2111, "ĠÙĬØ³ØªØºÙĬØ«": 8457, "ĠÙĪØ§ÙĦÙħØ¤ÙħÙĨØ§Øª": 2392, "ĠÙĪÙĥÙħ": 2625, "ĠØ¨ÙħØ¹Ø°Ø¨ÙĬÙĨ": 6809, "ĠØ§ÙĦØ¶": 2441, "ĠÙĬØŃØª": 6146, "ĠÙĪØ§ØµØ·": 4454, "ĠØ§ÙĦÙģÙĦÙĥ": 1483, "Ø¨Ø¯": 249, "ÙĬØ«": 530, "ÙĨØ¬ÙĬÙĦ": 2271, "ÙĪÙģÙĬÙĩÙħ": 5012, "Ø¬ÙĬÙĥÙħ": 5774, "ÙĩÙĬÙĨ": 1424, "ĠÙĥÙĩÙģÙĩÙħ": 10226, "ĠÙħØ´Ø±Ùĥ": 4622, "ĠØŃÙĪ": 7751, "ĠÙĪÙĪØ¬Ø¯Ùĥ": 9906, "ĠØªØ£ÙħÙĨÙĩ": 8598, "ĠÙĬÙĥÙĦÙģ": 8350, "ĠÙĪÙĥÙĨØ§": 1807, "ĠÙĤØ±Ø¦": 9221, "ĠØ¢ÙĬØª": 5869, "ĠØŃØ¨Ø©": 4090, "ĠÙģØ£ÙħØ³Ùĥ": 6015, "ĠÙĪØ£ÙĪÙĦØ§Ø¯Ø§": 9706, "ĠÙĦØ§": 132, "ĠÙĥØ±ÙĩØ§": 4376, "Ø¨Ø¹Ø«": 995, "ĠØ£Ø³Ø³": 6400, "ĠØ§ÙĦÙħÙĩÙĬÙĨ": 7742, "ØµØ±Ø©": 5083, "ĠÙħØŃØµ": 5273, "ĠÙģØ¯Ø¹ÙĪÙĩÙħ": 7296, "Ø¨Ø·ÙĦÙĪÙĨ": 4399, "ĠØ§ÙĦØ¹ØªÙĬÙĤ": 10272, "ĠØ¯ÙģØ¹": 6004, "ĠÙĦÙĦØ¬": 8142, "ĠÙĪØ¬ÙĦØª": 8069, "ĠÙĬØ£ØªÙĬ": 778, "ĠÙģØ³ÙĬÙĨ": 8665, "ĠÙħØ«ÙĦ": 845, "ÙģØ¹ÙĪÙĦØ§": 3316, "ĠÙģØªØ¨ÙĬÙĨÙĪØ§": 6228, "ĠÙĪØ§Ø¯Ø®ÙĦÙĪØ§": 6725, "ĠÙħÙĩØ¯Ø§": 10189, "ĠÙĬØ£ÙħØ±ÙĪÙĨ": 6223, "ĠØ¹ÙĦÙĬÙĩÙĨ": 2341, "Ø³Ø¨ÙĪÙĨ": 1205, "ĠØ¥ÙĨØ³": 4779, "ÙĨØ¢ÙĨ": 7087, "ĠÙĬØªÙĤØ¨ÙĦ": 6122, "ĠØ£Ø¥ÙĨÙĥ": 9101, "ÙĦØ§Ùģ": 1855, "Ø¶ÙĦ": 384, "ĠØªÙĥØªÙħÙĪÙĨ": 4295, "ĠÙĪØ®ÙģÙĬØ©": 9069, "ÙĬØ§ØŃ": 2503, "ĠØ³ÙĬØ¦Ø©": 2245, "ĠØ£ÙĨØ·": 5829, "ĠÙĪØ£ÙĪØ°": 7727, "ĠÙĦÙĦØ¥ÙĬÙħØ§ÙĨ": 6816, "ĠØ¹Ø§Ùĥ": 4015, "ĠØŃØ¨": 5902, "ĠÙĨÙĥÙĦÙģ": 6583, "ĠÙĨØ§Ø¯Ùī": 3383, "ĠÙĪÙĬØ±": 1425, "ĠØ¨ÙĦÙĤ": 3120, "ĠØ§ÙĦÙħØ³ÙĦÙħÙĬÙĨ": 2403, "ĠØ§Ø³ØªÙĨØµØ±": 8561, "ÙĪØ²ÙĨØ§": 8992, "ĠØªØ·Ø¦": 9417, "ĠØ¨Ø£ÙĬØ¯ÙĬÙĥÙħ": 9679, "ĠÙĪØ¶Ø¹ØªÙĩØ§": 9919, "ĠØ¥ÙĨÙĩ": 372, "ĠØ¨Ø®ÙĦØ§ÙĤ": 6633, "ĠØ§ÙĦÙħØ´Ø£": 5895, "ĠÙĪØ£ÙĦÙĤ": 1870, "ĠØ¬ÙħÙĬ": 757, "ĠØŃØ°Ø±ÙĥÙħ": 7761, "ĠÙĨØ¯Ø¹ÙĪ": 5427, "ĠØ³ÙħØ§ÙĨ": 7673, "Ø§ØªÙĦÙĪÙĥÙħ": 3054, "Ø¬Ø§ÙĩØ¯ÙĪÙĨ": 7508, "ĠÙģØ£ÙĨØ¸Ø±ÙĨÙĬ": 8908, "Ø³ÙĨØ§Øª": 5657, "ĠÙĪØ§ÙĦØªÙĪØ±Ø§Ø©": 9953, "ĠÙħØ¸": 7198, "Ø£ÙĬ": 665, "ĠÙĬØ´Ø±Ùĥ": 2452, "ĠÙĬÙĨØ§Ø¯ÙĬÙĩÙħ": 5532, "ĠØµØ¯ÙĬÙĤ": 8718, "ĠÙĦÙĬÙĨØ°Ø±ÙĥÙħ": 9520, "ØºÙĬØ±": 1875, "ĠØ§ÙĨÙģ": 8824, "ĠØ§ÙĦØºØ§Ø¦Ø·": 8527, "ĠØ£Ø¦": 2634, "ĠØ¨Ø¬ÙĩØ§Ø²ÙĩÙħ": 9797, "ĠØ¨ØµÙĬØ±": 1151, "ĠÙĦÙĦÙĨØ§": 774, "ĠØªØµØ¨Ùĥ": 8966, "Ø¤ÙħÙĨÙĪØ§": 1645, "ĠØ§ÙĦÙĨØ´Ø£Ø©": 7066, "ĠØ§ÙĦÙĨØ¨ÙĬ": 929, "ĠÙĪØ¹ÙĦ": 3432, "ĠØ¨Ø£ØŃØ³ÙĨ": 4245, "ĠØºÙģÙĦØ©": 4188, "Ø±Ø¨ÙĪØ§": 1886, "ĠØ³ÙĬÙĤÙĪÙĦ": 5175, "ĠÙħØ¹ÙĬÙĨ": 6106, "ĠØªÙĨØ°Ø±": 8609, "Ø±Ø¢ÙĨ": 721, "ĠØ§ÙĦÙħØ´Ø±ÙĤÙĬÙĨ": 9661, "ĠØ§ÙĦÙħØµÙĬØ±": 1361, "ĠØªØªØ®Ø°ÙĪØ§": 2120, "ĠØ§ÙĦÙģØ¬Ø±": 4317, "ĠØªÙĤØ±Ø¨": 3733, "ÙĩØ¯ÙĬÙĩÙħ": 6391, "ĠØ³Ø®Ø±ÙĬØ§": 6739, "ĠØµØ§ÙĦØŃØ§": 1019, "ĠØ±Ø¶ÙĪØ§ÙĨ": 6847, "ĠÙĪØ§ÙĦØ£ØŃØ¨Ø§Ø±": 8165, "ĠÙĪØ£Ø±Ø¬": 3176, "ĠØ³Ø§ÙĤ": 5857, "ĠØ±ÙĩÙĬÙĨ": 7561, "ÙģØª": 389, "ĠØ¢ÙĨØ³Øª": 6962, "Ø¨ÙĬÙĨÙĪØ§": 6092, "ĠÙħÙĨØ§ÙģØ¹": 4013, "Ø°ÙĬØ±": 4694, "Ø«Ø±Ùĥ": 8576, "ĠÙģØªÙĤØ¹Ø¯": 8327, "ÙĪØ§Ùĥ": 4696, "ĠØ£ÙĪÙĦÙĬØ³": 8810, "ĠÙĥØ±Ø³ÙĬÙĩ": 10224, "ĠØ±Ø£Ø³Ùĩ": 6536, "ĠÙĦØ¢ÙĬØ§Øª": 1131, "ĠÙĨØ§ØµØ±ÙĬÙĨ": 3392, "ÙĪØ³": 1060, "Ø³ÙĦØ®": 9447, "ĠÙĥØ¨Ø±": 2876, "ĠÙħÙĦØ¬": 6803, "ĠÙģØ§ØŃØ´Ø©": 5016, "ĠÙĬÙģÙĤ": 1733, "ĠÙĤØ±Ø©": 7530, "ĠÙĬØ³ØªÙĨ": 8449, "ĠÙģØ±Ø¶ØªÙħ": 9696, "ÙģØ¹ÙĪÙĨ": 7393, "Ø±ÙģÙĪØ§": 3323, "ÙĦØ§ÙĩØ§": 4739, "ĠÙģÙĪÙĤÙĩ": 8940, "Ø¨ÙĬØ§Ø¡": 4184, "ĠÙħÙĨØªÙĤ": 5741, "ĠØ¨ÙħØ¤ÙħÙĨÙĬÙĨ": 3776, "ĠØªÙĥÙģØ±ÙĪØ§": 5106, "ĠÙĥÙĦÙħØª": 4415, "ĠØ§Ø±ØªØ¶Ùī": 7032, "ĠÙģØ¬Ø§Ø¬Ø§": 9085, "Ø¬Ùĩ": 5768, "ĠÙĪØ§Øµ": 1494, "ĠÙĦÙĬØ¹ÙĦÙħ": 4174, "ĠØ®Ø¶Ø±": 4867, "Ø¨Ø±Ø§Ø±": 3730, "ĠØ§ÙĦÙħØµ": 2493, "ĠÙħÙĤØª": 2180, "ĠØ£ÙĬØ§Ùħ": 1499, "ĠØ§ÙĦÙĦÙĬÙĦ": 725, "Ø±ÙĪÙģ": 948, "ĠÙģÙĤØ§ÙĦÙĪØ§": 1671, "ĠÙĪØ£Ø±Ø¬ÙĦÙĥÙħ": 5489, "ĠØ§ÙĦÙĦ": 5582, "ĠÙĬØ¶Ø±ÙĥÙħ": 6749, "ÙĦÙĤÙĪØ§": 7969, "ĠÙģÙĤØ·Ø¹": 8620, "ĠØ£Ø¹ÙĪØ°": 3723, "ĠØ¥ÙĦÙĬ": 251, "ĠØ§ÙĦØ¬ÙĪØ§Ø±": 6210, "Ø§ÙĪÙĬÙĨ": 5277, "ĠÙħØ¢": 2628, "ĠÙĪØ§ÙĦØ·": 2203, "Ø¨ÙĦÙĪ": 6085, "Ø³ØªØ¯Ø±Ø¬": 7886, "ÙĦØ§Ø¡": 526, "Ø¯Ø§Ø¯": 3954, "ØªÙĨØ§": 645, "ĠØ¨Ø±Ø¯Ø§": 8853, "ØªÙħ": 131, "ĠÙģØ§ØŃØ°Ø±": 9880, "ĠÙĪØ£ØªØ¨Ø¹ÙĪØ§": 10080, "ĠØ¨Ø§ÙĦÙħÙģØ³Ø¯ÙĬÙĨ": 9264, "ĠÙĬØ¨Øª": 3112, "ĠØ£Ø®ÙĬ": 5159, "ĠÙĦØŃØ¯": 7313, "ĠØ«Ø¹Ø¨": 7922, "ĠØ¨ØŃ": 2308, "ĠÙĩØ§Ø¬Ø±": 9140, "ÙģØ±Ø§": 4870, "ĠÙĪØ¸ÙĦÙĦÙĨØ§": 10021, "ĠÙĪØ§ÙĦÙħØ´Ø±ÙĥÙĬÙĨ": 5152, "ĠØ£Ø¯Ø¹ÙĬ": 8845, "Ø±": 53, "ĠØ§ÙĦØŃÙĪØ§Ø±ÙĬ": 4920, "ĠÙĪØ£ÙĤ": 1455, "ĠÙĬØ·Ø§Ùģ": 9113, "ĠÙĪØ²ÙĬÙĨØªÙĩØ§": 6840, "ĠØ®Ø§Ø´": 2499, "ĠØ³Ø§Ø¦": 3563, "ĠØ§Ø«ÙĨÙĬÙĨ": 2602, "ĠØ§Ø³ØªØºÙĨÙī": 8562, "Ø¹ÙĦÙĪØ§": 1579, "ĠØ±ÙĪØ§": 2473, "ĠØ¹ÙĦÙī": 144, "ÙĤÙĪØ§": 290, "ĠÙģØ£ÙĨØ¬ÙĬÙĨØ§": 8907, "Ø¶Ø¹ÙģÙĪÙĨ": 6669, "ĠÙĬÙĤÙĪÙħ": 4337, "ĠØ·ÙĦØ¹ÙĩØ§": 7021, "ØªÙĦÙģ": 864, "ĠØ·Ø±Ø§Ø¦": 8272, "ĠÙĨØŃÙĨ": 675, "ĠÙĪØ¬": 231, "ĠØ¨Ø±ØŃÙħØªÙĩ": 8855, "ĠØªÙĥÙĪÙĨ": 744, "ØŃÙħØ©": 1073, "ĠÙĪÙĨØ°ÙĬØ±Ø§": 2958, "ĠØ¹Ø°Ø§Ø¨Ø§": 980, "ĠØ§ÙĦØ¥ÙĨØ³": 3727, "ĠØ¥ÙħÙĦØ§ÙĤ": 7386, "ĠÙĪØ§ÙĦØ±ÙĥØ¹": 10074, "ĠÙĦÙĦØ£Ø°ÙĤØ§ÙĨ": 10120, "ĠØ§ÙĦØŃØ²ÙĨ": 7932, "ÙĦÙĨØ§Ùĩ": 4190, "ĠÙĬÙĥØ°Ø¨": 2751, "ĠØ§ÙĦÙħØ¹Øª": 3576, "Ø·ÙĬÙģ": 3567, "ĠØ¹ÙħÙĦÙĩ": 5174, "ĠØ¨ÙĬÙĨÙĬ": 2365, "Ø²ÙĪØ§Ø¬": 801, "ĠÙħÙĥØ§ÙĨ": 1379, "ĠØ®ÙĦÙĤØ§": 3265, "Ø¯Ø«": 3953, "ĠØ¯ÙħØ±": 4923, "ĠÙĪØ§ÙĦÙĨØ®ÙĦ": 6488, "Ø§Ø±Ø¯": 7924, "Ø·Ø±ÙĨ": 8885, "ĠØ¨Ø¹Ø¯ÙĩÙħ": 1724, "ĠÙĬØŃÙĥÙħÙĪÙĨ": 5311, "ĠÙĩÙĦÙĥ": 4813, "ÙĦØª": 529, "ÙĩÙĪØ§": 1676, "ĠØ³Ùĥ": 3560, "ĠØ¨ÙĬ": 681, "ĠØ¨Ø§ÙĦØ´": 4129, "ĠØ¥ÙĥØ±Ø§": 7383, "ĠØ´Ø¦ØªÙħØ§": 9908, "Ø·ÙĬ": 603, "ĠÙĤÙĪØ§Ø±ÙĬØ±": 10072, "ĠØ¬ÙħÙĬØ¹": 6486, "ĠØ¨Ø¹Ø¶Ø§": 2756, "ĠÙħØ¶ÙĦ": 7204, "ĠØ£Ø±Ø§Ø¯ÙĨÙĬ": 9274, "ĠØ±Ø¡ÙĪÙģ": 3843, "ĠØ±ØŃÙħØªÙĨØ§": 5187, "ĠØ§ÙĦÙĤØ¯ÙĬÙħ": 9495, "ĠØ²Ø¨Ø±": 8411, "ĠØ§ÙĦÙĦØºÙĪ": 7134, "ĠÙĦØ¨Ø¹Ø¶": 2645, "ĠØªØ±ÙĬÙĨ": 8223, "ĠÙĪØ²Ø±ÙĪØ¹": 9585, "ĠÙħÙĨÙģ": 7424, "ĠÙĪØ§Ø¶ÙħÙħ": 9734, "ĠØŃÙĦØ§ÙĦØ§": 4859, "ĠÙĤÙĦØªÙħ": 2716, "ĠÙĬØ¬Ø²": 8629, "ĠÙĪØ§ÙĦØ¥ÙĥØ±Ø§Ùħ": 9121, "ĠØªØ¨Ø¯ÙĦ": 9357, "ĠÙĬØ´Ø±": 4676, "Ø§Ø²ÙĤÙĬÙĨ": 3813, "ĠØ§ÙĦÙħÙĨØª": 5246, "ÙħØªØ¹ÙĩÙħ": 8795, "ĠØ£ÙĬØªÙĩØ§": 8131, "Ø·ÙĩØ±ÙĥÙħ": 6698, "ĠØ§ÙĦØ¹ÙħØ±": 5461, "Ø°ÙĪÙĨ": 3487, "ØªÙĤ": 1148, "Ø§Ø²": 1314, "ĠÙĬÙħØª": 4681, "Ø¬ÙħØ¹ÙĪØ§": 6955, "ĠÙĪÙĬØ¹Ø°Ø¨": 3827, "ĠÙħØ¤ÙħÙĨØ§Øª": 5632, "ĠÙĨÙĤØ¶": 6781, "ĠØ¥Ø®Ø±Ø§Ø¬": 6824, "ĠØ¹Ø¨Ø¯": 1441, "ĠØ£ÙĪØŃ": 1643, "ĠÙĦÙĪÙĦÙĬÙĩ": 8528, "ĠØ§Ø³ØªØ³": 8556, "Ø²Ø±": 3545, "ĠÙħØµÙģÙĪÙģØ©": 10314, "<BOS>": 1, "ĠØ¨ØºÙĬØ§": 2998, "ĠÙĪØ¨Ø¯": 5599, "ĠÙĬÙħØ³Ø³ÙĨÙĬ": 9248, "ĠØ¬Ø¯ÙĦØ§": 9842, "ÙĪØ²ÙĨ": 8991, "ĠÙĪÙħØ£ÙĪØ§ÙĥÙħ": 9886, "ĠÙĪØ±ÙģØ§ØªØ§": 8477, "ĠÙĬØ¨Ø¯Ø¦": 6667, "ĠØ£ÙĤØ¯Ø§Ùħ": 4642, "ĠÙħØ¤ØµØ¯Ø©": 9468, "ÙĥØ±Ø§Ùħ": 7176, "ĠÙģØ¹Ø§": 7278, "ĠØ®ÙĪÙģ": 1456, "ĠØªØ´Ø±": 7469, "ĠØ¥ÙĨÙħØ§": 453, "Ø³Ø§ÙĨ": 1620, "ĠØ¨Ø§ÙĦØ¹Ø±Ø§Ø¡": 9973, "ÙĦØ¦": 2832, "Ø·ÙĨØ§": 3566, "ĠÙĪØ¨Ø´Ø±Ùī": 4467, "ĠØ§ÙĦØ¬Ø§Ùĩ": 2110, "ÙĤÙĪÙħ": 5695, "ĠÙħØ³ÙĪØ¯Ø§": 8518, "ÙĩØ¨ÙĪÙĨ": 4595, "ĠØªØ®ÙģÙĪÙĩ": 6787, "ĠÙĪØ£Ø·ÙĬØ¹ÙĪØ§": 1963, "ĠØ¹ÙĨØ¯Ùĥ": 2736, "ĠØ·Ø¨Ø¹": 6205, "Ø¹Ø¨Ø¯ÙĪÙĨ": 3011, "ĠÙģØ¶ÙĦÙĩ": 1212, "ĠÙĪØ¨ÙĬÙĨÙĥ": 4394, "ĠØ¨Ø¢ÙĬØ§ØªÙĬ": 5142, "Ø¹ÙģØ§": 4633, "ĠÙĪÙĦØ¨Ø§": 5954, "ĠÙħØªÙĬÙĨ": 8798, "ĠØªÙĩÙĪÙĬ": 10219, "ĠØ§ÙĦÙĨØ®ÙĦØ©": 9991, "ĠÙĬØ±ÙĬÙĥÙħ": 4687, "ÙģØ±ÙĪØ§": 1708, "Ø¨ÙĬØª": 4952, "Ø§ÙĤ": 438, "ĠØ³ÙĦØ§Ùħ": 1570, "ĠÙĦÙĦØ¹Ø¨Ø§Ø¯": 9211, "ĠÙħØ£ÙĪØ§ÙĩÙħ": 3943, "ĠÙĪÙĩÙĨ": 7141, "ĠÙĬØ´Ø§ÙĤ": 6167, "ĠÙĪØ§ÙĦØ£ÙĪÙĦØ§": 8163, "ĠØ§ÙĦÙħÙĨØªÙĩÙī": 8957, "ĠÙĪÙĤÙĦÙĨØ§": 3621, "Ø¹ÙĦÙĪÙĩ": 7863, "ĠÙĪÙĬØ²ÙĥÙĬÙĩÙħ": 6931, "ĠÙĬØ®Ø±Ø¬": 969, "Ø§ÙĦØŃ": 376, "ÙĬØªÙĨÙĬ": 6311, "ĠØ§ÙĦØ±Ø¶": 7126, "ĠØ¹Ø¨Ø§Ø¯": 586, "Ø±Ø§Ø±Ø§": 2346, "ĠÙĪØ¨Ø±Ø²ÙĪØ§": 9625, "ĠØ£Ø¨Ø±ØŃ": 9924, "ĠØ´ÙĩÙĪØ¯Ø§": 9969, "ĠØ®ÙĦØ§ÙĤ": 5925, "ĠØ§ÙĦÙħØªÙĥ": 4083, "ĠØ§Ø³ØªÙĥ": 5124, "ĠØªØªØ°ÙĥØ±ÙĪÙĨ": 6326, "ĠÙĬØ¹ÙĬØ¯": 4263, "ÙĩÙĬØ¯": 5580, "ĠØ§ÙĦØ³Ø¨Øª": 4134, "Ø±ØªÙħ": 4598, "ĠÙģÙĪÙĬÙĦ": 2643, "ĠØ²ÙĬÙĨØªÙĩÙĨ": 6660, "ĠØ³Ø®Ø±ÙĩØ§": 9368, "ĠÙĨØ³Ø§Ø¦ÙĩÙĨ": 8786, "ĠÙĥØ°Ø§Ø¨Ø§": 9769, "ĠÙĪÙĩØ§Ø±ÙĪÙĨ": 3053, "ĠØ¨ØªØ£ÙĪÙĬÙĦ": 9914, "ĠÙĩ": 111, "ĠÙģÙģØ²Ø¹": 10046, "ĠÙģØ«": 7269, "ĠÙĬÙĥØ§Ø¯ÙĪÙĨ": 6856, "ĠÙħØ¹Ø±Ø¶ÙĬÙĨ": 4200, "ĠØ¸ÙĩÙĪØ±ÙĩØ§": 10028, "ĠÙĬØ¹Ø°Ø¨": 2752, "Ø±ØŃØ§Ùħ": 3355, "ĠÙĨØ¹Ø¬Ø©": 9838, "ĠÙĤÙĪØ§Ø±": 5789, "ĠÙĪØ§ÙĦÙħÙĬØ²Ø§ÙĨ": 3884, "ĠÙģØµ": 1434, "ĠÙĤØ±Ø¶Ø§": 3536, "ĠØ£Ø¨Ø§": 2184, "ĠÙĬÙĦÙĩ": 7318, "ĠÙĪØ§ÙĦØŃØ±": 7595, "Ø§Ø±Ø¬": 4151, "ĠÙĪØ§Øº": 6490, "ĠÙĪØ£ÙĨØ¹Ø§Ùħ": 8262, "Ø¯Ø±Ø¬": 7251, "ĠØ§ÙĦÙĨØ¨ÙĬÙĪÙĨ": 8941, "ĠÙĪØ¹Ø§Ø¯Ø§": 8363, "ĠÙģØ¹ÙĦÙĪÙĩ": 4418, "ĠØºÙĦÙĬ": 2943, "ÙĤØ§ÙĦ": 1854, "ĠÙĤÙĦÙĪØ¨ÙĨØ§": 3722, "ÙĨØ³Ø§ÙĨ": 685, "ĠØ¨Ø§ÙĦÙħ": 1514, "ĠØªØ®": 641, "ĠÙĪØ¢Ø¨Ø§Ø¤ÙĥÙħ": 4522, "ĠÙĬÙĤØ¨ÙĦ": 3746, "ÙĤØ§ÙĨ": 2649, "ĠØ¨Ø§ÙĦØŃ": 3600, "ĠØ®ÙĦÙĤÙĩÙħ": 5041, "ÙĦÙĤÙĪÙĨ": 4929, "ĠÙĬØ®ØªØµÙħÙĪÙĨ": 5512, "ĠØ·Ø§ÙĤØ©": 8271, "ĠÙĬÙģØ³Ø¯ÙĪÙĨ": 6823, "ÙĪØ¶": 3424, "ĠØ³ØŃØ§Ø¨": 3565, "ĠØªØ®ÙģÙĬ": 6427, "ĠÙħØ´ÙģÙĤÙĪÙĨ": 4463, "ĠØ¨Ø§Ø²": 7373, "ĠÙĬØªÙĤÙĪÙĨ": 1648, "ØªÙħÙĪÙĨØ§": 6701, "ĠÙĬØ³Ø£": 4296, "ĠÙĤØ±ÙĬÙĨØ§": 9222, "ÙĦÙĤÙī": 4930, "ĠÙĬØ¶ÙĦÙĪÙĨ": 5258, "Ø§ÙĦÙī": 1752, "ØªÙĤÙħÙĨØ§": 4413, "ÙĩÙĬ": 3912, "ĠÙĦØ¥Ø®ÙĪØ§ÙĨÙĩÙħ": 5426, "ĠØªØ³ÙħØ¹ÙĪÙĨ": 7487, "ĠÙĪØ§ÙĦØ¶Ø±Ø§Ø¡": 4565, "ĠØ§ÙĦØ³ÙħØ§Ø¡": 468, "ĠØ£ÙĤØ³ÙħØªÙħ": 9504, "ĠÙħØŃÙĬØ·": 3389, "ØŃÙĨ": 518, "ĠÙģØ§Ø³ØªØ¬": 4381, "ØºØ©": 3184, "ĠØ¨Ø°ÙĨ": 1942, "ĠØŃØ¨Ø§": 3181, "ĠØ§Ø¬Ø¹ÙĦ": 2726, "ĠÙĤØ±ÙĪÙĨØ§": 7536, "ĠØ£ÙĩÙĦÙĥÙĨØ§ÙĩÙħ": 5268, "ØªÙĨ": 1847, "ĠÙĪÙģØ±ÙĬÙĤØ§": 6724, "ĠØ¨ÙĨÙĬØ§": 7362, "ĠØ§ÙĦØ¢Ø®Ø±ÙĬÙĨ": 2143, "Ø°Ø§ÙĨ": 1690, "ĠØ£Ø¹Ø²Ø©": 8602, "ĠØ£Ø®ÙĦ": 7238, "ĠØ§ÙĦÙĪØ¹Ø¯": 2812, "ĠØ§ÙĦØ¯ÙĪØ§Ø¨": 8210, "ĠØ¶ÙĦ": 1476, "ĠØ¨Ø§ÙĦØ³ÙĨ": 7848, "ĠØ¨ÙĥÙĦÙħØ©": 8744, "ĠØ§ÙĦØ¨Ø·ÙĪÙĨ": 6335, "ĠÙĤÙĪØª": 5786, "Ø¹Ø¯ÙĬÙĨ": 4904, "ĠÙĪØ¹Ùħ": 657, "Ø¡": 151, "Ø§Ø¤ÙĨØ§": 1905, "ĠÙĪÙĦÙĤ": 4121, "ĠØ¯Ø§Ø±ÙĩÙħ": 4924, "ĠÙĦÙĬØ¬ÙħØ¹": 8007, "ĠÙģØªØ±Ùī": 4251, "Ø¬ÙĬØ±Ø§": 7503, "ĠÙĬØ³ØªØŃÙĬÙĬ": 8452, "ĠØ£ÙħÙĪØ§ÙĦØ§": 8952, "Ø¯Ø¯": 3465, "ĠÙģØ£ÙĪÙĦØ¦Ùĥ": 856, "ĠÙĨØ³ÙĤÙĬÙĥÙħ": 8785, "ĠØ¨Ø£ÙĬØ¯": 2964, "ĠØ£ØŃØ¯Ø§": 1525, "ĠØ§Ø³ØªØ·Ø¹": 2766, "ĠÙħÙĤØ±ÙĨÙĬÙĨ": 5537, "ĠØ§Ø¯Ø®ÙĦÙĪØ§": 2145, "Ø¯Ø§ÙĨ": 2299, "ÙĪÙĪØ§": 4588, "Ø°Ø§": 139, "ĠÙĪØ§ÙĦØ³Ø§Ø¹Ø©": 9056, "ÙĩØ¨Ø§": 4594, "ĠÙĪÙĬØ²ÙĬØ¯ÙĩÙħ": 4556, "ĠÙĪÙĬØ±ÙĬÙĥÙħ": 9212, "Ø±ÙĨÙĬÙĨ": 4599, "ĠÙħÙĪØ«": 6153, "ĠÙģØ§ØªØ¨Ø¹ÙĪÙĩ": 6878, "ÙĩØ²Ø¦": 4423, "ĠØ¸ÙĩÙĬØ±Ø§": 5381, "ĠØ³": 116, "ĠØ£ÙĬÙħØ§": 1122, "ĠØ§ÙĦÙĬÙĩÙĪØ¯": 3048, "Ø¹Ø±Ø¶ÙĪØ§": 4634, "Ø±ÙĤØ¨": 7123, "ĠÙħÙĦØ§ÙĤ": 3456, "ĠØ§ÙĦÙĨØ¯Ø§ÙħØ©": 8241, "ĠØ§Ø²Ø¯Ø§Ø¯ÙĪØ§": 8601, "ĠÙģØ§Ø°ÙĥØ±ÙĪØ§": 3255, "ĠØªØ¹Ø§ÙĦÙĪØ§": 3297, "ĠØ§Ø®ØªØ±": 9152, "ĠÙĪÙĪØ¶Ø¹": 5307, "Ø¹ÙĬÙĩØ§": 9385, "ĠØ´ÙģØ§Ø¹ØªÙĩÙħ": 9970, "ĠØ±ØŃÙħ": 642, "ĠÙĦÙħØŃÙĬ": 8094, "Ø¥ÙĨ": 7587, "ĠØªØ¹Ø§": 7471, "ĠØ«ÙĦ": 7919, "ĠØ§Ø±ÙĥØ¹ÙĪØ§": 9801, "Ø¯Ø©": 521, "ĠÙĨÙĪØŃ": 841, "ĠØ§ÙĦØ°Ø¦": 5849, "ĠØªÙĪØ¨": 2873, "ÙĦÙĪÙħ": 5558, "ĠØ³Ø¹ÙĬÙĥÙħ": 9294, "ĠÙĬØ¬Ø²ÙĬ": 6368, "ĠØ£ÙĨØ¹ÙħÙĨØ§": 6736, "ĠØ§ÙĦØµÙĦØ§Ø©": 737, "ĠØ£Ø¹Ùħ": 808, "ĠÙĦØ¢ÙĥÙĦÙĪÙĨ": 8973, "ĠÙĪÙĬØ¨ÙĬÙĨ": 7891, "ĠÙģØ¹ÙĨØ¯": 8995, "ĠÙĬØ³Ø£ÙĦ": 4297, "Ø³ÙħØ¹ÙĪÙĨ": 1329, "Ø±Ø§Ø¡": 4597, "ĠÙģØ§Ø®Ø±Ø¬": 5408, "ĠÙĦØ±Ø¬": 5684, "ĠÙħØ§Ø°Ø§": 1398, "Ø´Ø±ÙĥÙĪÙĨ": 1071, "ØªØ¨Ø¹ÙĪÙĨ": 5171, "ĠÙĬØµÙĨØ¹ÙĪÙĨ": 4347, "ĠÙĪØ§ÙĦØ¬ÙĨ": 5838, "ÙĪÙģÙĪØ§": 2951, "ĠØ¨Ø§ÙĦØŃØ³ÙĨØ©": 4542, "ÙĥØ±ÙĪÙĨ": 503, "ØµØ¯ÙĤÙĬÙĨ": 5164, "Ø§Ø¬Ùĩ": 8945, "ĠØ§ÙĦÙĩØ¯Ùī": 1384, "ĠÙħØ¹Ø±ÙĪØ´Ø§Øª": 10283, "ĠÙĤÙĬØ§ÙħØ§": 4764, "ĠØªÙħØ³": 2069, "ĠØŃÙĨÙĬÙģØ§": 2609, "ÙħØ©": 471, "ĠØ§ÙĦÙĨØ¨ÙĬÙĬÙĨ": 2792, "ĠÙĪÙĤØ±Ø§": 4162, "ĠØ§ÙĦÙĨØµÙĬØ±": 8235, "ĠØ³Ø±ÙħØ¯Ø§": 9367, "ĠØ§ÙĦÙĤØ§Ø³Ø·ÙĪÙĨ": 9613, "ÙģØªÙĩÙħ": 7396, "ÙĩØ§ÙĩÙħ": 7567, "ĠØ¢ØªÙĨØ§": 4826, "Ø¬ÙĨØ¨ÙĩØ§": 9161, "ĠØªÙĨØ²ÙĬÙĦ": 2561, "ĠØªØªØ®Ø°": 5118, "ÙħØ§Ø±": 5748, "ĠØ¹ÙĦÙħÙĨØ§Ùĩ": 8589, "Ø¨ÙĦØº": 1292, "ĠØªØ´Ø±ÙĥÙĪÙĨ": 3136, "ĠÙĪØ£ÙħØ±Øª": 3848, "ĠØ§ÙĦÙĤØ¨ÙĪØ±": 4172, "ĠØªÙģØ¬ÙĬØ±Ø§": 8920, "ĠÙĦØ¨Ø«ØªÙħ": 3058, "ĠÙĪØ²ÙĦ": 5600, "ĠÙĪØ¨ÙĦØº": 5605, "ĠØ§Øª": 406, "ĠØ¨ÙĬÙĨØ©": 1988, "ÙĤØ¹Ø©": 5698, "ĠØ£ØªØ±Ø§Ø¨Ø§": 9791, "ĠÙĬÙĨØ²ØºÙĨÙĥ": 10173, "ĠÙĪØ§ÙĦØ³": 1113, "ĠÙĪØ¹ÙĩØ¯ÙĩÙħ": 8368, "ĠØ¯Ø±Ø¬Ø§Øª": 2276, "ĠÙĪÙģÙĬÙĩØ§": 6547, "ĠØ®Ø°ÙĪÙĩ": 9492, "ĠÙĬØ£ØªÙĪÙĨ": 3681, "ĠÙĦÙħØ¯ÙĬÙĨ": 8093, "ĠÙĪÙĪØ¬Ø¯": 4439, "ĠØ§ÙĦÙħØµÙĦØŃÙĬÙĨ": 9574, "Ø¬Ø²Ùī": 7506, "ĠØ¨Ø§ÙĦØ¥": 2348, "ĠØ¥ØµÙĦØ§ØŃÙĩØ§": 9761, "ĠÙĪÙĦÙħØ§": 1092, "ĠØµØ¯ÙĪØ±ÙĩÙħ": 2569, "ĠÙĬÙĨØ²Øº": 6974, "ĠØ§ÙĦØªØ±": 8911, "ĠÙĬÙģÙĤÙĩÙĪÙĨ": 2163, "ØªØ±": 3437, "ĠØ±Ø¨ÙĩÙħ": 462, "ĠÙĪØ§ÙĦØ£Ø¨Ø±Øµ": 8166, "ĠÙĪÙĬÙĤØ¨": 7896, "ĠÙĤØ±Ø¢ÙĨØ§": 2671, "ĠÙĬØ¤ÙħÙĨÙĪÙĨ": 551, "Ø²Ø¹ÙĨØ§": 4785, "ĠÙģÙģÙĬ": 5668, "ĠØªÙĤÙĪÙħ": 2127, "ĠØ´ÙĬØ¹ØªÙĩ": 7019, "ĠØ§ÙĦÙħØ±Ø³": 1117, "Ø¯ÙĨ": 3464, "Ø§Ø¯Ø±": 2714, "ĠÙģÙĬÙĩÙħ": 1782, "ĠÙĨÙĤ": 2075, "ÙĪØ§ØŃØ´": 7349, "ĠØ§ÙĦØºÙģÙĪØ±": 2388, "ĠÙĪØ§ÙĦÙĬØªØ§ÙħÙī": 3417, "ĠÙĦØ¹ÙĦÙĥÙħ": 729, "ĠØ¸ÙĩØ±": 2740, "ĠØ§ÙģØªØ±Ø§Ùĩ": 3362, "Ø¯Ø§Ø¯ÙĪØ§": 3957, "ĠØ¸ÙĦØ§ÙĦ": 5023, "ĠÙħØ´ÙĥÙĪØ±Ø§": 9309, "ĠØ§ÙĦÙĥÙĬÙĦ": 3224, "ĠØªÙģØ¶ÙĬÙĦØ§": 8921, "ĠØ§ÙĦØ°ÙĨÙĪØ¨": 10076, "ĠÙĪØ£Ø¬Ø±": 3570, "ĠÙĪØ¬Ø¹ÙĦÙĨØ§Ùĩ": 6514, "ĠÙĥØ§Ø°Ø¨ÙĬÙĨ": 5781, "ĠÙĪÙĦØª": 1118, "ĠÙĦÙĬÙĥÙĪÙĨ": 4940, "ĠØ¥ÙĦÙĬÙĥ": 584, "ĠØªØŃØ²ÙĨ": 3393, "ĠÙĪÙĬØªÙĪØ¨": 6831, "ĠÙĪÙģØªØŃØª": 10041, "ĠÙģØ§Ø³ØªØ¹Ø°": 5530, "ĠØ·ÙĦ": 5034, "ĠØ£ÙĦÙĪØ§": 3099, "ĠÙĤØª": 1507, "ĠÙĨØ®Ø±Ø¬": 4799, "ĠØ£ÙĩÙĦÙĥÙĨØ§ÙĩØ§": 5269, "ĠØ£ÙħÙĩØ§ØªÙĥÙħ": 3877, "ĠÙĪÙĦÙĦØ±Ø³ÙĪÙĦ": 6813, "Ø±Ùĥ": 571, "Ø¬ÙĬÙĨØ§": 2197, "ĠØ¹Ø±Ø¨": 2660, "ĠÙĦÙĩØ¨": 8046, "ĠØ£Ø¨Ø´Ø±": 8698, "ĠØŃÙħÙĦÙĩÙĨ": 8843, "ĠÙĪØ¢ÙĬØ§Øª": 7146, "Ø¹Ø²": 7221, "ĠØ§ÙĦÙĤ": 194, "ĠÙĬÙĪ": 573, "ĠØ§ÙĦÙĨØ®ÙĦ": 5025, "ĠØ§ÙĦØ®ÙħØ±": 6267, "ĠÙĬØŃØ¯Ø«": 8173, "ĠØ¯Ø§Ø¨": 1644, "ĠØªÙĨÙĥØŃÙĪÙĩÙĨ": 9621, "ĠÙĪÙħÙĤØ§ÙħØ§": 8438, "ĠØªÙħØª": 2468, "ĠØ§ÙĦØ¬ØŃÙĬÙħ": 1372, "ĠØ£Ø³ÙĦØŃ": 6402, "ĠÙĪØ¬ÙħØ¹": 8067, "ĠÙĪØ´Ø§": 9277, "ĠÙĬØ±ÙĬØ¯ÙĪØ§": 8837, "ĠÙĬØµØ¯Ø±": 9449, "ĠØ§ÙĦØµØ§ÙĦØŃØ§Øª": 714, "Ø¹ÙĥÙħ": 3945, "ĠØ¨Ø§ÙĦÙĥÙģØ±": 4891, "ĠÙĬØ¸ÙĦÙħÙĪÙĨ": 1185, "ĠØ´Ø±Ø¨": 4108, "ĠØ¨ÙĦØ¯Ø©": 5056, "ĠÙĦÙĪØ§": 3109, "ĠÙĬØ³ØªØ·Ø¹": 8451, "ĠØªØ¨Ø¹Ùĥ": 6810, "ĠÙĪØ£ÙĪØª": 7718, "ĠÙħØ¹Ø±ÙĪÙģ": 2228, "ĠØ£ØµÙĨØ§ÙħØ§": 10010, "ĠÙĦØºÙĪØ¨": 9130, "Ø§Ø¦Ø¨ÙĬÙĨ": 6088, "ĠÙĪØ§ÙĦÙħØ³Ø§ÙĥÙĬÙĨ": 2819, "ĠØªÙĤÙĪÙĦ": 1219, "ĠÙĪØ³Ø¹Ùī": 8663, "ĠÙĪØ¬Ø¯ÙĩØ§": 9548, "ĠØŃØ§ÙħÙĬØ©": 10085, "ĠÙģÙĪÙĤ": 921, "ĠØ°Ø±ÙĬØ©": 2502, "ĠÙģØ£Ø®Ø§Ùģ": 7954, "ĠØªØ¯Ø®ÙĦÙĪØ§": 3750, "ĠÙĪÙĩØ§Ø¬Ø±ÙĪØ§": 5357, "ĠØªØ±ÙĩÙĤÙĩÙħ": 8231, "ĠØ£ØŃÙĦØ§Ùħ": 6184, "ĠØ¹ÙĨÙĬØ¯": 5970, "ĠÙħÙħØ§": 458, "ĠØ§ÙĦØµØ§Ø¨Ø±ÙĬÙĨ": 2532, "ĠØ£Ø·": 2850, "ĠØ°ÙĪØ§": 5968, "ĠÙģÙĨÙģØ®ÙĨØ§": 10313, "ÙĤØ·Ø¹ÙĪÙĨ": 6735, "ĠØ±ÙĤ": 2201, "Ø¹ÙĦÙĩØ§": 7225, "ĠÙĪÙĦÙĬÙħØŃØµ": 9802, "ĠØŃ": 129, "ĠÙĤØ§Ø¯": 7526, "ĠØ¨Ø¬ÙĩÙĨÙħ": 9356, "ĠÙĦÙĩÙĪ": 1584, "ĠÙĬØ¹Ø·ÙĪØ§": 8382, "ĠÙħØ¨Ø±": 7201, "ĠÙĨØ²ÙĦÙĩ": 9363, "ĠÙĨØ£ØªÙĬ": 10075, "ĠÙĬÙĨØ¨Ø¦ÙĩÙħ": 6129, "ĠÙĩØ¤ÙĦØ§Ø¡": 927, "ĠØ®ÙĦÙĪØ§": 3192, "ĠØ¹ÙģÙĪØ§": 4730, "ĠÙĪÙĬØ³Øª": 1363, "ĠÙĬØŃØ´Ø±": 8169, "ĠÙĪØ§Ø´ÙĩØ¯": 9325, "ÙĬÙĦ": 284, "ÙĬØ¡": 5567, "ĠÙĪØ£ÙĤØ§Ùħ": 7723, "ĠÙĬØ°ÙĥØ±ÙĪÙĨ": 2307, "ĠØ£Ø±Ø§": 1062, "ĠÙħÙĨØ²ÙĦÙĬÙĨ": 7431, "ĠØ§ÙĦÙĨØ°Ø±": 5024, "Ø¨Ø¦ÙĥÙħ": 1600, "ĠÙĬÙģØ¹ÙĦÙĪØ§": 9040, "ĠÙĥÙĬØ¯Ùĩ": 9256, "Ø®Ø±Ø§Ø¬": 7549, "ĠØ¨Ø§ÙĦØ¨Ø£Ø³Ø§Ø¡": 9319, "Ø¸Ø±ÙĬÙĨ": 2239, "ÙģØ±": 137, "ĠÙĪÙĦØ£Ø¬Ø±": 9334, "ĠÙĪØ±Ø²ÙĤÙĥÙħ": 6785, "ĠÙĪØ§ØºÙģØ±": 5211, "Ø§": 43, "ĠØ¹Ø§ÙĤØ¨Ø©": 1237, "ĠØ§ÙĦÙħØ¯ÙĬÙĨØ©": 2039, "ĠÙĨØ²ÙĦÙĨØ§": 3157, "ĠÙħ": 59, "ĠØ¹ÙĨÙĬ": 3604, "ĠÙĦØ¯ÙĬÙĨØ§": 4408, "ĠÙĪÙĦÙĬÙħ": 3919, "ĠÙĪØ§ÙĦØ³ÙĦÙĪÙī": 6588, "ĠÙĬØ³Ø¬Ø¯": 2981, "ĠÙģÙĬÙĨØ¨Ø¦ÙĩÙħ": 6680, "ĠØªØ¹ØªØ°Ø±ÙĪØ§": 6902, "ØªÙģÙĤØ§": 7185, "ĠÙĪØ¶Ø±Ø¨Øª": 9737, "Ø¶Ø§Ø¹Ùģ": 6684, "ĠÙĦÙĦÙĬØ³Ø±Ùī": 10054, "ĠØ·ÙĬØ¨Ø§": 3675, "ĠÙĪØµØ§ØŃØ¨": 6579, "ĠØ·Ø±ÙĬØ§": 9995, "ĠÙĬØ£ØªÙĬÙĥÙħØ§": 8844, "ĠÙĤÙĪÙĬ": 5189, "ĠØªÙĤÙĪÙħÙĪØ§": 9466, "ĠØ¥Ø¹Ø±Ø§Ø¶": 10211, "ĠÙĨØ¬ÙĨÙĬ": 8887, "ĠÙĬØ²Ø§ÙĦÙĪÙĨ": 9050, "ĠÙĪÙħØªØ§Ø¹": 6938, "ĠØ§ÙĦÙħØºÙģØ±Ø©": 7741, "Ø³": 63, "ĠÙĪØ°Ø§": 5597, "ĠÙĪØ¯Ø®ÙĦ": 5606, "ĠÙĥÙħØ«ÙĦ": 2156, "ĠÙĪØ£ÙĪÙģÙĪØ§": 4079, "ØŃÙĤØ§": 7405, "ĠØŃØ±Ø«": 3339, "ĠØªØ±ÙĬØ¯ÙĪÙĨ": 4238, "ĠØ§ÙĦÙħÙĥØ±ÙħÙĬÙĨ": 9963, "ĠØ£ÙĨØ¯Ø§Ø¯Ø§": 3555, "Ø§Ø¹ÙĤØ©": 3880, "ĠØºØ«Ø§Ø¡": 8045, "ĠØªÙĨÙĩØ±": 8610, "Ø§Ø¦Ø±": 1986, "ĠØ£Ø¨ÙĦØº": 2851, "ĠØ«ÙĬØ§Ø¨ÙĩÙħ": 9781, "Ø¨Ø¹": 241, "ĠÙĥÙĪÙĨÙĪØ§": 2670, "ĠÙĪØ³Ø¹": 2393, "ĠØ¬Ø²Ø§Ø¤Ùĩ": 6528, "ĠÙĬÙĨÙĥ": 3244, "ĠØªÙĥØ±ÙĩÙĪØ§": 5766, "ĠÙĤØ§ÙĦØª": 1161, "ĠØ¨Ø±Ø¨ÙĩÙħ": 2799, "ĠÙĬØ®ÙĪ": 4292, "ĠÙĥÙĩÙģ": 7518, "ĠÙĥÙģØ±ÙĪØ§": 307, "ĠÙĦØªÙĥÙĪÙĨÙĨ": 8569, "ĠØ¹ÙĨÙĥÙħ": 1326, "ĠØ¯Ø®ÙĦØªÙħ": 6836, "ĠÙħÙĪØ¹Ø¯Ø§": 5008, "ĠØ¥Ø¨Ø±Ø§ÙĩÙĬÙħ": 700, "ĠÙĬÙĪØ²Ø¹ÙĪÙĨ": 6395, "ĠØ£ÙĬØ§ÙĨ": 3653, "ÙĦÙħØ§Øª": 1147, "ĠÙĪØ±Ø³ÙĦÙĬ": 8657, "ĠØ£ÙĪÙĦÙĪ": 1539, "ĠØ¬": 133, "Ø¨ÙĪ": 3924, "ÙħØ«": 7091, "ĠØ¨Ø¹ÙĪÙĦØªÙĩÙĨ": 8115, "ÙĥÙĩØ©": 2431, "ĠØ£Ø¹ÙĨØ§ÙĤÙĩÙħ": 5475, "Ø±ØŃÙħÙĨ": 2150, "Ø·ÙĩØ±ÙĪÙĨ": 5862, "ĠÙĦØ³ÙĨØ©": 7311, "ĠÙģØ³ÙĪØ§ÙĩØ§": 8672, "ĠØ¨Ø§ÙĦØµØ§ÙĦØŃÙĬÙĨ": 9609, "ÙĥØ§Øª": 7170, "ĠØ¹Ø¬": 1561, "ĠÙĦÙĤÙĪÙĦ": 4664, "ĠÙĪØ§ÙĦØ²ÙĬØªÙĪÙĨ": 4795, "ĠØ²ÙħØ±Ø§": 8416, "ĠÙħÙĨ": 79, "ÙĬØ§Ø±": 1642, "Ø«ÙĬØ±": 2488, "ĠÙģÙĬÙĨØ§": 3961, "ĠÙĬÙĨÙĬ": 7321, "ĠÙĪØ§ÙĦØ±ÙħØ§ÙĨ": 9835, "ĠØ£ÙĪÙĦ": 899, "Ø±ÙĬÙĥÙħ": 3222, "Ø£ÙĩØ§": 7415, "ĠÙĪØ¢ØªÙĬÙĨØ§Ùĩ": 2811, "ÙģÙĤØ±Ø§Ø¡": 5730, "ĠÙĬØ¹ÙĪØ¯ÙĪÙĨ": 8385, "ĠÙģØ§ØªØ¨Ø¹ÙĪÙĨ": 8939, "ĠÙĪØ³Ø§Ø±": 6387, "ĠØ¨ÙħØ¬ÙĨÙĪÙĨ": 8915, "ĠØ§ÙĦÙĥÙģÙĦ": 8028, "ĠÙĦÙĦÙħØªÙĤÙĬÙĨ": 1664, "ĠØ§ÙĦÙģØ§Ø³ÙĤÙĪÙĨ": 2813, "ÙĦÙħØ§ØªÙĩ": 3751, "ÙĩØ§Ø¬Ø±": 2884, "ĠÙģØ·": 2854, "ĠÙĬØ£Ø¬ÙĪØ¬": 8300, "ĠØ¨ØªØ§Ø¨": 7358, "ĠØ£ÙģÙħÙĨ": 1726, "ĠÙĪØ§ÙĦØ°ÙĬÙĨ": 339, "ĠØ§ÙĦØ¹Ùħ": 2838, "ĠÙĦÙĥÙĬ": 8341, "ĠØ¬Ø§ÙĨØ¨": 4528, "ĠØªØ¹ÙĦÙħ": 602, "ĠØµØ¯ÙĤØ§Øª": 6424, "Ø§ÙģØ¹ÙĬÙĨ": 8295, "ĠØ§ÙĦÙħØ¹ÙĦÙĪÙħ": 10249, "ĠØ£Ø¹Ø±Ø¶ÙĪØ§": 6349, "ĠÙĥØ¨ÙĬØ±Ø©": 9420, "ĠÙĥØ§ÙĦØ¹ÙĩÙĨ": 10155, "Ø³Ùħ": 239, "ĠÙĬØ¯Ø±ÙĬÙĥ": 6279, "ĠØ¨Ø§Ø¨": 4702, "ĠØ§ÙĦÙħÙģ": 2080, "ĠØ§ÙĦÙĪØ¯": 5585, "ĠÙģØ£ÙĤÙħ": 7952, "ĠØ±ØŃØ¨Øª": 8628, "ĠÙĪØ´ÙĩØ¯": 9278, "ĠØ§ÙĦØ£ÙĪÙĦÙĬÙĨ": 1126, "Ø¨Ø§Ø¦Ø±": 5623, "ĠÙĨØ¬ÙĬØ§": 8886, "Ø±Ø§Ùĥ": 1253, "ÙģØ¸ÙĪØ§": 6845, "ĠÙħØ®ÙĦØµØ§": 5514, "ĠØ§ÙĦØ®ÙĬØ±": 1591, "ĠØ¹Ø¯": 732, "ĠÙģØ¯ÙĬØ©": 6805, "ĠÙĦØ¯ÙĨÙĥ": 3358, "ĠÙĪØ¢ÙħÙĨÙĪØ§": 3307, "ÙĦÙĬÙĩÙħ": 2879, "ĠØ±Ø²ÙĤ": 839, "ĠÙĪØ¢Ø®Ø±": 3081, "ĠØ¨ÙĦØ§Ø¡": 3991, "ĠÙģØ±Ø¢Ùĩ": 8447, "Ø¬ÙĪ": 3528, "ĠÙĬØ®Ø²ÙĬ": 4293, "ĠØ§ÙĦÙĦÙĩ": 91, "ĠÙĬÙĦØ¹": 3115, "ĠØ£Ø¹ÙħÙĦ": 5227, "ĠØ§ÙĦÙĥØ±ÙĬÙħ": 6906, "Ø¨Ø«Ø§": 7194, "ĠÙĦØ´Ø±": 7301, "ÙĪØŃ": 423, "ĠØ£Ø¶ÙĦ": 1937, "ĠØ¨Ø§ÙĦØºÙĬØ¨": 2268, "ĠØ§ÙĦØªÙĪØ§": 3080, "Ø°Ø±ØªÙĩÙħ": 5080, "ÙĩÙĪ": 261, "ÙĦÙĥÙħ": 523, "ÙĥØ«Ø±": 3435, "ĠÙĥÙĩ": 7509, "ĠÙĪØ£ÙĨØ´Ø£ÙĨØ§": 8266, "ØªÙĬÙĥÙħ": 3642, "ĠÙĩÙĨÙĬØ¦Ø§": 5542, "ĠØ¢ØªÙĬÙĨØ§": 850, "ĠØ¯Ø§ÙĨÙĬØ©": 7938, "ĠÙĦØ±Ø¨Ùĥ": 9351, "ĠÙĪÙĤØ·Ø¹ÙĨØ§ÙĩÙħ": 10274, "ĠÙĬÙĪÙĤ": 2015, "ĠÙĪÙģØµØ§ÙĦÙĩ": 10319, "ĠÙĬØµØ¯ÙĪÙĨ": 3753, "ĠÙħØ´Ùģ": 5631, "ĠØªÙģØ±ÙĤÙĪØ§": 6846, "ĠØªØ¶ÙĦ": 7475, "ĠØ¹Ø¯ÙĨØ§": 6467, "ĠÙĪØ¨Ø§Ø¡ÙĪØ§": 8485, "ĠÙĪØªØ¬Ø¹ÙĦ": 8153, "ĠÙĤØ¨Ø¶": 8769, "ĠÙĬØªÙĨØ§": 6116, "ĠØ¹ÙĨØ§": 2313, "ĠÙĨØ®ÙĦ": 7621, "ĠØ°ÙĨÙĪØ¨ÙĨØ§": 5424, "ĠØªØ£Ø®Ø°ÙĪØ§": 8594, "ÙĪÙĦØ§": 359, "ĠÙģØ³ÙĪÙī": 8668, "Ø§Ø®": 1004, "ØªØ±ÙĪØ§": 2291, "Ø¢": 152, "ĠÙĬÙĪÙħØ¦Ø°": 676, "ĠÙħØ¯": 1039, "ĠØªÙĤØªÙĦÙĪØ§": 3138, "Ø±Ø¨ØµÙĪØ§": 4474, "ĠÙĪÙĦÙĪÙĦØ§": 1322, "ĠÙĪØ§ÙĦØ²Ø¨Ø±": 9836, "ĠÙĪØ¨Ø§ÙĦÙĪØ§ÙĦØ¯ÙĬÙĨ": 5355, "ĠØ§ÙĦØ¸ÙĨ": 2556, "ĠØªØ®ÙĦÙĤ": 8726, "Ø·ÙĬØ¹ÙĪØ§": 1302, "ĠÙħÙĤ": 2294, "ĠÙħØªØ§Ø¹": 1744, "ĠØ£Ø·Ø¹ÙĨØ§": 7246, "Ø±ÙĨØ§": 4596, "ĠØ£Ø±Ø³ÙĦØªÙħ": 5156, "Ø±Ø§Ùģ": 5951, "ĠÙĬÙĨÙĤØ°": 8137, "ĠØªØŃ": 381, "ĠØ³ÙĬØ±": 4069, "ĠÙģØ§Ø¹Øª": 3254, "ĠÙģØ§ØªÙĤÙĪØ§": 1738, "ÙĤÙĨØ§": 1622, "Ø·Ø¹": 614, "ĠÙģØ£ÙĦÙĤ": 1980, "ĠØ¹Ø¬ÙĪØ²Ø§": 9290, "ĠØ§Ø³ØªØ£Ø°ÙĨ": 6338, "ĠÙħØ´Ø±ÙĥÙĪÙĨ": 7207, "Ø¯Ø§": 295, "ĠØºÙĦØ¨Øª": 7018, "ĠÙĬØ¨": 809, "Ø¦Ø©": 1006, "ĠÙĪØ§ÙĦÙħØ³Ø¬Ø¯": 9360, "ĠØ§ÙĦØ¹ÙĤØ¨Ø©": 7966, "ĠÙĨÙĥÙģØ±": 9032, "ĠØ§ÙĦØ±Ø¬ÙĬÙħ": 9266, "Ø³ÙĤÙĬÙĨØ§ÙĥÙħ": 9693, "ĠÙĦØªØ³ÙĥÙĨÙĪØ§": 5474, "ÙĨÙģØ§Ø¡": 7088, "ĠÙĪÙĬØ¹": 1516, "ĠÙĥÙħÙĨ": 2669, "ĠÙĪÙĦÙĪØ·Ø§": 3703, "ÙħØ±": 292, "ĠÙĪØ¸Ø§": 7153, "ĠØ±Ø¡ÙĪØ³": 2606, "Ø¹ÙħÙĦ": 2510, "ĠØ¥ÙĦÙĩØ§": 1825, "ĠØ§ÙĦÙĬÙħÙĬÙĨ": 2171, "Ø·Ø§Ø¹": 3759, "ĠÙĪØ£ÙĤÙĦ": 9229, "ĠÙģØ¹ÙĦÙĬÙĩØ§": 6564, "ĠÙĪØ§Ø±ØŃÙħÙĨØ§": 6713, "ĠØ´ÙģØ¹Ø§Ø¡": 6968, "ÙĦØ¨Ùĩ": 5133, "ĠÙħØ¹ÙĦ": 2295, "ĠÙĪØ¨ÙĬÙĨÙĥÙħ": 2589, "ĠÙģÙĬÙĩØ§": 257, "ĠÙĤÙĪÙħØ§": 946, "ĠÙĬÙĤØ¶ÙĬ": 5188, "ĠØ§ÙĦØ¹Ø¨Ø§Ø¯": 7963, "ĠÙĪØ£Ø¨ØµØ§Ø±ÙĩÙħ": 5519, "ĠØ£Ø®Ø§ÙĩÙħ": 2999, "ĠØ§ÙĨØ·ÙĦÙĤ": 6476, "ØµÙĪØ±Ø§": 7552, "ĠÙĩÙĬÙĨ": 7644, "ĠØªØ¨Øª": 2318, "ĠØ®Ø§ÙĪÙĬØ©": 4106, "ĠÙģØ®ÙĦÙģ": 7288, "ĠÙħØ¹Ø§ÙĬØ´": 9870, "ĠÙģØ¥ÙĨØ§": 2519, "Ø¹Ø§ÙģØ§": 6150, "ĠØ§Ø¹ØªØ²ÙĦ": 6814, "ĠØ£ØŃÙĦØª": 8216, "ĠØ¥Ø¨ÙĦÙĬØ³": 2435, "ĠØ£Ø®Ø°": 987, "ĠÙĬØŃØ²ÙĨÙĥ": 4457, "ĠÙĬØªÙħ": 4673, "Ø¶Ùī": 1446, "ĠØ¨Ø¥ØŃØ³Ø§ÙĨ": 6511, "ĠÙĦØªØ¬Ø±ÙĬ": 8573, "ĠÙĪØ³ÙĬ": 4319, "ÙħÙĦ": 1749, "ĠÙĨØ¶": 4796, "ØªÙħÙĪÙĩ": 2699, "ĠÙģØ²": 3105, "ĠÙĬØªÙģØ·Ø±ÙĨ": 9377, "ĠØ£ÙĨØªÙħ": 575, "Ø®Ø±Ø©": 5994, "Ø¹ÙĬÙĦ": 2183, "ĠÙĪÙĪÙģÙĬØª": 10182, "ĠØ§ÙĦØ£ÙĨØ¨ÙĬØ§Ø¡": 6408, "ĠØ£ÙģØ¨Ø§ÙĦ": 8306, "ĠÙĤØ±ÙĬØªÙĥÙħ": 8860, "ĠÙĪØ¬Ø¦ÙĨØ§": 6973, "ĠØ¨Ø§ÙĦØ¨Ø®ÙĦ": 9316, "Ø³ÙħÙĪØ§": 3231, "ÙĩÙĨÙħ": 590, "ĠÙģÙĬÙĩÙħØ§": 2881, "ĠÙħØ¨ÙĦØ³ÙĪÙĨ": 7040, "ĠØ¨Ø¬Ùĩ": 3841, "ĠØ¨Ø§ÙĦÙħØª": 7851, "ĠÙħØµØ¨ØŃÙĬÙĨ": 4406, "ĠØ±ÙĬØŃØ§": 5449, "ĠØ£ÙĨÙĬ": 1862, "ÙĪÙĦØ¬": 2490, "ĠØ§ÙĦÙħÙĥ": 4080, "ĠØ§ÙĦÙĤÙĬÙĪÙħ": 6044, "ĠÙĬÙĥÙģ": 4254, "ĠØ£Ø¬ÙĪØ±ÙĩÙħ": 5084, "ĠÙĪØ£ØªÙĪÙĨÙĬ": 7726, "ĠØ§ÙĦØ±Ø¨Ø¹": 7909, "ĠÙħØ¶ØºØ©": 9803, "ĠÙĬØ¯Ø®ÙĦÙĩ": 5404, "ÙĪÙĥÙĦÙĪÙĨ": 2987, "ĠØ®ÙĦÙģ": 1195, "ÙĪØ§Øª": 280, "ĠØ¹ÙĨØ¯ÙĥÙħ": 6181, "ÙĤØ§Øª": 1108, "ĠÙĦØ£ÙħÙĦ": 5112, "ĠØ§ÙĦÙĨÙĥØ§": 6192, "ĠÙħÙĨØ¸Ø±ÙĬÙĨ": 7430, "ĠØ®ÙħØ³ÙĬÙĨ": 9846, "ĠÙĪØ²Ø§Ø¯": 6516, "ĠÙħØ±ÙģÙĪØ¹Ø©": 7068, "ĠÙģØ¥ÙĨÙĩØ§": 6104, "ÙħØ´ÙĪØ§": 7099, "ĠÙĪÙĦÙĥÙĨÙĥÙħ": 8502, "ĠÙĬØ®Ø³Ùģ": 6287, "ĠÙĪÙħÙĨÙĩÙħ": 1254, "ĠØ¬Ø§Ø¯": 7769, "ĠÙĪØ§Ø±Ø²ÙĤ": 5359, "ĠØ¨Ø¹Ø¶Ùĩ": 6263, "ĠÙĪØ¹ØµÙĬÙĨØ§": 8367, "ĠØ£ÙģØ¨Ø§ÙĦØ¨Ø§Ø·ÙĦ": 10297, "ĠØ£ÙģØ£": 2112, "ĠØ³Ø¨ÙĬÙĦÙĬ": 6258, "ĠÙĦÙĦØ´Ø§Ø±": 6134, "ĠÙĬÙħÙĦÙĥÙĪÙĨ": 2604, "ĠØªÙħØªØ±ÙĪÙĨ": 9564, "ØºÙĨÙī": 4092, "ĠØ´Ø¬Ø±Ø©": 3591, "ĠØ¨Ø¹ÙĦÙħ": 3119, "ĠÙģØ§Ø³ÙĦÙĥ": 6563, "ĠÙĦÙĨØŃÙĨ": 4260, "Ø¹ÙĦØ§Ùħ": 7226, "ĠÙĪØ§ÙĦØŃÙĥÙħ": 1958, "ĠØ¥ÙĦÙĬÙĩ": 595, "ÙĦÙĩØ§": 619, "ĠÙĪØ§ÙĦØ³ÙħØ§ÙĪØ§Øª": 6589, "ÙĩÙĤ": 3076, "ĠÙĪØ£Ø³": 5873, "ĠØ§Ø¶Ø±Ø¨": 5457, "ĠÙĪØ£ÙĨÙĩÙħ": 4239, "ĠØ§ÙĦØ¹ÙĩØ¯": 7960, "ĠØªÙĨØ³Ùī": 8608, "ĠÙĦØªÙĥÙĪÙĨ": 6341, "ĠÙħÙĨÙĤÙĦØ¨ÙĪÙĨ": 10066, "ĠÙĪØ¯ÙĪØ§": 5604, "ĠÙģÙħÙĨÙĥÙħ": 8575, "ĠØ§Ø³ØªÙĤØ§ÙħÙĪØ§": 5125, "ĠÙĬØ¹Ø¨Ø¯ÙĪÙĨ": 2550, "ĠÙĪØ§ÙĦÙħÙĩØ§Ø¬Ø±ÙĬÙĨ": 6377, "Ø§ÙĨØ§": 1923, "ĠÙĨØ³Øª": 4797, "ĠÙĬØºÙĬØ¸": 8809, "ĠØ£ØŃØ¯ÙĥÙħ": 3341, "ÙģÙĥØ§": 7399, "ĠØ§ØªØ¨Ø¹": 962, "ĠÙĦÙĬØ¶": 4939, "ĠÙĪÙĦØªØ¨ÙĦØºÙĪØ§": 9065, "ĠØ¢ÙĦØ°ÙĥØ±ÙĬÙĨ": 9090, "ĠÙģØ£": 181, "ĠØ±ØŃÙĬÙħØ§": 1533, "ĠÙĪÙĦÙĦÙħØ¤ÙħÙĨÙĬÙĨ": 5521, "ĠØ´Ø±ÙĥØ§Ø¦ÙĥÙħ": 6573, "ĠØ§ÙĦØ£ÙĬÙĥØ©": 5547, "ĠÙĦÙħØŃÙĬÙĬ": 8096, "ĠØ¨Ø±Ø¨ÙĨØ§": 9054, "ĠÙĪØ§ÙĦÙĤØ§ÙĨØªÙĬÙĨ": 9011, "ĠØ³ÙĬØ¬Ø¹ÙĦ": 8709, "ĠÙĬØºÙĨÙĪØ§": 5197, "ÙĦÙĤØ©": 3620, "ĠØ£ÙĤØµÙī": 8879, "ÙģØ¶": 5725, "ĠÙĦÙħÙĬÙĤØ§Øª": 6102, "ĠÙĬØ¬ØŃØ¯": 6370, "Ø²ÙĩÙħ": 5818, "ĠÙĦÙĦØ·Ø§Ø¦ÙģÙĬÙĨ": 9875, "ĠÙĪØ§Ø¨": 1305, "ĠØ§ÙĦÙħÙĤØ³Ø·": 5898, "ĠÙĪØ£ÙĪØŃ": 2208, "ĠØ£ØŃÙĦ": 2953, "ĠÙĨÙħÙĦÙĬ": 9603, "ĠØ¨Ø¹": 264, "ĠØ¹Ø§ØµÙħ": 6922, "ĠØ§ÙĦÙĤØ¯": 2220, "ĠÙģØ¥ÙĦÙĬÙĨØ§": 7994, "ĠØ¥ÙĬØ§ÙĨØ§": 9453, "Ø·ÙħØ¦ÙĨ": 3406, "ĠØªÙĪÙĦÙĪÙĩÙħ": 10067, "ĠØ£Ø¹ÙĨØ§": 2992, "ĠÙĬØ¦Ø³ÙĪØ§": 9938, "Ø¹ÙĪ": 1241, "ØŃØ´": 1277, "ĠØ§ÙĦÙģØµÙĦ": 3311, "Ø³Ø§": 874, "ĠØ¶ØŃÙī": 8340, "ĠØ²Ø¨ÙĪØ±Ø§": 8415, "ĠÙĬÙģÙĦØŃÙĪÙĨ": 8739, "ĠØ·Ø§Ø¦ÙģØªØ§ÙĨ": 9099, "Ø³ØªØ¨Ø±": 4896, "ĠØ£ÙĨØ¹Ø§Ùħ": 5831, "ÙĪØ¹Ø¸Ø©": 3804, "ĠÙĩØ¯": 2896, "ĠÙĤØ±Ùī": 7528, "ĠÙĬØªÙĪÙģ": 2230, "Ø¨Ø¯ÙĦ": 2366, "ĠØªÙĪ": 1282, "ĠÙĦØ£Ø¬ÙĦ": 5111, "ĠØ¨Ø³ÙĦØ§Ùħ": 6578, "ÙĤØ¯ÙĪÙĨ": 6071, "ÙĬØ£Ø³": 5569, "ĠØ§Ø¯": 934, "ĠØ¯ÙħØ±ÙĨØ§": 9977, "ĠÙĦÙĩ": 213, "ĠÙģØ¹ÙĦÙĪØ§": 5278, "ÙĤÙĪÙĦ": 242, "ĠØªØ¬Ø§Ø¯ÙĦ": 8582, "ĠØ£Ø±ØŃØ§Ùħ": 4346, "ĠØ°Ùĩ": 7857, "ĠÙħØµÙĬØ¨Ø©": 2592, "Ø¨ÙĦÙĪÙĨÙĥÙħ": 5625, "ĠØ§Ø«ÙĨ": 6677, "ĠØªÙĩÙĪÙī": 5765, "ĠØªØµØ¯": 4024, "ĠÙĬØ³ØªÙĪÙĪÙĨ": 6283, "ÙĩØ¨Ø·": 3078, "Ø²ÙĬÙĨÙĩ": 3802, "ĠØ£ØŃØµÙĬÙĨØ§Ùĩ": 9617, "Ø£Ø³Ø§Ø¡": 4721, "ĠØ¨Ø§ÙĤÙĬØ©": 10063, "ĠÙĪÙĨØ¬ÙĪØ§": 8256, "ÙĪØ¯ÙĪÙĨ": 4244, "ÙģØªØ§ÙĨ": 8401, "ÙĦÙĬÙħ": 445, "ĠÙĬÙĪØŃ": 1556, "ĠØµØ±Ùģ": 3215, "ĠÙĪØ§Ø¯Ø¹": 5370, "Ø®Ø±Ø§Øª": 5995, "ÙĤØ¯": 209, "ĠÙĦØ°ÙĥØ±Ùī": 9813, "ĠÙĪØ§ÙĦÙĦØ§Ø¦ÙĬ": 10235, "ĠÙĬØ³ÙĪÙħÙĪÙĨ": 6298, "ĠØ¨ÙĪØ¬ÙĪÙĩÙĥÙħ": 10210, "ĠÙĦØ³Ø§ÙĨØ§": 7315, "ĠØ³ÙĨ": 1115, "ĠÙħØ³Ø§ÙĥÙĨÙĩÙħ": 4558, "ĠØªÙĨØ³": 7477, "ØªÙģÙĥ": 5617, "ĠÙĪÙĤØ¶ÙĬ": 4163, "ØªØ®Ø°ÙĨ": 9384, "ĠÙĬØ¬Ø§Ø¯ÙĦÙĪÙĨÙĥ": 9738, "ĠÙĦØ®": 2449, "Ø·ÙĪ": 7682, "ĠØ±Ø¬": 621, "ĠÙĪØ§ÙĦØ£ÙĪÙĦØ§Ø¯": 10290, "ĠÙĪØ±Ø§Ø¦ÙĩÙħ": 6292, "ĠÙĦÙĦØ³": 4209, "ĠØ§ÙĦÙĨÙĩÙī": 8237, "ĠØ§Ø³ØªÙĥØ¨Ø±": 8559, "ĠÙħÙĦØ¬Ø£": 10168, "ĠÙħÙĪÙĦØ§": 2372, "ĠØ§ÙĦØº": 457, "ĠØ´ÙĩØ±": 3590, "ĠØ¨Ø£ÙĨÙģØ³ÙĩÙħ": 4421, "ĠÙĬØ¹ÙħÙĩÙĪÙĨ": 3369, "ĠØ¯Ø¹ÙĪØ§ÙĩÙħ": 5402, "ĠÙħØªØ±Ùģ": 6462, "ĠØ¨Ø´ÙĬØ±": 9159, "ĠÙħØ³Ø±ÙģÙĪÙĨ": 9744, "ĠÙĬØŃÙĬÙī": 4397, "ĠØ£Ø±Ø¬Ùĩ": 9590, "ĠÙĦÙĥÙĨØª": 8342, "ĠÙĬÙĨØªØµØ±ÙĪÙĨ": 9983, "ĠÙĪØ¶ÙĦ": 2844, "ĠØ£ÙģÙĩÙħ": 8304, "ĠÙĤØ±ÙĨØ§": 9220, "ĠØ§ÙĦÙĨØ§": 224, "ĠØ£ÙħØ³Ùĥ": 4915, "Ø®Ø§ÙĨ": 7547, "ĠÙħØ³Ø§ÙģØŃÙĬÙĨ": 10142, "ĠØ¢ØªØ§ÙĩÙħ": 3047, "ĠÙģØ¢ØªÙĪÙĩÙĨ": 9905, "ĠØ£Ø®Ø±Ùī": 1919, "ĠØ£Ø®ÙĪØ§ØªÙĩÙĨ": 8654, "Ø¶Ø±Ø¨": 3544, "ĠØ°ÙĪÙĬ": 7860, "Ø´Ø¯": 3150, "ĠÙĦÙĤØ§Ø¡ÙĨØ§": 5117, "ĠÙģÙĦÙĬØ¹ÙħÙĦ": 8882, "ĠØµØ¯ÙĤØª": 8717, "ĠÙģØ£ÙĦÙĤÙī": 6768, "ĠØ¨Ø³": 1067, "ÙħØªÙħ": 3421, "ĠÙĦÙĬÙĤØ¶ÙĬ": 9675, "ĠØ£Ø´Ø¯ÙĥÙħ": 8986, "ĠÙĪØ¥ÙĬØª": 5944, "Ø§Ø¸ÙħÙĬÙĨ": 9831, "Ø°ÙĪØ§": 4693, "ĠØªÙĥÙģØ±ÙĪÙĨ": 2236, "ĠØ§ÙĦÙħØ±Ø³ÙĦÙĬÙĨ": 1341, "Ø«ÙĦ": 1116, "ĠÙĪØ¨Ø£ÙĬÙħØ§ÙĨÙĩÙħ": 8486, "ĠÙĪØ£Ø·": 4835, "Ø¹ÙĪØ§": 422, "ĠÙĪØ£ÙĥØ«Ø±": 3056, "ĠØ¥ÙĨÙĬ": 403, "ĠØ±Ùĥ": 2882, "ĠÙĪØ¬Ø¹ÙĦÙĨØ§ÙĩÙħ": 4370, "ĠÙĤØ¯Ø±Ùĩ": 4217, "ĠÙĪØ£ÙĨØ¨Øª": 8261, "Ø¢Ø®Ø±ÙĬÙĨ": 6216, "ØªÙĪÙĨÙĬ": 2133, "Ø¯ÙĪÙĨÙĩÙħ": 8469, "Ø§Ø·ÙĬØ±": 2549, "ĠØ§ÙĦØ·ÙĪØ±": 3330, "ØªÙĦÙģÙĪÙĨ": 1737, "ĠÙĥØ§ÙģØ©": 4552, "ĠØ£ÙĪÙĦÙī": 2921, "ĠÙģØ±ÙĤÙĪØ§": 8442, "ĠÙħÙĤØªØµØ¯": 9472, "ĠÙĦÙĬÙĤÙĪÙĦÙĪÙĨ": 4941, "ĠØ¨ÙĨÙĬ": 743, "ĠØ¨ØºØ¶Ø¨": 5158, "ÙģÙĬØ¹": 3699, "ĠÙĪØ§Ø°ÙĥØ±ÙĪØ§": 2101, "ĠØ§ÙĦÙħØ³Øª": 1964, "ĠÙĨÙĪØŃØ§": 3344, "Ø¶Ø±Ø©": 6469, "ĠÙĬØ³ØªÙĨÙĥÙģ": 10137, "ĠØ·ÙĬØ¨Ø§Øª": 2961, "ĠØ´ÙģÙĬØ¹": 4112, "ĠØ£ØªÙĪØ§": 4639, "ÙĤØªÙĦÙĪÙĩÙħ": 4458, "Ø¨ÙĥÙħ": 2292, "ĠØºÙģÙĪØ±Ø§": 1522, "°": 17, "ĠØ§ÙĦÙĥÙĪØ§ÙĥØ¨": 10278, "ØªÙĪÙĥÙĦ": 2444, "ĠØ±ÙĬØ¨": 1631, "ĠØ§ÙĦØ£ÙħØ«Ø§ÙĦ": 2593, "ÙĪØ¯ÙĩÙħ": 8285, "ĠÙĤØ¨ÙĦØ§": 8768, "Ø§Ø³": 1101, "ĠØ§ÙĦØ£Ø³ÙħØ§Ø¡": 4555, "ĠØ¨ÙĪØ§ÙĦØ¯": 3994, "ĠØ§ÙĦÙĩÙĪÙī": 4606, "ĠÙħØ¹ÙĦÙĪÙħØ§": 9512, "ĠØ£ÙĦÙĤÙĪØ§": 3043, "ĠØŃÙħÙĬØ¯": 3764, "ĠØ±Ùħ": 5806, "ĠØ³ÙĨØ¨ÙĦØ§Øª": 10158, "ĠØ£Ø®Ø±Ø¬": 1130, "ĠÙĤØ±Ø§Ø±": 4765, "ĠØ¹ÙĩØ¯": 1692, "Ø±Ø«": 2046, "Ø§Ø¨": 110, "ĠØ¥Ø³ÙĦØ§Ùħ": 7384, "ĠØ¨Ø£Ø¹ÙĬÙĨÙĨØ§": 5551, "ĠÙħØ³ÙĥÙħ": 8513, "ĠØ£ÙħÙĨØ©": 9246, "ĠÙħÙĤØ§Ùħ": 2632, "ĠÙĦØ±": 3965, "ĠØ§ÙĦÙħØ´Ø±ÙĤ": 3889, "ĠÙĦØµØ§Ø¯ÙĤÙĪÙĨ": 5463, "ÙĦÙĩÙħ": 653, "ĠØµØ¯Ø±Ùĩ": 6425, "ĠØ¨Ø±ÙĪØŃ": 5224, "ĠÙĪØ£ØŃ": 2901, "Ø®ÙĦÙĩ": 7546, "ĠØ¨Ø§ÙĦØ¨": 1640, "ĠØ§ÙĦØ¹ÙģÙĪ": 7965, "ĠÙħÙĩØªØ¯ÙĬÙĨ": 5634, "ĠÙĪØ³ÙĨ": 5601, "ÙĤØ§ØªÙĦ": 6587, "ĠØ®Ø§Ø¦ÙģØ§": 9779, "ÙĦÙĬÙĥ": 4043, "ĠÙĨÙĤØ¶ÙĩÙħ": 10166, "ĠÙĪØŃÙģØ¸Ø§": 10148, "ĠØ¨Ø±Ø¨ÙĥÙħ": 4410, "ĠØ¨Ø®": 1308, "ĠÙħØµ": 1103, "ĠÙĪØ§ÙĦØ¯Ø§Ø±": 7605, "ĠÙģØ£ØµØ§Ø¨ÙĩÙħ": 9095, "ØªÙħÙĪÙĩÙħ": 2911, "ĠÙģØ§ØªØ®Ø°": 4383, "ĠÙĪØ§ÙĦØ´ÙħØ³": 2801, "ĠÙĪÙĥØ°Ø¨ÙĪØ§": 2607, "Ø§Ø±ÙĩØ§": 4912, "ØµÙĦØ¨ÙĨÙĥÙħ": 7003, "ĠØªØ¯Ø¹ÙĪÙĨØ§": 9127, "ĠÙħØ¹Ùĩ": 1053, "ĠØ¨Ø·ÙĨÙĩ": 9103, "ĠØ¹Ø§Ø¯Ø§": 9219, "ĠÙģØ°Ø§": 7271, "ĠØ¨Ø§ÙĦØ¯ÙĬÙĨ": 5959, "ĠÙĪÙĪÙĦ": 5596, "ØªØº": 1428, "Ø³ÙĤ": 3102, "ĠØ°ÙĨÙĪØ¨ÙĩÙħ": 9321, "ĠÙĪÙĥØ«ÙĬØ±": 3632, "ĠÙĪØ¥ÙĦÙĩ": 4119, "ĠØ§ÙĦØ®Ø§ÙĦÙĤÙĬÙĨ": 9582, "ĠØªÙħÙĨÙĪÙĨ": 9640, "Ø§Ùĥ": 846, "ĠØ·ÙĦÙĤØªÙħ": 5454, "ĠØ¨Ø´Ø±Ùĥ": 5716, "ĠÙħÙĦÙĥØª": 1904, "ĠØªÙĤØ¯": 2195, "ÙĪÙĨØ§": 3501, "Ø²ÙĦÙĪØ§": 5820, "ĠÙĪÙĪÙĬÙĦ": 6642, "ĠÙĪØ¬Ø¯": 2364, "ĠØ£ÙĬØ¯ÙĬÙĩÙĨ": 6942, "ĠØ¯Ø§Ùħ": 6005, "ÙĪØ±ÙĪÙĨ": 7106, "ÙĬÙĪØ¨": 4584, "ĠÙĬØ£ØªÙĬÙĩ": 5212, "ĠÙĬØ¶ÙĬ": 7323, "ĠØ¹Ø¯Ø¯": 6466, "ĠØªØºÙĬ": 7485, "ĠÙĪØ§Ø®ÙģØ¶": 6789, "ĠØ¬ÙĪØ¹": 7773, "ÙĪÙĨØ³": 4709, "ĠÙĬØ±Ø«ÙĪÙĨ": 8185, "ĠØ§ÙĦØ«ÙĪØ§Ø¨": 9275, "ĠÙĦÙĦØ·Ø§ØºÙĬÙĨ": 9876, "ĠÙģÙĨØ¨Ø°ÙĨØ§ÙĩÙħ": 9900, "ĠÙĪÙĦØ¨Ø§Ø³ÙĩÙħ": 10093, "ĠØ¨Ø¨Ø¹Ø¶": 1773, "ĠÙģØ§ØµØ¨Ø±": 2424, "ĠØ¨Ø£ÙĦ": 5044, "ĠÙĪÙĦÙĩ": 1127, "ĠØ¹Ø¨Ø§Ø¯Ùĩ": 1301, "Ø¯ÙĨØ§": 773, "ØªÙĬÙĦØ§": 3230, "ĠØ£ÙģÙĪØ§ÙĩÙĩÙħ": 5552, "ÙģØ§ÙĦ": 5724, "ĠÙĪØ¢ØªÙī": 6360, "ĠØ§ÙĦØµØ¯ÙĤØ§Øª": 3806, "ĠØ¥ÙĨ": 99, "ĠÙĪÙĬØ±ÙĬØ¯": 6661, "ĠÙĪØ£ÙĤÙħ": 6671, "ĠÙĬÙĩØ±": 7322, "ĠØ": 46, "ØªÙĬÙĩÙħ": 1368, "ĠÙħØ³ÙħÙī": 1431, "ĠÙĬÙģØ³": 2450, "ĠÙĪÙĨÙĪØŃØ§": 6199, "Ø¨ØªÙĥÙħ": 6361, "ĠÙĬØ·Ø¹Ùħ": 6614, "ĠÙĪØ£ÙĨØ°Ø±ÙĩÙħ": 8263, "ĠÙĨØ¬ÙĪØ§ÙĥÙħ": 8891, "ĠÙħÙĦØªÙĨØ§": 9805, "ÙħØ§Ø«ÙĬÙĦ": 10217, "ĠÙĪÙĨØ®": 8243, "ĠØ§ÙĦØ¬Ø§ÙĩÙĦÙĬÙĨ": 3860, "ĠÙħØªØ¹ÙĨØ§": 6463, "ĠØºÙĬØ±Ùĩ": 2124, "ĠØ¸ÙĦÙħÙĪØ§": 913, "ĠÙħØ¬Ø±ÙħÙĪÙĨ": 7209, "ĠÙģØªÙĨÙĪØ§": 8318, "Ø³Ø·": 792, "ĠÙħØ³ÙĥÙĬÙĨØ§": 6940, "ĠØ±ÙĪØŃÙĬ": 9567, "ĠØ§ÙĨÙĤÙĦØ¨ØªÙħ": 10149, "ÙģØ³Ø¯ÙĬÙĨ": 1646, "ĠÙĪÙħØ§ØªÙĪØ§": 4886, "ÙĪÙĨÙĬ": 2459, "ĠØ®ÙĦÙĤÙĩ": 3677, "ĠØ¨ÙĤÙĪÙĦ": 5710, "ØºÙĦØ§ÙĦ": 4861, "ĠÙģØµÙĬØ§Ùħ": 5322, "ĠØ§ÙĦØ¹ÙĨÙĥ": 7964, "Ø«Ùī": 1636, "ĠØ£Ø¹ÙħØ§ÙĦÙĩÙħ": 1236, "ÙĦÙħÙĨØ§": 7653, "ĠÙĪÙĥÙģØ±ÙĪØ§": 8021, "Ø§ØŃØ¨Ùĩ": 9190, "ĠØ£Ø«ÙħØ±": 9282, "ĠØªØ¨Ø±Ø£": 9641, "ĠØ§ÙĦØ±": 166, "ĠÙĦØº": 1274, "ĠÙħØªÙĥ": 2782, "ĠÙģÙĩØ¯Ùī": 5672, "ØŃØªÙĪÙĨ": 4716, "ĠÙĪÙĬÙĤÙĬÙħÙĪÙĨ": 7902, "ĠÙĥÙģØ§Ø±": 2321, "ĠØŃÙĥÙħ": 3179, "ĠØªØ¹ÙħÙī": 7495, "ĠØ§ÙĦÙĦØ¹": 5590, "ĠØ«Ø¨ÙĪØ±Ø§": 4909, "ĠÙĬØ¹Ø±Ø´": 8379, "ĠÙĪØ®ØªÙħ": 9067, "Ø£ÙĦ": 990, "ĠØªØ¤ÙģÙĥÙĪÙĨ": 5333, "ĠØ§ÙĦØ±Ø§": 2622, "ĠÙĦØªØ®Ø±Ø¬": 6342, "ĠÙĪ": 55, "ĠÙĬØ®Ø´ÙĪÙĨ": 3700, "Ø¨Ø¯ÙĬ": 8085, "ĠØ¯ÙĬÙĨÙĬ": 9001, "ĠÙĦØ¯ÙĬÙĩ": 9046, "ĠÙĪÙģØµØ§ÙĦ": 9276, "ĠÙģÙĦÙĨØ£ØªÙĬÙĨ": 9016, "ĠØ±Ø¨Ùĩ": 615, "ÙĨÙĥÙħ": 706, "ĠÙĥØ¨ÙĬØ±Ø§": 1697, "ĠØ£ÙĨØ¨Ø¦ÙĥÙħ": 5832, "ĠØ³Ø¹": 1569, "ĠØ§ÙĨØ¸Ø±ÙĪØ§": 6474, "ĠØ§ÙĦØ±Ø¹Ø¨": 4903, "ĠÙĬÙħÙĨ": 4671, "ÙĨØ§ÙĩØ§": 1394, "ĠØ¨Ø²": 7352, "ÙģÙĬÙĨ": 1187, "ĠØ³Ø±": 1790, "ĠÙĪØ§Ø®ØªÙĦØ§Ùģ": 5413, "ĠØ§ÙĦÙĥØ§Ø°Ø¨ÙĪÙĨ": 6069, "ĠØªÙħÙĪØªÙĨ": 9903, "Ø¹Ø§Ø±": 7223, "ĠÙħÙĦØ§Ø¦ÙĥØ©": 3454, "ĠÙĦÙħ": 259, "ĠÙħØ«ÙĦÙĩÙħ": 4274, "ĠÙĪØ¬Ø¯ØªÙħÙĪÙĩÙħ": 9550, "ĠØ¯Ø§Ø®Ø±ÙĬÙĨ": 9864, "ĠØ§ÙĦØ²": 863, "ĠÙħÙĦØ§ÙĤÙĪ": 6910, "ĠØªØ±Ø§ÙĨÙĬ": 8227, "ĠØ£ÙĥØ«Ø±ÙĥÙħ": 8712, "ĠØ§ÙģØªØ±ÙĬØªÙĩ": 9083, "ĠØªØªØ¨Ø¹ÙĪÙĨ": 5121, "ĠØ£Ø¬ÙĪØ±ÙĩÙĨ": 3691, "ĠØµØºÙĬØ±Ø©": 10108, "ĠÙĬÙĩÙĬØ¬": 10203, "Ø¨ÙĪØ±": 3444, "ĠÙĪØ£Ø«": 5874, "ĠÙĥØ§ÙĦØ£ÙĨØ¹Ø§Ùħ": 8929, "ĠÙĦÙĦØ´ÙħØ³": 9984, "ĠØ±Ø¯": 2472, "Ø¤ÙĦØ§Ø¡": 854, "ÙĪØ£": 2619, "Ø¦Ùĥ": 232, "ĠÙĬØ¹ÙĦÙħÙĩØ§": 8294, "ĠÙĪÙĦÙĬÙĨ": 5953, "ĠØªÙĥØªØ¨": 8479, "ĠÙĪØ¥Ø«Ùħ": 7824, "ĠÙĪÙĨØ³Ø§Ø¡": 3674, "ĠÙĦÙĬØ¯Ø®ÙĦ": 6915, "ĠØªØ¸ÙĦÙħ": 5759, "ĠÙħØ®ÙĦØµÙĬÙĨ": 3095, "Ø§ÙĥÙħ": 1546, "ĠØ¢Ø®Ø±ÙĬÙĨ": 3049, "ĠØ£ÙĨÙģØ³ÙĨØ§": 8509, "ĠÙĬØºØ´ÙĬ": 8806, "ĠØ¬ÙĨØ¨": 9123, "ÙĨÙĩ": 947, "ĠØ§ÙĦØ£Øµ": 5935, "ÙĤÙĬÙĥÙħ": 7341, "ĠØ«ÙĤÙģÙĪØ§": 9545, "ĠÙħØ±ÙĬÙħ": 1077, "ĠØµØ§Ø¹ÙĤØ©": 6040, "ĠØ§ØªØ¨Ø¹ÙĪÙĩ": 6551, "ĠØ±Ø¨ÙĩØ§": 3171, "ĠÙĦØªØ£Ùĥ": 8568, "ĠØ§ÙĦÙĪ": 1492, "Ø°ÙĩØ¨ÙĨ": 9126, "ÙĬÙĨÙĥ": 3489, "ĠØ´Ø±Ùĥ": 1049, "ĠÙĬØ¹Ø±Ùģ": 5075, "ĠØ§ÙĦØ£ØŃØ§Ø¯ÙĬØ«": 6969, "ĠÙĪØ§ÙĦØ£ÙĤØ±Ø¨": 3654, "ĠØ¨Ø¹ØµØ§Ùĥ": 6114, "ĠÙĪØªØ±Ø§ÙĩÙħ": 8159, "ÙĦØ¹ÙĬ": 9004, "ĠÙĨØ¨": 886, "ĠØ§ÙĦØŃÙħ": 907, "ĠØ£ÙĨØ´Ø£ÙĥÙħ": 4500, "Ø¶Ø±ÙĪÙĨ": 2885, "ĠÙĦØ°ÙĨ": 4666, "ĠØ³ÙĤØ±": 4818, "ÙĪÙĦÙĩÙħ": 4827, "ĠØ£ÙģÙĦØŃ": 5048, "ÙģØªÙħ": 2461, "ĠÙĪÙħÙĦØ¦Ùĩ": 3903, "ĠØ¨Ø§ÙĦÙĦÙĩ": 387, "ĠØµØ§Øº": 6037, "Ø¨Ø¶": 7186, "ĠØªØªÙĪÙģØ§ÙĩÙħ": 8533, "Ø±ÙĥÙħ": 3426, "ĠÙĪØ§ÙĦÙħØºØ±Ø¨": 4316, "ĠÙĪØ§ÙĦÙĨØµØ§Ø±Ùī": 4360, "ĠÙģÙĦÙĬØ£": 5230, "ĠÙĪØ§ÙĦØ¥Ø¨ÙĥØ§Ø±": 9122, "ĠØ«ÙħÙĨØ§": 2516, "ĠØ±ÙĩØ·": 9832, "ĠØ§ØªÙĤ": 8429, "ĠØ³Ø¹ØªÙĩ": 9292, "ĠØ¨Ø±Ø²": 6505, "ĠØ¹Ø°Ø§Ø¨Ùĩ": 6164, "ØŃØ³Ø¨ÙĪÙĨ": 7412, "ĠØªÙĤØ±Ø¨Ø§": 9788, "ÙĨØ§ÙĨ": 5747, "ĠØ¨Ø²ÙĬÙĨ": 7371, "ĠØ§ÙĦÙħØº": 7733, "Ø§Ø·ÙĬÙĨ": 1657, "ĠÙĪØ§ÙĦÙĤÙħØ±": 1543, "ĠÙĥØ§ØªØ¨": 6925, "ĠØµÙĦØ§": 2723, "ĠÙĬÙĨÙģÙĤÙĪÙĨ": 1470, "ÙģÙĩØ§": 3504, "ĠÙĦØ±Ø¡": 3970, "ĠÙģØ§Ø±ØªÙĤ": 6727, "ĠØªØ°ÙĥØ±ÙĪÙĨ": 1693, "ÙĤØ·Ø¹": 7340, "ĠÙĪÙĬØ¤ØªÙĪÙĨ": 4519, "ĠÙĬØ£ÙħÙĨ": 8297, "ĠÙĦØ§ÙħØ³ØªÙħ": 10252, "ĠÙĪØ±ÙĩØ¨": 8472, "ĠÙĦÙĦÙħØ³Ø±ÙģÙĬÙĨ": 8695, "ĠØºØ§ÙģÙĦÙĬÙĨ": 5431, "ĠØ§ÙĦØ±Ø²ÙĤ": 2087, "ĠØ£Ø±ÙĨÙĬ": 8774, "ĠÙĦØªØ±Ùĥ": 6343, "ĠÙĤÙĦÙĨØ§": 1975, "ĠÙĪÙĩØ¯Ùī": 1756, "ĠØ¨Ø§ÙĦØ¬ÙĨ": 7853, "ĠÙĬØ¶Ø±": 1853, "ĠÙĨØ²Øº": 6737, "ĠÙħÙĨØ§Ø²ÙĦ": 10214, "ĠÙĪØ§ÙĦØ¬Ø§Ø±": 9458, "ĠØ£Ø¬": 391, "ÙĨØ·": 7081, "Ø´Ø±Ø§": 2327, "ĠÙĬØ¬Ø§Ø¯ÙĦ": 4506, "ĠØºØ¶Ø¨": 2527, "ĠØ§Ø¬ØªØ¨Ø§Ùĩ": 9798, "ÙĦØ§Ø©": 659, "ĠÙĪÙĪÙĦØ¯Ø§": 10038, "ĠØ§ÙĦØ£ØµÙģØ§Ø¯": 10260, "ĠØ¨ÙĪØ±Ø§": 7364, "ĠÙĪØªØ¬Ø¹ÙĦÙĪÙĨ": 10289, "ÙĪØ¬ÙĩÙħ": 4324, "ĠÙĬØªØ¶Ø±": 8120, "ĠÙģØ¹ÙĦÙĬÙĩ": 5257, "ĠÙĪÙĬØ¯": 5981, "ĠØªØ¹Ø¯": 2467, "ĠØªØ²": 1283, "ĠØ§ÙĦØ¯": 300, "ĠÙĪÙĬÙĦØªÙī": 6718, "ÙĨØ²ÙĦ": 5561, "ÙħÙī": 1845, "ĠØ´ÙģØ§Ø¹Ø©": 3592, "ĠØ§ÙĦÙĪØ³": 5591, "ĠÙħÙĩØ¯": 7199, "Ø£Ø±ÙĪÙĨ": 7417, "ÙĤØ¯Ø§Ùħ": 3635, "ĠØ§ÙĦØŃØ§ÙĤØ©": 6003, "ĠØ£Ø®Ø·": 8648, "ÙĬØ§ÙħØ©": 636, "ĠÙħÙĥÙĨØ§": 6499, "ĠØªØŃÙħÙĦÙĩ": 9821, "ÙĪØ³ÙĪØ³": 6574, "ĠØŃØ§ØµØ¨Ø§": 5545, "ĠØ³Ø¹Ø©": 7665, "ÙģÙĬØ§": 7392, "ĠÙĬØ³Ø±ÙĨØ§Ùĩ": 9478, "ĠØ§ÙĦØ¨Ø±": 1342, "ĠÙģØªÙħØªØ¹ÙĪØ§": 7291, "ĠÙħØ±Ø¯": 3710, "ĠÙĦØ§ÙĨ": 7298, "ĠØ£ÙģØ£ÙĨØª": 3861, "Ø£ÙĦÙĩÙħ": 4009, "ĠØ´ÙĬØ®Ø§": 8059, "ÙĦÙĥÙĩ": 5863, "ÙģÙĦØ©": 4001, "ĠØ¹ÙĬØ´": 7448, "Ø§ÙĦÙĪÙĨ": 2621, "ÙĤÙĦÙĪÙĨ": 832, "ĠØ¶Ø±Ø¨ØªÙħ": 6676, "ĠØªØŃØ´Ø±ÙĪÙĨ": 2969, "ĠÙĪØ§ÙĦÙĥØ§ÙģØ±ÙĪÙĨ": 6750, "ĠÙģØ¨Ø¦Ø³": 3320, "ĠØ®ÙĦØª": 1877, "ĠÙĪØ¹Øµ": 6237, "ĠÙģØªØ¹": 5051, "ÙĨÙĬ": 219, "ÙģØ§": 378, "Ø·": 117, "ĠÙĬØŃØ§ÙĪØ±": 8172, "ĠÙĪØ¨Ø±": 2842, "Ø§Ø¦ÙĬ": 2944, "ĠØ¨Ø§Ø¨Ø§": 7372, "ĠÙĬØªÙĦÙī": 3239, "ĠÙĦÙĬÙĥÙģØ±": 4942, "ĠÙĦÙĬØ®Ø±Ø¬ÙĥÙħ": 9783, "ÙĨØ§Ø¡": 1353, "ĠÙĪØ§Ø³Ø¹Ø©": 5306, "ÙĩÙĬØª": 7117, "ĠÙĤÙĦÙĪØ¨": 497, "ĠØ¨Ø§ÙĦØ¥ÙĬÙħØ§ÙĨ": 4518, "ĠÙģØ¨Ø¯ÙĦ": 7290, "ĠÙĪÙĨØµ": 5028, "ĠØ¹Ø§ÙħØ§": 6919, "ĠÙĪÙĥÙģØ±": 2359, "ØªØ¯ÙĨØ§": 3439, "ĠÙĪÙħÙĨØ§ÙģØ¹": 6937, "ĠÙħØŃØ¯Ø«": 9072, "ĠØ®ÙĪÙģØ§": 5325, "Ø²ÙĬ": 323, "ĠÙĥØ§ÙĦ": 905, "ĠÙģÙĨ": 1063, "ĠÙģØ¨Ø¹Ø¯Ø§": 8713, "ĠØ®Ø·Ø§ÙĬØ§ÙĨØ§": 9850, "Ø±Ø§ÙĩØ§": 5952, "ĠØ¹Ø¯ÙĪ": 1377, "ĠØ¢ÙĪÙī": 7709, "ĠØ§ÙĦÙħØ¯Ø§Ø¦ÙĨ": 6963, "Ø±Ø¶ÙĪØ§": 1198, "ĠÙĬØµÙĦ": 8777, "ĠÙħØŃØ¶Ø±ÙĪÙĨ": 4411, "ĠÙĪØ§ÙĦØ¨Ø§ÙĤÙĬØ§Øª": 10232, "ĠØ¨Ø§ÙĦØ¹Ø±": 4890, "ĠÙĬÙĦÙĤÙĪÙĨ": 6732, "ĠÙĪØ§ÙĦÙĨØ¬Ùħ": 9895, "ĠØ¹ÙħØ§": 824, "ĠÙĨØ¬Ø²ÙĬ": 1537, "ĠØ§ÙĦØ¹Ø¸Ø§Ùħ": 6022, "ĠØ¬ÙĨØ§Øª": 704, "ĠØ§ÙĦØ·": 696, "Ø´Ø§Ø¡": 5824, "ĠØªØ´Ø§Ø¡": 2401, "ĠÙĪÙĬØ¹ÙĦÙħ": 1405, "ĠØ§ÙĦÙĥ": 204, "ĠØ±Ø²ÙĤÙĨØ§ÙĥÙħ": 3343, "Ø¨ÙĨ": 5618, "ĠØ³ÙĦÙĬÙħ": 7664, "ĠÙĪØªØ±Ùĥ": 2536, "Ø§Ø¦ÙĩØ§": 8062, "ĠÙĨØµØ±ÙĨØ§": 9206, "ĠØ±ÙĪØ§Ø³ÙĬ": 2830, "ÙģÙĤÙĪØ§": 1134, "ĠØªØ¨": 939, "ØŃØ³Ø§ÙĨ": 3507, "ĠØ³ÙĪÙĬØ§": 5439, "ĠÙĪØ±Ø¶ÙĪØ§": 2052, "ĠÙĪØ¹ÙĨØ¯": 6719, "ĠØ£ÙĥÙĨ": 4290, "ĠÙĬÙĦÙĤØ§ÙĩØ§": 6734, "ĠÙħØªØ§Ø¨": 7200, "ĠØ§Ø·ÙħØ£ÙĨ": 9916, "ĠÙĦØ±Ø¨Ùĩ": 9350, "Ø¶ÙĬÙĦØ§": 8858, "ĠÙħØ«ÙĦÙĩØ§": 4273, "ĠÙģØ¹ÙĤØ±": 4396, "ĠØ¨Ø¥Ø°ÙĨÙĩ": 2798, "ĠÙĦØ¹ÙĨÙĩÙħ": 4343, "Ø·Ø±Øª": 6519, "ØªÙĩØ§": 618, "ĠØ£Ø¨ÙĪØ§Ø¨Ø§": 8702, "ÙĪØ°": 2169, "ĠØªØ·Ø¹": 2319, "ĠØªÙħÙĬØ¯": 6622, "ĠÙĪØ£Ø³ÙĦÙħ": 7729, "ĠÙĪÙħÙĥØ±ÙĪØ§": 6271, "ĠØªØ§Ø¨": 1395, "ĠØ£Ø®": 546, "ØŃÙĪÙĨ": 1351, "ĠØ£Ø¶ØºØ§Ø«": 10029, "ĠØ§ÙĦØºÙĬØ¸": 6839, "ĠØ£ØªØ®Ø°": 5190, "ĠÙĪØ¨Ø§ÙĦØŃÙĤ": 8487, "ĠÙĪØµÙħÙĪØ§": 9028, "ĠÙģØ¬ÙħØ¹": 6601, "Ø·ÙĩØ±": 1571, "Ø§ÙĥØ±ÙĬÙĨ": 2614, "ĠØ§ÙħØ±Ø£": 1520, "ĠÙĥÙģ": 4749, "ĠØ§ÙĦÙħØŃØ±Ø§Ø¨": 5520, "ĠØ£Ø¯Ø¨Ø±": 5214, "ĠØªØ¤ÙħÙĨÙĪÙĨ": 4021, "ĠÙģÙĬÙĩ": 413, "ĠÙĬØ³ØªÙĪÙĬØ§ÙĨ": 9435, "ĠÙĦÙĬØ²Ø¯Ø§Ø¯ÙĪØ§": 10109, "ĠØµÙĦØŃ": 6036, "ÙĨÙĬØ§": 417, "Ø¨ÙĩØ§": 3443, "ĠØ¨Ø¹Ø¶ÙĩØ§": 6265, "ĠÙĤØ§Øª": 5785, "ĠÙģØ¨ÙĦØºÙĨ": 10194, "ÙħØ§ÙĪØ§Øª": 5749, "ĠÙĪÙĬØ¶Ø±Ø¨": 7901, "ĠÙĬØªØ¨ÙĬÙĨ": 6117, "ĠØ£ÙħÙĪØ§ÙĦÙĥÙħ": 2409, "ĠÙĪÙģÙĬ": 950, "Ø®ÙĦÙĩØ§": 7548, "ĠÙģØ§ÙĥØªØ¨ÙĨØ§": 10129, "ĠØ£ÙĤØ³Ùħ": 2254, "Ø¨ÙĪÙĩÙħ": 7190, "ĠÙĪØ¬ÙĩÙĩØ§": 9015, "ÙĪØ§ÙĩØ§": 5705, "ĠÙģØ£ÙĨÙī": 2407, "Ø¸ÙĥÙħ": 3596, "ĠÙħÙĤØ§ÙħØ§": 9689, "ĠØªØ±ÙĥØªÙħ": 9189, "ÙĪØ±ÙĩÙħ": 1227, "ĠØ§ÙĦØ®Ø¨ÙĬØ±": 3695, "ĠØ§ÙĩØ¨Ø·": 4179, "ĠÙĪØ§ÙĦÙĨØ¨ÙĬ": 4359, "ĠÙĦØ³ÙĨ": 5682, "ĠÙĪÙĨØ®ÙĦ": 8247, "ĠØ³ÙħØ¹Ùĩ": 8997, "Ø³Ø§Ø¨": 1500, "ĠÙģÙĥÙĨØªÙħ": 8644, "ĠÙĬØªØ®Ø§Ùģ": 8121, "ÙĩØ±Ø§": 5579, "ĠØ§ÙĦÙħØ³ØªØ¹Ø§ÙĨ": 9424, "Ø¬Ø±": 283, "ĠØªØ±Ø¶": 5754, "ÙĦÙĬÙĨØ§": 598, "Ø¹Ø§": 282, "ØµØ±ÙĪÙĨ": 813, "ĠÙĬÙģØ±": 2186, "ĠÙĬØµÙĦÙĪÙĨ": 3010, "ĠØ³ØªØ©": 3164, "ĠÙĥØ³ÙģØ§": 4534, "ĠÙĪØ§Ø®": 2137, "ÙħØ±Ùĩ": 8191, "ĠØ¨ÙĦØ¯": 8330, "ĠØ¯ÙĪÙĨÙĩÙħØ§": 8390, "ĠØµÙĦÙĪØ§": 7985, "Ø·Ø¹Ø§Ùħ": 5861, "Ø¬Ø²ÙĬ": 1563, "ĠÙĪØ§ÙĦÙģØ¶Ø©": 9648, "ĠÙĬØµÙĬØ¨ÙĥÙħ": 9732, "ĠÙĨØ·ÙģØ©": 2426, "ĠÙĬÙĪÙģ": 2859, "ĠÙĬÙĩØªØ¯ÙĪØ§": 9817, "ĠÙĪÙħØ«ÙĦØ§": 9885, "ª": 12, "ĠØ¯Ø§Ø¹ÙĬ": 7939, "ĠÙĪÙĨÙģØ®": 3264, "ĠØ¨ÙĬÙĪ": 2248, "ĠÙĨØ´Ø£": 6590, "ÙħØ¶ÙĪØ§": 7094, "Ø§ÙĦØŃÙĤ": 8378, "ĠÙĬØ³ØªØºÙģØ±": 8450, "ĠÙĨØ¬Ø¹ÙĦ": 2331, "ĠÙĩÙĬ": 826, "ĠØ§ÙĦØ£Ø³Ø¨Ø§Ø¨": 5943, "ĠØ£Ø·ÙĦØ¹": 9631, "ĠØ®Ø±Ø¬Øª": 9537, "ĠÙĩØ¯Ø§ÙĨÙĬ": 9655, "ĠØ´Ø¹Ø§Ø¦Ø±": 5366, "ĠÙĪÙĥØ§ÙĨØª": 5102, "ÙĨØ§ÙĩÙħ": 577, "ĠÙĬÙĤØ§ÙĦ": 6429, "ĠÙĦØ£ÙĨØª": 8497, "ĠØ¹Ø±Ø¶Ø§": 9414, "ĠØ´ÙĩÙĬØ¯Ø§": 1542, "ĠÙĨÙĤÙħÙĪØ§": 9460, "ĠØµØ¯ÙĪØ±": 5177, "ĠÙģØªÙĦÙĤÙī": 8326, "ĠØ²Ø§Ø¯": 3285, "ĠØ´Ø±ØŃ": 7802, "ĠØ§ÙĦÙĥØ°Ø¨": 1984, "ĠØ¯Ø§Ø±": 2719, "ĠÙĬØ³Ø¨ØŃÙĪÙĨ": 3395, "ĠÙĪÙĦÙĦÙĥØ§ÙģØ±ÙĬÙĨ": 4125, "ĠÙģØ§Ùĥ": 6169, "ĠÙħØªØ¹": 8797, "ĠØŃØ¸Ø§": 5905, "ĠØ§ÙĦÙĦØ§Ø¦ÙĬ": 9441, "ĠØ¸": 318, "ĠØ§ÙĦØ¥Ø³ÙĦØ§Ùħ": 5148, "ĠÙģØ§Ø¹Ùģ": 6173, "ÙĬØ¨Ø§": 1145, "ĠÙĪØ´Ø±Ø§Ø¨": 6992, "ĠÙĬØ¹Ø¸ÙĥÙħ": 5076, "Ø§ØµØ©": 8680, "ĠÙĨÙĨØ³": 4801, "ĠØªØ³Ø¨ÙĤ": 10220, "ĠÙĦÙģØ³": 4663, "ĠØ§ÙĦØŃÙħØ¯": 1267, "ÙĦÙĤÙĩ": 7968, "ĠÙĪÙĩØ¯ÙĪØ§": 7157, "ĠÙģØ±Ø§Øª": 8441, "ĠÙĪÙĩØ°Ø§": 1909, "Ø¬ÙĪØ¬": 4746, "ĠÙħØ¹ÙĦÙĪÙħ": 2829, "Ø¹Ø¯Ø§": 2217, "Ø¢Ø®Ø±": 333, "ĠØ¬Ø¦ÙĨØ§Ùĥ": 6603, "ÙĩØ§Ø±Ø§": 2883, "ĠÙĥÙĦÙħØŃ": 9077, "ĠÙĬØ¶Ø±ÙĩÙħ": 6748, "ĠÙģØ¨Ø´Ø±Ùĩ": 6941, "ĠÙĬÙħ": 793, "ÙĩØ¯ÙĨØ§": 6042, "ĠÙĪÙħØ«ÙĦÙĩÙħ": 6976, "ĠØ¨Ø¸ÙĦÙħ": 3492, "ĠÙĬØºØ§Ø«": 8807, "ĠØ¥ÙĬÙħØ§ÙĨÙĩ": 9160, "Ø±Ø¶ÙĪÙĨ": 1458, "ĠØªØ´Ø±Ùĥ": 3524, "ĠÙĪÙħÙĪØ³Ùī": 4282, "ĠÙħØµÙĦØŃÙĪÙĨ": 9043, "ĠØµØ¯Ø±ÙĬ": 8716, "ĠØ¬ÙĬØ¨": 7771, "ĠØªØ±ØªÙĬÙĦØ§": 8229, "ĠÙĥØ§ÙĦØ£": 6534, "ĠØ£ÙģÙĬ": 5046, "ĠØ§ÙĦØ³ÙĬØ¦": 9236, "ĠÙģØ¢ÙħÙĨ": 6631, "Ø¬ÙĬØ¨ÙĪÙĨ": 9329, "ĠØ°ÙĥØ±ÙĨØ§": 8749, "ĠÙĨØ¤": 2687, "ĠÙĬØŃØ´Ø±ÙĪÙĨ": 6147, "ÙĬØª": 451, "ĠØ§ÙĦØ£Ø´": 4114, "ĠØ¹ÙĨÙĩ": 994, "ĠÙĬØªÙģ": 1813, "ĠØµØ¨ØŃ": 7986, "ĠØ´Ø±ÙĥØ§Ø¦ÙĩÙħ": 9012, "ĠÙģØµØ¯": 3472, "µ": 22, "Ø±Ø§ÙĪØ¯": 7831, "ĠØ£ÙģØŃØ³Ø¨": 8308, "ĠØ¨ÙĩÙĨ": 6060, "ħ": 36, "ĠØ¨Ø¨ÙĨÙĬ": 5722, "ĠÙĦØ£ÙĥÙģØ±ÙĨ": 10140, "ĠÙĥÙģØ±ØªÙħ": 3650, "ĠØ§ÙĦÙħØ¬Ø±ÙħÙĪÙĨ": 2081, "Ø¸ÙĪÙĨ": 5949, "ĠÙĬÙĨÙĥØ«ÙĪÙĨ": 9725, "ØªÙĬØ©": 4971, "ĠÙħÙĩÙĦÙĥ": 3092, "ĠÙĪØ¸": 1426, "Ø¨Ø§Ø¹": 8370, "ÙģÙĬÙĨØ§": 3999, "ĠÙħØªÙĤØ§Ø¨ÙĦÙĬÙĨ": 5556, "ÙĩÙĪÙĨ": 862, "ĠÙĪØ±ØŃÙħ": 8471, "ĠÙĪÙĦÙĬØ³": 3298, "ĠÙħØŃØµÙĨÙĬÙĨ": 10017, "ĠÙħÙĪ": 286, "ĠÙĪØ§ÙĦØº": 7591, "ĠØ§ÙĦØªÙĬ": 741, "ĠØ§ÙĦØ£Ø¹Ø±": 2500, "Ø³Ø¨": 296, "Ø¨ÙĦÙĬ": 2175, "ÙħØµØ©": 7097, "ĠØªÙģÙĬ": 4022, "ĠØ¢ÙħÙĨØ§": 992, "¸": 25, "ĠÙģØ§Ø¯": 1939, "Ø§Ø¡ÙĪÙĨ": 7692, "ĠØ¯Ø¹ÙĪ": 7935, "ĠÙĨØ¬Ø§ÙĨØ§": 8890, "ĠØ³Ø¹Ùī": 6697, "ĠØ®Ø´ÙĬØ©": 3876, "ĠÙģØ£ØµØ¨ØŃØªÙħ": 9342, "Ø¨Ø§Øª": 7187, "ĠØ¥ÙĬØ§": 2063, "ĠØ¸Ø§ÙĦ": 2955, "ĠØ¸ÙĨÙĨØ§": 9380, "ĠØ®Ø§Ø·Ø¦ÙĬÙĨ": 9966, "ĠÙĬØ¯Ø®ÙĦÙĪÙĨ": 2823, "ØªØ§Ø¨": 234, "ĠØºÙĨÙħØªÙħ": 9981, "ÙĤØ·": 1769, "ĠÙħØŃÙĬØ·Ø§": 9409, "ĠØ²ÙĦÙģÙī": 10135, "ĠÙĦØ·ÙĬÙģ": 4670, "Ø§Ø±ÙĥÙĨØ§": 3816, "Ø´ÙĬ": 940, "ĠÙĤØªØ§ÙĦ": 9259, "ĠØªÙģØ±ØŃÙĪÙĨ": 9599, "ĠÙģØ£ØªÙĪØ§": 2514, "ĠÙĪØ£ÙĦØŃÙĤÙĨÙĬ": 9961, "ĠÙģØµÙĦØª": 5321, "ØªÙĨÙĨÙĬ": 9383, "ĠÙĬØ¸ÙĩØ±ÙĪØ§": 6730, "ĠÙĪØ£Ø¯Ø¨Ø§Ø±": 5882, "ĠØ¨Øµ": 1275, "ÙĬØ¸": 4583, "ĠØ§Ø¹Ø¨Ø¯ÙĪØ§": 1716, "ÙĬØ§Ø±Ø©": 5972, "ĠÙĬÙĪÙĤÙĨÙĪÙĨ": 2433, "ØªØ±Ùģ": 7182, "ĠØ§ÙĦÙħÙĨØ°Ø±ÙĬÙĨ": 3347, "ĠÙĬØ¨Ø¹Ø«ÙĩÙħ": 6668, "ĠØ£Ø«": 1554, "ĠØ§ÙĦØ¯ÙĩØ±": 8208, "ĠØ£Ø³Ø§Ø¡ÙĪØ§": 8683, "ĠØ¨ØµÙĬØ±Ø§": 1917, "ĠÙħÙĪØ§Ø¶Ø¹Ùĩ": 6758, "ĠÙĪØ§Ø°ÙĥØ±": 1721, "ĠÙħØ¨": 1086, "ĠØ±ÙħÙĬØª": 7563, "ĠØªØ¹ÙĪØ¯ÙĪØ§": 8536, "ĠØ§ÙĦØ£ÙĨØ«ÙĬ": 3736, "ĠÙĦØªØ¨ÙĦØºÙĪØ§": 8571, "Ø¨ÙĬÙĩ": 2094, "ĠÙĦÙģØ§Ø³": 10056, "Ø³Ø±": 310, "ĠØ¨ÙģØ§ØŃØ´Ø©": 5503, "ĠÙĪÙĤØ§": 6023, "ĠØ¹Ø¶": 7433, "ĠØ£ÙĩÙĦÙĬ": 8346, "ĠÙĪÙĩ": 964, "ÙģÙĤ": 1624, "ĠØ¹Ø±Ø¨ÙĬ": 9762, "ĠØ¹ÙĤØ¯Ø©": 6952, "ĠØ£Ø¬ÙĦØª": 8406, "ĠØ¹Ø²ÙĬØ²Ø§": 3359, "ĠØªÙĨØª": 7476, "ĠØ³ÙħØ¹ÙĩÙħ": 6567, "ĠÙĪÙħÙĦÙĥ": 8432, "Ø¹ÙħØ¯Ø§": 7916, "ĠØ³Ø£Ø±ÙĬÙĥÙħ": 9390, "ĠØ¨Ø´ÙĬØ±Ø§": 5303, "ĠØ£ÙĨÙģÙĤ": 3554, "ĠØªÙģØ±": 2663, "ĠÙħÙĬØ«Ø§ÙĤÙĥÙħ": 5349, "Ċ": 30, "ĠØ§ÙĥØª": 3219, "ĠØ¨ÙĪØ±": 7356, "ĠÙĪÙĬØŃØ¨ÙĪÙĨ": 9395, "ĠÙħØºÙĦÙĪÙĦØ©": 9446, "ĠØ¨ÙĪØ¬ÙĪÙĩ": 7378, "ĠÙĪÙĥÙģ": 8020, "ĠØ£ÙĤÙħ": 6517, "ĠÙħÙĪØ«ÙĤØ§": 10124, "Ø§ÙĩÙĨ": 7072, "ĠØ¨ØµØ§Ø¦Ø±": 4429, "ĠÙĪØ£ØªØ¨Ø¹": 5880, "ĠÙĪØ§ÙĦØ¯": 7589, "ĠÙĬØ¬ÙħØ¹": 4313, "ĠØµÙħ": 6033, "ĠÙħÙĤØ§Ø¹Ø¯": 9690, "ĠØ§ÙĦØ®ÙĨØ²ÙĬØ±": 6268, "ĠÙĪØªØ±Ùī": 2231, "ĠÙħØ®Ø±Ø¬": 3930, "ÙĥÙģØ±": 1272, "ĠÙģØ§ÙĦÙĦÙĩ": 3774, "Ø¶ÙĬÙĨ": 4782, "ĠÙģÙĦÙĬØ³": 3342, "ĠÙĪÙĦØ£": 1710, "ĠØ±Ø³ÙĪÙĦÙĨØ§": 5199, "ĠÙħÙĨØ°Ø±": 4011, "<EOS>": 2, "ĠÙħÙĨØ¹Ùĥ": 6888, "ĠØ§ÙħØ±Ø£ØªÙĩ": 4456, "ÙĤØ¶": 7335, "ĠÙħØ®ÙħØµØ©": 9198, "ĠÙĬØ¸ÙĨÙĪÙĨ": 4479, "ĠØ¨Ø±ÙĩØ§": 3019, "ĠØ¨ÙĤÙĪØ©": 3807, "ĠÙĪÙĦÙĪ": 428, "ĠÙĪØ¬Ùĩ": 1052, "ĠØ£ÙħØ±ÙĨØ§": 1827, "ĠÙĪØ§ÙĦÙħÙĬ": 2683, "ĠØ§ÙĦÙħÙĬÙħÙĨØ©": 7052, "ĠØ¨Ø£ÙĦØ³ÙĨØªÙĩÙħ": 9998, "ĠØ¹Ø°Ø§Ø¨ÙĬ": 2733, "ĠÙĬØ±Ùī": 3251, "ĠÙĬØ£Øª": 1893, "ĠÙĪØ§Ø´ÙĥØ±ÙĪØ§": 4470, "Ø¨ÙĤÙĪØ§": 5621, "ĠØ´ÙĬØ¹": 4968, "ĠÙĪØ§Ø¹ÙħÙĦÙĪØ§": 8109, "ĠØ£Ø¹ÙĬÙĨ": 1900, "ĠØ¸ÙĨØ§": 6189, "ĠØ§ÙĦØ´Ø¬Ø±Ø©": 3276, "ĠØ±Ø¨Ø§": 7707, "ĠÙĪØ¥ÙĨÙħØ§": 6072, "ĠØ±Ø³ÙĦÙĨØ§": 1894, "ĠÙĨØ¨ÙĬØ§": 3025, "ĠØ§ÙĦÙģÙĤØ±Ø§Ø¡": 6379, "ĠÙĬØ¯Ø®ÙĦÙĪÙĩØ§": 9557, "ĠÙĦÙģØ±ÙĪØ¬ÙĩÙħ": 9750, "ĠÙĪØ§ÙĦØ®ÙĬÙĦ": 9570, "ĠØ£Ø±ÙĬØ¯": 3009, "ĠÙĩØ¯Ø§": 1701, "ĠØ£Ø¹ÙħØ§ÙĦÙĨØ§": 6543, "ĠÙĨØ´Ø±": 7614, "ØŃØ´Ø§Ø¡": 3365, "ĠÙħÙĨØ§": 953, "ĠØ£ÙĦÙģ": 1936, "ĠØ£ÙħÙĪØ§ÙĦÙĨØ§": 8953, "ĠØ£ÙĨÙĩØ§": 4054, "ĠÙĤ": 90, "ĠÙĪØ¥Ø®ÙĪØ§ÙĨÙĥÙħ": 7827, "ÙĤÙĪÙĨ": 360, "ĠÙĤÙĪÙħÙĬ": 4235, "ĠØ§ÙĦÙĤØµØ§Øµ": 9719, "ĠØªØ¶Ø¹": 5761, "ĠØ§ÙĦØ£ÙĥÙħÙĩ": 7819, "ĠÙģÙĤØ¯Ø±Ùĩ": 8794, "ØŃØ§Ùħ": 4005, "ĠÙĩÙĪÙī": 8075, "ĠØ¨ÙĥÙĦ": 1059, "ĠÙĬÙĨ": 271, "ĠØ§ÙĦÙħØ¹ØªØ¯ÙĬÙĨ": 5509, "ĠØ¸ÙĨÙĥÙħ": 8232, "ĠØ£Ø¹Ø·Ùī": 8605, "ĠØ£Ø±Ø³ÙĦÙĨØ§": 686, "ØªÙĨØ§ÙģØ³": 8732, "Ø´ÙĪÙĨ": 1448, "ĠÙģÙĨØ§Ø¯ÙĪØ§": 9694, "ĠØ³ÙħÙĬØ¹Ø§": 5464, "ĠØ§Ø³ØªØ·Ø¹Øª": 6858, "ĠØ°ÙĥØ±Ùī": 3748, "ĠØ§ÙĦØ¹Ø¯Ø©": 10033, "ĠØ§ÙĦØªÙĪØ§Ø¨": 3897, "ĠÙģØ¹Ø§ÙĦ": 8993, "Ø¨Ùĥ": 1215, "ĠÙĪØ£Ø®Ø±Ø¬": 3175, "ĠÙĨØ¨ÙĬÙĩÙħ": 9608, "ĠÙħØªØ¹ÙħØ¯Ø§": 8802, "ĠÙĪØ§ÙĦÙħÙĨØ§ÙģÙĤÙĬÙĨ": 5153, "ĠØ¨Ø±Ø§Ø¡": 6506, "ĠÙĪØ£Øµ": 1027, "ĠØªÙĥØ°Ø¨Ø§ÙĨ": 1125, "ĠØ£ØºÙĨÙĬØ§Ø¡": 6613, "ĠÙģØ¬Ø§Ø¡": 4417, "ĠØ§ÙĦØ±ÙĤØ§Ø¨": 5989, "ÙĪØ¬Ø§": 2566, "ĠÙĪÙĤØ§ÙĦØª": 2113, "ĠÙģØ¬Ø¹ÙĦÙĨØ§ÙĩØ§": 9505, "Ø§ÙĦÙĥ": 2438, "ÙĦÙĤÙĬ": 4160, "ĠØªÙĩØªØ¯ÙĪÙĨ": 3525, "ĠÙĥØªØ§Ø¨Ùĩ": 4333, "ĠØµØ±Ø§Ø·Ø§": 4388, "ĠÙĬØ³ØªÙħØ¹ÙĪÙĨ": 3708, "ĠÙĨØ¨Ø£": 1834, "Ø§Ø±Ùī": 4911, "Ø¨Ø±Ùĩ": 6096, "ĠÙĪÙĨØŃ": 6195, "ĠØ§ÙĦÙħØªÙĪÙĥÙĦÙĪÙĨ": 6754, "ĠÙĪÙĦÙĪØ§": 4884, "ĠØ§ÙĦÙħØ£ÙĪÙī": 4849, "ĠÙĦÙĬØ¸ÙĦÙħÙĩÙħ": 7062, "ĠØ£Ø°Ùī": 3378, "ĠØ¬ÙĨØª": 4095, "ĠØ¶ÙĬÙĤ": 8335, "ĠÙĪØ¥ÙĨÙĬ": 1985, "ĠØªØ£ØªÙĬÙĩÙħ": 1826, "ĠØ¨Ø¢Ø¨Ø§Ø¦ÙĨØ§": 10320, "Ø¶ÙĪØ§": 1135, "ĠÙĬØ¬Ø±ÙĬ": 5151, "ÙĪØ¶Ø§": 7112, "ĠØ¨ÙĩØªØ§": 4946, "ĠØ§ÙħØ±": 3631, "ĠÙħÙĨÙĥÙĨ": 4724, "ĠØ¹Ø±": 3513, "Ø§Ø¦Ùĩ": 4193, "ÙĬÙĨØ§": 193, "ĠÙĬØªÙĪØ¨ÙĪÙĨ": 6770, "ĠÙĪØªÙĪÙĦÙĪØ§": 8154, "ĠÙĬØªØ·ÙĩØ±ÙĪÙĨ": 8122, "ĠØ¨Ø´": 1309, "ÙĪØ¬": 585, "Ùĥ": 56, "ÙĤÙĬÙħÙĪÙĨ": 3737, "ĠØ¬Ø§Ø¡ÙĪÙĥÙħ": 6163, "ØŃÙħÙĨØ§": 4228, "ĠØ³ÙħØ§ÙĪØ§Øª": 4527, "ĠÙĬØŃØ¶": 8168, "ĠÙģØ¥ÙĨÙĩ": 1888, "Ø§ÙģØ¸ÙĪÙĨ": 2816, "ĠØ£ØŃÙĬ": 3258, "ĠÙĤØµÙĪØ±Ø§": 9482, "Ø§ÙĩÙħ": 1268, "ĠÙĬÙĦÙĩØ«": 10199, "Ø¨ØµØ§Ø±": 1344, "ĠØªØ±ÙĩÙĤ": 8228, "ĠØªÙĤØ¯Ø±ÙĪØ§": 9481, "ĠØ§ÙĦØ±Ø´": 5988, "ĠÙĤØ§Ø¦": 1628, "ĠØ§ÙĦØµØ§Øº": 8087, "ĠÙĬØ¹Ø±Ø¬": 5074, "ĠÙģØ£ÙĤ": 7942, "Ø§Ø¬": 935, "ĠÙģØªÙĨ": 3682, "ĠØ±Ø¨ÙĥÙħ": 494, "Ø°ÙĪÙĤÙĪØ§": 1739, "ĠØ¢Ø°Ø§ÙĨ": 2207, "ØŃØ¨ÙĪÙĨ": 4006, "Ø³Ø®": 4647, "ĠÙĥÙħØ§Ø¡": 8804, "ĠØ¬Ø¹ÙĦÙĨØ§ÙĥÙħ": 8895, "ĠØªÙĥØ°Ø¨ÙĪÙĨ": 2586, "ĠÙĪÙĬØ°ÙĩØ¨": 7895, "ÙħØ±ÙĥÙħ": 8192, "ĠØ¨ÙĤØ±Ø©": 5504, "ĠÙĬØ£ÙħØ±ÙĥÙħ": 4521, "ĠÙĪÙĬØ®Ø´": 9576, "ĠØ¹Ø±ÙģÙĪØ§": 7447, "ĠÙħØ¹Ø§Ø°": 9869, "ĠØ§ÙĦÙĤØªÙĦ": 4171, "ĠØŃØ§Ø¶Ø±Ø©": 9965, "ĠÙĥØ§Ø°Ø¨Ø§": 9799, "ĠØ¥Ø°Ø§": 275, "ĠÙĪØ£ÙĤØ±Ø¶ÙĪØ§": 9231, "ĠÙħØ±Øµ": 8504, "ĠÙĦÙħØ§": 607, "ĠÙģØ§ÙĨØªÙĤÙħÙĨØ§": 5226, "Ø²ÙĦÙĬÙĨ": 5001, "ĠØ£ÙĩÙĦÙĩÙħ": 6234, "Ø°ÙĬÙĤÙĩÙħ": 6496, "ĠÙĪØµØ±Ùģ": 7161, "ÙĨØ§ÙĨØ§": 7454, "Ø±Ø¡": 1927, "ĠØ¥ØŃØ¯Ø§ÙĩÙħØ§": 4480, "ĠØ§ÙĦØ£Ø³ÙĪØ§": 7814, "ĠÙĬÙĤØ¶Ùī": 8736, "ØµØ¯ÙĤØ§": 2126, "ĠÙģØ£Ø±Ø³ÙĦ": 4158, "ĠØ£Ø¹ÙĤØ§Ø¨": 5140, "ĠÙĪØ§ÙĦØŃØ³Ø§Ø¨": 9568, "ĠÙĦØ¨Ø´Ø±": 5250, "Ø¬ÙħØ¹": 4029, "ĠØ¥ÙĦØ§": 148, "Ø£ØªÙĬÙĩÙħ": 5737, "ĠØ¯ÙĥØ§": 6006, "ĠÙĪØ¬ÙĩÙĩ": 2413, "ĠÙĪØ¹ÙĨØ¯Ùĩ": 6720, "ĠÙģØŃ": 7268, "ĠÙĬØ¤ÙģÙĥ": 8725, "ÙĬØ§ÙħØ§": 2504, "ĠÙĤØ±Ø¯Ø©": 9223, "ĠØµØºÙĬØ±Ø§": 10106, "ĠØ§ÙĦØ£Ø´ÙĩØ§Ø¯": 9853, "ĠØ£Ø¹Ø¯Ø§Ø¡": 4477, "ĠÙĪØ¹Ø´ÙĬØ§": 5067, "ĠØŃÙģØ¸": 7759, "ÙĪØªÙĬÙĨ": 8430, "ĠØ£ÙĤ": 821, "ĠÙĪØ¹ÙĦÙī": 961, "ÙĨØ¹ÙĪÙĨ": 3420, "ĠÙĬØªÙĪÙĦÙī": 6119, "ĠÙħÙĥØ§ÙĨÙĩ": 6650, "ĠØ§ÙĦÙĪØ§ØŃØ¯": 3840, "ĠÙĥØ§Ùģ": 3534, "ÙĦÙģØªÙħ": 8313, "ÙĦÙĦ": 2436, "ĠØ§ÙĦØ´Ø§ÙĥØ±ÙĬÙĨ": 3277, "ĠØ¨Ø¹Ø¨Ø§Ø¯Ùĩ": 3865, "ĠÙĬØŃÙĬÙĬ": 1601, "ĠØ³ÙĪÙĦØª": 7005, "ÙģØ©": 833, "ÙħØª": 707, "Ø®ÙĦÙĪÙĩØ§": 5132, "ĠØ§Ø¬Ø¹ÙĦÙĨÙĬ": 9615, "ĠØ¯ÙĪÙĨÙĬ": 6246, "ÙĦÙĥØ§ÙģØ±ÙĬÙĨ": 1190, "ĠÙĪÙĬØ±ÙĬØ¯ÙĪÙĨ": 6662, "ĠÙĪØ§ÙĦØ·ÙĬØ¨": 9487, "ĠØ§ÙĦÙģØ³Ø§Ø¯": 3896, "ĠØªØ¶Ø±": 4025, "ĠØªØ¤ØªÙĬ": 9251, "ĠØ®ÙħØ³Ø©": 9847, "ĠÙĬØ±Ø¬ÙĪÙĨ": 2374, "ØªØ§ÙĥÙħ": 8392, "ĠÙĦÙĥÙĦÙħØ§Øª": 6231, "ĠØ§ÙĦØ®ÙĦØ§ÙĤ": 8421, "ĠØ¨ÙħØ¨Ø¹ÙĪ": 8914, "ĠÙĪØ¹ØªÙĪØ§": 8361, "ÙĬØ¹": 1606, "ĠÙĬÙĨØ§": 2185, "ĠÙĩØ°Ùĩ": 849, "Ø¨ÙĬÙĨØ§Øª": 1032, "Ø¬ÙĪÙĨ": 1781, "ĠØ§ÙĦØµÙĪØ±": 2531, "ÙģØ³ÙĩÙĨ": 7998, "ĠØ§Ø³ØªØºÙģØ±ÙĪØ§": 6339, "ÙĦÙģÙĪÙĨ": 2380, "ĠÙĦÙĩØ°Ø§": 8047, "ĠØ·ÙĦÙĤØªÙħÙĪÙĩÙĨ": 9620, "ĠØ£Ø·Ø±Ø§ÙģÙĩØ§": 9632, "ĠØ¬Ø¨Ø§Ø±ÙĬÙĨ": 9845, "ĠØ®ÙĦÙĤÙĥ": 8278, "ĠØ¹Ø§ÙĦÙĬØ©": 9249, "ĠØ³ÙħØ¹ÙĪØ§": 3793, "ĠÙĦÙĬØ°ÙĥØ±ÙĪØ§": 6056, "ĠÙĬÙĦÙĤÙĪÙĨÙĩ": 9355, "ĠØªÙĤØ§ØªÙĦÙĪÙĨ": 6399, "ĠØ¨Ø¸": 3989, "ĠØ®Ø²ÙĨØªÙĩØ§": 6812, "ĠÙĬØªØ®Ø°ÙĪÙĨÙĥ": 9379, "ĠÙĦØ²ÙĦÙģÙī": 10197, "ĠÙģØªÙĥÙĪÙĨØ§": 9581, "ĠÙĨØ¶Ø±Ø¨ÙĩØ§": 10240, "Ø³ÙĦÙħÙĬÙĨ": 7266, "ĠÙħØ¨Ø§Ø±ÙĥØ©": 6885, "ĠØ³ÙĥØ±": 7660, "ĠØ£ÙĪÙĦØ§Ø¯ÙĥÙħ": 3372, "ĠØ¨Ø±ÙĩØ§ÙĨÙĥÙħ": 5479, "ĠÙģØ±ÙĬ": 1149, "Ø±Ø¨": 221, "ĠØ§ÙĦÙħÙĤØ±Ø¨ÙĪÙĨ": 5467, "ØµÙĦØ¨": 4773, "ĠÙĬÙĨÙĬØ¨": 10200, "ĠÙĪÙĦØ¹": 1969, "ĠØ®ÙĦÙĤ": 324, "Ø±Ø¨Ùĥ": 6081, "ĠØ£ÙĨÙħØ§": 1566, "Ø§ÙģÙĦ": 2745, "ÙĥØªØ¨": 3083, "ĠÙĬÙĨØ¨Ø£": 9580, "Ø³Ùĩ": 3101, "ĠÙĩÙĪØ§Ùĩ": 3558, "ĠØ§ÙĦØ£ÙĨ": 588, "ÙĦÙĪÙĩ": 3419, "ĠÙĬÙģØªÙĨ": 9021, "ĠØ§ÙĦØ£ÙĨØ«Ùī": 8686, "ĠØ¨Ø§ÙĦÙĤØ±Ø¢ÙĨ": 9232, "ĠØ¨Ø§Ø±": 3490, "ĠØ£Ø³ÙħØ¹": 5645, "ĠØ§ÙĦÙĤØ±Ùī": 1715, "ĠØ¹Ø´ÙĬØ±": 7446, "ĠÙĪÙĦÙĦØ¢Ø®Ø±Ø©": 9540, "ĠÙĦØ®Ø¨ÙĬØ±": 9561, "ĠÙĤÙĪØ©": 1598, "Ø¬Ø±ÙĪÙĨ": 5771, "ÙģØ§ÙĤ": 6245, "ĠÙĨØ§Ø¦": 7615, "ĠØ§ÙħØª": 8013, "ĠÙħØªØ±Ø¨Øµ": 8801, "ĠØ¬ÙĩØ¯": 3582, "ĠÙĪØ·Ø§Ø¦ÙģØ©": 6652, "ÙĤÙĨ": 3485, "ĠÙĦÙĬØ¬ÙħØ¹ÙĨÙĥÙħ": 10275, "ĠØ¹Ø§ÙĦÙħ": 2161, "ÙĬØ¨ÙĩØ§": 8127, "ĠØ§ÙĨØªÙĩÙĪØ§": 5204, "Ø°ÙĬ": 782, "ĠØ¨ÙħÙģØ§Ø²": 8918, "ÙħØ³ÙĨØ§": 8521, "ĠØ·": 322, "ÙĥØ¨Ø±ÙĪØ§": 1427, "ĠØ§ÙĦÙĨØ¹ÙĬÙħ": 2543, "Ø¹ÙĦÙĨÙĪÙĨ": 2710, "ĠØ®ÙģÙĬ": 7783, "ĠÙĬØ®Ø±": 3974, "ĠÙĪØ£Ø¹ÙĦÙħ": 5875, "ĠØµÙĦÙī": 7982, "ĠÙĪØ£ÙĪØŃÙĬ": 9490, "Ø¸ÙĬÙħ": 542, "ĠØ§Ø¦Øª": 6743, "ØªÙĩÙħØ§": 2744, "ĠÙĬØªØ®Ø°ÙĪØ§": 6118, "ĠØ§ÙĦØ²ÙĪØ¬ÙĬÙĨ": 8898, "ĠÙĨØ³Ø¨ØŃ": 7625, "Ø°ÙĥØ±": 402, "ĠØ³ÙĨØ§": 7656, "ĠÙĪÙĬÙĦØ¹Ø¨ÙĪØ§": 9862, "ĠØ¹Ø²Ùħ": 4733, "ĠØ¢ÙĦØ¢ÙĨ": 9089, "ÙħØ£": 7090, "ÙģØ§ØªØ§": 7402, "Ø³Ø¯ÙĪÙĨ": 7261, "ĠØ§ÙĦÙħØŃØµÙĨØ§Øª": 4847, "ĠØµØ±ÙģÙĨØ§": 5492, "Ø«ÙĬØ§": 7696, "ĠØ¹ÙĨ": 157, "ÙĦÙĪØ§": 216, "ĠØ¨ÙĦØºØª": 4462, "ĠÙĪØ£Ø°ÙĨØª": 7731, "ĠÙĪØ¹Ø¯Ùĩ": 3319, "ĠÙĪØ§Ø³ØªØºÙģØ±": 2147, "ĠÙĪØ§ÙĤØ¹": 6111, "ĠØªØ±Ø¯ÙĨ": 8230, "ĠØ¨ØºÙĬ": 8647, "ĠØªÙĩØªØ²": 9944, "ĠÙĬØ¯Ø¹ÙĪ": 2977, "ĠØ£Ø¬Ø§Ø¬": 8407, "ĠØ¨Ø²ÙĬÙĨØ©": 10208, "ÙħØ§Ø¦": 4018, "ĠÙħÙĩØ§Ø¬Ø±": 7212, "ĠÙĪÙĦÙĥÙĦ": 2974, "ĠÙħØ³ØªÙħØ±": 10011, "ÙĦØºÙĪ": 3906, "ĠÙħÙĥØ±": 1430, "ĠØ²Ø¬Ø±Ø©": 8413, "Ø´Ø§Ø±": 2328, "ĠØ¨Ø¹ÙĬØ¯": 1992, "Ø±Ùħ": 2440, "ĠØ£ÙĩÙĪØ§Ø¡ÙĩÙħ": 2277, "ĠÙģØ£Øª": 2929, "Ø±Ø§Ø¬": 3198, "ĠØ§ÙĦÙħØ´Ø£ÙħØ©": 7050, "ĠØ§ÙĦØ£ÙĪØª": 7810, "ĠØ¶Ø§": 8333, "ĠØ§ÙĦÙĥØ¨Ø±": 2095, "ĠÙħØ¹Ø¯": 3089, "ĠÙģØ¥ÙĨÙĬ": 3625, "ÙĪØ³ÙĥÙħ": 9017, "ĠØ¥ÙĨÙĥÙħ": 1112, "ĠÙģÙĦÙĩÙĨ": 7287, "ØŃÙĤÙĨÙĬ": 8583, "Ø¹ÙĦÙĪÙĨ": 2086, "ĠØ§ÙĦØŃÙĦÙħ": 7930, "ĠÙĬÙħÙĦÙĥ": 1670, "ĠØ¨Ø§ÙĦØ³Ø§": 7852, "ĠÙĤØ¯ÙĬØ±": 997, "ĠØ¨Ø¹Ø«ÙĨØ§ÙĩÙħ": 9401, "ĠÙĪØ£Ø¯Ø®ÙĦ": 4839, "ĠØµØ¯ÙĬÙĤØ§": 8720, "ĠÙĥØ§ÙĨØª": 1199, "ĠÙĪØ´Ùģ": 7154, "Ùĩ": 52, "ĠØ¢ÙħÙĨØª": 3225, "ĠØªØ´ÙĥØ±ÙĪÙĨ": 1599, "ĠØ´Ø¦Øª": 4490, "ĠÙģÙħ": 2641, "ĠÙĪØ³Ø¹Øª": 8659, "ĠØ£Ø´Ø±ÙĥØªÙħ": 9199, "ĠÙĪØ¬Ø§ÙĪØ²ÙĨØ§": 9982, "ĠÙĪÙĤÙĦÙĪØ¨ÙĩÙħ": 6610, "ĠØ§ÙĦØ¯Ø§Ø¹": 6990, "ĠÙģÙĬÙĪÙģÙĬÙĩÙħ": 7540, "ĠÙĦØ´Ø¯ÙĬØ¯": 5447, "ĠØ±Ø²": 1784, "ĠÙĪØ±Ø¨": 965, "ĠÙĬØ¹ÙħÙĦ": 2599, "ÙĬØ¹ÙĪÙĨ": 5568, "ØŃÙħ": 293, "Ø®ÙĦ": 486, "ĠÙĪÙĬÙģ": 5982, "ÙħÙĥÙħ": 5563, "ĠØ¨Ø·Ø´Ø§": 9104, "ĠÙĦØ¥ÙĦÙī": 9521, "ĠØ±Ø¤ÙĬØ§ÙĬ": 10073, "ĠÙĬØªØ®Ø°ÙĪÙĩ": 9378, "ĠØ§ÙĦÙĦØ§": 2047, "ĠØ±Ø³ÙĪÙĦÙĩÙħ": 8812, "ĠØ£ÙĨØ´Ø£ÙĨØ§": 5400, "ĠÙģÙĦØ¹": 5017, "Ø§ÙĨØ¹": 7576, "ĠØ§ÙĦØµÙĪØ§Ø¹ÙĤ": 8089, "ĠÙĬØ¹ÙģÙĪ": 8381, "ĠØ±Ø¬Ø§ÙĦÙĥÙħ": 9683, "Ø·Ø±ÙĨØ§": 3772, "ĠØ³ÙĪØ¡": 974, "ÙĦØŃ": 522, "ĠÙĪØ´": 1549, "Ø¨Ø§Ø¦": 3446, "ĠÙĩØ§ÙĩÙĨØ§": 5543, "ĠØ®Ø³Ø±ÙĪØ§": 2914, "ÙĤÙĬØª": 5697, "ĠÙħØ·": 3088, "ĠØ³ÙĬØ¦Ø§ØªÙĩÙħ": 3374, "ĠÙĪØ¸ÙĦ": 5319, "ĠØªØ§Ø±Ø©": 7490, "ĠÙĦØ¯Ø§": 7305, "ĠÙģØ£ÙĨØ³": 6009, "ĠØ§ÙĦØ´Ø¬Ø±": 8352, "ĠÙĪØ§ÙĦØ³ÙĦØ§Ùħ": 9055, "Ø¯Øª": 1686, "ĠÙĪÙĦØªØ·ÙħØ¦ÙĨ": 9064, "ĠÙĬØ¯Ø®ÙĦÙĪÙĨÙĩØ§": 6860, "ĠÙĪØ§ÙĦÙĨØ¬ÙĪÙħ": 6982, "ĠØ®Ø§Ø¦ÙĨØ©": 9778, "Ĭ": 41, "ĠÙĪØª": 276, "ĠÙĦØ¢ÙĬØ©": 1541, "ĠÙĪØµÙĬØ©": 3797, "ĠÙģÙĪØ²Ø§": 5677, "Ø¬Ø§Ø¨": 2875, "ĠØ¨Ø§ÙĦØ±ØŃÙħÙĨ": 5961, "Ø§ÙĦÙĪØ§": 1926, "ÙĬØ¨": 266, "ĠØ±ØŃÙĬÙħ": 713, "Ø³ÙħØ§": 2058, "ĠØ§ÙĦØ®Ø§Ø³Ø±ÙĪÙĨ": 2385, "ĠØ§ÙĦØ´ÙĩÙĪØ§Øª": 7022, "ĠØ³ÙħÙĬØ§": 9771, "ĠÙĨØ®ÙĪØ¶": 9462, "ĠÙĦØ¢Ø¯Ùħ": 4389, "ĠÙĦÙĨÙģØ³ÙĬ": 5354, "ØµØ§Ùħ": 7554, "Ø¯Ø±Ø©": 7254, "Ø·Ø§Ø¡": 3168, "ĠØ®ÙĪØ§Ø±": 7791, "ĠØ§ÙĦØ´ÙģØ§Ø¹Ø©": 4257, "ĠØµØ±ØµØ±Ø§": 8869, "ĠÙĦØ£ÙĨØ²ÙĦ": 9436, "ØŃÙĤ": 485, "ØŃØ±ÙĪÙħ": 8459, "ĠØ¨Ø¨": 4700, "ĠÙĪÙħØªØ§Ø¹Ø§": 6939, "ÙģÙĬØ±": 7390, "ĠØ£ÙģÙĦ": 8302, "ĠÙĤØ§ÙĦÙĪØ§": 254, "ĠØ£Ø²ÙĪØ§Ø¬Ùĩ": 8959, "ĠÙħØ¢Ø¨Ø§": 9588, "ĠÙĪÙĬØªØ®Ø°": 5986, "ÙĤÙĪØ¨": 1770, "ÙĨÙĪØ§ÙĨ": 6599, "ĠØ³Ø§Ø¬Ø¯ÙĬÙĨ": 4071, "ĠÙĬØ®ØªØµ": 3702, "ÙĪØŃØ§": 4291, "ĠÙĪØ§ÙĦÙħØŃØµÙĨØ§Øª": 6376, "ĠØ§ÙĦØ°ÙĨ": 5848, "ĠØ¹ÙĬÙĨÙĩØ§": 9311, "ĠÙĦØ¨Ø«ÙĨØ§": 9404, "ĠØµØ¨": 4167, "Ø¹Ùģ": 750, "ĠØ§ÙĦÙĬØªÙĬÙħ": 4560, "ĠØ§ÙĦÙħØ®ÙĦÙģÙĪÙĨ": 7051, "ĠÙģØ®Ø°ÙĪÙĩ": 9634, "ĠÙĪÙĨ": 320, "ĠØ£ÙĬ": 270, "Ø°Ø±Ø§": 7347, "ĠÙĥÙĦÙħ": 1154, "ĠÙĪØ¹ÙĨ": 1727, "ĠØªØ£ØªÙĩÙħ": 8592, "ĠÙĬÙĥØªØ¨ÙĪÙĨ": 4256, "ĠØ§ØªØ®Ø°Øª": 6608, "ĠÙĦØªØ¨ØªØºÙĪØ§": 5130, "ĠØªÙĨÙģ": 8607, "ĠÙĪØ¨Ø¹": 7140, "ĠÙĦÙĦÙĥØ°Ø¨": 9932, "ĠØ§ÙĦØ¹ÙĦÙħ": 1178, "ĠÙĦÙĬÙĨØ°Ø±": 5425, "ĠÙģØ§ÙĨØ¸Ø±ÙĪØ§": 4366, "ĠØ§ÙĦØ·ÙĬØ±": 2571, "ĠØ£Ø¨Øª": 2638, "ĠØªØ³ØªØºÙģØ±": 6557, "ĠØŃØ§Ø´": 4091, "ĠÙĪØ¹Ø¯ÙĥÙħ": 8690, "ĠØ£Ùħ": 176, "ĠØ·ØºÙĬ": 4240, "ĠÙģØ¹ÙĦ": 1182, "ĠØ£Ø¬Ø¨ØªÙħ": 8409, "ĠØ¬Ø²": 876, "ĠØ¨Ø§ÙĦÙĦØºÙĪ": 5963, "Ø¯Ø§Ø¯Ø§": 3100, "ĠØªØ¤ÙħØ±ÙĪÙĨ": 10222, "ĠÙĬØ¯ÙĬÙĩ": 1729, "ĠÙħØ±": 449, "ĠÙĪØ£Ø®": 1795, "Ø¬ÙĬØ¨": 1694, "ĠØ§Ø¬": 2356, "ĠÙĬØªØ³Ø§Ø¡": 3241, "ĠØ§ÙĦØ£ÙĬØ§Ùħ": 5940, "ĠÙģØ£ÙĤØ¨ÙĦ": 6014, "ĠØªØ³Ø¤ÙĩÙħ": 8831, "ĠØ±Ø¶ÙĪØ§ÙĨÙĩ": 9602, "ĠÙģØ£Ø®Ø±Ø¬ÙĨØ§": 3868, "ĠÙģÙĦØ£ÙħÙĩ": 10130, "ĠØ§ÙĦØ£ÙĪÙĦÙĪÙĨ": 3784, "ĠÙĦÙĥÙĨØ§": 5061, "ĠØµØ§ÙĦ": 7981, "ĠØºÙĬØ§Ø¨Øª": 10279, "Ø²Øª": 3546, "ĠØ§ÙĤØ±": 4947, "ĠÙĪØŃØ³ÙĨ": 3434, "ĠØ¨Ø£ÙĨ": 1231, "Ø§Ø¹Ø©": 749, "Ø±ÙĬØ¶": 6066, "ĠÙħØ¨ÙĬÙĨØ©": 6363, "ĠÙĬØ¶Ø±Ø¨ÙĪÙĨ": 6879, "ĠØ§ÙĦØ®ÙĦ": 2975, "ĠØ§ÙĦØ£Ø¯ÙĨÙī": 7818, "ĠÙĬØªÙģÙĥØ±ÙĪÙĨ": 2608, "ĠÙĬÙĨØ§Ø¯ÙĪÙĨ": 5415, "Ø°Ø±": 386, "ĠÙĪØ§ÙĦØ±Ø³ÙĪÙĦ": 2684, "ĠØ±Ø¬Ø¹ÙĪØ§": 8705, "ĠÙģØ£Ø®Ø°ØªÙĩÙħ": 2596, "ĠØ£ÙĨÙĩØ§Ø±Ø§": 7584, "ĠØªÙĦØ¨Ø³ÙĪÙĨÙĩØ§": 10171, "ĠÙĬØ¤ÙħÙĨ": 952, "ĠØ¸ÙĦÙħÙĩÙħ": 6444, "ĠÙĪØ¬Ø§ÙĩØ¯": 8070, "ĠØ£Ø£ÙĨØª": 9281, "ĠÙĤØªÙĦÙĪØ§": 3825, "ĠÙģØ£ØªØ¨Ø¹Ùĩ": 6872, "ĠØ¨Ø³ÙĪØ¡": 5263, "ĠØ£ÙĪØ¢Ø¨": 7872, "ĠØ£Ø²ÙĪØ§Ø¬ÙĩÙħ": 4385, "ĠØ£ÙĨØ§Ø³": 4330, "ĠØ·ÙĪÙī": 8270, "ĠÙĤØªÙĦÙĨØ§": 9260, "Ø«Ø¨Øª": 2489, "ÙĪØ§": 69, "ĠØ§ÙĦÙĨØ¬ÙĪÙħ": 3872, "ĠÙĬØ¯": 412, "ĠØ£Ø´Ø¯": 999, "ĠØ£ÙĦ": 1851, "ĠÙĬØ±Ùĥ": 6156, "ĠØ§ÙĦØ£Ø®Ø³Ø±ÙĪÙĨ": 9539, "ĠÙģØ¹Ø³Ùī": 4395, "ÙĪØ¶Ø©": 5576, "ĠØ¹Ø§ÙĤØ±Ø§": 9026, "ĠØ¨Ø¶": 4701, "ĠÙĪØ§Ø¬ØªØ¨": 9722, "ĠØµØ¨ØºØ©": 9867, "ĠØ±Ø£ÙĪØ§": 2584, "ĠÙĪÙĨØ°Ø±": 2957, "ĠÙĬØ¸ÙĩØ±": 6729, "ĠØ§ØªØ®Ø°ÙĪØ§": 1479, "ĠØ§Ø³ØªØ£": 8557, "ÙĤÙĦØ¨ÙĪØ§": 3035, "ĠÙĤØ³Øª": 7525, "ĠÙĬØ¸Ø§ÙĩØ±ÙĪÙĨ": 9354, "ĠØªØŃÙĥÙħ": 3689, "ÙĪÙĤ": 687, "ĠÙĬÙĪÙĦØ¬": 4684, "ĠØªØ¹Ø¯ÙĪØ§": 5762, "ĠÙģØ³ÙĬØ±ÙĪØ§": 8671, "ĠÙĪÙĬØ«Ø¨Øª": 5987, "ĠÙĤØ§Ø¯Ø±": 7534, "ĠØ£ØŃØ§Ø·": 5020, "ĠÙĥØ´Ùģ": 7515, "ĠØ£Ø®Ø§Ùĩ": 5161, "ĠÙģØ§ÙĦÙĤ": 8899, "ĠØ§ÙĦÙĬØªØ§ÙħÙī": 4453, "ĠÙģÙĥØ§ÙĨÙĪØ§": 4469, "Ø§Ø¨ÙĩÙħ": 4810, "Ø±Ø¨Ø§": 8051, "ĠØ§ÙĦØŃÙĥÙĬÙħ": 908, "Ħ": 35, "ĠÙĪÙĦÙħ": 830, "ĠÙĪØ§ØŃØ¯": 1667, "Ø¨Ø§Ø·ÙĦ": 7192, "ĠÙĦØ¢ØªÙĬÙĨØ§": 8971, "ÙĨØ«": 7082, "ĠÙĦØ§Øª": 3474, "ĠÙĪØ£ØµÙĬÙĦØ§": 5259, "Ø¯ÙĩØ§": 5650, "Ø§Ø¹ÙĬ": 7075, "ĠØª": 85, "ĠØ¨Ø´Ø±Ùī": 5279, "ĠÙĪØ¥ÙĬØ§ÙĥÙħ": 5451, "ÙĬØ¯ÙĩØ§": 4905, "ÙħØ³": 456, "ĠÙħØ¤": 2177, "ĠÙħÙĨÙĩÙħØ§": 2546, "ĠØ§ÙĦØ³Ø¨Ø¹": 5977, "ĠØ§ÙĦÙĪØ¯ÙĤ": 10035, "ĠÙģØ¨Ø´Ø±ÙĩÙħ": 6423, "ĠØ±ØŃ": 528, "ĠÙĦÙĬÙĩÙĦÙĥ": 8001, "ĠÙĬÙĩØ§Ø¬Ø±ÙĪØ§": 5692, "ĠÙĬØ¨Ø¯": 1435, "ĠÙĬÙĪØŃÙĬ": 5344, "Ø±ÙĬØ¨": 4948, "ĠØªØ¹Ø¬Ø¨Ùĥ": 6979, "ĠØ£Ø±Ø¯ÙĨØ§": 4345, "ĠØªØ¶": 2315, "Ø§Ø±Ø§": 1269, "ÙĪØµ": 4589, "ĠÙģØ¶ÙĦØªÙĥÙħ": 9007, "Ø§ÙģØ¸": 1655, "ĠØ¨Ø«": 4703, "ĠÙĪØ£ÙĪØ±Ø«ÙĨØ§": 6927, "ĠÙĦÙĬÙĤØ·Ø¹": 9674, "ĠØ§ÙĦÙħØ§ÙĦ": 4842, "ĠÙĦØ¥Ø¨Ø±Ø§ÙĩÙĬÙħ": 9522, "ĠØ§ÙĦØŃØ±Ø«": 4919, "ÙĦØ§": 83, "ØµØ±Ùĩ": 5081, "Ø³Ø±ÙĬÙĨ": 1473, "ĠØ®Ø·ÙĬØ¦Ø§Øª": 9849, "ĠÙĬØºØ´Ùī": 3757, "ÙĤØª": 419, "ĠØ±Ø£ÙĬØª": 3780, "ĠØµÙĦ": 4166, "ĠÙĥÙĦØ¨ÙĩÙħ": 6095, "ĠØ¨ÙĪØ£ÙĨØ§": 10209, "ĠØ¨ØºÙĬØ±": 932, "ÙĬØ¯ÙĪØ§": 5992, "ĠØ§ÙĦÙĪÙĦØ¯Ø§ÙĨ": 7135, "ĠÙĪØ§ÙĦØ±Ùĥ": 5837, "ĠØªÙħØªØ¹": 9563, "ÙĪÙĨÙĪØ§": 1944, "ĠÙĬØ´Ø¥": 8201, "ĠÙģÙĨØ³": 3963, "Ø§Ø¯ÙĤÙĬÙĨ": 816, "ĠÙĪÙĨØ²ÙĦÙĨØ§": 5030, "ĠÙģØ±ØŃÙĪØ§": 6276, "ĠØ§ÙĦØ£Ø±Ø§Ø¦Ùĥ": 4568, "ĠÙĪØ¨Ø«": 6296, "ØªØ¹": 4616, "Ø³Ø¨Ø§Ø¨": 5013, "Ø¹Ø«": 5637, "ĠÙĪØ§ÙĦØ´ÙĩØ¯Ø§Ø¡": 6598, "ĠØ§Ø¨ØªØºØ§Ø¡": 2434, "ĠØªØŃØ³Ø¨": 2551, "ĠØªØªÙģÙĥØ±ÙĪÙĨ": 6327, "ĠÙĬÙĦØ§": 5687, "ĠØ§Ø´": 1595, "ĠÙĨÙĥØ°Ø¨": 9033, "ĠØ§ÙĦØŃØ±Ø§Ùħ": 1365, "ĠÙĪØ²ÙĨÙĪØ§": 8873, "ĠØµÙĦØ§ØªÙĩÙħ": 3885, "ĠÙĬÙĩØ¯ÙĪÙĨ": 4471, "ĠØ£ÙħØ±Øª": 3304, "ĠÙĬØŃØ¨ÙĪÙĨ": 3657, "ĠÙĪØ£ÙĨÙī": 8260, "ĠØ®Ø¨Ø§ÙĦØ§": 10255, "ĠØ§ÙĦØ£ÙĦØ¨Ø§Ø¨": 1842, "ĠØ£Ø¹Ø¬Ø¨Ùĥ": 9499, "ĠØ¢ÙĨØ§Ø¡": 5871, "ĠÙĪØ£ÙħØ·Ø±ÙĨØ§": 4442, "ĠÙħÙħÙĨÙĪÙĨ": 5256, "ĠÙģØ§ÙĨØ¸Ø±": 2140, "ĠÙĪÙħØ£ÙĪØ§Ùĩ": 6977, "Ø§Ø¨Ø§": 1137, "Ø´Ùī": 1633, "ĠÙĦØ²ÙĦ": 7302, "ĠØ£ÙħØ©": 827, "ĠÙĪØ§ÙĦÙħØ¤": 4314, "Ø§ÙħØ¯Ø©": 8697, "ĠØ£Ø´ØªØ§ØªØ§": 8793, "ĠØ§ÙĦÙħÙģØ³Ø¯ÙĬÙĨ": 2494, "ĠØ£Ø´Ø±Ùĥ": 1388, "ĠØ§ÙĦÙħØ§": 4600, "ĠØªØ°Ùĩ": 7478, "ĠÙĬÙĤÙĪÙĦ": 810, "ĠØ§ÙĦÙħÙģØª": 7735, "ĠØ¨Ø¹Ø°Ø§Ø¨": 1993, "ĠÙĪØ§ÙĦØµØ§Ø¨": 5304, "ĠØ£ÙĨØ§Ø¨": 6411, "ĠØ´Ø¬Ø±": 3589, "ĠØºÙĬØ±ÙĥÙħ": 5154, "ĠÙĩÙĦÙħ": 7647, "ĠØ§ÙĦØ£Ø¬Ø¯": 5938, "ĠØ§ÙĦØ£Ø¹ÙħÙī": 3197, "ĠØ£Ø±Ø¬ÙĦÙĩÙħ": 6843, "ĠÙĪØ±Ø²ÙĤ": 2119, "ĠÙĪÙĬÙħÙĬØª": 2814, "ĠÙģÙĬØ£Ø®Ø°": 5791, "ĠØ¨ÙħØ§": 220, "ĠØ£ÙħÙħ": 2717, "ĠÙĪØ§ØªØ®Ø°": 4312, "ĠØ§ÙĦÙĥØ¨Ø±Ùī": 3859, "ĠÙĪØªÙĪÙĥÙĦ": 3248, "ĠØ§ÙĦØ±ØŃÙħØ©": 3638, "ĠÙĬØ¨ÙĬØªÙĪÙĨ": 7043, "ĠÙĩØ§ØªÙĪØ§": 4816, "ĠÙĬØµÙĬØ¨ÙĩÙħ": 6904, "ĠÙģØ¶ÙĦØ§": 2785, "ØµØ§Ø±": 703, "ĠØ¯Ø±Ø¬Ø©": 5379, "Ø´Ø§ÙĩØ§": 4789, "ĠÙħØ±Ø³ÙĦ": 5630, "ĠÙģØ§Ø³Ø£ÙĦÙĪØ§": 8988, "ĠÙĪØ§Ø³Ø£ÙĦÙĪØ§": 9173, "Ø³ÙĨØªÙĩÙħ": 3672, "ĠØªØ®Ø´": 3743, "Ø±Ø§Ø¯": 3597, "ĠØ³ÙĬØµÙĬØ¨": 6421, "ĠÙĪØ£ÙĪØ±Ø«ÙĨØ§ÙĩØ§": 9775, "ĠØ£ÙħØ«Ø§ÙĦ": 2928, "ĠØªÙħ": 1281, "ĠØ£Ø²": 3098, "ĠÙĪØ§Ø¨ØªØº": 4435, "ĠÙĬØ¤ØªÙĥÙħ": 5184, "ĠÙĬÙĤÙĪÙĦÙĪØ§": 2404, "ĠÙĨØ¹ÙħØªÙĥ": 8848, "Ø¨ÙĬØ«": 2222, "ĠØ§ÙĦØ³Ø±": 5976, "ĠØ¹Ø§ÙĦ": 1504, "ĠÙĪØ£Ø¹Ø¯": 3173, "ĠØ±Ø£": 906, "ĠÙħØ¹": 262, "Ø¨Ø¹Ø¶": 1294, "Ø«Ø§ÙĦ": 1453, "ĠÙĪØ§ÙĦØŃ": 2477, "ĠØ§ÙĦÙħØ¹": 3574, "ĠÙħØ¨ÙĬÙĨ": 525, "Ø³Ø±Ø§": 3470, "ĠØ´Ø¹ÙĬØ¨": 5365, "ĠÙĪØ£ÙĨØªÙħ": 868, "ĠÙĨØ¨Ø¥": 6530, "ĠÙĦØ£Ùĥ": 8495, "ÙĪÙĩÙĨ": 861, "ĠØ¨Ø£Ø³ÙĨØ§": 2598, "ĠÙħÙĥØ§ÙĨØ§": 2831, "ĠÙģØ¹ÙĦÙĬ": 8994, "ĠØ£Ø¶Ø¹Ø§ÙģØ§": 9410, "ØªØ©": 1496, "ĠØ¨Ø±ÙĬØŃ": 9452, "ĠÙģØ¦": 5662, "ĠØ£Ø«ÙĤØ§ÙĦÙĩÙħ": 10022, "Ø³ÙħØ§Ø¹ÙĬÙĦ": 2278, "ĠÙħÙĨÙĩÙħ": 338, "ÙĤÙĩ": 2862, "ĠÙħØ±Ø³": 3090, "ĠÙĦÙĪ": 459, "ÙģØ±ÙĤ": 7798, "ĠØ³Ø¯ÙĬØ¯": 7667, "ĠØ¹ÙĦÙħ": 492, "ĠÙĦØªØ£ØªÙĪÙĨ": 5129, "ÙģÙĬÙĩ": 4289, "ĠØªÙĨØµØ±ÙĪÙĨ": 6352, "ĠØ¨Ø±Ø¨Ùĥ": 4409, "ĠØ°Ø±Ø£": 5420, "Ø±Ø§Øª": 2835, "ĠØªØ´Ø§Ø¨Ùĩ": 8833, "Ø¨Ø±Ø§ÙĩÙĬÙħ": 643, "ĠÙĪØ¨ÙĨÙĬÙĨ": 3705, "ĠØªØ£Ø®Ø±": 8591, "ĠÙĪØ§ÙĦØ£ÙģØ¦Ø¯Ø©": 4997, "ĠÙĬØ±ÙĪÙĨÙĩØ§": 9477, "ĠÙĪÙĨÙģØ®Øª": 9726, "ĠØ§ÙĦØºÙħØ§Ùħ": 6321, "ĠÙĬÙĨØ³ÙĦÙĪÙĨ": 10119, "Ø§Ø¯ÙĪÙĨ": 4145, "ĠØ§ÙģØªØ±Ùī": 2030, "ĠØ³ÙĬÙĤÙĪÙĦÙĪÙĨ": 5176, "ĠÙħØº": 2055, "ĠØ³Ø§ÙģÙĦÙĩØ§": 10241, "ĠÙĪØ§ÙĦØ£Ø¨ØµØ§Ø±": 3250, "Ø¦ÙĦØ§": 4824, "ĠØªÙĨÙĥØŃÙĪØ§": 5458, "ĠÙĪØ®Ø³Ø±": 9068, "ĠÙĨØ¯Ø±ÙĬ": 9533, "ĠÙĬØ´Ø¹Ø±": 8202, "ÙĤÙĨØ§Ùĩ": 3986, "ÙĨÙĬØ§Ø¡": 4965, "ĠØªØ³Ø£ÙĦÙĪØ§": 6481, "ĠØªÙĤÙħ": 8675, "ĠØªØ¤ÙħÙĨÙĪØ§": 2667, "Ø¸ÙĦÙħÙĪÙĨ": 1057, "ĠØ§ÙĦØ£Ø¬Ø¯Ø§Ø«": 7057, "ĠØŃÙĤÙĩ": 6549, "ĠØ·Ø§Ø¦Ùģ": 9097, "ĠÙĪØ²ÙĪØ¬": 4371, "ÙĦÙĪÙħØ§": 5317, "ĠØ¨Ø¢ÙĬØ§ØªÙĩ": 5143, "ĠØ®ÙĦÙĤÙĨØ§ÙĩÙħ": 6209, "ĠÙħÙĨØ¶ÙĪØ¯": 7432, "ĠÙĬØ¬Ø¯ÙĪÙĨ": 2601, "ĠØ¯Ø¹Ø§": 2720, "ĠÙĪÙħØ§": 150, "ĠÙĪØ¬Ø§ÙĩØ¯ÙĪØ§": 2529, "ĠÙĬØ£ÙĥÙĦ": 3833, "ĠØ§ÙĦØ£ÙĦØ¨": 1798, "ĠØ§ÙĦÙĤØ§Ø¹Ø¯ÙĬÙĨ": 5453, "ĠÙĨÙĪØ±Ø§": 2689, "ĠØ´Ø±Ø§Ø¨": 5275, "ĠÙģØªÙĨÙĤÙĦØ¨ÙĪØ§": 9787, "ÙĪØ¯Ø§": 3074, "ĠØ°ÙĬ": 1578, "Ø¯ÙĤ": 5649, "Ø·ÙĦÙĪØ§": 7686, "ĠØ£ÙĪØ²Ø¹ÙĨÙĬ": 10265, "ĠÙĪØ¹ÙĦØ§ÙĨÙĬØ©": 5068, "ÙħØ§Ø³Ø§": 7461, "ĠÙĪÙħ": 408, "Ø¦Ø§": 541, "ĠÙĪØ£Ø¹ØªØ¯ÙĨØ§": 3412, "ĠØ·ÙĬÙĨ": 2960, "ĠØ±Ø¯ÙĪØ§": 5807, "ĠÙĦØŃÙħ": 7304, "Ø¨Ø§ØŃ": 5070, "ĠÙĦÙĥÙħ": 205, "ĠÙħØºÙģØ±Ø©": 1683, "Ø§Ø¦ÙĦÙĬÙĨ": 4972, "ĠØ¹Ø¯ÙĦ": 3333, "ĠØ§ÙĦÙħÙĬÙħÙĨ": 5897, "ĠÙģØ³Ø§Ø¯Ø§": 6392, "ĠØ£Ø´ÙĬØ§Ø¡ÙĩÙħ": 7027, "ĠØªØ±Ø¬Ùģ": 9990, "ĠÙĬØªØ¶Ø±Ø¹ÙĪÙĨ": 10285, "ĠÙĤØ±ÙĬØ©": 1380, "ĠÙĨÙģØ¹Ø§": 2795, "ĠØ§ÙĦÙĤØ±ÙĨÙĬÙĨ": 6049, "ĠÙģØ¥": 192, "ĠØ£Ø¨ÙĬ": 2635, "ĠÙĪÙĤÙĪÙĦÙĩÙħ": 6030, "ÙĬØ±Ùī": 7690, "ĠØ£ÙĨØ¤ÙħÙĨ": 5830, "ĠÙĥØ§ÙĦØ°ÙĬ": 4378, "ĠØ£ÙħØ«Ø§ÙĦÙĩØ§": 9669, "ĠØ´Ø§Ùĥ": 4874, "ĠØ§ÙĦØºÙĨÙĬ": 2983, "ĠÙĪØ§ÙĦÙħÙĨØ§Ùģ": 4315, "ĠØ£ÙĨÙĥÙħ": 1956, "ØµÙħÙĪØ§": 4775, "ĠØ¨Ø¨Ø¹ÙĬØ¯": 7379, "Ø§Ø³Ø¨": 7073, "ĠÙģØªÙĪÙĦÙī": 5052, "ĠØ¥ÙĨÙĨØ§": 4051, "ØŃØ¯ÙĪØ§": 7408, "Ø¹ÙĬ": 1849, "ĠÙħØ¹ÙĩÙħ": 1990, "ĠØ³ÙĤØ·": 7676, "ĠØ§ÙĦØ°": 112, "ĠÙĪÙĬØ®Ø§ÙģÙĪÙĨ": 6833, "ĠØ§ÙĦÙħÙħØªØ±ÙĬÙĨ": 5544, "ĠÙģØ£Ø¹Ø±Ø¶": 3209, "Ø³ØªØ¶Ø¹ÙģÙĬÙĨ": 7885, "ĠÙĬØ³ØŃØ¨ÙĪÙĨ": 8490, "ĠØªØ®ÙĦÙģ": 8727, "ÙģÙĪÙĨ": 866, "ĠÙĤØ¨ÙĦÙĩ": 1734, "ĠÙĪÙĦÙĬØªÙĤ": 8552, "ĠÙĬØ§Ø¨": 5688, "ĩ": 38, "ĠØ¹Ø²": 5745, "ĠØ£ÙĬÙħØ§ÙĨÙĩÙĨ": 9871, "ĠÙĬØŃ": 279, "ĠÙĪØ£Ø®Ø±": 2902, "ĠÙĪØ³ÙĦØ§ÙħØ§": 8664, "ĠØŃØ§Ø¶": 4858, "ĠÙĬØŃÙħ": 6145, "ĠÙĪÙĤØ§Ø±ÙĪÙĨ": 10102, "ĠÙĪØ§ÙĦØ¯ÙĪØ§Ø¨": 10233, "ĠØ¬Ø§Ø¡ÙĥÙħ": 1296, "ĠØ£ÙħØ§ÙĨÙĬ": 6726, "ĠØªØŃØ§Ø¬ÙĪÙĨ": 8397, "ÙĤØªÙĦÙĪÙĨ": 1730, "ĠØ¨Ùĥ": 658, "ĠÙĨÙĪØŃÙĬ": 5234, "ĠÙĦÙģØ³Ø¯Øª": 9934, "ĠØ£Ø³ÙĦÙħÙĪØ§": 5405, "ĠØ£Ø¹ÙĨØ§Ø¨": 6875, "ĠÙĪÙĤØ§ÙĦÙĪØ§": 712, "ĠØ¯Ø®ÙĦÙĪØ§": 2721, "Ø±Ø§Ø·": 3427, "ĠÙĪØŃØ±": 3082, "ÙĥÙī": 2053, "ĠÙĪØ§Ø¶Ø±Ø¨": 5500, "ÙĦØ¤": 2615, "ĠÙģØ§Ø³": 1012, "ĠÙĪØ§Ø³ØªÙĥØ¨Ø±": 4392, "Ø²ÙĪÙĨ": 1189, "ĠØ¨ÙĩØªØ§ÙĨØ§": 5549, "ĠØ¹ØªÙĪØ§": 7439, "ĠØºÙĨÙĬ": 3227, "ĠØ£Ø³ÙĪØ£": 8682, "ĠØªØ°ÙĥØ±Ø©": 3410, "ØªÙħÙĪÙĨÙĬ": 9299, "Ø®ÙĦÙĪØ§": 925, "ĠÙĪØ¬ÙĪÙĩÙĥÙħ": 3800, "ĠØ§ÙĦØ®Ø³Ø±Ø§ÙĨ": 8426, "ĠÙĪÙĬØ·": 4898, "ĠØ§ÙĦÙģ": 536, "ÙĦØ£": 1422, "ĠØ§ÙĦØ³Ø¬ÙĪØ¯": 3607, "ĠÙģÙĤØªÙĦÙĩ": 10193, "ĠÙģÙĥØ°Ø¨ÙĪÙĩÙħØ§": 9339, "ĠØ£ØµØ§Ø¨ØªÙĩÙħ": 9108, "ĠÙĪØ·ÙĩØ±": 9193, "ĠØ£Ø®Ø±Ø¬ÙĨØ§": 3801, "Ø§Ø¦ÙĤ": 4194, "ĠÙĩØ°Ø§ÙĨ": 7649, "ĠØªÙĪØ§Ø¹Ø¯": 7497, "ĠÙĪÙĨÙħÙĬØª": 8257, "ĠÙĪØ°ÙĥØ±Ùī": 3388, "ÙĦÙĬØªÙħ": 2880, "ĠÙĪØ§Ø¹ÙĦÙħÙĪØ§": 1647, "ÙĦÙĨØ§ÙĩÙħ": 3229, "ĠÙģÙĥØ°Ø¨ÙĪÙĩ": 3055, "ĠØ§Ø¦": 1843, "ĠÙħÙĪØ¯Ø©": 4224, "ĠÙĪØ·ÙħØ¹Ø§": 5313, "ÙħÙĥ": 4579, "ĠÙħØ¨Ø´Ø±ÙĬÙĨ": 5265, "ĠÙħØ±ÙĪØ§": 6307, "ÙĦÙĪÙĨÙĩ": 7928, "ģ": 32, "ĠÙģØ£ÙĬÙĨ": 7943, "ĠÙħÙĨØ«": 7427, "ĠÙĪÙĦØ¦ÙĨ": 1069, "ĠÙĬÙĤØªÙĦÙĪÙĨ": 3483, "ĠØ¹ØªÙĬØ¯": 9764, "ĠØ¥ÙĥØ±Ø§Ùĩ": 10212, "ĠÙģÙĬ": 94, "ĠØ¨ÙĨØ§Ø¡": 5720, "Ø§Ø·Ø¦ÙĬÙĨ": 8376, "Ø±ÙĬÙĨ": 716, "ĠØ¸Ùĩ": 1818, "ĠØ¨Ø¹Ø¨Ø§Ø¯": 2229, "Ø²ÙĬØ±": 3547, "ÙĬÙħØ§ÙĨÙĩÙħ": 5088, "ĠØªÙĥÙĦÙħ": 5104, "ĠØªÙĥØ³Ø¨ÙĪÙĨ": 5105, "ĠØ¯Ø®ÙĦØª": 6835, "Ø³Ø®ÙĪÙĨ": 9926, "ÙĥÙħÙĩ": 7524, "ĠØ§ÙĦÙĪØ§Ø±Ø«": 5369, "ĠØ§Ø³ÙĥÙĨÙĪØ§": 9268, "ĠÙĪØ¢Ø®Ø±ÙĪÙĨ": 5146, "ĠØªØµÙģÙĪÙĨ": 5247, "ĠØ³Ø£ÙĦØªÙĥÙħ": 10165, "ĠØ´ÙĬØ¹Ø§": 4969, "ĠÙģØ³Øª": 3471, "ÙĤÙģ": 4689, "ĠØºØ´Ø§ÙĪØ©": 10280, "ĠØ´Ùĩ": 1009, "<PAD>": 0, "Ø±Ø¶ÙĬÙĨ": 4126, "ĠØ§ÙĦØ¹Ø§Ø¯ÙĪÙĨ": 7967, "ĠØ¨Ø£Ø¹ÙĦÙħ": 8289, "ĠÙĬØ´Ø±ÙĥÙĪÙĨ": 1557, "ØŃÙĬÙĪØ§": 8758, "ÙĩØ±Ùĩ": 4307, "ĠÙĦÙģÙĬ": 1132, "ĠÙħÙĦØ©": 2631, "ÙĤØ³Ø·": 4690, "ĠØ¨ÙĨÙĬÙĨØ§ÙĩØ§": 9178, "Ø«Ø§ÙĤ": 5865, "ĠØ³ÙĬÙĨ": 5851, "ĠÙĬÙĨÙģØ®": 4988, "ĠØ¨Ø·ÙĪÙĨÙĩÙħ": 6859, "ÙĤÙĩØ§": 7334, "Ø¨Ø§ÙĬØ¹": 8372, "ĠØ±Ø¯Øª": 7562, "ĠÙĪØ§ÙĦØ´Ø¬Ø±": 9078, "ÙĦØªÙħ": 1844, "ĠØ±ØŃÙħØª": 3745, "ĠØ¨Ø§ÙĦØ¨ÙĬÙĨØ§Øª": 1325, "ĠÙĥØ£ÙĨÙħØ§": 6636, "ĠØ§ÙĦØ«ÙħØ±Ø§Øª": 2422, "ÙĬÙĪÙħ": 561, "ĠØ§ÙĦØ¹ÙħÙĬ": 5460, "ÙĪØ§Ø¡": 875, "ĠØ¨Ø¢Ø¨Ø§Ø¦": 9284, "ĠÙĦØªØ¤ÙħÙĨÙĪØ§": 6345, "ĠØ®Ø³Ø§Ø±Ø§": 7055, "ĠØ§ÙĦØ¨ÙĬÙĨØ§Øª": 2284, "ÙħØ§ÙĨ": 883, "ØªØ¨Ø¹": 1429, "ĠÙĬØ¤Ø®Ø±": 4335, "ĠØ²Ø±Ø¹Ø§": 6936, "ĠÙģÙĪØ³ÙĪØ³": 7295, "ĠØŃØ·Ø©": 7762, "ÙĪØ¹Ø©": 5574, "ÙĪÙĥØ§": 8577, "ÙĦØ¨ÙĪÙĨ": 5134, "ĠÙĪÙĬØ§": 2286, "Ø³Ø±Ø§Ø¦ÙĬÙĦ": 893, "ØµÙĪÙĨ": 2324, "ÙĤØ¹Ø¯": 5696, "ĠØ§ÙĦÙħØ³Ø±ÙģÙĬÙĨ": 3178, "ĠÙĦÙĬÙħ": 5681, "ĠØ®Ø§ÙĦØ§Øª": 8655, "ĠØŃØµÙĬØ¯Ø§": 9777, "ĠØ£ØŃÙĥÙħ": 8215, "Ø¬ÙĦ": 971, "ĠØ³ÙĨØ©": 1962, "ĠÙĬÙĪØ³Ùģ": 1484, "ĠØ§ÙĩØª": 1884, "Ø¬ÙĬØ¨ÙĪØ§": 2817, "ĠÙĬÙĪÙħÙĩÙħ": 4191, "ĠÙħØ¨Ø´Ø±Ø§": 9031, "ĠØŃØ³Ø¨Ø§ÙĨØ§": 9298, "ÙģØ¹ÙĪØ§": 5727, "ÙĪ": 50, "ĠÙĬÙĥÙģØ±ÙĪØ§": 6594, "ÙĬØ¯Ø§": 855, "ĠÙĪÙħØµØ¯ÙĤØ§": 8434, "ĠØ¨Ø¹Ø¯Øª": 8179, "ĠØ§ÙĦØ·ÙĬØ¨": 4349, "ĠÙĪØ¥ÙĬØ§": 2703, "ĠÙĥØ°Ø§Ø¨": 3533, "ĠØ§Ø±Ùĥ": 3905, "ØªÙĤÙĬÙĨ": 917, "ĠÙĬØ«": 4672, "ĠØªØ£ÙħØ±ÙĪÙĨ": 4309, "ĠØ§ÙĦØ«ÙĦØ«": 5594, "Ø¯Ø¹ÙĪÙĨ": 3955, "ĠØ°ÙĨØ¨": 9320, "ĠØŃØ³Ø±Ø§Øª": 9964, "ĠÙģØ¨": 634, "ĠØ§ÙĦØ¯Ø±Ø¬Ø§Øª": 10293, "ĠØ²Ø¹ÙħØªÙħ": 3891, "ĠÙĦÙĦØ³Ø§Ø¦ÙĦÙĬÙĨ": 9873, "ĠØ¨Ø£ÙģÙĪØ§ÙĩÙĥÙħ": 9685, "ĠÙģØ£ÙĦÙĤÙĪÙĩ": 9430, "ĠÙĬØ£ØªÙĬÙĨÙĥÙħ": 6817, "ĠÙħÙĪØªÙĩ": 8180, "ĠØ±Ø²ÙĤÙĩÙħ": 3773, "ĠØ³ØªØ¬Ø¯": 5507, "ĠÙħØ³Ø§Ø¬Ø¯": 6314, "ĠÙĬØ¨Ø´Ø±Ùĥ": 8862, "ĠÙħÙĬØ«Ø§ÙĤÙĩ": 9307, "Ø§ÙĦÙĩÙħ": 3910, "ĠØ¹Ø¯ÙĪÙĥÙħ": 8815, "ĠØ°ÙĨÙĪØ¨ÙĥÙħ": 3866, "ĠÙĨØµÙĬØ±Ø§": 2251, "ĠØ£ÙĪÙĦØ§Ø¯ÙĩÙħ": 3822, "ĠÙĪØ£Ø³Ø±ÙĪØ§": 4077, "Ø²Ø¹": 1632, "ĠÙĬÙĩØ¯ÙĬÙĩÙħ": 6518, "ĠÙĬØ®Ø§Ùģ": 2978, "ÙĦØ§ÙĦØ§": 3006, "ĠÙĦÙĬØ³ÙĪØ§": 8835, "Ø´Ø±Ùĥ": 507, "ĠØ¢ÙĦÙĩØªÙĨØ§": 4416, "ĠÙĪÙĬÙĦ": 1712, "ĠÙĪØ§ÙĦØ·ÙĬØ±": 4510, "ĠÙĦÙĦØµ": 8143, "ÙħÙĬÙĨ": 255, "ĠØ¢ÙĦØ§Ùģ": 7710, "ĠÙĬØ±Ø¬Ø¹ÙĪÙĨ": 1410, "ÙĩØ²": 1238, "ĠØ¸ÙĩÙĪØ±ÙĩÙħ": 4486, "ĠÙģØ£ÙĩÙĦÙĥ": 3207, "ĠÙħÙĪØ§Ø®Ø±": 9406, "ĠØ¬ÙĩØ²ÙĩÙħ": 10254, "ĠØ§ÙĦÙģØ§Ø³ÙĤÙĬÙĨ": 2421, "ĠÙĬÙĩØ¯": 1689, "ĠØ¹ÙĦÙĬÙĩØ§": 852, "ĠÙĪØ¸ÙĨÙĪØ§": 3370, "ĠÙĪØ£ÙĨÙĩ": 2108, "ÙĦÙĩÙĨ": 1777, "ĠØ§ÙĦØ²ÙĥØ§Ø©": 1266, "ĠÙĪØ±Ø³": 550, "ĠÙĥÙĬ": 4747, "ØªØ§Ø±": 5615, "ĠØ³Ø¨ÙĦØ§": 5266, "ĠØ£Ø¦ÙĨ": 3462, "Ø³ÙģÙĨØ§": 8938, "ĠÙħØªÙĤØ§Ø¨": 5195, "ĠØ¬ÙĨØ§ØŃÙĥ": 5274, "ĠÙĦÙĤ": 460, "ĠÙĪØ¥ÙĦÙī": 1224, "ĠØ¢Ø°Ø§ÙĨÙĩÙħ": 3402, "ĠÙĨØ¨Ø¹Ø«": 5843, "ĠØ§Ø¯Ø¹ÙĪØ§": 3029, "ĠÙĬØ´ÙĥØ±": 6166, "ĠØ£Ø³ÙĪØ©": 6403, "ĠÙħÙĬØ±": 7197, "ØµØ©": 2677, "ĠØ¨ÙĩØ¯": 7355, "Ø®ÙĦÙĩÙħ": 8584, "Ø°ÙĥØ±ÙĪÙĨ": 922, "Ø£ÙĦÙĥÙħ": 1947, "ĠÙĬØ¤": 639, "ĠÙĤØ¨ÙĦÙĩØ§": 8771, "ĠØªÙĤØ¯ÙĬØ±Ø§": 9480, "ĠÙĨÙģØ±ÙĤ": 6891, "ĠÙĪØ§ÙĦØµØ§Ø¨Ø¦ÙĬÙĨ": 10020, "ĠØ£ØµØŃØ§Ø¨": 694, "ÙĤØªÙĩØ§": 8463, "ĠØ£Ø¯Ø±Ø§Ùĥ": 2139, "ÙĨØ§Ø¬Ø±": 7455, "ĠÙĪØºØ±ØªÙĩÙħ": 6861, "Ø¤Ùħ": 1323, "ĠØ§ÙĦØ³ÙĦÙħ": 3605, "ĠØ³ÙģØ§ÙĩØ©": 10246, "ĠØºÙĬØ§Ø¨": 8041, "ĠØ§ÙĦÙħÙĨØ§ÙģÙĤÙĬÙĨ": 1873, "ĠÙĪÙĦØ¯Ø§": 2084, "ĠÙĬÙĤÙĬÙħÙĪÙĨ": 4688, "ĠÙĥØ¯Øª": 7516, "ĠÙĬØ¹ÙĤÙĦÙĪÙĨ": 1412, "ĠØŃØ³ÙĨØ©": 1707, "ÙĥÙĪØ±": 5612, "ĠØ¨Ø§ÙĦÙģØŃØ´Ø§Ø¡": 5966, "ĠÙģÙģØ±": 7270, "ĠÙĦØ¯": 1106, "ĠØ§Ø¨": 715, "ĠÙĬØ¬Ø¯": 1436, "ĠØ¨ÙĬÙĨÙĩÙħØ§": 1121, "ĠÙģØ§Ø®ØªÙĦÙģ": 4504, "Ø¬Ø²ÙĬÙĨ": 2072, "ĠØ³Ø¨Ø¹": 1451, "ĠØ¨ÙĨØ§": 2653, "ĠØ¹ÙĨØ¯ÙĬ": 3670, "ĠØ§ÙĦØ¬ÙĩØ±": 5043, "ĠÙĦØ£Ø®": 6301, "ĠÙĪØ§ÙĦÙĪÙĦØ¯Ø§ÙĨ": 7606, "ĠÙģØªØŃ": 3271, "ĠØ£ÙĬÙĨÙħØ§": 6714, "ĠÙĬÙģØ±ÙĤÙĪØ§": 9474, "Ø¢ÙĨ": 3599, "ĠØ£ÙĨØª": 755, "ĠÙĪÙĬØ³": 1799, "ØªÙĬ": 228, "ĠØªÙĤØ¨ÙĦ": 5168, "ĠØ´Ø§Ø¡": 758, "ĠÙģØªÙĬÙĦØ§": 5676, "ĠÙĪÙĬØ¨Ø´Ø±": 9575, "ĠØ£ÙĨØ§": 606, "ÙħÙĨØ§": 654, "ĠÙĨØŃÙĬÙĬ": 5844, "ĠØ¸ÙĦ": 6188, "ĠØ§ÙĦØ´ÙĬØ·Ø§ÙĨ": 695, "ĠØ®ÙĦÙĤÙĥÙħ": 1653, "ĠØ¬ÙħØ¹": 3190, "ÙģØ§Ø¡": 3998, "ĠØ¨Ø§ÙĦØ£ÙĨ": 5960, "ĠÙħØ¹ØªØ¯": 6109, "ÙĩÙĨ": 248, "ĠÙĪÙĤÙĪÙĦÙĪØ§": 2932, "Ø§ÙĨÙĬØ©": 3549, "ĠØ§ÙĦÙħÙĩØ¯": 5890, "ÙĦÙĬØª": 4044, "ĠÙģØªÙĨØªÙħ": 8316, "ĠØ§ÙĦØ³ØŃØ±Ø©": 3059, "ĠØ§ÙĦÙģØ±": 2048, "ĠØ«ÙħÙĪØ¯": 2090, "ĠØ¹ÙĪØ±Ø§Øª": 7451, "ĠØ§ÙĦØ¹": 182, "Ø¹Ø¯": 167, "ĠÙĦÙĬÙĥÙģØ±ÙĪØ§": 7016, "Ø²ÙĦÙĪÙĨ": 7570, "ĠÙĪÙĦØ³ÙĪÙģ": 9855, "ĠØªØ¤": 1505, "ĠØ§ÙĦÙĤÙĩØ§Ø±": 3627, "ĠÙħØºÙĨÙĪÙĨ": 9445, "ĠÙĪØ£ÙĬØ¯": 2491, "ĠØ§ÙĦØµÙĬØŃØ©": 3235, "Ø¹Ø¨Ø¯": 727, "ĠØªØ¹Ø¬ÙĦ": 6330, "ĠØ¥ÙĦÙĩÙĥÙħ": 3300, "ÙĬØ¨Ø©": 1468, "ĠØ§ÙĦØºØ§ÙĦØ¨ÙĬÙĨ": 5456, "ĠÙĬØ¬ÙĬØ±": 6367, "ĠÙģÙĬÙĨ": 1501, "ĠØ¹ÙĦÙĬÙĥÙħ": 340, "ĠØªØ£Ø³": 8590, "ĠØ³Ø¨ØŃØ§ÙĨÙĥ": 2797, "ĠÙĬØª": 265, "ĠØ§ÙĦØ¸ÙĦ": 6285, "ĠÙĪÙģØ±Ø¹ÙĪÙĨ": 4476, "ĠÙĦÙĥÙĦ": 1232, "Ø·Ø§ÙĨ": 516, "ĠØªØ£ÙĥÙĦÙĪÙĨ": 2417, "ĠØªØ¨Ø±": 2872, "ĠØ¨Ø±ÙĬØ¡": 2825, "ĠÙĪØ£ÙĨÙģÙĤÙĪØ§": 2959, "ĠÙĪØ§ÙĦØµØ§Ø¨Ø±ÙĬÙĨ": 5305, "ØªØ¨": 611, "ĠÙĨØºÙģØ±": 7620, "ĠØµØ§ÙģØ§Øª": 7990, "ĠØ®Ø±Ø¯": 7789, "ĠÙĨØ¹Ø¨Ø¯": 3158, "ÙĬÙĦØ©": 3658, "ĠÙĪÙĬ": 165, "Ø§ÙģØ±": 388, "ĠØ¯Ø¨Ø±": 4922, "ĠÙĪØ¯ÙĬÙĨ": 5603, "ĠÙĥØ°Ø¨ÙĪÙĥ": 6333, "ĠØ§Ø¯Ø¹": 3028, "ĠÙħÙĨÙĬ": 2067, "ÙĬØŃ": 837, "ĠØ¶ÙĦÙĦØª": 9238, "ĠØ³Ùħ": 3559, "ĠÙĪØ§ÙĦØ£ÙĨØ¹Ø§Ùħ": 3852, "ÙĦÙĪÙĨ": 177, "ĠÙĪØ£ÙĨÙĩØ§Ø±": 6202, "ĠØ§ÙĦÙģØ§Ø¦Ø²ÙĪÙĨ": 5155, "ĠØ¹Ø§ÙĦÙĬÙĩØ§": 9250, "ĠØ§ÙĦØ³Ø¹ÙĬØ±": 2922, "Ø¶ÙĨ": 5811, "ĠØ¨Ø§ÙĦØ®ÙĬØ±": 5962, "ĠÙĪØ¬Ø§Ø¡ÙĪØ§": 6626, "ĠÙĪØŃ": 742, "ĠÙħÙĪØ§": 1931, "ĠÙĨØªÙĪÙģÙĬÙĨÙĥ": 6890, "ĠÙħØ¯Ø¨Ø±Ø§": 9005, "ÙħØ§Ø«": 7459, "ĠØ§ÙĦØŃØ±": 4917, "Ø¨ÙĪØ©": 3928, "ÙĥÙģØ±ÙĪÙĨ": 4428, "ĠØ±Ø§Øº": 7560, "ĠØªØºÙĨÙĬ": 3837, "Ø¨ÙĬØ¹": 8024, "ĠÙĪØ§ÙĦØ®Ø§ÙħØ³Ø©": 9571, "ĠØ§ÙĦÙģØ§Ø³": 1545, "ĠØ¨Ø¹ÙĬØ³Ùī": 8114, "ĠØ§ÙĦÙħÙĥØ°Ø¨ÙĬÙĨ": 3577, "ĠØ³ÙĬ": 630, "ĠØ§ÙĦØ¹Ø²Ø©": 2931, "ĠÙĤØªÙĦØªÙħ": 6709, "ĠÙĪÙĦÙĬØªÙħ": 8549, "ÙĥÙĬÙĨ": 1757, "Ø´Ø²ÙĪØ§": 7580, "ĠÙĦÙħØ³ÙĥÙħ": 8097, "ĠØ¨ÙĦØ³Ø§ÙĨÙĥ": 10002, "ĠÙģØŃØ§ÙĤ": 10191, "ĠØ¶Ø¹ÙģØ§": 5060, "Ø§Ø¨ÙĤÙĪÙĨ": 5846, "ĠÙĪØ°": 2049, "ĠØ¬Ø§ÙĩØ¯Ø§Ùĥ": 9844, "ĠÙĦÙĦÙħÙĦØ§Ø¦ÙĥØ©": 2777, "ĠÙħÙĨØ§Ùħ": 5740, "ĠØ¹Ø¸ÙĬÙħØ§": 1420, "ĠÙģÙĥÙĦÙĪØ§": 3312, "ĠØ¶Ø¹ÙĬÙģØ§": 5553, "ĠÙĨÙĤØµ": 2894, "ĠØ±ÙĤØ¨Ø©": 3863, "Ø±Ø¨ÙĬ": 7122, "ØºÙģØ±": 442, "ĠÙħÙĨÙĩØ§": 553, "ĠØ³ÙĨÙĦÙĤÙĬ": 9060, "ĠØ£ÙĨØ¹Ø§ÙħØ§": 7586, "ĠÙħØ¹Ø§Ø¬": 6108, "ÙĪØ¬ÙĪÙĩ": 3735, "ĠØ¹ÙĦÙħÙĨØ§": 3301, "ĠØŃÙħÙĬ": 4855, "ØµØ§Ø¨": 5801, "ĠÙĬÙģØ¹ÙĦÙĪÙĨ": 2153, "ĠÙĬØªØ³Ø§Ø¡ÙĦÙĪÙĨ": 3418, "ĠØ³Ø®Ø±ÙĪØ§": 6738, "ĠØ´Ø¹": 1709, "ØµØ±Øª": 6250, "ĠÙĪØ§ÙĦØ¯ÙĬ": 7599, "ĠÙĪÙĩØ§": 1678, "Ø¤ÙĦØ¤": 4889, "Ø¨Ø§": 368, "ĠØ³ÙģØ§Ùĩ": 7679, "ĠÙĬÙħÙĥØ±ÙĪÙĨ": 3767, "ĠÙħÙĦØŃ": 7206, "Ø³ÙĦ": 2057, "ĠØªÙĨØ§": 4019, "ĠØ§ÙĦØ£ÙĨÙģØ§ÙĦ": 8688, "ĠÙħØ³ÙĨØ§": 8512, "ĠØ±Ø¨Ùĥ": 252, "ĠØ¨Ø§ÙĦÙĤÙĪÙĦ": 4130, "ĠØ²ÙĬÙĨØ©": 3817, "ĠØ·Ø§ØºÙĪÙĨ": 9997, "ØµÙĩ": 4047, "Ø°ÙĨØª": 5701, "ĠÙħØŃÙĬ": 1933, "ĠØªØ£ØªÙĬ": 6348, "Ø§Ùģ": 343, "ÙĬ": 49, "ĠÙĪÙĥÙĨØªÙħ": 2940, "Ø¨Ø§Ø³Ø·": 8371, "ÙĦÙĬÙĥÙħ": 3537, "Ø¹Ùĩ": 4629, "ĠØªÙĨØªÙĩÙĪØ§": 8615, "ĠÙĪØ¬ÙĪÙĩÙĩÙħ": 1740, "ĠÙĦÙĥÙģÙĪØ±": 8343, "ĠÙĬØ£ØªÙĬÙĩÙħ": 1906, "ĠØ¨ÙĩÙĬÙħØ©": 6061, "ĠÙĪÙĦÙĦ": 2347, "ĠÙĬØ²Ø±ÙĪÙĨ": 9048, "ĠØ¹Ø§ÙħÙĦÙĪÙĨ": 6778, "ĠÙĨØ¹Ø¬": 4062, "ĠØ£ÙĤØª": 7236, "Ø¹Ø§Ùħ": 759, "ĠÙħÙĪØ¬": 5006, "Ø·ÙĦÙĤ": 2205, "ĠÙĪÙĦØ¢": 7835, "ĠØ§ÙĦÙħÙĨ": 949, "ĠØ§ÙĦÙħÙĨØ¸Ø±ÙĬÙĨ": 6546, "Ø¹Ø¨Ø©": 7228, "ĠØ§ÙĦÙĨØ§ØµØŃÙĬÙĨ": 6084, "ĠÙĨÙĥØ±Ø§": 6582, "Ø§Ø´Ø±ÙĪÙĩÙĨ": 6571, "ĠÙģØµØ¯ÙĪØ§": 6912, "ĠØ®Ø³Ø±Ø§": 7794, "ĠØ¨Ø§ÙĦØ¹": 1577, "ĠÙĪØ§ØªÙĤÙī": 8626, "ĠÙĪØ·ÙģÙĤØ§": 9194, "ĠÙĪØ¢ØªØ§ÙĥÙħ": 8622, "ĠØ¨Ø§ÙĦØªÙĬ": 3201, "ĠÙĪØ¢": 512, "ÙĦØ¥": 4576, "ĠØ³ÙħØ¹ÙĥÙħ": 8998, "ĠÙĪÙĤ": 185, "ĠÙĪØ¶Ø§ÙĤ": 9444, "Ø·ÙħØ¦ÙĨØ©": 9535, "ĠÙĪÙĤØ¶ÙĬÙĨØ§": 10104, "ĠÙĪØ£Ø¹": 4834, "ĠÙĬØ¤ØªÙī": 8721, "ĠÙģØ£Ø±Ø§Ø¯": 7951, "ĠØ¨Ø¯Ø§": 7360, "ĠØ£ÙĩÙĦÙĩØ§": 1819, "ĠÙĨÙĥÙĨ": 4803, "Ø¦ÙĪØ³": 7706, "ĠØªØ¯Ø¹ÙĪÙĨÙĨÙĬ": 9128, "ĠÙĤØ±": 1444, "ĠØ§ÙĦÙĨ": 319, "ĠØ±Ø³ÙĦØ§": 2966, "ĠÙĥØ±ÙĬ": 4752, "ĠØ§ÙĦØ®Ø±ÙĪØ¬": 6946, "ĠØ§ÙĦÙĤØ¯Ø³": 5421, "ĠÙģØ§ØŃ": 4231, "ĠÙģØ£Ø¹Ø±Ø¶ÙĪØ§": 6018, "Ø§Ø¡ÙĥÙħ": 1704, "ĠÙĪÙĬØ³ØªØ®ÙĦÙģ": 6646, "Ø¯ØªÙĩÙħ": 5652, "ØµØ¯Ø§": 7551, "ĠÙĦØºÙĪØ§": 5685, "ĠÙĬØ¨Ø®ÙĦ": 6510, "ØºÙĪÙĨÙĩØ§": 4466, "ĠÙĦÙĬØ¤ÙħÙĨÙĨ": 8008, "ĠÙĦÙĨØ±Ø§Ùĥ": 6241, "ĠØ¨Ø¥Ø°ÙĨÙĬ": 5228, "ÙĦÙĥÙĨØ§": 5864, "ÙĪØ¹ÙĬØ¯": 6600, "ĠÙĦØªÙĥÙĪÙĨÙĪØ§": 8570, "ĠÙħØ¹Ùĥ": 2227, "ĠØªØ¸": 3520, "Øµ": 97, "Ø¨ØŃ": 559, "Ø¹ÙĩØ§": 5636, "ĠÙĪÙĥØªØ¨Ùĩ": 6972, "ÙģØ³": 195, "ĠÙĨØ´": 1114, "ĠØ§ÙĦØ«": 1547, "ÙĬØ¯ÙĪÙĨ": 1801, "ĠÙĪÙĨØŃØ´Ø±": 8258, "Ø£Ùĩ": 4718, "ĠÙĪØ±Ø³ÙĪÙĦÙĩ": 670, "ĠØ§ÙĦØ¨Ø±ÙĤ": 6641, "ĠØ³Ø±Ø§ØŃØ§": 9423, "Ø§Ø¨Øª": 7641, "ĠØªØŃÙĬØ©": 8396, "ĠØ£Ø¸ÙĦÙħ": 1685, "ĠÙĦÙħØ¤ÙħÙĨ": 8092, "ĠØªØŃÙĬ": 8394, "ĠØ¹Ø¯Ø©": 4728, "ĠØ£ÙĬÙĩ": 6125, "ĠÙĬØ²Ø¬ÙĬ": 9052, "ĠÙĬØ±Ø²ÙĤÙĥÙħ": 4530, "ĠÙĪÙĬØ¬Ø¹ÙĦÙĪÙĨ": 6797, "ĠØ±Ø§": 2200, "ĠÙħÙĪÙĦÙī": 5007, "ĠØ¹ÙĤ": 3130, "ĠØ·Ø±": 5035, "ĠÙĪØ§ÙĦØ¨ØºØ¶Ø§Ø¡": 5293, "ÙĩÙĪÙĩ": 6105, "ĠÙĪØ§ÙĦØ´ÙĩØ§Ø¯Ø©": 2595, "ĠØªØ²Ø¹ÙħÙĪÙĨ": 5298, "ĠÙĪØ±Ø¶": 7138, "ĠÙĪØ§Ø³": 1330, "ĠØªØ£ÙĪÙĬÙĦÙĩ": 4310, "ĠØªÙħÙĪØª": 4432, "ĠÙĪØ£ÙħÙĪØ§ÙĦ": 4441, "ĠÙĬÙĤØªÙĦ": 3982, "ĠØªØ³ØªØ·ÙĬØ¹": 5252, "ÙĪØ§ØªÙĥÙħ": 5000, "ĠÙĦÙĬØ«Ø¨Øª": 8003, "ĠØ¹ÙĦÙĬÙĥ": 735, "ĠÙĬØ°ÙĩØ¨ÙĪØ§": 7328, "ĠÙĪÙĩØ§ÙħØ§ÙĨ": 5356, "ĠØ¸ÙĦÙħØ§": 3261, "ĠØªØ®Ø´ÙĪÙĩÙħ": 9790, "ĠØ§ÙĦØ¢ÙĨ": 4495, "Ø±ÙĬÙĨÙĥ": 4352, "ĠÙĪØªÙģØµ": 4995, "ĠÙģØ§ÙĥØªØ¨": 6175, "ĠØ§ÙĦÙĨØµØ§Ø±Ùī": 5026, "ĠØ£ÙĨÙĩÙħ": 926, "ĠØ£Ø¹Ø¬": 2237, "ĠØ°ÙĥØ±Ø§": 2085, "ĠØ¯Ø§Ø®": 4156, "ĠÙĬØªØ¯Ø¨Ø±ÙĪÙĨ": 8124, "ĠØ§ÙĦÙħØ³Ø§Ø¬Ø¯": 8849, "ĠÙĤÙĪÙĦÙĥÙħ": 9182, "ĠÙĪØ£ØªÙħ": 4836, "ĠÙĬØµØ¯ÙĨÙĥ": 9451, "ĠÙĪØ§ÙĦÙĬØ³Ø¹": 10236, "Ø§Øª": 114, "ĠØ³Ø¹ÙĪØ§": 7663, "ĠÙĤØ§ØªÙĦÙĪØ§": 4763, "ĠÙĨÙĥØ§ØŃØ§": 10239, "ĠØ£Ø±Ø³": 537, "Ø¸Ø±": 534, "ĠÙĥÙĦÙħØ§Øª": 6757, "ĠØªØ·ÙĪØ¹": 9418, "ĠÙĬÙĦ": 3973, "ĠÙĪØŃÙģ": 6470, "ĠÙĨØ¶ÙĬØ¹": 5845, "ĠØ·ØºÙī": 3676, "ĠØ£Ø°ÙĦÙĥ": 7234, "ĠÙĬØ¹Ø¨Ø¯": 2753, "ĠØŃØ§Ø´Ø±ÙĬÙĨ": 6965, "ĠÙħØŃØ±": 3452, "ĠØ§ÙĦØµØ¯ÙĪØ±": 1839, "ĠØ¬Ø§": 3188, "ĠØ§ÙĦÙħÙĪØªÙī": 1796, "ĠØ¨Ø¹Ø²ÙĬØ²": 4981, "ĠØ§ÙĦØ¹ÙĬØ±": 7959, "ĠÙĨÙģÙĤØ©": 8981, "ĠØ´ÙĩÙĬØ¯": 2148, "ĠØµØ¯ÙĤ": 2130, "ĠØ¨Ø´ÙĬØ¡": 3497, "ÙĤØ¯ÙħÙĪÙĨ": 4186, "ĠÙĪØªØ®Ø±Ø¬": 6140, "ĠÙĬØ´ÙĩØ¯": 3665, "ĠØ¨Ø§ÙĦÙĤØ³Ø·": 2034, "ĠØ£ØŃØ¨": 3671, "ĠØ§ÙĦØ¹Ø§Ø¬ÙĦØ©": 7061, "ĠØªÙĤÙĦØ¨": 3734, "ĠÙĪØ§Ø³Ø¹": 3042, "ĠØ¹ÙģØ§": 3516, "ĠÙĪÙĪØ¬ÙĪÙĩ": 7163, "ĠÙĥÙģØ±ÙĩÙħ": 8128, "ĠÙģØ³ÙĬÙĤÙĪÙĦÙĪÙĨ": 5476, "ĠØ§ÙĦÙĨØ§ÙĤØ©": 6083, "Ø®Ø±ÙĥÙħ": 7918, "ÙĪÙģØ§ÙĨ": 8196, "ĠÙĤØ¶Ùī": 2469, "ØŃÙĩ": 4713, "ĠØ§ÙĦÙĨØ°ÙĬØ±": 8239, "ĠØŃØ±Ø¬Ø§": 9392, "ĠÙģØ§Øº": 3107, "ĠØ£Ø¬Ø±ÙħÙĪØ§": 6503, "Ø±ÙĬØŃØ§ÙĨ": 10112, "ĠØ§ÙĦØ¬ÙħØ¹Ø§ÙĨ": 5472, "Ø¸Ø±ÙĪØ§": 1417, "Ø®Ø³ÙĪØ§": 5799, "ĠÙĤØ·ÙĪÙģÙĩØ§": 9947, "ĠØ¨ÙĥÙħ": 988, "ÙħØ§Ø¡": 904, "ĠÙħØ§Ø¡": 986, "ĠØ§ÙĦØªÙĨØ§": 7131, "ĠØ´ÙĩØ¯Ø§Ø¡": 2266, "ĠÙģÙĬÙĪÙħØ¦Ø°": 5541, "ĠÙĬØªÙĪÙģÙĪÙĨ": 6801, "ĠÙĪØ§ÙĦÙģØªÙĨØ©": 7602, "ĠØ¨ÙĦØºÙĨ": 9302, "ĠÙĦÙĬØ³": 767, "ĠØ£ÙģØ¦": 5047, "ĠÙģÙĬØ£Ø®Ø°ÙĥÙħ": 7046, "ĠÙĪÙĦÙĬ": 466, "ĠÙģÙĬÙĥÙĪÙĨ": 2470, "ĠÙĪÙĦØ¨Ø¦Ø³": 4885, "ĠØ¨ÙĬÙĪØª": 1536, "ĠØªÙħØ´": 9134, "Ø¬Ø¯Ø§": 7504, "ĠØ®Ø§ÙĦÙĤ": 3313, "ØªÙħØ¹ÙĪØ§": 5912, "ĠØ§ÙĦØ£Ùħ": 1142, "ĠÙĪØ§ÙĦÙħØ¤ØªÙģÙĥØ§Øª": 10174, "ĠÙĪÙħØ£Ø¬ÙĪØ¬": 8436, "ĠÙģØ§ØªÙĤÙĪÙĨ": 5243, "ĠÙĬÙħÙĬÙĨ": 4677, "ØµÙĬØ¯": 7550, "ĠÙģØ¬Ø¹ÙĦÙĨØ§": 2263, "Ø¯Ø±ÙĬØ³": 10045, "Ø¤ÙĬØ§": 3199, "ĠØ¹Ø§Ø¨": 2465, "ĠÙĦÙĬØ¹Ø°Ø¨ÙĩÙħ": 8006, "ĠÙĨØµØ§Ø±Ùī": 4066, "ĠÙħØ³ØªÙĤÙĬÙħ": 1263, "ĠØ§ÙĦØ±Ø§Ùĥ": 5592, "ØµØ±ÙĪØ§": 2552, "ĠØªØ«": 5752, "ĠÙĦÙĦÙĩ": 436, "ĠØµØ¨Ø§Ø±": 4935, "ĠÙĦÙħÙĩØªØ¯ÙĪÙĨ": 8095, "Ùģ": 75, "ÙĩÙĦÙĩ": 3913, "ĠÙĨÙģØ³ÙĩØ§": 8574, "ĠØ£Ø¬Ø±": 790, "ÙĤÙĪÙĩ": 3486, "ĠÙħÙĨØªØ¸Ø±ÙĪÙĨ": 6918, "ĠØŃØ±Ø¬": 1874, "ĠØ£Ø®ÙĦÙģ": 8649, "ĠÙĤÙĪÙĦÙĬ": 8741, "·": 24, "ĠÙĪØ¬Ø¹ÙĦÙĨØ§ÙĥÙħ": 8870, "ĠØŃÙħÙĦ": 3014, "ĠØªØ¤ØªÙĪÙĨ": 9253, "ĠÙĪØ£Ø®ÙĬ": 9369, "ÙĪÙĦÙĪÙĨ": 4074, "ĠØ£ÙħÙĪØ§ÙĦ": 944, "ĠÙĤÙĪÙĦÙĩ": 5787, "ĠØ§ÙĦÙħØ³ØŃØ±ÙĬÙĨ": 8850, "ĠØ«ÙĪØ§Ø¨": 3206, "ĠÙĪØªØ³ØªØ®Ø±Ø¬": 8162, "ĠÙĥÙĨØ§": 690, "ĠØ£ÙĬÙħØ§ÙĨ": 4204, "ĠØ¯Ø§ÙħØª": 10100, "ĠÙĪØ¬Ø¦": 4195, "ĠÙĬØ®Ø±Ø¬ÙĪÙĨ": 3787, "ĠÙĪÙĬÙĩØ¯ÙĬÙĥÙħ": 9399, "ĠØ§ÙĦØŃØ±Ø¨": 7931, "ĠÙĨØ¬": 840, "ĠØ¨ØµØ§ØŃ": 9132, "¨": 10, "ĠÙĪØ§ÙĦØªÙĤÙĪÙī": 7603, "ĠØ¨Ø§ÙĦØµ": 2709, "ĠØ·ÙĬØ¨Ø©": 2742, "ĠØ±Ø¬Ø¹ØªÙħ": 8706, "ĠÙĤÙĪÙħ": 309, "ÙĨØ¬": 1490, "ĠÙħÙĨÙĬØ±Ø§": 7428, "ĠÙĪÙĨØ¬ÙĬÙĨØ§": 6198, "ÙĪØ§Ø¬Ø§": 7350, "ĠØŃØ¨Ø§ÙĦÙĩÙħ": 10251, "ĠÙĬØ·Ø¹ÙħÙĩ": 9115, "Ø§Ø¯ÙĤÙĪÙĨ": 3611, "ĠØ¨Ø§Øº": 5717, "ĠØ¨Ø£ÙģÙĪØ§": 2965, "ĠÙĨØŃØ´Ø±": 9652, "ĠØ£Ø¹ÙĦ": 7232, "Ø²ÙĨØ§": 4784, "ĠÙĨØ§Ø¸": 7636, "ĠÙĥÙĨØ²": 4472, "ĠÙĬØ®ØµÙģØ§ÙĨ": 10303, "ĠÙĤÙħÙĬ": 4039, "ĠÙĦØ¨Ø¯Ø§": 7310, "Ø¯Ø¯ÙĥÙħ": 7258, "ĠÙģÙĦÙħ": 1687, "ĠÙĨÙĩÙĬØª": 7639, "ĠØªØ¬Ø§Ø±Ø©": 3719, "ĠÙģØ§Ø¹Ø¨Ø¯Ùĩ": 9463, "ĠÙħÙĤØ¶ÙĬØ§": 9511, "Ø§ÙĥÙĬÙĨ": 2255, "ĠØºÙħØ±": 6075, "ĠØ§ÙĦÙĪØ§Ø±Ø«ÙĬÙĨ": 7033, "ĠØ¨Ø¢ÙĦÙĩØªÙĨØ§": 9285, "ĠØŃØ±ÙĬØ±": 8866, "ĠØ§Ø¨ØªØºÙī": 9440, "ĠØ¨ÙĬÙĨÙĩ": 8082, "ĠÙĦÙĬÙĤÙĪÙĦ": 1806, "ĠØ§ÙĦØµØ¯": 1228, "ĠØ¬Ø§Ø¹ÙĦ": 9710, "ĠØ¢ØªØ§ÙĨÙĬ": 9960, "ĠØ¨ÙĪØ§ÙĦØ¯ÙĬÙĩ": 5515, "ĠÙĬØŃØ§ÙģØ¸ÙĪÙĨ": 6149, "ĠØ¬Ø¹ÙĦ": 756, "ĠÙĪØªÙĨØ³ÙĪÙĨ": 10288, "ĠÙĨÙģØ±": 3155, "ĠØ¶ÙĦØ§ÙĦØ§": 3789, "ĠØŃØ°Ø±": 7755, "ĠØ¸ÙĦÙħÙĩ": 8762, "Ø§Øº": 885, "ĠÙĪÙĦØ¹Ø°Ø§Ø¨": 4502, "ĠÙħÙĤØ§ÙĦ": 7210, "Ø¬Ø§ÙĨ": 5770, "Ø¦ÙĬÙĨ": 1793, "ĠØ±Ø³ÙĪÙĦÙĥÙħ": 8813, "ĠØ¹Ø¯ÙĪØ§ÙĨ": 9416, "ĠØ§ÙĦØ£ÙĬØ¯": 7809, "Ø²Ùħ": 2681, "Ø§ÙģÙĪÙĨ": 1654, "ĠÙĬÙĨØ¸Ø±": 4987, "Ø¬Ø±Øª": 5003, "ĠØ£ÙħÙĥ": 5998, "ĠÙĨØ´ÙĪØ±Ø§": 6591, "ÙĦØ¹ÙĪÙĨ": 7077, "ÙĪÙģÙĩØ§": 8195, "ĠØ²Ø®Ø±Ùģ": 10134, "ĠØªØ¹ÙĦÙĪØ§": 7493, "ĠÙĩÙĨÙĬ": 4814, "Ø¹ÙģÙģ": 5205, "ĠØ¸Ø§ÙĦÙħÙĪÙĨ": 3262, "ĠÙĬÙĩØ¯ÙĬ": 823, "ĠØ§ÙĦØºÙĬØ¨": 1209, "ĠÙĪÙħØ«": 4278, "ÙĪØ§ØµÙĪØ§": 4699, "ĠØ¥ÙĨÙĩÙħ": 691, "Ø§Ø¯Ø¹ÙĪÙĨ": 7913, "ÙĬÙĨØ§ÙĥÙħ": 3626, "ĠÙĦØ±Ø¨ÙĩÙħ": 4478, "ĠÙĪØ¢ØªØ§ÙĨÙĬ": 9729, "ÙĦØ§Ùħ": 620, "ÙģØ¦": 2866, "ĠÙĪØ§ØµØ¨Ø±": 3375, "ĠÙģÙĦÙĩÙħ": 3668, "ĠØ¨ÙĨØµØ±Ùĩ": 6645, "ĠØ¨Ø£ÙħØ±Ùĩ": 2275, "ĠØ£Ø±ØŃÙħ": 5192, "ĠØ¨Ø§ÙĦÙĩØ¯Ùī": 3202, "ĠØ¢ÙĬØ§ØªÙĨØ§": 1056, "ĠÙĨÙĪØ±Ùĩ": 6764, "ĠØµÙĪØ§": 6034, "ØŃØ§Ø¬ÙĪÙĨ": 7414, "ĠØ¨ÙĩØ°Ø§": 1982, "ĠØ¥ÙĨÙĩØ§": 1859, "ĠÙĪÙĪÙģ": 7144, "ØªÙĩÙĨ": 2443, "ĠØ§ÙĦØ·Ø§ØºÙĪØª": 3756, "Ø³Ø¨Ø§Ø·": 4229, "ĠØ¨ÙĥØ±Ø©": 3121, "ĠÙĦÙĥÙĨ": 3273, "ÙĤÙĬ": 2647, "ĠÙģØ¸ÙĦÙħÙĪØ§": 7293, "ĠØªØ³": 753, "ĠÙĦØ¹ÙĦÙĩ": 6437, "ĠØ£ÙĨØ¬ÙĬÙĨØ§ÙĥÙħ": 9952, "Ø¨Ø±ÙĬ": 3926, "Ø´Ø±ÙĬÙĨ": 3637, "ĠØ£Ø´ÙĤ": 8790, "ĠØ¯Ø®ÙĦ": 2513, "ĠÙĪØ£ØµØŃØ§Ø¨": 2412, "ĠØ§ÙĦØ®Ø²ÙĬ": 4275, "ĠØ§ÙĦØ£Ø®": 2344, "ĠÙĪØ§ÙĦÙħÙĤÙĬÙħ": 8633, "ĠÙĬÙĥ": 362, "ÙĪÙĨÙĥ": 2460, "Ø³Ø¨ÙĪØ§": 3664, "ĠØ£Ø³Ø±Ùī": 9514, "ĠÙħØ±Ø¬Ø¹ÙĥÙħ": 2429, "ÙĥÙĨÙĪØ§": 3018, "ĠØ£Ø¹Ø±Ø¶": 2773, "Ø°ÙĨ": 511, "ÙĪÙħØ§": 2833, "Ø±ÙĬÙĨØ§": 7121, "ĠØ¹ÙĪØ¬": 7440, "ĠØ³Ø¯ÙĬØ¯Ø§": 10242, "ĠØ§ÙĦÙħØ³ØªÙĤÙĬÙħ": 4501, "Ø§ÙĦÙħÙĬÙĨ": 334, "Ø±ÙĪÙĩÙĨ": 5581, "ĠÙĪØ§ØªØ¨Ø¹ÙĪØ§": 2418, "ĠÙĥØ°ÙĦÙĥ": 554, "ÙĤØ¨": 1390, "ĠØ£ÙĦÙĤÙĬ": 6644, "ĠØ§ÙĦÙħÙĨØªØ¸Ø±ÙĬÙĨ": 7031, "ĠØ¨ÙĦØº": 1590, "ĠÙħÙĤØªØ¯": 9471, "ĠÙģØ§Ø¹Ø¨Ø¯": 2105, "ĠØ®ÙĦØ§Ø¦": 4869, "ĠÙħØ¨ÙĦ": 5629, "ĠÙĪØ£ÙĨØ°Ø±": 6201, "ĠØ£ÙĩØ¯": 7233, "ĠÙģØ³ÙĪÙĤ": 8669, "ĠÙĪØ°ÙĥØ±": 1929, "ĠØ¨Ø±Ø§Ø¡Ø©": 10153, "ÙĤØ§ÙĨØ§": 8219, "ĠØ´Ø±ÙĬÙĥ": 5932, "ĠÙħØ²": 4618, "Ø¨ØªÙĪØ§": 3927, "ÙħÙħ": 7089, "ĠØ¹ÙĨØ¯": 311, "ĠØ§ÙĦÙĤØ§": 2724, "ĠØ¹Ø°Øª": 7450, "ĠØ£ÙĪÙĦÙħ": 1029, "ÙĦÙħØ©": 7654, "ĠØ¨ÙĤÙĬ": 9117, "ĠØ®Ø·ÙĬØ¦": 9848, "ĠÙĤØ¨ÙĦÙĩÙħ": 800, "ĠØ¢ØªÙĬÙĨØ§ÙĥÙħ": 6523, "ĠØªØŃØ·": 8395, "ĠÙģÙĨØ¬ÙĬÙĨØ§Ùĩ": 6576, "ĠÙĪØ£Ø®ÙĬÙĩ": 5378, "ĠÙģÙĤÙĦÙĨØ§": 3726, "ØŃÙĬÙĨ": 2867, "ĠÙĬØ³Ø¨ØŃ": 2061, "ĠØ§ÙĦØ³ÙħØ§": 227, "Ø¯ÙĬØ¯": 646, "ÙħÙĨÙĩ": 5793, "Ø§ÙģØ§": 6218, "ĠÙĪÙĬØ£Øª": 5387, "ĠØ±Ø§Ø¨": 4776, "ĠØ¹ÙħÙĦÙĥÙħ": 6419, "ÙĤØªÙĦ": 1531, "ĠÙĪØ£Ø®Ø±Ùī": 6869, "ĠØ£Ø£ÙĨ": 5644, "ĠÙħØ´ÙĬØ¯": 9308, "ĠÙĬØ±ÙħÙĪÙĨ": 6159, "ĠØºØ¶Ø¨ÙĬ": 10113, "ĠÙģØ¯": 2300, "ĠÙħØ¤ÙħÙĨØ§": 3399, "ĠØ§ÙĦÙĪÙĦÙĬ": 9241, "ĠØ£Ø¦ÙĨØ§": 9589, "ĠÙĨØ³ÙĪØ§": 3329, "ĠÙĬØŃØ§ÙĪØ±Ùĩ": 10291, "ĠØ¹ÙĦÙĬÙĩÙħØ§": 2948, "ĠÙĪÙĬØ³ØªØ¹Ø¬ÙĦÙĪÙĨ": 6647, "ĠÙħØ°": 3448, "ĠØŃØ¨Ùĩ": 7758, "ĠØ®Ø°": 2210, "ĠØ¹Ø§Ø¨Ø¯ÙĪÙĨ": 5436, "ÙĪÙĤÙĨÙĬÙĨ": 8772, "ĠØ¨ØºÙĦØ§Ùħ": 5157, "ĠØªØªØ¨Ø¹ÙĪØ§": 3052, "ĠÙĪØ£ÙĩÙĦÙĩ": 3050, "ÙħØ§ÙĦ": 1924, "ĠØ¨Ø£ÙģÙĪØ§ÙĩÙĩÙħ": 3895, "ĠÙĨØ³Ø§Ø¡ÙĩÙħ": 6454, "ĠØ§ÙĦØºØ§ÙĦ": 2764, "ÙĬÙĩ": 599, "ĠØ±Ø£ÙĬØªÙĩÙħ": 4553, "ĠØ§ØŃØªÙħ": 8018, "ĠØªÙĪØ¨ÙĪØ§": 4540, "Ø¶Ø¨": 1565, "ĠØªØ£ØªÙĬÙĥÙħ": 8597, "ĠØ§ÙĦÙĥØ¨Ø±ÙĬØ§Ø¡": 10277, "ĠØºÙĨÙĬØ§": 6076, "ĠÙĥÙĩÙĬØ¦Ø©": 10227, "ÙħÙĦØ§ÙĤ": 7096, "ĠÙĬØµÙĦÙĪØ§": 8780, "ĠÙĦØªØ¹ÙĪØ¯ÙĨ": 10306, "Ø§ÙĨÙĩÙħ": 2476, "Ø¨ØªØºÙĪØ§": 2997, "ĠÙģØ±Ø¬": 5094, "ĠÙĪÙĤÙĦØ¨Ùĩ": 6031, "ĠØ®ÙĬÙģØ©": 7010, "ĠØ§ÙĦØ·ÙĪÙĦ": 8787, "ĠØ§Ø¯ÙģØ¹": 8942, "ĠØ§ÙĦØ¶ÙĦØ§ÙĦ": 6841, "ĠØ¬Ø¦ØªÙĩÙħ": 9092, "ĠØ§ÙĦØ°ÙĦØ©": 7651, "ĠØ§ÙĦØ£Ø¹ÙĦÙī": 2821, "ØªÙħÙĪØ§": 5911, "ÙĦØ¨": 489, "ĠØŃØ±Ùħ": 1381, "ĠÙĤØ§Øµ": 4040, "ĠÙħØ±ÙģÙĪ": 6308, "ØºÙĪ": 2910, "ĠÙĪØªÙģØµÙĬÙĦ": 9987, "ĠÙĨØ²": 1788, "ĠØ£Ø²ÙĪØ§Ø¬ÙĨØ§": 8961, "ĠØ£Ø°ÙĥØ±": 7235, "ĠØ±Ø³Ø§ÙĦØ§Øª": 4253, "ĠÙĪØ£Ø±Ø³ÙĦ": 7722, "²": 19, "ĠÙĪÙģØ§Ø±": 7151, "ĠØµØ§ØŃØ¨ÙĬ": 9671, "ĠÙħÙħ": 2847, "ĠØ³ÙħÙĬØªÙħÙĪÙĩØ§": 6868, "ÙĤÙĪÙĦÙĪÙĨ": 488, "Ø´Ø±Ø§Øª": 8049, "ĠÙĪÙĦÙĬØª": 8546, "ĠØ£ØªØ¹ÙĦÙħÙĪÙĨ": 8752, "ĠÙĪØ£ÙħØ±": 1871, "ĠØ§Ø¨ÙĨ": 1099, "ĠØ§ÙĦØ¸Ø§ÙĦÙħ": 8464, "Ø£ÙĥÙĦ": 6792, "ĠØ¬Ø§Ø¡ÙĩØ§": 8189, "ĠÙħÙĥØ±ÙĩÙħ": 4447, "ĠÙĬØŃØ³Ø¨ÙĨ": 6935, "ØªØ¨Øª": 7180, "ĠÙĪØ§ÙĤØªÙĦÙĪÙĩÙħ": 6112, "ÙģØ¹ÙĦÙĪØ§": 7401, "ĠÙĪØ§ÙĦÙĦØ§Ø¦": 7601, "ĠÙģØ±ÙĬÙĤ": 2029, "ĠÙĪØµØ¯": 2172, "ĠÙĪÙĬÙĥ": 3204, "ĠØ²Ø±": 3692, "ĠÙĥÙĦÙĩÙħ": 6094, "Ø§ÙĦÙĪØª": 3911, "ĠÙĬØ¹": 377, "ĠØ¨Ø¹ÙĬØ¯Ø§": 3648, "ĠØ§ÙĦÙħÙĩØªØ¯ÙĬÙĨ": 7744, "Ø´Ø±ÙĥÙĬÙĨ": 1017, "ÙħØ§Ø±ÙĪÙĨ": 7460, "ĠØ£ÙĨØ¹Ùħ": 1786, "ĠÙĪÙĦÙĬØ£Ø®Ø°ÙĪØ§": 8555, "ĠÙĬØŃØ²": 1523, "ĠÙĪØ¬Ø¯ÙĨØ§": 1987, "ĠÙĬÙĦØ¨": 2860, "ĠÙĬÙģØª": 1065, "ĠØ¨Ø·Ø§Ø±Ø¯": 9105, "ÙĬØ§ÙĨ": 7103, "Ø£Ø°ÙĨ": 2192, "ĠØŃØ§Ø¬": 2697, "ĠÙħÙĨÙĥ": 3510, "ĠÙĥØ¸ÙĬÙħ": 5779, "ÙĥØŃÙĪØ§": 7175, "ĠÙĪØ£ÙħÙĦÙĬ": 9185, "Ø¹ÙĨØ§Ø¨": 4436, "ĠÙĥØ®": 5776, "ĠÙĬØ¨Ø§ÙĬØ¹ÙĪÙĨÙĥ": 10175, "ĠÙĪØªÙĦÙĥ": 2371, "ĠØ§ÙĦØ²Ø¨Ø±": 8897, "ĠÙģØ²Ø§Ø¯ÙĩÙħ": 9912, "ĠØ¥ÙĬÙħØ§ÙĨÙĩØ§": 6635, "ÙĨÙĪØ±": 7084, "ÙĪØ±Ø§Øª": 4956, "ĠÙĪÙĨØ§Ø¯ÙĬÙĨØ§Ùĩ": 9507, "ĠÙħØŃØ³ÙĨ": 3934, "ĠØ¨Ø³Ø§": 7367, "ĠÙħØ³Ø¬Ø¯Ø§": 8520, "ĠØ¨ÙĬÙĪØªÙĥÙħ": 3830, "ĠØ¢Øª": 4825, "ĠÙĪÙĦØ¹ÙĨÙĩÙħ": 9427, "ĠØ«ÙĤÙģØªÙħ": 9546, "ĠØ§ÙĦØ´Ø±": 3429, "ÙĨØ§Ø¬ÙĪØ§": 7457, "ĠØ£Ø¬Ø¦ØªÙĨØ§": 4270, "ĠÙģØ¨Ø£ÙĬ": 1036, "Ø±ÙĪÙĨÙĬ": 4138, "ĠÙĦÙĬØ£Ø®Ø°": 8004, "ÙĬØ§ÙĨØ§": 2920, "ĠÙĬØŃÙĬ": 1034, "ĠØªØ´ØªØ±ÙĪØ§": 6483, "ĠØ¹ÙħØ±Ø§ÙĨ": 6921, "ĠÙĪØ£Ùħ": 1360, "Ø¶ÙĦÙĩ": 7568, "ĠØ¥ÙĨØ§Ø«Ø§": 4250, "ĠÙĪØ«ÙħÙĪØ¯": 2173, "ĠÙħÙĪÙĦØ§ÙĥÙħ": 4520, "ĠÙĦØ£ÙĨÙģØ³ÙĩÙħ": 6772, "Ø¯Ø±": 2852, "ĠÙģØ¬Ø§Ø¡ÙĪÙĩÙħ": 9901, "ĠÙĪÙĤØ¨ÙĦ": 7973, "ĠÙĬØ´": 297, "ĠØ¹Ø³ÙĬ": 7444, "ĠØŃÙĥÙĬÙħ": 958, "ĠÙĬÙĨØ§Ø¯": 4507, "Ø¤Ø§Ø¯": 4127, "ÙĤØ¹": 2455, "ĠÙĪÙĬÙĨÙĩÙĪÙĨ": 5302, "ĠØ¬ÙĩØ±Ø©": 5919, "ĠÙħØªØ´Ø§Ø¨Ùĩ": 9733, "ĠÙģØ§ØªØ¨Ø¹": 3027, "ĠÙģØ¹": 1024, "ĠÙģÙĦÙĬ": 822, "ĠÙĥÙĦØ§": 955, "ĠØ¬ÙħØ¹Ø§": 5917, "ĠÙĪÙĨÙĪØ±": 8245, "ÙĪØ¹Ø§": 2620, "ØªÙĤÙĪÙī": 3361, "Ø§ÙĪ": 1173, "Ø¹ÙħÙĩÙħ": 5993, "ĠØ£ÙĨØ¨Ø§Ø¡": 2888, "ĠÙģØªØ§Ø¨": 3962, "ĠØ´ÙĩØ§Ø¨": 7806, "ĠØ²Ø¹ÙĬÙħ": 8414, "ĠÙģØ´Ø±": 7276, "ĠÙĪØ£Ø¹Øª": 2695, "ĠÙħØ¹Ø¬Ø²ÙĬ": 8101, "ÙģÙĬÙĨØ©": 5280, "ĠÙĬØŃØ§Ø¯ÙĪÙĨ": 8174, "ĠØ§ÙĦÙĨØµØ±": 6191, "Ø²Ùĩ": 5817, "ĠÙħØ±Ø¬": 8503, "ĠÙĪÙĦØ¯Ø§Ø±": 9148, "ĠØªØ¬ÙĦÙī": 8578, "Ø·ÙĦÙĤØ§Øª": 9489, "ĠÙģØ§ØªØ¨Ø¹ÙĪØ§": 9684, "ĠÙģØ§Ø¯Ø¹ÙĪÙĩ": 9909, "ĠÙĪÙĦÙĬØ²ÙĬØ¯": 8553, "Ø§ØªÙĦ": 1702, "ĠÙģØ§Ø¹Ø¨Ø¯ÙĪÙĨ": 6782, "Ø¯Ø¨Ø±ÙĪÙĨ": 7257, "ĠÙĨØµÙĬØ±": 2690, "ÙģØªÙĨØ©": 2971, "ĠØ§ÙħØ±Ø£Øª": 3829, "ÙĪØ¨ÙĩØ§": 8130, "ØµØªÙĪØ§": 7553, "ĠÙĬØ³ØªØºÙģØ±ÙĪÙĨ": 8455, "Ø´Ø±ÙĪØ§": 4963, "ĠØªØ³Øª": 970, "ĠÙĨØ¨Ø§ØªÙĩ": 9794, "ĠÙħÙĨÙĤÙĦØ¨": 5742, "ĠÙĦØ±Ø³ÙĪÙĦ": 4669, "ĠØ±Ùĩ": 4049, "ĠÙĬØ¹Ø²Ø¨": 8383, "ĠÙĨØªØ®Ø°": 4806, "ÙĤØ¨ÙĦ": 2650, "ĠÙĤÙĦØ¨Ùĥ": 5996, "ĠÙģØ£Ø±Ø³ÙĦÙĨØ§": 3208, "ØºØ§Ø±": 4860, "ĠØ¬ÙĨÙĪØ¯": 5294, "ĠØ´ÙĬØ¨Ø§": 8056, "ĠÙĪØ§ØªØ¨Ø¹": 1300, "ĠØ£Ø¨Ùī": 6410, "Ø²ÙĨ": 5816, "ĠÙģØªØ®": 8314, "ĠÙĪÙĦØªØ¨ØªØºÙĪØ§": 5272, "ĠØ§ÙĦØ®ØµØ§Ùħ": 8425, "ĠÙĪÙĨØ³ÙĬ": 8249, "ĠØ¸Ø§ÙĦÙħ": 9677, "ĠØ§ÙĦÙĨÙħÙĦ": 8236, "ÙĥØ¨Ø±": 1495, "ĠØ³Ø¬": 1703, "ĠØ£ÙĦÙĤ": 1346, "ĠØªØ¹Ø¨Ø¯ÙĪÙĨ": 1532, "ĠØ¹Ø§ÙĤØ¨": 9025, "Ø¶Ø§Ø¬Ø¹": 6685, "ĠØ¨Ø¹ÙĩØ¯": 2946, "ĠÙħØ³ØªÙĤÙĬÙħØ§": 3873, "ĠØ²ÙĪØ¬ÙĬÙĨ": 5338, "ĠÙħØ«ÙĨÙī": 6261, "ĠÙĪØ¨Ø§ÙĦ": 1659, "ĠÙĬÙĨÙĤØ¶ÙĪÙĨ": 5525, "ĠØ§ÙĦØºÙħ": 6319, "ĠÙĤØ¯Ø±Ø§": 8167, "ĠØ£ÙģØ¥ÙĨ": 8311, "Ī": 39, "ĠÙĦØª": 473, "ĠØ£ÙĥÙģØ±": 5099, "ÙĦÙħ": 113, "ĠÙĪØ§Ø¬": 3237, "ĠØ£Øª": 671, "ĠØ¢Ø¨Ø§Ø¡ÙĩÙħ": 5235, "ĠÙħØŃÙĦÙĩ": 9070, "ĠÙĦØºÙģÙĪØ±": 3039, "ĠÙĦÙĬØºÙģØ±": 4176, "ĠÙĪØ°ÙĦ": 9443, "ÙħÙĪØ§ÙĦ": 2043, "ĠÙĬØ¨ÙĬ": 5690, "ĠÙĦØ³Ø§ÙĨ": 3480, "ĠØªØ±Ø¶ÙĪÙĨ": 7489, "Ø¨Ø¹ÙĪØ«ÙĪÙĨ": 3414, "ĠØ¯Ø®ÙĦØ§": 7936, "ĠÙħÙĦÙĥØ§": 3331, "ĠÙĪÙĬØ¨ØºÙĪÙĨÙĩØ§": 6832, "Ø£Ø®Ø°ÙĪØ§": 7420, "ĠÙģØªÙĤØ¨ÙĦ": 8325, "ĠØ±Ø§Ø¹ÙĪÙĨ": 9484, "ĠØ¨Ø·": 1218, "ĠÙĨØ´Ø±Ùĥ": 5840, "ÙģØ§Ùĩ": 6244, "ĠÙĨØµØ±Ø§": 6498, "Ø¶Ø¹Ùģ": 1447, "ĠØ¬Ø¨Ø§Ø±": 4097, "Ø¸ÙĦÙħÙĪØ§": 4329, "Ø¹Ùħ": 170, "ĠØ£Ø±Ø§ÙĥÙħ": 5261, "ÙĦÙĬ": 93, "ĠÙĪØ®ÙĦÙĤ": 2414, "ĠÙģÙĪÙĦÙĪØ§": 7281, "ĠØ§ÙĤØª": 2725, "Ø¯": 62, "ĠØ±ØŃÙħØªÙĩ": 1831, "ĠÙĬØ³ÙħØ¹ÙĪØ§": 7327, "ÙĤØ³ÙħØ§ÙĨ": 7345, "ĠÙĬØªØ±Ø¨Øµ": 6121, "ÙĩÙĪØ±Ø§": 8099, "ÙĪØ«": 4590, "ĠÙģÙĥÙĬÙģ": 1829, "ĠÙĩØ§ÙħØ§ÙĨ": 9141, "ĠÙĪØ¬Ø§Ø¡": 1293, "Ĩ": 37, "ØªØ§ÙĨ": 2846, "ĠÙĪÙħØ«ÙĦ": 6270, "Ø¸ÙĨÙĪÙĨ": 7828, "ĠØ¸ÙĩÙĬØ±": 9381, "ĠØ£Ø¨ÙĨØ§Ø¦ÙĩÙĨ": 10146, "ĠÙĪÙĬØŃÙĤ": 5983, "ĠÙĦÙĨØ¨ÙĪØ¦ÙĨÙĩÙħ": 10299, "ĠØ¨Ø¶Ø¹": 7375, "ÙĨØ§Ùģ": 1311, "ĠÙĨØ°": 956, "ĠÙĬØ³Ø£ÙĦÙĥ": 9889, "ĠØ¶ÙĬ": 5058, "ĠØ¢Ø¨": 842, "ĠØ¨Ø¢ÙĬØ§Øª": 505, "Ø®ÙĬØ±": 3538, "ĠØ§Ø³": 1519, "ĠØ§ÙĦØ¶Ø§ÙĦÙĬÙĨ": 3874, "ĠÙĦØ¯ÙĬ": 5270, "ĠØ§ÙĦØ£ÙĨØ«ÙĬÙĬÙĨ": 3904, "Ø§Ø¶ÙĬØ©": 4420, "ĠØ´Ø±Ø§": 7800, "ĠØ¥ÙĦÙĩÙĥ": 8587, "ĠØ§ÙĦØ·ÙĪÙģØ§ÙĨ": 8789, "Ø¶Ø±Ø§": 5813, "ĠØ¨Ø®ÙĦÙĪØ§": 7369, "ĠÙĪØ§ÙĦÙĬÙĪÙħ": 1359, "ĠÙĪÙĥØ§ÙĨÙĪØ§": 1035, "ĠÙĪØ§ÙĦÙħÙĦØ§Ø¦ÙĥØ©": 2013, "ĠØ±ÙĤÙĬØ¨Ø§": 9486, "ĠØ¥ÙĬÙħØ§ÙĨÙĩÙħ": 3811, "ĠÙģØ£Øµ": 1201, "ĠØ£ÙĨØ²ÙĦÙĨØ§": 941, "ĠÙĤØ§ØµØ±Ø§Øª": 6957, "ĠØµÙĪØ±ÙĥÙħ": 7988, "Ø®Ø§": 4046, "ĠØ£ØªÙī": 3461, "Ø²Ø¹ÙĪØ§": 7572, "ĠÙĬØ³ØªØ¹ØªØ¨ÙĪÙĨ": 7024, "Ø¨ÙĬ": 203, "Ø°Ø±ÙĩÙħ": 1728, "ĠÙĨØµØ±": 1396, "ØŃÙĬÙĬ": 2019, "ĠØ«ÙħØ§": 4148, "ĠØ§ÙĦØ´Ø¯ÙĬØ¯": 8353, "ĠØ§ÙĦÙħØ´Ø§Ø±ÙĤ": 10250, "ĠÙĦØ§Ø¨": 5680, "ĠØ®ÙģØªÙħ": 3193, "ĠÙĦÙĪØ§ÙĤØ¹": 6886, "ĠÙĪØ²ÙĪØ±Ø§": 8872, "ĠÙĪÙĬØŃÙĦÙģÙĪÙĨ": 9396, "ÙĪØ·": 7105, "ĠØªØ¨ØµØ±ÙĪÙĨ": 2794, "ĠÙĦÙĩØ§": 901, "ĠÙĬØ¯Ø®": 2004, "ĠÙħØ¹Ø°Ø±ØªÙĩÙħ": 8104, "ÙĦÙĪÙĦØ©": 7079, "ØªÙĩÙħ": 328, "ĠÙĦÙĩÙħ": 186, "ĠÙĦØ¹ÙĦÙħ": 7300, "ĠØ®Ø¨ÙĬØ±": 1289, "ĠÙĬÙĨØµØ±": 2368, "ĠÙģÙĪØ±": 5665, "Ø±Øª": 7119, "ĠÙģØ¥Ø°": 7993, "ĠØ¶Ø±Ø¨ÙĨØ§": 6675, "ĠÙĦ": 65, "ĠÙĪØ£ÙĬØ¯ÙĨØ§Ùĩ": 9572, "Ø¨ÙĩÙħ": 1758, "ĠÙĪØ¥ÙĨ": 210, "ĠÙĦÙĦØ¹Ø§ÙĦÙħÙĬÙĨ": 2160, "ĠÙĦØ°ÙĥØ±": 3968, "ĠÙĬÙĤÙĬÙħØ§": 6430, "ĠØ¬Ø§Ø¡ØªÙĥÙħ": 4227, "ĠØ§ÙĥØªØ³Ø¨ÙĪØ§": 9720, "ĠØªØ±ÙĪÙĩØ§": 6187, "ĠØ§ØµÙĦÙĪÙĩØ§": 9438, "ĠÙĨØ´Ø§Ø¡": 1602, "Ø°Ø¨": 206, "Ø§ØªÙĦÙĪØ§": 1866, "ĠØ§ÙĦØºØ§Ø¨Ø±ÙĬÙĨ": 3295, "ĠÙĪØ§Ø³ÙħØ¹": 8108, "ĠÙħØ³Ø§ÙĥÙĬÙĨ": 8517, "ĠÙĦÙĥØ§Ø°Ø¨ÙĪÙĨ": 2749, "ĠÙĪÙĬØ¨": 2506, "ĠØ¢ÙĬØ§Øª": 404, "ÙĪÙĦÙĪØ¯": 5872, "ĠÙĪÙĬØŃÙĬÙī": 7906, "ĠØ¶ØŃØ§ÙĩØ§": 8339, "Ø§ÙĨÙĬÙĪÙĨ": 9164, "ĠÙĬÙĪÙħØ§": 1830, "ĠÙĬØ±Ùĩ": 6155, "ĠØªØ¬Ø¹ÙĦÙĨØ§": 6346, "ĠØªØ±Ø¶Ø§Ùĩ": 10068, "ĠØ£Ø®Øª": 6382, "ĠÙħÙĨØ¹": 3128, "ĠØ¹ÙħØ¯": 6418, "ØµÙģ": 2199, "Ø¨Ø¦": 831, "ĠØ¥ÙģÙĥ": 3499, "ĠÙģØ§Ø¨": 5660, "ĠÙĥØ«ÙĬØ±Ø§": 859, "ĠÙĪØ£ØºØ±ÙĤÙĨØ§": 4841, "ÙĦÙĪÙĨØ§ÙĩÙħ": 7929, "ĠØ§ÙĦØ°ÙĦ": 5847, "ÙĦØŃÙĬÙĨ": 6362, "ĠÙĦÙĥØ¨ÙĬØ±ÙĥÙħ": 10004, "ĠÙĬÙĥØ§Ø¯": 2750, "ĠØ³ÙĪØ§Ø¡": 1249, "ÙħÙĬÙĦ": 5564, "ØµØ±": 390, "Ø¹ÙĦÙĩ": 2849, "ĠØ³Ø¨ÙĦ": 7661, "ĠØµØ¨Ø±Ø§": 2933, "ÙģÙĬØ¸": 8460, "ĠÙĪÙĨØ¨": 8242, "ĠØ¨Ø°ÙĨÙĪØ¨ÙĩÙħ": 3391, "ĠØ§Ø¯Ø§Ø±Ùĥ": 8943, "ĠÙĪØ¬ÙĨØ§Øª": 3643, "ĠÙĥØ£ÙĨÙĩÙħ": 2425, "ĠØ§ÙĦØ¯Ø§Ø±": 2106, "ĠÙĬØ³ÙĬØ±": 2760, "ĠØªÙĨÙģØ¹": 3725, "ĠØ§ÙĦØ³Ø§ØŃØ±": 7879, "ĠÙĥÙģÙĪØ±Ø§": 3143, "ĠØ§ÙĦØ±Ø§Ø²ÙĤÙĬÙĨ": 4143, "ĠÙħØŃÙħØ¯": 4627, "ĠØªÙĨØ·ÙĤÙĪÙĨ": 8616, "ĠÙħØªØªØ§Ø¨Ø¹ÙĬÙĨ": 8803, "ĠØ¢Ø¨Ø§Ø¤ÙĥÙħ": 4373, "ĠØ£Ø¥ÙĦÙĩ": 4419, "Ø¹ÙĦÙħÙĨ": 3203, "Ø§ÙĦØ¯ÙĬ": 5578, "ĠÙĨØ¹Ùħ": 785, "ĠØ£Ø«Ø§Ø«Ø§": 9283, "ĠØ¨Ø£Ø³ÙħØ§Ø¦": 9175, "ĠÙĦØ¨Ø«": 1910, "ĠÙħØ¤Ø°ÙĨ": 9467, "ĠØ´Ø±ÙĥØ§Ø¡": 2149, "ĠØ·ÙĬØ±Ø§": 6206, "ĠØ®Ø±Ø¯ÙĦ": 10256, "ĠÙĪØ§ØªÙĦ": 4311, "ĠÙĬØ£ØªÙĥÙħ": 3680, "Ø®ÙĦØ§": 3146, "ĠÙĨØ°ÙĬØ±Ø§": 5248, "ĠÙĨÙĥØ±": 7613, "ĠØŃØ³ÙĨØ§": 1378, "ĠØŃØ¯ÙĬØ«": 1912, "Ø³Ø¬Ø¯": 4650, "ĠØ¬Ø§Ø¡ÙĩÙħ": 928, "ĠÙģØ£Ø³Ø±": 4926, "ĠØ´ÙĨØ¢ÙĨ": 7807, "ĠÙģØªÙĪÙĥÙĦ": 8319, "ĠÙĬØ¯Ø®ÙĦ": 2387, "Ø¹ÙĬÙĨ": 1061, "ĠÙģØ§Ø¹ÙĦÙħÙĪØ§": 3666, "ĠØ§ÙĦÙģØªØŃ": 4604, "Ø£ÙĬÙħØ§ÙĨÙĩÙħ": 7422, "ÙĦØ§ÙĨ": 5750, "ØŃØ²": 1776, "ĠÙĬØ³ØªØ·ÙĬØ¹": 8453, "ĠØ§ÙĩØªØ²Øª": 9400, "ĠØ¨Ø¨Ø¯": 7359, "ĠØ£ØºÙĪÙĬØªÙĨÙĬ": 10019, "ĠØ³ÙħØ¹ÙĨØ§": 1836, "ĠØ§ÙĦØ¨ÙĬØª": 2272, "ÙħÙĬØ©": 6213, "Ø¨Ø¹ÙĪÙĨ": 1681, "ĠÙĪØ§Ø¹Ø¨Ø¯": 8107, "ĠÙĦÙĦÙħØ´Ø±ÙĥÙĬÙĨ": 5170, "ĠÙĦØ£ÙħØ§ÙĨØ§ØªÙĩÙħ": 10138, "ØªÙĬÙĩ": 2528, "ĠÙģÙĦØ£": 6178, "ĠÙĪÙĬÙĥÙģØ±": 5984, "ĠÙģØ£ØŃÙĬ": 7948, "ĠØ§ÙĦØ¬ÙĨØ©": 760, "ĠÙĦÙĥÙĦÙħØ§ØªÙĩ": 8344, "ÙĤÙĬÙĨ": 331, "ĠØ·Ø§Ø¦Ø±ÙĥÙħ": 9098, "ĠÙĦØºØ§ÙģÙĦÙĬÙĨ": 9131, "ĠÙģÙĤ": 509, "ĠÙĪØ£ÙĥØ«Ø±ÙĩÙħ": 3894, "ØµØ±Ùģ": 3284, "ĠÙħØ¹ÙĨØ§": 3646, "ĠÙģØ£Ùħ": 4925, "ĠÙħÙĥÙĨÙĪÙĨ": 6501, "ĠÙĨØ³ÙĬØª": 6452, "ĠØ§ÙĦØ±Ø¬Ø²": 6687, "ĠÙĪÙĦØ¯": 1291, "Ø§Ø¨ÙĦ": 7640, "ĠÙĨØ¤ÙħÙĨ": 2481, "ĠØ¯Ø§Ø®Ø±ÙĪÙĨ": 9863, "ĠØ¨Ø£ÙĩÙĦÙĩ": 8292, "ĠÙĪØªØªÙĤÙĪØ§": 2949, "ĠØ¹Ø¨Ø³": 7449, "ĠÙĬÙħÙĬ": 3482, "Ø¨ÙĪÙĨ": 731, "ĠØ³ÙĦÙĬÙħØ§ÙĨ": 2485, "ĠØ§ÙĦÙĨÙģØ³": 3263, "ÙħØ£ÙĨ": 5565, "ĠØ¨Ø¶Ø±": 4706, "ĠÙĦØ³ØªÙħ": 9518, "ĠØ£ÙĥÙĪÙĨ": 2637, "ĠÙģÙĨØ³ÙĬ": 9809, "ĠØ¹Ø°Ø§Ø¨": 291, "ĠØªØŃÙħÙĦÙĪÙĨ": 9822, "ĠØ§ÙĦÙħØ®ÙĦØµÙĬÙĨ": 2908, "ĠÙĨØ§ÙĤØ©": 4807, "ĠÙĪØ§ÙĦØ¨": 1246, "ĠÙħÙħØ³Ùĥ": 7213, "ĠÙģÙĤÙĬØ±Ø§": 8618, "ĠØ¨Ø£Ø³ÙħØ§Ø¦ÙĩÙħ": 10318, "ĠØ§ÙĦØ£ÙĬÙħØ§ÙĨ": 7813, "ĠØ¬ÙĩØ§Ø¯Ø§": 10087, "ĠØ§ÙĦØ¨ØµÙĬØ±": 5123, "ĠØ¢Ø°ÙĨ": 5870, "ĠÙĪØªØ¤": 8150, "ĠÙĪØ£Ø¶ÙĦ": 3571, "ĠÙĬØ±ÙĪØ§": 1229, "ĠÙĩÙħØª": 8079, "ĠÙĦØ£": 444, "Ø§Ø¯ÙĬØ«": 4147, "ĠÙĪØ£ÙĦÙĤÙĪØ§": 9391, "ØŃÙĬÙĪÙĨ": 6440, "Ø«Ø§Ø¡": 7694, "ĠÙĪØ§ÙĦØµ": 1319, "ĠØ§ÙĦÙħØ³ÙĥÙĬÙĨ": 5220, "ĠÙĪÙĬØ¯Ø®ÙĦÙĩÙħ": 7900, "ĠÙĬØ¶ÙĦÙĩ": 8996, "ĠÙĬØ¯Ø¹": 2555, "ĠØªÙĤØªÙĦ": 7491, "ĠØ§ÙĦØ¨": 465, "ĠØ®ÙĦÙĤØª": 3678, "ĠÙĪØªØµÙģ": 8156, "ĠÙĦÙĬØŃØ²ÙĨ": 10110, "ĠØ¶": 353, "ØµØ±Ùĥ": 8404, "Ø§ÙĦØ©": 2045, "Ø®ÙĪØ§ÙĨÙĥÙħ": 4440, "ĠØ£ØµØ§Ø¨Ùĥ": 6611, "ØªØ§ØªØ§": 7184, "ØŃØ§ÙĩØ§": 4430, "ĠÙħÙĬØª": 3453, "ĠÙĬØ®Ø²ÙĬÙĩ": 6978, "ÙĨÙĬÙĩ": 8050, "ÙħØ±Ø§Øª": 2103, "ĠÙģÙĦÙĥÙħ": 6179, "ĠØ£ØŃØ³ÙĨÙĪØ§": 4390, "ĠØ´Ø¹ÙĬØ¨Ø§": 3384, "ÙĪÙĥÙħ": 730, "ĠÙĪÙĨÙħ": 6194, "ÙĬØªÙĩØ§": 6310, "ĠÙĪÙĬØ¤ÙħÙĨ": 7890, "Ø´Ø£ÙĨØ§": 6638, "ĠÙħÙģ": 3449, "ĠÙĦØ£Ø¸ÙĨÙĩ": 8501, "ĠÙĪØ´Ø¯Ø¯ÙĨØ§": 9279, "ĠÙģØ§Ø³ØªØº": 8932, "ĠÙĨÙĤØ±": 7624, "Ø±ØŃ": 1083, "ĠØ¬Ø¯ÙĬØ¯": 2912, "Ø§ÙĨÙĩ": 3548, "ĠÙĪØ²ÙĥØ±ÙĬØ§": 8874, "ĠØªØ¹ÙĦÙħÙĪØ§": 4328, "ĠÙħØµÙģØ±Ø§": 6585, "ĠÙĪØ§ÙĦØ²ÙĥØ§Ø©": 9837, "ĠØŃØ¬Ø§Ø±Ø©": 4444, "ĠØ®ÙĦØ§ÙĦÙĩ": 9664, "ÙĩÙģ": 3425, "ĠØ§ÙĦÙĤÙĪÙĬ": 6045, "ĠÙģÙĪØ±Ø¨Ùĥ": 10049, "ĠØªÙĦÙĤ": 2194, "Ø±Ø§Ø¬Ø§": 7833, "ĠØ¢Ø¨Ø§Ø¦ÙĩÙĨ": 9899, "ØªÙĨØ¨ÙĪØ§": 3847, "ĠÙĬØ²": 1107, "ĠÙĬØ¬Ø¹ÙĦ": 1596, "ÙĩÙĨÙĪØ§": 4977, "ĠØ§ÙĦÙĪÙĩØ§": 5587, "ĠÙħØ±ØŃØ¨Ø§": 8508, "ĠÙĪØ±ÙĩØ¨Ø§": 8476, "ĠÙħØ´ÙģÙĤÙĬÙĨ": 7041, "ĠÙĬØµÙĦØ§ÙĩØ§": 8782, "ĠÙĪØ§ÙĦØ£ÙĤØ±Ø¨ÙĪÙĨ": 6934, "ĠØ³ÙħÙĬØ¹": 1452, "ĠÙģØ§Ø³ØªÙĤÙĬÙħÙĪØ§": 8934, "ĠØ§ÙĦÙħØ¬ÙĬØ¯": 9776, "ĠØ§Ø¨ØªÙĦØ§Ùĩ": 9894, "Ø§ØºÙĪØª": 3024, "ÙĬØŃØ©": 2142, "ĠÙħØ§": 115, "ĠÙĬØ¶ÙĬØ¹": 4686, "ĠØ£ÙĬØ¯ÙĬÙĩÙħ": 1081, "ÙĤØ¯Ø±": 1521, "ĠØ§ÙĦØ´ÙĬ": 596, "ĠØ¨Ø¥ÙĬÙħØ§ÙĨ": 8863, "ĠØ§ÙĦÙħØ¹ÙĦ": 7734, "ĠÙħØ°ÙħÙĪÙħØ§": 9740, "ĠÙģÙĦÙĬÙħØ¯Ø¯": 10051, "ĠÙĪØ£Ø²ÙĦÙģØª": 10079, "ĠÙĪØ¥ÙĨÙĩ": 1328, "ĠÙĪØ³Ø±": 4612, "ĠÙĬÙĨØµØ±ÙĪÙĨ": 1649, "ĠÙĦÙĬÙĦØ©": 2938, "ĠØ¨Ø±ØŃÙħØªÙĥ": 10154, "ĠØ£Ø³": 581, "ĠØ®ÙĦÙĤÙĨØ§ÙĥÙħ": 3034, "ĠÙģØ§ØµØ¨Ø±ÙĪØ§": 9327, "ĠØ§ÙĦØ¨ÙĬÙĨØ©": 7136, "ĠØ¹ÙĬÙĨØ§": 3131, "ĠÙħØ¹Ø±ÙĪÙģØ§": 3864, "ĠØ§Ø³ØªØ¶Ø¹Ùģ": 3717, "ĠÙģØ¦ØªÙĬÙĨ": 10048, "ĠÙĦØ¬ÙĩÙĨÙħ": 6728, "ĠÙĪÙĬØ³ØªØ¹Ø¬ÙĦÙĪÙĨÙĥ": 7070, "Ø¦ÙĬ": 7700, "ĠØ¨Ø§ÙĦØ¹Ø±ÙĪØ©": 9974, "ĠÙĦØ£Ø²ÙĪØ§Ø¬Ùĥ": 10139, "ĠÙĦÙĬÙĤ": 2936, "ĠØ¨Ø£ÙĬØ¯ÙĬÙĩÙħ": 6874, "Ø±Ø¶Ùī": 2708, "ÙĦØ§ÙĨÙĬØ©": 4740, "Ø¹ÙħØª": 4906, "ĠÙħØ¹ÙĬØ´": 6769, "ĠÙĪÙħÙĦØ¦": 3287, "ĠÙĬØ´ÙĥØ±ÙĪÙĨ": 2734, "ĠÙĬÙĨØ¨Ø¦ÙĥÙħ": 8135, "Ø¹ÙĦÙħÙĪØ§": 1051, "ÙĩØ¯ÙĩÙħ": 7992, "ĠÙĪÙĦÙĬÙĨØ§": 7836, "ĠØ¨Ø¦Ø³ÙħØ§": 6865, "ĠØºØ·Ø§Ø¡": 8042, "ĠØ£ÙĪÙĦØ¦Ùĥ": 397, "ĠØ§ÙĦÙĤÙħØ±": 4170, "ĠØ§ÙĦÙĨØ´ÙĪØ±": 8240, "ĠÙĪØ§Ø³Ø£ÙĦ": 9171, "ĠØ¨Ø¯ÙĦÙĩ": 9203, "ĠÙĪØ£ÙĨØ¨ØªÙĨØ§": 6203, "ÙĤÙĬÙħ": 594, "ĠØ§ÙĦØ£ÙĥØ¨Ø±": 4877, "Ø³ØŃ": 1433, "ĠØªØ§Ø¨ÙĪØ§": 2600, "ĠØ§ÙĦÙħÙĥÙĬØ§ÙĦ": 9840, "ĠØ£ÙĨÙĥ": 3552, "ĠÙħØ¹Ø§": 4199, "ĠÙĪØ§ÙĦÙħÙĨØ§ÙģÙĤØ§Øª": 4574, "ĠÙĦÙĤÙĪÙħÙĩ": 2132, "Ø¯Ø§ÙħØ©": 8199, "ĠØ³ÙģØ±": 3162, "ĠÙĪØ§ÙĦÙĬØ³": 7604, "Ø¹Ø¸": 3946, "ĠÙĪØ¹Ø§Ø¯": 3278, "ĠØªØ¨Ø§Ø±Ùĥ": 3526, "Ø°ÙĥØ±ÙĪØ§": 1016, "ĠØªØŃØªÙĩØ§": 1014, "Ø®Ø·Ùģ": 4768, "ĠØ§Ø³Ùħ": 1583, "ĠÙħØªÙħ": 4619, "ĠÙģÙĨØª": 5669, "ØŃÙģØ§": 5734, "ĠÙĬØ·Ø¨Ø¹": 6615, "Ø§Ø¦ÙĬÙĦ": 890, "Ø«Ø§": 2336, "ØµØ±ÙĬÙĨ": 4268, "ĠØ¹Ø´Ø±Ø§": 7445, "ĠÙĤÙĬÙħØ§": 7527, "ĠØ§ÙĦØºÙĬØ«": 8522, "Ø¹ÙĬÙĨÙĪØ§": 6575, "ĠØ°Ø§": 1461, "ĠÙĪØ¥ÙĦÙĬÙĨØ§": 5945, "ĠØ§ÙĦØ±Ø¬Ø§ÙĦ": 3377, "ĠØ°Ø±Ø©": 3603, "ĠØºÙĦØ§Ùħ": 4962, "ØªÙĬØªÙħ": 8061, "ĠÙĨØ¨Ø§ØªØ§": 8925, "ĠØ£ÙĦØ³ÙĨØªÙĥÙħ": 9387, "ÙĥØ¨Ø±ÙĪÙĨ": 2054, "ĠØ¨Ø±Ø³ÙĪÙĦ": 7376, "ĠÙĬØ±ØŃÙħ": 8184, "ĠÙĦÙĨÙĨØµØ±": 8374, "ĠØ§ÙĦÙĤØ¯ÙĪØ³": 9496, "ĠØ£ØµØ¯ÙĤ": 8494, "ĠØ³Ø¨ÙĤ": 3798, "ĠØ¬Ø²ÙĬÙĨØ§ÙĩÙħ": 8909, "ĠÙģØ²Ø¹": 7286, "ĠØ´Ø¦": 1878, "ĠÙĪØ§ÙĤ": 4201, "ĠÙħØ³Ùĩ": 3711, "ĠÙĨØ°ÙĬØ±": 1172, "ĠØªØ¨Ø¹": 2317, "ØªØ§Øª": 5614, "ĠØ·ÙĩÙĪØ±Ø§": 8277, "Ø´ÙĬØ§Ø·ÙĬÙĨ": 6545, "Ø§Ø": 92, "ĠÙģÙĤØª": 7279, "Ø¸Ùħ": 2706, "ĠÙģÙĬÙĩÙĨ": 2674, "ĠØªØŃÙħÙĦ": 3527, "ÙħÙĩ": 2166, "ĠØ¢ØªÙĬÙĥÙħ": 5299, "ĠÙĪØ£ØŃÙĬ": 5879, "Ø®Ø±ÙĪÙĨ": 1630, "ĠÙĦØ§ÙģØª": 5914, "ÙĤØ¹Ø¯ÙĪØ§": 7344, "ĠÙĦÙĬØªÙĨØ§": 8000, "ĠØ®Ø·Ø£": 9371, "ĠØ¸Ø§ÙĦÙħÙĬ": 9678, "ĠÙĪÙĬØ°Ø±ÙĪÙĨ": 5985, "Ø®Ø±": 172, "ÙĦÙī": 108, "ĠØ´Ø±ÙĥØ§Ø¦ÙĬ": 4401, "ĠÙģØ¹ÙħÙĬØª": 10192, "Ø±ÙĪÙĨÙĥ": 7887, "ĠÙĪØ§ÙĦ": 107, "ĠÙĦÙĦØ°ÙĬÙĨ": 576, "ĠÙĨØ§Ùģ": 4798, "Ø§ÙĩØ¯ÙĪÙĨ": 6465, "ĠÙĦØ³Ø§": 4668, "ĠÙģØ§ØªØ¨Ø¹ÙĪÙĨÙĬ": 10311, "Ø²ÙĤ": 487, "ĠØ·ÙĦØ¹": 5037, "ĠØ±Ø²ÙĤÙĨØ§ÙĩÙħ": 2580, "ĠØ²Ø§Ø¯ÙĩÙħ": 6900, "ĠÙĬØµÙĬØ¨": 3327, "Ø¨ÙĦØ©": 6086, "ĠØ°ÙĦÙĥ": 233, "Ø¨Ø¦Ø³": 2579, "ØªØ±ÙĥÙĪÙĨ": 6907, "Ø³Ø®Ø±ÙĪÙĨ": 7265, "ĠÙħÙĨÙĥÙħ": 474, "ĠØ£Ø¯ÙĦÙĥÙħ": 6493, "ĠØ£ÙĪØ¹Ø¬": 7870, "ĠØ¹Ø¨Ø§Ø¯Ø§": 8685, "ĠØ§ÙĦÙħØ§ÙĥØ±ÙĬÙĨ": 9918, "ĠØ¨Ø§ÙĦØ£ÙħØ³": 5401, "ĠØ£ÙĬØ§ÙħØ§": 5646, "ĠÙĪØ±": 431, "ĠØªØ¹Ø°Ø¨ÙĩÙħ": 8535, "ĠØ£ÙĦÙħ": 582, "ÙĪØ¯": 326, "ĠÙĦÙĦÙĨØ§Ø³": 807, "ĠÙģØµØ¯ÙĩÙħ": 9748, "ĠÙĪØ³Ø¨ØŃØ§ÙĨ": 9508, "ĠÙĦØ¦ÙĨ": 1184, "ĠÙģØ¥ÙħØ§": 3216, "ĠØ§ÙĦØ¥ÙĬÙħØ§ÙĨ": 3308, "ĠÙĦÙĥÙħØ§": 3274, "Ø¬Ø±Ø©": 1524, "Ø¦ÙĨØ©": 7704, "ĠØ¹ÙħÙĦÙĩÙħ": 8707, "ĠØ§ÙĦÙĤØµ": 3217, "ÙĬØ£Ø³ÙĪØ§": 10176, "ÙĦØ§ØªÙĥ": 7464, "ÙĦÙħØ§": 679, "ĠØ¨Ø³Ø·": 4707, "ĠÙħÙĤØ¯Ø§Ø±Ùĩ": 10043, "ĠØ£Ø±Ø§Ø¯": 1544, "Ø¬Ø±ÙĪØ§": 2102, "ĠÙĬØ±Ø¶": 4674, "ĠÙĤØ³ÙħØ©": 9948, "ĠÙĬØ§Ø¨Ø³Ø§Øª": 10058, "ĠØ£Ø¬ÙĦ": 1374, "ÙħØ³Ùĥ": 3294, "Ø§ÙĨÙĬ": 1316, "ĠØ®Ø³Ø±": 3585, "ĠÙĨØ¨Ø¯ÙĦ": 7633, "ĠØ§ÙĦØ£Ø¨ÙĪØ§Ø¨": 7817, "ĠØ¬Ø¦ÙĨØ§": 5281, "ĠÙħØ³Ø¦": 4300, "ĠÙĨÙĩÙĦÙĥ": 7627, "ĠØµØ¨Ø±": 3213, "ĠÙĪÙĨÙĤØµ": 8250, "ĠØ£Ø°ÙĦØ©": 5341, "ÙĪÙĬÙĨØ§": 7107, "ØµØ§Ø±Ø§": 7555, "ÙĥØ°Ø¨ÙĬÙĨ": 1550, "ĠØªÙħÙĨ": 2871, "ĠÙĦØªØ³Ø£ÙĦÙĨ": 9680, "ĠÙĪØ¹": 366, "ÙĨØªÙĩØ§": 5107, "ĠØ´Ø·Ø±Ùĩ": 9851, "Ø¬Ø¯": 358, "ĠØ£Ø¹ÙħØ§ÙĦÙĥÙħ": 2793, "ĠØµÙģØ§": 3214, "ĠØ³Ø§Ø¯Ø³ÙĩÙħ": 10077, "ĠØ¥Ø®ÙĪØ§ÙĨØ§": 9597, "ĠÙĪÙģØ¶ÙĦÙĨØ§ÙĩÙħ": 10163, "ĠØ§Ø³ØªØºÙģØ±": 8558, "ĠØ£ÙĦÙĬÙħØ§": 2031, "ĠØ¨Ø®ÙĦØ§ÙĤÙĩÙħ": 10159, "ĠØ¹ÙĦÙħØªÙħ": 3720, "ĠÙģØ§ØªÙĥÙħ": 6541, "ĠÙĬØ´Ø§ÙĤÙĤ": 10126, "ĠÙĪÙĦØ°ÙĬ": 7838, "ĠÙĬØ¶ØŃÙĥÙĪÙĨ": 6566, "ÙĪØ±Ø§Ø©": 1658, "ØªØ¯": 2442, "Ø¹ØªÙħ": 3458, "ĠØ§ÙĦØ¨Ø§": 7129, "Ø§ÙģØ±ÙĬÙĨ": 519, "ĠØµØ§ØºØ±ÙĪÙĨ": 10107, "ĠØ§ÙĦØ¨ÙĤØ±": 6334, "ĠØ§ÙĦÙĬ": 1491, "ØŃÙī": 4715, "ĠÙĥÙĬØ¯ÙĩÙĨ": 9257, "ĠØ¸Ø§ÙĩØ±": 5510, "ĠÙĤØ§Ø¦ÙĦ": 6707, "ĠØªÙĩÙĪ": 7470, "ĠØªØ´Ø§Ø¡ÙĪÙĨ": 9558, "ĠÙĪØ§ÙĦØ£Ø¹ÙĨØ§Ø¨": 8164, "ĠØ¸Ø§": 3673, "ĠÙĬØªÙĪÙĥÙĦ": 6120, "ĠØ£ÙĪØª": 5973, "ĠÙĬØ£Ø®Ø°ÙĩÙħ": 9727, "ĠÙĪØ§ÙĦØ£ÙĨØ«Ùī": 5390, "ĠØ®ÙĬØ±": 437, "ĠÙĦÙĩÙĨ": 2098, "ĠÙĦØ¨Ø§Ø³": 5483, "Ø¥": 106, "ĠÙĨØ°ÙĤÙĩ": 6548, "ĠÙħØªÙĥØ¦ÙĬÙĨ": 3415, "ĠØ±Ø¬Ø³": 5172, "ĠØ§ÙĦÙģØ³": 3079, "ĠØ¨Ø§ÙĦÙĨ": 4128, "ĠØ¬Ø¹ÙĦÙĨØ§ÙĩÙħ": 8894, "ĠØ¹Ø§Ø¨Ø¯": 9562, "ĠØ¨ÙĪÙĦ": 7354, "ĠØ¹Ø²ÙĬØ²": 1110, "ĠØ§ÙĦÙħØ¶Ø§Ø¬Ø¹": 7750, "ĠÙĬÙħØªØ±ÙĪÙĨ": 9937, "ĠØ´Ø·Ø±": 4110, "ĠØ§ÙĦØµØ§ÙĦØŃÙĪÙĨ": 6385, "ĠÙĪÙĥÙĨØª": 4951, "ĠÙĪØªØ´": 8149, "Ø«ÙĬÙħ": 7695, "ĠÙģÙĥØ£ÙĨÙħØ§": 7069, "ĠØ¨Ø§ÙĦÙħØ¤ÙħÙĨÙĬÙĨ": 3826, "ĠÙĪØ£ÙĪÙĦ": 4075, "ĠÙĬØ¹ÙĤÙĪØ¨": 4264, "ĠØ¬ØŃÙĬÙħ": 7775, "ĠØ§ÙĦØ¯Ø±Ø¬": 8209, "Ø¹ÙħÙĩ": 3612, "ĠÙĪÙĤÙĦÙĨ": 9106, "ĠÙĥÙĪÙĥ": 5778, "ĠÙĪØ§Ø³ØªÙĥØ¨Ø±ÙĪØ§": 5255, "ĠØ§ÙĦØ±ØŃÙħÙĨ": 355, "ĠÙĬØ¬Ø¹ÙĦÙĩ": 6372, "ĠÙĪÙĦØ¹Ø¨Ø§": 6766, "ÙĪØ²Ø§": 3352, "ĠÙĪØ¹Ø¯ÙĨØ§": 4326, "ĠÙħØ¯Ø¯ÙĨØ§ÙĩØ§": 9006, "ĠØªØºÙĨ": 5351, "ĠÙħØ±Ø¬Ø¹ÙĩÙħ": 4487, "Ø¤ÙħÙĨÙĬÙĨ": 375, "ĠÙĦÙĦÙĬ": 5679, "ĠØ§ÙĦØ£ÙĪØªØ§Ø¯": 10258, "ĠØŃÙĨÙĬ": 2339, "ĠÙĬØ¨Ø¯ÙĬÙĨ": 9217, "ĠØ´ÙģØ¹": 4109, "ĠØ£Ø¬ÙĦÙĩÙħ": 3690, "ĠØ§ÙĦØ£ÙħÙĨ": 7808, "Ø¬Ø§": 2071, "ĠØ£ÙĥØ«Ø±ÙĩÙħ": 984, "ĠÙĪØ±ÙģØ¹ÙĨØ§": 4535, "Ø¨ØªÙħ": 2626,
[...]
